[PAD]	0
[CLS]	0
[SEP]	0
[UNK]	0
[MASK]	0
<0x00>	0
<0x01>	0
<0x02>	0
<0x03>	0
<0x04>	0
<0x05>	0
<0x06>	0
<0x07>	0
<0x08>	0
<0x09>	0
<0x0A>	0
<0x0B>	0
<0x0C>	0
<0x0D>	0
<0x0E>	0
<0x0F>	0
<0x10>	0
<0x11>	0
<0x12>	0
<0x13>	0
<0x14>	0
<0x15>	0
<0x16>	0
<0x17>	0
<0x18>	0
<0x19>	0
<0x1A>	0
<0x1B>	0
<0x1C>	0
<0x1D>	0
<0x1E>	0
<0x1F>	0
<0x20>	0
<0x21>	0
<0x22>	0
<0x23>	0
<0x24>	0
<0x25>	0
<0x26>	0
<0x27>	0
<0x28>	0
<0x29>	0
<0x2A>	0
<0x2B>	0
<0x2C>	0
<0x2D>	0
<0x2E>	0
<0x2F>	0
<0x30>	0
<0x31>	0
<0x32>	0
<0x33>	0
<0x34>	0
<0x35>	0
<0x36>	0
<0x37>	0
<0x38>	0
<0x39>	0
<0x3A>	0
<0x3B>	0
<0x3C>	0
<0x3D>	0
<0x3E>	0
<0x3F>	0
<0x40>	0
<0x41>	0
<0x42>	0
<0x43>	0
<0x44>	0
<0x45>	0
<0x46>	0
<0x47>	0
<0x48>	0
<0x49>	0
<0x4A>	0
<0x4B>	0
<0x4C>	0
<0x4D>	0
<0x4E>	0
<0x4F>	0
<0x50>	0
<0x51>	0
<0x52>	0
<0x53>	0
<0x54>	0
<0x55>	0
<0x56>	0
<0x57>	0
<0x58>	0
<0x59>	0
<0x5A>	0
<0x5B>	0
<0x5C>	0
<0x5D>	0
<0x5E>	0
<0x5F>	0
<0x60>	0
<0x61>	0
<0x62>	0
<0x63>	0
<0x64>	0
<0x65>	0
<0x66>	0
<0x67>	0
<0x68>	0
<0x69>	0
<0x6A>	0
<0x6B>	0
<0x6C>	0
<0x6D>	0
<0x6E>	0
<0x6F>	0
<0x70>	0
<0x71>	0
<0x72>	0
<0x73>	0
<0x74>	0
<0x75>	0
<0x76>	0
<0x77>	0
<0x78>	0
<0x79>	0
<0x7A>	0
<0x7B>	0
<0x7C>	0
<0x7D>	0
<0x7E>	0
<0x7F>	0
<0x80>	0
<0x81>	0
<0x82>	0
<0x83>	0
<0x84>	0
<0x85>	0
<0x86>	0
<0x87>	0
<0x88>	0
<0x89>	0
<0x8A>	0
<0x8B>	0
<0x8C>	0
<0x8D>	0
<0x8E>	0
<0x8F>	0
<0x90>	0
<0x91>	0
<0x92>	0
<0x93>	0
<0x94>	0
<0x95>	0
<0x96>	0
<0x97>	0
<0x98>	0
<0x99>	0
<0x9A>	0
<0x9B>	0
<0x9C>	0
<0x9D>	0
<0x9E>	0
<0x9F>	0
<0xA0>	0
<0xA1>	0
<0xA2>	0
<0xA3>	0
<0xA4>	0
<0xA5>	0
<0xA6>	0
<0xA7>	0
<0xA8>	0
<0xA9>	0
<0xAA>	0
<0xAB>	0
<0xAC>	0
<0xAD>	0
<0xAE>	0
<0xAF>	0
<0xB0>	0
<0xB1>	0
<0xB2>	0
<0xB3>	0
<0xB4>	0
<0xB5>	0
<0xB6>	0
<0xB7>	0
<0xB8>	0
<0xB9>	0
<0xBA>	0
<0xBB>	0
<0xBC>	0
<0xBD>	0
<0xBE>	0
<0xBF>	0
<0xC0>	0
<0xC1>	0
<0xC2>	0
<0xC3>	0
<0xC4>	0
<0xC5>	0
<0xC6>	0
<0xC7>	0
<0xC8>	0
<0xC9>	0
<0xCA>	0
<0xCB>	0
<0xCC>	0
<0xCD>	0
<0xCE>	0
<0xCF>	0
<0xD0>	0
<0xD1>	0
<0xD2>	0
<0xD3>	0
<0xD4>	0
<0xD5>	0
<0xD6>	0
<0xD7>	0
<0xD8>	0
<0xD9>	0
<0xDA>	0
<0xDB>	0
<0xDC>	0
<0xDD>	0
<0xDE>	0
<0xDF>	0
<0xE0>	0
<0xE1>	0
<0xE2>	0
<0xE3>	0
<0xE4>	0
<0xE5>	0
<0xE6>	0
<0xE7>	0
<0xE8>	0
<0xE9>	0
<0xEA>	0
<0xEB>	0
<0xEC>	0
<0xED>	0
<0xEE>	0
<0xEF>	0
<0xF0>	0
<0xF1>	0
<0xF2>	0
<0xF3>	0
<0xF4>	0
<0xF5>	0
<0xF6>	0
<0xF7>	0
<0xF8>	0
<0xF9>	0
<0xFA>	0
<0xFB>	0
<0xFC>	0
<0xFD>	0
<0xFE>	0
<0xFF>	0
.	-2.8746
:	-3.33587
▁*	-3.40724
,	-3.47314
s	-3.69847
▁the	-3.70398
'	-3.85062
CHI	-4.12835
▁a	-4.24272
▁I	-4.30246
?	-4.32699
▁to	-4.3414
▁and	-4.36621
▁you	-4.36673
▁of	-4.52126
MOT	-4.52519
▁it	-4.67184
▁in	-4.73264
t	-4.8446
▁that	-4.89956
▁[	-5.00484
▁=	-5.00634
]	-5.02975
▁is	-5.15536
▁was	-5.20621
▁on	-5.3492
▁he	-5.45057
▁for	-5.51968
▁-	-5.56766
▁"	-5.57258
▁what	-5.58503
-	-5.59059
▁	-5.60808
!	-5.64433
▁with	-5.68781
ed	-5.72449
ing	-5.73254
▁have	-5.80591
▁not	-5.85164
m	-5.86055
▁be	-5.89002
▁do	-5.89562
▁me	-5.92302
re	-5.92461
▁they	-5.92629
d	-5.93442
▁one	-5.98918
▁this	-6.00174
▁his	-6.02431
▁we	-6.03604
▁no	-6.04216
▁can	-6.05905
’	-6.06238
▁her	-6.07367
▁at	-6.07389
FAT	-6.08085
▁know	-6.1263
▁up	-6.12984
▁had	-6.13626
▁she	-6.15282
▁there	-6.1545
▁your	-6.15738
▁are	-6.1611
▁don	-6.17517
▁all	-6.18212
...	-6.18672
;	-6.18964
▁like	-6.19947
▁as	-6.20211
▁my	-6.20227
▁The	-6.21142
▁so	-6.26243
▁from	-6.29141
▁but	-6.30256
▁an	-6.32367
ll	-6.33979
▁'	-6.34815
▁out	-6.36036
▁him	-6.38185
▁He	-6.39186
▁It	-6.396
▁said	-6.40829
▁A	-6.41517
▁You	-6.44451
▁get	-6.44881
▁go	-6.47131
▁were	-6.48097
▁them	-6.49619
▁sec	-6.51245
▁just	-6.53314
▁about	-6.54257
▁some	-6.5673
▁here	-6.57371
n	-6.57372
▁see	-6.57805
y	-6.58513
ly	-6.61786
▁by	-6.6251
▁would	-6.62652
▁or	-6.63513
▁xxx	-6.63695
▁put	-6.65863
▁if	-6.69044
▁did	-6.70719
▁when	-6.72393
▁want	-6.73389
▁right	-6.74693
er	-6.75182
▁think	-6.75391
▁little	-6.75426
▁who	-6.78273
▁oh	-6.79108
e	-6.79505
I	-6.8005
▁now	-6.80924
▁B	-6.81673
ve	-6.82914
▁where	-6.85575
▁very	-6.8591
▁got	-6.86131
▁over	-6.87197
▁how	-6.87303
▁back	-6.88523
▁good	-6.89425
▁“	-6.90494
▁down	-6.91707
▁What	-6.92417
▁And	-6.92594
▁time	-6.92966
▁man	-6.9341
a	-6.93534
▁could	-6.93806
▁going	-6.93848
▁more	-6.94383
INV	-6.94396
▁then	-6.94903
▁will	-6.95218
URS	-7.01208
▁come	-7.01463
▁been	-7.02503
"	-7.02847
▁their	-7.02941
▁S	-7.03143
,"	-7.0319
▁other	-7.04149
▁two	-7.0444
▁(	-7.05385
▁No	-7.05728
▁yeah	-7.06436
▁off	-7.06624
▁which	-7.06754
."	-7.0698
▁say	-7.08513
S	-7.12755
▁has	-7.12951
▁well	-7.15606
▁make	-7.16285
].	-7.16581
▁gonna	-7.17976
▁She	-7.1836
▁too	-7.19258
▁take	-7.19413
▁okay	-7.20817
▁look	-7.22098
▁%	-7.22102
▁yes	-7.22452
r	-7.22629
▁We	-7.2315
▁into	-7.23524
▁silver	-7.23758
▁boy	-7.25035
▁people	-7.25037
BRO	-7.25231
in	-7.26362
▁But	-7.26603
▁way	-7.26784
▁Oh	-7.2758
al	-7.28528
▁They	-7.28897
▁base	-7.28969
▁let	-7.34287
▁any	-7.3677
▁de	-7.37317
▁why	-7.38156
▁Yeah	-7.39979
▁tell	-7.40115
COL	-7.40348
▁That	-7.40578
o	-7.40731
▁black	-7.43771
es	-7.44857
▁Mommy	-7.44886
▁dat	-7.45997
)	-7.46226
▁much	-7.47315
▁us	-7.48477
▁something	-7.5042
▁never	-7.509
▁first	-7.5224
▁Well	-7.52435
▁i	-7.52611
▁t	-7.54089
▁In	-7.54867
▁because	-7.55312
p	-7.57281
▁only	-7.57616
laughs	-7.58087
▁after	-7.59516
▁So	-7.59902
▁give	-7.60738
▁made	-7.61
▁d	-7.61096
?"	-7.62023
▁didn	-7.62125
▁Chi	-7.62266
▁need	-7.63237
▁these	-7.63314
▁away	-7.65159
▁day	-7.65547
▁another	-7.65606
▁write	-7.66105
▁home	-7.67071
▁dis	-7.67163
▁mean	-7.67263
▁long	-7.67549
▁than	-7.67638
▁again	-7.67974
▁boys	-7.68675
▁came	-7.6869
▁before	-7.68797
b	-7.68844
--	-7.69144
g	-7.70406
▁s	-7.70407
▁old	-7.70782
▁things	-7.71286
▁men	-7.72252
le	-7.73103
int	-7.73269
▁There	-7.7361
▁really	-7.73769
c	-7.74097
▁Adam	-7.74347
▁thing	-7.74903
▁wand	-7.76485
▁big	-7.76504
▁thought	-7.7753
▁wanna	-7.77601
▁should	-7.77633
▁doing	-7.77653
▁This	-7.77777
▁great	-7.78873
▁those	-7.79199
▁Yes	-7.80045
▁play	-7.80485
▁went	-7.81158
▁stick	-7.81708
▁Eve	-7.837
▁work	-7.83773
l	-7.83813
▁kind	-7.84542
▁C	-7.84909
add	-7.85021
▁uh	-7.85357
▁top	-7.85877
▁head	-7.85895
▁house	-7.86184
▁three	-7.86214
▁r	-7.86295
▁does	-7.86855
th	-7.87929
▁help	-7.88172
▁name	-7.88268
▁our	-7.88716
▁o	-7.89633
A	-7.90433
▁father	-7.91174
”	-7.91241
SIS	-7.91706
▁many	-7.92082
▁keep	-7.92633
▁paper	-7.92862
▁mother	-7.93018
▁water	-7.94135
▁always	-7.9449
en	-7.94741
▁must	-7.94792
▁through	-7.9505
/	-7.95214
i	-7.95403
▁love	-7.95739
▁girl	-7.96431
▁D	-7.96979
or	-7.97449
!"	-7.97712
an	-7.97837
▁eat	-7.98195
▁new	-7.98834
it	-7.9904
▁yellow	-7.99159
▁anything	-7.99349
▁am	-7.9937
▁re	-7.99632
▁around	-8.00023
se	-8.00051
▁even	-8.00213
▁last	-8.00304
▁place	-8.00624
D	-8.00983
▁P	-8.01345
▁f	-8.01463
▁hand	-8.01782
u	-8.02053
▁dog	-8.02368
▁How	-8.02717
▁ball	-8.03188
▁e	-8.03707
▁please	-8.04091
▁also	-8.04991
▁won	-8.05614
▁THE	-8.0633
▁most	-8.06345
on	-8.06817
▁night	-8.0714
▁Mr	-8.07257
▁find	-8.07407
▁talk	-8.07497
▁alright	-8.07509
▁might	-8.07513
▁E	-8.08177
▁such	-8.08591
▁part	-8.08689
▁Paul	-8.0903
▁♪	-8.09234
▁under	-8.10127
▁still	-8.10348
▁nice	-8.1055
▁car	-8.11676
▁turn	-8.12406
▁school	-8.12788
▁else	-8.13461
▁use	-8.13601
▁better	-8.13946
▁F	-8.14236
▁silence	-8.14849
▁If	-8.15319
▁found	-8.15451
—	-8.15522
▁doesn	-8.16403
ri	-8.16579
▁table	-8.16744
▁wait	-8.16766
▁Do	-8.1705
▁while	-8.17158
P	-8.17301
▁’	-8.17579
▁un	-8.18095
the	-8.18644
▁try	-8.19423
▁T	-8.19812
▁feel	-8.19947
▁done	-8.20362
▁sure	-8.20418
T	-8.2073
▁own	-8.20745
▁read	-8.21047
▁hard	-8.2113
k	-8.21268
ra	-8.21466
▁saw	-8.21748
la	-8.21826
▁children	-8.22479
▁!	-8.22829
▁told	-8.22992
▁side	-8.23041
▁end	-8.23079
h	-8.23082
ers	-8.23452
est	-8.23777
▁watch	-8.23832
▁c	-8.2388
▁thank	-8.2437
▁ever	-8.25447
▁enough	-8.25515
ur	-8.25783
▁baby	-8.2579
▁called	-8.25801
ar	-8.25852
▁same	-8.26544
▁together	-8.26588
▁next	-8.26794
▁Fraser	-8.26805
▁being	-8.27417
▁years	-8.27947
▁Mom	-8.27959
no	-8.28231
▁every	-8.28757
ting	-8.28826
▁family	-8.28891
▁Why	-8.28945
1:	-8.28999
▁Now	-8.29026
▁book	-8.29121
▁life	-8.29703
▁dear	-8.29754
ton	-8.29961
▁used	-8.30745
ic	-8.30747
us	-8.30958
▁magnet	-8.31331
C	-8.31509
The	-8.31509
▁ask	-8.31933
▁may	-8.32941
▁Come	-8.33284
▁asked	-8.33555
▁l	-8.33873
▁face	-8.34121
▁bed	-8.34275
▁Okay	-8.34354
▁sit	-8.34524
silver	-8.34811
▁best	-8.34883
ion	-8.35096
▁took	-8.36002
▁?	-8.36052
▁My	-8.36224
▁hear	-8.36448
▁O	-8.36574
▁money	-8.36886
–	-8.3746
▁guess	-8.38039
▁call	-8.38316
▁room	-8.38408
E	-8.38487
▁four	-8.38602
▁heard	-8.38752
▁letter	-8.39134
▁morning	-8.39209
▁bit	-8.3922
▁door	-8.39257
he	-8.39811
▁course	-8.40092
and	-8.40345
ir	-8.40604
▁M	-8.40654
▁lot	-8.40878
el	-8.41051
▁Unit	-8.4129
▁Mrs	-8.41748
lo	-8.41764
▁left	-8.41886
em	-8.41962
▁1	-8.42162
▁light	-8.42246
▁though	-8.4231
▁known	-8.42343
▁“‘	-8.43099
▁world	-8.43712
▁show	-8.44228
M	-8.44259
▁Guy	-8.44352
▁p	-8.44993
▁Cromer	-8.4526
▁Don	-8.45276
▁American	-8.45319
▁talking	-8.45761
▁game	-8.45952
▁All	-8.4623
▁Jane	-8.46533
▁n	-8.46803
▁few	-8.46838
▁quite	-8.46851
▁nothing	-8.46869
Possum	-8.47151
▁Then	-8.47264
is	-8.47355
▁until	-8.47469
▁knew	-8.47469
▁huh	-8.47479
il	-8.4774
▁sorry	-8.48124
▁open	-8.48124
▁G	-8.48131
▁Daddy	-8.48431
▁child	-8.48438
▁leave	-8.48554
f	-8.48866
▁coming	-8.49471
▁hm	-8.4957
▁soon	-8.50346
▁each	-8.50721
▁stay	-8.51066
ie	-8.51069
O	-8.51338
ro	-8.5139
Tilda	-8.52037
▁pencil	-8.52037
▁pretty	-8.52038
▁everything	-8.5204
ne	-8.52249
▁round	-8.52436
to	-8.52519
▁getting	-8.52595
▁When	-8.52754
▁young	-8.52993
▁seen	-8.52993
▁small	-8.53604
▁stop	-8.53723
▁drink	-8.53776
▁died	-8.5392
You	-8.53965
▁isn	-8.5397
ch	-8.54252
▁between	-8.54402
▁God	-8.54629
w	-8.54818
▁fish	-8.54829
▁‘	-8.55088
▁city	-8.55106
▁wanted	-8.55379
▁mind	-8.55435
▁without	-8.55531
▁States	-8.5579
▁himself	-8.55794
ce	-8.55876
8	-8.56087
_	-8.56456
▁far	-8.5748
▁red	-8.57593
▁high	-8.57625
▁care	-8.57665
▁upon	-8.57876
ation	-8.57903
1	-8.58183
li	-8.58224
de	-8.58294
▁eyes	-8.58335
man	-8.58582
▁Uh	-8.58609
▁story	-8.59307
▁question	-8.59364
▁age	-8.59407
▁looking	-8.59618
▁different	-8.59666
▁once	-8.59804
▁hafta	-8.6039
▁W	-8.60455
▁For	-8.60497
▁run	-8.60613
ta	-8.60689
▁[1	-8.60854
▁m	-8.60861
9	-8.61195
▁tape	-8.6128
put	-8.61338
▁erm	-8.61365
z	-8.61833
▁second	-8.61853
▁Right	-8.61861
.”	-8.62298
2	-8.62501
▁half	-8.62593
▁fire	-8.62704
▁today	-8.62764
▁born	-8.62826
▁start	-8.62844
▁J	-8.63166
▁municipality	-8.63337
▁On	-8.63337
▁having	-8.63339
▁October	-8.63347
▁real	-8.63676
▁Kitty	-8.64087
▁heart	-8.64236
▁mhm	-8.64464
▁maybe	-8.64481
▁says	-8.64715
ry	-8.65255
▁fine	-8.65262
▁believe	-8.65343
▁minute	-8.65437
▁yet	-8.65495
▁coffee	-8.65605
▁Thank	-8.6587
▁year	-8.65877
RIC	-8.66381
▁goes	-8.66604
▁piece	-8.66668
▁move	-8.67008
▁bad	-8.67129
▁gave	-8.67574
ive	-8.67601
▁hot	-8.67602
▁happened	-8.67702
▁um	-8.67929
▁New	-8.67948
ness	-8.68046
▁Are	-8.6811
▁gone	-8.68498
▁2019	-8.68633
▁Can	-8.68768
▁almost	-8.68774
▁Just	-8.69087
▁ready	-8.69333
▁Tom	-8.69445
▁voice	-8.69537
▁blue	-8.69544
▁hope	-8.69754
ist	-8.69911
▁Go	-8.6994
▁ten	-8.70009
hi	-8.70012
▁word	-8.70284
B	-8.70452
▁brother	-8.70664
▁b	-8.70756
▁chair	-8.71148
▁set	-8.7134
▁saying	-8.71537
▁hi	-8.71674
▁looked	-8.71747
▁actually	-8.71943
▁remember	-8.71999
▁near	-8.72045
▁woman	-8.72346
▁making	-8.72355
ad	-8.72723
▁yep	-8.72753
ul	-8.72829
5	-8.72925
▁Bro	-8.73149
▁both	-8.73431
6	-8.74025
▁five	-8.74039
▁Hey	-8.74175
3	-8.74512
te	-8.74684
G	-8.74703
ies	-8.7475
▁milk	-8.74792
▁To	-8.75266
v	-8.75273
able	-8.75282
▁town	-8.75389
▁along	-8.75489
▁whole	-8.75554
H	-8.75716
▁France	-8.76081
▁Let	-8.763
▁Look	-8.76967
4	-8.77152
▁against	-8.77417
▁dere	-8.77608
▁line	-8.77633
▁box	-8.77776
▁tree	-8.77957
▁began	-8.78224
▁Ursula	-8.78229
▁white	-8.78235
▁truck	-8.79095
▁er	-8.79487
▁L	-8.79911
▁Your	-8.79955
▁son	-8.8029
▁Ma	-8.80379
▁understand	-8.80428
▁Where	-8.80461
▁H	-8.80477
you	-8.80648
▁hurt	-8.80861
▁His	-8.8088
▁live	-8.80992
▁John	-8.81296
▁cup	-8.81373
R	-8.81658
▁stand	-8.81668
▁fact	-8.81682
ent	-8.82093
▁cut	-8.8219
▁sort	-8.82216
▁feet	-8.82262
▁goin	-8.82441
▁air	-8.82583
▁means	-8.82861
▁Mot	-8.82891
co	-8.83239
▁floor	-8.8357
▁days	-8.83751
▁bring	-8.83772
▁hey	-8.83958
▁later	-8.84073
▁mine	-8.84079
▁break	-8.84162
at	-8.84208
▁R	-8.8421
▁idea	-8.84439
Oh	-8.84622
vi	-8.84728
▁already	-8.84952
▁lady	-8.84977
And	-8.8511
▁color	-8.85171
▁objects	-8.85452
▁fun	-8.85709
am	-8.85791
▁wouldn	-8.86215
▁Switzerland	-8.86354
▁shall	-8.8639
▁fall	-8.86435
▁hold	-8.86443
▁district	-8.86826
▁playing	-8.8689
▁hands	-8.86896
et	-8.86975
▁juice	-8.873
N	-8.87412
▁pick	-8.87486
▁felt	-8.87776
▁sound	-8.87912
▁sometimes	-8.87961
▁4	-8.88019
▁party	-8.88101
▁Aileen	-8.88254
▁often	-8.8828
▁moment	-8.88285
▁spell	-8.88404
▁...	-8.88517
▁Sarah	-8.88738
▁trying	-8.88928
im	-8.8896
▁wrong	-8.89219
▁food	-8.89226
▁Who	-8.89243
▁mom	-8.89365
id	-8.89434
▁YOU	-8.89688
▁job	-8.89704
▁close	-8.89961
cause	-8.90013
▁hit	-8.9013
▁8	-8.9015
▁Not	-8.90335
▁person	-8.90832
um	-8.9109
na	-8.91177
ian	-8.91278
▁18	-8.91395
▁fell	-8.91425
▁friend	-8.91569
▁circle	-8.91676
▁7	-8.92105
▁K	-8.9238
Y	-8.92406
L	-8.92633
ment	-8.92705
▁turned	-8.92894
▁rest	-8.92933
▁happy	-8.9317
▁boat	-8.93229
7	-8.93406
▁September	-8.93692
▁till	-8.93692
▁wan	-8.93908
ate	-8.94049
▁death	-8.94182
▁Did	-8.94531
ck	-8.9461
U	-8.95006
as	-8.95521
ma	-8.95611
▁lunch	-8.95721
▁since	-8.9574
▁Vaud	-8.95829
▁lived	-8.96029
▁point	-8.96087
▁probably	-8.96253
2:	-8.96285
ity	-8.96728
▁dey	-8.96952
▁herself	-8.97315
▁seemed	-8.97498
".	-8.97533
pa	-8.97608
▁6	-8.9763
▁5	-8.97728
▁kitchen	-8.97809
▁beautiful	-8.97816
▁ice	-8.98427
picks	-8.98506
▁cold	-8.9888
▁poor	-8.98884
▁U	-8.98909
▁Good	-8.98942
▁number	-8.99074
▁front	-8.99405
ous	-8.99431
▁outside	-8.99468
mo	-8.99756
▁department	-8.99943
▁matter	-8.99945
▁mouth	-8.99967
▁state	-9.00006
▁someone	-9.00087
▁behind	-9.00483
less	-9.00649
▁St	-9.00694
Well	-9.00793
▁girls	-9.0092
▁George	-9.01027
▁brought	-9.01027
▁walk	-9.0149
▁3	-9.01517
ING	-9.01708
0	-9.02519
▁pull	-9.02526
▁six	-9.0264
But	-9.02875
▁h	-9.03089
▁g	-9.03117
▁commune	-9.03231
▁daddy	-9.03234
be	-9.03325
▁full	-9.0365
▁ain	-9.03772
▁10	-9.03886
▁sleep	-9.03891
▁One	-9.04064
▁large	-9.04317
▁yourself	-9.04382
F	-9.0439
▁July	-9.04404
▁sir	-9.04456
▁Mother	-9.04474
▁train	-9.04647
▁Ha	-9.04802
▁noise	-9.04857
▁lost	-9.04928
It	-9.0509
▁change	-9.05217
▁movie	-9.05305
up	-9.05482
ful	-9.05591
▁toward	-9.05909
ling	-9.05989
▁gotta	-9.06232
▁country	-9.06638
▁page	-9.06655
▁y	-9.06789
▁guy	-9.07109
x	-9.0722
▁hair	-9.07226
ge	-9.07355
born	-9.07424
▁speak	-9.07444
▁2	-9.07667
ant	-9.07764
▁across	-9.07871
▁N	-9.07922
age	-9.08042
▁At	-9.08395
▁bear	-9.08528
▁deal	-9.08756
ter	-9.09311
▁makes	-9.09351
▁looks	-9.09459
▁trouble	-9.09555
▁wasn	-9.09602
▁construction	-9.09603
▁war	-9.09658
▁throw	-9.09885
go	-9.10079
▁As	-9.10724
un	-9.11455
▁case	-9.11976
▁19	-9.12146
▁[2	-9.1224
▁Mm	-9.12263
▁short	-9.12466
▁true	-9.12568
▁haven	-9.12639
▁words	-9.12651
ia	-9.12743
▁funny	-9.13191
▁week	-9.13236
ol	-9.13541
▁Hi	-9.13752
▁friends	-9.13774
▁County	-9.13798
▁foot	-9.13831
ty	-9.13873
▁toy	-9.14265
▁started	-9.14351
▁2020	-9.14421
tic	-9.14489
▁member	-9.14489
les	-9.14531
SS	-9.14654
▁La	-9.14696
one	-9.14995
▁cool	-9.15112
▁tried	-9.15132
",	-9.15141
cha	-9.15225
▁dur	-9.15541
▁th	-9.15714
ish	-9.15736
▁12	-9.15941
▁Garth	-9.16312
▁airplane	-9.16314
▁Of	-9.16344
▁ran	-9.16367
▁pay	-9.16392
▁guys	-9.16466
▁nut	-9.16681
▁20	-9.16927
Chi	-9.17045
▁May	-9.1711
ha	-9.17173
▁buy	-9.17301
▁Or	-9.17351
▁couldn	-9.17573
▁ago	-9.17821
but	-9.17926
▁eight	-9.18133
▁street	-9.18229
▁perhaps	-9.18251
▁became	-9.18878
▁duck	-9.18908
▁dead	-9.18977
▁Get	-9.19085
▁become	-9.19282
▁afraid	-9.19532
▁kept	-9.19532
.7	-9.19555
▁clear	-9.19596
▁times	-9.1996
▁able	-9.20093
▁sugar	-9.2019
▁stuck	-9.20192
K	-9.20306
▁2019)	-9.20325
What	-9.20486
son	-9.20518
▁comes	-9.20789
▁played	-9.20852
▁AND	-9.2086
▁given	-9.20863
NA	-9.2111
ho	-9.21314
▁blow	-9.2148
▁meet	-9.21705
▁lay	-9.21712
ens	-9.21775
▁bag	-9.21817
LL	-9.21836
▁business	-9.22182
▁sounds	-9.2234
takes	-9.22371
▁east	-9.22633
▁soft	-9.22813
▁daughter	-9.22865
▁green	-9.22865
huh	-9.22921
▁King	-9.23314
we	-9.23489
▁nine	-9.23554
▁running	-9.23566
▁January	-9.2357
do	-9.2365
▁among	-9.2365
▁myself	-9.24267
me	-9.24476
▁knock	-9.24624
▁kill	-9.24642
▁strong	-9.24922
▁alone	-9.24925
▁area	-9.25263
ca	-9.2533
▁miss	-9.25509
▁w	-9.25555
▁ride	-9.25573
▁reason	-9.25598
▁snow	-9.25618
▁somebody	-9.25634
▁Re	-9.2565
▁After	-9.25652
▁pro	-9.26009
Yes	-9.26033
po	-9.26116
▁An	-9.26136
▁trunk	-9.26314
▁Papa	-9.26322
▁taking	-9.26358
ver	-9.266
▁wish	-9.26636
▁inside	-9.26732
▁glad	-9.27052
▁sitting	-9.27093
▁Have	-9.27251
▁feeling	-9.2726
▁music	-9.27279
▁minutes	-9.27329
▁Be	-9.27799
▁ahead	-9.282
red	-9.28241
ig	-9.28441
▁April	-9.28472
▁broken	-9.28565
▁careful	-9.2905
▁Doubs	-9.29161
▁either	-9.29173
▁co	-9.29223
▁writing	-9.29237
No	-9.29417
▁Her	-9.29621
▁picture	-9.29631
▁drop	-9.29791
▁politician	-9.29886
▁wife	-9.29887
ey	-9.29923
▁Boy	-9.29986
ward	-9.3017
▁taken	-9.30275
▁Ah	-9.30346
▁straight	-9.30385
We	-9.30502
ley	-9.30526
▁stuff	-9.30619
▁body	-9.30671
▁sun	-9.30864
W	-9.30899
▁ha	-9.31199
▁sticks	-9.31241
▁past	-9.31418
▁sing	-9.31506
ted	-9.31736
▁wagon	-9.31846
▁draw	-9.31986
▁rather	-9.32094
▁early	-9.32184
ba	-9.32414
▁land	-9.32433
▁twenty	-9.32838
▁spoon	-9.32839
▁river	-9.32844
▁sent	-9.32926
▁butter	-9.3308
ni	-9.33117
▁send	-9.33293
▁touch	-9.33333
tries	-9.33581
▁Because	-9.33631
),	-9.33959
▁ring	-9.33999
▁worked	-9.34298
ke	-9.34349
▁Maybe	-9.34386
Franc	-9.34424
He	-9.34448
▁finished	-9.34644
▁dress	-9.3472
▁happen	-9.35062
▁hat	-9.35081
▁da	-9.35088
▁stood	-9.35111
▁Florence	-9.35111
▁population	-9.35111
▁jump	-9.35222
ine	-9.35428
▁sign	-9.35559
▁answer	-9.35564
▁present	-9.35745
▁nose	-9.35756
▁V	-9.35781
▁working	-9.35815
▁easy	-9.3588
▁Christmas	-9.35899
▁team	-9.36145
▁tomorrow	-9.36223
▁die	-9.36276
▁hour	-9.36546
▁balls	-9.36632
▁Harwood	-9.36657
▁Kansas	-9.36764
▁17	-9.36894
▁15	-9.3731
▁tired	-9.37515
▁ex	-9.37623
▁road	-9.37623
▁listen	-9.37624
▁wear	-9.37707
ay	-9.38161
▁wind	-9.38173
▁Bourg	-9.38225
for	-9.38389
▁le	-9.38523
▁eating	-9.38763
pe	-9.38884
▁De	-9.39007
▁cheese	-9.39017
▁Here	-9.39039
▁doctor	-9.39111
▁See	-9.39124
▁fit	-9.39154
▁ma	-9.3921
▁TO	-9.39312
▁9	-9.39509
▁wood	-9.39598
va	-9.39659
▁mo	-9.39695
▁several	-9.39818
▁themselves	-9.39818
▁seven	-9.39819
ring	-9.39871
▁thinking	-9.40354
,’	-9.40356
ogne	-9.40624
▁living	-9.40624
▁stool	-9.40624
▁whether	-9.40624
▁Peter	-9.40645
▁With	-9.40671
▁gun	-9.40856
▁arm	-9.40974
pi	-9.41071
▁la	-9.41294
▁fast	-9.41365
ally	-9.41385
▁President	-9.41437
▁OF	-9.41459
▁sweet	-9.41461
▁wants	-9.4151
▁push	-9.41527
▁Me	-9.41555
▁passed	-9.41688
▁fight	-9.4195
Comté	-9.42257
▁#	-9.42258
bo	-9.42398
▁k	-9.42524
ance	-9.42539
ga	-9.42655
da	-9.42702
▁Se	-9.42718
V	-9.42842
▁ah	-9.42947
▁tonight	-9.43062
▁University	-9.43084
▁store	-9.43085
▁window	-9.43108
▁Please	-9.43109
▁seems	-9.43153
all	-9.4355
▁clean	-9.43585
▁English	-9.43916
▁company	-9.43916
▁14	-9.44035
▁fear	-9.44183
▁pieces	-9.44222
▁finish	-9.44429
▁cover	-9.44451
▁seem	-9.44477
▁trees	-9.4455
per	-9.44692
▁dinner	-9.44757
▁least	-9.44757
▁held	-9.44788
▁sick	-9.44795
▁tail	-9.44832
▁fellow	-9.44861
ard	-9.44864
ick	-9.44867
▁aren	-9.4502
▁evening	-9.4529
by	-9.45315
▁nuts	-9.45499
▁hundred	-9.45604
▁uhhuh	-9.45653
▁horse	-9.45686
▁group	-9.4569
▁bird	-9.45752
▁named	-9.46038
ny	-9.46144
vo	-9.46198
▁ground	-9.46464
▁clothes	-9.46479
▁tea	-9.46519
▁By	-9.46616
▁late	-9.47267
▁pen	-9.47309
▁Laura	-9.47323
▁Jack	-9.47365
▁usually	-9.47371
▁free	-9.47445
▁seat	-9.47659
▁bite	-9.4774
▁form	-9.47754
if	-9.47903
▁standing	-9.47948
ut	-9.47988
▁warm	-9.48042
▁summer	-9.48192
time	-9.48244
led	-9.48269
▁teacher	-9.48298
▁broke	-9.48933
▁star	-9.48944
▁service	-9.49068
▁spring	-9.49073
▁caught	-9.49073
▁tower	-9.49077
▁breakfast	-9.49081
▁OK	-9.49099
▁March	-9.49136
▁song	-9.49325
▁record	-9.49512
ow	-9.4956
▁pie	-9.49826
ci	-9.49904
▁apple	-9.49954
▁Some	-9.50083
that	-9.50574
▁catch	-9.50591
holds	-9.50672
▁birds	-9.50751
▁million	-9.50799
▁dark	-9.50851
▁bottom	-9.50861
▁French	-9.50864
▁busy	-9.50929
day	-9.50959
▁hole	-9.51181
▁fix	-9.51431
ial	-9.51653
▁sat	-9.51742
▁Jean	-9.51747
▁chance	-9.51755
▁power	-9.51766
▁cream	-9.51811
▁phone	-9.51875
▁clip	-9.51902
▁killed	-9.52177
▁former	-9.52244
rs	-9.52596
▁capital	-9.52656
▁circus	-9.52656
▁giving	-9.52702
▁whatever	-9.52905
▁23	-9.52967
▁pre	-9.53004
▁order	-9.5337
▁bar	-9.53453
LDES	-9.53572
▁television	-9.53573
▁November	-9.53602
▁wonder	-9.53691
▁forward	-9.5407
▁lovely	-9.54223
of	-9.54241
▁force	-9.54462
▁Aggie	-9.54499
▁important	-9.54499
▁Town	-9.54502
▁shoot	-9.55102
ac	-9.55373
▁unclear	-9.55512
▁forget	-9.55661
io	-9.557
▁follow	-9.55737
bb	-9.55979
op	-9.56011
▁washer	-9.56315
ab	-9.56339
▁turtle	-9.564
▁dogs	-9.56477
▁act	-9.56628
▁fly	-9.56754
▁cake	-9.56834
house	-9.56968
▁Man	-9.56977
▁report	-9.57018
ER	-9.57235
▁strange	-9.57236
▁above	-9.57331
▁Nick	-9.57346
men	-9.57373
ee	-9.57648
▁clock	-9.57661
▁dad	-9.57738
▁problem	-9.57744
▁ho	-9.58003
▁others	-9.58075
▁return	-9.58102
▁longer	-9.58107
▁plastic	-9.58382
▁corner	-9.58407
di	-9.58471
▁v	-9.58588
▁block	-9.5874
referent	-9.58994
▁health	-9.59122
▁quiet	-9.59127
▁middle	-9.59267
▁lo	-9.59334
▁Hello	-9.59341
▁Thanks	-9.59665
▁laughing	-9.59677
▁Bo	-9.59755
▁fair	-9.59956
▁visit	-9.60207
▁village	-9.60242
▁supper	-9.60243
▁anybody	-9.60254
▁language	-9.60258
ti	-9.60267
▁mm	-9.60393
▁dream	-9.60423
▁con	-9.60769
way	-9.60771
▁less	-9.60906
▁moved	-9.60922
▁dem	-9.60972
▁Le	-9.61064
ence	-9.61222
▁Illinois	-9.61232
▁wrote	-9.61232
▁forgot	-9.61237
▁Miss	-9.61257
▁16	-9.61394
▁falls	-9.61458
ner	-9.61577
▁sister	-9.61749
▁win	-9.61798
what	-9.61866
That	-9.61866
▁IT	-9.61908
▁carry	-9.61984
▁Urs	-9.6225
▁cat	-9.62497
▁hell	-9.62699
gi	-9.6277
▁bath	-9.62772
▁finger	-9.62795
ak	-9.62889
ated	-9.62991
ug	-9.63033
▁police	-9.63223
▁afternoon	-9.63242
▁balloon	-9.63252
).	-9.63258
ere	-9.63294
ary	-9.63522
▁Ka	-9.63574
▁following	-9.63593
▁per	-9.63604
▁25	-9.63848
▁cross	-9.63967
ct	-9.64109
▁whom	-9.64132
mer	-9.64187
▁enjoy	-9.64263
▁August	-9.64314
▁flat	-9.64366
▁anyway	-9.64531
▁Dad	-9.64545
▁28	-9.64564
▁Ro	-9.64682
tion	-9.64699
▁loved	-9.64712
ure	-9.65218
▁series	-9.65295
▁exactly	-9.65308
▁Tripp	-9.65315
land	-9.65378
▁wonderful	-9.65482
not	-9.65505
ud	-9.65568
ng	-9.65675
▁meeting	-9.65826
▁IN	-9.6604
▁pop	-9.66155
moves	-9.66219
ON	-9.66232
ach	-9.66249
▁birthday	-9.66338
▁everybody	-9.6634
▁bread	-9.66354
▁low	-9.6648
nd	-9.66526
sh	-9.66569
▁eggs	-9.66593
▁Sir	-9.66655
.6	-9.66657
▁date	-9.66691
▁building	-9.66708
▁king	-9.67065
ki	-9.67142
ical	-9.67175
▁certain	-9.67254
▁fellows	-9.67299
▁grew	-9.67388
▁cried	-9.6739
▁plate	-9.67396
▁James	-9.67401
▁opened	-9.67412
▁December	-9.67421
▁ro	-9.67495
cu	-9.6751
▁belong	-9.67516
▁certainly	-9.67532
▁War	-9.67628
▁Sure	-9.6766
00	-9.67852
ap	-9.67934
▁beat	-9.67963
ex	-9.68068
▁region	-9.68452
▁football	-9.68457
▁bright	-9.68458
▁shut	-9.68458
▁kids	-9.68545
ka	-9.68563
▁check	-9.6858
▁main	-9.68636
▁pass	-9.6882
ran	-9.68832
▁onto	-9.68952
é	-9.68983
▁places	-9.69096
▁ear	-9.69163
▁figure	-9.69195
▁eye	-9.69339
▁sense	-9.69527
▁weeks	-9.6953
lin	-9.69654
places	-9.69666
▁13	-9.6977
▁law	-9.69835
▁cry	-9.70404
▁save	-9.70419
▁[3	-9.70475
1.5	-9.70535
▁basket	-9.70611
▁shot	-9.70619
▁People	-9.70636
▁Nothing	-9.70654
▁self	-9.70708
▁stone	-9.70754
▁crying	-9.70977
cr	-9.71006
▁flowers	-9.71065
▁22	-9.71118
clock	-9.71362
▁build	-9.71388
▁drive	-9.71571
mi	-9.71627
▁woods	-9.71673
▁current	-9.71713
▁thousand	-9.71713
▁River	-9.7172
▁ga	-9.71739
▁Sorry	-9.71762
▁June	-9.71776
con	-9.7188
▁band	-9.71905
▁instead	-9.71915
▁happens	-9.71952
▁cannot	-9.71974
▁waiting	-9.72137
ang	-9.72157
▁Pa	-9.72473
▁Indians	-9.72585
▁questions	-9.72645
▁wild	-9.72688
▁hate	-9.72725
▁special	-9.72782
▁magic	-9.72811
▁type	-9.72825
▁Really	-9.72837
▁winter	-9.72838
▁coat	-9.72864
▁lots	-9.73096
ez	-9.73195
▁reading	-9.73323
▁30	-9.73442
▁sl	-9.73601
▁hang	-9.73647
▁gold	-9.73924
▁bought	-9.73948
▁season	-9.73958
▁_	-9.74006
▁decided	-9.74037
points	-9.74056
▁dry	-9.74097
tor	-9.7428
▁puzzle	-9.74423
▁leaves	-9.74648
looking	-9.74788
ye	-9.74844
▁Even	-9.74868
min	-9.74869
▁shoe	-9.74896
▁North	-9.75076
▁census	-9.75084
▁written	-9.75099
▁stopped	-9.75102
▁wa	-9.75118
▁suddenly	-9.75137
▁legs	-9.75157
▁City	-9.7517
▁liked	-9.75171
▁recorder	-9.75234
que	-9.75252
▁Ki	-9.75412
▁ba	-9.75418
fi	-9.75725
▁gets	-9.75734
▁j	-9.75743
ub	-9.75848
▁test	-9.7586
▁office	-9.76229
▁California	-9.76233
▁worry	-9.76234
▁Jura	-9.76249
▁camp	-9.76257
▁en	-9.76439
▁whispered	-9.76448
ya	-9.76458
my	-9.765
▁wash	-9.76558
▁cha	-9.7682
▁suppose	-9.77129
▁pan	-9.77226
Nord	-9.77257
▁telling	-9.77366
▁pleasure	-9.77396
▁yesterday	-9.77396
ern	-9.77426
▁race	-9.77431
▁list	-9.77437
wa	-9.7747
▁Sa	-9.77574
.9	-9.77599
▁Ba	-9.77791
▁dese	-9.77818
▁attack	-9.78241
▁Bill	-9.78305
▁Ta	-9.78483
▁kid	-9.78486
▁background	-9.78573
▁grape	-9.78573
▁heavy	-9.78573
▁support	-9.78573
▁truth	-9.78573
▁honey	-9.78576
▁Grace	-9.78578
▁third	-9.78597
▁Great	-9.78598
▁election	-9.78629
▁position	-9.78675
▁sight	-9.78953
▁letters	-9.79009
▁interest	-9.79118
▁cook	-9.79149
1.2	-9.7916
▁leg	-9.79591
▁Mo	-9.79645
▁church	-9.79763
▁2011	-9.79768
▁Would	-9.79769
▁sentence	-9.79774
▁slowly	-9.79823
▁climb	-9.79827
▁wide	-9.80095
?”	-9.80157
▁works	-9.80299
*	-9.80315
▁Ar	-9.80332
▁Ca	-9.80336
clear	-9.80561
▁using	-9.80658
▁video	-9.80801
▁month	-9.80931
▁thirty	-9.80968
▁bottle	-9.80969
ru	-9.80971
▁simply	-9.80976
▁human	-9.80978
▁State	-9.80989
ff	-9.80998
▁released	-9.81067
▁appeared	-9.81182
out	-9.81316
▁Sis	-9.81317
bi	-9.81364
▁lives	-9.81597
▁washers	-9.81753
▁blood	-9.82047
▁cap	-9.82111
▁except	-9.82163
▁York	-9.82189
▁Lord	-9.8219
▁moving	-9.82225
▁metal	-9.8232
▁crack	-9.82501
▁Al	-9.82504
▁interesting	-9.82527
ction	-9.82662
▁within	-9.82847
▁problems	-9.82886
uff	-9.82905
ged	-9.82912
▁Nation	-9.82937
▁blocks	-9.82948
▁starts	-9.83014
▁rock	-9.83062
▁Ra	-9.83074
▁accident	-9.83413
▁Minister	-9.83422
▁pocket	-9.83422
▁Little	-9.83518
▁EXP	-9.83524
▁quickly	-9.8354
▁lion	-9.83572
▁San	-9.83609
▁hours	-9.83638
ise	-9.83674
▁Li	-9.83763
▁ye	-9.83885
mon	-9.83885
king	-9.8396
▁[.8	-9.84013
▁27	-9.8425
end	-9.84271
There	-9.84286
▁actor	-9.84335
▁holding	-9.84399
▁promise	-9.84404
os	-9.84424
▁games	-9.84439
sur	-9.84524
▁Robin	-9.84662
▁Diandra	-9.84672
▁vaudois	-9.84672
▁From	-9.84672
▁Keith	-9.84672
▁hurry	-9.84673
▁stories	-9.84674
▁government	-9.84686
▁ve	-9.84696
▁character	-9.84714
▁26	-9.84829
▁cow	-9.84843
HS	-9.84904
▁Mi	-9.84982
uck	-9.85004
▁Con	-9.85123
ah	-9.85153
▁asking	-9.85155
IN	-9.85214
▁ri	-9.8523
▁dose	-9.85281
J	-9.85415
▁()	-9.8542
RE	-9.85448
yellow	-9.85571
▁oatmeal	-9.85938
▁Canada	-9.85938
▁history	-9.85938
▁House	-9.85941
▁David	-9.85942
▁indeed	-9.85948
▁safe	-9.85977
▁itself	-9.86251
▁nearly	-9.86357
▁softly	-9.86357
▁ch	-9.86507
▁u	-9.86711
▁dance	-9.87031
▁monkey	-9.8722
▁president	-9.8722
▁stove	-9.8722
▁garden	-9.87221
▁court	-9.87222
▁sell	-9.87307
IL	-9.87329
▁Tell	-9.87347
▁books	-9.87503
AR	-9.8752
▁turning	-9.87793
let	-9.87939
ped	-9.88002
▁Y	-9.8805
▁secret	-9.88442
▁South	-9.88518
▁couple	-9.88519
▁silly	-9.88519
▁Visit	-9.88519
▁Robert	-9.88521
▁WE	-9.8855
▁earth	-9.88565
▁BRO	-9.88586
▁ya	-9.88771
▁supposed	-9.88819
▁anyone	-9.8885
▁followed	-9.88975
▁post	-9.8907
ack	-9.89385
Home	-9.89468
pull	-9.89469
▁button	-9.89562
▁count	-9.89623
▁brown	-9.89656
lthough	-9.89669
▁worth	-9.89692
▁general	-9.89699
▁sea	-9.89713
▁Wait	-9.89835
HV	-9.89858
▁magnets	-9.89886
ans	-9.89908
▁animal	-9.90017
▁FOR	-9.90055
very	-9.90094
1.3	-9.9039
▁walking	-9.90624
amp	-9.90728
▁11	-9.90731
▁farm	-9.90805
night	-9.90815
▁charge	-9.90909
▁yours	-9.91003
▁members	-9.91103
▁reach	-9.91135
▁Ho	-9.91146
▁stupid	-9.91168
▁tapioca	-9.91168
▁common	-9.9117
▁Party	-9.91175
▁Take	-9.91202
▁Lu	-9.91224
▁Che	-9.91226
▁nobody	-9.9123
▁arms	-9.91292
▁joy	-9.91407
▁shoes	-9.91426
▁24	-9.91629
▁Pe	-9.91655
▁news	-9.91766
ins	-9.91784
▁meat	-9.91977
▁laugh	-9.9208
room	-9.92105
like	-9.92211
ever	-9.92328
▁deep	-9.92417
▁Dr	-9.92507
▁fruit	-9.92519
▁medicine	-9.92519
▁napkin	-9.9252
▁women	-9.92522
▁key	-9.92536
▁Very	-9.92559
▁rose	-9.9258
▁rule	-9.92587
▁Will	-9.92634
▁created	-9.92661
▁joined	-9.92748
▁camera	-9.9283
gu	-9.92899
▁brave	-9.9291
▁Bu	-9.93089
▁po	-9.93139
BR	-9.93317
▁none	-9.93549
▁ca	-9.93758
▁doubt	-9.93892
▁hungry	-9.939
▁Like	-9.93902
▁shop	-9.93904
▁mistake	-9.93925
▁February	-9.93932
OR	-9.93937
▁orange	-9.93957
▁Stop	-9.93977
▁dropped	-9.94003
▁rough	-9.94009
▁Indian	-9.94165
They	-9.94223
▁tu	-9.94228
▁te	-9.94262
▁Joe	-9.94285
▁answered	-9.94479
▁burn	-9.94674
board	-9.94715
ot	-9.94904
=	-9.94907
%	-9.94912
▁spend	-9.94954
au	-9.94961
▁[4	-9.94997
▁School	-9.95278
▁attention	-9.95278
▁husband	-9.95278
▁public	-9.95278
▁Hank	-9.953
ARY	-9.95373
▁den	-9.9544
RA	-9.95536
▁bl	-9.95571
ai	-9.95616
▁fat	-9.95688
▁soup	-9.95755
▁parents	-9.95794
▁happening	-9.95872
▁player	-9.96
▁miles	-9.96001
▁di	-9.96051
so	-9.96112
▁quick	-9.96435
▁lift	-9.96458
▁Majesty	-9.96686
▁William	-9.96686
▁World	-9.96686
▁crazy	-9.96686
▁hospital	-9.96686
▁possible	-9.96686
▁space	-9.96686
▁built	-9.96686
▁difference	-9.96687
▁leaving	-9.96689
▁chicken	-9.96731
▁months	-9.96741
▁pretend	-9.96778
line	-9.96785
▁sub	-9.96842
▁Sha	-9.96919
▁step	-9.96993
▁Mark	-9.97032
")	-9.97155
▁pe	-9.97211
fe	-9.97227
▁offer	-9.97274
▁beside	-9.97305
▁soul	-9.97338
▁talked	-9.97442
ip	-9.97447
▁moves	-9.9768
paper	-9.97764
Now	-9.9781
▁breath	-9.97812
▁surprise	-9.97864
LE	-9.97994
▁Which	-9.98115
▁travel	-9.98115
▁teeth	-9.98115
▁trust	-9.98115
▁local	-9.98115
▁Vi	-9.98123
▁Italian	-9.9813
▁Two	-9.98149
▁pig	-9.98158
▁explain	-9.98172
▁term	-9.98558
She	-9.98561
▁plan	-9.98571
▁Mar	-9.98575
▁met	-9.98692
▁expect	-9.98901
▁st	-9.98901
she	-9.98908
gh	-9.98912
▁grow	-9.99004
▁sp	-9.99122
▁takes	-9.99149
val	-9.99234
▁smile	-9.99295
▁perfect	-9.9943
.5	-9.99452
▁Clavering	-9.99564
▁example	-9.99564
▁replied	-9.99564
▁paid	-9.99572
▁neck	-9.99575
▁stage	-9.9962
▁tv	-9.99754
▁period	-9.99812
▁Gus	-9.99906
▁lie	-9.99907
ef	-9.99947
▁Er	-9.99962
▁Mama	-9.99973
art	-10.0003
bout	-10.0006
song	-10.0022
ier	-10.0039
rk	-10.0039
▁simple	-10.004
▁walked	-10.0044
▁sh	-10.0052
▁lose	-10.006
▁cons	-10.0065
▁art	-10.0065
ble	-10.0082
▁rate	-10.0086
▁proud	-10.0091
ED	-10.0093
▁horses	-10.0095
▁carried	-10.0104
▁afterwards	-10.0104
▁ought	-10.0104
▁doggie	-10.0105
▁finally	-10.011
ber	-10.0114
Do	-10.0116
ron	-10.0125
▁field	-10.0126
▁action	-10.013
▁X	-10.0132
▁attempt	-10.0135
▁cr	-10.0139
Then	-10.0141
old	-10.0146
▁cookie	-10.0158
▁north	-10.0163
ism	-10.0178
▁roll	-10.0185
ler	-10.0204
▁toys	-10.0208
▁$	-10.0209
▁glance	-10.0216
▁animals	-10.0232
▁Z	-10.0245
ET	-10.0246
▁meant	-10.025
Illustration	-10.0253
▁Richard	-10.0253
▁briefcase	-10.0253
▁community	-10.0253
▁grass	-10.0253
▁beginning	-10.0253
▁swimming	-10.0253
▁2017	-10.0253
▁Danny	-10.0254
▁suit	-10.0255
▁Johnson	-10.0256
▁lake	-10.0257
▁lying	-10.0258
▁park	-10.0266
▁considered	-10.0274
aw	-10.0278
port	-10.0286
side	-10.0304
der	-10.0314
▁ME	-10.0317
▁learn	-10.0339
▁imp	-10.0347
▁mark	-10.0352
▁cause	-10.0355
▁seeing	-10.0365
▁(19	-10.0376
▁include	-10.038
▁21	-10.0386
▁cost	-10.039
▁pet	-10.0391
▁luck	-10.0394
▁glass	-10.0401
ake	-10.0402
▁Graham	-10.0404
▁Michael	-10.0404
▁throat	-10.0404
▁spot	-10.0405
▁market	-10.0406
▁baseball	-10.0409
▁experience	-10.0444
▁press	-10.048
▁bus	-10.0491
▁Lo	-10.0497
hy	-10.0505
▁ate	-10.0551
▁led	-10.0553
▁loud	-10.0554
▁natural	-10.0558
▁neither	-10.0558
▁Father	-10.0558
▁level	-10.0559
▁pink	-10.056
▁wow	-10.0561
▁station	-10.0561
▁bang	-10.0562
▁national	-10.0565
▁lap	-10.0566
▁received	-10.057
▁li	-10.0571
▁string	-10.0577
▁cos	-10.0641
▁gas	-10.0646
▁lead	-10.0656
▁singing	-10.0657
ened	-10.0663
ster	-10.0679
▁ng	-10.0685
▁British	-10.0714
▁smell	-10.0714
▁drew	-10.0714
▁Harry	-10.0716
▁www	-10.0717
▁mud	-10.0717
▁Santa	-10.0718
▁bigger	-10.0718
▁snake	-10.0723
▁Colin	-10.0724
▁chain	-10.0726
▁Fuck	-10.0728
▁slide	-10.0729
▁county	-10.0731
▁grown	-10.0732
ily	-10.075
So	-10.0751
▁31	-10.0763
xcuse	-10.077
CE	-10.0797
▁wheel	-10.08
▁Hu	-10.08
▁rich	-10.0823
ship	-10.0836
magnet	-10.0838
▁agree	-10.0842
ging	-10.0843
▁[5	-10.0859
▁spoke	-10.0859
▁card	-10.0863
▁Republic	-10.0868
▁England	-10.0873
▁system	-10.0873
▁terrible	-10.0873
▁married	-10.0873
▁fresh	-10.0873
▁Henry	-10.0873
▁tongue	-10.0873
▁especially	-10.0873
▁edge	-10.0874
▁everyone	-10.088
▁Russian	-10.088
▁master	-10.0884
▁moon	-10.0885
▁perfectly	-10.0888
▁class	-10.0892
hoo	-10.0892
ets	-10.0893
▁tall	-10.0896
lic	-10.0914
▁watching	-10.092
▁Car	-10.0923
▁sad	-10.0932
▁missed	-10.095
!’	-10.0957
II	-10.0998
▁notice	-10.1008
ew	-10.1028
▁honor	-10.1033
▁twelve	-10.1034
▁2013	-10.1035
▁kick	-10.1036
▁couch	-10.1036
nce	-10.1044
▁fallen	-10.1047
▁spread	-10.1047
▁horseshoe	-10.1049
▁Day	-10.1054
▁pad	-10.1071
▁laughed	-10.1074
▁vi	-10.1087
ite	-10.1087
▁career	-10.1089
▁changed	-10.1111
5.	-10.1121
▁needs	-10.1128
▁2022	-10.115
▁imagine	-10.1171
▁Pro	-10.1172
▁Ja	-10.1176
ther	-10.1182
▁add	-10.1182
▁2016	-10.1198
▁Saturday	-10.1198
▁Texas	-10.1198
▁track	-10.1198
▁Lucas	-10.1198
▁smart	-10.1198
▁elected	-10.1198
▁flag	-10.1199
▁trick	-10.1199
▁Roman	-10.1202
▁shirt	-10.1205
▁brain	-10.1205
▁showed	-10.1208
▁stack	-10.1222
ump	-10.1228
▁East	-10.124
ame	-10.1245
▁returned	-10.1255
▁nor	-10.1282
▁US	-10.1291
▁bell	-10.1313
▁picked	-10.1313
▁fl	-10.1322
▁Po	-10.1326
jo	-10.1327
ue	-10.1334
▁America	-10.1351
pr	-10.1364
▁chief	-10.1365
▁chocolate	-10.1365
▁empty	-10.1365
▁political	-10.1365
▁situation	-10.1365
▁twice	-10.1365
▁threw	-10.1365
▁pipe	-10.1365
▁professional	-10.1365
▁direction	-10.1366
▁pair	-10.1367
▁gu	-10.1371
▁spirit	-10.1371
▁crowd	-10.1373
▁hide	-10.1374
▁gay	-10.1389
My	-10.1403
▁board	-10.141
▁Co	-10.1424
AN	-10.143
▁share	-10.1466
je	-10.1471
wood	-10.1497
black	-10.1498
work	-10.1498
ung	-10.1511
▁treat	-10.1519
ound	-10.1529
Don	-10.1531
▁protect	-10.1532
WOM	-10.1534
▁Thomas	-10.1534
▁Albert	-10.1535
▁bike	-10.1536
▁Gros	-10.1536
▁grandfather	-10.1537
▁center	-10.1537
▁First	-10.1539
▁Perhaps	-10.154
▁MY	-10.1542
▁committee	-10.1544
▁bill	-10.1549
▁deer	-10.1551
▁handle	-10.1552
▁movement	-10.1554
▁continued	-10.1557
▁weren	-10.1558
▁wh	-10.1565
▁West	-10.157
▁wipe	-10.1572
▁dare	-10.1573
▁control	-10.1584
has	-10.1618
▁wheels	-10.163
▁Jo	-10.1632
▁arrow	-10.1646
ince	-10.1653
▁bu	-10.1655
ES	-10.1658
▁Was	-10.1664
attempt	-10.167
▁Da	-10.1672
▁fuck	-10.1679
▁beyond	-10.1707
▁darling	-10.1707
▁Smith	-10.1707
▁film	-10.1707
▁prize	-10.1707
▁Patch	-10.171
▁Listen	-10.1712
▁fence	-10.1713
▁official	-10.1719
▁however	-10.172
▁single	-10.1723
▁yard	-10.1727
▁Aye	-10.1732
▁allowed	-10.1736
▁ne	-10.1738
▁gri	-10.1743
▁boots	-10.1752
▁higher	-10.1764
ably	-10.179
▁flower	-10.1816
act	-10.1818
qui	-10.1841
oc	-10.1843
▁paint	-10.1844
Vaud	-10.1846
dy	-10.1851
iz	-10.1862
▁difficult	-10.1866
▁serious	-10.1869
ger	-10.188
▁Governor	-10.1882
▁THAT	-10.1882
▁diaper	-10.1882
▁sandwich	-10.1882
▁worse	-10.1882
▁extra	-10.1882
▁square	-10.1883
▁hunt	-10.1885
▁shit	-10.1887
car	-10.1902
▁expected	-10.1923
▁Cr	-10.1929
oop	-10.1931
▁needed	-10.195
1.1	-10.1972
▁begin	-10.2016
Mother	-10.2025
top	-10.2033
pos	-10.2045
▁fool	-10.2061
ping	-10.2061
▁Friday	-10.2061
▁Queen	-10.2061
▁choice	-10.2061
▁Jesus	-10.2061
▁highchair	-10.2062
▁exclaimed	-10.2065
▁excuse	-10.2065
▁upstairs	-10.2065
▁frightened	-10.2073
▁points	-10.2074
ham	-10.208
▁manner	-10.2081
▁swing	-10.2088
▁Every	-10.2093
▁coin	-10.2095
▁Does	-10.2109
hu	-10.2111
▁Ri	-10.2124
▁Bar	-10.2124
▁hall	-10.2128
▁mad	-10.2156
ors	-10.2156
▁mostly	-10.2176
▁holds	-10.2177
▁frog	-10.2177
▁whoa	-10.218
▁Gu	-10.2192
ssed	-10.2207
▁Any	-10.2221
▁groups	-10.2224
▁2014	-10.2235
▁respect	-10.2243
▁cherry	-10.2243
▁dozen	-10.2243
▁soldier	-10.2243
▁2012	-10.2243
▁wake	-10.2253
sings	-10.2253
▁Give	-10.226
▁movies	-10.2304
▁bother	-10.2305
over	-10.2324
ties	-10.2325
▁fill	-10.233
▁Cos	-10.2338
18	-10.2348
ST	-10.2356
DAN	-10.2364
our	-10.2366
▁cookies	-10.2367
▁believed	-10.2372
▁ju	-10.2378
▁Ed	-10.2379
▁Fa	-10.2382
▁appear	-10.2394
▁pitch	-10.2396
▁jus	-10.2396
lia	-10.2404
▁wha	-10.2417
▁Empire	-10.2428
▁Gippie	-10.2428
▁Poacher	-10.2428
▁affair	-10.2428
▁album	-10.2428
▁pillow	-10.2428
▁Brazil	-10.2428
▁burst	-10.2428
▁teddy	-10.2428
▁popular	-10.2428
▁2018	-10.2429
▁director	-10.2429
▁amount	-10.243
▁size	-10.2431
▁taste	-10.2433
▁Sometimes	-10.2434
▁Chief	-10.2434
this	-10.2435
ator	-10.2441
ious	-10.2443
▁served	-10.2444
▁About	-10.2449
use	-10.2454
well	-10.2455
aft	-10.246
▁Leo	-10.2462
overlapp	-10.2463
▁Erm	-10.2465
light	-10.2498
shed	-10.2513
▁mess	-10.2524
ko	-10.2534
ev	-10.254
▁[6	-10.2541
chi	-10.2544
.8	-10.2549
▁thanks	-10.2554
kay	-10.2557
▁crayon	-10.2557
▁south	-10.2567
▁kiss	-10.2584
tter	-10.2587
cla	-10.2588
▁wall	-10.2588
▁German	-10.2603
rac	-10.2604
▁drinking	-10.2609
▁Washington	-10.2617
▁fifteen	-10.2617
▁study	-10.2617
▁regard	-10.2617
▁welcome	-10.2617
▁Julie	-10.2617
▁2010	-10.2617
▁2021	-10.2617
▁bow	-10.2618
▁White	-10.262
▁partner	-10.2623
▁Ben	-10.2626
▁likely	-10.2626
▁houses	-10.2628
▁Germany	-10.263
▁Run	-10.2634
han	-10.2643
▁entered	-10.2647
▁fucking	-10.2652
can	-10.266
ery	-10.2663
▁cooking	-10.2669
▁hanging	-10.2672
▁watched	-10.2675
In	-10.2675
▁gen	-10.2687
▁em	-10.2689
▁hadn	-10.269
▁Di	-10.2697
▁noises	-10.2701
▁added	-10.2701
▁ship	-10.2713
don	-10.2742
▁falling	-10.2749
fully	-10.2758
X	-10.2765
Why	-10.2773
▁Tra	-10.2784
▁awful	-10.2796
▁quit	-10.28
▁shows	-10.2804
▁29	-10.2808
▁Lassie	-10.2809
▁THIS	-10.2809
▁Ukraine	-10.2809
▁monster	-10.2809
▁distance	-10.2809
Prime	-10.281
▁switch	-10.281
▁spent	-10.2811
▁anywhere	-10.2815
▁Army	-10.2816
▁Na	-10.2818
▁somehow	-10.2818
▁ST	-10.2822
▁allow	-10.2823
▁arrested	-10.2825
▁Sue	-10.2828
▁quarter	-10.283
are	-10.2831
▁skin	-10.2833
▁Sun	-10.2839
▁greatest	-10.2841
▁leader	-10.2844
ville	-10.2848
▁Bur	-10.2849
▁reached	-10.2857
▁trip	-10.2867
▁bye	-10.2881
▁apart	-10.2881
▁Gr	-10.2881
▁join	-10.2882
low	-10.2884
AU	-10.2893
▁ill	-10.2895
▁Ru	-10.2899
▁cur	-10.2907
lar	-10.292
▁sha	-10.2948
▁clips	-10.2951
▁pound	-10.2957
▁role	-10.2962
where	-10.2967
laughing	-10.2968
uring	-10.2968
▁suggest	-10.2969
▁remain	-10.2972
oo	-10.2976
▁helped	-10.2978
tu	-10.2986
▁starting	-10.2986
▁boot	-10.2995
▁Dillson	-10.3005
▁club	-10.3005
▁screw	-10.3005
▁cousin	-10.3005
▁subject	-10.3005
▁cruel	-10.3005
▁Alright	-10.3005
▁favorite	-10.3005
▁governor	-10.3006
▁information	-10.3006
▁Lady	-10.3007
▁shame	-10.3008
▁Johnny	-10.3008
▁CHAPTER	-10.3011
▁guns	-10.3012
overlap	-10.3015
▁tiny	-10.3015
▁Sal	-10.3016
5/	-10.3022
▁hook	-10.3026
▁Th	-10.3033
▁bo	-10.3037
ible	-10.305
▁Bye	-10.3051
bra	-10.3056
▁nope	-10.3063
▁Tri	-10.3064
▁pale	-10.307
lan	-10.307
▁ears	-10.3082
wi	-10.3084
▁Per	-10.3093
ix	-10.3095
ating	-10.3097
mor	-10.3106
hand	-10.311
▁FE	-10.3128
fa	-10.3138
ized	-10.3142
▁whisper	-10.3146
▁terms	-10.3146
▁lines	-10.3149
▁personal	-10.3151
▁Christ	-10.3165
▁nature	-10.3168
▁RE	-10.3171
▁bank	-10.3174
TH	-10.3174
▁bark	-10.3179
▁rain	-10.3184
▁mi	-10.3185
▁Ciscasset	-10.3205
▁London	-10.3205
▁Oxford	-10.3205
▁conversation	-10.3205
▁dancing	-10.3205
▁decision	-10.3205
▁elephant	-10.3205
▁prairie	-10.3205
▁radio	-10.3205
▁response	-10.3205
▁municipalities	-10.3205
▁queen	-10.3205
▁Humm	-10.3205
▁border	-10.3205
▁weird	-10.3206
▁message	-10.3206
▁rubber	-10.3208
▁Old	-10.3209
▁twin	-10.3211
▁sport	-10.3212
▁hello	-10.3219
▁raised	-10.322
rap	-10.3222
▁log	-10.323
▁Mary	-10.3236
▁bi	-10.3239
▁god	-10.3244
singing	-10.3247
▁ra	-10.3259
▁ended	-10.3269
▁shape	-10.327
▁pain	-10.327
▁1,	-10.3278
▁dressed	-10.3292
row	-10.3303
▁sleeping	-10.3323
▁pulled	-10.3326
IT	-10.3336
▁Los	-10.3338
▁continue	-10.3339
gin	-10.3343
▁meal	-10.3353
gen	-10.336
▁sa	-10.3364
vocalization	-10.3371
▁enter	-10.3379
pointing	-10.3383
qua	-10.3408
▁fifty	-10.3409
▁future	-10.3409
▁rabbit	-10.3409
▁speech	-10.3409
▁pleasant	-10.3409
▁lawyer	-10.3409
▁Agent	-10.3409
▁cancer	-10.3409
▁struggle	-10.341
▁Democratic	-10.341
▁Jess	-10.3411
▁taught	-10.3412
▁El	-10.3414
▁Fine	-10.3422
▁somewhere	-10.3424
▁teach	-10.3426
her	-10.3432
▁upside	-10.344
▁sand	-10.3449
▁learned	-10.3454
▁caused	-10.3457
▁mid	-10.3488
AL	-10.3493
▁drawing	-10.351
ain	-10.3523
▁closed	-10.3523
▁sharp	-10.3525
▁cards	-10.3531
▁stars	-10.3572
▁Cl	-10.3572
▁older	-10.3573
uch	-10.3575
appropriate	-10.358
▁bowl	-10.3591
▁corn	-10.3592
▁patient	-10.3604
▁Mu	-10.3609
á	-10.3616
▁comfort	-10.3616
▁District	-10.3617
▁benefit	-10.3617
▁Raymond	-10.3617
▁lips	-10.3618
▁price	-10.3618
▁wound	-10.3619
▁fancy	-10.3619
▁Could	-10.362
▁Year	-10.3621
▁retired	-10.3623
▁announced	-10.3627
▁hotel	-10.3629
▁Saint	-10.363
▁Ann	-10.3645
ou	-10.3648
▁bowling	-10.3651
▁Award	-10.3664
▁meaning	-10.3679
und	-10.3689
ying	-10.369
▁Only	-10.3694
▁fingers	-10.3711
ations	-10.3717
▁shoulder	-10.3734
▁event	-10.3742
▁peace	-10.3758
▁murder	-10.3761
lt	-10.3765
▁egg	-10.3777
▁Par	-10.378
All	-10.3788
Adam	-10.3794
How	-10.3797
▁Paris	-10.38
▁plants	-10.3802
▁grace	-10.3803
▁officer	-10.3809
goes	-10.3815
laid	-10.3815
▁machine	-10.3828
▁project	-10.383
▁scene	-10.383
▁gift	-10.383
▁queer	-10.383
▁damn	-10.383
▁actress	-10.383
▁cowboy	-10.383
▁However	-10.3835
▁anymore	-10.3835
▁Pence	-10.384
▁published	-10.3842
▁directed	-10.3843
▁hung	-10.3843
▁pile	-10.3845
▁China	-10.3852
▁fourth	-10.3858
round	-10.386
ox	-10.3871
▁Pen	-10.3873
▁pounds	-10.3886
head	-10.3888
oh	-10.3893
▁wagons	-10.3904
1.4	-10.3908
atch	-10.3911
zi	-10.3928
ular	-10.3968
play	-10.3974
▁account	-10.3995
washer	-10.4011
▁rush	-10.4014
▁plane	-10.4026
▁picks	-10.4036
▁doll	-10.4041
▁sex	-10.4045
▁Um	-10.4046
▁History	-10.4048
▁Illustrated	-10.4048
▁evidence	-10.4048
▁province	-10.4048
▁suitcase	-10.4048
▁dunno	-10.4048
▁remind	-10.4048
▁content	-10.4048
▁Missouri	-10.4048
▁Whig	-10.4048
▁species	-10.4048
▁2015	-10.4048
▁fond	-10.4048
▁swim	-10.4049
▁roof	-10.4049
vin	-10.405
▁European	-10.4052
▁sky	-10.4052
▁tray	-10.4053
▁iron	-10.4056
▁storm	-10.4057
▁unless	-10.4059
den	-10.4064
▁rug	-10.4066
nut	-10.4067
▁lucky	-10.4068
▁owner	-10.407
▁Park	-10.407
▁screaming	-10.4072
nother	-10.4073
▁IS	-10.4075
▁eh	-10.4077
,--	-10.408
▁filled	-10.4087
gaa	-10.4087
▁original	-10.4097
ball	-10.4097
ese	-10.4098
▁interested	-10.4109
▁Aha	-10.414
▁wished	-10.4151
van	-10.4157
fl	-10.4178
ank	-10.4198
LY	-10.4212
▁protest	-10.4243
▁thin	-10.4252
▁Larita	-10.427
▁Natalie	-10.427
▁Trump	-10.427
▁WHAT	-10.427
▁doughnut	-10.427
▁heaven	-10.427
▁major	-10.427
▁sposta	-10.427
▁college	-10.427
▁Court	-10.427
▁joke	-10.427
▁trade	-10.427
▁tiger	-10.427
▁peanut	-10.427
▁horn	-10.427
▁crime	-10.427
▁Lucy	-10.427
▁Charles	-10.427
▁Black	-10.4272
▁Tony	-10.4274
▁tha	-10.4275
▁asleep	-10.4279
▁completely	-10.4281
ons	-10.4284
▁ON	-10.4296
j	-10.4298
▁tripp	-10.4306
▁remained	-10.4307
▁hunting	-10.4312
▁wave	-10.4315
▁tone	-10.4315
▁tri	-10.4319
▁hu	-10.4319
▁Ga	-10.4331
rd	-10.4338
turns	-10.4339
cat	-10.4356
▁fighting	-10.436
▁dreams	-10.4378
cy	-10.4384
stern	-10.4395
17	-10.4398
▁speaking	-10.4406
ney	-10.4411
ov	-10.4414
▁oil	-10.4426
lf	-10.443
▁mar	-10.4436
▁consider	-10.4464
▁object	-10.4478
▁usual	-10.4484
▁fishing	-10.4486
gue	-10.4487
▁bone	-10.4491
▁windows	-10.4492
▁Har	-10.4493
▁effect	-10.4495
▁League	-10.4497
▁Naomi	-10.4497
▁effort	-10.4497
▁excited	-10.4497
▁excitement	-10.4497
▁exciting	-10.4497
▁military	-10.4497
▁plenty	-10.4497
▁professor	-10.4497
▁Cooper	-10.4497
▁search	-10.4497
▁balance	-10.4497
▁Martin	-10.4497
▁further	-10.4497
▁battle	-10.4497
▁ladies	-10.4498
▁including	-10.4499
▁mommy	-10.45
▁alive	-10.45
▁neat	-10.4501
▁writer	-10.4502
▁|	-10.4503
▁involved	-10.4504
▁cast	-10.4505
▁arrived	-10.4515
▁magnetic	-10.4518
▁lean	-10.452
▁needta	-10.4529
▁pour	-10.4532
▁Time	-10.4533
▁shake	-10.4536
▁double	-10.4537
▁motor	-10.4539
VE	-10.4549
long	-10.4553
▁critique	-10.4553
run	-10.456
▁singer	-10.4566
▁item	-10.4567
▁continues	-10.457
▁smaller	-10.4577
▁whoops	-10.4577
▁hero	-10.4582
▁Mor	-10.4582
▁comp	-10.4586
▁pictures	-10.4591
▁signed	-10.4596
ray	-10.4608
▁begins	-10.461
bel	-10.461
▁al	-10.4633
▁HE	-10.464
▁par	-10.4649
▁notes	-10.4654
playing	-10.4656
▁LI	-10.466
▁mate	-10.4663
▁holes	-10.4674
▁names	-10.468
19	-10.4688
du	-10.4688
ja	-10.4688
AT	-10.4695
▁mix	-10.47
1.7	-10.4706
▁tears	-10.4723
▁program	-10.4727
▁majesty	-10.473
▁mirror	-10.473
▁smoke	-10.473
▁splendid	-10.473
▁value	-10.473
▁fault	-10.473
▁silent	-10.473
▁Spain	-10.473
▁Mhm	-10.473
▁truly	-10.473
▁comma	-10.473
▁Bird	-10.473
▁text	-10.473
▁Ooh	-10.4732
▁faint	-10.4732
▁danger	-10.4733
▁taperecorder	-10.4734
▁Fairy	-10.4734
▁cracker	-10.4736
▁Centr	-10.474
▁view	-10.4741
▁tickle	-10.4744
▁Val	-10.4757
▁sw	-10.4758
▁calling	-10.4767
▁agreed	-10.4769
ile	-10.4772
off	-10.4773
▁tied	-10.4776
▁carrying	-10.4807
,000	-10.4812
▁badly	-10.4812
▁flying	-10.4812
ask	-10.4812
▁covered	-10.4822
▁dollars	-10.4823
ash	-10.4824
LW	-10.4826
▁listening	-10.4828
lw	-10.4829
▁wearing	-10.4829
▁fashion	-10.4833
ctor	-10.4843
▁Fu	-10.4858
ache	-10.4859
▁creatures	-10.489
▁va	-10.4904
▁west	-10.4905
ram	-10.4917
▁BE	-10.4921
▁CO	-10.4921
ze	-10.4926
▁shower	-10.493
field	-10.4931
▁concern	-10.4934
ome	-10.4939
▁realize	-10.4942
▁India	-10.4953
az	-10.4956
!”	-10.4961
▁uncle	-10.4965
▁Major	-10.4968
▁hurried	-10.4968
▁regular	-10.4968
▁Think	-10.4968
▁Senate	-10.4968
▁Street	-10.4968
▁shore	-10.4968
▁kidding	-10.4968
▁minister	-10.4968
▁chip	-10.4969
▁High	-10.4969
▁blanket	-10.4969
▁pony	-10.4969
▁2005	-10.4969
▁immediately	-10.497
▁artist	-10.4971
▁scared	-10.498
▁correct	-10.4981
▁repeated	-10.4989
▁Once	-10.4991
▁brothers	-10.4996
▁fairy	-10.5002
▁counter	-10.5003
▁smiled	-10.5012
▁tie	-10.5015
If	-10.5015
ments	-10.5022
▁offered	-10.5025
▁el	-10.5035
▁checked	-10.5042
rri	-10.5056
ric	-10.5062
▁placed	-10.5063
▁pa	-10.5069
owl	-10.5077
they	-10.5086
▁rag	-10.5086
burg	-10.5105
1.8	-10.5132
thing	-10.5148
har	-10.5151
▁remembered	-10.5164
▁Red	-10.5166
ries	-10.517
▁Su	-10.5178
▁Stan	-10.5195
▁particular	-10.5198
▁council	-10.5204
▁slight	-10.5205
▁somethin	-10.5207
▁grand	-10.5209
▁discuss	-10.5209
▁drug	-10.5209
▁sta	-10.521
▁Patrick	-10.5212
▁magazine	-10.5212
▁private	-10.5212
▁squirrel	-10.5212
▁swallow	-10.5212
▁fourteen	-10.5212
▁weapon	-10.5212
▁Polly	-10.5212
▁Brian	-10.5212
▁blame	-10.5212
▁locate	-10.5213
▁Watch	-10.5214
▁length	-10.5216
▁handsome	-10.5216
▁issue	-10.5219
▁Over	-10.522
▁brush	-10.5221
▁dirty	-10.5223
▁prepared	-10.523
▁mill	-10.5232
▁whenever	-10.5233
▁nest	-10.5236
▁Alan	-10.524
▁Grand	-10.5251
▁scissors	-10.5253
US	-10.5257
cking	-10.5257
▁toast	-10.5263
▁forth	-10.5264
▁promised	-10.5265
OW	-10.5269
▁saved	-10.5273
▁More	-10.5277
was	-10.5282
▁Cor	-10.5284
▁note	-10.5285
EN	-10.5293
▁shoulders	-10.53
come	-10.5309
ough	-10.5311
▁3,	-10.5315
▁bare	-10.5332
coughs	-10.5338
▁Cha	-10.5361
▁hasn	-10.5373
▁nap	-10.5407
▁shouldn	-10.5427
fish	-10.543
▁mus	-10.5436
▁mass	-10.5439
▁Ex	-10.5452
▁sticking	-10.5453
▁Europe	-10.5457
▁staying	-10.5459
▁education	-10.5462
▁macaroni	-10.5462
▁scarce	-10.5462
▁scratch	-10.5462
▁similar	-10.5462
▁judge	-10.5462
▁angry	-10.5462
▁prison	-10.5462
▁MAY	-10.5462
▁title	-10.5462
▁Something	-10.5462
▁1990	-10.5463
▁Hero	-10.5463
▁pool	-10.5464
▁vote	-10.5464
▁penny	-10.5464
▁triangle	-10.5465
▁huge	-10.5466
▁plain	-10.5474
▁replaced	-10.5476
▁rat	-10.548
▁load	-10.548
there	-10.5487
▁wet	-10.5492
▁weight	-10.5493
▁("	-10.5504
▁2,	-10.5513
▁roles	-10.553
▁Act	-10.5546
▁nurse	-10.5559
▁sigh	-10.5569
▁marbles	-10.5582
pro	-10.5586
▁mis	-10.5614
▁wings	-10.5629
▁Col	-10.564
Ha	-10.5662
▁kindly	-10.5664
uh	-10.5671
When	-10.5681
wan	-10.57
most	-10.5711
▁Angeles	-10.5718
▁Julián	-10.5718
▁Macleod	-10.5718
▁driving	-10.5718
▁famous	-10.5718
▁ghost	-10.5718
▁smooth	-10.5718
▁beauty	-10.5718
▁credit	-10.5718
▁instant	-10.5718
▁social	-10.5718
▁practice	-10.5718
▁1995	-10.5719
▁bridge	-10.5719
▁newspaper	-10.5719
▁chug	-10.572
▁positive	-10.5721
▁Most	-10.5722
▁revolutionary	-10.5723
▁potatoes	-10.5724
▁YOUR	-10.5727
▁host	-10.5731
▁cage	-10.5732
▁coal	-10.5743
▁sale	-10.5749
▁cloth	-10.5751
▁quietly	-10.5754
Go	-10.5754
▁below	-10.5755
▁noticed	-10.5762
▁carefully	-10.5774
▁gate	-10.5775
▁burning	-10.5779
▁weak	-10.5789
▁crayons	-10.5799
ass	-10.5806
▁tear	-10.5808
▁income	-10.5813
late	-10.5814
▁copy	-10.5814
▁sock	-10.5815
▁Ju	-10.5824
▁pole	-10.5844
Villars	-10.5848
▁Pi	-10.5863
com	-10.5868
gets	-10.5872
more	-10.5875
▁gl	-10.5882
▁super	-10.589
sses	-10.5892
▁Dur	-10.5896
▁steps	-10.5912
▁ow	-10.5923
▁tip	-10.5924
▁pin	-10.5924
pose	-10.5934
spec	-10.5936
▁ble	-10.5942
▁doin	-10.5943
NE	-10.5945
Good	-10.5947
tru	-10.5948
▁dish	-10.5958
▁feed	-10.596
▁pat	-10.5966
▁tight	-10.5967
▁anxious	-10.5967
▁potato	-10.5975
▁slow	-10.5977
▁complete	-10.5978
▁stayed	-10.598
▁1994	-10.5981
▁Actually	-10.5981
▁Florida	-10.5981
▁Valentine	-10.5981
▁courage	-10.5981
▁orphan	-10.5981
▁purple	-10.5981
▁tricycle	-10.5981
▁fought	-10.5981
▁planning	-10.5981
▁cube	-10.5981
▁choke	-10.5981
▁gently	-10.5981
▁budget	-10.5981
▁Kong	-10.5982
▁Tracy	-10.5982
▁coach	-10.5982
▁Life	-10.5982
▁desk	-10.5983
▁nail	-10.5983
▁obviously	-10.5984
▁absolutely	-10.5984
▁thick	-10.5985
▁bound	-10.5985
▁knife	-10.5987
▁eagerly	-10.5988
▁goodbye	-10.5988
▁aside	-10.5989
▁Island	-10.599
▁centre	-10.599
▁Six	-10.5993
▁Seth	-10.5994
rate	-10.5995
▁Q	-10.5996
phone	-10.5996
MP	-10.5998
▁suck	-10.6
▁&	-10.6
▁stepp	-10.6005
▁Louis	-10.6015
▁erase	-10.6023
SE	-10.6027
▁surprised	-10.6031
▁clearly	-10.6036
ified	-10.6049
▁row	-10.6053
pen	-10.6065
▁gal	-10.6065
▁ALL	-10.6071
▁waited	-10.609
▁jumped	-10.6096
▁NO	-10.6102
▁cats	-10.6112
eep	-10.6113
ana	-10.6121
place	-10.6137
▁coo	-10.621
pitched	-10.6214
just	-10.6217
Come	-10.6217
▁print	-10.6219
▁non	-10.6222
▁wi	-10.6225
bring	-10.623
▁inter	-10.6238
▁tire	-10.624
▁cheer	-10.625
▁victim	-10.6251
í	-10.6251
▁advance	-10.6251
▁advice	-10.6251
▁babaa	-10.6251
▁computer	-10.6251
▁excellent	-10.6251
▁RAF	-10.6251
▁weather	-10.6251
▁strike	-10.6251
▁Cherry	-10.6252
▁struck	-10.6252
▁feature	-10.6252
▁slipped	-10.6252
▁hammer	-10.6252
▁Duke	-10.6252
▁formula	-10.6252
▁authority	-10.6252
▁Sunday	-10.6252
▁narrow	-10.6253
▁turns	-10.6253
▁comment	-10.6256
▁birdie	-10.6258
▁weekend	-10.6259
▁statement	-10.6266
▁yo	-10.6273
▁discovered	-10.6273
▁tale	-10.628
▁lower	-10.6282
▁brownie	-10.6289
▁Madam	-10.6295
▁bless	-10.6302
▁breathing	-10.6314
▁na	-10.6344
loud	-10.6347
▁mountain	-10.636
lock	-10.636
ERS	-10.6363
▁fo	-10.6364
▁Ya	-10.6366
ities	-10.6371
▁formed	-10.6373
chuckles	-10.6374
▁product	-10.6381
▁killing	-10.6382
▁remove	-10.6393
runs	-10.6419
▁bringing	-10.6449
ati	-10.645
▁represent	-10.6496
softly	-10.6504
▁bug	-10.6507
back	-10.6507
▁fuss	-10.651
▁normal	-10.6515
▁LOVE	-10.6529
▁Scholarship	-10.6529
▁degree	-10.6529
▁material	-10.6529
▁nineteen	-10.6529
▁tinkertoy	-10.6529
▁Palmer	-10.6529
▁article	-10.6529
▁relationship	-10.6529
▁Hong	-10.6531
▁calm	-10.6531
▁APR	-10.6533
▁ninety	-10.6534
▁shh	-10.6534
▁related	-10.6536
▁demand	-10.6536
▁equal	-10.6537
▁Republican	-10.6538
▁fur	-10.6545
▁prove	-10.6547
▁forgive	-10.6552
▁gathered	-10.6556
▁Sam	-10.6557
▁inquir	-10.6557
▁feeding	-10.6564
▁Jim	-10.6567
▁Sh	-10.6576
▁earn	-10.6576
▁appropriate	-10.6579
▁tomato	-10.6596
▁rocking	-10.6605
▁Bra	-10.6613
uk	-10.6614
▁pleased	-10.6614
▁tin	-10.6623
▁fixed	-10.6633
▁medal	-10.6641
shook	-10.6649
▁waste	-10.6671
▁throwing	-10.6685
sighs	-10.6687
▁bra	-10.6692
▁Han	-10.6725
▁appreciate	-10.6727
win	-10.6745
ik	-10.6752
▁su	-10.6764
▁delight	-10.6767
▁engine	-10.6771
▁Fi	-10.6772
▁Tho	-10.6773
▁AN	-10.6774
Z	-10.6778
▁21,	-10.6778
elect	-10.6778
note	-10.6779
▁lies	-10.6786
▁Gi	-10.68
▁sudden	-10.6802
▁stream	-10.6813
▁design	-10.6814
▁occasion	-10.6814
▁Phil	-10.6814
▁1969	-10.6815
▁Canadian	-10.6815
▁RLF	-10.6815
▁Uncle	-10.6815
▁bundle	-10.6815
▁clatter	-10.6815
▁dessert	-10.6815
▁dialect	-10.6815
▁Becky	-10.6815
▁Death	-10.6815
▁surface	-10.6815
▁whistle	-10.6815
▁Shawn	-10.6815
▁loose	-10.6815
▁broad	-10.6816
▁bathroom	-10.6816
▁Clare	-10.6817
▁Berta	-10.6817
▁guilty	-10.6818
▁bump	-10.6818
▁Other	-10.6819
▁ticket	-10.6819
Ah	-10.6821
▁aw	-10.6822
11	-10.6826
▁glasses	-10.6827
▁Another	-10.6837
▁wore	-10.6839
▁ta	-10.6845
▁chase	-10.6846
▁delighted	-10.6848
▁Many	-10.6863
▁voices	-10.6867
ture	-10.6873
Let	-10.6876
▁growing	-10.688
▁plant	-10.6881
▁lifted	-10.6883
▁uses	-10.6883
▁spending	-10.6885
▁farmer	-10.6887
Here	-10.6888
▁parts	-10.6889
▁useful	-10.6903
▁checking	-10.6904
▁rings	-10.6913
▁Move	-10.6922
▁UN	-10.6937
▁ding	-10.6947
▁sn	-10.6951
▁scream	-10.6959
ook	-10.6969
ok	-10.697
morrow	-10.6976
▁island	-10.6982
▁50	-10.6985
▁mountains	-10.6992
▁picking	-10.7016
▁Dog	-10.7033
▁lock	-10.7033
▁se	-10.704
star	-10.7044
▁greatly	-10.7061
90	-10.707
12	-10.7075
eat	-10.7079
▁Call	-10.7081
▁crawl	-10.7082
▁deliver	-10.7095
▁dirt	-10.7096
▁final	-10.7104
▁match	-10.7106
Connor	-10.7109
▁Prize	-10.7109
▁banana	-10.7109
▁century	-10.7109
▁destroy	-10.7109
▁envelope	-10.7109
▁gimme	-10.7109
▁horsie	-10.7109
▁journey	-10.7109
▁neighbor	-10.7109
▁earlier	-10.7109
▁grateful	-10.7109
▁Scott	-10.7109
▁biggest	-10.7109
▁fortune	-10.7109
▁worst	-10.7109
▁buggy	-10.7109
▁2006	-10.711
▁crash	-10.711
▁HAVE	-10.711
▁stamp	-10.711
▁flash	-10.7111
▁Hold	-10.7112
▁harm	-10.7113
▁dumb	-10.7113
▁Before	-10.7114
▁comin	-10.7114
▁pants	-10.7114
tte	-10.7118
some	-10.7122
▁worm	-10.7123
▁mail	-10.7128
▁gain	-10.7132
▁attached	-10.7135
▁com	-10.7144
▁closer	-10.7154
ji	-10.7166
ky	-10.7167
▁section	-10.7168
▁BY	-10.7175
your	-10.7177
▁colors	-10.7181
▁tryin	-10.7192
▁Hill	-10.7197
gged	-10.7224
ening	-10.7254
ize	-10.7259
▁op	-10.7263
ime	-10.7282
band	-10.729
▁Fe	-10.7294
Not	-10.7297
how	-10.7299
▁fork	-10.7301
▁lu	-10.7305
▁Up	-10.7308
gie	-10.731
reading	-10.7325
▁plays	-10.7327
▁Maria	-10.7333
▁shout	-10.7347
30	-10.7371
This	-10.7376
▁escape	-10.7385
giggles	-10.7391
To	-10.7392
▁pause	-10.7396
with	-10.7398
▁knees	-10.7403
cho	-10.7404
▁perform	-10.7411
▁birth	-10.7411
▁Church	-10.7412
▁Department	-10.7412
▁Mexican	-10.7412
▁Treaty	-10.7412
▁Uruguay	-10.7412
▁advantage	-10.7412
▁condition	-10.7412
▁consumption	-10.7412
▁families	-10.7412
▁jolly	-10.7412
▁prevent	-10.7412
▁purpose	-10.7412
▁strength	-10.7412
▁worried	-10.7412
▁captain	-10.7412
▁cereal	-10.7412
▁reckon	-10.7412
▁drunk	-10.7412
▁evil	-10.7412
▁picnic	-10.7412
▁habit	-10.7412
ANU	-10.7412
▁Green	-10.7412
▁Bertha	-10.7412
▁Japanese	-10.7412
▁quack	-10.7412
▁rattle	-10.7412
▁Turn	-10.7413
▁focus	-10.7413
▁package	-10.7413
▁2007	-10.7415
▁slip	-10.7416
▁downstairs	-10.7416
▁Doctor	-10.7416
▁breast	-10.7416
▁bedroom	-10.7418
▁nu	-10.742
▁manage	-10.7422
▁(20	-10.7428
▁En	-10.7428
▁particularly	-10.7429
▁dust	-10.743
▁Book	-10.7431
▁Anne	-10.7437
▁rise	-10.7442
▁path	-10.7444
▁Although	-10.7451
▁ARE	-10.7455
▁customer	-10.7455
▁barn	-10.7459
▁Kar	-10.7464
▁officers	-10.7464
▁army	-10.7465
▁included	-10.7467
▁DON	-10.7471
▁ry	-10.7482
▁Say	-10.7494
▁bend	-10.7506
▁cents	-10.7512
▁km	-10.7521
▁marker	-10.7524
fer	-10.7524
hose	-10.7534
▁NOT	-10.754
▁founded	-10.7543
▁touching	-10.7548
▁missing	-10.7559
▁heat	-10.7561
NT	-10.7591
▁goal	-10.7594
13	-10.7595
▁)	-10.7596
2.5	-10.7603
CH	-10.7607
cent	-10.7609
▁Com	-10.7613
▁adventures	-10.7615
▁Mil	-10.7618
▁willing	-10.7619
--"	-10.7623
ju	-10.7627
▁5,	-10.7643
▁helping	-10.7677
▁Work	-10.7691
▁serve	-10.7698
1.6	-10.7707
▁Russia	-10.771
▁entire	-10.7711
▁range	-10.7714
▁Council	-10.7718
▁collect	-10.7722
ó	-10.7725
▁Constitution	-10.7725
▁Deborah	-10.7725
▁Goblin	-10.7725
▁Hilda	-10.7725
▁SCROOGE	-10.7725
▁Truman	-10.7725
▁Wednesday	-10.7725
▁bicycle	-10.7725
▁bunny	-10.7725
▁cheap	-10.7725
▁delicious	-10.7725
▁glorious	-10.7725
▁necessary	-10.7725
▁ourselves	-10.7725
▁shovel	-10.7725
▁specific	-10.7725
▁university	-10.7725
▁inspector	-10.7725
▁International	-10.7725
▁Cousin	-10.7725
▁merged	-10.7725
▁Dream	-10.7725
▁opposite	-10.7725
▁Claus	-10.7725
ARCH	-10.7725
▁Monday	-10.7725
▁duty	-10.7725
▁chew	-10.7726
▁1930	-10.7726
▁Raff	-10.7726
▁2002	-10.7726
▁choo	-10.7726
▁rocks	-10.7727
▁crutches	-10.7727
▁salt	-10.7727
▁Never	-10.7727
▁Mike	-10.7728
▁broom	-10.7729
get	-10.773
▁chest	-10.7731
▁dishes	-10.7733
▁disappointed	-10.7734
▁TV	-10.7735
▁flu	-10.7738
▁pity	-10.7738
▁manager	-10.7739
▁Momma	-10.774
▁Qui	-10.7741
▁40	-10.7742
▁areas	-10.7745
▁disappeared	-10.7745
tell	-10.7751
▁spoken	-10.7752
▁Earl	-10.7752
right	-10.7757
▁generally	-10.7757
▁larger	-10.7766
37	-10.7769
▁mixed	-10.7769
21	-10.777
▁Big	-10.7775
▁lad	-10.7775
3.5	-10.7777
▁kite	-10.778
▁presently	-10.778
▁learning	-10.7793
▁result	-10.7793
▁Mon	-10.7798
▁goodness	-10.7808
ously	-10.7811
UM	-10.7818
▁washed	-10.7821
▁4,	-10.7821
▁Hall	-10.7841
ium	-10.7843
▁score	-10.7846
ina	-10.7853
An	-10.7855
▁Wi	-10.7873
▁knocked	-10.7878
▁sisters	-10.7879
gain	-10.7883
▁Nat	-10.7886
▁seal	-10.789
▁mile	-10.7891
▁186	-10.7895
Ch	-10.7895
▁SO	-10.7897
make	-10.7907
▁training	-10.791
ied	-10.7929
uel	-10.7947
CLE	-10.7961
▁Isn	-10.7962
▁faces	-10.7972
▁prop	-10.7978
24	-10.7994
Of	-10.7994
too	-10.7994
▁ge	-10.8005
bert	-10.8012
▁remark	-10.8014
soft	-10.8017
▁release	-10.802
70	-10.8026
ROB	-10.8027
▁Yo	-10.8032
▁honest	-10.8033
nick	-10.8039
▁sail	-10.8041
▁bin	-10.8042
▁terror	-10.8045
▁Philip	-10.8047
▁1986	-10.8047
▁borrow	-10.8047
▁opportunity	-10.8047
▁platform	-10.8047
▁1987	-10.8047
▁General	-10.8047
▁contact	-10.8047
▁leaf	-10.8047
▁Nyon	-10.8047
▁glove	-10.8047
▁practical	-10.8047
Moudon	-10.8047
▁shining	-10.8047
▁source	-10.8047
▁Damn	-10.8047
▁ugly	-10.8047
▁grandmother	-10.8047
▁carriage	-10.8048
▁attend	-10.8048
▁grampa	-10.8048
▁option	-10.8048
▁2009	-10.8048
▁target	-10.8048
▁nursery	-10.805
▁woof	-10.805
BRU	-10.805
▁production	-10.805
▁Brother	-10.805
▁pot	-10.8051
▁awake	-10.8051
▁DO	-10.8052
▁Bones	-10.8052
▁fusses	-10.8054
▁tough	-10.8055
▁drama	-10.8056
▁knee	-10.8058
▁Vice	-10.8058
▁style	-10.8058
▁sold	-10.806
▁MAN	-10.8067
▁becoming	-10.807
▁Poor	-10.8073
$=2	-10.8081
▁driver	-10.8089
▁fairly	-10.8092
▁rushed	-10.8097
2.2	-10.811
▁chop	-10.8117
gar	-10.8119
▁songs	-10.813
▁rustles	-10.8144
▁feathers	-10.8153
▁Put	-10.8155
▁24,	-10.8158
▁wondering	-10.8164
▁frogs	-10.8165
singsong	-10.8173
▁utter	-10.8191
ade	-10.8208
nia	-10.8211
▁paying	-10.8218
iff	-10.8219
20	-10.8221
ros	-10.823
aves	-10.825
reache	-10.8259
14	-10.8262
TER	-10.8271
▁total	-10.8275
posed	-10.8276
▁fan	-10.8278
▁Men	-10.8281
▁wo	-10.8284
ount	-10.8314
10	-10.8323
mar	-10.8327
down	-10.834
▁success	-10.834
Q	-10.8343
piece	-10.8344
American	-10.8344
Just	-10.8345
▁stretch	-10.8347
▁decide	-10.8354
▁grave	-10.8367
raz	-10.8374
▁Freddy	-10.838
▁Mexico	-10.838
▁alphabet	-10.838
▁individual	-10.838
▁laboratory	-10.838
▁umbrella	-10.838
▁Girl	-10.838
▁Vagn	-10.838
▁clever	-10.838
▁emotion	-10.838
▁Booth	-10.838
▁Dutch	-10.838
▁Three	-10.8381
▁presence	-10.8381
▁require	-10.8381
▁defeat	-10.8381
▁eleven	-10.8381
various	-10.8381
▁failure	-10.8381
▁revolution	-10.8381
▁garage	-10.8381
▁2008	-10.8381
▁odd	-10.8382
▁vast	-10.8383
▁sleigh	-10.8383
▁airport	-10.8384
▁Italy	-10.8384
▁bold	-10.8385
▁vol	-10.8386
▁Markus	-10.8387
▁Whil	-10.8387
▁Laugh	-10.8387
▁Lake	-10.8389
will	-10.8391
cient	-10.8392
▁apparently	-10.8392
▁dull	-10.8395
▁pack	-10.8395
▁Try	-10.8406
▁yelling	-10.8406
▁hoping	-10.8414
▁lesson	-10.8416
▁concerned	-10.8427
TA	-10.8436
▁rep	-10.8439
▁cop	-10.8449
cuse	-10.845
▁leading	-10.8452
▁burned	-10.8461
bell	-10.847
AM	-10.8471
stand	-10.8472
even	-10.8473
▁nearer	-10.8479
▁spin	-10.8485
▁pitched	-10.8487
▁Care	-10.849
▁Love	-10.8509
comes	-10.8517
▁pushing	-10.8517
BE	-10.8527
echo	-10.8535
▁pea	-10.8536
▁Sch	-10.8553
table	-10.8573
Be	-10.8574
berg	-10.8575
▁referr	-10.8592
▁numbers	-10.8594
▁squ	-10.8604
▁dash	-10.8625
lung	-10.8644
▁hop	-10.8647
reak	-10.8664
due	-10.8676
sign	-10.8684
Thank	-10.8689
means	-10.8692
▁approach	-10.8692
▁address	-10.8692
▁spill	-10.8692
▁woo	-10.8693
▁gather	-10.8694
continues	-10.8694
boat	-10.8695
▁raise	-10.8699
zo	-10.8705
▁dump	-10.8708
▁cell	-10.8724
eign	-10.8724
▁favor	-10.8725
▁Catholic	-10.8725
▁Douglas	-10.8725
▁Elizabeth	-10.8725
▁Government	-10.8725
▁Louisiana	-10.8725
▁Picture	-10.8725
▁Sharston	-10.8725
▁Spanish	-10.8725
▁WITH	-10.8725
▁colour	-10.8725
▁impossible	-10.8725
▁miserable	-10.8725
▁negative	-10.8725
▁puppy	-10.8725
▁restaurant	-10.8725
▁ridiculous	-10.8725
▁session	-10.8725
▁sprang	-10.8725
▁stomach	-10.8725
▁suburb	-10.8725
▁telephone	-10.8725
▁turkey	-10.8725
▁understood	-10.8725
▁vehicle	-10.8725
▁wastebasket	-10.8725
+	-10.8725
▁bodies	-10.8725
▁butterfly	-10.8725
▁disease	-10.8725
▁jelly	-10.8725
▁BUT	-10.8725
▁Crimea	-10.8725
▁Ryan	-10.8725
▁Besides	-10.8725
▁drove	-10.8725
▁drum	-10.8725
▁planned	-10.8725
▁winning	-10.8725
▁gentlemen	-10.8726
▁novel	-10.8726
▁Wind	-10.8726
▁performance	-10.8726
▁Shut	-10.8726
▁1970	-10.8726
▁aware	-10.8727
▁traffic	-10.8727
▁dude	-10.8727
▁expression	-10.8728
▁oops	-10.8728
▁conductor	-10.8728
▁Jones	-10.8728
▁Charlie	-10.8729
▁cloud	-10.8729
▁stir	-10.8729
▁smiling	-10.8732
▁alarm	-10.8734
▁task	-10.8734
▁Wow	-10.8734
▁stock	-10.8734
▁hill	-10.8734
▁central	-10.8735
▁Last	-10.8736
▁Make	-10.8738
▁affected	-10.8741
▁reward	-10.8742
wait	-10.8743
▁MR	-10.8744
▁produced	-10.8745
▁whining	-10.875
▁assistant	-10.875
boy	-10.875
▁Cup	-10.875
▁mentioned	-10.8752
▁managed	-10.8756
▁apt	-10.8757
▁suffering	-10.8757
▁pine	-10.8764
▁Star	-10.8778
▁candy	-10.8778
▁eaten	-10.879
▁drawn	-10.8791
▁loss	-10.8792
▁Chris	-10.8793
ide	-10.8793
▁rod	-10.8805
▁[7	-10.8807
▁refer	-10.8811
▁events	-10.8822
▁recognize	-10.8848
▁INV	-10.8852
Are	-10.8858
train	-10.8877
▁Tre	-10.8878
▁needle	-10.8888
kin	-10.8893
ines	-10.8908
▁Jan	-10.8929
rely	-10.894
▁Mc	-10.8943
▁2003	-10.8947
▁x	-10.8948
▁Les	-10.8948
▁Far	-10.8961
▁ou	-10.8961
▁forty	-10.8969
▁onion	-10.8972
▁Bob	-10.8974
rov	-10.8984
▁suffer	-10.9016
two	-10.9031
oon	-10.9033
ida	-10.9034
begins	-10.9046
writing	-10.9046
Where	-10.9046
▁limit	-10.9049
baby	-10.905
throw	-10.9053
▁guard	-10.9054
▁respond	-10.9056
cries	-10.9056
▁addition	-10.9067
▁ski	-10.9069
▁Keep	-10.9072
graph	-10.9074
▁sum	-10.9075
▁cabin	-10.9081
incorporated	-10.9082
▁1968	-10.9082
▁Congress	-10.9082
▁Contreras	-10.9082
▁Jenny	-10.9082
▁companies	-10.9082
▁declared	-10.9082
▁mistress	-10.9082
▁motorcycle	-10.9082
▁poison	-10.9082
▁powder	-10.9082
▁property	-10.9082
▁client	-10.9082
▁enemy	-10.9082
▁fiction	-10.9082
▁spark	-10.9082
▁daisy	-10.9082
▁amazing	-10.9082
▁Next	-10.9082
▁funeral	-10.9082
▁version	-10.9082
▁damage	-10.9082
▁error	-10.9082
▁knowledge	-10.9083
▁Health	-10.9083
▁Andrew	-10.9083
▁intonation	-10.9083
▁Hmm	-10.9083
▁countries	-10.9083
▁blast	-10.9083
▁compete	-10.9084
▁brake	-10.9084
▁command	-10.9084
▁appearance	-10.9084
▁Bush	-10.9084
▁root	-10.9084
▁awarded	-10.9085
▁motion	-10.9085
▁Yep	-10.9087
▁ham	-10.9087
▁theatre	-10.9088
▁Norma	-10.9088
▁peel	-10.9088
▁Stay	-10.9088
▁Nobody	-10.9089
▁recently	-10.9089
▁firm	-10.9089
▁uhoh	-10.9089
▁gaze	-10.909
▁ooh	-10.9091
▁roar	-10.9092
▁barrel	-10.9094
▁risk	-10.9097
ama	-10.9099
stone	-10.91
year	-10.9102
▁16,	-10.9104
▁11,	-10.9106
▁behave	-10.9107
▁Whatever	-10.9109
▁boo	-10.911
▁highest	-10.911
▁lick	-10.911
▁parties	-10.9111
▁unit	-10.9115
▁western	-10.9123
▁Ni	-10.9128
▁dig	-10.9133
2.3	-10.9134
▁boxes	-10.9135
▁tro	-10.9137
▁engineer	-10.9137
▁hearing	-10.9139
▁Fort	-10.9143
▁kissed	-10.9146
hold	-10.9149
▁Frank	-10.9153
pper	-10.9155
▁hay	-10.9157
▁eighty	-10.9161
▁rolling	-10.9163
▁bou	-10.9169
ories	-10.9178
▁click	-10.9182
▁ole	-10.9183
▁forever	-10.919
▁organisations	-10.9191
▁passing	-10.9194
▁figures	-10.9195
▁Ken	-10.9197
▁creature	-10.9202
▁sur	-10.9207
▁younger	-10.9211
▁easter	-10.9212
▁anti	-10.9212
▁wondered	-10.9214
▁clunk	-10.9227
▁sending	-10.9243
ré	-10.9248
▁Tip	-10.9258
15	-10.9267
ould	-10.9277
OLD	-10.9298
▁snap	-10.9331
▁clicks	-10.9333
▁Air	-10.9335
▁hated	-10.9341
▁pu	-10.9345
tape	-10.9348
ek	-10.9357
who	-10.9373
▁Prince	-10.9416
blue	-10.9416
strange	-10.9419
▁accept	-10.9419
▁steal	-10.9419
Jim	-10.942
water	-10.942
▁attach	-10.9424
yard	-10.9424
▁rid	-10.9426
▁sheet	-10.9427
keeper	-10.9428
box	-10.943
mother	-10.9435
▁repeat	-10.9437
▁bat	-10.9442
▁VI	-10.9443
▁Va	-10.9445
▁express	-10.945
▁gentle	-10.9451
▁complain	-10.9451
▁issues	-10.9452
▁threat	-10.9452
▁Japan	-10.9452
▁speed	-10.9453
▁1992	-10.9453
▁appointed	-10.9453
▁babies	-10.9453
▁campaign	-10.9453
▁didldow	-10.9453
▁female	-10.9453
▁firetruck	-10.9453
▁fracture	-10.9453
▁kangaroo	-10.9453
▁possibly	-10.9453
▁savage	-10.9453
▁Joseph	-10.9453
▁exercise	-10.9453
▁horrid	-10.9453
▁shawl	-10.9453
▁DAY	-10.9453
▁windmill	-10.9453
▁Russo	-10.9453
▁celebrate	-10.9453
▁deaf	-10.9453
▁Spring	-10.9453
▁therefore	-10.9453
▁clown	-10.9453
▁ashamed	-10.9453
▁photograph	-10.9453
▁Weener	-10.9453
▁Boston	-10.9453
▁Everything	-10.9453
▁1960	-10.9453
▁etc	-10.9454
▁hiding	-10.9454
▁kitty	-10.9454
▁utterance	-10.9454
▁colon	-10.9454
▁easier	-10.9454
▁sheep	-10.9454
▁desert	-10.9454
▁thou	-10.9454
▁Nice	-10.9455
▁Long	-10.9456
▁comfortable	-10.9456
▁rope	-10.9456
▁laughter	-10.9456
▁experiment	-10.9456
▁cities	-10.9457
▁farther	-10.9457
▁accus	-10.9458
▁2000	-10.9458
▁trace	-10.9459
▁stem	-10.9459
▁OUT	-10.946
▁decent	-10.946
▁Peru	-10.9461
▁candle	-10.9462
▁dying	-10.9463
▁dangerous	-10.9464
▁trial	-10.9464
▁temper	-10.9465
▁firmly	-10.9476
lves	-10.9477
▁100	-10.9479
▁rising	-10.9481
▁Ohio	-10.9482
▁forgotten	-10.9486
▁nk	-10.9487
▁Fire	-10.9491
tty	-10.9493
▁assure	-10.9498
▁mock	-10.9514
▁wee	-10.9532
▁dum	-10.9536
ural	-10.9541
▁git	-10.9542
wealth	-10.9543
remove	-10.9544
▁Wha	-10.9555
▁vegetables	-10.9575
ford	-10.958
▁ribbon	-10.9583
▁tribe	-10.9585
▁adventure	-10.9585
▁acting	-10.9587
▁qu	-10.959
▁holidays	-10.9594
hn	-10.9597
looks	-10.9598
itch	-10.9601
CA	-10.9604
pin	-10.9611
▁mum	-10.9617
▁household	-10.9625
▁joint	-10.9626
▁attract	-10.9629
▁cough	-10.9644
self	-10.9658
part	-10.9662
had	-10.9664
stack	-10.9665
ttle	-10.9666
UR	-10.9668
arrow	-10.9677
ini	-10.9677
za	-10.9678
▁Pu	-10.9683
▁Fo	-10.9687
26	-10.9695
▁trans	-10.9695
▁29,	-10.9696
name	-10.9711
▁breaking	-10.9725
▁plans	-10.9727
law	-10.9731
writes	-10.9745
▁roads	-10.9751
▁Gar	-10.9758
▁AS	-10.9775
plastic	-10.9801
critique	-10.9801
▁arrest	-10.9804
iddle	-10.9808
▁previous	-10.9824
▁characters	-10.983
continu	-10.9831
bject	-10.9833
holding	-10.9835
ature	-10.9837
▁1985	-10.9837
▁Aylmer	-10.9837
▁Captain	-10.9837
▁Fuzhou	-10.9837
▁JUST	-10.9837
▁Leavenworth	-10.9837
▁Oklahoma	-10.9837
▁Secretary	-10.9837
▁Special	-10.9837
▁activity	-10.9837
▁blossom	-10.9837
▁contract	-10.9837
▁defend	-10.9837
▁energy	-10.9837
▁hamburger	-10.9837
▁increase	-10.9837
▁passenger	-10.9837
▁scientist	-10.9837
▁seventeen	-10.9837
▁sixteen	-10.9837
▁Deputy	-10.9837
▁clef	-10.9837
▁observ	-10.9837
▁refuse	-10.9837
▁volume	-10.9837
▁wicked	-10.9837
▁Chinese	-10.9837
▁properly	-10.9837
▁crush	-10.9837
TTLE	-10.9838
▁Film	-10.9838
▁bomb	-10.9838
▁limb	-10.9838
▁Latin	-10.9838
▁compound	-10.9838
▁folks	-10.9838
▁Remember	-10.9838
▁Common	-10.9838
▁desire	-10.9838
▁flew	-10.9838
▁2023	-10.9838
▁Pink	-10.9838
▁Ireland	-10.9839
▁gray	-10.984
▁Cool	-10.984
▁Christian	-10.984
▁collection	-10.984
▁leap	-10.9841
▁economic	-10.9841
▁otherwise	-10.9841
▁wing	-10.9842
▁vice	-10.9842
▁poem	-10.9844
▁Marion	-10.9844
▁development	-10.9844
▁active	-10.9845
cher	-10.9845
▁Snow	-10.9846
▁THERE	-10.9847
▁fireplace	-10.985
▁tender	-10.9852
▁delivery	-10.9856
▁rode	-10.9858
▁invited	-10.9859
▁passes	-10.9861
Cause	-10.9861
▁Land	-10.9862
EST	-10.9867
▁male	-10.9868
▁loudly	-10.9872
▁shouted	-10.988
▁Billy	-10.9884
▁comic	-10.9886
bye	-10.9896
▁mayor	-10.9904
▁Shit	-10.9929
stands	-10.994
tally	-10.9945
▁friendly	-10.9945
▁gh	-10.9948
▁Dan	-10.9956
▁ok	-10.996
▁walls	-10.9963
▁cheeks	-10.9964
Mr	-10.9967
▁organis	-10.9984
▁Mer	-10.9985
▁Pat	-10.9988
▁canal	-10.999
▁author	-10.9992
going	-11.0008
▁touched	-11.0013
under	-11.0015
▁fed	-11.0083
▁32	-11.0085
▁interrupt	-11.0086
▁site	-11.0093
▁Ze	-11.0095
▁civil	-11.0122
now	-11.0128
ching	-11.0132
▁besides	-11.0137
▁du	-11.0164
▁pray	-11.0168
ID	-11.0175
talks	-11.0185
onald	-11.0194
word	-11.0196
when	-11.0201
▁Stu	-11.0201
▁fold	-11.0201
bird	-11.0202
still	-11.0203
town	-11.0204
▁settle	-11.0215
coming	-11.0222
▁process	-11.0223
▁flow	-11.0232
▁conduct	-11.0234
▁photo	-11.0237
▁1972	-11.0237
▁According	-11.0237
▁LOOK	-11.0237
▁Melissa	-11.0237
▁Taiwan	-11.0237
▁Tokyo	-11.0237
▁anniversary	-11.0237
▁conference	-11.0237
▁opinion	-11.0237
▁pizza	-11.0237
▁request	-11.0237
▁science	-11.0237
▁squeeze	-11.0237
▁telegram	-11.0237
▁Minley	-11.0237
▁impatient	-11.0237
trochee	-11.0237
▁Kingdom	-11.0237
▁afford	-11.0237
▁Square	-11.0237
▁Kelly	-11.0237
▁international	-11.0237
▁model	-11.0237
▁cotton	-11.0238
▁Still	-11.0238
▁organization	-11.0238
▁Royal	-11.0238
▁appeal	-11.0238
▁ruin	-11.0238
▁sample	-11.0238
▁basically	-11.0238
▁bench	-11.0238
▁Bozo	-11.0238
▁staff	-11.0238
▁woke	-11.0238
▁guide	-11.0238
mcee	-11.0239
▁plum	-11.0239
▁Police	-11.0239
▁Series	-11.0239
▁unknown	-11.0239
▁Southern	-11.0239
▁Dude	-11.0239
▁daily	-11.024
▁Everyone	-11.024
▁Leland	-11.024
▁neighbour	-11.0241
▁pride	-11.0242
DIA	-11.0242
END	-11.0244
▁flight	-11.0245
▁cock	-11.0245
▁slave	-11.0245
▁producer	-11.0246
▁CAN	-11.0247
▁opening	-11.0247
▁suspect	-11.0247
stein	-11.0248
▁upset	-11.0248
Can	-11.0253
▁intended	-11.0253
▁sake	-11.0254
▁mini	-11.0259
ement	-11.0261
▁bass	-11.0262
▁march	-11.0269
▁officially	-11.0269
▁failed	-11.027
rry	-11.0271
▁Dear	-11.0271
▁practise	-11.0282
door	-11.0282
▁wildly	-11.0287
▁bud	-11.0304
3.4	-11.0312
▁banks	-11.0337
▁Ve	-11.0341
▁rip	-11.0344
▁attacked	-11.0353
▁bull	-11.0358
turn	-11.0364
ius	-11.0373
▁Georgia	-11.0377
▁Pop	-11.0378
▁recording	-11.039
ological	-11.0394
ane	-11.0399
▁listened	-11.0413
rong	-11.0446
gging	-11.0451
▁tool	-11.0454
▁chin	-11.0459
PLA	-11.0461
RED	-11.0465
▁closet	-11.0465
IVE	-11.0481
95	-11.0506
▁laughs	-11.0512
cept	-11.0517
La	-11.0522
▁bon	-11.0526
▁ol	-11.0536
▁propose	-11.0539
CON	-11.0539
▁tumble	-11.054
▁sin	-11.0542
▁Mont	-11.0547
▁Easter	-11.0549
▁Ye	-11.0572
▁custom	-11.0595
IES	-11.0612
▁Author	-11.0615
Brown	-11.0617
position	-11.0617
horseshoe	-11.0617
from	-11.0618
silence	-11.0618
EXP	-11.0619
▁claim	-11.062
▁discover	-11.0622
▁fail	-11.0622
found	-11.0623
▁provide	-11.0627
aught	-11.0643
ology	-11.065
ification	-11.065
▁zoo	-11.0654
simultaneous	-11.0654
▁1981	-11.0654
▁1993	-11.0654
▁APHRODUCKY	-11.0654
▁Edition	-11.0654
▁Malenda	-11.0654
▁Pacific	-11.0654
▁STORY	-11.0654
▁channel	-11.0654
▁diamond	-11.0654
▁easily	-11.0654
▁enormous	-11.0654
▁neighborhood	-11.0654
▁nervous	-11.0654
▁principle	-11.0654
▁research	-11.0654
▁resources	-11.0654
▁sponge	-11.0654
▁studies	-11.0654
▁pattern	-11.0654
▁swingswing	-11.0654
▁twist	-11.0654
▁insurance	-11.0654
▁parrot	-11.0654
▁José	-11.0654
▁altogether	-11.0654
▁Hawk	-11.0654
▁Susan	-11.0654
▁Daniel	-11.0654
▁relief	-11.0655
▁float	-11.0655
▁Bobby	-11.0655
▁midnight	-11.0655
▁occasionally	-11.0655
▁Betty	-11.0655
▁stroke	-11.0655
▁gettin	-11.0655
▁pork	-11.0656
mumbles	-11.0656
▁northern	-11.0656
▁Corey	-11.0656
▁Chair	-11.0656
▁spare	-11.0656
▁Hunt	-11.0656
▁Loring	-11.0656
▁foolish	-11.0657
▁boyfriend	-11.0658
▁Children	-11.0658
▁discussion	-11.0658
▁Twin	-11.0658
▁rapidly	-11.0658
▁function	-11.0659
▁Someone	-11.0659
▁assist	-11.0659
▁Tommy	-11.0661
▁Today	-11.0662
▁yup	-11.0663
▁Seven	-11.0666
▁Club	-11.0666
▁eraser	-11.0666
▁Out	-11.0666
▁shade	-11.0666
gna	-11.0667
▁SIS	-11.067
▁stairs	-11.0673
count	-11.0675
▁OH	-11.0677
▁slightly	-11.0678
have	-11.0678
▁ability	-11.0679
▁awfully	-11.0685
▁Indiana	-11.0687
▁suffered	-11.0693
▁Brown	-11.0694
▁addressed	-11.0695
▁remarked	-11.0697
▁wine	-11.0698
enne	-11.0699
▁ideal	-11.0701
▁crawling	-11.0701
▁bloody	-11.0703
▁dim	-11.0704
23	-11.0707
▁keeper	-11.0708
▁shy	-11.071
▁tests	-11.0711
Your	-11.0711
80	-11.0712
▁str	-11.0714
▁riding	-11.0715
ridge	-11.0725
▁melt	-11.073
▁Justin	-11.0731
▁prayer	-11.0731
▁painted	-11.0737
▁map	-11.0738
ancy	-11.0745
ENT	-11.0759
▁sleepy	-11.0761
▁lack	-11.0773
▁closely	-11.0773
▁ob	-11.078
▁dive	-11.0791
▁crossed	-11.0793
▁sco	-11.0796
▁tap	-11.0796
▁Jer	-11.0797
▁forest	-11.0803
arch	-11.0807
▁strip	-11.0814
▁visitors	-11.0816
ALL	-11.0817
▁seated	-11.0823
▁fully	-11.0847
Re	-11.0849
▁Ge	-11.0854
▁yell	-11.086
▁successful	-11.0865
27	-11.0871
▁Eric	-11.0876
▁ver	-11.0884
▁Du	-11.089
IE	-11.0892
lies	-11.0908
pelle	-11.0921
▁organ	-11.0923
▁sounded	-11.0954
▁owe	-11.096
iti	-11.0975
▁Hal	-11.0981
▁results	-11.0993
ella	-11.0995
▁fired	-11.0995
OO	-11.0997
▁compare	-11.1016
wing	-11.103
▁farmers	-11.1037
▁bugs	-11.1044
▁buttons	-11.1048
▁spit	-11.105
which	-11.1052
high	-11.1057
▁boil	-11.1061
bank	-11.1061
▁succeed	-11.1061
talking	-11.1062
▁[8	-11.1066
Mi	-11.1066
▁vain	-11.1073
▁swift	-11.1075
▁mention	-11.1076
▁elder	-11.1076
▁trail	-11.1077
▁cheerful	-11.1077
apping	-11.1083
about	-11.1085
One	-11.1086
▁1988	-11.1089
▁1996	-11.1089
▁Academy	-11.1089
▁Arroniz	-11.1089
▁Britain	-11.1089
▁Buckingham	-11.1089
▁College	-11.1089
▁Family	-11.1089
▁Frosty	-11.1089
▁Furber	-11.1089
▁Humphrey	-11.1089
▁Mississippi	-11.1089
▁Probably	-11.1089
▁Stephen	-11.1089
▁Thursday	-11.1089
▁apologize	-11.1089
▁candidate	-11.1089
▁citizen	-11.1089
▁comrade	-11.1089
▁crocodile	-11.1089
▁drift	-11.1089
▁ejaculated	-11.1089
▁expensive	-11.1089
▁invasion	-11.1089
▁parlor	-11.1089
▁responsibility	-11.1089
▁uniform	-11.1089
▁electric	-11.1089
▁divide	-11.1089
▁shock	-11.1089
▁KNOW	-11.1089
▁native	-11.1089
▁razor	-11.1089
▁blind	-11.1089
▁avoid	-11.1089
▁instance	-11.1089
▁clay	-11.1089
▁federal	-11.1089
▁tennis	-11.1089
▁whipped	-11.1089
▁parade	-11.1089
▁skiff	-11.109
▁Harris	-11.109
▁Group	-11.109
▁Jimmy	-11.109
▁administration	-11.1091
▁Valley	-11.1091
▁girlfriend	-11.1091
▁estate	-11.1091
▁Greg	-11.1091
▁winner	-11.1092
▁Jerry	-11.1092
▁cellar	-11.1092
illon	-11.1092
▁pail	-11.1093
▁safety	-11.1093
▁marry	-11.1093
▁clop	-11.1093
▁programme	-11.1094
▁magician	-11.1094
▁powerful	-11.1095
▁branches	-11.1095
▁seventy	-11.1095
ouch	-11.1097
▁SHE	-11.1097
▁fascinating	-11.1097
▁lamp	-11.1097
▁Game	-11.1097
▁Four	-11.1098
▁African	-11.1098
▁Ti	-11.11
fall	-11.11
▁boss	-11.1103
▁entirely	-11.1108
▁steamer	-11.1108
▁vision	-11.1109
▁Mayor	-11.1113
▁bored	-11.1114
▁multi	-11.1114
▁showing	-11.1117
▁trap	-11.1117
Indeed	-11.112
▁setting	-11.112
▁developed	-11.1121
▁Cat	-11.1121
▁dolly	-11.1123
▁messy	-11.1124
▁treaty	-11.1125
▁EX	-11.1129
▁Holy	-11.1134
hole	-11.1135
▁media	-11.1135
▁coon	-11.1141
flat	-11.1149
lter	-11.115
▁backward	-11.1151
▁sneeze	-11.1157
▁bones	-11.116
▁imagined	-11.1162
▁murderer	-11.1163
hal	-11.1169
tail	-11.118
Lo	-11.1186
Eve	-11.1192
▁Representatives	-11.1198
▁Ask	-11.12
▁disc	-11.1201
▁wise	-11.1225
appen	-11.1226
▁Tree	-11.124
▁reported	-11.1245
OL	-11.1248
▁1.5	-11.1251
▁ordered	-11.1251
▁catching	-11.1255
▁quart	-11.1263
fire	-11.1275
▁weary	-11.1279
▁Carl	-11.1283
▁90	-11.129
▁arrows	-11.1291
EAR	-11.1294
▁36	-11.1294
0,000	-11.1295
▁pushed	-11.1298
▁pri	-11.1311
cup	-11.1316
wn	-11.1321
▁fa	-11.1329
▁finding	-11.1331
▁Est	-11.1335
▁45	-11.1336
mond	-11.1358
▁legal	-11.137
▁Un	-11.1376
Bo	-11.1378
col	-11.1388
cap	-11.1396
▁clunks	-11.1397
ria	-11.1397
war	-11.1411
▁Ain	-11.1413
▁drip	-11.1417
cut	-11.1434
▁Mel	-11.1442
ears	-11.1448
▁gar	-11.1453
arian	-11.1455
▁sticky	-11.1471
▁Lee	-11.1475
▁rap	-11.1476
▁depend	-11.1487
▁develop	-11.1506
construction	-11.1507
▁arrive	-11.1508
Look	-11.1509
▁sno	-11.1517
sounds	-11.1523
▁thankful	-11.1524
▁brief	-11.153
▁stole	-11.153
▁actual	-11.153
▁breathe	-11.1531
also	-11.1538
▁branch	-11.1539
Poss	-11.1541
▁relation	-11.1543
▁{\	-11.1543
▁Mountain	-11.1543
▁1979	-11.1543
▁Alfred	-11.1543
▁Hydraulic	-11.1543
▁Mahdrusa	-11.1543
▁Matthew	-11.1543
▁Simpson	-11.1543
▁Whittaker	-11.1543
▁activist	-11.1543
▁bastard	-11.1543
▁executed	-11.1543
▁horrible	-11.1543
▁horror	-11.1543
▁incident	-11.1543
▁journalist	-11.1543
▁lobster	-11.1543
▁ntuu	-11.1543
▁ordinary	-11.1543
▁servant	-11.1543
▁slept	-11.1543
▁society	-11.1543
▁studied	-11.1543
▁symbol	-11.1543
▁tempt	-11.1543
▁thirteen	-11.1543
▁widow	-11.1543
▁Shadow	-11.1543
▁freedom	-11.1543
▁loaf	-11.1543
▁Maple	-11.1543
▁Teddy	-11.1543
▁contain	-11.1543
▁loving	-11.1543
▁illustrations	-11.1543
▁Katie	-11.1543
▁changing	-11.1543
▁jewel	-11.1543
▁memory	-11.1544
▁pumpkin	-11.1544
▁Everybody	-11.1544
▁racing	-11.1544
▁lodge	-11.1544
▁swear	-11.1544
▁bolt	-11.1544
▁dining	-11.1544
▁1950	-11.1544
▁Honey	-11.1544
▁route	-11.1545
▁modern	-11.1545
▁Julia	-11.1545
▁jacket	-11.1545
▁terrorist	-11.1546
▁Northern	-11.1546
▁priest	-11.1546
▁Hope	-11.1546
▁Kevin	-11.1546
▁Hugo	-11.1547
▁NOW	-11.1547
▁clam	-11.1548
▁everywhere	-11.1549
▁GET	-11.155
▁cash	-11.1552
▁UK	-11.1552
▁fox	-11.1553
▁sixty	-11.1553
▁exist	-11.1553
▁matches	-11.1553
▁yum	-11.1554
▁launch	-11.1555
▁Missus	-11.1556
▁Bolt	-11.1559
▁previously	-11.156
▁Andy	-11.156
▁create	-11.156
▁file	-11.1563
made	-11.1563
▁comb	-11.1565
▁settled	-11.1575
hawk	-11.1575
▁helpless	-11.1577
▁dresses	-11.1582
▁delightful	-11.1583
▁pushe	-11.1583
▁crackers	-11.1585
▁uttered	-11.159
▁Jay	-11.1592
▁spilled	-11.1596
gotten	-11.1597
▁HOW	-11.1598
▁protests	-11.1598
▁split	-11.1599
▁UP	-11.1601
▁shouting	-11.1607
▁worker	-11.1617
▁barking	-11.1623
▁roller	-11.1627
▁tend	-11.1634
▁asylum	-11.1637
▁Bay	-11.1639
▁compar	-11.1641
▁shortly	-11.1648
▁Arm	-11.1648
▁rolled	-11.1648
▁HIS	-11.1651
2.4	-11.1651
▁Must	-11.1665
▁separate	-11.1667
▁beach	-11.1674
▁seiz	-11.1676
▁DE	-11.1678
▁dolls	-11.1697
▁mon	-11.1704
ppe	-11.1705
▁replace	-11.171
Mar	-11.172
▁Cal	-11.172
▁stared	-11.1722
cast	-11.1724
▁Donal	-11.1726
noises	-11.1731
▁students	-11.1743
▁heap	-11.1744
▁jumping	-11.1745
▁Too	-11.1749
▁tooth	-11.1751
▁ringing	-11.1752
▁armed	-11.1753
ith	-11.1756
02	-11.176
drops	-11.1761
▁MA	-11.1764
▁Mmm	-11.177
▁Villa	-11.1792
▁overlap	-11.1794
▁Wo	-11.1794
Who	-11.1799
▁Aunt	-11.1802
▁quarts	-11.1805
ional	-11.1814
umber	-11.1823
▁ribbons	-11.1854
unk	-11.1869
▁chap	-11.1892
wept	-11.1917
Ro	-11.1919
bur	-11.1921
ARD	-11.1921
stead	-11.1928
mic	-11.1937
▁achieve	-11.1943
▁dangl	-11.1951
cord	-11.1955
▁Mac	-11.1961
ient	-11.1963
cream	-11.1968
▁Hear	-11.1974
▁oo	-11.1977
clunk	-11.1982
video	-11.1983
Little	-11.1983
blocks	-11.1983
Hello	-11.1984
▁invite	-11.1993
▁frighten	-11.2003
▁Australia	-11.2006
▁dreadful	-11.2006
▁curious	-11.2007
▁Clip	-11.2007
▁chick	-11.2007
▁Command	-11.2008
▁indicate	-11.2008
▁plains	-11.2008
▁hills	-11.2011
ua	-11.2011
▁buffalo	-11.2013
Did	-11.2015
▁admit	-11.2019
ademoiselle	-11.202
▁Chicago	-11.202
▁Economic	-11.202
▁Exactly	-11.202
▁Golden	-11.202
▁Jeremy	-11.202
▁Massachusetts	-11.202
▁Night	-11.202
▁Northeast	-11.202
▁Professor	-11.202
▁Science	-11.202
▁breeze	-11.202
▁bubble	-11.202
▁climate	-11.202
▁communist	-11.202
▁cottage	-11.202
▁delicate	-11.202
▁disturb	-11.202
▁instrument	-11.202
▁investigation	-11.202
▁league	-11.202
▁marvelous	-11.202
▁multiple	-11.202
▁seldom	-11.202
▁sleeve	-11.202
▁walnut	-11.202
▁Gordon	-11.202
▁bunch	-11.202
▁device	-11.202
▁historical	-11.202
▁spoil	-11.202
▁intense	-11.202
▁buried	-11.202
▁collar	-11.202
▁jail	-11.202
▁eighteen	-11.202
▁deserve	-11.202
▁measure	-11.202
▁interview	-11.202
▁recover	-11.202
▁Welcome	-11.202
▁adult	-11.202
▁Horne	-11.202
▁compass	-11.202
▁pepper	-11.202
▁ladder	-11.202
▁tobacco	-11.2021
▁hollow	-11.2021
▁2004	-11.2021
▁basketball	-11.2021
▁Mouse	-11.2021
▁poetry	-11.2021
▁lord	-11.2021
▁ugh	-11.2021
▁dotted	-11.2021
▁GOT	-11.2022
▁management	-11.2022
▁extremely	-11.2022
▁rude	-11.2022
▁Edward	-11.2022
▁bacon	-11.2022
▁Committee	-11.2022
▁chart	-11.2023
▁inform	-11.2023
▁tube	-11.2024
▁chih	-11.2024
▁Perro	-11.2024
▁Master	-11.2025
▁saving	-11.2025
▁Karen	-11.2026
▁Elton	-11.2026
▁choose	-11.2027
▁Fielding	-11.2027
▁Shi	-11.2027
▁drugs	-11.2028
▁standard	-11.2028
▁chosen	-11.2029
▁policeman	-11.2029
▁musician	-11.2029
▁crown	-11.2032
▁snowman	-11.2033
▁poet	-11.2033
▁businessman	-11.2034
▁briefly	-11.2034
▁operation	-11.2035
▁Show	-11.2036
▁rocket	-11.2036
LIS	-11.2036
▁Law	-11.204
▁Pope	-11.2041
▁Pete	-11.2043
▁skill	-11.2044
▁troll	-11.2044
▁Again	-11.2045
▁pry	-11.2048
▁comedy	-11.2048
▁Hang	-11.2051
7/	-11.2054
▁merry	-11.2056
eyres	-11.2063
criticism	-11.2065
▁limited	-11.2065
▁gi	-11.2067
▁dumped	-11.2067
▁Sea	-11.2073
ken	-11.2075
▁represented	-11.2078
▁realized	-11.2079
▁Cold	-11.2083
aving	-11.2091
▁Young	-11.21
▁Cho	-11.2103
▁noble	-11.2104
▁warn	-11.2107
ester	-11.2126
▁HA	-11.2139
Me	-11.2145
▁notion	-11.2152
▁washing	-11.2164
urg	-11.217
▁Tim	-11.2173
▁Dun	-11.2174
uil	-11.2176
▁transfer	-11.2178
taps	-11.2185
bin	-11.2196
▁Sweets	-11.2201
▁Ko	-11.2206
AK	-11.2212
ntil	-11.2216
mple	-11.2228
race	-11.2256
▁Arch	-11.2256
▁blowing	-11.2263
▁Tha	-11.2268
▁Sara	-11.2268
▁Mal	-11.2271
▁rank	-11.2273
▁buying	-11.2275
▁tame	-11.2276
▁aloud	-11.2282
▁Char	-11.2283
▁clo	-11.2283
▁Home	-11.2294
▁kin	-11.2299
onna	-11.2299
▁camel	-11.2303
▁Chan	-11.2323
▁tribes	-11.2346
Gu	-11.238
lapping	-11.238
▁PR	-11.2381
▁rang	-11.2425
▁joyful	-11.2429
cci	-11.2433
ady	-11.2437
▁Bor	-11.2447
▁kit	-11.2456
▁III	-11.2463
▁grab	-11.2464
▁Guard	-11.2467
RY	-11.2468
▁LA	-11.247
▁Ok	-11.2474
&	-11.2483
lift	-11.2484
▁disappear	-11.2486
itude	-11.2492
book	-11.2492
▁scare	-11.2493
chair	-11.25
▁eager	-11.2506
▁brand	-11.2507
▁sauce	-11.2509
▁Rock	-11.2512
▁Jam	-11.2513
▁ti	-11.2514
▁drag	-11.2514
▁makin	-11.2516
▁nothin	-11.2517
▁percent	-11.252
ologist	-11.252
buzzing	-11.252
occupied	-11.252
▁1933	-11.252
▁1955	-11.252
▁1959	-11.252
▁Edgewater	-11.252
▁HOME	-11.252
▁Hospital	-11.252
▁NEW	-11.252
▁Parliament	-11.252
▁Reservoir	-11.252
▁Wallis	-11.252
▁Walrus	-11.252
▁activities	-11.252
▁balcony	-11.252
▁behavior	-11.252
▁bulldozer	-11.252
▁estimate	-11.252
▁jealous	-11.252
▁muttered	-11.252
▁paddock	-11.252
▁parcel	-11.252
▁phrase	-11.252
▁pudding	-11.252
▁relative	-11.252
▁religious	-11.252
▁serving	-11.252
▁thirsty	-11.252
▁victory	-11.252
­	-11.252
▁Darling	-11.252
▁Ocean	-11.252
▁curtain	-11.252
▁steak	-11.252
▁1997	-11.252
▁Earth	-11.252
▁flesh	-11.252
▁psych	-11.252
▁thrill	-11.252
▁suppli	-11.252
▁Kyle	-11.252
▁grade	-11.252
▁pantry	-11.252
▁prune	-11.252
▁zone	-11.252
▁shiver	-11.252
▁Play	-11.252
▁image	-11.252
▁temperature	-11.252
▁rescue	-11.252
▁wrappe	-11.252
▁splash	-11.252
▁RIGHT	-11.252
▁stiff	-11.252
▁polish	-11.252
▁Happy	-11.252
▁Basin	-11.252
▁Wild	-11.2521
▁spank	-11.2521
▁raising	-11.2521
▁primar	-11.2521
▁Marble	-11.2521
▁latter	-11.2522
▁crop	-11.2522
▁pressure	-11.2522
▁Middle	-11.2523
▁Irish	-11.2523
▁Without	-11.2523
UE	-11.2523
▁Walt	-11.2524
▁papa	-11.2524
▁Open	-11.2524
▁Nebraska	-11.2524
▁Check	-11.2525
▁label	-11.2525
▁Timor	-11.2525
▁slice	-11.2525
▁alongside	-11.2525
▁charit	-11.2525
▁stopping	-11.2526
▁hoot	-11.2526
▁detail	-11.2527
▁fairies	-11.2528
▁OFF	-11.2529
▁puff	-11.253
▁Ukrainian	-11.253
▁Hurry	-11.2531
▁according	-11.2532
▁stable	-11.2535
▁scan	-11.2536
▁criticize	-11.2538
▁Mori	-11.254
▁independent	-11.254
▁Moon	-11.254
▁List	-11.2542
▁sword	-11.255
▁thankyou	-11.2551
▁warning	-11.2555
▁arranged	-11.2556
▁bitch	-11.2556
▁Free	-11.2556
▁maid	-11.2556
▁environmental	-11.256
▁boom	-11.2561
▁bent	-11.2563
▁sadly	-11.2563
▁approached	-11.2569
dum	-11.2579
▁designed	-11.2579
▁rear	-11.2592
ette	-11.2599
rough	-11.2603
▁Ruth	-11.2611
▁Cry	-11.2613
▁***	-11.2641
▁beans	-11.2642
skin	-11.2646
▁rider	-11.2649
body	-11.2655
▁cooked	-11.2665
far	-11.2673
▁Olympics	-11.2673
▁painful	-11.2683
▁episodes	-11.2687
▁whip	-11.2691
▁shooting	-11.2703
▁cal	-11.2705
▁bro	-11.2706
▁poke	-11.271
Man	-11.2711
▁highly	-11.2719
▁referent	-11.2721
▁math	-11.2724
è	-11.2727
roy	-11.2729
▁winding	-11.2737
met	-11.2739
look	-11.2747
▁shown	-11.2752
TION	-11.2754
noise	-11.2765
▁ache	-11.2766
rges	-11.2766
ello	-11.2779
▁Za	-11.278
cour	-11.2782
▁marble	-11.2795
hone	-11.28
THE	-11.2804
▁1991	-11.282
HE	-11.2827
Le	-11.283
uf	-11.2834
nte	-11.2839
▁HI	-11.285
▁spelling	-11.2879
50	-11.2899
Hi	-11.2907
gives	-11.2908
ify	-11.2917
▁Tea	-11.2935
trees	-11.2994
▁fir	-11.3001
eight	-11.3003
touches	-11.3008
whining	-11.3009
▁tax	-11.3012
▁direct	-11.3013
▁crow	-11.3015
EX	-11.3016
evel	-11.3032
▁sew	-11.3033
UP	-11.3039
▁Ven	-11.3043
▁distinct	-11.3043
▁minor	-11.3045
▁1982	-11.3046
▁ABOUT	-11.3046
▁Anhui	-11.3046
▁Christopher	-11.3046
▁Football	-11.3046
▁Guitar	-11.3046
▁Harvard	-11.3046
▁Kapoor	-11.3046
▁Oblast	-11.3046
▁Portugal	-11.3046
▁Service	-11.3046
▁WHO	-11.3046
▁Zebedee	-11.3046
▁approve	-11.3046
▁beneath	-11.3046
▁caterpillar	-11.3046
▁celery	-11.3046
▁confirm	-11.3046
▁consignment	-11.3046
▁elbow	-11.3046
▁furniture	-11.3046
▁giraffe	-11.3046
▁grub	-11.3046
▁guarantee	-11.3046
▁incredible	-11.3046
▁injuries	-11.3046
▁microphone	-11.3046
▁necessarily	-11.3046
▁obliged	-11.3046
▁parallel	-11.3046
▁peculiar	-11.3046
▁physical	-11.3046
▁pregnant	-11.3046
▁puppies	-11.3046
▁romantic	-11.3046
▁rustling	-11.3046
▁sarcoma	-11.3046
▁smoking	-11.3046
▁unhappy	-11.3046
▁unusual	-11.3046
▁Internet	-11.3046
▁LIKE	-11.3046
▁Second	-11.3046
▁UDP	-11.3046
▁gloom	-11.3046
▁shadow	-11.3046
▁skull	-11.3046
▁wharf	-11.3046
▁orchard	-11.3046
▁squeal	-11.3046
▁studio	-11.3046
▁witness	-11.3046
▁Fitz	-11.3046
▁engage	-11.3046
▁WAS	-11.3046
▁lazy	-11.3046
▁Phillip	-11.3046
▁generous	-11.3046
▁Lauren	-11.3046
▁literature	-11.3046
▁purse	-11.3046
▁yyy	-11.3046
▁Cross	-11.3046
▁Should	-11.3046
▁Child	-11.3046
▁grey	-11.3046
▁oven	-11.3046
▁Elsa	-11.3047
▁Pepper	-11.3047
▁constable	-11.3047
▁insult	-11.3047
▁vague	-11.3047
▁dinghy	-11.3047
▁influence	-11.3047
▁$10	-11.3047
▁Nancy	-11.3047
▁1980	-11.3047
▁giant	-11.3047
▁2001	-11.3047
▁Goodbye	-11.3048
▁gasped	-11.3048
▁chill	-11.3049
▁flute	-11.3049
ueva	-11.305
▁pond	-11.305
▁knot	-11.3051
▁agent	-11.3051
▁maple	-11.3052
▁Moreno	-11.3052
▁pump	-11.3053
▁Willie	-11.3054
▁Marie	-11.3054
FF	-11.3055
▁Thatcher	-11.3055
▁Jake	-11.3055
▁Huck	-11.3057
▁constantly	-11.3057
▁Silv	-11.3058
▁throughout	-11.3062
▁heels	-11.3065
rising	-11.3067
▁nodded	-11.3067
TED	-11.3068
▁murmured	-11.3072
▁fireman	-11.3074
▁sang	-11.3075
▁Force	-11.3076
▁sway	-11.3079
.’”	-11.3086
five	-11.3089
▁youngest	-11.309
▁folded	-11.3091
DOOR	-11.3091
▁whale	-11.3092
▁bore	-11.3093
▁paused	-11.3095
▁signal	-11.3095
tree	-11.3108
ensity	-11.3114
▁clothing	-11.3115
▁sink	-11.3118
▁healthy	-11.3124
▁pure	-11.3129
▁touches	-11.3129
did	-11.313
▁murdered	-11.3131
▁lately	-11.3132
▁suggested	-11.3138
▁dared	-11.314
▁vocalization	-11.3145
▁recall	-11.3147
▁stranger	-11.3153
▁upper	-11.3188
▁souther	-11.3188
▁Isa	-11.3193
comp	-11.3204
▁prefer	-11.3213
ferring	-11.3216
▁rare	-11.3238
▁184	-11.3242
▁companions	-11.3249
▁cleaning	-11.3263
▁curl	-11.3274
actor	-11.3279
▁cancel	-11.3289
LES	-11.3289
▁Sand	-11.3295
▁Aren	-11.332
eph	-11.3336
▁Asia	-11.3337
▁Del	-11.3362
blows	-11.3364
▁Victor	-11.3368
blo	-11.3376
▁ec	-11.3378
Both	-11.3379
▁Ten	-11.3391
▁AM	-11.3406
kar	-11.3406
ization	-11.3411
lance	-11.342
itter	-11.344
▁graduat	-11.3467
▁origin	-11.3475
open	-11.3496
▁pointing	-11.3499
mato	-11.3509
▁tar	-11.351
By	-11.354
member	-11.356
NO	-11.3563
ku	-11.3563
correct	-11.3564
pretend	-11.3565
office	-11.3565
▁sorrow	-11.3571
erie	-11.3573
leep	-11.3581
whispers	-11.3584
oz	-11.3586
▁desperate	-11.3588
▁BOY	-11.3593
▁environment	-11.3594
Bro	-11.3595
For	-11.36
▁Euro	-11.3601
¶	-11.3601
▁1939	-11.3601
▁1940	-11.3601
▁1974	-11.3601
▁1989	-11.3601
▁Abigail	-11.3601
▁Administration	-11.3601
▁Institute	-11.3601
▁Lucious	-11.3601
▁Portuguese	-11.3601
▁Security	-11.3601
▁Taylor	-11.3601
▁Tonsil	-11.3601
▁anxiety	-11.3601
▁dungaree	-11.3601
▁embarrass	-11.3601
▁encourage	-11.3601
▁handkerchief	-11.3601
▁humble	-11.3601
▁pistol	-11.3601
▁religion	-11.3601
▁scheme	-11.3601
▁sissy	-11.3601
▁Mummy	-11.3601
▁fifth	-11.3601
▁industry	-11.3601
▁leetle	-11.3601
▁bloom	-11.3601
▁brick	-11.3601
▁definitely	-11.3601
▁drank	-11.3601
▁zero	-11.3601
Gabbar	-11.3601
▁awesome	-11.3601
▁frank	-11.3601
▁disaster	-11.3602
▁extend	-11.3602
▁piano	-11.3602
▁document	-11.3602
▁ocean	-11.3602
▁Leave	-11.3602
▁expert	-11.3602
▁agenda	-11.3602
▁Berlin	-11.3602
▁Lyon	-11.3602
▁Alice	-11.3602
▁kilo	-11.3602
▁Region	-11.3602
▁carrier	-11.3602
ISH	-11.3602
▁broadcast	-11.3602
▁coast	-11.3602
▁steel	-11.3602
▁composed	-11.3602
▁sniff	-11.3602
▁Edith	-11.3602
▁improve	-11.3602
▁marriage	-11.3602
▁railway	-11.3602
▁Polish	-11.3602
▁buddy	-11.3602
folk	-11.3602
▁Dolly	-11.3602
▁creep	-11.3602
▁Sounds	-11.3603
▁snack	-11.3603
▁1925	-11.3603
▁connection	-11.3604
▁mount	-11.3605
▁HERE	-11.3605
▁apartment	-11.3605
TIME	-11.3607
▁Melbourne	-11.3607
▁packet	-11.3607
▁robe	-11.3608
▁Helen	-11.3608
▁ceased	-11.3609
▁Jackson	-11.3609
▁Steven	-11.3609
▁protection	-11.361
▁Mind	-11.3611
▁flies	-11.3612
▁passion	-11.3613
▁shine	-11.3613
▁torn	-11.3613
▁saucer	-11.3614
▁Huh	-11.3615
▁uhuh	-11.3615
▁method	-11.3616
▁spear	-11.3616
▁tick	-11.3616
▁Plan	-11.3619
▁golden	-11.362
▁reality	-11.3622
▁2014)	-11.3627
▁Music	-11.363
25	-11.3634
▁Brun	-11.3636
▁forbid	-11.3636
▁Cass	-11.3642
ić	-11.3643
awa	-11.3645
▁furious	-11.3645
▁seriously	-11.3646
▁escaped	-11.3652
▁accepted	-11.3653
▁clicking	-11.3653
▁bid	-11.3658
▁ouch	-11.3665
▁gained	-11.3666
▁printing	-11.3671
▁Iris	-11.3681
▁wherever	-11.3686
▁belt	-11.3686
▁Nico	-11.3699
▁painting	-11.3718
▁expecting	-11.3733
▁60	-11.3738
▁port	-11.3744
dden	-11.3753
rp	-11.3758
ully	-11.3769
2.6	-11.3769
loft	-11.3793
34	-11.381
colored	-11.3816
▁sharpen	-11.3819
Or	-11.3836
▁Gil	-11.3852
▁receive	-11.3869
lon	-11.3879
▁Close	-11.3879
point	-11.391
▁drawer	-11.3923
▁surely	-11.3927
▁bearing	-11.3932
▁student	-11.3935
▁187	-11.4011
▁Dai	-11.403
▁mustn	-11.4032
▁insist	-11.4034
▁Pass	-11.4038
▁Van	-11.4048
▁Pra	-11.4052
Word	-11.4065
▁plac	-11.4067
▁Fran	-11.4076
▁Ke	-11.4095
GER	-11.4115
ody	-11.4125
ipping	-11.4127
shaped	-11.4128
▁faith	-11.4128
rio	-11.4131
29	-11.4145
building	-11.4153
▁connect	-11.4154
▁van	-11.4155
▁publish	-11.4157
find	-11.4157
q	-11.4159
why	-11.4161
▁whee	-11.4163
▁steam	-11.4163
Every	-11.4166
▁aunt	-11.4171
force	-11.4171
▁Office	-11.4177
▁swor	-11.4182
▁Democrat	-11.4187
▁employ	-11.4189
▁champion	-11.4189
▁scholar	-11.4189
▁illustrat	-11.419
▁1962	-11.419
▁1966	-11.419
▁1975	-11.419
▁Association	-11.419
▁Castelsarrasin	-11.419
▁Catherine	-11.419
▁Chamber	-11.419
▁Congratulations	-11.419
▁GOOD	-11.419
▁Haversham	-11.419
▁Lawrence	-11.419
▁Nintendo	-11.419
▁Oregon	-11.419
▁Ubisoft	-11.419
▁Urler	-11.419
▁Wilks	-11.419
▁YEAH	-11.419
▁chemical	-11.419
▁cherries	-11.419
▁cluster	-11.419
▁column	-11.419
▁competitor	-11.419
▁complicated	-11.419
▁concentrate	-11.419
▁despair	-11.419
▁distinguish	-11.419
▁elliot	-11.419
▁furnace	-11.419
▁immigrant	-11.419
▁pyramid	-11.419
▁quarrel	-11.419
▁resident	-11.419
▁solemn	-11.419
▁vanished	-11.419
▁volunteer	-11.419
ü	-11.419
▁Greek	-11.419
▁cocoa	-11.419
▁Animal	-11.419
▁Sheriff	-11.419
▁arrival	-11.419
▁pennies	-11.419
▁relax	-11.419
▁Montreal	-11.419
▁Scout	-11.419
▁disgust	-11.419
▁repair	-11.419
▁Gowen	-11.419
▁Andrade	-11.419
▁Personal	-11.419
▁jerk	-11.419
▁housing	-11.419
▁Tomás	-11.419
▁steady	-11.419
▁Holly	-11.419
▁average	-11.419
▁Social	-11.419
▁mysterious	-11.419
▁bushes	-11.419
▁Pennsylvania	-11.419
▁hastily	-11.419
▁silk	-11.419
▁feeble	-11.419
▁duties	-11.419
▁Diane	-11.419
▁Chatter	-11.4191
47	-11.4191
▁industri	-11.4191
▁hidden	-11.4192
▁cheat	-11.4192
▁Alexand	-11.4192
▁HIM	-11.4192
▁copper	-11.4193
▁beast	-11.4193
▁Native	-11.4193
▁Josh	-11.4193
▁assume	-11.4193
▁Baby	-11.4194
▁Apple	-11.4194
▁consume	-11.4195
▁losing	-11.4195
▁leak	-11.4195
▁glow	-11.4195
▁Zoo	-11.4196
▁LET	-11.4196
▁settlement	-11.4197
▁preparation	-11.4197
▁Cook	-11.4197
▁Post	-11.4197
▁jam	-11.4197
▁genus	-11.4198
▁theater	-11.4198
▁neuro	-11.4199
▁liar	-11.42
▁patch	-11.42
▁HER	-11.4201
▁Alex	-11.4201
▁Stacy	-11.4202
▁exam	-11.4203
▁bitterly	-11.4203
▁Officer	-11.4203
▁cmon	-11.4203
▁Vol	-11.4203
▁scrub	-11.4203
▁doorway	-11.4204
range	-11.4206
▁folder	-11.4208
▁Carry	-11.4208
▁beep	-11.4208
▁procession	-11.4211
▁jet	-11.4213
▁gravely	-11.4214
ura	-11.4215
▁stain	-11.4219
▁normally	-11.4219
▁cutting	-11.4228
▁sexy	-11.4229
dded	-11.4229
▁taxi	-11.423
▁Fig	-11.4235
▁succeeded	-11.4236
▁Mad	-11.4244
▁arrange	-11.4245
▁34	-11.4247
▁shelf	-11.425
▁locked	-11.4259
▁stretched	-11.4261
▁pigeons	-11.4261
▁deck	-11.4265
▁removed	-11.427
▁hip	-11.4273
waves	-11.4287
▁Lou	-11.4292
hums	-11.4293
▁soap	-11.43
▁whispering	-11.432
were	-11.4322
▁1967	-11.4327
only	-11.433
FA	-11.4332
▁None	-11.4354
upp	-11.4385
On	-11.4391
▁dreamed	-11.4396
▁Had	-11.4399
▁Boss	-11.4404
erry	-11.4448
▁moo	-11.4449
sits	-11.4452
▁harder	-11.4487
hop	-11.4493
▁Var	-11.451
dale	-11.4514
anny	-11.4524
nything	-11.4529
refer	-11.4534
AVE	-11.4541
▁swan	-11.4549
isa	-11.4552
▁dollar	-11.4572
▁fella	-11.4584
OUR	-11.4611
new	-11.4643
▁Bad	-11.4645
designat	-11.4667
gether	-11.4689
fashioned	-11.4699
▁user	-11.4699
28	-11.4703
▁swam	-11.4707
▁fee	-11.4721
▁caus	-11.4729
hua	-11.4729
OTHER	-11.473
▁1941	-11.4742
arms	-11.4765
ability	-11.4777
Poor	-11.4778
pushe	-11.4778
foot	-11.4778
committee	-11.4778
picture	-11.4778
(	-11.4778
short	-11.4778
three	-11.4781
known	-11.4788
LOU	-11.4795
▁fright	-11.4799
▁crap	-11.4799
ANT	-11.4801
▁Africa	-11.4801
▁severe	-11.4801
▁constant	-11.4801
Some	-11.4802
taking	-11.4805
▁produce	-11.4805
▁200	-11.4811
▁distribut	-11.4812
▁Francis	-11.4813
▁Wonder	-11.4813
load	-11.4814
▁favour	-11.4814
▁false	-11.4814
▁1952	-11.4815
▁1954	-11.4815
▁1984	-11.4815
▁1998	-11.4815
▁Absolutely	-11.4815
▁Alaska	-11.4815
▁Apparently	-11.4815
▁Between	-11.4815
▁Brutus	-11.4815
▁DREAM	-11.4815
▁Lieutenant	-11.4815
▁Phoenix	-11.4815
▁Tuesday	-11.4815
▁available	-11.4815
▁awkward	-11.4815
▁combination	-11.4815
▁competition	-11.4815
▁emergency	-11.4815
▁escort	-11.4815
▁familiar	-11.4815
▁feast	-11.4815
▁george	-11.4815
▁heavily	-11.4815
▁imitate	-11.4815
▁impeachment	-11.4815
▁increasing	-11.4815
▁mosquito	-11.4815
▁possession	-11.4815
▁pursuit	-11.4815
▁quality	-11.4815
▁responsible	-11.4815
▁satisfaction	-11.4815
▁trousers	-11.4815
▁voluntary	-11.4815
▁Buddy	-11.4815
▁compliment	-11.4815
▁entrance	-11.4815
▁frock	-11.4815
▁froze	-11.4815
▁idiot	-11.4815
▁tadah	-11.4815
▁tummy	-11.4815
▁Bambi	-11.4815
▁WILL	-11.4815
▁southeast	-11.4815
▁wiggle	-11.4815
▁MAKE	-11.4815
▁distress	-11.4815
▁plus	-11.4815
▁1977	-11.4815
▁Goddard	-11.4815
▁Therefore	-11.4815
▁FBI	-11.4815
▁Food	-11.4815
▁Jersey	-11.4815
▁lonely	-11.4815
▁XVI	-11.4815
▁dainty	-11.4815
▁loyal	-11.4815
▁1957	-11.4815
▁COME	-11.4815
▁greet	-11.4815
▁drain	-11.4815
▁forehead	-11.4815
▁skirt	-11.4815
▁Thierr	-11.4815
▁insect	-11.4815
▁Evans	-11.4815
▁Division	-11.4815
▁Municipality	-11.4815
▁Manning	-11.4815
▁begun	-11.4815
▁opposition	-11.4815
▁sailboat	-11.4815
▁Except	-11.4815
agger	-11.4815
▁Miami	-11.4815
nnual	-11.4815
▁Thanksgiving	-11.4815
▁byebye	-11.4815
▁apply	-11.4815
▁sweep	-11.4815
▁hopping	-11.4815
▁transport	-11.4815
▁Though	-11.4816
▁COX	-11.4816
▁talent	-11.4816
▁pardon	-11.4816
▁towel	-11.4816
▁admitted	-11.4816
▁flame	-11.4816
▁Wood	-11.4816
▁Rider	-11.4817
▁rival	-11.4817
▁creation	-11.4817
▁potty	-11.4818
▁invest	-11.4818
▁Also	-11.4818
▁Union	-11.4818
▁Sanders	-11.4819
▁prior	-11.4819
▁insane	-11.4819
▁Women	-11.4819
▁raid	-11.4819
▁Simon	-11.4819
▁glide	-11.482
▁Lock	-11.482
▁friendship	-11.482
▁Poli	-11.482
▁peep	-11.4821
▁confused	-11.4821
▁consist	-11.4821
▁objection	-11.4822
▁fuel	-11.4822
▁Instead	-11.4822
▁Finally	-11.4822
▁agreement	-11.4823
▁haha	-11.4824
▁commenced	-11.4824
▁Later	-11.4827
Jorat	-11.4827
▁affix	-11.483
▁bitter	-11.483
▁fever	-11.4831
▁directly	-11.4831
▁Nazi	-11.4832
▁pau	-11.4832
▁identif	-11.4832
▁Rocky	-11.4833
▁lend	-11.4833
▁Australian	-11.4833
▁Port	-11.4834
▁1964	-11.4835
profit	-11.4835
▁Want	-11.4836
▁peach	-11.4837
▁described	-11.4837
▁occurred	-11.4838
▁careless	-11.4839
▁mood	-11.4844
▁Dana	-11.4845
▁Such	-11.4848
▁anxiously	-11.4848
▁Cop	-11.4848
▁speakers	-11.4849
▁connected	-11.4851
▁useless	-11.4852
▁flip	-11.4853
▁patiently	-11.4857
▁sharply	-11.4857
▁upright	-11.486
▁boiling	-11.4863
▁Around	-11.4867
▁Rose	-11.4869
▁whoever	-11.4869
▁cord	-11.487
▁useta	-11.4871
▁35	-11.4871
▁castle	-11.4873
▁Rio	-11.4873
▁cute	-11.4873
▁proved	-11.4878
▁Back	-11.4878
▁deeply	-11.488
▁Feb	-11.4889
▁Five	-11.4891
▁solve	-11.4892
icious	-11.4894
▁prime	-11.4898
▁tearing	-11.4904
▁bay	-11.4905
▁tease	-11.4914
▁dang	-11.4914
▁raining	-11.4922
large	-11.4926
BW	-11.4934
000	-11.4937
▁Grant	-11.4937
▁Yet	-11.4948
▁Kr	-11.4949
▁danced	-11.4953
▁hire	-11.4958
▁GON	-11.4959
▁soda	-11.4969
60	-11.4977
▁Dec	-11.4997
▁AH	-11.4997
ich	-11.502
▁straighten	-11.5022
▁Sub	-11.5025
FRE	-11.5025
▁cone	-11.5025
▁talkin	-11.5028
aseball	-11.5031
tinen	-11.5061
▁staring	-11.5062
▁Head	-11.5085
▁80	-11.5106
▁killer	-11.5112
▁Pan	-11.512
▁Bear	-11.5145
ille	-11.5155
cakes	-11.5163
▁Sai	-11.5173
▁Die	-11.5174
35	-11.5207
▁SEE	-11.5218
▁nurs	-11.522
other	-11.522
▁holiday	-11.5228
▁companion	-11.5228
▁Sweet	-11.5231
▁parent	-11.5237
aki	-11.525
▁visitor	-11.5251
▁Ink	-11.5276
▁Swi	-11.5285
apped	-11.5288
oma	-11.5296
▁sometime	-11.5345
UL	-11.538
ike	-11.5384
▁Mist	-11.5398
ORD	-11.54
▁prepar	-11.5428
▁Ver	-11.5432
▁Wel	-11.5435
climb	-11.5445
After	-11.5445
Tell	-11.5445
help	-11.5445
bones	-11.5446
snake	-11.5446
▁proceed	-11.5448
shake	-11.5448
▁murmur	-11.5448
would	-11.5449
fast	-11.545
March	-11.5451
Okay	-11.5452
making	-11.5453
could	-11.5453
riding	-11.5457
▁mornin	-11.5477
▁sittin	-11.5478
▁Communi	-11.5481
Champvent	-11.5481
inancial	-11.5481
kokowk	-11.5481
▁1936	-11.5481
▁1942	-11.5481
▁1956	-11.5481
▁Affair	-11.5481
▁Audrey	-11.5481
▁Biography	-11.5481
▁Detroit	-11.5481
▁Katherine	-11.5481
▁Michigan	-11.5481
▁Orleans	-11.5481
▁Plains	-11.5481
▁VALENTINE	-11.5481
▁attorney	-11.5481
▁automobile	-11.5481
▁autumn	-11.5481
▁brilliant	-11.5481
▁burden	-11.5481
▁constitution	-11.5481
▁contrast	-11.5481
▁cultural	-11.5481
▁cunning	-11.5481
▁determined	-11.5481
▁disposable	-11.5481
▁ethnic	-11.5481
▁fierce	-11.5481
▁gorgeous	-11.5481
▁happiness	-11.5481
▁ignore	-11.5481
▁illegal	-11.5481
▁perfume	-11.5481
▁regret	-11.5481
▁rooster	-11.5481
▁scramble	-11.5481
▁sorcerers	-11.5481
▁syllable	-11.5481
▁technical	-11.5481
▁treason	-11.5481
▁underneath	-11.5481
▁venture	-11.5481
LAUGH	-11.5481
▁1945	-11.5481
▁Addams	-11.5481
▁Bishop	-11.5481
▁Ginny	-11.5481
▁Odawa	-11.5481
▁Poppy	-11.5481
▁confront	-11.5481
▁earnestly	-11.5481
▁fancied	-11.5481
▁obtain	-11.5481
▁senator	-11.5481
▁shriek	-11.5481
▁Greensburg	-11.5481
▁expand	-11.5481
▁gesture	-11.5481
▁glory	-11.5481
▁location	-11.5481
WHERE	-11.5481
thletic	-11.5481
▁Amanda	-11.5481
▁Feast	-11.5481
▁advise	-11.5481
▁groan	-11.5481
▁throne	-11.5481
▁valley	-11.5481
▁Lewis	-11.5481
▁innocent	-11.5481
▁teapot	-11.5481
▁Utah	-11.5481
▁clasp	-11.5481
▁devil	-11.5481
▁gallop	-11.5481
▁worn	-11.5481
▁quiver	-11.5481
▁survey	-11.5481
▁Might	-11.5481
▁salesman	-11.5482
▁contest	-11.5482
▁keen	-11.5482
▁nightmare	-11.5482
▁Story	-11.5482
▁jammie	-11.5482
▁scale	-11.5482
▁warrant	-11.5482
▁attitude	-11.5482
▁roast	-11.5482
▁promote	-11.5482
▁reject	-11.5482
▁mild	-11.5482
▁Need	-11.5482
▁Short	-11.5482
▁mule	-11.5482
▁medical	-11.5482
▁link	-11.5482
▁Blood	-11.5482
▁numero	-11.5482
▁skate	-11.5482
▁straw	-11.5482
▁Evelyn	-11.5482
▁dragged	-11.5482
▁Under	-11.5482
▁yummy	-11.5482
▁asshole	-11.5482
Vully	-11.5482
▁Wolf	-11.5482
▁Francisco	-11.5483
▁haunt	-11.5483
▁fortnight	-11.5483
▁axe	-11.5483
▁McK	-11.5483
OWN	-11.5483
▁legend	-11.5484
▁Clear	-11.5484
▁portion	-11.5484
▁glue	-11.5484
▁distinction	-11.5484
▁refrigerator	-11.5485
ALLY	-11.5485
▁complaints	-11.5485
▁toilet	-11.5485
▁plea	-11.5485
▁riot	-11.5486
▁calf	-11.5486
▁mike	-11.5487
odle	-11.5487
▁punch	-11.5487
▁proof	-11.5489
▁bandage	-11.5489
▁eeat	-11.5489
▁starred	-11.549
▁plunged	-11.549
▁reign	-11.549
▁agony	-11.549
▁Juan	-11.549
bli	-11.5491
▁billion	-11.5491
▁Province	-11.5492
▁Road	-11.5492
▁coward	-11.5495
▁ONE	-11.5495
▁É	-11.5496
sticks	-11.5496
▁theory	-11.5496
▁sweetie	-11.5499
▁treatment	-11.5499
▁dreadfully	-11.5501
▁stolen	-11.5502
▁Sky	-11.5503
▁established	-11.5506
▁fussy	-11.5516
▁indicated	-11.552
▁bap	-11.5523
▁provided	-11.5526
lash	-11.5535
▁difficulty	-11.5537
MT	-11.5544
▁semi	-11.5551
▁Page	-11.5562
▁Carly	-11.5563
▁lab	-11.5563
▁cries	-11.5569
▁Inter	-11.5573
▁stro	-11.5575
MO	-11.5577
ICE	-11.5578
▁37	-11.558
▁creat	-11.5583
▁faster	-11.5584
▁Bon	-11.5606
▁stake	-11.5617
▁gum	-11.5618
▁GO	-11.5623
▁charged	-11.5623
▁Gun	-11.5649
acious	-11.5652
eller	-11.5659
unintelligible	-11.566
poli	-11.5667
2022)	-11.5685
▁Soon	-11.5686
▁$2	-11.5691
dog	-11.5692
ami	-11.5696
▁checker	-11.5699
3.8	-11.5705
▁display	-11.5709
ggy	-11.5768
screams	-11.5775
ulu	-11.5785
leas	-11.5787
▁beating	-11.5802
▁chuckle	-11.5872
▁Monte	-11.5874
ency	-11.5889
▁74	-11.5898
▁Gran	-11.5914
▁formal	-11.5939
▁growl	-11.5943
▁critic	-11.5973
▁Forge	-11.5994
Better	-11.6
▁Creat	-11.6024
witch	-11.6033
▁whoop	-11.6034
avier	-11.6036
sylum	-11.6048
aunt	-11.6049
▁Vu	-11.6082
▁occur	-11.6082
ficial	-11.6083
mph	-11.6131
▁Grande	-11.6133
▁Yoshi	-11.6138
nyway	-11.6138
▁Wom	-11.6138
ography	-11.6141
rance	-11.6143
whispering	-11.6158
Dear	-11.6158
quarter	-11.6159
August	-11.6159
▁affect	-11.616
With	-11.616
June	-11.6161
▁grant	-11.6162
▁92	-11.6164
New	-11.6165
unclear	-11.6166
life	-11.6169
maid	-11.6179
▁polite	-11.6182
▁Whit	-11.6184
Get	-11.6186
▁Upp	-11.6188
▁chose	-11.6189
OULD	-11.6192
frigerator	-11.6192
▁commit	-11.6195
▁permit	-11.6195
iously	-11.6195
(192,220)}	-11.6196
▁Horror	-11.6196
▁Ninja	-11.6196
▁chimney	-11.6196
▁fountain	-11.6196
▁lantern	-11.6196
▁statistic	-11.6196
Chancellor	-11.6196
ROM	-11.6196
whimpers	-11.6196
▁1971	-11.6196
▁Audubon	-11.6196
▁Auxon	-11.6196
▁Brenda	-11.6196
▁Columbia	-11.6196
▁Conference	-11.6196
▁Country	-11.6196
▁Dakota	-11.6196
▁Elliot	-11.6196
▁Emperor	-11.6196
▁Environment	-11.6196
▁Federal	-11.6196
▁Julius	-11.6196
▁Labeija	-11.6196
▁Michel	-11.6196
▁Potato	-11.6196
▁Reficul	-11.6196
▁Virginia	-11.6196
▁alcohol	-11.6196
▁bucket	-11.6196
▁criminal	-11.6196
▁description	-11.6196
▁equipment	-11.6196
▁estimator	-11.6196
▁eventually	-11.6196
▁exclamation	-11.6196
▁fantastic	-11.6196
▁gradual	-11.6196
▁graham	-11.6196
▁hesitated	-11.6196
▁investigate	-11.6196
▁leather	-11.6196
▁manufacturer	-11.6196
▁mattress	-11.6196
▁mobile	-11.6196
▁nuuw	-11.6196
▁recognise	-11.6196
▁screen	-11.6196
▁screwdriver	-11.6196
▁shudder	-11.6196
▁sneak	-11.6196
▁steadily	-11.6196
▁sufficient	-11.6196
▁suspended	-11.6196
▁uncomfortable	-11.6196
▁valuable	-11.6196
▁Debby	-11.6196
▁Egypt	-11.6196
▁Nanna	-11.6196
▁Navy	-11.6196
▁coffin	-11.6196
▁farewell	-11.6196
▁naughty	-11.6196
▁Price	-11.6196
▁Summer	-11.6196
▁Tibet	-11.6196
▁chalk	-11.6196
▁joking	-11.6196
▁ninight	-11.6196
▁reaction	-11.6196
▁skating	-11.6196
▁summit	-11.6196
---------------	-11.6196
▁drown	-11.6196
▁Hurst	-11.6196
▁Records	-11.6196
▁matron	-11.6196
▁visible	-11.6196
▁cigarette	-11.6196
▁admire	-11.6196
▁Goumo	-11.6196
——"	-11.6196
▁meekly	-11.6196
▁Czech	-11.6196
▁Always	-11.6196
▁greas	-11.6196
▁Executive	-11.6196
▁sought	-11.6196
▁whirl	-11.6196
▁accent	-11.6196
▁oblast	-11.6196
sweetheart	-11.6196
▁Josie	-11.6196
▁Anderson	-11.6196
▁propeller	-11.6196
▁favourite	-11.6196
Lucens	-11.6196
▁permission	-11.6196
▁organized	-11.6196
▁wheelchair	-11.6196
▁Talk	-11.6196
▁betray	-11.6196
journ	-11.6196
▁Marshall	-11.6196
▁Slam	-11.6197
▁blade	-11.6197
▁convict	-11.6197
▁Carrie	-11.6197
▁flour	-11.6197
▁arose	-11.6197
▁capture	-11.6197
▁signature	-11.6197
▁passionate	-11.6197
▁stockings	-11.6197
▁schedule	-11.6198
▁shaft	-11.6198
▁1927	-11.6198
▁solid	-11.6198
▁Shelly	-11.6198
▁distribution	-11.6198
▁Chairman	-11.6199
▁reflection	-11.6199
▁punk	-11.6199
▁diary	-11.6199
▁Yoma	-11.6199
▁DOG	-11.6199
▁piss	-11.62
nflict	-11.62
jake	-11.62
▁Zack	-11.62
▁drape	-11.62
▁Marine	-11.62
▁Grandma	-11.6201
▁chasing	-11.6201
▁madam	-11.6202
Isn	-11.6202
▁Fester	-11.6202
▁Zach	-11.6202
big	-11.6202
▁Blackie	-11.6202
nterior	-11.6203
▁consent	-11.6204
▁sweater	-11.6204
▁laig	-11.6204
▁Rowdy	-11.6206
tempo	-11.6206
▁angel	-11.6206
▁Ella	-11.6207
▁wretched	-11.6207
last	-11.6207
▁Anish	-11.6207
▁shallow	-11.6208
▁linger	-11.621
▁hind	-11.621
assembl	-11.621
▁Kato	-11.6211
▁Emil	-11.6212
▁Rome	-11.6213
▁flushed	-11.6213
▁Crow	-11.6214
▁Kun	-11.6214
▁Fern	-11.6216
▁swiftly	-11.6219
▁Tack	-11.622
▁lemm	-11.6224
▁Key	-11.6229
▁granted	-11.623
▁restore	-11.623
▁tightly	-11.6234
▁butcher	-11.6234
▁rail	-11.6235
magn	-11.624
▁sewing	-11.6242
brook	-11.6252
▁Medi	-11.6257
▁quicker	-11.6259
▁Woo	-11.626
▁stealing	-11.6262
▁Princess	-11.6263
▁proudly	-11.6265
▁begged	-11.6266
riz	-11.627
▁debut	-11.6271
▁nation	-11.6273
▁Working	-11.6274
▁worthy	-11.6276
▁sack	-11.6277
▁tenor	-11.6283
▁Ray	-11.6291
▁Bach	-11.63
▁seeds	-11.6303
▁1.6	-11.6304
STON	-11.6305
▁Amy	-11.6312
natured	-11.6337
WHI	-11.6339
▁wire	-11.6344
▁operat	-11.6348
videotape	-11.6355
▁painter	-11.6384
umbled	-11.6396
▁kn	-11.6439
▁Cay	-11.6441
▁peaceful	-11.6451
▁Hard	-11.6492
▁snapp	-11.6533
Note	-11.6534
election	-11.6567
MAS	-11.6613
▁TOO	-11.6613
▁Base	-11.6649
rthwest	-11.6666
▁preferr	-11.6667
▁southwest	-11.6673
▁stripe	-11.6675
know	-11.6675
EVE	-11.6679
▁triumph	-11.6685
▁Spe	-11.6691
osh	-11.6704
handed	-11.6707
▁episode	-11.671
▁cheek	-11.6711
▁vegetable	-11.6711
▁feather	-11.6712
▁82	-11.6726
▁cent	-11.6814
▁prince	-11.6833
▁300	-11.685
▁CAT	-11.686
▁Elect	-11.6866
▁Matt	-11.6866
▁weigh	-11.6866
Ville	-11.6873
ohyl	-11.6879
color	-11.6905
reads	-11.6922
[	-11.6925
giving	-11.6927
drawing	-11.6928
worm	-11.6928
Paul	-11.6928
think	-11.6928
mouth	-11.6928
▁reflect	-11.6929
check	-11.6929
repeat	-11.693
view	-11.693
step	-11.6933
▁describe	-11.6937
July	-11.6942
▁THANK	-11.6957
▁Fair	-11.6959
▁recent	-11.696
▁administrati	-11.6962
▁disagree	-11.6963
▁basic	-11.6964
▁vocal	-11.6965
fontaine	-11.6965
▁circumstance	-11.6965
Brennan	-11.6965
Lightspeed	-11.6965
Rainbow	-11.6965
songwriter	-11.6965
utonom	-11.6965
č	-11.6965
▁1951	-11.6965
▁1961	-11.6965
▁1973	-11.6965
▁ARROWS	-11.6965
▁Adrian	-11.6965
▁Assembly	-11.6965
▁BACK	-11.6965
▁Brandy	-11.6965
▁CHRIST	-11.6965
▁Colorado	-11.6965
▁Company	-11.6965
▁Detective	-11.6965
▁Director	-11.6965
▁Fairmount	-11.6965
▁Flupper	-11.6965
▁LIFE	-11.6965
▁Lincoln	-11.6965
▁Medicine	-11.6965
▁OVER	-11.6965
▁Oxfordshire	-11.6965
▁Premier	-11.6965
▁Rafael	-11.6965
▁SOME	-11.6965
▁Stokke	-11.6965
▁Territory	-11.6965
▁Thirty	-11.6965
▁Turkey	-11.6965
▁Wichita	-11.6965
▁Zealand	-11.6965
▁allergic	-11.6965
▁annoyed	-11.6965
▁awhile	-11.6965
▁chowder	-11.6965
▁diagnos	-11.6965
▁divorce	-11.6965
▁essential	-11.6965
▁evidently	-11.6965
▁fantasy	-11.6965
▁french	-11.6965
▁glimpse	-11.6965
▁grinned	-11.6965
▁happily	-11.6965
▁interface	-11.6965
▁microwave	-11.6965
▁moomilk	-11.6965
▁nonsense	-11.6965
▁palace	-11.6965
▁porridge	-11.6965
▁potential	-11.6965
▁procedure	-11.6965
▁pursue	-11.6965
▁radiator	-11.6965
▁representative	-11.6965
▁somersault	-11.6965
▁terrific	-11.6965
▁tissue	-11.6965
▁tragedy	-11.6965
▁tremendous	-11.6965
▁tunnel	-11.6965
▁vacation	-11.6965
▁valentine	-11.6965
imitating	-11.6965
°	-11.6965
▁Arthur	-11.6965
▁Madrid	-11.6965
▁Radio	-11.6965
▁Toyama	-11.6965
▁application	-11.6965
▁appointment	-11.6965
▁commercial	-11.6965
▁culture	-11.6965
▁gracious	-11.6965
▁invitation	-11.6965
▁philosoph	-11.6965
▁supply	-11.6965
▁suspicion	-11.6965
▁wrath	-11.6965
crumbs	-11.6965
indicating	-11.6965
▁Chicken	-11.6965
▁Essert	-11.6965
▁Member	-11.6965
▁Senator	-11.6965
▁animated	-11.6965
▁behalf	-11.6965
▁choking	-11.6965
▁gleam	-11.6965
▁intention	-11.6965
▁plug	-11.6965
ö	-11.6965
▁CARE	-11.6965
▁childhood	-11.6965
▁decade	-11.6965
▁nickel	-11.6965
▁robins	-11.6965
▁Leader	-11.6965
▁Plus	-11.6965
▁Weather	-11.6965
▁dairy	-11.6965
▁reduce	-11.6965
▁Near	-11.6965
▁security	-11.6965
▁vertical	-11.6965
▁Horse	-11.6965
▁cartoon	-11.6965
▁factory	-11.6965
▁render	-11.6965
▁Morning	-11.6965
▁structure	-11.6965
▁Davis	-11.6965
▁pronunciation	-11.6965
▁BROWN	-11.6965
▁dismay	-11.6965
▁BIG	-11.6965
▁innkeeper	-11.6965
▁bliss	-11.6965
▁undertake	-11.6965
▁executive	-11.6965
▁plot	-11.6965
▁frost	-11.6965
inspired	-11.6965
▁belief	-11.6966
▁wolf	-11.6966
▁jingle	-11.6966
▁burp	-11.6966
▁idol	-11.6966
▁Theatre	-11.6966
▁chemistry	-11.6966
▁ketchup	-11.6966
commun	-11.6966
▁cloak	-11.6966
▁Know	-11.6966
▁hamster	-11.6966
▁stress	-11.6966
▁Knowles	-11.6966
▁Somebody	-11.6966
▁Battle	-11.6966
▁Atlanti	-11.6966
▁concept	-11.6966
▁cattle	-11.6966
▁entertainment	-11.6966
▁1928	-11.6966
rilla	-11.6966
▁1929	-11.6966
▁Ready	-11.6966
▁troop	-11.6966
▁resent	-11.6967
rina	-11.6967
▁runaway	-11.6967
▁digging	-11.6967
Page	-11.6967
▁mumbled	-11.6967
▁gobble	-11.6967
▁shaking	-11.6967
▁Unless	-11.6967
▁stoop	-11.6967
▁sidewalk	-11.6967
▁combat	-11.6968
Pretty	-11.6968
▁debt	-11.6968
▁Super	-11.6968
▁initial	-11.6968
▁?[	-11.6968
▁maze	-11.6968
▁saddle	-11.6968
▁Orange	-11.6968
▁[4.5	-11.6968
▁stout	-11.6968
▁hostage	-11.6969
▁grandson	-11.6969
▁Patty	-11.6969
▁popped	-11.6969
▁lumber	-11.6969
▁mailman	-11.697
▁Mabel	-11.697
▁Step	-11.697
▁Serious	-11.6971
▁alma	-11.6971
ockey	-11.6971
▁recommendation	-11.6971
▁Order	-11.6971
▁fridge	-11.6971
▁dragon	-11.6971
▁freeze	-11.6972
▁darn	-11.6973
▁referee	-11.6974
▁coke	-11.6975
▁suggestion	-11.6975
▁flock	-11.6975
▁buffaloes	-11.6975
▁educated	-11.6976
▁verse	-11.6976
▁pancake	-11.6976
▁tanker	-11.6976
▁mustache	-11.6977
▁Clock	-11.6977
ruz	-11.6977
▁Ney	-11.6978
▁Arts	-11.6978
▁Kix	-11.6978
▁bishop	-11.6979
▁Name	-11.6979
▁politely	-11.698
▁closing	-11.698
▁crest	-11.6981
▁nearby	-11.6981
▁94	-11.6981
▁Maine	-11.6981
▁tide	-11.6981
▁induced	-11.6982
▁mouse	-11.6982
▁Lind	-11.6982
▁brass	-11.6983
▁thoughtfully	-11.6983
▁haul	-11.6984
▁booth	-11.6985
▁curiously	-11.6988
▁Neil	-11.699
▁wig	-11.699
rès	-11.6991
eux	-11.6991
odern	-11.6995
▁oak	-11.6995
▁Tick	-11.6996
▁charming	-11.6996
Ju	-11.6997
▁honestly	-11.6999
▁reflected	-11.6999
▁proceeded	-11.7004
▁tuck	-11.7008
venge	-11.701
fried	-11.7012
▁Ross	-11.7014
IDE	-11.7025
Cie	-11.7029
▁claimed	-11.7029
▁Marsh	-11.7032
▁Gay	-11.7037
▁sofa	-11.7037
▁wishes	-11.7038
▁responded	-11.704
▁faithful	-11.7047
iate	-11.7047
▁secretly	-11.705
▁safely	-11.7052
▁Joey	-11.7052
▁anger	-11.7057
▁42	-11.706
▁Pine	-11.7061
▁dime	-11.7078
▁grabb	-11.7089
after	-11.7092
▁Cole	-11.7096
7)	-11.7096
▁princess	-11.71
▁Alma	-11.7107
▁hug	-11.7109
atsu	-11.7112
rink	-11.712
Guess	-11.7121
▁pol	-11.7126
▁thar	-11.713
dopted	-11.7147
▁mechanical	-11.7157
▁challenge	-11.716
▁Jon	-11.7172
ichi	-11.721
insistent	-11.7221
lalight	-11.7249
gni	-11.7277
▁1978	-11.7326
▁Revolution	-11.7386
away	-11.7387
ECT	-11.7423
oker	-11.7452
vision	-11.7469
▁dropp	-11.7474
Far	-11.7508
▁Olympic	-11.7543
▁rustle	-11.7545
▁organisation	-11.7549
▁Use	-11.7562
▁controll	-11.7565
41	-11.7581
state	-11.7614
OCK	-11.7624
chang	-11.7629
stairs	-11.7729
keep	-11.7742
▁horizon	-11.7748
friend	-11.7751
walk	-11.7759
hearted	-11.776
click	-11.7761
cloth	-11.7761
April	-11.7761
Fraser	-11.7762
girl	-11.7762
school	-11.7762
please	-11.7762
father	-11.7763
grab	-11.7763
Yeah	-11.7763
Jack	-11.7765
storm	-11.7767
camera	-11.7767
trying	-11.7768
▁intend	-11.777
orange	-11.777
▁involve	-11.7772
▁Speak	-11.7777
speaking	-11.7777
shows	-11.778
wise	-11.7781
nsu	-11.7785
▁introduce	-11.7786
▁charm	-11.7787
▁crutch	-11.7792
volution	-11.7794
▁runnin	-11.7794
▁hollo	-11.7796
woman	-11.7797
/010	-11.7798
▁1999	-11.7798
▁Aldithely	-11.7798
▁Alzheimer	-11.7798
▁Arizona	-11.7798
▁Dartmoor	-11.7798
▁Florry	-11.7798
▁Kenneth	-11.7798
▁Moscow	-11.7798
▁Scientist	-11.7798
▁System	-11.7798
▁Twenty	-11.7798
▁eagle	-11.7798
▁economy	-11.7798
▁execution	-11.7798
▁flood	-11.7798
▁lecture	-11.7798
▁shilling	-11.7798
▁surgery	-11.7798
SIGHS	-11.7798
hiladelphia	-11.7798
pollution	-11.7798
ú	-11.7798
▁1931	-11.7798
▁1932	-11.7798
▁1946	-11.7798
▁1976	-11.7798
▁1983	-11.7798
▁Amsterdam	-11.7798
▁Arapaho	-11.7798
▁Argentine	-11.7798
▁Austin	-11.7798
▁Bangladesh	-11.7798
▁Carolina	-11.7798
▁Caroline	-11.7798
▁Chanéaz	-11.7798
▁Corporation	-11.7798
▁Correvon	-11.7798
▁Coventry	-11.7798
▁Cummings	-11.7798
▁Denezy	-11.7798
▁Eminence	-11.7798
▁Facult	-11.7798
▁Festival	-11.7798
▁Friend	-11.7798
▁Gentlemen	-11.7798
▁Hamilton	-11.7798
▁Heaven	-11.7798
▁Leipzig	-11.7798
▁MOBA	-11.7798
▁Martherenges	-11.7798
▁Montanaire	-11.7798
▁Nagata	-11.7798
▁Nikki	-11.7798
▁Peruvian	-11.7798
▁PlayStation	-11.7798
▁SFWA	-11.7798
▁SOMETHING	-11.7798
▁Safety	-11.7798
▁Scotland	-11.7798
▁Spark	-11.7798
▁Suddenly	-11.7798
▁Supreme	-11.7798
▁Universal	-11.7798
▁Variation	-11.7798
▁Xtravaganza	-11.7798
▁amusement	-11.7798
▁ancestor	-11.7798
▁angrily	-11.7798
▁appetite	-11.7798
▁ceiling	-11.7798
▁collaborat	-11.7798
▁concert	-11.7798
▁confidence	-11.7798
▁consciousness	-11.7798
▁cushion	-11.7798
▁defense	-11.7798
▁fortunate	-11.7798
▁fraud	-11.7798
▁illusion	-11.7798
▁immense	-11.7798
▁inclined	-11.7798
▁invention	-11.7798
▁leisure	-11.7798
▁magnificent	-11.7798
▁muzzle	-11.7798
▁nipple	-11.7798
▁occupation	-11.7798
▁overwhelm	-11.7798
▁popcorn	-11.7798
▁precious	-11.7798
▁pupils	-11.7798
▁purchase	-11.7798
▁refresh	-11.7798
▁resignation	-11.7798
▁sarcastic	-11.7798
▁satisfied	-11.7798
▁sensible	-11.7798
▁sovereign	-11.7798
▁superior	-11.7798
▁survive	-11.7798
▁syrup	-11.7798
▁territories	-11.7798
▁territory	-11.7798
▁tremble	-11.7798
▁variety	-11.7798
▁website	-11.7798
▁worldwide	-11.7798
▁Belize	-11.7798
▁Channel	-11.7798
▁Chuck	-11.7798
▁Nadine	-11.7798
▁Norfolk	-11.7798
▁crystal	-11.7798
▁grasp	-11.7798
▁pathetic	-11.7798
▁policy	-11.7798
▁punctu	-11.7798
▁tattoo	-11.7798
▁SUN	-11.7798
▁honour	-11.7798
▁maintain	-11.7798
▁pills	-11.7798
▁pussy	-11.7798
▁unkind	-11.7798
▁Dallas	-11.7798
▁Grannis	-11.7798
▁MISS	-11.7798
▁examined	-11.7798
▁porch	-11.7798
▁fetch	-11.7798
▁salary	-11.7798
▁Harvey	-11.7798
▁Roany	-11.7798
▁costume	-11.7798
▁whiny	-11.7798
▁Norway	-11.7798
▁internet	-11.7798
▁nomination	-11.7798
▁rumor	-11.7798
obscure	-11.7798
▁mercy	-11.7798
▁Center	-11.7798
▁gross	-11.7798
▁status	-11.7798
▁weasel	-11.7798
▁Biden	-11.7798
▁virus	-11.7798
▁baked	-11.7798
▁rifle	-11.7798
▁yacht	-11.7798
▁blunt	-11.7798
▁Suppose	-11.7798
▁Left	-11.7798
▁grammar	-11.7798
▁Glen	-11.7799
▁boast	-11.7799
▁elevat	-11.7799
▁bucks	-11.7799
▁Help	-11.7799
▁Corps	-11.7799
▁amused	-11.7799
▁liability	-11.7799
▁subsid	-11.7799
▁scholarship	-11.7799
▁stink	-11.7799
▁tiresome	-11.7799
▁clack	-11.7799
▁squash	-11.7799
▁legendary	-11.7799
▁geese	-11.7799
▁tropic	-11.7799
▁punishment	-11.7799
▁provision	-11.7799
▁Edgar	-11.7799
▁Airport	-11.7799
▁committed	-11.78
▁blaze	-11.78
▁mummy	-11.78
▁Semple	-11.78
▁reference	-11.78
▁disagreeable	-11.78
▁denied	-11.78
▁Carlos	-11.78
▁dawn	-11.78
▁Fairies	-11.78
▁shark	-11.78
Possens	-11.78
▁Especially	-11.78
CDP	-11.7801
ticipate	-11.7801
▁Dark	-11.7801
▁limp	-11.7801
▁shopping	-11.7801
▁litera	-11.7801
▁chatter	-11.7801
anguish	-11.7801
▁Cookie	-11.7801
▁Clay	-11.7802
▁Southwestern	-11.7802
▁gram	-11.7802
▁creamery	-11.7802
▁Owl	-11.7802
▁parish	-11.7802
▁Mandy	-11.7802
▁gentleman	-11.7803
▁Drop	-11.7803
▁DOWN	-11.7803
▁secretary	-11.7803
▁COULD	-11.7803
▁Nicola	-11.7803
▁poach	-11.7803
▁HEY	-11.7803
True	-11.7804
▁banne	-11.7804
▁personality	-11.7804
▁Princeton	-11.7804
▁McC	-11.7804
▁Down	-11.7805
▁Korean	-11.7805
▁Board	-11.7805
▁danny	-11.7806
▁Feel	-11.7806
▁vow	-11.7806
▁slop	-11.7807
mail	-11.7807
▁Knight	-11.7807
▁THANKS	-11.7807
▁flee	-11.7808
Vennes	-11.7808
▁Costa	-11.7808
▁labor	-11.7808
▁tank	-11.7808
▁reserved	-11.7809
▁alto	-11.7809
▁pace	-11.7809
▁Haut	-11.7811
▁convinced	-11.7812
▁gang	-11.7814
rept	-11.7814
▁readily	-11.7814
▁nominated	-11.7814
starts	-11.7816
▁skip	-11.7816
▁Sherry	-11.7816
▁sickness	-11.7817
▁Lausanne	-11.7817
▁runner	-11.7817
▁anyhow	-11.7817
▁reasonable	-11.7819
▁fake	-11.782
▁Liber	-11.782
▁brandy	-11.7823
▁code	-11.7823
▁JOHN	-11.7823
▁Tock	-11.7826
▁OOH	-11.7827
▁76	-11.7827
▁73	-11.7827
▁scraping	-11.7829
▁pinch	-11.7834
▁Lovely	-11.7834
▁WELL	-11.7837
▁milkman	-11.784
▁calmly	-11.7841
▁introduced	-11.7842
▁Dick	-11.7843
▁peak	-11.7846
▁meantime	-11.7848
▁pang	-11.7853
▁Song	-11.7853
▁racer	-11.7854
▁nearest	-11.7857
▁sixth	-11.786
▁louder	-11.7866
▁dwell	-11.787
▁85	-11.7874
▁hint	-11.7878
▁paw	-11.7885
▁Sex	-11.7886
uthorities	-11.7905
▁reel	-11.7905
▁MU	-11.7909
▁Ow	-11.791
nched	-11.7914
whine	-11.7915
▁Fall	-11.7917
▁designer	-11.7918
4.3	-11.7949
▁fate	-11.7955
sotto	-11.7977
LOCK	-11.7977
▁mast	-11.7987
WARD	-11.8019
rug	-11.8022
dust	-11.8064
Thou	-11.8077
pole	-11.809
*******	-11.8096
▁Victoria	-11.8166
▁wagg	-11.8187
aux	-11.8215
▁hugg	-11.8216
▁select	-11.8232
▁scrape	-11.8272
▁96	-11.8272
03	-11.8308
eaux	-11.8323
successfully	-11.8357
HEN	-11.8394
sigh	-11.8428
okay	-11.8455
▁separat	-11.846
▁75	-11.848
1967)	-11.8495
▁Kame	-11.8497
lmost	-11.8504
▁slim	-11.8516
▁choppe	-11.8517
celle	-11.8522
struction	-11.8523
▁announce	-11.8527
UCK	-11.8538
▁Polan	-11.8568
laz	-11.857
▁scrap	-11.86
▁Bonn	-11.8616
mong	-11.8616
calling	-11.8616
▁slid	-11.8662
continental	-11.8667
complete	-11.867
brush	-11.867
wheel	-11.867
shirt	-11.8671
Will	-11.8671
explain	-11.8671
good	-11.8671
horse	-11.8672
▁establish	-11.8674
someone	-11.8674
spirit	-11.8676
▁retire	-11.8678
NY	-11.8678
Bill	-11.8679
four	-11.8681
direct	-11.8682
string	-11.8695
because	-11.8695
▁prepare	-11.8697
▁exact	-11.8699
burn	-11.87
▁givin	-11.8704
lude	-11.8704
▁lame	-11.8705
▁progress	-11.8706
▁ketch	-11.8706
▁havin	-11.8707
▁CHUNG	-11.8707
▁Express	-11.8707
▁Murray	-11.8707
▁alkali	-11.8707
▁intelligent	-11.8707
▁transcribe	-11.8707
Beautiful	-11.8707
Kickapoo	-11.8707
egislature	-11.8707
etropolitan	-11.8707
gricultural	-11.8707
järvi	-11.8707
pplause	-11.8707
ä	-11.8707
ç	-11.8707
▁1949	-11.8707
▁1958	-11.8707
▁Already	-11.8707
▁Antonio	-11.8707
▁Bartlemy	-11.8707
▁Blue	-11.8707
▁Championship	-11.8707
▁Episode	-11.8707
▁FAIR	-11.8707
▁Fernando	-11.8707
▁Flossie	-11.8707
▁Hooey	-11.8707
▁JOEY	-11.8707
▁Maggie	-11.8707
▁MaryJane	-11.8707
▁NCAA	-11.8707
▁Packard	-11.8707
▁Railroad	-11.8707
▁Rebecca	-11.8707
▁Research	-11.8707
▁Spencer	-11.8707
▁Spirit	-11.8707
▁Stadium	-11.8707
▁Sultan	-11.8707
▁TRIP	-11.8707
▁Vantablack	-11.8707
▁WHITTAKER	-11.8707
▁Walenda	-11.8707
▁Washburn	-11.8707
▁aggressive	-11.8707
▁arbutus	-11.8707
▁associate	-11.8707
▁association	-11.8707
▁baggage	-11.8707
▁ballerina	-11.8707
▁barbecue	-11.8707
▁bubba	-11.8707
▁category	-11.8707
▁context	-11.8707
▁crinkling	-11.8707
▁crisis	-11.8707
▁deceived	-11.8707
▁depression	-11.8707
▁dinosaur	-11.8707
▁economist	-11.8707
▁explanation	-11.8707
▁exquisite	-11.8707
▁global	-11.8707
▁hiccup	-11.8707
▁humming	-11.8707
▁ignorant	-11.8707
▁importance	-11.8707
▁independence	-11.8707
▁indication	-11.8707
▁mushrooms	-11.8707
▁plough	-11.8707
▁politics	-11.8707
▁possibility	-11.8707
▁presidency	-11.8707
▁regatta	-11.8707
▁relieved	-11.8707
▁sabotag	-11.8707
▁scientific	-11.8707
▁senior	-11.8707
▁sensitive	-11.8707
▁significant	-11.8707
▁slender	-11.8707
▁splendor	-11.8707
▁suppress	-11.8707
▁surrounding	-11.8707
▁thorough	-11.8707
▁uncertain	-11.8707
▁velvet	-11.8707
▁vitamin	-11.8707
▁wisdom	-11.8707
▁CHAR	-11.8707
▁CIRCU	-11.8707
▁Hurley	-11.8707
▁Jewell	-11.8707
▁Vincent	-11.8707
▁conceal	-11.8707
▁northeast	-11.8707
▁urgent	-11.8707
▁vigorous	-11.8707
Yverdon	-11.8707
▁Census	-11.8707
▁Hayward	-11.8707
▁Jeff	-11.8707
▁SURE	-11.8707
▁Vernon	-11.8707
▁Writer	-11.8707
▁network	-11.8707
▁pirate	-11.8707
▁sacred	-11.8707
▁Celia	-11.8707
▁Civi	-11.8707
▁Prix	-11.8707
▁trash	-11.8707
erpetual	-11.8707
▁Marino	-11.8707
▁bathtub	-11.8707
▁frame	-11.8707
▁pierce	-11.8707
mpression	-11.8707
▁Several	-11.8707
▁mamma	-11.8707
Rhin	-11.8707
▁SAY	-11.8707
▁recess	-11.8707
▁Coast	-11.8707
UNDER	-11.8707
▁TAKE	-11.8707
▁treble	-11.8707
▁Marcus	-11.8707
▁agency	-11.8707
▁ornament	-11.8707
▁Bowling	-11.8707
▁Water	-11.8707
▁chirp	-11.8707
▁Winter	-11.8707
▁Perform	-11.8707
▁CONNIE	-11.8708
▁scribble	-11.8708
▁Geography	-11.8708
▁Historic	-11.8708
▁deputy	-11.8708
Candyman	-11.8708
▁knitt	-11.8708
▁AGAIN	-11.8708
▁Bremer	-11.8708
▁define	-11.8708
▁Pedro	-11.8708
▁deriv	-11.8708
▁torture	-11.8708
▁disguis	-11.8708
LAND	-11.8708
▁faded	-11.8708
▁Through	-11.8708
▁Typ	-11.8708
▁Gramm	-11.8708
▁abuse	-11.8708
▁wreck	-11.8708
▁ashore	-11.8708
▁guitarist	-11.8708
▁noisy	-11.8708
▁speedily	-11.8708
▁yawn	-11.8708
▁Panda	-11.8709
▁applie	-11.8709
▁employee	-11.8709
▁streak	-11.8709
▁Monster	-11.8709
▁scoot	-11.8709
▁Push	-11.8709
▁Marcel	-11.8709
▁adoption	-11.8709
▁waving	-11.8709
▁1947	-11.8709
▁Season	-11.871
▁toxin	-11.871
▁Village	-11.871
▁instructions	-11.871
▁retirement	-11.871
▁kidney	-11.871
▁Gordi	-11.871
reliable	-11.871
▁disappointment	-11.871
▁Birk	-11.871
▁unsuccessfully	-11.871
▁Authority	-11.871
▁abruptly	-11.8711
▁torment	-11.8711
▁angle	-11.8711
▁Philippa	-11.8711
▁divers	-11.8712
▁review	-11.8712
▁Drink	-11.8712
▁Lisa	-11.8712
▁wholly	-11.8712
▁Tomorrow	-11.8713
▁moral	-11.8714
War	-11.8716
thology	-11.8716
▁feat	-11.8717
▁Half	-11.8717
▁sunny	-11.8718
▁Gray	-11.872
ntai	-11.8721
berries	-11.8725
▁shone	-11.8725
▁highway	-11.8726
▁severely	-11.8728
▁startled	-11.8728
▁mama	-11.8729
▁desperately	-11.8731
▁Commander	-11.8731
nods	-11.8732
▁Speaker	-11.8732
▁Dart	-11.8732
▁Rick	-11.8733
▁rub	-11.8733
▁trailer	-11.8733
▁Biddle	-11.8735
▁FIN	-11.8735
▁elderly	-11.8737
▁63	-11.8737
▁cheerfully	-11.8738
▁hopeless	-11.8739
▁Keeper	-11.8739
▁repel	-11.8739
▁Station	-11.8743
▁Mick	-11.8744
brows	-11.8745
appy	-11.8747
▁reply	-11.8747
▁partial	-11.875
▁warmth	-11.8751
▁ashes	-11.8754
▁Camp	-11.8755
▁Donna	-11.8758
▁bounce	-11.8761
▁horizontal	-11.8763
▁distan	-11.8789
ullen	-11.8792
▁Hob	-11.8796
▁Lion	-11.8798
▁Berg	-11.8804
1.9	-11.8809
▁occurr	-11.882
▁Taka	-11.8834
▁traditional	-11.8853
pile	-11.8884
Certainly	-11.8899
▁oppos	-11.8907
▁1963	-11.8909
▁Warn	-11.8918
mission	-11.8962
▁classic	-11.9073
▁riches	-11.9073
order	-11.9075
lving	-11.9082
▁receiv	-11.9155
nyone	-11.9162
ADE	-11.9208
roup	-11.9217
ppl	-11.9263
▁53	-11.9273
Abba	-11.9297
▁remov	-11.9306
******	-11.9359
2.9	-11.936
ATE	-11.9363
sneezes	-11.9393
▁Exe	-11.9419
bag	-11.9422
▁Representative	-11.9453
▁mechanic	-11.946
▁instruct	-11.9467
▁77	-11.9508
cross	-11.9528
WELL	-11.9556
nker	-11.9562
armed	-11.9582
EEN	-11.9586
drinks	-11.9587
GAR	-11.9601
dropped	-11.967
January	-11.9671
perhaps	-11.9671
September	-11.9671
loved	-11.9672
power	-11.9672
Because	-11.9675
master	-11.9682
enough	-11.9686
metal	-11.9687
▁accomplish	-11.9688
thank	-11.9689
▁apparent	-11.9694
IRST	-11.9695
▁sweat	-11.9697
section	-11.9702
raffic	-11.9703
▁Naz	-11.9703
▁blank	-11.9704
▁Montaub	-11.9707
▁descend	-11.9707
▁luxur	-11.9707
@	-11.9707
APPY	-11.9707
Donneloye	-11.9707
Drosophila	-11.9707
Fantasy	-11.9707
`	-11.9707
believable	-11.9707
giggling	-11.9707
whimpering	-11.9707
¡	-11.9707
▁$400	-11.9707
▁Argentina	-11.9707
▁BOOK	-11.9707
▁Bairnsdale	-11.9707
▁Benjamin	-11.9707
▁Cambridge	-11.9707
▁Charlotte	-11.9707
▁Cincinnati	-11.9707
▁Colonel	-11.9707
▁Columbus	-11.9707
▁Diandros	-11.9707
▁Eagle	-11.9707
▁Education	-11.9707
▁Excellent	-11.9707
▁Foundation	-11.9707
▁Gibson	-11.9707
▁Independence	-11.9707
▁Jewelweed	-11.9707
▁MONEY	-11.9707
▁Martín	-11.9707
▁Meanwhile	-11.9707
▁Nicholas	-11.9707
▁Norwegian	-11.9707
▁Ozaki	-11.9707
▁Produce	-11.9707
▁Ronnette	-11.9707
▁Sakaguchi	-11.9707
▁Sophie	-11.9707
▁Stonewall	-11.9707
▁Sweden	-11.9707
▁TALK	-11.9707
▁THINK	-11.9707
▁Throat	-11.9707
▁Vanceboro	-11.9707
▁Vietnam	-11.9707
▁Wallace	-11.9707
▁Zetterstrom	-11.9707
▁academic	-11.9707
▁argument	-11.9707
▁arriving	-11.9707
▁awoke	-11.9707
▁calculat	-11.9707
▁candidac	-11.9707
▁categories	-11.9707
▁caution	-11.9707
▁ceramic	-11.9707
▁ceremony	-11.9707
▁conclusion	-11.9707
▁congratulate	-11.9707
▁convenience	-11.9707
▁decorative	-11.9707
▁diplomat	-11.9707
▁edition	-11.9707
▁editor	-11.9707
▁efficien	-11.9707
▁expense	-11.9707
▁grapefruit	-11.9707
▁happier	-11.9707
▁infected	-11.9707
▁instinct	-11.9707
▁institution	-11.9707
▁lagoon	-11.9707
▁leopard	-11.9707
▁mumbling	-11.9707
▁nowadays	-11.9707
▁pantaloons	-11.9707
▁parameter	-11.9707
▁pioneer	-11.9707
▁privilege	-11.9707
▁raccoon	-11.9707
▁railroad	-11.9707
▁reception	-11.9707
▁refuge	-11.9707
▁rejoice	-11.9707
▁reproach	-11.9707
▁revealed	-11.9707
▁rotten	-11.9707
▁rubbish	-11.9707
▁screenwriter	-11.9707
▁solution	-11.9707
▁spigot	-11.9707
▁struggling	-11.9707
▁subconscious	-11.9707
▁sunglasses	-11.9707
▁surrounded	-11.9707
▁technique	-11.9707
▁terribly	-11.9707
▁violent	-11.9707
▁wigwam	-11.9707
▁windshield	-11.9707
▁wistfully	-11.9707
▁withdraw	-11.9707
▁Globe	-11.9707
▁Shindo	-11.9707
▁Turkish	-11.9707
▁XXI	-11.9707
▁bodily	-11.9707
▁consequence	-11.9707
▁discipline	-11.9707
▁encounter	-11.9707
▁england	-11.9707
▁examination	-11.9707
▁goddard	-11.9707
▁imitation	-11.9707
▁latitude	-11.9707
▁monument	-11.9707
▁preserve	-11.9707
▁sibling	-11.9707
▁underground	-11.9707
▁1948	-11.9707
▁Lenny	-11.9707
▁Trust	-11.9707
▁acquire	-11.9707
▁banjo	-11.9707
▁entitle	-11.9707
▁inspection	-11.9707
▁yourselves	-11.9707
▁injured	-11.9707
▁praise	-11.9707
▁Craig	-11.9707
▁gallant	-11.9707
▁scotch	-11.9707
▁taunting	-11.9707
▁Leonor	-11.9707
▁Skau	-11.9707
▁decline	-11.9707
▁scandal	-11.9707
▁warrior	-11.9707
raspy	-11.9707
trophy	-11.9707
▁fulfil	-11.9707
▁oyster	-11.9707
▁wailing	-11.9707
▁DAD	-11.9707
▁Flag	-11.9707
▁Gomez	-11.9707
▁Israel	-11.9707
▁combined	-11.9707
▁gossip	-11.9707
▁Dyson	-11.9707
▁Patten	-11.9707
dorff	-11.9707
orduroy	-11.9707
▁compromise	-11.9707
▁royal	-11.9707
▁naked	-11.9707
▁governess	-11.9707
▁inherit	-11.9708
▁Baker	-11.9708
▁TREE	-11.9708
▁retain	-11.9708
▁Joshua	-11.9708
▁BIR	-11.9708
▁honk	-11.9708
▁Warren	-11.9708
▁soxer	-11.9708
▁basis	-11.9708
▁swordfish	-11.9708
▁composition	-11.9708
▁blink	-11.9708
▁brew	-11.9708
▁championship	-11.9708
▁carrot	-11.9708
▁ribs	-11.9708
▁astonishment	-11.9708
▁Cathy	-11.9708
▁meadow	-11.9709
ARRY	-11.9709
▁Clark	-11.9709
▁affectionate	-11.9709
▁Annette	-11.9709
▁permitted	-11.9709
creaky	-11.9709
▁PAGE	-11.9709
▁scoop	-11.9709
▁1935	-11.9709
▁muttering	-11.9709
▁Clover	-11.9709
▁Carney	-11.9709
▁affection	-11.9709
▁Belle	-11.971
▁79.	-11.971
▁baker	-11.971
▁percentage	-11.971
sexual	-11.971
▁breed	-11.971
▁chrom	-11.971
TELL	-11.971
▁Design	-11.971
▁minority	-11.971
▁Paph	-11.971
▁craft	-11.971
▁Kerry	-11.971
▁MEAN	-11.971
▁Larry	-11.971
▁graphic	-11.971
▁stump	-11.9711
stasy	-11.9711
▁civilian	-11.9711
▁Find	-11.9711
▁Yue	-11.9711
▁DUCK	-11.9711
▁quid	-11.9712
▁gaily	-11.9712
▁cabinet	-11.9712
▁slavery	-11.9712
▁whiskey	-11.9713
▁france	-11.9713
▁invade	-11.9713
▁bellow	-11.9713
▁warden	-11.9713
▁Wright	-11.9714
▁canvas	-11.9715
▁objective	-11.9715
▁hump	-11.9715
▁Commissioner	-11.9717
▁DID	-11.9717
▁illness	-11.9717
nasty	-11.9718
▁difficulties	-11.9718
▁honorable	-11.9718
▁agreeable	-11.9718
▁unfortunately	-11.9718
▁Nail	-11.9719
dbury	-11.9719
pronounc	-11.9719
▁bury	-11.9719
▁heartily	-11.972
▁indent	-11.9721
▁Thus	-11.9722
▁Sister	-11.9722
▁Touch	-11.9723
▁Whoop	-11.9723
▁BOYS	-11.9723
▁lump	-11.9724
▁vase	-11.9724
ssouri	-11.9726
▁Stine	-11.9726
▁spur	-11.9727
▁firemen	-11.9729
▁nutter	-11.973
▁Nine	-11.973
▁exception	-11.9731
▁jar	-11.9732
▁impos	-11.9732
▁latest	-11.9733
▁Liz	-11.9733
▁98	-11.9734
▁restless	-11.9735
▁Admi	-11.9739
▁hail	-11.974
▁Eye	-11.9749
▁ensu	-11.9772
▁jogg	-11.9773
rbi	-11.979
922	-11.9793
ROUND	-11.9797
listen	-11.9822
▁thread	-11.9829
▁Crem	-11.9846
lex	-11.9857
presso	-11.9859
▁hun	-11.9873
▁Croatia	-11.988
5.4	-11.9882
thod	-11.9887
▁critical	-11.9895
▁Baron	-11.9899
resume	-11.9924
ranger	-11.9961
4.4	-12.0091
peg	-12.0123
uttering	-12.0135
duke	-12.015
▁Revolutionar	-12.0232
ussi	-12.0263
▁attracti	-12.029
lè	-12.0323
dolph	-12.0345
▁400	-12.0377
carrie	-12.0388
ivar	-12.0474
▁$=	-12.0493
teria	-12.0496
▁opera	-12.055
zzle	-12.0553
1963)	-12.0575
▁tradition	-12.0642
bef	-12.0656
avid	-12.0704
▁Messi	-12.0726
draws	-12.0775
everend	-12.0778
indicate	-12.0781
barrel	-12.0781
Grand	-12.0781
CHAPTER	-12.0781
Perhaps	-12.0782
Sometimes	-12.0782
February	-12.0782
Colin	-12.0782
December	-12.0782
November	-12.0782
Please	-12.0782
Maybe	-12.0782
actually	-12.0782
▁disappoint	-12.0782
risk	-12.0783
Sorry	-12.0783
spread	-12.0783
style	-12.0783
slide	-12.0784
OOH	-12.0785
temper	-12.0785
crying	-12.0786
untie	-12.0795
person	-12.0798
Once	-12.0801
▁guilt	-12.0805
▁Final	-12.0805
▁architect	-12.0807
▁relate	-12.0807
▁recommend	-12.0809
▁destin	-12.0815
▁punish	-12.0817
▁Universi	-12.0817
▁Engine	-12.0818
▁enthusias	-12.0818
▁Folcutt	-12.0818
▁Hiroshi	-12.0818
▁Interpret	-12.0818
▁Meshkov	-12.0818
▁abroad	-12.0818
▁access	-12.0818
▁acquit	-12.0818
▁assassinat	-12.0818
▁treasure	-12.0818
Chiasmocleis	-12.0818
IBLE	-12.0818
Scinax	-12.0818
accompanied	-12.0818
emphasis	-12.0818
philippa	-12.0818
secution	-12.0818
sympathetic	-12.0818
▁1943	-12.0818
▁AGCO	-12.0818
▁Adolphus	-12.0818
▁Bernard	-12.0818
▁Bulgaria	-12.0818
▁COMPANY	-12.0818
▁Cleveland	-12.0818
▁Cuninghame	-12.0818
▁GUYS	-12.0818
▁García	-12.0818
▁Goldberg	-12.0818
▁Goldrush	-12.0818
▁Hampshire	-12.0818
▁Hughes	-12.0818
▁Kojima	-12.0818
▁Measles	-12.0818
▁Nebula	-12.0818
▁Newfoundland	-12.0818
▁OPENS	-12.0818
▁Ojibwe	-12.0818
▁PARTY	-12.0818
▁PEOPLE	-12.0818
▁Private	-12.0818
▁Saskatchewan	-12.0818
▁Shigenobu	-12.0818
▁Shiomi	-12.0818
▁Society	-12.0818
▁Swedish	-12.0818
▁TREASURE	-12.0818
▁Technology	-12.0818
▁Tennessee	-12.0818
▁Topeka	-12.0818
▁Toronto	-12.0818
▁Vizcarra	-12.0818
▁WORK	-12.0818
▁absurd	-12.0818
▁accurate	-12.0818
▁acquainted	-12.0818
▁admiration	-12.0818
▁advertise	-12.0818
▁afloat	-12.0818
▁ahhah	-12.0818
▁aircraft	-12.0818
▁antelopes	-12.0818
▁assailant	-12.0818
▁assault	-12.0818
▁banquet	-12.0818
▁calendar	-12.0818
▁cathedral	-12.0818
▁communicate	-12.0818
▁conclude	-12.0818
▁conquest	-12.0818
▁corporation	-12.0818
▁crotchet	-12.0818
▁culprit	-12.0818
▁dictionary	-12.0818
▁enchant	-12.0818
▁evacuate	-12.0818
▁excursion	-12.0818
▁explore	-12.0818
▁imagination	-12.0818
▁knuckle	-12.0818
▁liaison	-12.0818
▁license	-12.0818
▁lieutenant	-12.0818
▁meanwhile	-12.0818
▁mischief	-12.0818
▁paragraph	-12.0818
▁patience	-12.0818
▁remembrance	-12.0818
▁republic	-12.0818
▁satisfy	-12.0818
▁shrimp	-12.0818
▁skedaddle	-12.0818
▁skeleton	-12.0818
▁slippery	-12.0818
▁spaghetti	-12.0818
▁spectators	-12.0818
▁sunshine	-12.0818
▁surgeon	-12.0818
▁technician	-12.0818
▁technolog	-12.0818
▁telegraph	-12.0818
▁terrified	-12.0818
▁typical	-12.0818
▁universal	-12.0818
▁universities	-12.0818
▁unpleasant	-12.0818
▁urban	-12.0818
▁worries	-12.0818
Jacques	-12.0818
imploded	-12.0818
▁1896	-12.0818
▁1905	-12.0818
▁Adolf	-12.0818
▁Cairo	-12.0818
▁Dynasty	-12.0818
▁Larsen	-12.0818
▁NEED	-12.0818
▁SHOW	-12.0818
▁Standard	-12.0818
▁WHY	-12.0818
▁buckle	-12.0818
▁celebration	-12.0818
▁comprehensi	-12.0818
▁crisp	-12.0818
▁facilit	-12.0818
▁kettle	-12.0818
▁racket	-12.0818
▁routine	-12.0818
▁squeak	-12.0818
▁Boleyn	-12.0818
▁bandaid	-12.0818
▁chamber	-12.0818
▁composer	-12.0818
▁disgrace	-12.0818
▁envy	-12.0818
▁pluck	-12.0818
▁salute	-12.0818
▁tractor	-12.0818
▁Clinton	-12.0818
▁Clothes	-12.0818
▁Nyx	-12.0818
▁Rangy	-12.0818
▁coax	-12.0818
▁droop	-12.0818
▁offensive	-12.0818
▁vivid	-12.0818
▁wrist	-12.0818
▁Third	-12.0818
▁gingham	-12.0818
▁literally	-12.0818
▁Disney	-12.0818
▁Regan	-12.0818
▁teeter	-12.0818
▁Marsden	-12.0818
▁Sigh	-12.0818
▁choir	-12.0818
▁injury	-12.0818
▁quilt	-12.0818
▁amazed	-12.0818
▁entreat	-12.0818
▁Gwen	-12.0819
▁Ladies	-12.0819
▁oxen	-12.0819
▁shiny	-12.0819
▁Flower	-12.0819
▁wedding	-12.0819
▁swelling	-12.0819
hanabat	-12.0819
▁Grove	-12.0819
▁espresso	-12.0819
▁Power	-12.0819
▁Producti	-12.0819
▁ninth	-12.0819
▁forensic	-12.0819
▁Contest	-12.0819
▁motive	-12.0819
▁Room	-12.0819
▁tackle	-12.0819
▁womb	-12.0819
Military	-12.0819
▁alliance	-12.0819
▁Moore	-12.0819
▁cursive	-12.0819
▁tramp	-12.0819
▁Trost	-12.0819
▁memories	-12.0819
▁Otherwise	-12.0819
▁coarse	-12.0819
▁interfere	-12.0819
▁Molly	-12.0819
▁Afterwards	-12.0819
▁steamboat	-12.0819
▁reform	-12.0819
▁Front	-12.0819
▁migrat	-12.0819
▁confidential	-12.0819
▁JESS	-12.0819
▁exchange	-12.0819
ABLE	-12.0819
▁Sylvia	-12.0819
▁comedian	-12.0819
ondrous	-12.0819
▁goose	-12.0819
▁Honor	-12.0819
▁recite	-12.0819
falsetto	-12.0819
▁unreal	-12.0819
▁steer	-12.0819
▁jack	-12.0819
▁dripping	-12.0819
▁genius	-12.0819
▁Enough	-12.0819
▁quaver	-12.0819
▁Sugar	-12.082
▁groceries	-12.082
▁quote	-12.082
oordinat	-12.082
▁bitten	-12.082
▁Clement	-12.082
▁Walk	-12.082
Ghost	-12.082
▁DOES	-12.082
▁threatened	-12.082
▁Hubert	-12.082
▁existence	-12.082
▁brisk	-12.082
▁misery	-12.082
▁piggie	-12.082
▁Franklin	-12.0821
▁cabbage	-12.0821
▁progressive	-12.0821
▁steep	-12.0821
▁calves	-12.0821
▁jetty	-12.0821
▁Susy	-12.0821
▁1934	-12.0821
▁earlies	-12.0821
▁robert	-12.0821
▁spray	-12.0821
▁lining	-12.0821
▁height	-12.0821
▁EVERY	-12.0821
▁stirring	-12.0821
▁seductive	-12.0821
▁grief	-12.0822
▁STAR	-12.0822
▁ledger	-12.0822
▁flake	-12.0822
▁Highway	-12.0822
▁Corner	-12.0822
RUN	-12.0822
▁Maryland	-12.0822
▁paddle	-12.0822
▁yahoo	-12.0822
▁screeches	-12.0823
▁suicide	-12.0823
▁HOO	-12.0823
▁console	-12.0823
▁Coach	-12.0823
ánd	-12.0824
▁Kev	-12.0824
▁repent	-12.0824
▁Terry	-12.0824
▁undertaking	-12.0824
▁grandma	-12.0825
▁replacement	-12.0825
▁wholesome	-12.0825
▁LOS	-12.0826
▁demonstrate	-12.0827
▁accidentally	-12.0827
▁coachman	-12.0827
▁Raki	-12.0827
▁effective	-12.0828
▁Mette	-12.0828
▁impact	-12.0828
▁machinery	-12.0828
▁Robinson	-12.0829
▁breathless	-12.0829
▁Anti	-12.083
▁selfish	-12.083
▁Nicole	-12.0831
▁correction	-12.0831
▁township	-12.0831
ubbing	-12.0832
▁Making	-12.0833
▁Gator	-12.0836
wich	-12.0836
▁Sav	-12.0837
▁reviv	-12.0843
▁bullet	-12.085
▁sailor	-12.0851
curr	-12.0862
ndigen	-12.0865
▁realise	-12.0866
evge	-12.0872
▁sorrowful	-12.0881
▁flutter	-12.0898
Terr	-12.0911
▁excel	-12.0942
▁Serb	-12.0945
▁Lamb	-12.0956
▁graceful	-12.0974
▁Micro	-12.1001
ATCH	-12.1007
HILDA	-12.1011
uardians	-12.1045
shaw	-12.1066
earn	-12.1071
7.5	-12.1097
moving	-12.1105
▁surf	-12.112
▁glanc	-12.112
filler	-12.1237
uthwestern	-12.1258
held	-12.1295
▁Wak	-12.1307
cumbe	-12.1327
▁Bert	-12.1394
phin	-12.1418
▁clap	-12.1579
garet	-12.1666
5.5	-12.1678
yells	-12.17
▁adopt	-12.1771
▁Certain	-12.1807
▁arrang	-12.1855
called	-12.1869
4.6	-12.1905
▁1953	-12.1942
▁App	-12.1946
sweets	-12.1996
1964)	-12.2028
JOHN	-12.203
Neil	-12.2031
shouting	-12.2031
central	-12.2031
First	-12.2032
drama	-12.2032
probably	-12.2032
October	-12.2032
people	-12.2032
child	-12.2032
equal	-12.2032
something	-12.2033
shoes	-12.2034
close	-12.2035
▁accord	-12.2035
week	-12.2036
voice	-12.2037
final	-12.204
▁induce	-12.2041
ekend	-12.2046
pause	-12.2051
▁unfortunate	-12.2054
▁obvious	-12.2055
▁immediate	-12.2055
▁Italia	-12.2055
▁Commission	-12.2057
▁rapid	-12.2059
minated	-12.2062
▁govern	-12.2062
▁writin	-12.2064
▁entertain	-12.2066
▁astonish	-12.2067
scribbl	-12.2068
NNIE	-12.2068
▁Ché	-12.2068
▁Saxon	-12.2068
š	-12.2068
▁GREAT	-12.2068
▁Josceline	-12.2068
▁Joux	-12.2068
▁Quebec	-12.2068
▁Yankee	-12.2068
▁circula	-12.2068
▁culvert	-12.2068
▁esquire	-12.2068
▁inhabitants	-12.2068
▁library	-12.2068
▁neglect	-12.2068
▁tournament	-12.2068
CHUCKLE	-12.2068
Chardonney	-12.2068
Menthue	-12.2068
SELF	-12.2068
Tiercelin	-12.2068
onstituency	-12.2068
prompting	-12.2068
ñ	-12.2068
ô	-12.2068
▁(2016)	-12.2068
▁(2017)	-12.2068
▁BETTER	-12.2068
▁BUSINESS	-12.2068
▁Bandaid	-12.2068
▁Barcelona	-12.2068
▁Belgium	-12.2068
▁Birthday	-12.2068
▁Buddha	-12.2068
▁Cardinal	-12.2068
▁Cocoamarsh	-12.2068
▁Connecticut	-12.2068
▁Dawlish	-12.2068
▁Deputies	-12.2068
▁Development	-12.2068
▁Fontain	-12.2068
▁Frederick	-12.2068
▁Gracie	-12.2068
▁Jewish	-12.2068
▁Jonathan	-12.2068
▁Judiciary	-12.2068
▁Kaneko	-12.2068
▁Kazakh	-12.2068
▁Kazakhstan	-12.2068
▁Labrador	-12.2068
▁Ministry	-12.2068
▁Minnesota	-12.2068
▁Mobile	-12.2068
▁Mukaiyama	-12.2068
▁Network	-12.2068
▁Nonnie	-12.2068
▁Obviously	-12.2068
▁Oxfam	-12.2068
▁Potawatomi	-12.2068
▁RUNNING	-12.2068
▁Rowntree	-12.2068
▁SARAH	-12.2068
▁SHARK	-12.2068
▁Stevie	-12.2068
▁TALES	-12.2068
▁THOSE	-12.2068
▁Thornton	-12.2068
▁Trinidad	-12.2068
▁Tyumen	-12.2068
▁Unfortunately	-12.2068
▁Waysmith	-12.2068
▁Wolsey	-12.2068
▁Woodpecker	-12.2068
▁Zimbabwe	-12.2068
▁absorb	-12.2068
▁acrobat	-12.2068
▁alternate	-12.2068
▁amazement	-12.2068
▁ambition	-12.2068
▁animiles	-12.2068
▁audience	-12.2068
▁automatic	-12.2068
▁biscuit	-12.2068
▁cautiously	-12.2068
▁conceived	-12.2068
▁conscience	-12.2068
▁contemp	-12.2068
▁convenient	-12.2068
▁curiosity	-12.2068
▁departure	-12.2068
▁derrick	-12.2068
▁detective	-12.2068
▁domestic	-12.2068
▁emperor	-12.2068
▁endeavor	-12.2068
▁eternal	-12.2068
▁evolve	-12.2068
▁explode	-12.2068
▁fabric	-12.2068
▁fatigue	-12.2068
▁fragran	-12.2068
▁franchise	-12.2068
▁frequent	-12.2068
▁goddamn	-12.2068
▁gravity	-12.2068
▁halloween	-12.2068
▁ignorance	-12.2068
▁imaginary	-12.2068
▁impressive	-12.2068
▁inscription	-12.2068
▁intimate	-12.2068
▁landlord	-12.2068
▁lemonade	-12.2068
▁miracle	-12.2068
▁molybdenum	-12.2068
▁muscles	-12.2068
▁mutters	-12.2068
▁perspective	-12.2068
▁physics	-12.2068
▁pilot	-12.2068
▁policies	-12.2068
▁portrait	-12.2068
▁preliminar	-12.2068
▁principal	-12.2068
▁properties	-12.2068
▁pterosaur	-12.2068
▁recognition	-12.2068
▁recruit	-12.2068
▁registered	-12.2068
▁reluctantly	-12.2068
▁resistance	-12.2068
▁revolt	-12.2068
▁satellite	-12.2068
▁scattered	-12.2068
▁sentiment	-12.2068
▁submitted	-12.2068
▁substitut	-12.2068
▁superstitio	-12.2068
▁surprising	-12.2068
▁sympathy	-12.2068
▁teenage	-12.2068
▁thrust	-12.2068
▁tornado	-12.2068
▁ultimate	-12.2068
▁uneasy	-12.2068
▁unexpected	-12.2068
▁unfair	-12.2068
▁yield	-12.2068
spiration	-12.2068
▁1938	-12.2068
▁Bobbie	-12.2068
▁FRIEND	-12.2068
▁Hulk	-12.2068
▁Raffael	-12.2068
▁SWEET	-12.2068
▁Sottens	-12.2068
▁WOMAN	-12.2068
▁bronze	-12.2068
▁chorus	-12.2068
▁crooked	-12.2068
▁dignity	-12.2068
▁eminence	-12.2068
▁fossil	-12.2068
▁fraction	-12.2068
▁hoarse	-12.2068
▁inhibit	-12.2068
▁liquid	-12.2068
▁microscop	-12.2068
▁morsel	-12.2068
▁proposal	-12.2068
▁remote	-12.2068
▁seminar	-12.2068
▁thumb	-12.2068
▁Bruce	-12.2068
▁Calcul	-12.2068
▁Devil	-12.2068
▁Fellow	-12.2068
▁Jennings	-12.2068
▁RINGS	-12.2068
▁absence	-12.2068
▁dementia	-12.2068
▁statue	-12.2068
▁tavern	-12.2068
63205	-12.2068
▁CUT	-12.2068
▁Peace	-12.2068
▁creek	-12.2068
▁draft	-12.2068
▁harsh	-12.2068
▁scorn	-12.2068
▁timid	-12.2068
▁Creek	-12.2068
▁Dinner	-12.2068
▁Space	-12.2068
▁bloke	-12.2068
▁cardinal	-12.2068
▁twig	-12.2068
▁Amaral	-12.2068
▁Eddie	-12.2068
▁Psych	-12.2068
▁hyper	-12.2068
hausen	-12.2068
▁Donkey	-12.2068
▁random	-12.2068
▁Rhine	-12.2069
."—_	-12.2069
▁devastat	-12.2069
▁adapt	-12.2069
▁generation	-12.2069
▁Ethel	-12.2069
▁gloss	-12.2069
▁Artist	-12.2069
▁Warsaw	-12.2069
▁quaint	-12.2069
▁Heather	-12.2069
▁zeal	-12.2069
▁Squad	-12.2069
LLOWS	-12.2069
gestalt	-12.2069
▁tinker	-12.2069
stricken	-12.2069
▁facing	-12.2069
▁ackack	-12.2069
stock	-12.2069
▁grunt	-12.2069
▁Pierre	-12.2069
▁Jill	-12.2069
▁levey	-12.2069
▁Campbell	-12.2069
▁Tower	-12.2069
▁mystery	-12.2069
▁brim	-12.2069
▁cinema	-12.2069
▁dismiss	-12.2069
▁medium	-12.2069
▁Paddy	-12.2069
▁tasting	-12.2069
▁perceiv	-12.2069
▁vital	-12.2069
▁garret	-12.2069
▁Often	-12.2069
▁dental	-12.2069
▁Prague	-12.2069
▁labour	-12.2069
▁descent	-12.2069
▁arrangements	-12.2069
▁Small	-12.2069
▁borough	-12.2069
▁restrain	-12.2069
▁Armenia	-12.2069
▁argue	-12.2069
▁stagger	-12.2069
▁justice	-12.2069
▁probabilit	-12.207
Peoria	-12.207
▁dragging	-12.207
▁Desk	-12.207
▁translate	-12.207
▁convention	-12.207
▁Garden	-12.207
▁pocketbook	-12.207
▁idle	-12.207
▁junk	-12.207
▁pausing	-12.207
▁overtake	-12.207
▁Diana	-12.207
▁Pará	-12.2071
▁announcement	-12.2071
▁tidy	-12.2071
▁inches	-12.2071
Mildred	-12.2071
▁flask	-12.2071
▁Pardon	-12.2071
▁therapy	-12.2071
▁GOING	-12.2071
▁debate	-12.2071
▁Wonderful	-12.2071
▁dusk	-12.2071
▁Feld	-12.2071
▁tipped	-12.2071
abella	-12.2071
▁priority	-12.2071
▁Fiction	-12.2071
▁apron	-12.2071
▁hedge	-12.2071
▁Naval	-12.2072
▁bargain	-12.2072
▁consistent	-12.2072
Walsh	-12.2072
▁View	-12.2072
▁Somehow	-12.2072
▁chapter	-12.2072
▁Holt	-12.2072
ternity	-12.2072
▁thunder	-12.2072
▁Denis	-12.2072
▁Rogue	-12.2072
ausage	-12.2072
▁Haiti	-12.2073
▁destination	-12.2073
▁WANT	-12.2073
▁Strong	-12.2073
▁Trish	-12.2073
▁bunk	-12.2074
▁jaw	-12.2074
▁graz	-12.2074
▁stray	-12.2074
nchez	-12.2074
▁libera	-12.2076
▁Money	-12.2076
▁icing	-12.2076
▁tilt	-12.2077
▁Poke	-12.2078
▁hound	-12.2083
▁Tsu	-12.2083
▁hurl	-12.2085
▁ease	-12.2085
ajan	-12.2087
ritage	-12.2088
▁garment	-12.2094
OLUM	-12.21
▁spru	-12.2107
gasps	-12.2108
▁Nell	-12.2114
ATHER	-12.2129
Persian	-12.2131
specially	-12.2131
lée	-12.2139
ouncillor	-12.2139
appea	-12.216
▁Guti	-12.2163
euro	-12.2165
▁[3.1	-12.2205
astro	-12.2211
▁1944	-12.2326
VERY	-12.233
Oui	-12.2347
3.3	-12.2358
lippers	-12.2359
Harper	-12.2369
pending	-12.2375
Pitt	-12.2399
▁delay	-12.2473
logical	-12.2503
4.2	-12.2524
▁Natur	-12.2602
Yea	-12.2737
MADE	-12.2744
▁authoriz	-12.286
HAD	-12.2871
crackling	-12.2946
▁Georgi	-12.299
▁recogniz	-12.2991
▁challeng	-12.3132
voiceless	-12.314
talk	-12.3194
rcade	-12.323
▁scissor	-12.3245
laden	-12.3269
▁practi	-12.3332
OUND	-12.3368
luc	-12.3438
▁doubl	-12.3442
launch	-12.346
Club	-12.346
suspect	-12.346
firmly	-12.346
|	-12.346
fellow	-12.346
whispered	-12.346
Two	-12.346
Christmas	-12.346
turtle	-12.346
Right	-12.346
white	-12.346
first	-12.3461
fight	-12.3461
meeting	-12.3461
running	-12.3461
▁exclaim	-12.3464
Music	-12.3465
taste	-12.3465
cluele	-12.3465
State	-12.347
▁flush	-12.3482
▁Steve	-12.3484
haired	-12.3484
demonstrat	-12.3486
uicide	-12.3492
▁Nei	-12.3493
▁takin	-12.3494
▁influen	-12.3494
dialog	-12.3495
rofessional	-12.3495
▁guitar	-12.3495
IGHT	-12.3495
▁municipal	-12.3495
ecutive	-12.3496
▁confident	-12.3496
abilities	-12.3496
structur	-12.3497
tinue	-12.3497
abbage	-12.3497
▁Chavannes	-12.3497
▁Wisconsin	-12.3497
BODY	-12.3497
TRUMAN	-12.3497
ebarre	-12.3497
olytechnic	-12.3497
tmospher	-12.3497
uckleberry	-12.3497
ycamore	-12.3497
▁AWAY	-12.3497
▁Amazon	-12.3497
▁Anthony	-12.3497
▁Arkansas	-12.3497
▁Baxter	-12.3497
▁Beauty	-12.3497
▁Blakeman	-12.3497
▁Canelones	-12.3497
▁Ceramic	-12.3497
▁Chuganji	-12.3497
▁Cinderella	-12.3497
▁Commerce	-12.3497
▁Consumer	-12.3497
▁DANNY	-12.3497
▁Dommartin	-12.3497
▁Doolittle	-12.3497
▁Drosophilidae	-12.3497
▁Dupree	-12.3497
▁Emergency	-12.3497
▁Energy	-12.3497
▁Federation	-12.3497
▁Fibrian	-12.3497
▁Galaxy	-12.3497
▁Gambaccini	-12.3497
▁Gervassen	-12.3497
▁Giovanni	-12.3497
▁Hercules	-12.3497
▁Hirsch	-12.3497
▁Honeysuckle	-12.3497
▁JUVENILES	-12.3497
▁Kennedy	-12.3497
▁Kramatorsk	-12.3497
▁Lafferty	-12.3497
▁Lucifer	-12.3497
▁Lynch	-12.3497
▁Lynn	-12.3497
▁MICHELLE	-12.3497
▁MONKEY	-12.3497
▁Magazine	-12.3497
▁Mercedes	-12.3497
▁Monique	-12.3497
▁Montilliez	-12.3497
▁Nevada	-12.3497
▁Pawnee	-12.3497
▁Progress	-12.3497
▁Ralph	-12.3497
▁Ramsay	-12.3497
▁SCHOOL	-12.3497
▁SPELL	-12.3497
▁SPRING	-12.3497
▁Screw	-12.3497
▁Slayer	-12.3497
▁Statistic	-12.3497
▁TEMPLE	-12.3497
▁Tallahassee	-12.3497
▁Trujillo	-12.3497
▁Tsada	-12.3497
▁Tunisia	-12.3497
▁Vogel	-12.3497
▁Yamada	-12.3497
▁Yamazaki	-12.3497
▁administrator	-12.3497
▁advisor	-12.3497
▁ambulance	-12.3497
▁arithmetic	-12.3497
▁barricade	-12.3497
▁bewildered	-12.3497
▁bewilderment	-12.3497
▁blabber	-12.3497
▁carpenter	-12.3497
▁casino	-12.3497
▁certificate	-12.3497
▁circuit	-12.3497
▁cocaine	-12.3497
▁communities	-12.3497
▁comparison	-12.3497
▁congress	-12.3497
▁contemptuously	-12.3497
▁contribute	-12.3497
▁controversy	-12.3497
▁cranberry	-12.3497
▁describing	-12.3497
▁despised	-12.3497
▁dimension	-12.3497
▁educator	-12.3497
▁endeavour	-12.3497
▁evaluation	-12.3497
▁exploit	-12.3497
▁external	-12.3497
▁extraordinary	-12.3497
▁genuine	-12.3497
▁gruffly	-12.3497
▁hammock	-12.3497
▁hickory	-12.3497
▁hummocks	-12.3497
▁icicle	-12.3497
▁inkfishes	-12.3497
▁instinctively	-12.3497
▁judgment	-12.3497
▁juncture	-12.3497
▁lafferty	-12.3497
▁lesbian	-12.3497
▁manipulat	-12.3497
▁marvellous	-12.3497
▁mutual	-12.3497
▁nickname	-12.3497
▁opponent	-12.3497
▁opportunities	-12.3497
▁oxygen	-12.3497
▁parliament	-12.3497
▁participating	-12.3497
▁persuade	-12.3497
▁philanthropist	-12.3497
▁phonics	-12.3497
▁plague	-12.3497
▁prevail	-12.3497
▁prohibition	-12.3497
▁prudent	-12.3497
▁qualified	-12.3497
▁quantities	-12.3497
▁recollect	-12.3497
▁reindeer	-12.3497
▁shrewd	-12.3497
▁spectacle	-12.3497
▁stadium	-12.3497
▁strictly	-12.3497
▁substance	-12.3497
▁surplus	-12.3497
▁transcript	-12.3497
▁trauma	-12.3497
▁truncata	-12.3497
▁universe	-12.3497
▁untidy	-12.3497
▁verdict	-12.3497
▁vodka	-12.3497
▁woodpecker	-12.3497
▁wrestler	-12.3497
▁1888	-12.3497
▁Austria	-12.3497
▁Awesome	-12.3497
▁Belfast	-12.3497
▁Discover	-12.3497
▁Follow	-12.3497
▁Jenni	-12.3497
▁MOVE	-12.3497
▁Monroe	-12.3497
▁Palace	-12.3497
▁Publish	-12.3497
▁Solomon	-12.3497
▁TWO	-12.3497
▁Wayne	-12.3497
▁Whidb	-12.3497
▁XIV	-12.3497
▁acknowledge	-12.3497
▁acorn	-12.3497
▁admiring	-12.3497
▁bureau	-12.3497
▁changies	-12.3497
▁croak	-12.3497
▁deprive	-12.3497
▁devoted	-12.3497
▁enemies	-12.3497
▁flicker	-12.3497
▁maxim	-12.3497
▁mitten	-12.3497
▁narrative	-12.3497
▁pediatric	-12.3497
▁serpent	-12.3497
▁suspens	-12.3497
▁veranda	-12.3497
▁worship	-12.3497
▁Agency	-12.3497
▁Alicia	-12.3497
▁Eight	-12.3497
▁FACE	-12.3497
▁Gaskins	-12.3497
▁SANTA	-12.3497
▁Territori	-12.3497
▁clump	-12.3497
▁crinkle	-12.3497
▁crude	-12.3497
▁discreet	-12.3497
▁poppop	-12.3497
▁saunter	-12.3497
▁terrier	-12.3497
▁villain	-12.3497
▁warfare	-12.3497
▁wobble	-12.3497
▁Apollo	-12.3497
▁Fulton	-12.3497
▁Sierra	-12.3497
▁battered	-12.3497
▁confess	-12.3497
inclination	-12.3497
Î	-12.3497
▁Bureau	-12.3497
▁Either	-12.3497
▁Origin	-12.3497
▁Student	-12.3497
▁bride	-12.3497
▁decorate	-12.3497
▁Connie	-12.3497
▁FIRE	-12.3497
▁Lucky	-12.3497
▁Staff	-12.3497
▁Tucker	-12.3497
▁chieftain	-12.3497
▁deliberately	-12.3497
▁furnish	-12.3497
▁rubbed	-12.3497
▁tippet	-12.3497
LARS	-12.3497
Perfect	-12.3497
▁Appeal	-12.3497
▁Engineering	-12.3497
▁beggar	-12.3497
▁bulb	-12.3497
▁eldest	-12.3497
▁helmet	-12.3497
▁infection	-12.3497
▁snail	-12.3497
▁Blaine	-12.3497
▁ponies	-12.3497
▁rattling	-12.3497
▁Bateman	-12.3497
▁Sterling	-12.3497
▁intervals	-12.3497
▁preacher	-12.3497
▁sawmill	-12.3497
tivated	-12.3497
▁Eisen	-12.3497
Memorial	-12.3497
▁scold	-12.3497
AAA	-12.3497
▁Capit	-12.3497
▁Johnnie	-12.3497
▁eliminat	-12.3497
▁goblin	-12.3497
▁novice	-12.3497
stution	-12.3497
▁ABC	-12.3497
▁modest	-12.3497
▁sheriff	-12.3497
▁voce	-12.3497
▁Syria	-12.3497
sacrific	-12.3497
▁dentist	-12.3497
▁Beyon	-12.3497
▁salad	-12.3497
née	-12.3497
▁AUT	-12.3497
▁CLOSES	-12.3497
lementary	-12.3497
▁mink	-12.3497
▁conquer	-12.3497
▁Sign	-12.3497
▁lamb	-12.3497
lectronic	-12.3497
▁Iranian	-12.3497
▁depth	-12.3497
▁Algeria	-12.3497
▁Ethan	-12.3497
▁Wendy	-12.3497
▁Pazzaglia	-12.3497
▁SIR	-12.3497
▁commission	-12.3497
▁MUCH	-12.3497
▁Bando	-12.3497
▁complex	-12.3497
▁neutr	-12.3497
▁hunhunh	-12.3497
interpret	-12.3498
▁Mumps	-12.3498
▁marten	-12.3498
▁bonfire	-12.3498
hansk	-12.3498
▁smack	-12.3498
▁auction	-12.3498
▁falter	-12.3498
▁admission	-12.3498
▁barefoot	-12.3498
▁godfather	-12.3498
▁donkey	-12.3498
▁Mountie	-12.3498
▁laundr	-12.3498
▁rapture	-12.3498
▁wolves	-12.3498
▁division	-12.3498
▁shrink	-12.3498
▁hostess	-12.3498
gnens	-12.3498
CHOO	-12.3498
▁Multi	-12.3498
Anhalt	-12.3498
▁Neither	-12.3498
mateur	-12.3498
▁suture	-12.3498
▁nerve	-12.3498
MLB	-12.3498
▁shaving	-12.3499
▁prettie	-12.3499
▁slumber	-12.3499
▁weeping	-12.3499
▁italian	-12.3499
▁outfit	-12.3499
▁margin	-12.3499
▁lightning	-12.3499
ová	-12.35
▁greed	-12.35
▁Store	-12.35
▁ankle	-12.35
▁Galle	-12.3503
ilkman	-12.3507
▁waitress	-12.3509
Gink	-12.3516
anilla	-12.3516
erasing	-12.3522
▁Apte	-12.3533
▁mingl	-12.3537
plain	-12.3549
▁firearm	-12.355
▁dread	-12.3555
Castel	-12.3557
▁grati	-12.3564
wiping	-12.3591
mute	-12.3602
▁giggle	-12.3602
ovsk	-12.3608
▁urin	-12.364
▁biograph	-12.3643
WAYS	-12.3711
Billboard	-12.3728
▁sneez	-12.3734
ulticulturalism	-12.3767
▁LUC	-12.377
▁[$=	-12.3782
mbu	-12.3856
athed	-12.3893
ebbe	-12.3938
▁civilize	-12.3939
▁1965	-12.3961
ocket	-12.399
▁supervis	-12.4047
▁construct	-12.4138
Magn	-12.4231
EEL	-12.4485
nvolv	-12.4492
ripped	-12.455
opyright	-12.4614
plant	-12.467
▁fashionabl	-12.4712
COV	-12.4737
erases	-12.4848
▁multicultural	-12.4854
ILDA	-12.4873
▁Kansa	-12.4918
presum	-12.4925
splitting	-12.4951
▁dwel	-12.5067
knocks	-12.5072
speak	-12.5094
▁introduc	-12.5097
Lausanne	-12.5126
Monte	-12.5126
É	-12.5126
Stacy	-12.5126
Ukrainian	-12.5126
Hurry	-12.5126
respond	-12.5126
apparently	-12.5126
crawl	-12.5127
knife	-12.5127
Black	-12.5127
Listen	-12.5127
include	-12.5127
People	-12.5127
Tripp	-12.5127
French	-12.5127
Great	-12.5127
movie	-12.5127
smiling	-12.5127
sometimes	-12.5127
Old	-12.5127
might	-12.5127
third	-12.5128
glass	-12.5129
national	-12.513
▁fascinat	-12.5131
▁convince	-12.5136
▁commence	-12.5136
▁Korea	-12.515
ritique	-12.5157
▁screech	-12.5157
traight	-12.5158
▁raisin	-12.5159
nteresting	-12.5162
▁grocer	-12.5162
▁Sylv	-12.5163
▁Pazzag	-12.5163
▁AGA	-12.5163
definite	-12.5164
▁JACK	-12.5164
â	-12.5164
▁Dompierre	-12.5164
▁molecul	-12.5164
▁Confedera	-12.5164
▁Piedmont	-12.5164
▁accommodat	-12.5164
▁negotiat	-12.5164
▁variable	-12.5164
Bundesliga	-12.5164
COOPER	-12.5164
Chavornay	-12.5164
Chestnut	-12.5164
Dalbergia	-12.5164
HDAY	-12.5164
HUMMING	-12.5164
collision	-12.5164
cyclist	-12.5164
exasperat	-12.5164
gregation	-12.5164
obscura	-12.5164
olitburo	-12.5164
satisfactory	-12.5164
sponsibilities	-12.5164
ß	-12.5164
à	-12.5164
ś	-12.5164
▁(2014)	-12.5164
▁(2015)	-12.5164
▁988)	-12.5164
▁Abdel	-12.5164
▁Adventure	-12.5164
▁Alabama	-12.5164
▁Alejandro	-12.5164
▁Anoctah	-12.5164
▁Answer	-12.5164
▁Atlanta	-12.5164
▁BABY	-12.5164
▁Barbara	-12.5164
▁Beatrice	-12.5164
▁Beijing	-12.5164
▁CHILDREN	-12.5164
▁Cunningham	-12.5164
▁Cyprus	-12.5164
▁Definitely	-12.5164
▁Dennis	-12.5164
▁EDITH	-12.5164
▁Eclagnens	-12.5164
▁Eduard	-12.5164
▁Enjoy	-12.5164
▁Fantastic	-12.5164
▁Fitzgerald	-12.5164
▁Flycatcher	-12.5164
▁Fontanezier	-12.5164
▁Fortunately	-12.5164
▁GLAD	-12.5164
▁Gasparovič	-12.5164
▁Gavà	-12.5164
▁Geneva	-12.5164
▁Gippsland	-12.5164
▁Goldsmith	-12.5164
▁Goumoëns	-12.5164
▁HELP	-12.5164
▁Hyacinth	-12.5164
▁Jellyfish	-12.5164
▁Jordan	-12.5164
▁Kelantan	-12.5164
▁LAURA	-12.5164
▁Lanchester	-12.5164
▁Language	-12.5164
▁MAGIC	-12.5164
▁MISTAKE	-12.5164
▁MUSIC	-12.5164
▁Masakuni	-12.5164
▁Massacre	-12.5164
▁Miyamoto	-12.5164
▁Morticia	-12.5164
▁Muslim	-12.5164
▁NEVER	-12.5164
▁Negro	-12.5164
▁Neptune	-12.5164
▁Nestlé	-12.5164
▁Nevertheless	-12.5164
▁Nicatoos	-12.5164
▁OFFERED	-12.5164
▁Oedipus	-12.5164
▁Ohoolee	-12.5164
▁Okinawa	-12.5164
▁PARTNER	-12.5164
▁Peacocke	-12.5164
▁Prefecture	-12.5164
▁Previously	-12.5164
▁Program	-12.5164
▁Ratcliffe	-12.5164
▁Rhodesia	-12.5164
▁Rhonda	-12.5164
▁Romairon	-12.5164
▁Roosky	-12.5164
▁Rovray	-12.5164
▁STEPH	-12.5164
▁Scissor	-12.5164
▁Scotia	-12.5164
▁Semenza	-12.5164
▁Spaniard	-12.5164
▁Species	-12.5164
▁Swahili	-12.5164
▁THOUGHT	-12.5164
▁Takahara	-12.5164
▁Tehran	-12.5164
▁Tekirdağ	-12.5164
▁Television	-12.5164
▁Temperance	-12.5164
▁Teraoka	-12.5164
▁Tomatoes	-12.5164
▁Tévenon	-12.5164
▁Uegaki	-12.5164
▁Whistler	-12.5164
▁YEARS	-12.5164
▁Yamamoto	-12.5164
▁Zhadan	-12.5164
▁accelerat	-12.5164
▁astronaut	-12.5164
▁batteries	-12.5164
▁behaviour	-12.5164
▁brooch	-12.5164
▁bullshit	-12.5164
▁centimeters	-12.5164
▁cockatoo	-12.5164
▁collapse	-12.5164
▁colleague	-12.5164
▁communication	-12.5164
▁confusion	-12.5164
▁constellation	-12.5164
▁contrary	-12.5164
▁contribution	-12.5164
▁corpse	-12.5164
▁countenance	-12.5164
▁decelerat	-12.5164
▁defensive	-12.5164
▁dingdong	-12.5164
▁eligible	-12.5164
▁engrav	-12.5164
▁eugenioi	-12.5164
▁gratitude	-12.5164
▁homesickness	-12.5164
▁hypocrite	-12.5164
▁immortal	-12.5164
▁invisible	-12.5164
▁jellyfishes	-12.5164
▁juggling	-12.5164
▁jurisdiction	-12.5164
▁lollipop	-12.5164
▁manufacturing	-12.5164
▁merchant	-12.5164
▁messenger	-12.5164
▁misbehave	-12.5164
▁mischievous	-12.5164
▁navigat	-12.5164
▁nephew	-12.5164
▁obstinate	-12.5164
▁physician	-12.5164
▁possibilities	-12.5164
▁poverty	-12.5164
▁precinct	-12.5164
▁prescribe	-12.5164
▁proportion	-12.5164
▁prosopagnosia	-12.5164
▁pseudonym	-12.5164
▁psychiatrist	-12.5164
▁quantity	-12.5164
▁retorted	-12.5164
▁scarecrow	-12.5164
▁script	-12.5164
▁scrutin	-12.5164
▁sequel	-12.5164
▁shield	-12.5164
▁sponsor	-12.5164
▁stimulus	-12.5164
▁sturdy	-12.5164
▁survivors	-12.5164
▁theoretical	-12.5164
▁uncommon	-12.5164
▁vampire	-12.5164
▁vertebrae	-12.5164
▁violence	-12.5164
▁violets	-12.5164
▁virtue	-12.5164
▁wheelbarrow	-12.5164
▁whittle	-12.5164
▁wrestling	-12.5164
rtuous	-12.5164
▁1908	-12.5164
▁AFTER	-12.5164
▁Bunkie	-12.5164
▁Castle	-12.5164
▁Collegi	-12.5164
▁Duflo	-12.5164
▁Ecuador	-12.5164
▁Gamble	-12.5164
▁HAND	-12.5164
▁HBO	-12.5164
▁Hakeem	-12.5164
▁Hampton	-12.5164
▁Holck	-12.5164
▁JANE	-12.5164
▁JULIA	-12.5164
▁Jefferson	-12.5164
▁Leslie	-12.5164
▁Porgie	-12.5164
▁Relax	-12.5164
▁Snyder	-12.5164
▁Tallula	-12.5164
▁VISIT	-12.5164
▁Vermont	-12.5164
▁Wilson	-12.5164
▁YOUNG	-12.5164
▁casual	-12.5164
▁clarinet	-12.5164
▁devotion	-12.5164
▁fingernail	-12.5164
▁gambl	-12.5164
▁humour	-12.5164
▁indignant	-12.5164
▁monitor	-12.5164
▁officiate	-12.5164
▁petition	-12.5164
▁precipit	-12.5164
▁profile	-12.5164
▁remorse	-12.5164
▁smelt	-12.5164
▁subfamil	-12.5164
▁timber	-12.5164
djustment	-12.5164
▁Dominic	-12.5164
▁EVEN	-12.5164
▁HORSE	-12.5164
▁Judge	-12.5164
▁Landsberg	-12.5164
▁MORE	-12.5164
▁Marcia	-12.5164
▁Parlor	-12.5164
▁Pollard	-12.5164
▁SEARCH	-12.5164
▁Stupid	-12.5164
▁USSR	-12.5164
▁Urgh	-12.5164
▁admirabl	-12.5164
▁burrow	-12.5164
▁cliff	-12.5164
▁grandeur	-12.5164
▁impulse	-12.5164
▁persuasi	-12.5164
▁stabbed	-12.5164
▁sugarcane	-12.5164
▁thither	-12.5164
▁unique	-12.5164
▁Arnex	-12.5164
▁JOB	-12.5164
▁René	-12.5164
▁Wheel	-12.5164
▁behaving	-12.5164
▁dedicate	-12.5164
▁defence	-12.5164
▁gullies	-12.5164
▁implement	-12.5164
▁spider	-12.5164
▁spiritual	-12.5164
▁thief	-12.5164
▁unaware	-12.5164
abbreviat	-12.5164
▁Accept	-12.5164
▁Alliance	-12.5164
▁Angeli	-12.5164
▁Bubba	-12.5164
▁Pickle	-12.5164
▁Ridge	-12.5164
▁cherish	-12.5164
▁filter	-12.5164
▁humili	-12.5164
▁knelt	-12.5164
ophile	-12.5164
▁Angela	-12.5164
▁Manager	-12.5164
▁creaking	-12.5164
▁descendants	-12.5164
▁kingdom	-12.5164
▁particulates	-12.5164
▁prospect	-12.5164
▁retrieve	-12.5164
izzy	-12.5164
▁BATH	-12.5164
▁Magic	-12.5164
▁WATER	-12.5164
▁chariot	-12.5164
▁finance	-12.5164
▁gurgle	-12.5164
▁historian	-12.5164
▁yoyo	-12.5164
▁brood	-12.5164
▁footsteps	-12.5164
▁rewind	-12.5164
▁absent	-12.5164
▁bribe	-12.5164
▁christ	-12.5164
▁mirth	-12.5164
▁protein	-12.5164
spress	-12.5164
▁hijack	-12.5164
▁urns	-12.5164
Imagine	-12.5164
▁filth	-12.5164
▁vault	-12.5164
▁Hitler	-12.5164
▁Slowly	-12.5164
▁dominion	-12.5164
▁mbbm	-12.5164
▁mourn	-12.5164
▁Donegal	-12.5164
▁Prepar	-12.5164
▁peasant	-12.5164
▁interven	-12.5164
▁stunt	-12.5164
▁audio	-12.5164
▁bashful	-12.5164
▁clang	-12.5164
▁spelt	-12.5164
▁Kazu	-12.5164
sière	-12.5164
▁Wales	-12.5164
▁wrench	-12.5164
mpulsive	-12.5164
▁Testa	-12.5164
▁apology	-12.5164
▁creaks	-12.5164
▁Fight	-12.5164
eagulls	-12.5164
▁untied	-12.5164
/020	-12.5164
crete	-12.5164
▁ABS	-12.5164
▁alleviat	-12.5164
▁Storm	-12.5164
▁Cancer	-12.5165
▁divine	-12.5165
BURG	-12.5165
▁Magnu	-12.5165
▁bulk	-12.5165
▁detache	-12.5165
▁squatt	-12.5165
Johann	-12.5165
▁Flore	-12.5165
▁gnaw	-12.5165
▁offense	-12.5165
Temple	-12.5165
▁Museu	-12.5165
▁Bomb	-12.5166
▁Steel	-12.5166
▁tangle	-12.5166
▁Emir	-12.5166
ialogue	-12.5167
▁meditat	-12.5167
Course	-12.5167
bosom	-12.5167
ECK	-12.5167
▁sulk	-12.5167
SAID	-12.5167
tirrup	-12.5167
probable	-12.5168
HEAD	-12.5168
emptie	-12.5169
mimick	-12.517
phali	-12.5171
andmark	-12.5172
AIDS	-12.5173
Screaming	-12.5174
eadow	-12.5174
▁Priso	-12.5175
▁Frei	-12.5175
Angel	-12.5179
rchitectural	-12.5181
usbee	-12.5185
ecki	-12.5188
▁lease	-12.5193
ccomplishments	-12.5198
▁clue	-12.5201
arbor	-12.5206
april	-12.5211
Arabia	-12.5221
stride	-12.5254
OBB	-12.5277
1921	-12.5319
▁bustl	-12.5321
1953)	-12.5338
Librar	-12.5348
▁Total	-12.536
▁repute	-12.5361
spike	-12.5368
Mercy	-12.5369
Foot	-12.5409
▁announc	-12.5426
carpet	-12.5505
▁amiabl	-12.5541
▁Clav	-12.5647
mushy	-12.5777
Bonnie	-12.5905
growly	-12.5949
▁simpl	-12.596
▁Torr	-12.5998
OUT	-12.6057
Tail	-12.6063
Things	-12.6163
1978)	-12.6227
tripp	-12.6521
delayed	-12.6527
earless	-12.6554
▁exhibit	-12.6618
Croatian	-12.6809
▁WAY	-12.6863
▁pigeon	-12.6908
▁produc	-12.6942
AGE	-12.6951
ounced	-12.7018
ssistant	-12.7018
environmentalist	-12.702
oggle	-12.7031
▁SAV	-12.7105
closing	-12.7126
bishop	-12.7126
stretched	-12.7126
Carry	-12.7126
spilled	-12.7126
Before	-12.7127
revolutionary	-12.7127
taperecorder	-12.7127
length	-12.7127
carefully	-12.7127
follow	-12.7127
grown	-12.7127
www	-12.7127
language	-12.7127
bottom	-12.7127
rubber	-12.7127
business	-12.7127
broken	-12.7127
control	-12.7127
brother	-12.7127
John	-12.7127
believe	-12.7127
answer	-12.7128
either	-12.7128
▁wretch	-12.713
▁Field	-12.7131
▁reserve	-12.7136
▁plunge	-12.7136
▁cease	-12.7136
Laugh	-12.7142
▁easie	-12.7158
eductive	-12.7158
chedule	-12.7158
truggle	-12.7158
flection	-12.716
hemistry	-12.7161
▁differ	-12.7162
▁celeb	-12.7163
colleg	-12.7164
▁cigar	-12.7164
deliberate	-12.7164
articulate	-12.7164
schlegel	-12.7164
}	-12.7164
▁FRANC	-12.7164
(192,200)}	-12.7164
Wilhelm	-12.7164
▁Coulter	-12.7164
▁ELEPHANT	-12.7164
▁molasses	-12.7164
▁vibrant	-12.7164
Administrati	-12.7164
Bezoušková	-12.7164
Bitterfeld	-12.7164
CUSE	-12.7164
Dessous	-12.7164
GASPS	-12.7164
Mézery	-12.7164
Piankeshaw	-12.7164
UNCH	-12.7164
Wikimedia	-12.7164
Zamenhof	-12.7164
arpsichord	-12.7164
coliosis	-12.7164
errières	-12.7164
explosion	-12.7164
fidelity	-12.7164
ggregate	-12.7164
ndistinct	-12.7164
ndoubtedly	-12.7164
ntellectual	-12.7164
onnières	-12.7164
oronezh	-12.7164
paralysis	-12.7164
prefecture	-12.7164
sculpture	-12.7164
semblance	-12.7164
therapeutic	-12.7164
vocative	-12.7164
▁(1969)	-12.7164
▁(1986	-12.7164
▁(1999)	-12.7164
▁(2005)	-12.7164
▁(2013)	-12.7164
▁ADVENTURE	-12.7164
▁AUTHOR	-12.7164
▁Aircraft	-12.7164
▁Alissa	-12.7164
▁Alvarez	-12.7164
▁Anchorage	-12.7164
▁Aurigae	-12.7164
▁Basically	-12.7164
▁Bastards	-12.7164
▁Believe	-12.7164
▁Bisset	-12.7164
▁Bridish	-12.7164
▁Brunswick	-12.7164
▁Buchanan	-12.7164
▁Business	-12.7164
▁Busybox	-12.7164
▁Bærum	-12.7164
▁CHOOSE	-12.7164
▁COMING	-12.7164
▁CONFEREN	-12.7164
▁Canterbury	-12.7164
▁Caterpillar	-12.7164
▁Cathedral	-12.7164
▁Chelsea	-12.7164
▁Chimbote	-12.7164
▁Coffee	-12.7164
▁Concern	-12.7164
▁Conservatory	-12.7164
▁Cypress	-12.7164
▁Delaware	-12.7164
▁Dolgan	-12.7164
▁Durazno	-12.7164
▁Envelope	-12.7164
▁Eventually	-12.7164
▁Exchange	-12.7164
▁Fusako	-12.7164
▁GODDESS	-12.7164
▁Gheelee	-12.7164
▁Glasgow	-12.7164
▁Global	-12.7164
▁Google	-12.7164
▁Greece	-12.7164
▁Gressy	-12.7164
▁Griffin	-12.7164
▁HAPPENED	-12.7164
▁HONEY	-12.7164
▁Hadewych	-12.7164
▁Henniez	-12.7164
▁Hodgins	-12.7164
$	-12.9627
À	-12.9664
ł	-12.9664
ū	-12.9664
‚	-12.9664
“	-13.2961
å	-13.2997
æ	-13.2997
ė	-13.2997
′	-13.2997
ʊ	-13.2997
ě	-13.2997
œ	-13.7997
Ö	-13.7997
Í	-13.7997
ŭ	-13.7997
¤	-13.7997
Ò	-13.7997
×	-13.7997
î	-13.7997
ï	-13.7997
ù	-13.7997
∂	-13.7997
ɐ	-13.7997
ˈ	-13.7997
ć	-14.685
#	-14.7963
ž	-14.7984
^	-14.7985
Š	-14.7986
ø	-14.7987
Á	-14.7988
~	-14.7989
ğ	-14.799
ë	-14.7991
ê	-14.7992
\	-14.7993
{	-14.7994
ã	-14.7995
♪	-14.7996
ò	-14.7997
£	-14.7997
Û	-14.7997
÷	-14.7997
ý	-14.7997
ā	-14.7997
Č	-14.7997
đ	-14.7997
ı	-14.7997
ň	-14.7997
ō	-14.7997
ř	-14.7997
Ś	-14.7997
ş	-14.7997
ș	-14.7997
ɫ	-14.7997
ʋ	-14.7997
†	-14.7997
₤	-14.7997
€	-14.7997
Ú	-14.7997
ą	-14.7997
‘	-14.7997
„	-14.7997
