[PAD]	0
[CLS]	0
[SEP]	0
[UNK]	0
[MASK]	0
<0x00>	0
<0x01>	0
<0x02>	0
<0x03>	0
<0x04>	0
<0x05>	0
<0x06>	0
<0x07>	0
<0x08>	0
<0x09>	0
<0x0A>	0
<0x0B>	0
<0x0C>	0
<0x0D>	0
<0x0E>	0
<0x0F>	0
<0x10>	0
<0x11>	0
<0x12>	0
<0x13>	0
<0x14>	0
<0x15>	0
<0x16>	0
<0x17>	0
<0x18>	0
<0x19>	0
<0x1A>	0
<0x1B>	0
<0x1C>	0
<0x1D>	0
<0x1E>	0
<0x1F>	0
<0x20>	0
<0x21>	0
<0x22>	0
<0x23>	0
<0x24>	0
<0x25>	0
<0x26>	0
<0x27>	0
<0x28>	0
<0x29>	0
<0x2A>	0
<0x2B>	0
<0x2C>	0
<0x2D>	0
<0x2E>	0
<0x2F>	0
<0x30>	0
<0x31>	0
<0x32>	0
<0x33>	0
<0x34>	0
<0x35>	0
<0x36>	0
<0x37>	0
<0x38>	0
<0x39>	0
<0x3A>	0
<0x3B>	0
<0x3C>	0
<0x3D>	0
<0x3E>	0
<0x3F>	0
<0x40>	0
<0x41>	0
<0x42>	0
<0x43>	0
<0x44>	0
<0x45>	0
<0x46>	0
<0x47>	0
<0x48>	0
<0x49>	0
<0x4A>	0
<0x4B>	0
<0x4C>	0
<0x4D>	0
<0x4E>	0
<0x4F>	0
<0x50>	0
<0x51>	0
<0x52>	0
<0x53>	0
<0x54>	0
<0x55>	0
<0x56>	0
<0x57>	0
<0x58>	0
<0x59>	0
<0x5A>	0
<0x5B>	0
<0x5C>	0
<0x5D>	0
<0x5E>	0
<0x5F>	0
<0x60>	0
<0x61>	0
<0x62>	0
<0x63>	0
<0x64>	0
<0x65>	0
<0x66>	0
<0x67>	0
<0x68>	0
<0x69>	0
<0x6A>	0
<0x6B>	0
<0x6C>	0
<0x6D>	0
<0x6E>	0
<0x6F>	0
<0x70>	0
<0x71>	0
<0x72>	0
<0x73>	0
<0x74>	0
<0x75>	0
<0x76>	0
<0x77>	0
<0x78>	0
<0x79>	0
<0x7A>	0
<0x7B>	0
<0x7C>	0
<0x7D>	0
<0x7E>	0
<0x7F>	0
<0x80>	0
<0x81>	0
<0x82>	0
<0x83>	0
<0x84>	0
<0x85>	0
<0x86>	0
<0x87>	0
<0x88>	0
<0x89>	0
<0x8A>	0
<0x8B>	0
<0x8C>	0
<0x8D>	0
<0x8E>	0
<0x8F>	0
<0x90>	0
<0x91>	0
<0x92>	0
<0x93>	0
<0x94>	0
<0x95>	0
<0x96>	0
<0x97>	0
<0x98>	0
<0x99>	0
<0x9A>	0
<0x9B>	0
<0x9C>	0
<0x9D>	0
<0x9E>	0
<0x9F>	0
<0xA0>	0
<0xA1>	0
<0xA2>	0
<0xA3>	0
<0xA4>	0
<0xA5>	0
<0xA6>	0
<0xA7>	0
<0xA8>	0
<0xA9>	0
<0xAA>	0
<0xAB>	0
<0xAC>	0
<0xAD>	0
<0xAE>	0
<0xAF>	0
<0xB0>	0
<0xB1>	0
<0xB2>	0
<0xB3>	0
<0xB4>	0
<0xB5>	0
<0xB6>	0
<0xB7>	0
<0xB8>	0
<0xB9>	0
<0xBA>	0
<0xBB>	0
<0xBC>	0
<0xBD>	0
<0xBE>	0
<0xBF>	0
<0xC0>	0
<0xC1>	0
<0xC2>	0
<0xC3>	0
<0xC4>	0
<0xC5>	0
<0xC6>	0
<0xC7>	0
<0xC8>	0
<0xC9>	0
<0xCA>	0
<0xCB>	0
<0xCC>	0
<0xCD>	0
<0xCE>	0
<0xCF>	0
<0xD0>	0
<0xD1>	0
<0xD2>	0
<0xD3>	0
<0xD4>	0
<0xD5>	0
<0xD6>	0
<0xD7>	0
<0xD8>	0
<0xD9>	0
<0xDA>	0
<0xDB>	0
<0xDC>	0
<0xDD>	0
<0xDE>	0
<0xDF>	0
<0xE0>	0
<0xE1>	0
<0xE2>	0
<0xE3>	0
<0xE4>	0
<0xE5>	0
<0xE6>	0
<0xE7>	0
<0xE8>	0
<0xE9>	0
<0xEA>	0
<0xEB>	0
<0xEC>	0
<0xED>	0
<0xEE>	0
<0xEF>	0
<0xF0>	0
<0xF1>	0
<0xF2>	0
<0xF3>	0
<0xF4>	0
<0xF5>	0
<0xF6>	0
<0xF7>	0
<0xF8>	0
<0xF9>	0
<0xFA>	0
<0xFB>	0
<0xFC>	0
<0xFD>	0
<0xFE>	0
<0xFF>	0
.	-2.83842
:	-3.2878
▁*	-3.35374
,	-3.43379
▁the	-3.6526
'	-3.78434
CHI	-4.07472
s	-4.18269
▁a	-4.2331
▁I	-4.26213
?	-4.26889
▁to	-4.2947
▁and	-4.31314
▁you	-4.31397
▁of	-4.46827
MOT	-4.47139
▁it	-4.64144
▁in	-4.69876
▁that	-4.84644
▁=	-4.95285
▁[	-4.95854
]	-5.00192
t	-5.04165
▁is	-5.10359
▁was	-5.15443
▁	-5.23404
▁on	-5.30089
▁he	-5.41431
▁for	-5.47535
▁-	-5.53162
▁"	-5.53176
▁what	-5.53199
-	-5.53522
!	-5.57695
▁with	-5.63443
▁have	-5.75238
▁not	-5.8034
▁do	-5.86639
▁they	-5.86961
▁be	-5.89258
▁me	-5.90489
▁this	-5.94894
▁one	-5.9672
▁his	-5.97222
▁we	-5.99098
▁no	-6.00429
▁at	-6.02546
FAT	-6.02699
▁her	-6.02747
▁can	-6.04647
’	-6.05108
▁had	-6.08265
▁up	-6.08685
▁as	-6.09058
▁there	-6.09687
▁know	-6.10083
▁are	-6.10447
re	-6.10917
▁she	-6.11406
...	-6.11605
▁your	-6.11719
▁don	-6.12197
▁all	-6.13398
;	-6.13909
m	-6.13998
▁my	-6.15241
▁like	-6.15429
▁The	-6.16998
▁from	-6.23813
▁but	-6.25109
▁so	-6.25924
▁an	-6.30387
ing	-6.30645
▁out	-6.32658
▁him	-6.32845
▁It	-6.3406
▁said	-6.35489
ed	-6.35962
▁He	-6.36733
▁You	-6.39597
▁get	-6.4085
▁were	-6.42639
▁them	-6.4347
▁go	-6.44524
▁sec	-6.47041
d	-6.47281
▁just	-6.48044
ll	-6.48634
▁about	-6.48935
▁'	-6.50411
▁some	-6.52225
▁here	-6.52675
▁see	-6.54275
▁A	-6.55022
▁by	-6.5706
▁would	-6.5731
▁xxx	-6.58348
▁or	-6.59422
▁put	-6.6175
▁if	-6.63773
▁did	-6.65358
▁when	-6.6729
▁want	-6.69464
▁little	-6.7009
▁right	-6.71223
▁think	-6.72399
▁oh	-6.73816
▁who	-6.74106
▁now	-6.75687
▁where	-6.80281
▁very	-6.80659
▁got	-6.80696
▁how	-6.82752
▁back	-6.84666
▁“	-6.85136
▁good	-6.85307
▁over	-6.85484
▁What	-6.87267
▁down	-6.87446
INV	-6.87897
▁going	-6.88252
▁could	-6.88468
▁And	-6.88848
▁time	-6.89071
▁more	-6.89075
▁then	-6.90295
▁will	-6.90855
▁man	-6.91243
URS	-6.95964
I	-6.95993
ve	-6.96718
▁been	-6.97121
▁their	-6.97234
,"	-6.97312
▁come	-6.97385
].	-6.97622
▁two	-6.99156
▁other	-7.0014
▁yeah	-7.01099
."	-7.01147
▁which	-7.01444
▁off	-7.03123
▁say	-7.05788
▁No	-7.07567
▁(	-7.07659
▁B	-7.08289
"	-7.08541
▁has	-7.09665
▁well	-7.10223
▁gonna	-7.12635
▁make	-7.13264
▁She	-7.14497
▁too	-7.14941
▁take	-7.15479
▁okay	-7.15493
▁%	-7.16816
▁yes	-7.17111
e	-7.17839
BRO	-7.18257
▁into	-7.1863
▁silver	-7.19028
▁look	-7.19302
▁people	-7.20178
▁We	-7.21354
▁boy	-7.21453
▁Oh	-7.22602
▁They	-7.23568
▁way	-7.23761
▁But	-7.23927
y	-7.25367
▁base	-7.257
n	-7.29197
▁let	-7.3007
▁why	-7.32855
▁any	-7.33249
▁Yeah	-7.34657
▁tell	-7.35511
▁That	-7.35654
COL	-7.35729
▁Mommy	-7.39543
▁black	-7.40086
▁much	-7.41974
▁dat	-7.43331
ly	-7.44177
▁something	-7.45098
▁never	-7.4593
▁us	-7.4593
▁first	-7.47238
▁Well	-7.47467
a	-7.48867
▁because	-7.49999
▁S	-7.50813
laughs	-7.51288
▁only	-7.51599
▁after	-7.54724
▁made	-7.55713
▁de	-7.56417
?"	-7.56433
▁didn	-7.56803
▁these	-7.57331
▁away	-7.59833
▁i	-7.59994
▁another	-7.60285
▁Chi	-7.60785
▁give	-7.60971
▁boys	-7.61563
▁need	-7.62024
▁t	-7.6229
▁than	-7.62384
▁again	-7.62631
▁came	-7.63305
▁So	-7.63305
▁before	-7.63469
▁mean	-7.63676
▁day	-7.64226
▁In	-7.64513
▁things	-7.64739
▁write	-7.66027
▁long	-7.66328
▁old	-7.66483
▁d	-7.67031
▁really	-7.68405
▁There	-7.6902
S	-7.69651
--	-7.6985
▁Adam	-7.70759
▁home	-7.70781
▁big	-7.71177
▁doing	-7.71341
)	-7.71629
▁thing	-7.71786
▁men	-7.72213
▁wanna	-7.72268
▁should	-7.72355
▁This	-7.72558
▁great	-7.73724
▁those	-7.73882
▁dis	-7.74368
▁Yes	-7.75578
▁thought	-7.7581
▁went	-7.75871
▁wand	-7.76558
▁stick	-7.7949
▁uh	-7.80259
▁Eve	-7.8026
int	-7.81056
▁three	-7.81142
▁does	-7.81392
▁work	-7.81649
add	-7.81779
▁play	-7.82246
▁house	-7.84151
▁name	-7.84583
SIS	-7.85528
▁help	-7.86021
▁many	-7.86643
▁our	-7.8677
▁father	-7.87752
▁top	-7.87855
▁always	-7.89176
”	-7.89465
▁through	-7.89709
▁kind	-7.8999
er	-7.91135
▁must	-7.91137
!"	-7.92213
▁water	-7.92605
▁girl	-7.93105
▁love	-7.93711
▁anything	-7.94004
▁yellow	-7.94105
▁head	-7.94202
▁o	-7.94354
▁mother	-7.94415
▁around	-7.94696
▁paper	-7.95622
▁even	-7.957
▁new	-7.95768
▁eat	-7.97199
▁place	-7.97377
▁keep	-7.97589
/	-7.97623
▁last	-7.9771
▁How	-7.98649
▁please	-7.98883
▁dog	-7.99378
▁also	-7.99734
▁won	-8.00372
▁most	-8.01272
▁alright	-8.0217
▁ball	-8.02228
▁am	-8.02258
▁find	-8.02394
▁Mr	-8.03175
▁such	-8.03289
▁might	-8.03561
▁♪	-8.03871
▁still	-8.05527
▁THE	-8.06568
▁night	-8.06933
▁Paul	-8.07584
▁hand	-8.07641
o	-8.08543
▁better	-8.08576
▁s	-8.08612
▁else	-8.09483
▁silence	-8.09609
▁talk	-8.09775
▁part	-8.09966
▁use	-8.10051
▁turn	-8.10131
▁If	-8.1037
▁under	-8.10409
▁doesn	-8.11086
▁nice	-8.11246
▁while	-8.11836
▁wait	-8.12157
▁table	-8.13506
▁D	-8.13972
▁try	-8.1433
▁found	-8.15086
▁sure	-8.15233
▁done	-8.16163
▁school	-8.16838
▁children	-8.17154
—	-8.17195
▁saw	-8.17334
▁told	-8.17851
▁own	-8.19067
▁enough	-8.20217
▁ever	-8.20234
▁called	-8.20321
▁thank	-8.20761
▁together	-8.21227
▁read	-8.21231
▁same	-8.21252
▁next	-8.21484
1:	-8.21487
▁Fraser	-8.21519
▁being	-8.21665
▁years	-8.21817
▁baby	-8.21832
▁hard	-8.21861
▁Mom	-8.22336
▁watch	-8.22636
▁family	-8.23571
▁Why	-8.2386
▁Now	-8.23862
The	-8.24108
▁feel	-8.24194
▁every	-8.24446
▁used	-8.24844
▁’	-8.25004
▁dear	-8.26921
▁life	-8.27423
silver	-8.2747
▁may	-8.27666
▁side	-8.27703
▁Do	-8.27727
▁asked	-8.2805
the	-8.28162
▁book	-8.28697
▁Come	-8.28948
▁Okay	-8.29083
▁magnet	-8.29227
al	-8.29574
▁best	-8.30099
▁face	-8.30311
▁took	-8.30606
▁ask	-8.31001
▁sit	-8.31289
▁car	-8.31522
▁money	-8.31559
▁hear	-8.32533
▁heard	-8.33216
▁four	-8.33328
▁end	-8.34073
▁r	-8.34187
▁My	-8.34542
▁Mrs	-8.34767
▁course	-8.34779
▁letter	-8.34983
▁C	-8.34984
▁morning	-8.34984
▁left	-8.36558
▁lot	-8.37103
▁known	-8.37139
▁though	-8.37323
▁“‘	-8.37746
▁world	-8.38386
▁guess	-8.38945
▁Guy	-8.39126
▁Unit	-8.39261
▁bed	-8.39426
▁Cromer	-8.39936
es	-8.40036
▁American	-8.40192
r	-8.40257
▁talking	-8.40265
▁show	-8.40611
▁room	-8.40945
▁!	-8.41134
▁few	-8.41508
▁Jane	-8.41525
▁quite	-8.41557
▁nothing	-8.41582
Possum	-8.41763
▁game	-8.41823
▁knew	-8.42121
▁until	-8.4213
▁Then	-8.42446
▁sorry	-8.4279
▁bit	-8.43025
▁Daddy	-8.43099
▁child	-8.43207
▁open	-8.43851
▁coming	-8.44242
▁leave	-8.44408
▁Don	-8.44849
▁hm	-8.44905
▁its	-8.45051
in	-8.45174
▁each	-8.45449
▁huh	-8.45921
–	-8.45988
▁door	-8.46223
▁call	-8.46562
Tilda	-8.46649
▁pretty	-8.46707
▁everything	-8.46721
▁getting	-8.47128
▁l	-8.47519
▁seen	-8.47742
You	-8.48348
▁small	-8.48468
▁died	-8.48504
▁When	-8.48666
▁young	-8.4873
▁wanted	-8.48817
▁soon	-8.48829
▁isn	-8.49029
▁between	-8.49057
▁‘	-8.49753
▁city	-8.49776
▁States	-8.50114
on	-8.5012
▁without	-8.50295
▁round	-8.50301
▁himself	-8.50451
and	-8.50662
▁All	-8.51434
▁1	-8.51749
▁God	-8.52365
▁stay	-8.52397
▁eyes	-8.52599
▁pencil	-8.52755
▁upon	-8.52841
▁stop	-8.53168
▁Uh	-8.5328
▁says	-8.53913
▁story	-8.5402
▁looking	-8.54148
▁once	-8.54151
.”	-8.54748
▁far	-8.54981
▁hafta	-8.55042
▁high	-8.55493
▁drink	-8.55854
▁erm	-8.55935
▁e	-8.56001
▁red	-8.5646
▁Right	-8.57179
▁half	-8.57263
▁today	-8.5736
▁municipality	-8.58002
▁having	-8.58029
▁October	-8.58058
▁fish	-8.58303
▁different	-8.58333
▁mind	-8.58566
▁Kitty	-8.58757
▁born	-8.5878
▁mhm	-8.59116
▁maybe	-8.59188
▁On	-8.59969
▁tape	-8.60207
▁yet	-8.60285
▁age	-8.60785
▁[1	-8.60889
▁coffee	-8.60921
▁minute	-8.61267
▁goes	-8.61441
▁light	-8.61709
▁Thank	-8.61868
▁year	-8.61928
▁believe	-8.61939
▁care	-8.62237
▁gave	-8.62242
▁happened	-8.62257
▁T	-8.62541
▁piece	-8.62567
▁start	-8.62612
▁fine	-8.62877
▁gone	-8.63161
▁second	-8.6336
▁M	-8.63364
▁almost	-8.63479
▁um	-8.63611
▁ready	-8.6398
▁question	-8.64055
he	-8.6416
RIC	-8.64244
▁hot	-8.64513
▁un	-8.64864
▁move	-8.65268
▁E	-8.65284
▁real	-8.65379
▁looked	-8.65542
▁saying	-8.65681
▁Are	-8.65701
▁Just	-8.65886
▁Tom	-8.65932
▁word	-8.66232
▁n	-8.6624
▁brother	-8.66562
▁actually	-8.66663
put	-8.66739
▁f	-8.66813
▁near	-8.66918
▁woman	-8.67046
▁run	-8.67055
▁making	-8.67135
▁yep	-8.67393
em	-8.67422
▁both	-8.6792
▁Hey	-8.68454
▁blue	-8.69053
▁bad	-8.69302
▁five	-8.69389
▁remember	-8.69665
it	-8.69704
th	-8.69719
▁heart	-8.6983
▁fire	-8.69917
▁New	-8.6996
▁whole	-8.69988
▁voice	-8.70146
▁milk	-8.7019
▁along	-8.702
▁P	-8.70364
▁set	-8.71354
▁dere	-8.72011
▁against	-8.72109
▁began	-8.72881
▁Ursula	-8.72917
▁France	-8.73532
▁means	-8.74
▁tree	-8.74024
▁hope	-8.74148
▁Let	-8.74246
an	-8.74322
▁hi	-8.7451
▁days	-8.74551
▁chair	-8.74883
▁Your	-8.74893
▁white	-8.74986
▁Can	-8.75525
▁box	-8.75608
▁line	-8.75901
you	-8.76165
▁His	-8.7636
▁b	-8.76387
▁Bro	-8.76622
▁feet	-8.76926
▁truck	-8.77113
▁Where	-8.77162
▁goin	-8.77317
Oh	-8.77318
▁c	-8.77424
▁John	-8.77572
▁town	-8.7778
▁For	-8.78101
▁Mot	-8.78456
▁2019	-8.78488
▁hands	-8.78686
▁bring	-8.78866
▁later	-8.78888
▁already	-8.79609
▁lady	-8.79661
And	-8.79663
▁hey	-8.80032
▁objects	-8.80034
▁floor	-8.80818
▁shall	-8.80942
▁wouldn	-8.80981
▁Switzerland	-8.8101
▁playing	-8.81389
▁cut	-8.81957
▁juice	-8.8199
▁Look	-8.82204
▁felt	-8.82452
cause	-8.82506
▁sometimes	-8.82604
▁party	-8.82696
▁district	-8.82826
▁Aileen	-8.82951
▁live	-8.83205
▁trying	-8.83336
▁Sarah	-8.83411
".	-8.83691
▁air	-8.83823
▁wrong	-8.83903
_	-8.84272
▁understand	-8.84361
▁food	-8.84517
▁YOU	-8.85355
▁often	-8.85451
▁ten	-8.86391
▁idea	-8.86492
▁Not	-8.86867
▁turned	-8.87186
▁fall	-8.87187
▁happy	-8.87873
▁sort	-8.88209
▁mom	-8.88298
▁September	-8.88443
▁son	-8.88443
▁wan	-8.88859
▁pick	-8.88918
▁hold	-8.8894
2:	-8.89122
▁close	-8.89265
▁friend	-8.8945
▁mine	-8.89787
▁till	-8.90027
▁lived	-8.90614
▁circle	-8.90771
▁probably	-8.90988
▁Vaud	-8.91034
▁dey	-8.91332
▁spell	-8.91344
▁sound	-8.91414
▁fun	-8.91498
▁stand	-8.91644
▁cup	-8.91898
picks	-8.91947
▁herself	-8.91973
▁seemed	-8.92043
▁since	-8.92225
▁fell	-8.92281
▁girls	-8.92341
▁death	-8.9241
▁lunch	-8.92463
▁O	-8.92476
▁kitchen	-8.92755
▁p	-8.92972
▁m	-8.93305
Well	-8.93358
▁hurt	-8.93745
▁moment	-8.94421
no	-8.9479
▁ice	-8.94798
▁cold	-8.94811
se	-8.9489
▁someone	-8.94914
▁outside	-8.94951
▁Did	-8.95066
▁Go	-8.95111
▁behind	-8.95146
▁break	-8.95149
▁brought	-8.95692
▁department	-8.9575
▁color	-8.95771
▁er	-8.96203
But	-8.96545
▁makes	-8.96577
▁Good	-8.96626
▁mouth	-8.96851
▁looks	-8.96952
▁number	-8.97051
▁person	-8.97271
A	-8.97363
▁re	-8.97693
▁Who	-8.97719
▁fact	-8.97776
▁daddy	-8.979
▁commune	-8.98028
▁job	-8.98303
▁front	-8.98343
▁George	-8.98462
▁full	-8.98499
▁F	-8.9873
It	-8.98738
▁beautiful	-8.99012
▁yourself	-8.99062
▁large	-8.99085
▁July	-8.99168
▁six	-8.99644
▁lost	-8.99652
▁Mother	-8.99746
▁point	-8.99821
▁gotta	-9.00791
▁h	-9.00812
▁J	-9.01111
▁movie	-9.01213
▁One	-9.01367
▁rest	-9.01876
▁poor	-9.02393
▁noise	-9.02455
▁boat	-9.0249
▁across	-9.02506
born	-9.02768
▁guy	-9.02938
▁toward	-9.03024
▁country	-9.03036
T	-9.03486
",	-9.0392
▁times	-9.04035
i	-9.04071
▁construction	-9.04453
▁sleep	-9.05128
h	-9.05205
▁comes	-9.05535
▁words	-9.0556
▁wasn	-9.05584
▁sir	-9.06303
▁matter	-9.0638
▁To	-9.06631
,’	-9.06653
▁ain	-9.06653
▁hit	-9.06683
▁toy	-9.06703
▁At	-9.06833
▁Mm	-9.06874
▁friends	-9.06958
▁As	-9.07029
▁throw	-9.07216
▁?	-9.07267
▁true	-9.07318
▁funny	-9.07836
▁haven	-9.07955
▁hair	-9.07973
▁County	-9.08453
▁started	-9.08664
▁week	-9.09092
▁tried	-9.09724
▁guys	-9.09904
ting	-9.1065
▁member	-9.10685
▁Garth	-9.11001
▁state	-9.11241
▁bear	-9.11849
▁couldn	-9.12351
▁walk	-9.1267
D	-9.12692
▁pull	-9.12771
▁nut	-9.12865
▁May	-9.12952
▁perhaps	-9.13026
▁foot	-9.13157
is	-9.13275
▁y	-9.13398
What	-9.13528
▁became	-9.13565
▁speak	-9.13928
▁Get	-9.14084
▁ran	-9.14147
▁afraid	-9.14193
▁kept	-9.14217
▁become	-9.14376
▁played	-9.14702
▁change	-9.14706
▁stuck	-9.14843
▁2019)	-9.14934
▁ago	-9.15022
▁cool	-9.15454
▁sounds	-9.15506
▁given	-9.15513
▁AND	-9.15551
takes	-9.15657
▁able	-9.15741
▁G	-9.16014
▁meet	-9.16321
huh	-9.16402
▁dead	-9.16422
▁sugar	-9.16448
▁short	-9.1656
le	-9.16634
Chi	-9.16707
▁train	-9.16742
▁eight	-9.16825
▁Of	-9.1784
▁buy	-9.17949
▁among	-9.18267
▁running	-9.18314
▁nine	-9.18348
▁January	-9.18351
▁airplane	-9.1837
▁...	-9.18397
▁case	-9.18457
Yes	-9.18609
▁myself	-9.18921
▁2	-9.19571
▁alone	-9.19627
▁minutes	-9.19894
▁wants	-9.20073
st	-9.20112
▁somebody	-9.20316
▁page	-9.20537
▁green	-9.20869
▁sticks	-9.20887
▁deal	-9.20949
▁Papa	-9.21009
en	-9.21028
▁After	-9.21199
l	-9.21206
▁taking	-9.21223
▁inside	-9.21258
to	-9.21647
▁sitting	-9.21747
▁music	-9.2213
est	-9.2233
▁U	-9.22417
▁3	-9.22538
▁war	-9.22557
▁pay	-9.22607
▁ahead	-9.22666
▁trunk	-9.22728
▁area	-9.22926
▁business	-9.23116
▁April	-9.23286
▁broken	-9.23296
▁careful	-9.23808
▁either	-9.23872
▁Doubs	-9.23874
▁wish	-9.24037
▁writing	-9.24219
▁politician	-9.24572
▁wife	-9.24647
▁taken	-9.25009
▁snow	-9.25016
us	-9.25425
▁east	-9.2555
▁body	-9.2559
▁H	-9.25921
▁trouble	-9.2605
▁daughter	-9.26231
▁kill	-9.26356
▁King	-9.2657
▁straight	-9.2661
▁rather	-9.26777
▁balls	-9.26885
▁early	-9.26919
▁th	-9.27456
▁twenty	-9.27489
▁ride	-9.27647
▁wagon	-9.27704
uring	-9.27784
but	-9.27914
▁worked	-9.28052
▁Ah	-9.28098
▁glad	-9.28201
▁send	-9.28248
▁Because	-9.28421
SS	-9.28761
NA	-9.28782
▁draw	-9.28817
▁4	-9.28983
▁finished	-9.29146
▁Maybe	-9.29159
▁soft	-9.29252
▁[2	-9.29687
▁lay	-9.29715
▁Florence	-9.29763
▁stood	-9.29778
▁clear	-9.29823
▁working	-9.29871
▁picture	-9.29936
▁bag	-9.29951
▁stuff	-9.30174
▁2020	-9.30237
▁Have	-9.30564
tries	-9.30634
▁Christmas	-9.30653
▁tomorrow	-9.30871
or	-9.30968
▁R	-9.31198
▁Harwood	-9.31306
▁easy	-9.31355
▁Kansas	-9.31402
▁street	-9.31566
▁sent	-9.31652
▁ring	-9.31775
▁happen	-9.31901
la	-9.32067
▁tired	-9.32155
▁Or	-9.32393
▁hour	-9.32457
▁thinking	-9.32492
▁river	-9.325
▁w	-9.32804
▁eating	-9.32814
▁Here	-9.33254
▁W	-9.33277
▁push	-9.3351
cha	-9.33623
.7	-9.33918
▁population	-9.34059
▁nose	-9.34252
▁themselves	-9.34479
▁several	-9.34517
▁butter	-9.34628
We	-9.34669
▁strong	-9.3518
ogne	-9.35248
▁Bourg	-9.35269
▁whether	-9.35294
▁living	-9.35299
▁stool	-9.35305
▁With	-9.35491
▁TO	-9.35559
▁Boy	-9.3563
▁spoon	-9.35689
▁touch	-9.35917
▁knock	-9.36061
▁OF	-9.36085
Franc	-9.36114
▁President	-9.36125
▁passed	-9.36177
▁pieces	-9.36417
▁Hi	-9.36456
▁seems	-9.36737
Comté	-9.36869
▁road	-9.3689
▁cheese	-9.36925
▁Her	-9.3713
▁trees	-9.37147
▁tonight	-9.37561
▁University	-9.37755
▁Peter	-9.37819
▁Please	-9.37921
▁reason	-9.37988
▁jump	-9.38101
▁others	-9.38439
▁#	-9.3854
▁feeling	-9.38557
▁company	-9.38588
▁nuts	-9.38706
▁window	-9.38957
▁wear	-9.38984
▁L	-9.39197
▁evening	-9.39209
▁least	-9.39455
▁held	-9.39738
that	-9.39745
▁wind	-9.39782
No	-9.39842
▁arm	-9.4011
▁die	-9.40137
▁duck	-9.40208
▁uhhuh	-9.4032
▁named	-9.40336
▁By	-9.40516
▁miss	-9.40913
▁See	-9.40979
▁blow	-9.41067
▁past	-9.41125
▁clothes	-9.41188
▁aren	-9.41521
at	-9.41623
▁horse	-9.41645
▁dinner	-9.41686
▁bird	-9.41698
▁yours	-9.41827
▁gets	-9.4188
▁late	-9.41974
▁Laura	-9.41991
▁listen	-9.41997
▁usually	-9.42108
▁drop	-9.42286
▁standing	-9.42407
▁fellow	-9.42435
▁group	-9.42566
▁wood	-9.42721
holds	-9.42776
▁Ma	-9.42948
▁gun	-9.43351
▁OK	-9.43728
▁caught	-9.43738
▁Is	-9.43746
▁English	-9.43789
▁breakfast	-9.43821
▁seem	-9.44003
▁March	-9.44016
▁birds	-9.44383
2	-9.44452
M	-9.44502
▁seven	-9.4471
▁doctor	-9.45141
He	-9.45152
▁summer	-9.45229
man	-9.45426
▁million	-9.45514
▁busy	-9.45529
▁bottom	-9.45594
▁French	-9.45615
▁dogs	-9.45681
▁sun	-9.45692
able	-9.45693
▁fast	-9.45719
▁sick	-9.45817
de	-9.45847
▁An	-9.45903
▁sing	-9.45992
▁broke	-9.46055
▁7	-9.46212
▁finish	-9.46238
▁tail	-9.46314
▁Jean	-9.46396
▁former	-9.4657
▁killed	-9.46613
▁song	-9.4668
▁phone	-9.47032
▁hole	-9.47286
▁tower	-9.47358
▁20	-9.47365
▁whatever	-9.47453
▁giving	-9.47457
▁answer	-9.47722
LDES	-9.48203
▁television	-9.48246
▁November	-9.48409
▁lovely	-9.48416
▁bite	-9.48757
▁Aggie	-9.49169
▁important	-9.49257
▁.	-9.49272
▁sign	-9.49484
▁catch	-9.49664
▁Some	-9.49817
▁ones	-9.49857
▁ground	-9.4986
▁unclear	-9.50391
▁ah	-9.50417
▁g	-9.50449
▁capital	-9.50899
▁cream	-9.51171
▁Town	-9.51319
▁dress	-9.51429
moves	-9.51661
▁fix	-9.51674
▁seat	-9.51727
▁Jack	-9.51754
▁clip	-9.51804
▁above	-9.52007
▁longer	-9.52325
as	-9.52393
referent	-9.52569
C	-9.52719
▁turtle	-9.52882
▁5	-9.52883
▁Thanks	-9.53397
▁tea	-9.53425
▁plastic	-9.53502
what	-9.53558
▁falls	-9.53579
▁spring	-9.53674
ion	-9.5375
▁health	-9.53809
▁circus	-9.53902
▁quiet	-9.53908
▁middle	-9.53933
That	-9.54309
▁Hello	-9.54389
▁dad	-9.54435
▁hundred	-9.54571
▁teacher	-9.54626
▁forward	-9.54671
▁clock	-9.54774
▁fair	-9.54826
▁supper	-9.54896
▁fly	-9.54916
▁anybody	-9.5492
▁le	-9.55082
▁moved	-9.55325
▁canto	-9.55478
▁wrote	-9.55879
▁team	-9.5588
▁Illinois	-9.55926
▁forgot	-9.56058
▁problem	-9.56228
▁washer	-9.56505
▁chance	-9.56638
▁ha	-9.56861
▁less	-9.57025
▁laughing	-9.5706
ies	-9.57169
▁forget	-9.57417
▁dark	-9.57559
▁sister	-9.57619
▁carry	-9.5766
▁whom	-9.57726
▁warm	-9.57885
▁afternoon	-9.57938
▁following	-9.58022
▁sat	-9.58135
▁12	-9.58239
one	-9.5832
▁mm	-9.58479
▁land	-9.58576
we	-9.58836
▁IT	-9.58944
▁loved	-9.58964
▁N	-9.59022
▁sweet	-9.59071
▁places	-9.5917
▁Dad	-9.5919
▁record	-9.59329
▁fight	-9.59534
▁shoot	-9.59549
▁series	-9.59976
▁exactly	-9.59993
▁Tripp	-9.6007
▁fit	-9.60072
▁wonder	-9.60083
▁Ha	-9.60106
▁wonderful	-9.6011
ir	-9.60209
▁fellows	-9.60515
▁da	-9.60602
▁everybody	-9.60991
▁birthday	-9.61011
▁Urs	-9.61078
▁bread	-9.61151
▁Sir	-9.61233
▁August	-9.61308
▁opened	-9.6147
▁eggs	-9.61487
H	-9.61529
▁finger	-9.61816
▁police	-9.62023
▁kids	-9.62039
▁cried	-9.62066
▁James	-9.62086
▁grew	-9.62125
▁certainly	-9.6215
▁weeks	-9.62195
▁December	-9.6225
▁certain	-9.62655
▁hat	-9.62699
),	-9.62713
places	-9.62822
▁apple	-9.62913
▁power	-9.6297
▁8	-9.631
not	-9.6318
▁Miss	-9.63211
▁lots	-9.63279
▁questions	-9.6343
▁service	-9.6394
▁king	-9.6411
▁Nick	-9.64147
clock	-9.64309
.’	-9.64332
ng	-9.64375
▁clean	-9.64424
▁woods	-9.64663
▁co	-9.64772
▁order	-9.6495
▁10	-9.64975
▁flowers	-9.64982
▁happens	-9.65009
▁onto	-9.65262
▁corner	-9.65271
.6	-9.65279
▁figure	-9.65309
▁save	-9.65336
▁leaves	-9.65347
▁store	-9.65387
▁People	-9.65408
▁Nothing	-9.65456
▁crying	-9.65624
▁strange	-9.65711
ness	-9.65783
▁hell	-9.65928
▁self	-9.6601
▁waiting	-9.66015
▁village	-9.66189
▁block	-9.66207
all	-9.66279
▁build	-9.66317
▁Indians	-9.66351
▁date	-9.66445
▁instead	-9.66459
▁bath	-9.66502
▁Sorry	-9.66587
lo	-9.66691
▁June	-9.66724
▁cannot	-9.66871
▁liked	-9.6696
ton	-9.67025
looking	-9.67412
▁magic	-9.67522
▁Really	-9.67551
▁meeting	-9.67695
▁win	-9.67749
▁reading	-9.6787
▁act	-9.67909
).	-9.68008
▁shot	-9.68052
▁free	-9.6817
hi	-9.68396
▁form	-9.68463
▁cat	-9.6849
▁bought	-9.68636
▁anyway	-9.68657
▁legs	-9.68679
points	-9.68883
▁St	-9.68887
▁letters	-9.69026
▁works	-9.69083
ING	-9.69272
▁star	-9.69403
▁census	-9.69731
▁City	-9.69744
▁suddenly	-9.69749
▁stopped	-9.69794
▁IN	-9.69824
▁written	-9.69833
▁recorder	-9.69868
▁telling	-9.70336
▁pen	-9.70505
▁low	-9.70627
▁cry	-9.70759
▁basket	-9.70784
▁winter	-9.7079
▁current	-9.70842
▁California	-9.70883
▁worry	-9.70895
▁Jura	-9.70975
▁ear	-9.71066
▁whispered	-9.71111
▁gold	-9.71193
▁enjoy	-9.7141
▁fear	-9.7151
▁follow	-9.71548
▁eye	-9.71742
▁hate	-9.71771
▁suppose	-9.71824
g	-9.72012
▁yesterday	-9.72071
▁_	-9.72106
▁Sure	-9.72166
▁dese	-9.72244
▁check	-9.72291
▁lives	-9.72305
ere	-9.72846
▁football	-9.73171
▁cover	-9.73196
▁language	-9.7322
▁cake	-9.7323
▁Grace	-9.7325
▁heavy	-9.73273
▁honey	-9.73327
▁third	-9.73387
▁Great	-9.73439
?”	-9.73485
▁using	-9.7368
▁Even	-9.73817
*	-9.73846
▁wild	-9.73967
▁starts	-9.73987
▁k	-9.74321
▁pleasure	-9.74391
▁games	-9.74472
▁slowly	-9.74562
▁shoe	-9.74584
▁building	-9.74917
ers	-9.75236
▁washers	-9.75342
▁climb	-9.75557
▁plate	-9.75605
▁simply	-9.75625
▁thirty	-9.75642
▁decided	-9.75643
▁released	-9.75708
▁appeared	-9.75744
▁office	-9.75851
▁problems	-9.76017
▁sight	-9.76044
▁report	-9.76253
▁hours	-9.76366
▁dem	-9.76384
▁blocks	-9.76415
▁books	-9.76488
There	-9.76501
1.5	-9.76747
▁grape	-9.76781
▁month	-9.76784
▁blood	-9.76807
▁background	-9.7681
▁York	-9.76831
▁Sis	-9.76903
▁except	-9.76924
Nord	-9.77032
▁interesting	-9.77034
▁moving	-9.77141
▁State	-9.77278
day	-9.77672
▁wash	-9.77775
▁puzzle	-9.7792
▁main	-9.7799
yellow	-9.78062
▁bar	-9.78068
▁balloon	-9.78081
▁quickly	-9.78216
▁V	-9.78279
▁[.8	-9.78373
▁Little	-9.78654
▁within	-9.78873
▁North	-9.78893
▁takes	-9.78917
ry	-9.78988
▁asking	-9.79048
▁camp	-9.79087
▁holding	-9.79144
▁shut	-9.79173
▁magnets	-9.79209
▁vaudois	-9.79318
▁stories	-9.7933
▁Keith	-9.79376
▁dose	-9.7939
▁From	-9.79446
p	-9.7957
▁video	-9.79846
of	-9.80015
▁pie	-9.80267
▁sense	-9.80521
▁oatmeal	-9.80584
▁Canada	-9.80585
▁David	-9.80589
▁church	-9.80591
▁history	-9.806
▁Minister	-9.80614
▁indeed	-9.80647
▁House	-9.80702
▁nearly	-9.80744
▁news	-9.80834
▁dur	-9.80873
▁()	-9.80877
▁itself	-9.80906
▁coat	-9.80943
▁truth	-9.81175
▁cook	-9.81268
▁turning	-9.81432
▁softly	-9.81689
Home	-9.81892
▁Diandra	-9.8198
▁force	-9.82016
▁Robin	-9.82039
▁Man	-9.82346
▁Tell	-9.82378
1	-9.82407
▁members	-9.82864
ic	-9.82914
▁present	-9.82943
▁ye	-9.83037
▁silly	-9.83175
▁accident	-9.83196
▁couple	-9.83199
▁character	-9.83239
▁earth	-9.8326
▁position	-9.83271
▁government	-9.83289
▁stove	-9.83319
▁followed	-9.83372
▁Lord	-9.83389
▁supposed	-9.83422
▁anyone	-9.83471
▁War	-9.83851
k	-9.83935
▁arms	-9.84256
HV	-9.84453
▁general	-9.84457
▁worth	-9.84471
▁thousand	-9.84486
▁Wait	-9.84588
▁brown	-9.84601
▁special	-9.84614
▁drive	-9.84666
▁button	-9.84676
▁support	-9.84724
▁shoes	-9.84762
▁walking	-9.84817
up	-9.85052
▁crack	-9.85122
▁leg	-9.85306
▁kid	-9.85346
▁interest	-9.85462
1.2	-9.85546
▁visit	-9.85734
▁tapioca	-9.85813
▁Party	-9.85824
▁animal	-9.85859
▁region	-9.85876
▁sentence	-9.85878
▁Robert	-9.85879
▁nobody	-9.8591
▁common	-9.85911
▁Take	-9.86068
They	-9.86179
=	-9.86342
▁pop	-9.86801
▁FOR	-9.8698
▁promise	-9.87022
▁[3	-9.87081
▁Would	-9.87168
▁women	-9.87228
▁created	-9.87239
▁joined	-9.87259
▁hang	-9.87267
▁Very	-9.8733
lthough	-9.87333
▁Bill	-9.87339
▁bright	-9.8736
▁garden	-9.87377
▁election	-9.87463
▁flat	-9.87507
u	-9.8765
▁none	-9.88004
ar	-9.88163
clear	-9.88474
▁hungry	-9.8854
▁bottle	-9.88605
▁Like	-9.88664
▁miles	-9.88686
▁Joe	-9.88698
▁answered	-9.8876
▁February	-9.88813
▁dropped	-9.8887
▁reach	-9.89196
▁Stop	-9.89453
▁30	-9.89587
▁meat	-9.8961
▁cross	-9.89773
▁16	-9.89794
▁Visit	-9.89886
▁Indian	-9.89936
▁attention	-9.8994
▁months	-9.90013
▁husband	-9.90016
▁Hank	-9.90147
▁parents	-9.90194
▁happening	-9.90211
c	-9.90237
▁camera	-9.90285
▁actor	-9.90314
▁soup	-9.90338
Now	-9.90359
▁metal	-9.90405
▁moves	-9.90611
less	-9.90653
▁talked	-9.90742
▁Be	-9.91091
▁sell	-9.91122
▁return	-9.91182
▁safe	-9.91201
▁River	-9.9129
▁quick	-9.91298
▁stupid	-9.91314
▁Majesty	-9.91331
▁leaving	-9.91342
▁possible	-9.91356
▁crazy	-9.91364
▁dry	-9.91393
▁ya	-9.91404
ta	-9.91434
▁space	-9.91441
▁pocket	-9.9145
▁medicine	-9.91462
▁built	-9.91492
▁School	-9.91525
▁laugh	-9.91663
▁dream	-9.91765
She	-9.91897
▁north	-9.92219
mo	-9.9226
▁needs	-9.92375
▁spend	-9.92615
▁teeth	-9.92761
▁2011	-9.92762
▁South	-9.92778
▁seeing	-9.92784
▁Which	-9.92791
▁attack	-9.92795
▁Italian	-9.92841
▁season	-9.92894
▁Two	-9.92986
▁beside	-9.93049
ey	-9.93071
▁type	-9.93091
▁World	-9.93291
▁race	-9.93369
▁band	-9.93558
▁Mama	-9.93577
.9	-9.93633
▁toys	-9.93734
song	-9.93761
▁dance	-9.94012
Then	-9.94117
by	-9.94143
▁Clavering	-9.9421
▁replied	-9.94215
▁paid	-9.94296
▁napkin	-9.94363
house	-9.94382
▁walked	-9.94506
▁simple	-9.94524
▁stone	-9.94545
▁tv	-9.94633
▁sea	-9.94772
▁23	-9.95165
▁horses	-9.95367
▁6	-9.95473
N	-9.95481
▁animals	-9.95661
▁proud	-9.95667
▁doggie	-9.95694
▁carried	-9.95699
▁human	-9.95702
▁meant	-9.95732
▁finally	-9.95763
▁afterwards	-9.95773
w	-9.95802
▁K	-9.95831
for	-9.95906
▁test	-9.96003
sur	-9.96054
bout	-9.96054
▁ma	-9.96071
▁step	-9.96168
paper	-9.96785
▁hurry	-9.96921
▁rock	-9.96971
▁swimming	-9.97173
▁briefcase	-9.97173
▁community	-9.97174
▁Danny	-9.97205
▁considered	-9.97213
▁Johnson	-9.97218
▁cookie	-9.97407
▁stage	-9.97506
▁lying	-9.97664
▁joy	-9.97677
▁lion	-9.97965
▁list	-9.98424
▁Michael	-9.98687
▁baseball	-9.98794
▁glass	-9.98815
▁include	-9.98881
▁hospital	-9.98942
▁William	-9.99001
▁court	-9.99024
▁,	-9.99139
LD	-9.99436
▁deep	-9.99578
▁u	-10.0007
▁neither	-10.0026
▁received	-10.0028
▁grass	-10.0029
▁Father	-10.0037
▁level	-10.004
▁beginning	-10.0049
▁28	-10.0052
▁Graham	-10.0052
▁difference	-10.0052
BR	-10.006
▁San	-10.008
▁orange	-10.009
▁national	-10.0097
▁loud	-10.0097
▁pass	-10.0128
▁WE	-10.0138
pull	-10.0154
▁18	-10.0159
▁EXP	-10.0161
▁v	-10.0169
▁luck	-10.0176
▁bigger	-10.018
▁drew	-10.0181
▁county	-10.0186
▁British	-10.0189
▁Harry	-10.019
▁www	-10.0195
ous	-10.0201
▁example	-10.0205
▁local	-10.0208
▁Colin	-10.0212
▁pink	-10.0213
E	-10.0213
▁Fuck	-10.0219
▁singing	-10.0221
▁park	-10.0252
▁rough	-10.0261
time	-10.0266
▁watching	-10.0271
▁led	-10.0275
me	-10.0296
▁wide	-10.0306
▁period	-10.031
▁knows	-10.0322
▁lie	-10.0324
▁met	-10.033
▁Republic	-10.0334
▁England	-10.0337
▁terrible	-10.0338
▁married	-10.0342
▁especially	-10.0345
▁perfectly	-10.0351
▁Henry	-10.0352
▁surprise	-10.0359
▁everyone	-10.0362
▁missed	-10.0362
▁sad	-10.0364
▁term	-10.0369
▁throat	-10.0369
▁fruit	-10.0373
▁president	-10.0383
▁Gus	-10.0386
▁belong	-10.0393
▁Er	-10.0407
7	-10.0408
▁ought	-10.0415
▁spoke	-10.0432
▁station	-10.0452
▁doubt	-10.0454
▁learn	-10.0457
▁post	-10.0466
▁breath	-10.0497
▁twelve	-10.0499
▁neck	-10.0502
▁laughed	-10.0513
▁notice	-10.0515
▁fallen	-10.0517
▁spread	-10.0532
▁monkey	-10.0532
▁career	-10.0533
▁changed	-10.0548
▁trust	-10.055
▁showed	-10.0567
▁farm	-10.0607
▁expect	-10.0624
▁plan	-10.0646
▁law	-10.0648
ARY	-10.0649
▁imagine	-10.065
▁19	-10.0651
▁rich	-10.0652
Y	-10.0655
▁perfect	-10.0658
▁nor	-10.0664
▁Santa	-10.0668
▁Texas	-10.0671
▁public	-10.0672
▁returned	-10.0678
▁fat	-10.0689
▁elected	-10.0692
▁31	-10.07
▁picked	-10.0704
▁Russian	-10.0716
▁chain	-10.0719
▁lap	-10.0726
8	-10.074
▁24	-10.0742
black	-10.076
▁horseshoe	-10.079
My	-10.0791
Illustration	-10.0823
red	-10.0825
▁twice	-10.0829
▁political	-10.0832
▁empty	-10.0833
▁threw	-10.0833
▁offer	-10.0843
▁smile	-10.0844
▁pipe	-10.0845
▁gay	-10.0846
▁lift	-10.0856
▁grown	-10.0859
▁Will	-10.0859
▁9	-10.0862
▁lake	-10.0873
▁houses	-10.0873
▁15	-10.0874
▁rose	-10.0879
ity	-10.089
▁deer	-10.0906
▁cos	-10.0908
very	-10.0909
▁lose	-10.0921
▁brave	-10.0929
attempt	-10.0943
1.3	-10.0963
▁glance	-10.0967
▁wheels	-10.0974
▁bike	-10.1001
▁Thomas	-10.1004
▁center	-10.1012
▁continued	-10.1017
▁First	-10.1029
▁Perhaps	-10.1033
▁tongue	-10.1038
▁Saturday	-10.1042
ian	-10.1045
▁Me	-10.1065
▁Richard	-10.1073
▁string	-10.1085
▁card	-10.109
Vaud	-10.1109
▁boots	-10.1116
WOM	-10.1144
▁wipe	-10.1152
▁East	-10.1152
▁needed	-10.1155
▁Smith	-10.1171
▁Patch	-10.1171
▁beyond	-10.1175
▁share	-10.1177
▁however	-10.1178
▁thanks	-10.1183
▁Aye	-10.1184
▁allowed	-10.119
▁higher	-10.1199
▁market	-10.1203
▁weren	-10.1204
▁charge	-10.1211
▁wow	-10.1217
ur	-10.1221
ya	-10.1233
▁pad	-10.1242
▁beat	-10.1264
▁tall	-10.1267
Mother	-10.1288
if	-10.1329
▁America	-10.1331
▁lead	-10.1334
▁difficult	-10.1336
▁flag	-10.1341
▁fresh	-10.1345
▁BRO	-10.1349
▁THAT	-10.135
▁Governor	-10.135
▁Lucas	-10.1352
▁MY	-10.1355
▁worse	-10.1355
")	-10.1359
▁expected	-10.1364
▁ME	-10.1365
▁points	-10.1366
▁Gros	-10.1367
▁wheel	-10.1367
▁chocolate	-10.1391
▁movies	-10.1393
▁Dr	-10.1393
▁grandfather	-10.1404
▁rate	-10.1413
▁secret	-10.1415
▁shit	-10.1417
▁groups	-10.1435
So	-10.1451
▁dare	-10.1452
▁flower	-10.1456
▁gas	-10.1473
Don	-10.149
sings	-10.1507
▁holds	-10.1518
▁couch	-10.1525
▁exclaimed	-10.1526
▁highchair	-10.153
▁frightened	-10.153
▁Listen	-10.1531
▁upstairs	-10.1535
▁Nation	-10.1538
▁Jesus	-10.1539
▁mostly	-10.1564
▁diaper	-10.1573
▁situation	-10.1576
▁single	-10.1577
▁likely	-10.1578
▁smell	-10.1584
▁shows	-10.1588
▁edge	-10.1598
she	-10.1601
▁protect	-10.162
▁jus	-10.1655
▁[4	-10.1666
▁cookies	-10.1684
▁serious	-10.1702
!’	-10.1706
▁den	-10.172
▁cherry	-10.1722
▁agree	-10.1731
▁Give	-10.1733
this	-10.1736
▁control	-10.174
▁mud	-10.1751
▁Friday	-10.1759
▁pair	-10.1763
▁attempt	-10.1769
do	-10.1781
▁shop	-10.1785
▁believed	-10.1791
▁arrow	-10.1801
▁whoa	-10.1834
am	-10.1836
▁noises	-10.1838
▁26	-10.1858
▁wha	-10.1863
▁key	-10.1872
▁25	-10.1872
▁West	-10.1878
▁bother	-10.1879
▁Empire	-10.1892
▁pillow	-10.1892
▁Gippie	-10.1896
▁natural	-10.1897
ted	-10.19
▁teddy	-10.19
▁Brazil	-10.1901
f	-10.1901
▁size	-10.1902
▁Poacher	-10.1904
▁served	-10.1905
way	-10.1908
▁amount	-10.1914
▁Erm	-10.1914
▁About	-10.1921
▁Sometimes	-10.193
▁De	-10.1943
▁darling	-10.1946
▁27	-10.1949
▁fence	-10.1956
▁handle	-10.1963
▁ga	-10.1969
▁drinking	-10.1972
▁watched	-10.1986
▁mad	-10.2011
SL	-10.2013
has	-10.2015
▁Any	-10.202
▁player	-10.2021
Why	-10.2022
5.	-10.2024
▁pretend	-10.2052
▁cow	-10.2053
P	-10.2063
▁14	-10.207
▁grow	-10.2071
▁smart	-10.2076
▁lines	-10.2077
▁square	-10.2077
▁Washington	-10.2081
▁appear	-10.2086
▁entered	-10.209
▁Germany	-10.209
▁fucking	-10.2093
▁cooking	-10.2104
▁Queen	-10.2104
▁hanging	-10.2106
▁added	-10.2115
▁roll	-10.2117
▁Every	-10.2131
▁chief	-10.2139
▁moon	-10.2143
▁begin	-10.2144
▁crayon	-10.2144
▁falling	-10.2145
▁clips	-10.2148
▁Chief	-10.2148
▁slide	-10.2155
overlap	-10.216
▁swing	-10.2163
▁13	-10.2181
um	-10.2182
▁White	-10.2189
▁stack	-10.2204
▁fill	-10.2217
▁hide	-10.2222
▁helped	-10.2227
,--	-10.2231
laughing	-10.224
overlapp	-10.2254
▁excuse	-10.2254
%	-10.2266
▁Lassie	-10.2273
kay	-10.2273
▁THIS	-10.2277
▁monster	-10.2277
▁spent	-10.2278
▁awful	-10.2279
▁anywhere	-10.228
▁Ukraine	-10.2282
▁arrested	-10.2282
▁burn	-10.2283
▁greatest	-10.2284
▁Army	-10.2288
▁somehow	-10.229
▁Sue	-10.2294
▁reached	-10.2297
▁extra	-10.2302
▁quit	-10.2314
▁apart	-10.2321
▁join	-10.2322
▁experience	-10.2324
▁system	-10.2334
▁Mark	-10.2341
▁hadn	-10.2343
▁starting	-10.2357
▁guns	-10.2364
▁soul	-10.2373
▁Day	-10.2375
▁treat	-10.2377
▁committee	-10.2393
▁terms	-10.243
▁Dillson	-10.2469
▁Alright	-10.247
▁Johnny	-10.247
▁information	-10.247
5/	-10.2472
singing	-10.2479
▁tiny	-10.248
▁nope	-10.2486
▁Lady	-10.2487
▁CHAPTER	-10.2509
▁Roman	-10.2517
▁mistake	-10.2518
▁Run	-10.2518
▁US	-10.252
room	-10.2521
▁cost	-10.2525
▁chicken	-10.2535
▁director	-10.2539
▁professional	-10.254
▁role	-10.2547
▁Bye	-10.2553
▁shirt	-10.2559
.5	-10.2559
▁boot	-10.2573
▁ears	-10.2591
night	-10.2595
▁field	-10.2598
▁ended	-10.2602
5	-10.2603
out	-10.2619
▁personal	-10.2635
pointing	-10.2648
▁Albert	-10.2653
▁board	-10.2655
▁suit	-10.2661
▁sandwich	-10.2664
ie	-10.2668
▁Oxford	-10.2669
▁London	-10.2669
▁prairie	-10.2669
▁municipalities	-10.2669
▁weird	-10.2671
▁Ciscasset	-10.2678
▁dancing	-10.2678
▁switch	-10.268
▁Mary	-10.2681
▁Humm	-10.2684
O	-10.2689
▁hello	-10.2701
▁raised	-10.2702
▁pulled	-10.2709
Prime	-10.2713
DAN	-10.2719
▁dressed	-10.2724
▁sleeping	-10.2727
▁German	-10.2727
▁distance	-10.2736
▁stars	-10.274
6	-10.2745
▁paint	-10.2763
3	-10.2767
▁wall	-10.2767
▁bang	-10.2788
z	-10.279
▁count	-10.2797
▁cards	-10.2826
▁fifty	-10.2873
▁Democratic	-10.2873
▁future	-10.2874
▁cancer	-10.2874
▁Agent	-10.2874
▁taught	-10.2875
▁explain	-10.2876
▁Fine	-10.2889
▁upside	-10.2892
▁caused	-10.2893
▁somewhere	-10.2899
▁learned	-10.2899
▁Old	-10.2901
▁choice	-10.2905
ne	-10.2911
▁south	-10.2922
▁fingers	-10.2925
▁continue	-10.2931
▁club	-10.2935
▁conversation	-10.295
▁older	-10.2952
▁ate	-10.2952
▁frog	-10.2954
▁governor	-10.2954
▁pig	-10.2954
▁closed	-10.2959
▁spirit	-10.2969
▁master	-10.2994
▁per	-10.2999
▁action	-10.2999
▁yard	-10.301
▁bank	-10.3033
▁wagons	-10.3044
B	-10.3046
▁nature	-10.3063
▁study	-10.3065
▁brain	-10.3068
▁hall	-10.3072
▁Raymond	-10.3081
▁District	-10.3081
▁Leo	-10.3082
▁fancy	-10.3082
goes	-10.3086
▁retired	-10.3086
▁announced	-10.3091
▁Saint	-10.3101
▁bowling	-10.3114
▁Only	-10.3123
▁plants	-10.3155
▁IS	-10.3155
vocalization	-10.3156
▁response	-10.3159
▁prize	-10.3163
▁bye	-10.3172
Do	-10.3175
▁cause	-10.3177
▁snake	-10.3185
▁pounds	-10.3191
▁spot	-10.3198
▁egg	-10.3201
How	-10.3205
▁class	-10.3208
▁honor	-10.3239
▁wake	-10.3243
▁shoulder	-10.3256
▁names	-10.3271
▁burst	-10.3286
▁fifteen	-10.3291
▁machine	-10.3293
▁peace	-10.3294
▁published	-10.3296
▁However	-10.3297
▁queer	-10.3298
et	-10.3298
▁anymore	-10.3303
▁Pence	-10.3304
▁directed	-10.3312
▁ri	-10.3314
▁fourth	-10.3315
All	-10.3326
▁doll	-10.3362
▁sharp	-10.3377
▁dozen	-10.3378
▁17	-10.3378
▁rubber	-10.3385
▁officer	-10.3396
▁2016	-10.3419
▁cruel	-10.3421
▁cap	-10.3471
can	-10.3473
go	-10.348
▁mess	-10.3487
▁Could	-10.3492
▁bell	-10.3496
men	-10.3498
▁2013	-10.3499
▁dreams	-10.3502
▁teach	-10.3504
▁account	-10.3509
▁dunno	-10.3511
▁evidence	-10.3511
▁suitcase	-10.3511
▁Illustrated	-10.3512
▁species	-10.3512
▁Missouri	-10.3516
▁popular	-10.3517
▁European	-10.352
▁sex	-10.3521
▁History	-10.3521
▁sky	-10.3523
▁unless	-10.3523
▁corn	-10.3523
▁roof	-10.3526
▁pale	-10.3526
▁interested	-10.3534
▁screaming	-10.3536
▁lucky	-10.3538
▁filled	-10.354
▁wished	-10.3556
laid	-10.3577
▁2022	-10.3578
▁bowl	-10.3583
▁cowboy	-10.3599
▁[5	-10.3609
▁skin	-10.361
▁tha	-10.3635
▁windows	-10.3641
▁lo	-10.3642
▁eh	-10.3668
▁2017	-10.3669
▁event	-10.3671
▁shame	-10.3691
ha	-10.3692
▁Um	-10.3694
▁pictures	-10.3705
▁wa	-10.372
▁pleasant	-10.3728
▁Paris	-10.3728
▁Was	-10.3733
▁sposta	-10.3734
▁Natalie	-10.3734
▁Lucy	-10.3734
▁Trump	-10.3735
▁tiger	-10.3738
▁Larita	-10.3738
▁Charles	-10.3739
▁Tony	-10.3741
▁remained	-10.3741
nd	-10.3744
rs	-10.3744
▁completely	-10.3746
▁WHAT	-10.3747
▁hunting	-10.3748
▁major	-10.3751
▁asleep	-10.376
▁lips	-10.3761
4	-10.3761
▁brothers	-10.3767
▁Does	-10.377
▁cha	-10.3771
▁fighting	-10.378
▁Th	-10.3782
▁remind	-10.3817
▁fishing	-10.3822
▁notes	-10.3828
▁favorite	-10.3831
▁Ed	-10.3835
playing	-10.3836
LL	-10.3839
▁holes	-10.3843
▁speaking	-10.3845
▁trip	-10.3849
▁regard	-10.3854
xcuse	-10.3856
▁Sun	-10.3862
▁2010	-10.3868
▁Z	-10.3915
▁leader	-10.3955
▁usual	-10.3958
▁Aha	-10.396
they	-10.3961
▁Naomi	-10.3961
▁plenty	-10.3961
▁League	-10.3961
▁exciting	-10.3961
▁Cooper	-10.3961
▁further	-10.3961
▁ladies	-10.3964
▁mommy	-10.3965
▁radio	-10.3966
▁military	-10.3966
▁arrived	-10.3968
▁mark	-10.3968
▁needta	-10.397
▁including	-10.3978
ation	-10.3978
▁involved	-10.398
▁Martin	-10.3987
▁pain	-10.399
▁alive	-10.3993
▁|	-10.3994
▁smaller	-10.3996
▁signed	-10.3996
▁magnetic	-10.4002
▁grace	-10.4023
▁Cos	-10.4025
▁continues	-10.403
▁begins	-10.4035
▁tray	-10.4059
▁movement	-10.406
▁pile	-10.4069
▁professor	-10.4071
▁album	-10.4073
▁official	-10.4083
▁tears	-10.4093
▁Bo	-10.41
▁whoops	-10.4116
▁bone	-10.4118
▁calling	-10.4123
▁critique	-10.4131
Adam	-10.4143
▁fuck	-10.4147
▁drawing	-10.4171
▁taste	-10.4185
▁actress	-10.4188
▁damn	-10.4191
▁Mhm	-10.4194
▁Spain	-10.4194
▁truly	-10.4195
▁majesty	-10.4198
▁Ooh	-10.42
ary	-10.4203
▁badly	-10.4216
▁agreed	-10.4216
▁taperecorder	-10.422
▁tied	-10.4231
▁covered	-10.4234
▁carrying	-10.4234
▁subject	-10.4241
▁splendid	-10.4241
▁dollars	-10.4244
If	-10.4247
▁wearing	-10.4252
▁listening	-10.4259
▁flying	-10.4259
▁creatures	-10.4289
▁excitement	-10.429
▁heaven	-10.4301
▁picks	-10.4302
▁cracker	-10.4307
▁bus	-10.4313
im	-10.4323
▁fool	-10.4352
F	-10.436
▁double	-10.436
▁Mo	-10.4368
!”	-10.4368
ince	-10.4372
▁rain	-10.4377
▁placed	-10.4413
▁welcome	-10.4414
▁kick	-10.442
▁realize	-10.4422
▁India	-10.4423
LW	-10.4428
▁pony	-10.4431
▁kidding	-10.4432
▁swim	-10.4436
▁Street	-10.4437
▁Senate	-10.4437
▁immediately	-10.4438
▁scared	-10.444
▁pour	-10.4441
▁Major	-10.4442
▁China	-10.4442
▁tripp	-10.4444
▁offered	-10.4452
▁Think	-10.4456
▁smiled	-10.4456
▁checked	-10.4469
age	-10.447
▁rule	-10.4471
▁comma	-10.4479
▁Once	-10.4483
there	-10.4484
gaa	-10.449
▁Jess	-10.4494
▁remembered	-10.4507
well	-10.4508
▁sand	-10.4523
?’	-10.4531
▁crowd	-10.4532
▁fault	-10.4538
▁film	-10.4539
▁decision	-10.4539
▁queen	-10.4542
▁rug	-10.4549
▁turns	-10.455
▁direction	-10.4551
▁motor	-10.4561
▁object	-10.4562
like	-10.4573
▁pound	-10.4585
el	-10.4586
▁shoulders	-10.4593
▁pet	-10.4596
1.1	-10.4601
RE	-10.4621
was	-10.4627
hose	-10.4641
ish	-10.4647
▁sticking	-10.4648
▁Los	-10.4656
▁west	-10.4661
▁particular	-10.4671
▁bill	-10.4672
▁Patrick	-10.4675
▁somethin	-10.4676
9	-10.4681
▁art	-10.4682
▁Brian	-10.4682
▁dirty	-10.4683
▁text	-10.4686
▁whenever	-10.4686
▁Alan	-10.4689
▁Fairy	-10.4694
▁kiss	-10.4696
▁scissors	-10.4698
▁Polly	-10.4698
▁prepared	-10.4701
▁promised	-10.4707
▁saved	-10.4711
▁La	-10.4721
x	-10.4746
▁Watch	-10.4758
U	-10.4768
▁staying	-10.4778
▁Julie	-10.4781
▁Black	-10.4783
▁plays	-10.4783
▁bet	-10.4785
▁hotel	-10.4793
▁gift	-10.4796
▁partner	-10.4796
▁forth	-10.4798
▁parts	-10.4799
▁lawyer	-10.48
▁allow	-10.4805
▁singer	-10.4809
▁Le	-10.4809
ce	-10.481
▁track	-10.4828
▁roles	-10.4837
▁murder	-10.4848
▁Mar	-10.4855
ez	-10.4861
▁hasn	-10.4865
▁storm	-10.4872
▁council	-10.4874
ful	-10.4878
led	-10.4878
▁("	-10.4902
▁nap	-10.4903
▁gives	-10.4905
▁shouldn	-10.4917
▁tie	-10.4921
▁MAY	-10.4925
▁macaroni	-10.4925
▁similar	-10.4925
▁angry	-10.4926
▁education	-10.4926
▁Court	-10.4927
▁scarce	-10.4929
▁Europe	-10.4932
▁Something	-10.4932
▁huge	-10.4933
▁owner	-10.4934
▁replaced	-10.4935
▁meaning	-10.4941
coughs	-10.4943
▁triangle	-10.4948
▁fairy	-10.495
▁penny	-10.496
▁hook	-10.4967
▁marbles	-10.499
▁kindly	-10.499
▁29	-10.5034
▁uses	-10.5034
▁college	-10.5044
▁oil	-10.5048
▁god	-10.505
▁Award	-10.5051
▁counter	-10.5055
▁respect	-10.5056
▁[2.	-10.5063
▁add	-10.5067
▁quarter	-10.5075
sing	-10.5104
▁crayons	-10.5107
ED	-10.5138
▁steps	-10.5163
▁smoke	-10.5168
▁slight	-10.517
▁tickle	-10.5171
▁Julián	-10.5181
▁beauty	-10.5182
▁Angeles	-10.5182
▁driving	-10.5182
▁potatoes	-10.5186
When	-10.5189
▁quietly	-10.5193
▁struggle	-10.5199
▁bridge	-10.5201
▁credit	-10.5201
▁Most	-10.5201
▁famous	-10.5205
▁burning	-10.5207
▁revolutionary	-10.5211
▁noticed	-10.5212
▁below	-10.5214
▁carefully	-10.5227
▁wh	-10.5232
▁ill	-10.5245
▁thin	-10.5252
▁stayed	-10.5277
▁practice	-10.5279
▁smooth	-10.5285
▁la	-10.5295
▁fond	-10.5298
▁income	-10.5302
magnet	-10.5304
▁crime	-10.5309
▁trade	-10.531
▁Red	-10.5312
▁value	-10.5315
▁Whig	-10.5319
▁waited	-10.5334
▁shore	-10.5359
▁aside	-10.5377
▁al	-10.539
▁du	-10.5408
▁tone	-10.542
▁pitch	-10.5425
▁balance	-10.5436
▁anxious	-10.5442
▁Florida	-10.5445
▁Kong	-10.5445
▁Valentine	-10.5445
▁Actually	-10.5445
▁planning	-10.5445
▁potato	-10.5446
▁regular	-10.5446
▁eagerly	-10.5447
▁handsome	-10.5447
▁Seth	-10.545
▁tricycle	-10.545
▁goodbye	-10.5451
▁FE	-10.5451
▁fought	-10.5452
▁cats	-10.5455
▁absolutely	-10.5457
▁obviously	-10.5457
▁weight	-10.5457
Come	-10.5458
▁gently	-10.5461
▁purple	-10.5462
▁feed	-10.5463
▁voices	-10.5465
▁host	-10.5471
▁doin	-10.5472
▁surprised	-10.5474
▁neat	-10.5479
▁knife	-10.548
pitched	-10.5485
▁jumped	-10.5487
be	-10.5506
▁clearly	-10.5519
▁ship	-10.5523
▁More	-10.5528
▁ve	-10.5552
▁chug	-10.5558
ally	-10.556
▁&	-10.5561
runs	-10.5568
ring	-10.557
▁minister	-10.5577
▁drug	-10.5578
▁wet	-10.5578
▁soldier	-10.5579
▁affair	-10.5585
▁Ca	-10.559
▁border	-10.5605
▁j	-10.5607
▁Year	-10.5609
▁press	-10.5613
▁tear	-10.5613
▁battle	-10.5627
ized	-10.5652
▁slow	-10.5655
▁speech	-10.5702
▁sub	-10.5705
▁High	-10.5706
▁2012	-10.5706
▁shower	-10.5708
▁copy	-10.5709
▁coin	-10.5711
▁fourteen	-10.5712
▁RAF	-10.5714
▁Duke	-10.5715
▁babaa	-10.5715
▁authority	-10.5715
▁advice	-10.5716
▁original	-10.5716
▁birdie	-10.5716
▁excellent	-10.5716
▁weather	-10.5718
▁hung	-10.5719
▁Life	-10.5719
▁Cherry	-10.5721
▁discovered	-10.5721
▁slipped	-10.5721
▁hammer	-10.5723
▁statement	-10.5723
▁3,	-10.5724
▁struck	-10.5729
▁breathing	-10.5746
chuckles	-10.576
▁22	-10.5767
softly	-10.5768
▁Christ	-10.5771
▁X	-10.5776
▁formula	-10.5784
my	-10.579
▁formed	-10.581
▁colors	-10.5812
▁bringing	-10.5826
don	-10.5846
▁di	-10.5846
▁cast	-10.5847
▁danger	-10.5851
▁centre	-10.5852
▁province	-10.5857
▁message	-10.5859
▁heads	-10.5862
ist	-10.5875
▁[6	-10.5877
ley	-10.5888
▁price	-10.5899
▁21	-10.591
▁rings	-10.5916
▁21,	-10.5935
appropriate	-10.5941
▁pleased	-10.596
▁lies	-10.5965
▁choke	-10.5974
▁search	-10.5985
▁Palmer	-10.5993
▁Scholarship	-10.5993
▁private	-10.5994
▁Hong	-10.5996
In	-10.5996
▁silent	-10.5999
▁gathered	-10.5999
▁ninety	-10.6
▁normal	-10.6006
so	-10.601
▁feeding	-10.6019
▁stepp	-10.602
▁rocking	-10.6021
▁remove	-10.6025
▁fashion	-10.6029
▁shh	-10.6034
▁fixed	-10.6038
use	-10.6048
sighs	-10.6054
▁related	-10.6066
▁2014	-10.6072
▁throwing	-10.6074
ch	-10.6075
.8	-10.6075
▁wings	-10.6083
Ah	-10.6092
▁suggest	-10.6105
▁faces	-10.6106
aft	-10.6115
▁Tracy	-10.6137
▁screw	-10.6138
▁writes	-10.6139
id	-10.614
▁elephant	-10.6142
▁manner	-10.6143
▁mirror	-10.6147
nother	-10.6153
Here	-10.6154
▁Jim	-10.6165
gets	-10.6171
▁project	-10.6181
IL	-10.621
Villars	-10.6211
▁cloth	-10.6229
na	-10.6231
▁ex	-10.6235
▁courage	-10.6251
▁rush	-10.6255
▁2018	-10.6256
▁YOUR	-10.6273
▁RLF	-10.6278
▁Canadian	-10.6278
▁bathroom	-10.6279
▁Becky	-10.628
▁excited	-10.628
▁sudden	-10.628
▁guilty	-10.6281
▁Berta	-10.6282
▁mountains	-10.6285
▁Shawn	-10.6285
▁coach	-10.629
▁Uncle	-10.6291
▁Death	-10.6291
▁delighted	-10.6294
▁glasses	-10.6294
▁growing	-10.6314
▁loose	-10.6317
▁lifted	-10.6319
▁spending	-10.6322
▁Another	-10.6322
▁Clare	-10.6325
▁checking	-10.6335
Let	-10.6338
reading	-10.6345
▁Many	-10.6347
▁shake	-10.6347
▁greatly	-10.6354
▁ca	-10.6371
b	-10.6375
▁chase	-10.6385
wood	-10.6393
ad	-10.6394
▁Phil	-10.641
▁wore	-10.6415
R	-10.6423
▁plane	-10.6424
▁weekend	-10.6433
▁bark	-10.6433
▁positive	-10.6436
▁scene	-10.6437
morrow	-10.6442
▁Sunday	-10.6443
1.4	-10.6445
▁farmer	-10.6448
▁Park	-10.6448
more	-10.646
▁tops	-10.6464
▁Over	-10.6524
▁log	-10.6528
your	-10.6546
Not	-10.6549
▁mountain	-10.6558
▁pole	-10.6565
Good	-10.6566
most	-10.6566
▁dirt	-10.6567
▁Six	-10.6567
▁waste	-10.6568
▁mo	-10.6569
▁Prize	-10.6572
▁HAVE	-10.6572
▁horsie	-10.6572
▁gimme	-10.6572
▁destroy	-10.6573
▁buggy	-10.6573
▁earlier	-10.6579
▁worst	-10.6581
This	-10.6582
▁century	-10.6585
▁journey	-10.6585
▁comin	-10.6587
▁LOVE	-10.6588
▁ON	-10.6591
▁pants	-10.6592
▁biggest	-10.6592
note	-10.6595
▁dumb	-10.6596
▁attached	-10.6596
▁lower	-10.66
ens	-10.66
▁Before	-10.6606
▁writer	-10.6615
▁closer	-10.6624
ma	-10.6658
▁2,	-10.6664
▁tryin	-10.6667
shook	-10.6673
▁Se	-10.6674
bring	-10.6682
▁knees	-10.6693
▁UN	-10.67
▁wound	-10.671
lw	-10.6714
▁bare	-10.6716
▁blame	-10.6722
▁dessert	-10.6727
▁surface	-10.6728
II	-10.6731
▁relationship	-10.6732
▁Bird	-10.6743
▁magazine	-10.6744
▁desk	-10.6746
▁Republican	-10.6753
▁length	-10.6753
▁officers	-10.6758
▁strike	-10.6762
▁Time	-10.6765
▁founded	-10.6772
▁feels	-10.6785
long	-10.6787
▁1,	-10.6805
▁meal	-10.6809
son	-10.6813
pulling	-10.6813
▁areas	-10.6819
▁helping	-10.6824
▁tight	-10.6838
▁doors	-10.6844
ate	-10.6847
▁rocks	-10.6847
▁picking	-10.6849
▁hunt	-10.6859
▁hurried	-10.6871
▁nineteen	-10.6872
▁manage	-10.6873
▁Uruguay	-10.6875
▁captain	-10.6875
▁worried	-10.6875
▁Treaty	-10.6875
▁Department	-10.6875
▁prevent	-10.6876
▁Bertha	-10.6876
▁families	-10.6876
▁reckon	-10.6876
▁picnic	-10.6877
▁5,	-10.6879
▁particularly	-10.6881
▁Church	-10.6882
▁jolly	-10.6882
▁consumption	-10.6882
▁Japanese	-10.6882
▁Hold	-10.6882
▁Ben	-10.6882
▁downstairs	-10.6883
▁sh	-10.6885
▁cereal	-10.6889
▁quack	-10.6889
▁stream	-10.689
▁calm	-10.6891
▁horn	-10.6894
▁Although	-10.6898
▁Anne	-10.6906
▁pause	-10.6907
▁mothers	-10.6909
▁included	-10.6911
▁army	-10.6912
▁11	-10.6921
▁Council	-10.693
▁cents	-10.6936
▁missing	-10.6938
▁ng	-10.6948
▁narrow	-10.6958
V	-10.6965
▁2019.	-10.6966
▁touching	-10.6967
▁sisters	-10.6968
▁trick	-10.6985
▁ba	-10.6985
▁adventures	-10.699
▁km	-10.6991
▁delight	-10.6992
▁dish	-10.6997
turns	-10.7012
▁bow	-10.7013
▁sides	-10.7035
▁DON	-10.7035
te	-10.7042
▁tinkertoy	-10.7046
▁toast	-10.7049
▁blanket	-10.7051
▁medal	-10.7053
▁cousin	-10.706
▁title	-10.7063
▁Ann	-10.7074
▁uncle	-10.7074
▁effort	-10.7079
▁scratch	-10.7081
G	-10.7099
▁mid	-10.712
▁comfort	-10.7139
▁songs	-10.7146
ant	-10.7168
▁easter	-10.7171
▁represent	-10.7175
▁gate	-10.7177
▁Russia	-10.718
▁BY	-10.718
▁talks	-10.7183
▁entire	-10.7184
ment	-10.7186
▁Deborah	-10.7188
▁Truman	-10.7188
▁opposite	-10.7188
▁Monday	-10.7188
▁university	-10.7188
▁International	-10.7188
▁duty	-10.7188
▁Hilda	-10.7188
▁bunny	-10.7188
▁Hero	-10.7189
▁crutches	-10.7189
▁ourselves	-10.719
▁disappointed	-10.7191
▁social	-10.7191
▁1930	-10.7193
▁disappeared	-10.7194
▁repeated	-10.7195
▁chest	-10.7196
▁glorious	-10.7196
▁Momma	-10.7196
▁necessary	-10.7196
▁merged	-10.7197
▁presently	-10.7198
▁dishes	-10.7202
▁Wednesday	-10.7202
▁Constitution	-10.7203
▁mixed	-10.7203
▁Mike	-10.7204
▁broom	-10.7205
▁generally	-10.7205
▁goodness	-10.721
▁papers	-10.7213
▁learning	-10.7217
▁TV	-10.7218
▁spoken	-10.7223
▁non	-10.7229
▁larger	-10.7229
▁knocked	-10.7239
▁washed	-10.7245
▁Never	-10.7246
▁Stan	-10.7253
▁birth	-10.7254
▁locate	-10.7255
▁training	-10.7257
▁match	-10.7258
▁serve	-10.7264
▁mate	-10.7288
▁numbers	-10.7293
▁NO	-10.7303
▁Raff	-10.7307
▁whisper	-10.7351
▁mail	-10.7352
▁joke	-10.7353
▁Re	-10.7354
▁bump	-10.7357
▁protest	-10.7362
▁issue	-10.7362
▁bedroom	-10.7365
Connor	-10.7365
▁concern	-10.7365
▁Pa	-10.7366
▁Doctor	-10.7369
round	-10.7369
▁Call	-10.7369
▁computer	-10.7372
▁Macleod	-10.7372
▁patient	-10.7373
▁evil	-10.7375
▁focus	-10.7375
▁view	-10.7376
▁newspaper	-10.7381
▁Sh	-10.7386
▁cage	-10.7386
▁frogs	-10.739
▁4,	-10.7392
▁result	-10.7393
▁coal	-10.7402
▁rise	-10.7407
▁24,	-10.7409
ach	-10.7411
▁NOT	-10.7419
ty	-10.7438
▁range	-10.7448
▁50	-10.7475
▁Louis	-10.7488
▁opportunity	-10.751
▁ugly	-10.751
▁shining	-10.7511
▁nursery	-10.7511
▁production	-10.7512
▁plant	-10.7512
▁Damn	-10.7512
▁woof	-10.7516
▁carriage	-10.7518
▁Bones	-10.752
▁fairly	-10.7524
▁Nyon	-10.7524
▁grampa	-10.7524
▁enter	-10.7525
▁Brother	-10.7525
▁cars	-10.7527
▁rushed	-10.7527
▁ARE	-10.7529
▁becoming	-10.7538
▁fusses	-10.754
▁gal	-10.7545
▁Isn	-10.7547
▁sa	-10.7548
▁General	-10.7549
▁ow	-10.7549
▁feathers	-10.7558
CH	-10.7565
▁rustles	-10.7567
▁paying	-10.7576
with	-10.7579
▁sold	-10.758
just	-10.7587
Just	-10.7588
giggles	-10.7606
cuse	-10.7616
▁se	-10.762
▁Up	-10.7621
▁suck	-10.7621
▁homes	-10.7623
colored	-10.7629
▁gain	-10.7631
▁Poor	-10.7633
BRU	-10.7633
les	-10.7636
▁refer	-10.765
▁program	-10.7659
▁row	-10.7663
▁[1.	-10.767
▁escape	-10.7676
▁Say	-10.7688
▁Mexican	-10.7699
▁demand	-10.7703
▁dialect	-10.7703
▁rabbit	-10.7708
comes	-10.771
▁HE	-10.7729
▁barn	-10.774
are	-10.7749
king	-10.7753
▁Vice	-10.7753
▁plain	-10.7761
▁erase	-10.7761
▁ALL	-10.7771
▁Y	-10.7794
▁Claus	-10.7805
▁judge	-10.7831
▁El	-10.7833
various	-10.7843
▁delicious	-10.7843
▁Vagn	-10.7843
▁Freddy	-10.7844
▁Mexico	-10.7844
▁garage	-10.7844
▁presence	-10.7844
▁laboratory	-10.7844
▁Booth	-10.7844
▁airport	-10.7844
▁sleigh	-10.7845
▁clever	-10.7846
American	-10.785
▁vast	-10.7851
▁fortune	-10.7852
▁hoping	-10.7856
▁concerned	-10.7857
▁Markus	-10.7861
▁item	-10.7866
▁Lake	-10.7867
▁Three	-10.7867
▁Italy	-10.7867
▁burned	-10.7867
▁odd	-10.7868
▁yelling	-10.7876
▁dull	-10.7877
▁shape	-10.7882
▁nearer	-10.7886
▁2005	-10.7887
▁leading	-10.7887
▁apparently	-10.789
▁2015	-10.7918
▁Sam	-10.792
▁pushing	-10.7923
1.7	-10.7924
▁recognize	-10.7931
L	-10.7943
▁useful	-10.7952
▁tough	-10.796
continues	-10.7963
Of	-10.7966
▁thinks	-10.797
▁1990	-10.7976
▁total	-10.799
▁release	-10.7992
board	-10.7993
means	-10.8007
▁terror	-10.8027
▁choo	-10.8028
▁lock	-10.8033
ny	-10.8033
▁platform	-10.8037
▁te	-10.8054
▁prison	-10.8055
▁Green	-10.8061
▁knee	-10.8076
her	-10.8079
▁events	-10.808
▁lad	-10.809
1.6	-10.8099
▁nurse	-10.8106
ance	-10.8113
▁appropriate	-10.8115
▁Act	-10.8117
▁killing	-10.8121
ung	-10.8123
▁16,	-10.8126
▁revolution	-10.8142
▁6,	-10.8147
▁pitched	-10.8149
▁beds	-10.8155
land	-10.8157
▁discuss	-10.8161
ET	-10.8171
▁super	-10.8171
▁budget	-10.8173
two	-10.8179
▁address	-10.8181
▁fires	-10.8183
▁AN	-10.8184
▁inspector	-10.8186
▁WITH	-10.8188
▁puppy	-10.8188
▁Ryan	-10.8188
▁sprang	-10.8188
▁stomach	-10.8188
▁Douglas	-10.8188
▁vehicle	-10.8188
▁bodies	-10.8188
▁miserable	-10.8188
v	-10.8188
▁ridiculous	-10.8188
▁Government	-10.8188
▁butterfly	-10.8188
▁wastebasket	-10.8188
▁impossible	-10.8189
▁performance	-10.8189
▁Louisiana	-10.8189
▁suburb	-10.8189
▁expression	-10.8189
▁drove	-10.8189
▁conductor	-10.8191
▁calls	-10.8191
▁Besides	-10.8192
▁Al	-10.8192
▁Wow	-10.8194
▁Spanish	-10.8196
▁Sharston	-10.8196
▁Elizabeth	-10.8196
▁planned	-10.8196
▁understood	-10.8197
▁produced	-10.8201
▁affected	-10.8201
▁spill	-10.8201
▁gentlemen	-10.8204
▁mentioned	-10.8206
▁Charlie	-10.8212
▁candy	-10.8212
▁assistant	-10.8213
▁willing	-10.8213
▁traffic	-10.8222
▁managed	-10.8223
▁suffering	-10.8227
▁winning	-10.8229
▁Jones	-10.8229
▁eaten	-10.8232
▁smiling	-10.8236
▁pine	-10.8238
▁tomato	-10.8242
▁Make	-10.8246
▁figures	-10.8252
▁Last	-10.8252
▁central	-10.8252
▁Bob	-10.8254
▁telephone	-10.8255
▁drawn	-10.8265
baby	-10.8267
▁forty	-10.8271
▁lights	-10.8275
▁Crimea	-10.8278
▁loss	-10.8286
Where	-10.829
off	-10.8295
▁raise	-10.8302
▁Nat	-10.8304
▁pro	-10.8305
▁APR	-10.8306
cries	-10.8307
nut	-10.8315
begins	-10.8321
▁weak	-10.8323
▁section	-10.833
co	-10.8332
▁whining	-10.8342
uh	-10.8347
▁Shut	-10.8402
▁bundle	-10.8406
▁brownie	-10.8409
▁Goblin	-10.841
▁Other	-10.8412
▁Dream	-10.8415
▁Cousin	-10.8426
ho	-10.8427
▁design	-10.8454
his	-10.8459
ra	-10.8462
▁MAN	-10.8467
▁correct	-10.848
▁alphabet	-10.8494
▁chip	-10.85
▁Chris	-10.851
J	-10.8511
▁instant	-10.8513
▁Da	-10.852
▁honest	-10.8529
--"	-10.8533
▁Madam	-10.8535
▁enemy	-10.8545
▁jelly	-10.8545
▁Contreras	-10.8545
▁property	-10.8546
▁powder	-10.8546
▁intonation	-10.8546
▁companies	-10.8546
▁countries	-10.8546
▁amazing	-10.8546
▁Congress	-10.8547
▁Andrew	-10.8547
▁Scott	-10.8547
▁recently	-10.8547
▁Health	-10.8547
▁declared	-10.855
▁daisy	-10.8553
▁uhoh	-10.8553
▁mistress	-10.8553
▁Jenny	-10.8553
▁highest	-10.8554
▁knowledge	-10.8555
▁Hmm	-10.8555
▁parties	-10.8557
▁awarded	-10.8558
▁respond	-10.8564
▁Whatever	-10.8566
▁BUT	-10.8571
▁Yep	-10.8571
▁firm	-10.8571
▁ooh	-10.8572
▁kissed	-10.8572
ye	-10.8574
▁roads	-10.8575
▁cabin	-10.8578
▁passing	-10.8581
▁boxes	-10.8583
▁Nobody	-10.8584
▁Next	-10.8586
sh	-10.8587
▁peel	-10.8588
▁Keep	-10.8588
▁wondered	-10.8592
▁Stay	-10.8594
▁western	-10.8595
some	-10.8601
▁final	-10.8601
▁forever	-10.8601
▁eighty	-10.8602
▁organisations	-10.8604
▁score	-10.8605
▁travel	-10.8611
▁fiction	-10.8612
▁sending	-10.8615
▁younger	-10.8625
▁rolling	-10.8627
▁hated	-10.864
▁Put	-10.8646
▁kinds	-10.8647
ese	-10.8653
blue	-10.8655
▁apt	-10.8658
tape	-10.8667
Moudon	-10.8668
▁2007	-10.8674
▁clicks	-10.8677
▁forgive	-10.8681
▁Grand	-10.8685
▁Fort	-10.8691
old	-10.8699
▁issues	-10.8708
▁14,	-10.8715
▁compare	-10.8723
▁decide	-10.8725
▁Laugh	-10.8735
vo	-10.8742
▁Whil	-10.8743
▁mi	-10.875
▁benefit	-10.8763
▁session	-10.8767
▁salt	-10.8771
VE	-10.8772
▁banana	-10.8776
▁effect	-10.8778
▁purpose	-10.8783
▁peanut	-10.8785
▁victim	-10.8786
▁creature	-10.8788
▁knowing	-10.8792
▁ho	-10.8801
▁sport	-10.8801
▁2021	-10.8802
▁breast	-10.8803
ow	-10.8811
▁con	-10.8811
▁Jo	-10.8818
looks	-10.8835
▁keeps	-10.8849
▁pages	-10.8858
▁plans	-10.8859
▁7,	-10.8868
é	-10.8871
▁suffer	-10.8874
▁Try	-10.8898
▁contact	-10.8901
▁canal	-10.8906
▁note	-10.8909
▁tu	-10.891
▁leaf	-10.8911
▁thick	-10.8912
▁SCROOGE	-10.8915
▁pity	-10.8915
▁female	-10.8916
▁didldow	-10.8916
▁horrid	-10.8916
▁campaign	-10.8916
▁kangaroo	-10.8916
▁Boston	-10.8916
▁shawl	-10.8916
▁Weener	-10.8916
▁windmill	-10.8916
▁cities	-10.8916
▁firetruck	-10.8916
▁Peru	-10.8916
▁easier	-10.8917
bel	-10.8917
▁ashamed	-10.8917
▁comfortable	-10.8919
▁Bush	-10.8919
▁farther	-10.8919
▁dangerous	-10.8922
▁therefore	-10.8922
▁gentle	-10.8922
▁Ohio	-10.8923
▁appointed	-10.8923
▁Joseph	-10.8923
▁Russo	-10.8924
▁kitty	-10.8924
▁babies	-10.8924
▁possibly	-10.8924
▁hiding	-10.8926
▁laughter	-10.8927
▁characters	-10.8928
▁Japan	-10.8931
▁Everything	-10.8933
▁etc	-10.8933
▁dying	-10.8937
low	-10.8939
washer	-10.8941
▁29,	-10.8945
▁thou	-10.8946
▁Nice	-10.895
▁rising	-10.8952
▁forgotten	-10.8953
▁speed	-10.896
▁OUT	-10.8961
▁compete	-10.8964
▁wondering	-10.8966
CLE	-10.8975
▁firmly	-10.8979
▁vegetables	-10.8981
going	-10.8985
▁Love	-10.8987
▁repeat	-10.8989
▁acting	-10.8991
ier	-10.8991
▁holidays	-10.8991
▁coo	-10.9011
▁jobs	-10.9023
▁utter	-10.9029
▁breaking	-10.903
▁stretch	-10.9042
Go	-10.9044
▁favor	-10.9045
plastic	-10.9059
▁Earl	-10.906
▁ole	-10.9062
critique	-10.9066
soft	-10.9067
holding	-10.9072
▁bug	-10.9079
▁20,	-10.908
1.8	-10.9091
▁BE	-10.91
▁walls	-10.9104
shaped	-10.9134
RA	-10.9138
▁specific	-10.9145
stands	-10.9159
▁bicycle	-10.916
▁advantage	-10.9161
▁condition	-10.9162
▁weapon	-10.9164
▁ribbon	-10.9164
▁ghost	-10.9165
▁engine	-10.9167
▁shovel	-10.9169
▁streets	-10.917
▁adventure	-10.9171
▁ends	-10.9173
▁tribe	-10.9176
when	-10.9179
ive	-10.9183
▁pool	-10.9188
writes	-10.9189
Are	-10.9198
▁23,	-10.9199
▁style	-10.9205
▁household	-10.9211
HS	-10.9231
▁Big	-10.9244
▁2006	-10.925
▁grand	-10.9258
▁Maria	-10.9266
▁besides	-10.9277
▁yo	-10.9285
▁fed	-10.9285
rely	-10.929
ern	-10.9294
▁mile	-10.93
▁JUST	-10.93
▁Aylmer	-10.93
▁Fuzhou	-10.93
▁Deputy	-10.93
▁Oklahoma	-10.93
▁activity	-10.93
▁seventeen	-10.93
▁hamburger	-10.93
▁Leavenworth	-10.93
▁energy	-10.93
▁referr	-10.93
▁flew	-10.9301
▁properly	-10.9302
▁otherwise	-10.9302
▁sheep	-10.9303
▁Special	-10.9303
▁Marion	-10.9304
▁Ireland	-10.9304
▁previous	-10.9304
▁shouted	-10.9308
▁Captain	-10.9308
▁Secretary	-10.9309
▁Turn	-10.9312
▁grateful	-10.9312
▁THERE	-10.9313
▁Cup	-10.9314
▁Chinese	-10.9317
▁Remember	-10.9317
▁delivery	-10.9317
▁gray	-10.9318
▁fireplace	-10.9318
▁Cool	-10.9318
▁Move	-10.9322
▁rode	-10.9326
▁invited	-10.9328
Thank	-10.9328
▁male	-10.9329
▁passes	-10.933
▁complete	-10.9331
▁Billy	-10.9347
▁"'	-10.9354
▁loudly	-10.9354
▁mayor	-10.9356
▁folks	-10.9359
▁prove	-10.9359
▁Snow	-10.936
▁vice	-10.9362
▁Shit	-10.9364
▁Am	-10.9366
▁cheap	-10.9366
▁pa	-10.9366
ka	-10.9367
▁cheeks	-10.9367
▁pe	-10.9377
▁touched	-10.938
▁friendly	-10.9394
▁fork	-10.9412
from	-10.9416
▁harm	-10.9416
▁hill	-10.942
aid	-10.9426
▁SO	-10.9435
pose	-10.9439
▁ne	-10.9441
ca	-10.9443
▁hurts	-10.9445
▁leap	-10.945
oh	-10.9465
Jim	-10.9467
Can	-10.9476
year	-10.9481
▁opening	-10.9485
▁Island	-10.9494
?]	-10.9517
▁active	-10.9521
▁Co	-10.953
▁utterance	-10.9546
▁40	-10.9554
▁disease	-10.9558
▁umbrella	-10.9558
▁failure	-10.9558
▁funeral	-10.9561
▁doughnut	-10.9564
▁colour	-10.9566
▁degree	-10.9571
keeping	-10.9572
▁theatre	-10.9572
▁grandmother	-10.9577
▁banks	-10.958
▁manager	-10.958
throw	-10.9587
▁1994	-10.9588
▁assure	-10.9593
▁perform	-10.9594
▁deaf	-10.9599
▁tests	-10.9604
▁click	-10.9609
▁iron	-10.9609
▁package	-10.9614
▁Work	-10.9624
bye	-10.9628
▁mill	-10.9629
▁rod	-10.964
▁Di	-10.9644
▁crawl	-10.9644
▁17,	-10.9657
▁hay	-10.9662
▁dump	-10.9667
▁process	-10.968
▁bless	-10.9688
▁11,	-10.9691
▁sons	-10.9695
▁blast	-10.9695
▁rid	-10.9695
▁strength	-10.9697
▁LOOK	-10.9699
▁pizza	-10.97
▁Tokyo	-10.97
▁Taiwan	-10.97
▁afford	-10.97
▁cotton	-10.97
▁Minley	-10.97
▁Melissa	-10.97
▁Kingdom	-10.97
▁telegram	-10.97
▁anniversary	-10.97
▁conference	-10.97
▁basically	-10.97
▁Leland	-10.9701
▁Dude	-10.9701
▁science	-10.9701
▁pride	-10.9703
▁Square	-10.9703
▁woke	-10.9704
line	-10.9705
▁eleven	-10.9705
▁conduct	-10.9705
▁producer	-10.9708
▁daily	-10.9709
▁Bozo	-10.9709
▁failed	-10.971
▁Kelly	-10.971
▁Southern	-10.9711
▁wildly	-10.9713
▁staff	-10.9718
▁Dutch	-10.9718
▁Series	-10.9719
▁unknown	-10.9719
▁officially	-10.9719
▁intended	-10.9728
▁Police	-10.9734
reache	-10.9735
▁deliver	-10.9735
▁Everyone	-10.974
▁attacked	-10.9741
▁Still	-10.9742
▁schools	-10.9752
▁worm	-10.9753
▁guide	-10.9753
▁fuss	-10.9755
▁recording	-10.9764
▁hero	-10.9767
▁listened	-10.9771
▁dust	-10.9772
▁stores	-10.9772
▁MAR	-10.9779
ship	-10.978
▁Easter	-10.98
▁CAN	-10.9806
▁Bu	-10.9811
Cause	-10.9812
▁boats	-10.9821
silence	-10.9821
▁artist	-10.9824
mcee	-10.9841
▁aw	-10.9844
▁32	-10.9845
▁Dear	-10.9851
▁git	-10.9854
▁bench	-10.9857
writing	-10.9862
strange	-10.9875
singsong	-10.9879
horseshoe	-10.9879
Brown	-10.9887
nce	-10.989
▁closet	-10.9893
▁sigh	-10.9894
▁anti	-10.9909
▁upset	-10.9912
▁ok	-10.9918
▁gaze	-10.9919
▁Wha	-10.9926
▁material	-10.9944
Your	-10.9944
▁nu	-10.9946
▁appreciate	-10.9958
▁tire	-10.9959
▁MR	-10.9959
▁content	-10.9965
▁clown	-10.9969
3.5	-10.9974
talks	-10.9977
▁experiment	-10.9979
▁broad	-10.998
▁squirrel	-10.998
▁negative	-10.9983
▁Prince	-10.9989
ay	-10.9993
▁Dog	-11.0008
▁driver	-11.0009
▁28,	-11.001
▁tip	-11.0019
W	-11.0024
▁refuse	-11.0053
▁Author	-11.0075
ns	-11.0081
which	-11.0086
where	-11.0093
▁keeper	-11.0097
▁changes	-11.0108
▁reward	-11.0109
▁22,	-11.0113
DIA	-11.0114
▁parrot	-11.0115
▁pork	-11.0116
▁Chair	-11.0117
▁Corey	-11.0117
▁Bobby	-11.0117
▁APHRODUCKY	-11.0117
▁studies	-11.0117
▁swingswing	-11.0117
▁increase	-11.0117
▁neighborhood	-11.0117
▁STORY	-11.0117
▁Edition	-11.0117
▁altogether	-11.0117
▁northern	-11.0117
▁decent	-11.0117
▁easily	-11.0118
▁rapidly	-11.0118
▁occasionally	-11.0118
▁insurance	-11.0118
▁Loring	-11.0119
▁boyfriend	-11.0119
▁Today	-11.012
▁resources	-11.0121
▁Philip	-11.0123
▁buttons	-11.0123
▁slightly	-11.0124
▁ch	-11.0124
loud	-11.0124
▁Tommy	-11.0124
▁remarked	-11.0125
▁sponge	-11.0125
▁Pacific	-11.0125
▁channel	-11.0126
▁Susan	-11.0126
▁relief	-11.0126
▁gettin	-11.0126
▁midnight	-11.0126
▁Betty	-11.0127
▁LI	-11.0128
▁foolish	-11.0131
▁crawling	-11.0132
▁suffered	-11.0132
▁yup	-11.0132
▁Someone	-11.0133
▁addressed	-11.0133
▁eraser	-11.0133
.]	-11.0135
let	-11.014
▁awfully	-11.014
▁José	-11.0144
▁Children	-11.0145
▁express	-11.0148
▁bloody	-11.015
▁DAY	-11.0151
▁closely	-11.0153
▁Jan	-11.0154
▁painted	-11.0155
▁faint	-11.0161
▁slip	-11.0164
EXP	-11.0168
▁drama	-11.0173
▁flash	-11.018
▁crossed	-11.0184
▁seated	-11.0187
▁sleepy	-11.0187
▁Hall	-11.0194
▁ability	-11.0203
▁Justin	-11.0205
▁visitors	-11.0211
▁hearing	-11.0225
▁sounded	-11.0227
que	-11.0242
▁mass	-11.0251
▁remain	-11.0262
▁riding	-11.0271
▁nail	-11.0272
▁bugs	-11.0275
▁stairs	-11.0276
▁results	-11.0289
▁bi	-11.0301
tic	-11.0305
▁wine	-11.0307
▁oops	-11.0308
▁farmers	-11.0314
▁sorts	-11.0315
▁wing	-11.0316
▁1995	-11.032
One	-11.0325
▁mus	-11.0325
▁fired	-11.0331
▁Val	-11.0341
ROB	-11.0352
who	-11.0358
▁showing	-11.0359
▁sake	-11.0387
▁2020.	-11.0393
▁accept	-11.0398
▁compound	-11.0403
▁fully	-11.0404
▁occasion	-11.0405
▁Film	-11.0406
An	-11.0408
▁Catholic	-11.0409
▁envelope	-11.0412
▁trial	-11.0413
▁orphan	-11.0413
▁source	-11.0418
▁cube	-11.0419
▁rattle	-11.0421
▁arrows	-11.0422
AU	-11.0427
"?	-11.0428
▁nk	-11.043
▁fold	-11.0434
▁vain	-11.0438
▁version	-11.0441
ud	-11.0447
▁$	-11.0447
aged	-11.045
▁bin	-11.0454
▁sock	-11.0469
▁belongs	-11.0471
▁bones	-11.0485
2.5	-11.0493
▁13,	-11.0497
▁x	-11.0498
▁stem	-11.0506
▁rope	-11.0506
▁finding	-11.051
io	-11.0516
▁clunk	-11.0527
▁mix	-11.0528
▁chop	-11.0533
▁flow	-11.0535
ose	-11.0537
▁Latin	-11.0539
▁mention	-11.0542
▁hearts	-11.0545
▁sixteen	-11.0547
ão	-11.055
▁Arroniz	-11.055
▁Furber	-11.055
▁Humphrey	-11.055
▁Probably	-11.055
▁Thursday	-11.055
▁Britain	-11.055
▁Family	-11.055
▁Frosty	-11.055
▁instance	-11.055
▁federal	-11.055
▁Academy	-11.055
▁Group	-11.055
▁Jerry	-11.0551
▁clop	-11.0551
▁safety	-11.0551
▁cellar	-11.0551
▁College	-11.0551
▁crocodile	-11.0552
▁Buckingham	-11.0552
▁Mississippi	-11.0552
▁magician	-11.0552
▁Valley	-11.0552
▁seventy	-11.0552
▁ejaculated	-11.0552
▁invasion	-11.0552
▁responsibility	-11.0553
▁whipped	-11.0553
▁administration	-11.0554
▁fascinating	-11.0554
▁pail	-11.0556
▁entirely	-11.0556
▁developed	-11.0557
▁African	-11.056
▁razor	-11.056
▁clay	-11.056
▁tennis	-11.056
▁parlor	-11.056
▁expensive	-11.056
▁Stephen	-11.0561
▁powerful	-11.0562
2.2	-11.0565
▁branches	-11.0567
▁treaty	-11.0567
▁Holy	-11.0568
▁bored	-11.0569
▁Jimmy	-11.0571
▁Mayor	-11.0572
▁messy	-11.0573
▁native	-11.0573
▁setting	-11.0573
▁winner	-11.0573
▁parade	-11.0575
▁goal	-11.0575
▁2000	-11.0589
▁programme	-11.0591
▁DO	-11.06
▁boss	-11.06
▁reported	-11.0604
▁pan	-11.0605
▁imagined	-11.0608
▁Representatives	-11.061
▁ordered	-11.062
▁apologize	-11.0626
▁dolly	-11.0628
▁SHE	-11.0629
▁catching	-11.0631
ON	-11.0632
▁pushed	-11.0635
▁weary	-11.0638
▁Su	-11.0658
illon	-11.0658
▁Lu	-11.0674
▁marry	-11.0678
▁roar	-11.068
also	-11.0711
▁moments	-11.0713
▁Norma	-11.0714
▁coon	-11.0726
▁protests	-11.0734
▁desert	-11.0736
gain	-11.0741
▁mines	-11.0754
▁float	-11.0756
cient	-11.0759
▁clunks	-11.076
▁1960	-11.0762
▁Vi	-11.0763
ard	-11.0766
▁nest	-11.0772
▁vision	-11.0791
▁Andy	-11.0796
▁tumble	-11.0798
▁author	-11.0803
X	-11.0804
▁Lee	-11.0806
▁ding	-11.0809
▁feelings	-11.0809
TTLE	-11.0813
incorporated	-11.0821
▁sticky	-11.0828
▁pre	-11.0835
▁crackers	-11.0835
▁vote	-11.0838
▁advance	-11.0841
▁whistle	-11.0844
,000	-11.0853
▁pattern	-11.0854
▁opinion	-11.0856
▁8,	-11.0857
side	-11.0861
▁brush	-11.0862
sounds	-11.0863
▁motorcycle	-11.0863
▁appearance	-11.0864
▁media	-11.0865
▁exercise	-11.0867
▁25,	-11.0873
▁1970	-11.0879
▁dude	-11.0882
▁drip	-11.0899
▁sale	-11.0899
▁kite	-11.09
noises	-11.0913
▁dolls	-11.0915
▁Club	-11.0921
ke	-11.0928
▁legal	-11.0929
how	-11.0946
▁blows	-11.0956
ling	-11.0965
ter	-11.0965
▁Hunt	-11.0973
▁Care	-11.0979
▁KNOW	-11.0987
▁drops	-11.0987
▁spare	-11.0989
▁stands	-11.0995
▁damage	-11.0999
▁wicked	-11.0999
▁brief	-11.1
▁Cha	-11.1002
▁8:	-11.1003
▁Hydraulic	-11.1005
▁Whittaker	-11.1005
▁Teddy	-11.1005
▁society	-11.1005
▁pumpkin	-11.1005
▁servant	-11.1005
▁horror	-11.1005
▁Katie	-11.1005
▁thirteen	-11.1005
▁Maple	-11.1005
▁studied	-11.1005
▁executed	-11.1005
▁Northern	-11.1005
▁Honey	-11.1005
▁memory	-11.1005
▁Hugo	-11.1005
▁horrible	-11.1006
▁sixty	-11.1008
▁Kevin	-11.1008
coming	-11.1009
▁100	-11.1009
▁dining	-11.1009
▁NOW	-11.101
▁branch	-11.101
▁international	-11.1011
Poss	-11.1011
▁matches	-11.1011
▁Missus	-11.1012
▁everywhere	-11.1012
▁yum	-11.1014
▁{\	-11.1014
▁ntuu	-11.1015
▁UK	-11.1015
▁Matthew	-11.1015
▁Everybody	-11.1016
▁ordinary	-11.1016
▁slept	-11.1017
▁fur	-11.1019
▁spit	-11.1019
▁cash	-11.102
▁racing	-11.1021
▁illustrations	-11.1021
▁Long	-11.1024
▁ways	-11.1024
▁Mahdrusa	-11.1026
▁1950	-11.1026
▁barking	-11.103
▁previously	-11.1031
▁bou	-11.1031
▁changing	-11.1032
▁settled	-11.1033
▁shortly	-11.1034
▁beach	-11.1041
▁uttered	-11.1041
▁loving	-11.1042
▁delightful	-11.1042
▁drift	-11.1043
▁route	-11.1045
dy	-11.1046
▁create	-11.1047
▁OH	-11.1053
will	-11.1055
▁wi	-11.1056
▁Indiana	-11.1056
▁Jay	-11.1059
▁bound	-11.1069
▁stared	-11.1069
▁dresses	-11.1073
▁ideal	-11.1074
▁spilled	-11.1074
▁Aunt	-11.1078
▁rolled	-11.1079
boat	-11.1081
▁incident	-11.1082
▁asylum	-11.1083
▁returns	-11.1088
▁wee	-11.1091
▁onion	-11.1093
▁Sa	-11.1096
▁mock	-11.1097
▁shouting	-11.1099
▁jumping	-11.11
ial	-11.11
▁rights	-11.1101
Look	-11.1102
▁Georgia	-11.1103
▁students	-11.1111
▁quarts	-11.1122
▁teams	-11.1138
ville	-11.1159
▁1.5	-11.1159
Mr	-11.116
7.	-11.1162
talking	-11.1165
▁ribbons	-11.1168
▁bend	-11.1176
▁Mmm	-11.1176
▁Donal	-11.118
▁Dur	-11.1181
▁plains	-11.1183
▁ringing	-11.1188
▁armed	-11.119
▁Ho	-11.1191
▁na	-11.1203
▁swear	-11.1204
▁AS	-11.1206
os	-11.1211
rd	-11.1221
▁drugs	-11.1238
Hello	-11.1241
Little	-11.1241
still	-11.1251
▁claim	-11.1286
ans	-11.1286
▁Centr	-11.1288
▁attend	-11.1291
drops	-11.1291
play	-11.1292
blocks	-11.1296
▁swallow	-11.1303
Is	-11.1304
▁Looks	-11.131
▁skiff	-11.1324
To	-11.1326
▁arrest	-11.1329
▁diamond	-11.1332
▁girlfriend	-11.1335
▁bass	-11.1335
▁client	-11.1341
▁turkey	-11.1341
▁behave	-11.1343
▁clef	-11.1343
▁ticket	-11.1347
ical	-11.1353
▁feature	-11.1354
▁[7	-11.1354
▁Clip	-11.1359
▁notion	-11.1364
▁sum	-11.1376
▁cheer	-11.138
▁Book	-11.139
ia	-11.1417
▁Sha	-11.1432
▁steal	-11.1434
ee	-11.1434
▁rooms	-11.1439
high	-11.1443
▁site	-11.1444
▁UP	-11.1445
leaning	-11.1449
▁provide	-11.1459
▁noted	-11.1459
posed	-11.1461
▁Australia	-11.1464
▁drunk	-11.1468
▁frighten	-11.1474
▁2002	-11.1476
▁Command	-11.1476
▁cheerful	-11.1476
▁buffalo	-11.1476
▁dreadful	-11.1477
▁curious	-11.1477
▁split	-11.148
▁Jeremy	-11.1481
▁Massachusetts	-11.1481
▁Professor	-11.1481
▁cottage	-11.1481
▁delicate	-11.1481
▁seldom	-11.1481
▁buried	-11.1481
▁Gordon	-11.1481
▁Perro	-11.1481
▁management	-11.1481
▁Elton	-11.1481
▁poetry	-11.1482
▁marvelous	-11.1482
▁admit	-11.1482
▁basketball	-11.1482
▁Northeast	-11.1482
▁ladder	-11.1483
▁Mouse	-11.1484
▁actual	-11.1484
▁Fielding	-11.1484
▁policeman	-11.1485
▁multiple	-11.1485
▁briefly	-11.1485
7/	-11.1486
▁nervous	-11.1487
▁businessman	-11.1487
▁snowman	-11.1487
▁dotted	-11.1489
▁Got	-11.1489
▁hollow	-11.149
▁chosen	-11.149
▁Chicago	-11.1492
▁Exactly	-11.1492
▁breeze	-11.1492
▁eighteen	-11.1493
▁bacon	-11.1493
▁Horne	-11.1495
▁According	-11.1498
▁jail	-11.1499
▁dumped	-11.1499
▁represented	-11.1501
▁Committee	-11.1502
▁merry	-11.1503
▁limited	-11.1503
▁extremely	-11.1503
▁tobacco	-11.1504
▁Karen	-11.1505
▁comedy	-11.1505
▁choose	-11.1506
▁invite	-11.1506
▁tube	-11.151
▁forces	-11.1513
▁Welcome	-11.1515
▁vol	-11.1518
▁Show	-11.1522
▁realized	-11.1522
▁Hang	-11.1525
here	-11.1525
PA	-11.1526
pos	-11.1528
▁2017.	-11.1532
▁aware	-11.1536
▁modern	-11.1537
▁Sweets	-11.1539
▁practical	-11.1543
▁noble	-11.1544
▁Wind	-11.1555
▁Pete	-11.1569
ine	-11.1571
▁indicate	-11.1574
▁bunch	-11.1577
▁services	-11.1588
▁blowing	-11.1589
▁buying	-11.1597
▁divide	-11.1606
▁gh	-11.1613
▁consider	-11.1616
▁cakes	-11.163
▁hills	-11.1633
Eve	-11.164
▁tribes	-11.165
▁command	-11.165
▁pry	-11.1654
▁aloud	-11.1662
▁washing	-11.1667
▁model	-11.1669
Be	-11.1678
▁crown	-11.1682
▁cups	-11.1683
▁signs	-11.1689
▁joint	-11.1691
ssed	-11.1696
▁III	-11.1706
▁10,	-11.1715
box	-11.1716
▁tracks	-11.1719
▁Far	-11.1725
▁answers	-11.1729
▁ducks	-11.1736
taps	-11.1739
▁rules	-11.1746
&	-11.1757
ily	-11.1769
▁drinks	-11.1772
stern	-11.1778
▁Young	-11.1784
▁flu	-11.1785
▁cows	-11.1788
un	-11.1793
▁actions	-11.1801
▁replace	-11.1806
had	-11.1807
▁1987	-11.1812
▁1986	-11.1818
▁freedom	-11.1823
▁Shadow	-11.1823
▁chickens	-11.1824
Who	-11.1828
▁path	-11.1828
▁uniform	-11.1831
▁1972	-11.1834
▁historical	-11.1835
▁discussion	-11.1836
▁journalist	-11.1837
▁ol	-11.1837
▁Picture	-11.1842
▁motion	-11.1843
▁Spring	-11.1845
▁steamer	-11.1845
▁players	-11.1847
▁secrets	-11.1852
▁article	-11.1855
▁error	-11.1857
▁roller	-11.1859
▁glove	-11.1863
▁marker	-11.1869
▁flight	-11.187
ball	-11.1873
▁18,	-11.1874
made	-11.1878
▁Tip	-11.1878
▁laws	-11.1892
ro	-11.1897
ent	-11.1912
washers	-11.1912
▁inter	-11.1921
LIS	-11.1921
our	-11.1922
il	-11.1924
$=2	-11.1932
▁stole	-11.1944
▁ham	-11.1946
now	-11.1949
▁types	-11.1956
▁breathe	-11.1959
2.3	-11.1964
▁ra	-11.1969
▁po	-11.1971
▁development	-11.1974
▁swift	-11.1976
▁fox	-11.1979
▁Eric	-11.1981
▁Hospital	-11.1981
▁Parliament	-11.1981
▁activities	-11.1981
▁bulldozer	-11.1981
▁Ocean	-11.1981
▁Edgewater	-11.1981
▁Walrus	-11.1981
­	-11.1981
▁behavior	-11.1981
▁steak	-11.1981
▁pudding	-11.1981
▁pantry	-11.1981
▁Kyle	-11.1981
▁successful	-11.1982
▁Check	-11.1982
▁balcony	-11.1982
▁Middle	-11.1982
▁muttered	-11.1982
▁Wallis	-11.1983
▁stopping	-11.1983
▁drag	-11.1984
▁percent	-11.1984
▁alongside	-11.1984
▁fairies	-11.1984
▁chih	-11.1986
▁tender	-11.1988
▁makin	-11.1989
▁criticize	-11.199
▁loaf	-11.1991
▁scare	-11.1991
▁2003	-11.1992
▁1997	-11.1992
▁flesh	-11.1992
▁approached	-11.1992
▁RIGHT	-11.1992
▁sadly	-11.1992
▁victory	-11.1993
▁HIS	-11.1993
▁thirsty	-11.1993
▁succeed	-11.1995
▁Irish	-11.1995
▁polish	-11.1998
▁raising	-11.1998
▁brand	-11.2
▁designed	-11.2002
▁zone	-11.2003
▁religious	-11.2004
▁Earth	-11.2004
right	-11.2006
▁Timor	-11.2007
▁serving	-11.2007
▁latter	-11.2008
▁Without	-11.201
▁arranged	-11.201
▁List	-11.2011
▁nothin	-11.2013
▁2008	-11.2014
▁Happy	-11.2015
▁Nebraska	-11.2015
▁Open	-11.2017
▁Basin	-11.2017
▁pray	-11.202
▁warning	-11.202
▁pressure	-11.2025
▁Bolt	-11.2027
shed	-11.2027
CE	-11.2038
▁highly	-11.2041
▁stir	-11.2043
▁sheet	-11.2043
▁Hurry	-11.2051
▁Ukrainian	-11.2051
jo	-11.2052
▁thankyou	-11.206
▁Olympics	-11.2063
▁attach	-11.2063
▁shooting	-11.2066
▁27,	-11.207
▁episodes	-11.207
3.4	-11.2071
▁beans	-11.2072
▁prefer	-11.2082
▁grave	-11.2088
▁winding	-11.2089
bank	-11.2092
noise	-11.2094
▁cooked	-11.2095
▁slice	-11.2095
▁chap	-11.2097
▁Moon	-11.2111
car	-11.2111
K	-11.2115
▁papa	-11.2116
2.4	-11.2118
▁rider	-11.2124
▁spelling	-11.215
▁doughnuts	-11.2155
water	-11.2159
▁bitch	-11.2172
▁Li	-11.2205
▁Ya	-11.2206
▁tame	-11.2217
▁)	-11.2218
▁aye	-11.2221
▁Ja	-11.2224
▁risk	-11.2224
▁seal	-11.2231
▁Exc	-11.2233
▁Frank	-11.2236
▁bent	-11.2236
▁wave	-11.2242
▁grab	-11.2243
▁sw	-11.2255
Did	-11.2258
▁dangl	-11.2258
simultaneous	-11.2259
▁shown	-11.2259
video	-11.2268
whining	-11.2274
touches	-11.2276
ble	-11.2276
▁sports	-11.2277
▁souls	-11.2286
▁en	-11.2288
▁fl	-11.2298
▁grade	-11.2298
▁las	-11.2306
get	-11.2307
Both	-11.2319
onald	-11.2321
▁arrive	-11.2323
▁15,	-11.2332
▁shade	-11.2337
▁heat	-11.2344
▁sneeze	-11.2345
▁2014.	-11.2349
▁standard	-11.235
▁Villa	-11.2351
▁Christian	-11.2356
▁bastard	-11.2356
▁widow	-11.236
▁candidate	-11.2361
▁individual	-11.2362
trees	-11.2362
til	-11.2363
▁Malenda	-11.2364
▁dum	-11.2364
▁elder	-11.2367
▁volume	-11.2368
▁bands	-11.2373
▁customer	-11.2374
▁rang	-11.2377
▁marble	-11.2383
gives	-11.2383
▁Pe	-11.2383
▁Master	-11.2385
▁guard	-11.2386
▁equal	-11.2388
▁Ain	-11.239
▁civil	-11.2392
▁saving	-11.2392
▁beer	-11.2393
▁product	-11.2395
▁runs	-11.2397
down	-11.2399
▁task	-11.24
▁defend	-11.2402
▁whispers	-11.2411
▁45	-11.2412
▁Con	-11.2414
ac	-11.242
▁]	-11.2423
▁alarm	-11.2429
ying	-11.2443
▁environmental	-11.2461
▁companions	-11.2465
▁gather	-11.248
▁shy	-11.2482
▁cell	-11.2483
▁addition	-11.2487
▁regions	-11.2496
▁appeal	-11.25
▁island	-11.2501
▁direct	-11.2501
ise	-11.2505
▁Harvard	-11.2507
▁beneath	-11.2507
▁consignment	-11.2507
▁injuries	-11.2507
▁orchard	-11.2507
▁ABOUT	-11.2507
▁celery	-11.2507
▁Internet	-11.2507
▁puppies	-11.2507
▁Anhui	-11.2507
▁romantic	-11.2507
▁parallel	-11.2507
▁wharf	-11.2507
▁Oblast	-11.2507
▁dinghy	-11.2507
▁Second	-11.2507
▁furniture	-11.2507
▁yyy	-11.2507
▁Pepper	-11.2507
▁sarcoma	-11.2507
▁Kapoor	-11.2507
▁awake	-11.2508
▁Nancy	-11.2508
▁Fitz	-11.2508
▁lazy	-11.2508
▁Golden	-11.2508
▁unhappy	-11.2508
▁WAS	-11.2509
▁obliged	-11.2509
▁maple	-11.2509
▁OFF	-11.251
▁gasped	-11.251
▁Moreno	-11.2511
▁constantly	-11.2511
▁Willie	-11.2511
▁murmured	-11.2512
▁grey	-11.2514
▁studio	-11.2514
▁Jake	-11.2515
▁squeeze	-11.2517
▁LIKE	-11.2517
▁nodded	-11.2517
▁pregnant	-11.2518
▁necessarily	-11.2518
▁skull	-11.2519
▁Zebedee	-11.2519
▁giraffe	-11.2519
▁Football	-11.2519
▁Portugal	-11.2519
▁literature	-11.2519
▁microphone	-11.2519
▁vague	-11.252
▁flute	-11.252
▁Goodbye	-11.252
▁youngest	-11.2521
▁physical	-11.2522
▁incredible	-11.2523
ts	-11.2525
ki	-11.2526
▁purse	-11.2527
▁st	-11.2528
▁Elsa	-11.2531
▁folded	-11.2531
▁rustling	-11.2532
▁suggested	-11.2533
▁lately	-11.2537
▁murdered	-11.2537
▁Seven	-11.2537
ueva	-11.2538
▁interview	-11.2539
▁defeat	-11.2539
▁GET	-11.2541
▁UDP	-11.2543
▁crash	-11.2543
▁Christopher	-11.2544
▁trail	-11.2545
▁Child	-11.2545
▁clothing	-11.2546
art	-11.2549
▁throughout	-11.2549
▁paused	-11.255
▁oven	-11.2552
▁sang	-11.2553
▁2009	-11.2553
▁matters	-11.2561
▁Should	-11.2565
▁Force	-11.2565
gotten	-11.2568
▁Marie	-11.257
▁smoking	-11.2572
▁HOW	-11.2574
▁dared	-11.2575
▁healthy	-11.2575
▁Mel	-11.2577
▁math	-11.258
▁upper	-11.2583
▁propose	-11.2583
▁cleaning	-11.2584
▁heels	-11.2592
▁agent	-11.2594
dum	-11.2594
▁Guitar	-11.26
back	-11.26
▁warn	-11.2609
▁launch	-11.2611
remove	-11.2621
▁tales	-11.2628
▁rude	-11.2631
▁HOME	-11.2633
have	-11.2644
▁apples	-11.265
▁bore	-11.2659
▁according	-11.2659
▁snap	-11.2662
▁2021.	-11.2672
da	-11.2703
▁unit	-11.2715
▁benefits	-11.2716
▁rabbits	-11.2728
▁states	-11.2731
▁quart	-11.2737
▁cousins	-11.2741
▁Out	-11.2762
▁Ra	-11.2763
▁manners	-11.2764
▁9:	-11.2764
▁touches	-11.2777
▁influence	-11.2777
hat	-11.2781
construction	-11.2789
▁reasons	-11.2809
▁directions	-11.2809
▁Ask	-11.2811
ANU	-11.2828
stein	-11.2838
ped	-11.2838
▁map	-11.284
▁recall	-11.2856
▁Stu	-11.286
2022)	-11.2865
blows	-11.287
▁poet	-11.2878
▁beg	-11.29
▁temperature	-11.2903
▁limit	-11.2909
▁beats	-11.2911
▁communist	-11.2913
▁lobster	-11.2916
▁jacket	-11.2917
▁activist	-11.2918
▁GOT	-11.2919
▁investigation	-11.2924
▁restaurant	-11.2924
▁organization	-11.2925
▁climate	-11.2926
▁rocket	-11.293
▁function	-11.2931
▁Night	-11.2932
▁clatter	-11.2933
▁murderer	-11.2944
▁pepper	-11.295
▁habit	-11.2952
▁neighbor	-11.2953
▁ugh	-11.2955
▁cases	-11.2958
.’”	-11.2961
▁Edward	-11.2963
ins	-11.2972
▁unusual	-11.2972
▁RE	-11.2977
▁knot	-11.2978
utting	-11.298
▁Too	-11.298
▁2004	-11.2984
▁needle	-11.2989
▁tale	-11.2993
▁seasons	-11.3009
▁bits	-11.3038
▁success	-11.3044
▁celebrate	-11.3045
▁desire	-11.305
▁sauce	-11.3057
▁environment	-11.3057
▁desperate	-11.3058
¶	-11.3063
▁Abigail	-11.3063
▁Portuguese	-11.3063
▁Taylor	-11.3063
▁religion	-11.3063
▁Lucious	-11.3063
▁scheme	-11.3063
▁zero	-11.3063
▁piano	-11.3063
▁agenda	-11.3063
▁Security	-11.3063
▁awesome	-11.3063
▁Institute	-11.3063
▁Mummy	-11.3063
▁Edith	-11.3063
▁railway	-11.3063
▁marriage	-11.3063
▁industry	-11.3063
▁definitely	-11.3064
▁composed	-11.3064
▁Administration	-11.3064
▁sissy	-11.3064
▁Berlin	-11.3064
▁drank	-11.3064
▁protection	-11.3066
▁Region	-11.3066
▁Jackson	-11.3066
▁carrier	-11.3067
▁research	-11.3067
▁ceased	-11.3067
▁brick	-11.3067
▁reality	-11.3069
▁Dolly	-11.3069
▁eager	-11.3069
▁BOY	-11.307
▁Steven	-11.3071
amp	-11.3071
▁Huh	-11.3073
▁2014)	-11.3074
▁printing	-11.3074
▁leetle	-11.3075
▁Polish	-11.3075
▁buddy	-11.3075
▁anxiety	-11.3076
▁seriously	-11.3076
▁Alice	-11.3078
▁uhuh	-11.3083
▁gained	-11.3084
lic	-11.3085
▁golden	-11.3086
▁HERE	-11.3087
▁fifth	-11.3088
▁apartment	-11.3088
▁packet	-11.3089
▁Ruth	-11.309
▁Law	-11.3091
▁Leave	-11.3093
▁escaped	-11.3094
▁stock	-11.3095
▁wise	-11.3095
▁wherever	-11.3095
▁accepted	-11.3096
▁boom	-11.3097
▁balloons	-11.3097
▁90	-11.31
▁Melbourne	-11.3101
▁electric	-11.3102
▁Helen	-11.3102
▁clicking	-11.311
▁Again	-11.3111
▁expecting	-11.3116
▁forest	-11.3117
▁collect	-11.3117
▁Must	-11.3118
▁Sounds	-11.3122
▁pure	-11.3124
▁Iris	-11.3125
▁seconds	-11.3128
▁overlap	-11.313
▁flies	-11.3132
▁sorrow	-11.3136
▁pot	-11.3136
▁options	-11.3161
▁covers	-11.3161
▁comic	-11.3164
ge	-11.3169
▁Ye	-11.3175
▁surely	-11.3176
▁Hills	-11.3182
tree	-11.3186
▁Car	-11.3191
▁limb	-11.3195
why	-11.3217
ries	-11.322
▁vocalization	-11.3221
ened	-11.3222
▁bearing	-11.3229
▁pins	-11.3236
▁shouts	-11.3237
only	-11.3244
▁ouch	-11.3246
▁referent	-11.325
▁torn	-11.325
▁cock	-11.3259
▁peanuts	-11.3271
▁lodge	-11.3274
▁pointing	-11.3276
▁kin	-11.3284
▁Jer	-11.3284
▁drawer	-11.3285
▁pin	-11.3287
▁1969	-11.3296
▁pencils	-11.3308
▁Ka	-11.332
▁pushe	-11.3326
▁coins	-11.333
▁su	-11.334
▁heap	-11.3345
▁soldiers	-11.3351
flat	-11.3364
▁rag	-11.3368
▁ideas	-11.3373
ological	-11.338
▁belt	-11.3397
ES	-11.3403
office	-11.3406
building	-11.3409
+	-11.3412
▁pigs	-11.3416
▁2018.	-11.3417
▁towns	-11.3418
whispers	-11.3436
▁rare	-11.3443
▁li	-11.3458
▁twin	-11.3466
ah	-11.3473
▁tricks	-11.3473
▁fields	-11.3474
due	-11.3482
▁troubles	-11.3484
▁lord	-11.3496
▁fo	-11.35
0	-11.35
▁discover	-11.3501
▁Free	-11.3502
▁collar	-11.3503
▁fireman	-11.3503
hands	-11.3506
▁charges	-11.3508
come	-11.3509
▁symbol	-11.3509
▁principle	-11.351
▁student	-11.3514
▁Daniel	-11.3517
▁phrase	-11.3524
▁shadow	-11.3543
▁mustn	-11.3559
▁hits	-11.3574
too	-11.3581
▁Yo	-11.359
▁faith	-11.3591
▁15:	-11.3592
▁attract	-11.3595
▁ski	-11.3613
▁1992	-11.3615
▁1980	-11.3619
▁crush	-11.362
▁target	-11.3622
▁Men	-11.3625
▁stones	-11.3628
▁Alex	-11.3632
▁label	-11.3633
▁enormous	-11.3647
▁avoid	-11.3649
▁impatient	-11.3649
▁Catherine	-11.3651
▁Haversham	-11.3651
▁Nintendo	-11.3651
▁Ubisoft	-11.3651
▁YEAH	-11.3651
▁Association	-11.3651
▁Lawrence	-11.3651
▁Tomás	-11.3651
▁Urler	-11.3651
▁Montreal	-11.3651
▁cherries	-11.3651
▁Gowen	-11.3651
▁furnace	-11.3651
▁GOOD	-11.3651
▁Pennsylvania	-11.3651
▁hastily	-11.3651
▁priest	-11.3651
▁arrival	-11.3651
▁duties	-11.3651
▁intense	-11.3651
▁pennies	-11.3652
▁copper	-11.3652
▁Andrade	-11.3652
▁hidden	-11.3653
▁independent	-11.3653
▁cmon	-11.3654
▁Native	-11.3654
▁bushes	-11.3654
▁Julia	-11.3654
▁minor	-11.3654
▁Diane	-11.3655
▁bitterly	-11.3655
▁vanished	-11.3655
▁Mori	-11.3655
▁Wilks	-11.3655
▁HIM	-11.3655
▁Office	-11.3656
▁shelf	-11.3657
▁feeble	-11.3657
▁gravely	-11.3657
▁tool	-11.3658
▁folder	-11.3658
▁Home	-11.3658
▁housing	-11.3659
▁lack	-11.3661
▁normally	-11.3661
▁likes	-11.3663
▁Oregon	-11.3663
▁steady	-11.3664
▁Sheriff	-11.3664
▁genus	-11.3664
▁doorway	-11.3664
▁Congratulations	-11.3664
▁Chamber	-11.3664
▁succeeded	-11.3667
▁Chatter	-11.3671
▁presents	-11.3671
▁complicated	-11.3675
▁Pope	-11.3677
▁Greek	-11.3677
▁pyramid	-11.3677
▁jerk	-11.3678
▁2023	-11.3679
▁cluster	-11.368
▁Cold	-11.3681
▁Castelsarrasin	-11.3682
▁losing	-11.3684
▁chemical	-11.3686
▁Ar	-11.3688
▁pigeons	-11.3689
▁elliot	-11.369
▁sexy	-11.369
▁Josh	-11.3692
▁soap	-11.3694
▁average	-11.3696
▁***	-11.3702
▁removed	-11.3705
▁guests	-11.3707
▁Baby	-11.3708
▁locked	-11.3708
▁dreamed	-11.3708
▁Hear	-11.3719
▁2001	-11.3719
▁languages	-11.3719
▁cutting	-11.3723
wept	-11.3726
five	-11.3732
▁Stacy	-11.3733
▁stretched	-11.3734
▁21:	-11.374
ko	-11.3741
▁pump	-11.3746
▁plac	-11.3755
▁lessons	-11.3758
▁22:	-11.3758
▁1985	-11.3759
▁HER	-11.3765
▁twins	-11.3766
▁silk	-11.3766
▁concentrate	-11.3771
▁harder	-11.3772
▁stamps	-11.3775
▁Air	-11.3777
▁tow	-11.3784
▁estimate	-11.3788
▁powers	-11.3791
▁dive	-11.3798
▁Bay	-11.3798
▁26,	-11.3798
▁None	-11.3798
▁jam	-11.3799
▁6:	-11.38
▁Carry	-11.3801
▁dealing	-11.3804
▁fir	-11.3806
At	-11.3808
▁products	-11.381
onna	-11.3813
▁1925	-11.3814
▁dating	-11.3817
▁theater	-11.3824
▁1940	-11.3825
phone	-11.3847
▁artists	-11.3847
table	-11.385
▁approach	-11.3853
▁sew	-11.3855
▁squirrels	-11.3861
▁whispering	-11.3877
▁whip	-11.388
▁burnt	-11.3883
▁bu	-11.3886
▁Post	-11.389
ham	-11.389
▁sales	-11.3891
▁effects	-11.3897
▁patients	-11.3905
▁Cook	-11.3915
▁fan	-11.3926
▁hop	-11.3927
▁Holly	-11.3932
▁Zoo	-11.3936
▁bold	-11.394
sous	-11.3947
▁contain	-11.395
▁affairs	-11.3958
▁stays	-11.3959
LY	-11.3963
▁boo	-11.3965
ut	-11.3971
▁lick	-11.3973
find	-11.3976
▁drum	-11.3979
Bro	-11.3995
▁IV	-11.4012
▁17:	-11.4016
picture	-11.4017
▁bags	-11.4021
buzzing	-11.4026
sits	-11.4026
▁14:	-11.403
objects	-11.4037
Poor	-11.4044
ably	-11.4052
By	-11.4052
waves	-11.4061
designat	-11.4063
did	-11.4065
▁snakes	-11.4066
▁2012.	-11.4067
▁beep	-11.4068
▁Ro	-11.4069
▁keys	-11.4079
over	-11.4098
▁ages	-11.4105
▁connection	-11.4114
▁Hope	-11.4119
▁saucer	-11.4123
▁Va	-11.4125
wait	-11.4127
▁Reservoir	-11.4129
▁photo	-11.4129
▁Simpson	-11.4133
arms	-11.4138
place	-11.4141
▁spark	-11.4148
▁signal	-11.4149
▁contract	-11.415
▁dollar	-11.4157
▁monkeys	-11.4157
▁collection	-11.4158
tally	-11.4162
▁giant	-11.4165
▁handed	-11.4174
▁comment	-11.4191
For	-11.4192
▁200	-11.4194
▁CO	-11.4195
▁shine	-11.42
▁Les	-11.4204
three	-11.4205
▁1967	-11.4209
▁cough	-11.421
hey	-11.4213
▁mount	-11.4216
▁wo	-11.4227
mother	-11.4229
▁gon	-11.4235
▁borrow	-11.4247
▁1982	-11.4248
▁Hawk	-11.426
▁Africa	-11.4261
ri	-11.4262
▁ta	-11.4264
▁races	-11.4264
▁zoo	-11.4264
▁Alexand	-11.4269
▁settle	-11.4269
▁Upp	-11.427
▁peculiar	-11.4271
▁constant	-11.4272
▁Hill	-11.4272
▁humble	-11.4273
▁temper	-11.4273
▁Absolutely	-11.4276
▁Apparently	-11.4276
▁Between	-11.4276
▁Lieutenant	-11.4276
▁Phoenix	-11.4276
▁Tuesday	-11.4276
▁trousers	-11.4276
▁Goddard	-11.4276
▁Jersey	-11.4276
▁Alaska	-11.4276
▁Bambi	-11.4276
▁Miami	-11.4276
▁Municipality	-11.4276
▁escort	-11.4276
▁entrance	-11.4276
▁sailboat	-11.4276
▁Division	-11.4276
▁tadah	-11.4276
▁COX	-11.4276
▁dainty	-11.4276
▁impeachment	-11.4276
▁opposition	-11.4276
▁lonely	-11.4276
▁false	-11.4276
▁possession	-11.4276
▁idiot	-11.4276
▁byebye	-11.4276
▁confirm	-11.4276
▁heavily	-11.4276
▁Thanksgiving	-11.4277
▁forehead	-11.4277
▁potty	-11.4277
▁awkward	-11.4277
▁pursuit	-11.4277
▁insane	-11.4277
▁Sanders	-11.4277
▁emergency	-11.4277
▁Buddy	-11.4277
▁FBI	-11.4278
▁tummy	-11.4278
▁Instead	-11.4278
▁Manning	-11.4278
▁Therefore	-11.4278
▁quality	-11.4278
▁feast	-11.4279
▁objection	-11.4279
▁friendship	-11.4279
▁Rider	-11.4279
▁WHO	-11.4279
▁occurred	-11.4279
▁COME	-11.428
▁Food	-11.428
▁Close	-11.428
▁Also	-11.428
▁directly	-11.4281
▁Later	-11.4281
▁commenced	-11.4282
▁increasing	-11.4282
▁severe	-11.4283
▁boiling	-11.4283
▁admitted	-11.4285
ot	-11.4285
Jorat	-11.4285
were	-11.4286
▁anxiously	-11.4286
▁patiently	-11.4287
▁begun	-11.4287
▁pardon	-11.4288
▁satisfaction	-11.4289
▁sharply	-11.4289
▁1952	-11.4289
▁Brutus	-11.4289
▁Evans	-11.4289
▁Except	-11.4289
▁available	-11.4289
▁described	-11.429
27	-11.429
▁Five	-11.429
▁responsible	-11.4291
▁Alfred	-11.4291
▁southeast	-11.4291
▁Ok	-11.4291
▁mood	-11.4292
▁useta	-11.4293
▁deeply	-11.4293
▁voluntary	-11.4295
▁Rocky	-11.4295
▁hopping	-11.4297
▁Australian	-11.4299
▁castle	-11.43
▁agreement	-11.4301
▁whoever	-11.4302
▁familiar	-11.4303
▁Finally	-11.4306
▁Lock	-11.4307
▁connected	-11.4308
▁towel	-11.4309
▁bitter	-11.4312
▁stiff	-11.4312
▁proved	-11.4312
▁MAKE	-11.4313
lia	-11.4316
▁george	-11.4318
▁wiggle	-11.4318
▁Union	-11.4318
▁walks	-11.4319
▁Women	-11.432
▁shock	-11.4322
▁produce	-11.4322
▁apply	-11.4323
▁raining	-11.4324
26	-11.4324
▁speakers	-11.4324
▁Rio	-11.4325
▁Around	-11.4328
▁Such	-11.4328
▁tearing	-11.433
▁melt	-11.433
▁11:	-11.4332
▁ble	-11.4334
▁plus	-11.4338
ery	-11.4341
ou	-11.4342
▁Dana	-11.4344
▁danced	-11.4355
▁soda	-11.4355
▁scientists	-11.4362
▁pau	-11.4372
boy	-11.4374
occupied	-11.4381
taking	-11.4381
▁Wild	-11.4388
▁Mis	-11.4391
▁rescue	-11.4394
▁haha	-11.4397
▁staring	-11.4402
▁1988	-11.4404
▁needn	-11.4406
▁Girls	-11.441
'...	-11.4415
▁tin	-11.4419
▁Want	-11.442
▁Per	-11.4421
▁neighbors	-11.4424
cy	-11.4425
▁facts	-11.4435
▁troubled	-11.4435
▁Ch	-11.4437
▁1996	-11.4442
▁imitate	-11.4443
▁killer	-11.4443
▁$10	-11.4445
▁minds	-11.4446
▁straighten	-11.4449
▁drain	-11.4456
▁Ex	-11.4459
▁Pop	-11.446
▁Grant	-11.4465
iest	-11.4471
▁persons	-11.4477
▁trap	-11.4478
▁Nico	-11.448
▁Brown	-11.4482
▁remains	-11.4485
▁articles	-11.4487
▁hundreds	-11.4488
▁AH	-11.449
eyres	-11.4493
▁socks	-11.4493
▁talkin	-11.4498
▁emotion	-11.4501
▁Boss	-11.451
▁Sea	-11.4516
▁Carl	-11.4517
▁prime	-11.4523
oops	-11.4524
▁useless	-11.4527
▁affix	-11.4527
▁hev	-11.4529
▁Cat	-11.4529
▁raid	-11.4529
▁tend	-11.4533
yo	-11.4534
ated	-11.4535
▁Ford	-11.4539
▁DREAM	-11.4555
▁coloring	-11.4556
▁dang	-11.4558
▁cop	-11.456
pointed	-11.4563
▁Yet	-11.4567
EX	-11.4568
▁owe	-11.4576
▁earn	-11.4576
▁dim	-11.4586
▁Ou	-11.4592
ism	-11.4597
▁Lo	-11.4603
echo	-11.4605
ors	-11.4607
▁ours	-11.4615
pushe	-11.4618
18	-11.462
▁steel	-11.4621
Okay	-11.4622
▁peep	-11.4628
BW	-11.4638
mato	-11.464
▁waves	-11.464
▁movements	-11.4657
▁60	-11.4662
▁costs	-11.4664
▁cute	-11.4665
▁[9	-11.4673
▁fuel	-11.4679
After	-11.468
▁bo	-11.4687
March	-11.4688
▁upright	-11.4688
making	-11.4688
FRE	-11.469
fashioned	-11.4693
DOOR	-11.4695
▁ward	-11.4695
▁crap	-11.47
trochee	-11.4709
Tell	-11.471
As	-11.472
▁Aren	-11.4723
bones	-11.4726
▁lean	-11.4728
other	-11.4729
residential	-11.4738
pressed	-11.4739
▁10:	-11.4741
▁fail	-11.4745
▁woo	-11.4749
▁Francis	-11.4755
▁hopes	-11.4758
▁deserve	-11.4759
▁Van	-11.4778
▁Apple	-11.4781
▁scream	-11.4783
▁bein	-11.4788
▁bolt	-11.4788
▁handkerchief	-11.479
▁dungaree	-11.479
▁Lyon	-11.4792
▁ou	-11.4794
▁multi	-11.4794
▁blind	-11.4797
▁op	-11.4798
▁Darling	-11.4798
▁parcel	-11.4799
riding	-11.48
▁curtain	-11.4801
▁custom	-11.4804
▁estate	-11.4805
▁30,	-11.4805
▁novel	-11.4811
▁shout	-11.4811
ga	-11.4815
▁procession	-11.4815
would	-11.4817
▁visitor	-11.4822
ew	-11.4823
▁holiday	-11.4834
▁nurs	-11.4841
▁EXPs	-11.4841
▁cone	-11.4842
ó	-11.4853
▁painting	-11.4857
▁Brun	-11.4864
any	-11.4865
▁attacks	-11.4894
▁sayin	-11.4894
▁12:	-11.4898
even	-11.4898
▁sometime	-11.4899
▁disappear	-11.4913
▁Royal	-11.4914
▁chew	-11.4918
▁1933	-11.4928
▁Asia	-11.4931
▁Fig	-11.4932
▁jealous	-11.4932
▁Wonder	-11.4937
▁generous	-11.4938
▁painful	-11.4939
▁thousands	-11.494
▁mornin	-11.4942
▁scrub	-11.4943
kokowk	-11.4943
▁Audrey	-11.4943
▁Detroit	-11.4943
▁Katherine	-11.4943
▁VALENTINE	-11.4943
▁fancied	-11.4943
▁gorgeous	-11.4943
▁sorcerers	-11.4943
▁Odawa	-11.4943
▁innocent	-11.4943
▁gesture	-11.4943
▁underneath	-11.4943
▁Amanda	-11.4943
▁Utah	-11.4943
▁Biography	-11.4943
▁Bishop	-11.4943
▁Greensburg	-11.4943
▁regret	-11.4943
▁warrant	-11.4943
▁Ginny	-11.4943
▁disposable	-11.4943
▁teapot	-11.4943
▁Huck	-11.4943
Vully	-11.4943
▁Poppy	-11.4943
▁Plains	-11.4943
▁burden	-11.4943
▁contrast	-11.4943
▁Evelyn	-11.4943
▁yell	-11.4943
▁Francisco	-11.4943
▁determined	-11.4943
▁Lewis	-11.4943
▁glory	-11.4943
▁cunning	-11.4944
▁Feast	-11.4944
▁salesman	-11.4944
▁straw	-11.4944
▁sp	-11.4944
▁rooster	-11.4944
▁earnestly	-11.4944
▁fortnight	-11.4944
▁throne	-11.4945
▁refrigerator	-11.4945
▁dragged	-11.4945
▁agony	-11.4945
▁sweetie	-11.4945
▁Juan	-11.4946
▁established	-11.4947
▁billion	-11.4947
▁obtain	-11.4947
▁devil	-11.4948
▁plunged	-11.4948
▁autumn	-11.4948
▁sittin	-11.4948
▁attorney	-11.4948
▁treason	-11.4948
▁dreadfully	-11.4949
▁scramble	-11.495
▁NEW	-11.495
▁cultural	-11.4952
▁happiness	-11.4953
▁helpless	-11.4954
▁attitude	-11.4955
head	-11.4955
▁ethnic	-11.4956
▁eeat	-11.4956
▁1936	-11.4956
▁illegal	-11.4957
▁Orleans	-11.4957
▁medical	-11.4957
▁yummy	-11.4957
▁valley	-11.4957
▁toilet	-11.4958
▁fussy	-11.4959
▁punch	-11.4959
▁calf	-11.4959
▁arrange	-11.4961
▁Carly	-11.4961
▁Sky	-11.4962
▁stolen	-11.4962
▁mike	-11.4962
▁gallop	-11.4963
▁indicated	-11.4967
ged	-11.4968
▁provided	-11.4968
▁SIS	-11.4968
▁solve	-11.497
▁cocoa	-11.4972
▁Michigan	-11.4972
boards	-11.4975
▁Story	-11.4975
▁starred	-11.4979
▁1979	-11.4983
▁difficulty	-11.4983
▁faster	-11.4984
▁keen	-11.4985
▁cart	-11.4987
▁companion	-11.4996
▁proof	-11.4997
▁clasp	-11.4997
about	-11.4998
▁axe	-11.4999
▁34	-11.5002
▁complaints	-11.5005
▁whee	-11.5012
▁curl	-11.5014
▁lands	-11.5014
▁Clear	-11.5014
▁36	-11.5014
▁portion	-11.5016
Me	-11.5016
▁advise	-11.5017
▁vi	-11.5017
▁kit	-11.5018
▁brakes	-11.5019
▁glue	-11.5019
▁presented	-11.5022
▁ONE	-11.503
▁beating	-11.503
▁coward	-11.5032
lly	-11.5033
oop	-11.5036
▁Blood	-11.5039
▁Tri	-11.5043
▁Commons	-11.5043
▁passengers	-11.5044
▁Uni	-11.5048
nt	-11.5049
▁masks	-11.505
▁fractures	-11.5051
▁Ab	-11.506
▁charged	-11.5062
▁Feb	-11.5068
▁worn	-11.5073
▁chin	-11.5073
magnets	-11.5075
▁acted	-11.5078
▁theory	-11.5089
MT	-11.509
▁covering	-11.5091
▁sta	-11.5092
▁bay	-11.5095
▁Short	-11.5103
tell	-11.5103
▁spin	-11.511
▁del	-11.5112
▁interrupt	-11.5121
ai	-11.5121
▁features	-11.5132
▁occur	-11.515
OUR	-11.5151
▁cubes	-11.5155
▁bee	-11.5166
▁Rose	-11.517
ward	-11.5176
▁insist	-11.5177
▁Has	-11.5179
▁7:	-11.518
▁weapons	-11.5187
▁En	-11.5192
Z	-11.5193
▁1962	-11.5194
▁Page	-11.5197
▁Had	-11.5205
▁lighted	-11.5228
▁lab	-11.5228
tail	-11.5231
uses	-11.5239
Or	-11.5253
ank	-11.5256
▁items	-11.5258
LE	-11.5259
▁elephants	-11.5273
▁Cor	-11.5283
tion	-11.5289
▁chill	-11.5297
▁Un	-11.5299
▁rank	-11.5302
yard	-11.5314
han	-11.5316
ARCH	-11.5316
life	-11.5331
▁Ba	-11.5335
SI	-11.5344
▁glow	-11.5349
▁officials	-11.5354
21	-11.5358
ver	-11.536
known	-11.5372
▁remark	-11.5375
▁laughs	-11.538
short	-11.538
CON	-11.5388
▁asks	-11.5393
foot	-11.5395
unclear	-11.5402
August	-11.5404
June	-11.5408
").	-11.5408
ned	-11.5411
▁causes	-11.5412
▁Ri	-11.5413
pretend	-11.5417
Dear	-11.5419
mumbles	-11.5424
whispering	-11.5424
▁JAN	-11.5427
▁receive	-11.5431
▁cries	-11.5433
stack	-11.5434
▁seek	-11.5434
screams	-11.5438
▁1968	-11.5441
▁mere	-11.5451
▁shops	-11.5453
li	-11.5453
look	-11.5458
▁4:	-11.5458
hn	-11.5469
▁Ta	-11.5469
▁print	-11.547
▁Paula	-11.5474
ties	-11.5478
ik	-11.5484
▁rolls	-11.5486
▁caus	-11.5487
▁semi	-11.5489
▁chairs	-11.5489
▁1941	-11.5492
▁competition	-11.5493
lift	-11.5494
gging	-11.5494
Isn	-11.5495
▁creation	-11.5497
▁blossom	-11.5497
▁19,	-11.5499
▁user	-11.5505
▁Grande	-11.5506
▁ocean	-11.551
▁stamp	-11.5511
▁method	-11.5513
▁chick	-11.5513
▁Officer	-11.5514
▁snack	-11.5514
▁league	-11.5515
▁Marble	-11.5515
▁Thatcher	-11.5515
▁adult	-11.5516
▁sleeve	-11.5518
▁display	-11.5522
▁operation	-11.5528
▁lions	-11.553
▁savage	-11.5533
▁lamp	-11.5537
▁Girl	-11.5538
▁whale	-11.5542
▁jet	-11.5544
▁Star	-11.5546
▁chart	-11.5556
▁sniff	-11.5556
▁prepar	-11.5566
▁suspect	-11.557
▁practise	-11.5572
Get	-11.5575
▁robe	-11.5578
▁Lauren	-11.5578
▁mum	-11.5582
owned	-11.5587
▁despair	-11.5591
▁Fe	-11.5594
▁stable	-11.5599
▁barrel	-11.5602
▁slave	-11.5612
▁Four	-11.5617
▁Soon	-11.5623
▁comb	-11.5631
ler	-11.5633
▁Might	-11.5633
▁inch	-11.5634
▁achieve	-11.5635
▁citizen	-11.5637
▁EX	-11.5642
▁relax	-11.5642
sticks	-11.5645
far	-11.5646
▁clam	-11.5646
▁1955	-11.565
frigerator	-11.5655
▁confused	-11.5656
(192,220)}	-11.5657
▁Audubon	-11.5657
▁Emperor	-11.5657
▁Labeija	-11.5657
▁chimney	-11.5657
▁equipment	-11.5657
▁nuuw	-11.5657
▁sufficient	-11.5657
▁Ninja	-11.5657
▁fantastic	-11.5657
▁screwdriver	-11.5657
▁matron	-11.5657
▁Virginia	-11.5657
▁eventually	-11.5657
▁Dakota	-11.5657
▁uncomfortable	-11.5657
▁Conference	-11.5657
▁Elliot	-11.5657
▁Josie	-11.5657
▁farewell	-11.5657
▁favourite	-11.5657
▁ninight	-11.5657
▁chalk	-11.5657
▁permission	-11.5657
▁Country	-11.5657
▁distribution	-11.5657
▁description	-11.5657
▁naughty	-11.5657
▁Executive	-11.5657
▁suspended	-11.5657
▁Nanna	-11.5657
▁Summer	-11.5657
▁graham	-11.5658
▁Fester	-11.5658
▁Grandma	-11.5658
▁wheelchair	-11.5658
▁Price	-11.5658
▁manufacturer	-11.5658
▁estimator	-11.5658
▁Zach	-11.5658
▁Federal	-11.5658
▁Blackie	-11.5658
▁meekly	-11.5658
▁recognise	-11.5658
▁thankful	-11.5658
▁Chairman	-11.5659
▁Slam	-11.5659
▁2011.	-11.5659
▁Always	-11.5659
▁Debby	-11.5659
——"	-11.5659
▁diary	-11.5659
▁sweater	-11.566
▁Hurst	-11.566
▁hesitated	-11.5661
▁Anderson	-11.5661
▁madam	-11.5661
▁flushed	-11.5661
▁solid	-11.5662
▁Tack	-11.5663
▁swiftly	-11.5663
▁chasing	-11.5663
▁organized	-11.5664
▁granted	-11.5664
▁Marshall	-11.5664
▁Back	-11.5664
▁tightly	-11.5664
▁Anish	-11.5664
▁nation	-11.5667
field	-11.5669
▁sewing	-11.5669
makes	-11.5669
▁2016.	-11.5669
▁wretched	-11.567
▁chose	-11.567
▁screen	-11.567
▁Columbia	-11.5671
▁valuable	-11.5671
▁Czech	-11.5671
▁Navy	-11.5671
▁Reficul	-11.5671
▁Potato	-11.5672
▁Zack	-11.5672
▁schedule	-11.5672
▁Kato	-11.5672
▁visible	-11.5673
▁compass	-11.5673
▁1927	-11.5674
▁steadily	-11.5675
▁Records	-11.5675
▁mos	-11.5675
▁Secrets	-11.5676
▁Carrie	-11.5677
▁Ella	-11.5678
▁proudly	-11.5679
▁Sr	-11.5679
▁stealing	-11.568
▁Shelly	-11.568
▁tick	-11.5682
▁Working	-11.5683
▁numero	-11.5684
▁immigrants	-11.5684
▁quicker	-11.5685
▁WILL	-11.5687
▁Brenda	-11.5687
▁begged	-11.5689
▁Cry	-11.5689
▁Julius	-11.5689
▁sought	-11.5691
▁arose	-11.5693
chi	-11.5693
could	-11.5695
▁tenor	-11.5702
▁leather	-11.5702
got	-11.5703
▁punk	-11.5704
▁Princess	-11.5704
▁stockings	-11.5704
▁skating	-11.5705
▁5:	-11.5708
▁worthy	-11.571
▁DOG	-11.5713
▁photographs	-11.5713
▁mobile	-11.5715
▁explained	-11.5719
▁Music	-11.572
plays	-11.572
▁Rowdy	-11.5722
▁Yoma	-11.5724
▁alike	-11.573
▁criminal	-11.5732
▁Marine	-11.5732
▁Mountains	-11.5735
work	-11.5735
▁visited	-11.5739
▁Games	-11.574
▁debut	-11.5743
▁depends	-11.5744
▁feared	-11.5748
▁lend	-11.5752
ons	-11.5756
▁1981	-11.576
▁neighbours	-11.5764
▁disc	-11.577
▁checker	-11.5772
▁affect	-11.5777
_,	-11.5782
az	-11.5789
▁seeds	-11.5792
▁nicely	-11.5794
▁worker	-11.5796
▁cal	-11.5801
▁trace	-11.5803
oz	-11.5805
eyed	-11.5812
▁com	-11.5815
tting	-11.5818
▁Amy	-11.5823
ping	-11.5825
▁follows	-11.5837
00	-11.5848
▁customers	-11.5849
▁coast	-11.5849
▁islands	-11.5852
▁Warn	-11.5854
▁barrels	-11.5862
aseball	-11.5862
▁Swi	-11.5865
▁fights	-11.5866
▁tickets	-11.5866
▁nails	-11.5873
▁Rome	-11.5875
refer	-11.588
▁pools	-11.5908
▁resting	-11.5909
▁1939	-11.5913
▁2015.	-11.5913
▁trained	-11.5918
▁pans	-11.5925
▁rear	-11.5933
▁AM	-11.5948
ni	-11.5948
New	-11.595
▁1.6	-11.5976
▁meals	-11.5988
▁puff	-11.6002
▁bat	-11.6003
▁12,	-11.6021
▁messages	-11.6022
▁GO	-11.6026
committee	-11.6027
clunk	-11.6038
▁Ze	-11.6039
▁Tha	-11.6052
ington	-11.6056
▁eats	-11.6063
Paul	-11.6066
▁2:	-11.6066
▁cant	-11.6067
▁gradual	-11.6072
▁hid	-11.6077
▁Nations	-11.6079
nything	-11.6079
▁Kun	-11.609
ever	-11.6091
hums	-11.6094
▁SEE	-11.6109
▁strip	-11.6135
ich	-11.6141
▁stroke	-11.6147
▁Pu	-11.6147
July	-11.6149
rges	-11.6165
large	-11.6172
Page	-11.6175
Gabbar	-11.6181
working	-11.6183
50	-11.6185
▁neuro	-11.6186
▁Che	-11.6188
boiled	-11.6192
drawing	-11.6192
▁[5.	-11.6218
▁doo	-11.622
▁promote	-11.6229
▁swan	-11.6232
▁favour	-11.6232
tty	-11.6242
handed	-11.6255
▁nightmare	-11.6262
▁perfume	-11.6262
▁Wel	-11.6262
Note	-11.6268
▁Province	-11.6269
▁exist	-11.627
▁wards	-11.6271
▁combination	-11.6272
▁Play	-11.6278
▁passion	-11.6282
▁constable	-11.6284
dopted	-11.6284
Didn	-11.6287
▁candle	-11.6287
▁device	-11.6287
▁tent	-11.6287
▁episode	-11.6289
▁vegetable	-11.6289
▁option	-11.6293
▁sample	-11.6293
▁cheek	-11.6294
▁hind	-11.6294
▁engineer	-11.6295
▁elbow	-11.6297
ul	-11.6298
▁poem	-11.6299
▁Pr	-11.63
▁backward	-11.6301
reads	-11.6302
▁parent	-11.6303
▁musician	-11.6304
▁southwest	-11.6304
IN	-11.6305
▁economic	-11.6306
▁Greg	-11.6311
lung	-11.6312
▁Tree	-11.6317
▁whoop	-11.6318
▁load	-11.6319
▁lesson	-11.633
▁liar	-11.6332
▁300	-11.6332
▁Pen	-11.6357
▁dreaming	-11.6365
▁root	-11.6369
▁cent	-11.6372
▁[8	-11.6373
▁broadcast	-11.6375
▁kinda	-11.6377
▁agin	-11.6385
▁lemm	-11.6392
▁Pro	-11.6394
▁1942	-11.6395
▁primar	-11.6404
appen	-11.6406
▁visits	-11.6407
▁describe	-11.6411
▁distress	-11.6414
▁brilliant	-11.6421
▁THANK	-11.6422
▁furious	-11.6422
▁Know	-11.6422
▁recent	-11.6423
▁Arthur	-11.6426
▁CHRIST	-11.6426
▁Colorado	-11.6426
▁Detective	-11.6426
▁Rafael	-11.6426
▁Territory	-11.6426
▁Wichita	-11.6426
▁Zealand	-11.6426
▁allergic	-11.6426
▁essential	-11.6426
▁porridge	-11.6426
▁tremendous	-11.6426
▁Fairmount	-11.6426
▁Medicine	-11.6426
▁Stokke	-11.6426
▁terrific	-11.6426
▁Company	-11.6426
▁Essert	-11.6426
▁Oxfordshire	-11.6426
▁moomilk	-11.6426
▁pronunciation	-11.6426
▁Madrid	-11.6426
▁potential	-11.6426
Lightspeed	-11.6426
▁Toyama	-11.6426
▁innkeeper	-11.6426
▁animated	-11.6426
▁grinned	-11.6426
▁Brandy	-11.6426
▁executive	-11.6426
▁french	-11.6426
▁Premier	-11.6426
▁diagnos	-11.6426
▁OVER	-11.6426
▁cloak	-11.6426
▁Thirty	-11.6426
▁entertainment	-11.6426
▁Flupper	-11.6426
▁hamster	-11.6426
▁triumph	-11.6426
▁Chicken	-11.6426
▁radiator	-11.6426
▁wolf	-11.6426
▁vacation	-11.6426
▁Assembly	-11.6426
▁Adrian	-11.6427
▁fantasy	-11.6427
▁security	-11.6427
▁1973	-11.6427
▁Ready	-11.6427
▁Horse	-11.6427
▁palace	-11.6427
▁ketchup	-11.6427
▁ARROWS	-11.6427
▁supply	-11.6427
▁chemistry	-11.6427
▁childhood	-11.6427
▁Kix	-11.6427
▁tragedy	-11.6427
▁grandson	-11.6427
▁BACK	-11.6427
▁cattle	-11.6427
▁hostage	-11.6428
▁twist	-11.6428
▁Mabel	-11.6428
▁dairy	-11.6428
▁belief	-11.6428
▁Radio	-11.6428
▁mustache	-11.6428
▁Knowles	-11.6428
▁recommendation	-11.6428
▁gleam	-11.6429
▁sidewalk	-11.6429
▁choking	-11.6429
▁runaway	-11.6429
▁politely	-11.6429
Pretty	-11.643
▁tanker	-11.643
▁popped	-11.6431
▁annoyed	-11.6431
▁saddle	-11.6431
▁dismay	-11.6432
▁expert	-11.6432
▁Morning	-11.6432
▁Theatre	-11.6432
▁maze	-11.6432
▁brass	-11.6432
▁factory	-11.6432
▁combat	-11.6432
▁alma	-11.6433
▁curiously	-11.6433
▁proceeded	-11.6433
▁SOME	-11.6433
▁buffaloes	-11.6434
▁thoughtfully	-11.6434
▁Member	-11.6434
name	-11.6436
▁honestly	-11.6436
▁reflected	-11.6436
▁dragon	-11.6437
▁Maine	-11.6437
▁mumbled	-11.6438
▁Euro	-11.6438
▁charming	-11.6438
▁1928	-11.6439
▁coke	-11.6439
▁induced	-11.644
ruz	-11.6441
▁LIFE	-11.6441
▁nearby	-11.6441
▁chowder	-11.6441
▁Lincoln	-11.6441
▁Plus	-11.6442
▁microwave	-11.6442
▁Director	-11.6442
▁Patty	-11.6442
▁behalf	-11.6442
▁fridge	-11.6442
▁evidently	-11.6442
▁Unless	-11.6442
▁Battle	-11.6443
▁Somebody	-11.6443
▁mailman	-11.6443
▁secretly	-11.6445
▁Harris	-11.6446
▁shaking	-11.6446
▁happily	-11.6447
▁jingle	-11.6449
▁1929	-11.645
▁safely	-11.6451
▁cancel	-11.6451
▁Ney	-11.6452
▁speaks	-11.6453
▁Alma	-11.6453
▁sofa	-11.6453
▁Gay	-11.6453
▁responded	-11.6455
▁haul	-11.6455
▁[4.5	-11.6456
▁Order	-11.6457
▁Davis	-11.6457
▁sail	-11.6458
▁Bach	-11.6459
Cie	-11.646
▁Senator	-11.646
▁Orange	-11.6461
▁educated	-11.6462
▁hunted	-11.6462
▁fits	-11.6465
▁robins	-11.6466
▁Lou	-11.6468
▁sink	-11.6473
▁honored	-11.6474
▁longest	-11.6476
▁?[	-11.6476
▁nickel	-11.6478
▁wishes	-11.6478
▁nonsense	-11.6479
▁oak	-11.6479
▁Weather	-11.6481
ding	-11.6483
▁Cross	-11.6484
▁kicked	-11.6485
▁Joey	-11.6485
▁Services	-11.6488
chair	-11.6488
top	-11.6489
▁booth	-11.649
▁burp	-11.6497
nnual	-11.6498
▁administrati	-11.65
▁sneak	-11.6503
ohyl	-11.6507
▁faithful	-11.6508
▁Tick	-11.6513
▁tide	-11.6515
▁bishop	-11.6516
▁terrorists	-11.6523
▁closing	-11.6523
▁mouse	-11.6523
▁claimed	-11.6523
▁accus	-11.6525
▁74	-11.6528
piece	-11.653
yes	-11.6533
▁princess	-11.6533
▁pack	-11.6535
▁brains	-11.6536
▁1995.	-11.6539
▁II	-11.6539
▁Neil	-11.654
▁clouds	-11.6542
▁pea	-11.6544
▁prayers	-11.6545
▁weigh	-11.6545
▁Hu	-11.6546
▁rat	-11.6555
▁Arts	-11.6559
▁Bes	-11.656
▁poems	-11.6563
▁dressing	-11.6566
▁cared	-11.6569
▁Environment	-11.6575
▁savages	-11.6578
▁awhile	-11.6579
▁stoop	-11.6582
▁1974	-11.6582
▁economics	-11.6583
▁creat	-11.6589
▁traces	-11.6592
▁watches	-11.6592
▁dropp	-11.6608
▁knocking	-11.661
▁1964	-11.6616
rès	-11.6617
▁nests	-11.6624
▁prop	-11.6637
▁rats	-11.6638
▁port	-11.6641
▁markers	-11.6643
▁counting	-11.665
star	-11.6651
word	-11.6652
▁Mac	-11.6663
▁bomb	-11.6665
▁mild	-11.6666
▁Forge	-11.6672
▁1998	-11.6675
▁teachers	-11.6686
▁1.8	-11.6689
▁ghosts	-11.6708
fully	-11.6709
▁dime	-11.6711
Yeah	-11.6714
▁web	-11.6717
FA	-11.6726
▁Kame	-11.6728
THE	-11.6734
▁nicer	-11.6735
▁flock	-11.6741
▁longing	-11.6751
lapping	-11.6751
ook	-11.6754
▁MA	-11.6759
▁quarrel	-11.6776
▁era	-11.6783
▁logs	-11.6786
▁pies	-11.6795
▁stops	-11.6795
▁sole	-11.6799
▁borders	-11.6806
▁[3.	-11.681
ran	-11.6811
▁referee	-11.6819
▁Bur	-11.6822
ox	-11.6833
IVE	-11.6839
▁guessing	-11.684
▁ships	-11.6843
▁35	-11.6851
’”	-11.6852
lt	-11.6858
distributed	-11.6865
▁anger	-11.6883
▁INV	-11.6884
▁GON	-11.6887
Fraser	-11.689
▁Revolution	-11.6894
▁cord	-11.6897
▁hug	-11.69
▁Gar	-11.6901
then	-11.6904
self	-11.6905
inspired	-11.6913
▁mis	-11.6915
▁waters	-11.6926
▁forms	-11.6929
hearted	-11.6942
sound	-11.6951
fast	-11.6955
houses	-11.6958
▁appointment	-11.6961
der	-11.6971
▁lasted	-11.6971
▁net	-11.6983
▁disagree	-11.6983
au	-11.6984
April	-11.6986
With	-11.6989
▁sin	-11.6991
▁kilo	-11.6995
▁Juliet	-11.6997
▁daughters	-11.7015
storm	-11.7018
▁1966	-11.7019
Some	-11.702
Indeed	-11.7023
orange	-11.7026
interrupted	-11.7028
▁$1.	-11.7031
▁fever	-11.7037
speaking	-11.7044
ational	-11.7048
▁ache	-11.7055
trying	-11.7071
fish	-11.7077
oo	-11.7078
ied	-11.7084
▁column	-11.7092
▁exclamation	-11.7094
▁signature	-11.7094
▁summit	-11.7097
(	-11.7098
▁request	-11.7105
▁location	-11.7106
▁laig	-11.7106
sylum	-11.7109
▁oblast	-11.711
▁compliment	-11.7111
▁1978	-11.7114
▁settlement	-11.7114
▁champion	-11.7115
▁Tonsil	-11.7116
▁Arm	-11.7119
▁Economic	-11.7119
▁Science	-11.7119
▁rul	-11.7121
▁relation	-11.7122
▁Olympic	-11.7122
▁organisation	-11.7123
▁37	-11.7129
▁Nazi	-11.713
MAS	-11.713
shows	-11.713
ger	-11.7131
▁instrument	-11.7132
▁rustle	-11.7141
▁witness	-11.7144
▁Cole	-11.7145
▁file	-11.7147
town	-11.7165
▁Use	-11.7172
▁fracture	-11.7173
▁Han	-11.7176
camera	-11.718
▁engage	-11.7182
▁stranger	-11.7183
▁trains	-11.719
▁2009.	-11.7192
▁Leader	-11.7205
▁develop	-11.7205
starts	-11.7206
La	-11.721
▁swam	-11.7212
ill	-11.7217
▁horizon	-11.7227
▁preferr	-11.7232
▁Sub	-11.7236
▁investigate	-11.7238
▁steam	-11.7242
▁1977	-11.725
▁introduce	-11.7251
▁groan	-11.7253
▁Goumo	-11.7253
▁mattress	-11.7254
▁mysterious	-11.7255
▁crutch	-11.7255
▁noon	-11.7255
ensity	-11.7255
▁dig	-11.7257
▁transfer	-11.7258
▁Alzheimer	-11.7259
▁Gentlemen	-11.7259
▁Xtravaganza	-11.7259
SIGHS	-11.7259
▁Aldithely	-11.7259
▁Amsterdam	-11.7259
▁Arapaho	-11.7259
▁Arizona	-11.7259
▁Bangladesh	-11.7259
▁Correvon	-11.7259
▁Coventry	-11.7259
▁Cummings	-11.7259
▁Dartmoor	-11.7259
▁Denezy	-11.7259
▁Festival	-11.7259
▁Hamilton	-11.7259
▁Leipzig	-11.7259
▁Martherenges	-11.7259
▁Moscow	-11.7259
▁Nikki	-11.7259
▁Peruvian	-11.7259
▁PlayStation	-11.7259
▁SFWA	-11.7259
▁Suddenly	-11.7259
▁angrily	-11.7259
▁magnificent	-11.7259
▁sensible	-11.7259
▁syrup	-11.7259
▁territory	-11.7259
▁variety	-11.7259
pollution	-11.7259
▁Chanéaz	-11.7259
▁Montanaire	-11.7259
▁Eminence	-11.7259
▁SOMETHING	-11.7259
▁Channel	-11.7259
▁Corporation	-11.7259
▁Safety	-11.7259
▁precious	-11.726
▁yacht	-11.726
▁CAT	-11.726
▁leisure	-11.726
▁Twenty	-11.726
▁nipple	-11.726
▁confidence	-11.726
▁consciousness	-11.726
▁popcorn	-11.726
▁punishment	-11.726
▁Nagata	-11.726
▁salary	-11.726
▁Semple	-11.726
▁1983	-11.726
▁Edgar	-11.726
▁surgery	-11.726
▁legendary	-11.726
▁Nadine	-11.726
▁appetite	-11.726
▁resignation	-11.726
▁Harvey	-11.726
▁denied	-11.726
▁require	-11.726
▁territories	-11.726
▁Norway	-11.726
Possens	-11.726
▁Fairies	-11.726
▁pussy	-11.726
▁Princeton	-11.726
▁Austin	-11.726
▁Under	-11.726
▁muzzle	-11.726
▁disagreeable	-11.726
▁policy	-11.726
▁Cookie	-11.726
▁Especially	-11.726
▁mercy	-11.7261
▁Argentine	-11.7261
▁tiresome	-11.7261
▁secretary	-11.7261
▁grammar	-11.7261
▁worldwide	-11.7261
▁HEY	-11.7261
▁tattoo	-11.7261
▁Roany	-11.7261
▁porch	-11.7261
▁Biden	-11.7261
make	-11.7261
▁Center	-11.7261
▁Supreme	-11.7261
▁mummy	-11.7262
▁gentleman	-11.7262
▁internet	-11.7262
▁COULD	-11.7262
▁Owl	-11.7262
▁personality	-11.7262
▁Carolina	-11.7262
▁shopping	-11.7262
▁1931	-11.7262
▁inclined	-11.7263
▁Costa	-11.7263
▁honour	-11.7263
▁committed	-11.7263
▁nomination	-11.7264
▁Caroline	-11.7264
▁Mandy	-11.7264
▁readily	-11.7264
▁document	-11.7264
▁1.3	-11.7265
▁gross	-11.7265
▁Sherry	-11.7266
▁examined	-11.7266
▁Korean	-11.7267
▁pupils	-11.7267
▁illusion	-11.7267
▁Help	-11.7267
▁baked	-11.7267
▁immense	-11.7267
▁Lovely	-11.7269
▁Pink	-11.727
▁nominated	-11.727
▁calmly	-11.7271
▁joking	-11.7271
▁joyful	-11.7272
▁squash	-11.7272
▁concert	-11.7273
▁reasonable	-11.7273
▁liability	-11.7273
▁satisfied	-11.7274
▁1946	-11.7274
▁inquired	-11.7274
▁reserved	-11.7274
▁brandy	-11.7275
▁MOBA	-11.7275
▁economy	-11.7276
▁Florry	-11.7276
▁Walt	-11.7276
▁geese	-11.7276
▁costume	-11.7276
▁Norfolk	-11.7276
▁rumor	-11.7276
▁Scotland	-11.7276
▁defense	-11.7276
▁whiny	-11.7276
▁DOWN	-11.7277
▁creamery	-11.7277
▁runnin	-11.7278
▁nearest	-11.7279
▁introduced	-11.7279
▁Southwestern	-11.728
▁Heaven	-11.728
▁sickness	-11.728
▁THANKS	-11.728
▁maintain	-11.7281
▁convinced	-11.7282
▁milkman	-11.7283
▁sarcastic	-11.7283
▁flood	-11.7283
▁fetch	-11.7284
▁swallowed	-11.7284
▁status	-11.7284
▁Haut	-11.7284
▁Tim	-11.7285
▁hardest	-11.7288
▁scraping	-11.7289
▁Grannis	-11.7289
▁Bent	-11.7291
▁printed	-11.7292
▁basement	-11.7295
▁Airport	-11.7296
▁wounded	-11.7296
▁pills	-11.7296
▁Facult	-11.7297
▁danny	-11.7298
▁entering	-11.7298
▁meantime	-11.7298
▁anyhow	-11.7299
▁screwed	-11.7301
▁Scientist	-11.7301
▁cares	-11.7301
▁Corps	-11.7301
▁Board	-11.7302
▁completed	-11.7303
▁drape	-11.7304
▁louder	-11.7305
▁racer	-11.7307
▁grasp	-11.7307
okay	-11.7309
▁sixth	-11.7309
▁advanced	-11.731
▁Thierr	-11.7311
▁Fat	-11.7311
▁alto	-11.7312
▁Carlos	-11.7314
▁competitors	-11.7315
▁Dallas	-11.7316
▁Belize	-11.7316
▁Kenneth	-11.7316
▁designer	-11.7316
▁Nora	-11.7317
▁stronger	-11.7318
▁Mind	-11.7321
▁award	-11.7323
▁News	-11.7323
▁attempted	-11.7325
▁beautifully	-11.7327
▁pang	-11.7331
▁presenter	-11.7331
▁buds	-11.7333
▁amused	-11.7335
▁fake	-11.7335
▁Left	-11.7336
▁plates	-11.7337
▁testing	-11.7337
uch	-11.7339
▁reports	-11.7341
▁Suppose	-11.7342
▁charm	-11.7344
▁WELL	-11.7344
▁buildings	-11.7344
▁reference	-11.7345
▁hurrying	-11.7348
▁corners	-11.7349
▁bucks	-11.7349
▁wig	-11.7349
▁camel	-11.7349
▁Victoria	-11.735
▁paddocks	-11.7352
▁online	-11.7355
▁shallow	-11.7355
stairs	-11.7357
▁Tock	-11.7362
▁bubbles	-11.7363
▁dresser	-11.7364
1967)	-11.7368
▁Lausanne	-11.7377
▁code	-11.7379
▁chat	-11.738
▁roots	-11.738
▁lightly	-11.7387
▁comrades	-11.7388
▁offering	-11.7388
▁Down	-11.7389
▁driven	-11.7395
▁Du	-11.7397
▁runner	-11.7398
▁involve	-11.7402
▁[$=2	-11.7408
▁samples	-11.741
▁Bad	-11.7412
▁Head	-11.7428
▁candles	-11.7428
▁Feel	-11.7433
▁OOH	-11.7433
▁Wom	-11.7435
▁Chuck	-11.7441
lets	-11.7441
▁comments	-11.7443
▁JOHN	-11.7443
▁fans	-11.7446
▁Mont	-11.7448
stone	-11.7455
▁march	-11.7473
nyway	-11.7479
▁Speak	-11.7484
ti	-11.7485
nick	-11.7485
▁needles	-11.749
▁ass	-11.7495
▁hurting	-11.7506
▁Eh	-11.7507
▁Cal	-11.7508
gged	-11.7511
▁careless	-11.7528
▁compar	-11.7535
den	-11.7537
▁fi	-11.754
enne	-11.7556
▁chips	-11.7564
▁Ki	-11.7564
toy	-11.7569
▁Haven	-11.7569
entral	-11.7578
pelle	-11.7582
▁thoughts	-11.76
▁par	-11.7605
▁souther	-11.7607
▁breaks	-11.7612
▁formal	-11.7613
because	-11.7619
▁Live	-11.7626
▁programs	-11.7627
▁2005.	-11.7628
▁1993	-11.7629
▁Ten	-11.7631
peg	-11.7634
ntil	-11.764
▁efforts	-11.7643
wa	-11.7644
nk	-11.7656
▁1.7	-11.7657
▁projects	-11.767
▁prices	-11.7672
▁awards	-11.768
new	-11.7694
000	-11.7703
please	-11.771
.'"	-11.7721
▁Bear	-11.7731
▁mills	-11.7739
ight	-11.7752
▁tropic	-11.7756
2.6	-11.776
▁caps	-11.7763
▁AT	-11.7764
▁[4.	-11.7764
▁fate	-11.7765
BE	-11.7771
▁Pat	-11.7772
▁skip	-11.7772
▁Mi	-11.7775
▁loyal	-11.7776
▁Ron	-11.7779
▁spots	-11.7783
▁Boys	-11.7788
▁puttin	-11.7791
▁pu	-11.7796
0,000	-11.7798
away	-11.7815
▁concept	-11.7816
four	-11.783
▁Oi	-11.7832
calling	-11.7836
spelled	-11.7838
▁flip	-11.785
▁purchase	-11.7852
cat	-11.7855
▁Crow	-11.7865
▁crow	-11.7868
▁mistakes	-11.787
natured	-11.7872
good	-11.7872
indicating	-11.7872
▁systems	-11.7874
imitating	-11.7876
someone	-11.7878
RED	-11.7881
end	-11.7893
shake	-11.7899
▁spank	-11.7907
ju	-11.7909
▁cloud	-11.791
▁boast	-11.7926
▁Guard	-11.7935
ional	-11.794
▁SUN	-11.7941
related	-11.7943
Q	-11.7955
thing	-11.7958
string	-11.7959
▁guarantee	-11.7979
▁Silv	-11.798
▁challenge	-11.7982
▁Kim	-11.7985
nine	-11.7986
▁ro	-11.7997
▁insult	-11.7997
▁bap	-11.7998
▁Phillip	-11.8
▁slides	-11.8
▁glimpse	-11.8002
▁Turkey	-11.8002
▁suspicion	-11.8003
▁fountain	-11.8011
▁reflection	-11.8015
▁airplanes	-11.8016
▁debt	-11.8017
ferring	-11.8019
▁coffin	-11.802
▁treatment	-11.802
▁bucket	-11.802
▁shaft	-11.8027
grab	-11.8029
▁comrade	-11.803
▁passenger	-11.803
▁186	-11.8031
per	-11.8032
▁feather	-11.8033
▁prune	-11.8033
▁pond	-11.8035
▁Age	-11.8035
▁Twin	-11.8039
▁Na	-11.8039
▁prayer	-11.804
▁constitution	-11.804
j	-11.8042
OTHER	-11.8046
▁Pine	-11.805
▁neighbour	-11.8055
Will	-11.8055
▁detail	-11.8058
▁distinction	-11.8059
ular	-11.8061
▁Common	-11.807
▁sword	-11.8076
▁unkind	-11.8085
▁bade	-11.8086
▁coats	-11.8094
▁Est	-11.8094
▁tel	-11.8094
fire	-11.8096
marked	-11.811
▁Atlanti	-11.8114
▁Gi	-11.8129
ave	-11.8131
▁Near	-11.8131
▁pathetic	-11.8134
ashed	-11.8139
▁maid	-11.8142
▁divorce	-11.8146
▁80	-11.8146
▁elections	-11.8147
ford	-11.8148
ake	-11.8149
ked	-11.8153
▁1957	-11.8159
▁shed	-11.8161
▁Ow	-11.8162
tu	-11.8163
▁solemn	-11.8163
▁gracious	-11.8163
▁mosquito	-11.8164
▁fierce	-11.8164
▁retire	-11.8165
▁Par	-11.8166
▁litera	-11.8166
°	-11.8167
▁assist	-11.8167
▁exact	-11.8167
▁polite	-11.8168
Rhin	-11.8169
▁Flossie	-11.8169
▁category	-11.8169
▁exquisite	-11.8169
Kickapoo	-11.8169
▁CHUNG	-11.8169
▁Episode	-11.8169
▁Hooey	-11.8169
▁Murray	-11.8169
▁Railroad	-11.8169
▁Vantablack	-11.8169
▁WHITTAKER	-11.8169
▁alkali	-11.8169
▁ballerina	-11.8169
▁barbecue	-11.8169
▁bubba	-11.8169
▁dinosaur	-11.8169
▁economist	-11.8169
▁explanation	-11.8169
▁intelligent	-11.8169
▁mushrooms	-11.8169
▁significant	-11.8169
▁velvet	-11.8169
▁wisdom	-11.8169
▁Census	-11.8169
▁Packard	-11.8169
▁Washburn	-11.8169
▁presidency	-11.8169
▁Fernando	-11.8169
▁Bartlemy	-11.8169
▁Celia	-11.8169
▁JOEY	-11.8169
▁global	-11.8169
▁slender	-11.8169
▁Research	-11.8169
▁Stadium	-11.8169
fontaine	-11.8169
▁bathtub	-11.8169
▁Hayward	-11.8169
▁CONNIE	-11.8169
▁importance	-11.8169
▁Antonio	-11.8169
▁ignorant	-11.8169
▁baggage	-11.8169
▁possibility	-11.8169
▁Monster	-11.8169
▁deputy	-11.8169
▁mamma	-11.8169
▁splendor	-11.8169
▁AGAIN	-11.8169
▁Jeff	-11.8169
▁MaryJane	-11.8169
▁Hurley	-11.8169
▁crisis	-11.8169
▁network	-11.8169
▁recess	-11.8169
▁Several	-11.8169
▁guitarist	-11.8169
▁Bremer	-11.8169
▁speedily	-11.8169
▁Winter	-11.8169
▁aggressive	-11.8169
▁Prix	-11.8169
▁indication	-11.8169
▁retirement	-11.8169
▁Vernon	-11.8169
▁Pedro	-11.8169
▁Jewell	-11.8169
▁depression	-11.8169
▁Already	-11.8169
▁Rebecca	-11.8169
▁frame	-11.8169
▁Coast	-11.817
▁deceived	-11.817
▁abruptly	-11.817
▁Authority	-11.817
▁treble	-11.817
▁Village	-11.817
▁Philippa	-11.817
▁trash	-11.817
▁conceal	-11.8171
▁pirate	-11.8171
▁peach	-11.8171
▁Road	-11.8171
▁LET	-11.8172
▁observed	-11.8173
▁Tomorrow	-11.8173
▁senior	-11.8173
▁relieved	-11.8173
▁independence	-11.8173
▁arbutus	-11.8173
▁northeast	-11.8173
▁Station	-11.8173
▁reply	-11.8174
▁faded	-11.8174
▁noisy	-11.8174
▁severely	-11.8175
▁Fern	-11.8175
▁contest	-11.8175
▁Marino	-11.8175
▁trailer	-11.8175
▁waving	-11.8175
▁TAKE	-11.8176
▁desperately	-11.8176
▁elderly	-11.8176
▁sunny	-11.8176
▁cheerfully	-11.8177
▁Bowling	-11.8178
▁repair	-11.8179
▁Speaker	-11.8179
▁streak	-11.8179
▁annoying	-11.818
▁Lisa	-11.818
▁startled	-11.8181
▁Season	-11.8182
▁Keeper	-11.8182
▁Gray	-11.8183
▁mama	-11.8183
▁2002.	-11.8184
▁wandered	-11.8184
▁twisted	-11.8184
▁Vincent	-11.8184
lying	-11.8184
▁TRIP	-11.8185
▁approved	-11.8185
▁sensitive	-11.8185
▁thrilling	-11.8186
▁Spirit	-11.8186
▁Sultan	-11.8186
▁Panda	-11.8186
▁Geography	-11.8186
▁Donna	-11.8186
▁Marcus	-11.8187
them	-11.8187
▁adoption	-11.8187
▁Half	-11.8187
nods	-11.8187
▁Maggie	-11.8188
▁required	-11.8189
▁Dart	-11.8189
▁unsuccessfully	-11.819
▁extended	-11.819
▁defeated	-11.8191
▁sacred	-11.8192
▁givin	-11.8192
▁tease	-11.8194
▁sector	-11.8194
▁transport	-11.8196
▁Commander	-11.8196
▁Need	-11.8197
▁warmth	-11.8197
▁prepare	-11.8198
▁hire	-11.8199
▁clearing	-11.8199
▁whirl	-11.82
▁Inez	-11.82
▁Lind	-11.8201
▁remaining	-11.8203
▁Horrors	-11.8203
▁horizontal	-11.8204
▁SURE	-11.8204
▁union	-11.8204
▁NCAA	-11.8207
▁politics	-11.8208
▁humming	-11.8208
▁context	-11.8208
▁agency	-11.8208
▁Spencer	-11.8208
▁crinkling	-11.8208
▁kidney	-11.8208
▁Bl	-11.8209
▁pitcher	-11.821
▁Biddle	-11.821
▁packed	-11.8211
▁havin	-11.8212
▁rival	-11.8212
▁Pass	-11.8213
▁tax	-11.8213
▁toxin	-11.8214
▁instructions	-11.8215
▁wholly	-11.8215
▁jewels	-11.8217
▁Water	-11.8218
▁[16	-11.8218
▁Fair	-11.8223
▁graduate	-11.8223
▁1949	-11.8224
▁shone	-11.8226
▁ashore	-11.8228
▁rip	-11.823
▁sweetheart	-11.8231
▁naturally	-11.8232
▁hoots	-11.8233
▁jammies	-11.8234
arrow	-11.8234
▁Push	-11.8234
▁pretended	-11.8237
▁welcomed	-11.8241
▁mistaken	-11.8241
▁trolls	-11.8243
▁spears	-11.8247
▁STOP	-11.8252
▁Pap	-11.8252
▁lame	-11.8253
rapped	-11.8257
▁CD	-11.8262
▁crops	-11.8262
▁grubs	-11.8263
▁Song	-11.8268
▁relatives	-11.8269
▁Doesn	-11.8271
▁Wasn	-11.8271
▁returning	-11.8274
▁highway	-11.8275
▁fears	-11.8275
▁images	-11.8278
▁limp	-11.8278
▁crossing	-11.8288
dog	-11.829
▁landing	-11.8292
▁differently	-11.8293
▁listed	-11.8301
▁recorded	-11.8301
▁lawn	-11.8309
▁torture	-11.8309
Far	-11.831
▁lifting	-11.8312
▁Mal	-11.8315
▁Gordi	-11.8316
▁banging	-11.8318
wants	-11.832
▁stress	-11.8322
▁sooner	-11.8322
▁sack	-11.8326
▁riches	-11.8329
▁ashes	-11.833
▁wealth	-11.8331
▁villages	-11.834
▁van	-11.8357
▁Kar	-11.8365
▁gang	-11.8367
▁orders	-11.8373
▁skill	-11.8378
▁creep	-11.8379
▁mare	-11.838
▁1994.	-11.8381
▁workers	-11.8384
▁partly	-11.8389
▁criticism	-11.839
▁hopeless	-11.8392
▁sch	-11.8393
▁habits	-11.8394
▁(2	-11.84
▁forming	-11.84
▁undertake	-11.8401
▁roast	-11.8401
avier	-11.8402
▁restaurants	-11.8404
kin	-11.8405
▁Gott	-11.8407
▁Mick	-11.8416
▁clatters	-11.8422
▁gloves	-11.8426
ol	-11.8427
their	-11.8431
▁Indeed	-11.8434
raz	-11.8442
▁votes	-11.8444
▁sharpen	-11.8444
▁frost	-11.8453
ther	-11.8455
▁Drink	-11.8461
him	-11.8462
War	-11.8463
▁1971	-11.8464
ature	-11.8465
IRST	-11.8465
▁envelopes	-11.847
▁1975	-11.8475
▁1989	-11.8475
▁materials	-11.848
▁fa	-11.8485
▁Bring	-11.8486
point	-11.8487
▁orphans	-11.8488
ines	-11.8494
▁degrees	-11.8496
▁lover	-11.8497
▁Islands	-11.8511
▁mast	-11.852
hone	-11.852
▁poke	-11.8522
▁scrap	-11.8531
▁53	-11.8543
pretending	-11.8552
▁Perform	-11.8554
▁Bless	-11.8556
▁Mad	-11.8559
▁1991	-11.8559
▁Vol	-11.856
▁nurses	-11.856
▁concerns	-11.857
wards	-11.8573
▁Drop	-11.8574
▁jokes	-11.8574
▁ink	-11.8577
▁Gu	-11.8577
▁Through	-11.858
▁sno	-11.8581
▁Adams	-11.8585
▁doctors	-11.859
▁dings	-11.8593
▁nowhere	-11.8595
hal	-11.8598
▁Cass	-11.8605
LOU	-11.8606
▁scenes	-11.8615
▁meme	-11.8619
▁1984	-11.8619
▁Times	-11.862
▁Cara	-11.862
▁connect	-11.8622
book	-11.8623
▁distan	-11.8634
▁writers	-11.8636
▁Ni	-11.8639
hand	-11.8645
▁ge	-11.8664
▁grabb	-11.8673
cream	-11.8678
ome	-11.8679
▁Ink	-11.8684
▁Years	-11.8687
op	-11.8689
▁tastes	-11.8692
▁crowds	-11.871
TED	-11.871
▁spoons	-11.8713
ze	-11.8726
▁tap	-11.8729
▁1993.	-11.8733
▁albums	-11.8736
▁knitt	-11.8736
'.	-11.8744
ell	-11.8745
▁Vu	-11.8748
school	-11.8763
▁88.	-11.8763
▁1.4	-11.8768
▁BIG	-11.8773
▁marks	-11.8777
enough	-11.8778
▁prizes	-11.8784
▁toil	-11.8784
▁goals	-11.8789
skin	-11.8793
▁Ken	-11.8797
▁spirits	-11.88
count	-11.8803
bo	-11.8808
found	-11.8809
▁fathers	-11.8812
▁Part	-11.8816
▁Gramm	-11.8823
▁$2	-11.8828
▁reign	-11.8831
horse	-11.8831
▁pace	-11.8832
▁Simon	-11.8836
▁feller	-11.884
▁bounce	-11.8841
September	-11.885
▁Spe	-11.8856
▁awe	-11.8867
perhaps	-11.8873
January	-11.8877
ailed	-11.8878
Ville	-11.8881
▁sings	-11.8882
▁ti	-11.8883
On	-11.8885
Because	-11.8886
CDP	-11.8888
page	-11.8888
▁rates	-11.8893
such	-11.8893
ette	-11.8902
standing	-11.8904
▁shirts	-11.8906
▁gar	-11.8908
▁aim	-11.8911
▁Bal	-11.8913
dropped	-11.8917
goin	-11.892
Champvent	-11.8921
metal	-11.8923
criticism	-11.893
master	-11.8932
sneezes	-11.8933
ings	-11.8942
▁rides	-11.8949
body	-11.8954
15	-11.8954
clearly	-11.8955
▁nights	-11.8961
section	-11.8977
give	-11.8987
▁lookin	-11.8989
▁swor	-11.899
▁Gr	-11.8992
▁bears	-11.8996
▁Rock	-11.8997
lew	-11.9
▁Talk	-11.9001
▁ceiling	-11.9001
▁weasel	-11.9002
god	-11.9002
▁scholarship	-11.9002
▁invention	-11.9002
▁crystal	-11.9003
▁shark	-11.9004
▁Knight	-11.9007
▁representative	-11.9012
▁valentine	-11.9014
ja	-11.9014
▁commercial	-11.9014
▁digging	-11.9015
▁tunnel	-11.9015
▁technical	-11.9017
▁Auxon	-11.9019
▁Dal	-11.902
▁propeller	-11.9021
birds	-11.9021
▁legend	-11.9022
▁1963	-11.9022
▁automobile	-11.9022
ALLY	-11.9023
jake	-11.9023
▁volunteer	-11.9026
▁caterpillar	-11.9028
▁skirt	-11.9028
▁pistol	-11.9028
▁stake	-11.9028
▁disaster	-11.9029
▁scientist	-11.903
▁butcher	-11.9031
▁Representative	-11.9031
▁gi	-11.9037
▁Ray	-11.9042
drinks	-11.9043
▁Animal	-11.9045
▁flame	-11.9051
lots	-11.9051
bird	-11.9052
▁painter	-11.9053
returns	-11.9058
▁bliss	-11.9062
▁culture	-11.9069
▁ending	-11.9077
▁Si	-11.9084
earned	-11.909
▁Victor	-11.9093
▁VI	-11.9094
▁pockets	-11.9097
▁metals	-11.9097
▁Fu	-11.9101
lion	-11.9102
▁intend	-11.9111
▁bottles	-11.9114
▁folk	-11.9118
▁Sara	-11.9119
▁Fire	-11.9119
handing	-11.9122
hawk	-11.9128
light	-11.913
▁Clock	-11.913
▁2008.	-11.913
▁scale	-11.9131
▁poison	-11.9138
▁gum	-11.9145
▁distinguish	-11.9155
▁consent	-11.9155
▁reflect	-11.9155
▁2013.	-11.9156
▁assume	-11.9157
▁basic	-11.9158
▁gloom	-11.9158
-2	-11.916
▁separate	-11.9161
END	-11.9164
▁ac	-11.9164
▁apparent	-11.9164
▁peaceful	-11.9165
▁Personal	-11.9165
OULD	-11.9166
balls	-11.9168
▁superior	-11.9168
¡	-11.9169
▁Colonel	-11.9169
▁Bairnsdale	-11.9169
▁Benjamin	-11.9169
▁Cincinnati	-11.9169
▁Education	-11.9169
▁Gibson	-11.9169
▁Globe	-11.9169
▁Jewelweed	-11.9169
▁MONEY	-11.9169
▁Norwegian	-11.9169
▁Ronnette	-11.9169
▁Sakaguchi	-11.9169
▁Sophie	-11.9169
▁THINK	-11.9169
▁Vietnam	-11.9169
▁Zetterstrom	-11.9169
▁academic	-11.9169
▁goddard	-11.9169
▁rubbish	-11.9169
▁Diandros	-11.9169
▁Martín	-11.9169
▁Stonewall	-11.9169
▁Sweden	-11.9169
▁Vanceboro	-11.9169
▁england	-11.9169
▁screenwriter	-11.9169
▁Cambridge	-11.9169
▁nowadays	-11.9169
▁railroad	-11.9169
▁categories	-11.9169
▁bodily	-11.9169
▁Skau	-11.9169
▁Joshua	-11.9169
▁Wallace	-11.9169
▁scotch	-11.9169
▁Shindo	-11.9169
▁Columbus	-11.9169
▁decorative	-11.9169
▁Ozaki	-11.9169
▁astonishment	-11.9169
▁sunglasses	-11.9169
▁swordfish	-11.9169
▁discipline	-11.9169
▁$400	-11.9169
▁entitle	-11.9169
▁grapefruit	-11.9169
▁Gomez	-11.9169
▁Design	-11.9169
▁warrior	-11.9169
▁wistfully	-11.9169
▁Independence	-11.9169
▁TALK	-11.9169
▁Dyson	-11.9169
▁leopard	-11.9169
▁Patten	-11.9169
▁canvas	-11.9169
▁terribly	-11.9169
▁solution	-11.9169
▁conclusion	-11.9169
▁latitude	-11.9169
▁ribs	-11.9169
▁Nicholas	-11.9169
▁happier	-11.9169
▁Cathy	-11.9169
▁gaily	-11.9169
▁arriving	-11.9169
dorff	-11.9169
▁permitted	-11.9169
▁surrounded	-11.9169
▁naked	-11.9169
▁cam	-11.9169
▁survey	-11.9169
▁oyster	-11.917
▁Baker	-11.917
▁Larry	-11.917
▁injured	-11.917
▁Argentina	-11.917
▁carrot	-11.917
▁soxer	-11.917
▁Leonor	-11.917
▁whiskey	-11.917
▁BOOK	-11.917
▁candidac	-11.917
▁instinct	-11.917
▁underground	-11.917
▁Nail	-11.9171
▁Flag	-11.9171
▁taunting	-11.9171
▁TIME	-11.9171
▁combined	-11.9171
▁Liz	-11.9171
▁Lenny	-11.9171
▁Kerry	-11.9171
▁infected	-11.9171
eux	-11.9171
▁meadow	-11.9171
▁Carney	-11.9171
▁ceremony	-11.9171
▁cabinet	-11.9171
▁governess	-11.9172
▁heartily	-11.9172
▁unfortunately	-11.9172
▁france	-11.9172
▁yourselves	-11.9172
▁Stine	-11.9173
▁Trust	-11.9173
▁Commissioner	-11.9173
▁difficulties	-11.9173
▁struggling	-11.9173
▁awoke	-11.9173
▁Excellent	-11.9173
▁revealed	-11.9173
▁Bible	-11.9173
▁agreeable	-11.9173
▁quiver	-11.9173
▁affectionate	-11.9173
▁muttering	-11.9173
▁inspection	-11.9174
▁vase	-11.9174
▁violent	-11.9174
▁Warren	-11.9174
▁Athletic	-11.9174
▁boldly	-11.9175
▁warden	-11.9175
▁abandoned	-11.9175
▁spigot	-11.9176
▁leak	-11.9176
▁impressed	-11.9176
▁talented	-11.9176
▁perched	-11.9177
▁Rial	-11.9177
▁scoop	-11.9177
▁hump	-11.9177
▁approximately	-11.9177
▁ruined	-11.9177
▁DID	-11.9177
▁pantaloons	-11.9177
▁BOYS	-11.9178
▁dawn	-11.9178
▁practically	-11.9178
▁faintly	-11.9178
Drosophila	-11.9179
▁Wright	-11.9181
▁instantly	-11.9181
▁Addams	-11.9182
▁firemen	-11.9182
▁nutter	-11.9183
▁Throat	-11.9184
▁instruct	-11.9185
▁convenience	-11.9185
▁indent	-11.9186
▁PAGE	-11.9186
▁rotten	-11.9187
▁peers	-11.9187
▁Israel	-11.9187
▁Turkish	-11.9187
▁blank	-11.9188
▁Charlotte	-11.9188
▁Meanwhile	-11.9188
▁Clover	-11.9188
▁Foundation	-11.9188
▁Annette	-11.9188
▁Clay	-11.9188
▁minority	-11.9189
▁scan	-11.9189
▁Lari	-11.919
▁lagoon	-11.919
▁basis	-11.919
▁wailing	-11.9191
▁invented	-11.9192
▁Ver	-11.9194
▁ceramic	-11.9194
▁widely	-11.9195
▁targeting	-11.9195
ations	-11.9196
▁splashing	-11.9196
▁crashed	-11.9197
▁quid	-11.9197
▁jar	-11.9199
▁imitation	-11.92
▁Pinky	-11.92
▁whos	-11.92
▁brushing	-11.9203
▁Isa	-11.9204
▁Thus	-11.9204
▁Touch	-11.9204
▁offence	-11.9206
▁breakers	-11.9207
▁fright	-11.9208
▁occupation	-11.9209
▁whistled	-11.921
▁honorable	-11.921
▁latest	-11.9211
Peters	-11.9211
▁editor	-11.9212
▁Kay	-11.9213
▁someplace	-11.9216
▁MEAN	-11.9217
▁gathering	-11.9217
rilla	-11.9219
▁Nope	-11.9219
▁Nova	-11.922
▁labor	-11.9221
▁residents	-11.9221
▁charit	-11.9223
sexual	-11.9226
▁profit	-11.9226
▁kindness	-11.9226
▁94	-11.9231
▁bull	-11.9232
▁Affairs	-11.9236
▁Rainbow	-11.9236
▁walnuts	-11.9237
▁illness	-11.9238
▁mumbling	-11.9239
▁decline	-11.9241
▁bl	-11.9241
▁loading	-11.9242
▁Dick	-11.9249
▁insects	-11.925
continental	-11.9254
may	-11.9254
Ain	-11.9255
▁organ	-11.9259
▁Find	-11.9262
▁slavery	-11.9262
▁Nicky	-11.9272
▁1948	-11.9272
atsu	-11.9274
▁kissing	-11.9277
▁Dead	-11.9277
▁organis	-11.9281
▁76	-11.9283
▁alcohol	-11.9285
25	-11.9287
ious	-11.9289
ipping	-11.9289
▁breathed	-11.9292
▁tooth	-11.9298
▁repeatedly	-11.9301
▁ducky	-11.9301
▁fishes	-11.9306
anguish	-11.9308
▁Centre	-11.931
▁ruler	-11.9316
▁aid	-11.9318
▁Twins	-11.9321
▁rage	-11.9323
▁strokes	-11.9323
▁pioneer	-11.9329
ria	-11.9329
▁Wouldn	-11.9332
▁relations	-11.9338
▁Sand	-11.9341
▁Trees	-11.9348
rying	-11.9348
tacks	-11.9349
1964)	-11.935
▁chrom	-11.9354
see	-11.9358
1.9	-11.936
sta	-11.9368
▁cleaned	-11.937
ening	-11.9372
▁backwards	-11.9378
▁honk	-11.9378
ization	-11.938
ice	-11.9386
▁fella	-11.9387
▁BC	-11.939
▁blossoms	-11.939
▁contracts	-11.9397
ural	-11.9399
▁collections	-11.94
ex	-11.9408
TELL	-11.9416
▁cells	-11.9416
▁loads	-11.9416
▁secure	-11.9427
▁Ga	-11.9434
▁tasks	-11.9442
▁edition	-11.9444
headed	-11.945
▁seats	-11.9455
moving	-11.9461
▁Whoa	-11.9467
▁kites	-11.9469
reated	-11.9487
▁lit	-11.9494
▁restless	-11.9499
▁Dogs	-11.9505
▁Yue	-11.9511
▁79.	-11.9526
▁trochee	-11.9536
loved	-11.9537
▁understanding	-11.9539
SE	-11.9541
▁tense	-11.9547
▁grounds	-11.9558
▁victims	-11.9562
pping	-11.9567
▁Belle	-11.957
▁Baron	-11.9578
▁FI	-11.9584
▁mumbles	-11.9586
▁horns	-11.9588
▁questioning	-11.9589
ba	-11.9604
▁views	-11.9619
ak	-11.9623
▁remov	-11.9623
▁blankets	-11.9637
▁caution	-11.9649
▁playin	-11.9651
bra	-11.9651
▁distinct	-11.9653
▁Sal	-11.9658
▁pets	-11.966
▁uncles	-11.9661
▁Art	-11.9662
▁hip	-11.9672
▁understands	-11.9683
▁mates	-11.9693
▁provinces	-11.9694
▁Birds	-11.9695
ully	-11.9706
inancial	-11.9717
▁struggles	-11.9719
9,	-11.9721
ame	-11.9725
ile	-11.9732
▁moral	-11.974
▁cr	-11.9744
▁screams	-11.9747
bag	-11.9755
▁Nicola	-11.976
owed	-11.9816
▁TI	-11.9821
▁73	-11.9822
member	-11.9829
▁cons	-11.9838
▁tour	-11.9839
▁parted	-11.9845
▁Dun	-11.9848
va	-11.9851
full	-11.9853
▁Mu	-11.9855
think	-11.9856
ories	-11.9865
eaux	-11.9884
▁yards	-11.9898
▁1947	-11.9901
4.4	-11.9903
▁behold	-11.9905
EN	-11.9905
▁Marks	-11.9919
▁experiences	-11.9922
click	-11.9922
▁forbid	-11.9924
▁Las	-11.9924
▁Jon	-11.9925
actually	-11.9927
▁origin	-11.9931
law	-11.9936
▁Son	-11.9944
▁handy	-11.9944
ody	-11.9947
▁Wo	-11.9947
hall	-11.9948
His	-11.9952
mond	-11.9956
dded	-11.9961
▁Were	-11.9964
person	-11.9975
Have	-11.9985
du	-11.9988
Maybe	-11.9993
Please	-11.9994
November	-11.9999
▁patch	-11.9999
December	-12.0006
▁grows	-12.0007
Jack	-12.0007
May	-12.0009
laden	-12.0013
Sorry	-12.0013
Bill	-12.0014
RS	-12.0014
Vennes	-12.0016
crying	-12.0017
February	-12.0018
regarded	-12.002
▁Ring	-12.0022
▁huhu	-12.0022
Colin	-12.0025
Perhaps	-12.0025
Sometimes	-12.0027
CHAPTER	-12.003
▁Ve	-12.0039
Every	-12.0042
tar	-12.005
OOH	-12.005
min	-12.0051
▁opera	-12.0051
Once	-12.0052
▁heading	-12.0053
▁graph	-12.0053
six	-12.0068
counting	-12.0068
▁fruits	-12.0075
▁rap	-12.0083
▁[11	-12.0085
ified	-12.0087
view	-12.0089
▁1969.	-12.0097
▁additional	-12.01
cakes	-12.0105
▁Exe	-12.0108
▁disappointment	-12.0111
▁abou	-12.0114
▁prince	-12.0114
term	-12.0116
▁lump	-12.0117
▁shilling	-12.0125
▁moo	-12.0129
▁ketch	-12.0129
▁Democrat	-12.0129
▁frank	-12.0131
▁procedure	-12.0131
▁Whoo	-12.0132
▁invitation	-12.0133
▁structure	-12.0133
▁amusement	-12.0133
▁cigarette	-12.0133
agged	-12.0135
▁preparation	-12.0138
▁taxi	-12.014
▁intention	-12.0141
▁tank	-12.0141
▁Sweet	-12.0144
▁bubble	-12.0144
▁ry	-12.0145
later	-12.0148
▁image	-12.0152
telling	-12.0152
▁mule	-12.0159
▁blade	-12.016
▁terrorist	-12.0162
▁linger	-12.0163
▁sets	-12.0163
▁relative	-12.0165
▁smiles	-12.0166
▁thar	-12.017
▁cushion	-12.0174
gi	-12.0174
draws	-12.0178
▁Game	-12.0179
San	-12.0181
▁angle	-12.0181
▁spoil	-12.0187
indicate	-12.0189
ok	-12.0194
2.9	-12.0195
13	-12.0196
Mar	-12.0203
70	-12.0204
▁Ge	-12.0206
lmost	-12.0213
▁pat	-12.0213
▁jogg	-12.0217
▁inquir	-12.022
▁receiv	-12.0229
▁humans	-12.0233
▁$=	-12.0236
ig	-12.0238
▁consume	-12.024
▁Mor	-12.024
▁92	-12.0245
▁plot	-12.0248
▁sentences	-12.0252
▁gobble	-12.0255
▁verse	-12.0256
▁1986.	-12.0257
▁1987.	-12.026
▁Croatia	-12.0261
▁senator	-12.0263
▁abuse	-12.0263
▁embarrass	-12.0264
▁[13	-12.0264
▁shudder	-12.0265
GER	-12.0265
▁actors	-12.0266
▁1954	-12.0266
▁brake	-12.0267
▁guilt	-12.027
▁torment	-12.027
▁betray	-12.0271
▁hats	-12.0272
▁herd	-12.0273
▁Kev	-12.0273
▁Social	-12.0275
▁ripe	-12.0276
▁flour	-12.0276
▁recommend	-12.0276
▁progress	-12.0277
presso	-12.0278
▁crest	-12.0278
▁confront	-12.0279
▁Final	-12.0279
Chiasmocleis	-12.028
Scinax	-12.028
▁Boleyn	-12.028
▁Bulgaria	-12.028
▁Cleveland	-12.028
▁Cuninghame	-12.028
▁García	-12.028
▁Hampshire	-12.028
▁Kojima	-12.028
▁Measles	-12.028
▁Meshkov	-12.028
▁Nebula	-12.028
▁PEOPLE	-12.028
▁Saskatchewan	-12.028
▁Shigenobu	-12.028
▁Shiomi	-12.028
▁Swedish	-12.028
▁TREASURE	-12.028
▁Technology	-12.028
▁Tennessee	-12.028
▁Toronto	-12.028
▁Vizcarra	-12.028
▁afloat	-12.028
▁ahhah	-12.028
▁antelopes	-12.028
▁assailant	-12.028
▁assault	-12.028
▁banquet	-12.028
▁calendar	-12.028
▁culprit	-12.028
▁dictionary	-12.028
▁lieutenant	-12.028
▁patience	-12.028
▁remembrance	-12.028
▁skedaddle	-12.028
▁sunshine	-12.028
▁technician	-12.028
▁telegraph	-12.028
▁universities	-12.028
▁Goldrush	-12.028
▁Topeka	-12.028
▁accurate	-12.028
▁mischief	-12.028
▁terrified	-12.028
▁vivid	-12.028
▁Goldberg	-12.028
▁admiration	-12.028
▁Hiroshi	-12.028
▁Marsden	-12.028
▁PARTY	-12.028
▁kettle	-12.028
▁COMPANY	-12.028
▁cursive	-12.028
▁grief	-12.028
▁wrath	-12.028
▁uncertain	-12.028
▁Micro	-12.028
▁confidential	-12.028
▁Cairo	-12.028
▁alliance	-12.028
▁Gwen	-12.028
▁Nyx	-12.028
▁genius	-12.028
▁Newfoundland	-12.028
▁Otherwise	-12.028
▁espresso	-12.028
▁unpleasant	-12.028
▁existence	-12.028
▁Franklin	-12.028
▁tractor	-12.028
▁Standard	-12.028
▁cathedral	-12.028
▁piggie	-12.028
▁steamboat	-12.028
▁teeter	-12.028
▁yahoo	-12.028
▁Adolphus	-12.028
▁OPENS	-12.028
▁Contest	-12.028
▁Hubert	-12.028
falsetto	-12.028
▁envy	-12.028
▁racket	-12.028
▁WHY	-12.028
▁forensic	-12.028
▁conquest	-12.028
▁aircraft	-12.028
▁Bernard	-12.028
▁Regan	-12.028
▁ledger	-12.028
▁misery	-12.028
▁offensive	-12.028
▁choir	-12.028
▁imagination	-12.028
▁groceries	-12.028
▁literally	-12.028
▁liaison	-12.028
▁1905	-12.028
▁Gator	-12.028
▁DOES	-12.028
▁jetty	-12.028
▁Adolf	-12.028
▁memories	-12.028
▁gingham	-12.028
▁comedian	-12.028
▁GUYS	-12.028
▁screeches	-12.028
▁Larsen	-12.0281
▁ninth	-12.0281
▁dripping	-12.0281
▁repent	-12.0281
▁Raki	-12.0281
▁Clinton	-12.0281
▁Enough	-12.0281
▁Maryland	-12.0281
▁calves	-12.0281
▁promptly	-12.0281
▁motive	-12.0281
▁400	-12.0281
▁Society	-12.0281
▁grandma	-12.0281
▁shiny	-12.0281
▁worries	-12.0281
▁squeak	-12.0281
▁Birk	-12.0281
▁Clothes	-12.0282
▁Ojibwe	-12.0282
▁slippery	-12.0282
▁spaghetti	-12.0282
▁acquainted	-12.0282
▁bandaid	-12.0282
▁Susy	-12.0282
▁Corner	-12.0282
▁replacement	-12.0282
▁Sylvia	-12.0282
▁Clement	-12.0283
▁sweep	-12.0283
▁expand	-12.0283
▁Terry	-12.0283
▁coachman	-12.0283
▁Hughes	-12.0283
▁Billie	-12.0283
▁accidentally	-12.0284
▁Jacoby	-12.0284
▁cheating	-12.0284
▁correction	-12.0284
▁Mette	-12.0285
▁machinery	-12.0285
▁Grove	-12.0285
▁proper	-12.0285
carrie	-12.0285
▁seductive	-12.0285
▁abroad	-12.0285
▁Solar	-12.0285
▁swelling	-12.0285
hanabat	-12.0286
▁Power	-12.0286
Military	-12.0286
▁elect	-12.0287
▁meanwhile	-12.0287
▁joyfully	-12.0287
▁threatened	-12.0287
▁Real	-12.0288
▁amazed	-12.0288
▁consist	-12.0288
▁bitten	-12.0288
▁pinch	-12.0289
▁absurd	-12.0289
▁spectators	-12.029
▁paperwork	-12.029
▁ventured	-12.029
▁Highway	-12.0291
▁spray	-12.0291
▁frozen	-12.0291
▁Fran	-12.0291
▁lumber	-12.0291
▁Fame	-12.0291
▁township	-12.0292
▁Afterwards	-12.0292
▁stout	-12.0292
▁recovered	-12.0293
▁Var	-12.0293
▁wholesome	-12.0293
▁suicide	-12.0293
▁plainly	-12.0294
▁wedding	-12.0294
▁Making	-12.0295
▁improved	-12.0295
▁Hector	-12.0295
▁resigned	-12.0296
▁buckle	-12.0296
▁lining	-12.0297
▁curly	-12.0297
▁passionate	-12.0297
▁parish	-12.0297
▁entreat	-12.0297
▁congratulate	-12.0297
▁excitedly	-12.0298
▁Press	-12.0298
▁communicate	-12.0298
▁headache	-12.0298
▁oxen	-12.0298
ICE	-12.0298
▁hun	-12.0299
▁AGCO	-12.03
▁skeleton	-12.03
▁injury	-12.03
▁license	-12.03
▁Private	-12.03
▁Dynasty	-12.03
▁Rangy	-12.03
▁coarse	-12.0301
▁paragraph	-12.0301
▁Room	-12.0301
▁composer	-12.0302
▁Deal	-12.0302
▁jack	-12.0302
▁sailing	-12.0303
▁screamed	-12.0304
▁2022.	-12.0305
▁authorities	-12.0305
▁Robinson	-12.0306
▁tackle	-12.0306
▁effective	-12.0306
▁stirring	-12.0307
▁supplier	-12.0307
▁senses	-12.0307
▁borrowing	-12.0308
▁Moore	-12.0309
▁beaten	-12.0311
▁practised	-12.0312
▁citizens	-12.0312
▁homeless	-12.0312
▁Honor	-12.0313
▁Rule	-12.0313
▁breathless	-12.0314
▁cab	-12.0314
▁thorough	-12.0315
HILDA	-12.0316
▁sighed	-12.0317
▁celebrated	-12.0317
▁hurriedly	-12.0317
▁panting	-12.0318
nuts	-12.0318
▁approaching	-12.0318
▁surgeon	-12.0319
▁originally	-12.032
▁Kath	-12.032
▁Parker	-12.032
▁mixing	-12.0321
▁announce	-12.0323
▁Cheers	-12.0323
▁THEN	-12.0323
▁universal	-12.0323
▁Surely	-12.0325
▁robert	-12.0326
▁elements	-12.0326
▁Super	-12.0327
▁Disney	-12.0327
▁twine	-12.0327
▁funds	-12.0328
▁Ladies	-12.0328
▁Bra	-12.0328
▁Third	-12.0329
▁EVERY	-12.0329
▁warmly	-12.033
▁Molly	-12.0331
▁Inv	-12.0332
▁budgeting	-12.0332
▁relate	-12.0333
▁mu	-12.0334
▁shaken	-12.0334
▁interests	-12.0334
▁sorrowful	-12.0337
▁circumstances	-12.0339
▁Sex	-12.0339
▁decades	-12.0339
▁suggesting	-12.0344
▁brighter	-12.0346
▁Coach	-12.0347
▁rushing	-12.0348
▁grease	-12.0348
▁strangely	-12.0349
▁carbon	-12.0349
▁exit	-12.035
▁oars	-12.035
▁issued	-12.0353
▁fucked	-12.0353
▁footballer	-12.0355
▁Soviet	-12.0355
▁THEY	-12.0356
▁aunt	-12.0357
[	-12.036
▁thread	-12.0361
WARD	-12.0361
▁Lif	-12.0364
▁Quite	-12.0364
ALL	-12.0365
▁poorly	-12.0368
▁flutter	-12.0371
▁Alberta	-12.0371
Man	-12.0376
roy	-12.0379
▁Bert	-12.0381
▁frocks	-12.0383
▁Brennan	-12.0383
▁roughly	-12.0383
▁tapes	-12.0384
▁Certainly	-12.0386
▁progressive	-12.0387
crackling	-12.0388
▁Madame	-12.039
▁rocked	-12.0392
▁scent	-12.0392
called	-12.0394
▁measures	-12.0395
▁1934	-12.0396
▁pounding	-12.0398
▁FC	-12.0403
▁scholars	-12.0404
▁Scouts	-12.0405
▁Lucens	-12.0411
▁recover	-12.042
philippa	-12.0423
▁Chile	-12.0426
▁heel	-12.0426
▁bob	-12.0427
▁blocked	-12.0429
elle	-12.0429
▁SAY	-12.0434
▁readers	-12.0435
▁skills	-12.0439
▁caterpillars	-12.0439
base	-12.044
▁Del	-12.044
▁Tour	-12.0446
▁details	-12.0448
▁prunes	-12.0455
▁goose	-12.0457
OR	-12.0457
▁Thad	-12.0458
▁Guards	-12.0461
▁graceful	-12.0465
▁jumper	-12.0466
▁seiz	-12.047
▁oui	-12.047
▁anyways	-12.0472
▁Sciences	-12.0472
▁Economics	-12.0473
▁instruments	-12.0473
▁swords	-12.0474
▁gosh	-12.0476
▁Land	-12.0477
▁OR	-12.0484
▁pluck	-12.0486
ancy	-12.0493
under	-12.0495
▁Po	-12.05
▁slaves	-12.0501
▁founder	-12.0501
▁Seem	-12.0504
▁Camp	-12.0507
▁Marian	-12.051
ros	-12.0511
cats	-12.0512
UM	-12.0513
▁tools	-12.0514
▁remarks	-12.0515
say	-12.0517
▁wasps	-12.0519
▁earlies	-12.0519
▁""	-12.0526
▁Cr	-12.0528
▁customs	-12.0529
▁darn	-12.0529
mi	-12.0532
▁peas	-12.0532
▁Sale	-12.0534
ER	-12.0537
▁HOO	-12.0538
▁salute	-12.0542
▁closes	-12.0553
▁Pal	-12.056
▁mental	-12.0561
▁gu	-12.0563
▁stain	-12.0572
▁Hob	-12.0572
cal	-12.0575
▁snaps	-12.0575
▁howl	-12.0577
ck	-12.0579
▁rail	-12.0586
▁individuals	-12.059
nflict	-12.0591
▁Fa	-12.0595
▁Pictures	-12.0606
▁sheets	-12.0616
▁68	-12.062
▁quote	-12.0621
▁demonstrate	-12.0622
▁Alle	-12.0627
▁pope	-12.063
80	-12.063
▁worms	-12.0639
▁bars	-12.0639
▁Wak	-12.0641
▁62	-12.0645
STON	-12.0645
▁initial	-12.0647
climbs	-12.0647
▁Mc	-12.065
cent	-12.0652
▁impact	-12.0654
lin	-12.0658
▁Base	-12.066
▁scann	-12.0666
con	-12.0671
▁contents	-12.0671
▁circles	-12.0673
Hi	-12.0673
▁acquire	-12.0686
▁mon	-12.0689
▁crawls	-12.069
▁tires	-12.0693
shot	-12.0693
▁questioned	-12.0697
people	-12.0698
pe	-12.07
▁Salt	-12.0701
▁38	-12.0705
▁Tre	-12.0707
▁reform	-12.0713
▁accuse	-12.0717
▁hugg	-12.0719
▁Fo	-12.072
▁Fall	-12.0721
▁1959.	-12.0722
▁thrill	-12.0724
▁interfere	-12.0728
▁engines	-12.0738
ide	-12.0744
▁brownies	-12.0745
▁bows	-12.0752
ana	-12.0753
▁obscure	-12.0755
▁Nov	-12.0755
▁83	-12.076
▁hitch	-12.0763
..."	-12.0764
▁1976	-12.0771
eat	-12.0773
▁lighting	-12.0774
▁shapes	-12.0775
▁Hard	-12.0778
▁glide	-12.0782
▁Za	-12.0794
▁meow	-12.0799
hole	-12.0801
▁stern	-12.0804
▁seize	-12.0808
▁glanc	-12.0809
▁beast	-12.0812
something	-12.0817
HEN	-12.0822
▁[14	-12.083
apping	-12.0832
di	-12.084
OLD	-12.0844
▁Iran	-12.0847
▁Full	-12.0852
▁Woo	-12.0853
▁voiced	-12.0855
▁Com	-12.0856
strained	-12.0865
▁exchange	-12.0867
IBLE	-12.0868
▁barks	-12.0871
▁Kid	-12.0875
ila	-12.0876
▁Anna	-12.088
▁Won	-12.0882
▁Bar	-12.0882
▁(3	-12.0886
bi	-12.0891
▁1991.	-12.0891
big	-12.0892
▁biting	-12.0894
▁tri	-12.0898
accompanied	-12.0899
▁Tra	-12.0899
und	-12.0906
▁lied	-12.0911
▁amid	-12.0919
▁Sit	-12.0919
▁tar	-12.0919
▁Civi	-12.0929
▁console	-12.0937
▁Area	-12.0938
▁lawyers	-12.0938
▁Front	-12.0939
▁peak	-12.0939
titude	-12.0939
▁queens	-12.0943
ities	-12.0944
▁Ham	-12.0944
▁1945	-12.0948
election	-12.0951
▁bro	-12.0952
▁sha	-12.0953
▁decisions	-12.0954
berg	-12.0957
▁tons	-12.0958
▁Awards	-12.0958
▁bills	-12.096
▁realise	-12.0964
▁hint	-12.0975
▁fame	-12.0975
▁reaction	-12.0982
ain	-12.0983
▁Butch	-12.0986
_1	-12.099
▁mids	-12.0991
▁Item	-12.0994
▁lure	-12.0995
▁tramp	-12.0999
ching	-12.1007
ack	-12.1016
loft	-12.1021
..	-12.1021
eating	-12.1024
▁42	-12.1026
▁Bon	-12.1026
▁fatal	-12.1028
walk	-12.1031
▁Ke	-12.104
▁dozens	-12.1044
▁Top	-12.1046
▁wrappe	-12.105
3.8	-12.105
▁amen	-12.1055
fled	-12.1069
hood	-12.1079
US	-12.1082
37	-12.1085
▁braves	-12.1092
lè	-12.1096
----------------	-12.1098
▁1958	-12.1107
▁1981.	-12.1107
▁1935	-12.1108
▁bury	-12.1132
▁locat	-12.1136
rance	-12.1141
celle	-12.1146
▁smells	-12.1146
Guy	-12.1147
October	-12.1148
behaved	-12.1148
ADE	-12.1151
hold	-12.1151
▁crop	-12.1161
24	-12.1163
laying	-12.1174
filler	-12.1183
AT	-12.1184
▁tr	-12.1189
probably	-12.119
2020)	-12.1191
▁goods	-12.1195
ning	-12.1198
ucked	-12.1206
▁glances	-12.1209
mar	-12.1209
▁TOO	-12.121
band	-12.1223
ntai	-12.1223
ating	-12.1231
▁mini	-12.124
▁caller	-12.1245
raspy	-12.1246
aggy	-12.1247
▁Sigh	-12.1254
`	-12.1258
@	-12.1258
First	-12.1273
▁vocal	-12.1274
▁alley	-12.1274
songwriter	-12.1281
EEN	-12.1282
▁77	-12.1286
unintelligible	-12.1287
JOHN	-12.1288
Never	-12.1289
shouting	-12.129
central	-12.129
wealth	-12.1293
repeat	-12.1296
yells	-12.1298
▁raw	-12.1307
▁Hay	-12.1307
telephone	-12.1308
helps	-12.1319
▁suppress	-12.132
shoes	-12.1323
▁oranges	-12.1328
ography	-12.1335
▁2010.	-12.1345
held	-12.1345
▁48	-12.1358
oral	-12.1359
▁technique	-12.136
▁monument	-12.136
▁parameter	-12.1361
▁examination	-12.1361
▁wigwam	-12.1361
tter	-12.1366
know	-12.1372
pa	-12.1372
▁regatta	-12.1374
▁accent	-12.1374
▁arts	-12.1375
▁exception	-12.1375
vision	-12.1378
▁Ss	-12.1379
▁execution	-12.138
▁provision	-12.138
▁Gas	-12.1381
▁idol	-12.1381
▁application	-12.1383
▁pancake	-12.1383
▁interface	-12.1384
▁lantern	-12.1385
▁syllable	-12.1387
▁asshole	-12.1388
fied	-12.1389
▁paddock	-12.139
▁Scout	-12.139
rry	-12.139
sweets	-12.139
▁Mountain	-12.1391
▁scholar	-12.1391
▁eagle	-12.1395
▁1:	-12.1396
▁threat	-12.1397
▁association	-12.1397
gether	-12.14
▁Lie	-12.1403
▁grant	-12.1404
▁wandering	-12.1405
bells	-12.1407
▁identif	-12.1411
▁grub	-12.1415
mills	-12.1415
▁Tab	-12.1415
▁feat	-12.1416
ces	-12.1416
gie	-12.1417
▁choppe	-12.1418
fer	-12.1419
▁scribble	-12.1419
▁cartoon	-12.1426
▁riot	-12.1436
▁Nicole	-12.1439
▁bombs	-12.1444
▁Theis	-12.1445
same	-12.1446
▁forgiven	-12.1448
▁guest	-12.1456
mon	-12.1457
▁craft	-12.1458
▁plea	-12.146
▁Naz	-12.1465
▁tissue	-12.1466
▁shell	-12.1468
▁invit	-12.1473
▁arrang	-12.1473
ingly	-12.1476
▁hu	-12.1476
dad	-12.1477
▁ruin	-12.1478
▁outlet	-12.1481
▁Universal	-12.1484
ugh	-12.1485
▁selfish	-12.1493
po	-12.1495
ster	-12.1499
▁youth	-12.1501
▁gossip	-12.151
▁ju	-12.1512
▁bloom	-12.1512
▁approve	-12.1512
▁resign	-12.1514
-19	-12.1515
▁royal	-12.1516
▁admire	-12.1518
▁prior	-12.1518
ina	-12.152
▁1932	-12.152
ber	-12.1522
▁Tibet	-12.1522
▁plough	-12.1522
▁Select	-12.1523
▁Commission	-12.1524
▁TREE	-12.1524
▁Montaub	-12.1525
▁vertical	-12.1525
▁unfortunate	-12.1525
▁obvious	-12.1525
▁immediate	-12.1525
▁blaze	-12.1526
▁traditional	-12.1527
hiladelphia	-12.1527
▁mechanical	-12.1528
▁Express	-12.1529
▁scientific	-12.1529
▁scandal	-12.1529
▁Egypt	-12.1529
▁Craig	-12.1529
▁Kazakh	-12.153
▁halloween	-12.153
▁library	-12.153
Chardonney	-12.153
Menthue	-12.153
Peoria	-12.153
Tiercelin	-12.153
▁BUSINESS	-12.153
▁Barcelona	-12.153
▁Belgium	-12.153
▁Cocoamarsh	-12.153
▁Jonathan	-12.153
▁Josceline	-12.153
▁Judiciary	-12.153
▁Labrador	-12.153
▁Ministry	-12.153
▁Minnesota	-12.153
▁Mobile	-12.153
▁Mukaiyama	-12.153
▁Network	-12.153
▁Oxfam	-12.153
▁Potawatomi	-12.153
▁Quebec	-12.153
▁Stevie	-12.153
▁THOSE	-12.153
▁Trinidad	-12.153
▁Unfortunately	-12.153
▁WOMAN	-12.153
▁Waysmith	-12.153
▁Zimbabwe	-12.153
▁absorb	-12.153
▁animiles	-12.153
▁audience	-12.153
▁biscuit	-12.153
▁dementia	-12.153
▁esquire	-12.153
▁fatigue	-12.153
▁franchise	-12.153
▁inhabitants	-12.153
▁inscription	-12.153
▁intimate	-12.153
▁liquid	-12.153
▁muscles	-12.153
▁perspective	-12.153
▁preliminar	-12.153
▁pterosaur	-12.153
▁satellite	-12.153
▁sympathy	-12.153
▁BETTER	-12.153
▁Cardinal	-12.153
▁Connecticut	-12.153
▁Dawlish	-12.153
▁Deputies	-12.153
▁Kaneko	-12.153
▁absence	-12.153
▁recognition	-12.153
▁Bobbie	-12.153
▁Calcul	-12.153
▁Frederick	-12.153
▁Kazakhstan	-12.153
▁ackack	-12.153
▁Amaral	-12.153
▁inhibit	-12.153
▁Development	-12.153
▁hoarse	-12.153
▁acrobat	-12.153
▁lemonade	-12.153
▁Gracie	-12.153
▁Raffael	-12.153
▁amazement	-12.153
▁Ethel	-12.153
▁detective	-12.153
▁goddamn	-12.153
▁policies	-12.153
▁RUNNING	-12.153
▁Fiction	-12.153
▁Wolsey	-12.153
▁conscience	-12.153
▁neglect	-12.153
▁properties	-12.153
▁Jennings	-12.153
▁Rogue	-12.153
▁landlord	-12.153
▁portrait	-12.153
▁Campbell	-12.153
▁Hulk	-12.153
▁morsel	-12.153
▁zeal	-12.153
▁departure	-12.153
▁gravity	-12.153
▁Jewish	-12.153
▁adapt	-12.153
▁Nonnie	-12.153
▁Bruce	-12.153
▁derrick	-12.153
▁miracle	-12.153
▁dragging	-12.153
▁fraction	-12.153
▁announcement	-12.153
▁Birthday	-12.153
▁Haiti	-12.153
▁chorus	-12.153
▁stagger	-12.153
▁garret	-12.153
▁Bandaid	-12.153
▁reluctantly	-12.153
stricken	-12.153
▁Pará	-12.153
▁fortunate	-12.153
▁creek	-12.153
▁priority	-12.153
▁reception	-12.153
▁Creek	-12.153
▁Eddie	-12.153
▁Joux	-12.153
▁destination	-12.153
▁harsh	-12.153
▁descent	-12.153
▁capture	-12.153
▁mystery	-12.153
▁submitted	-12.153
▁conceived	-12.153
▁pilot	-12.153
▁molybdenum	-12.153
▁remote	-12.153
▁curiosity	-12.153
▁seminar	-12.153
▁WANT	-12.1531
▁Rhine	-12.1531
▁Sottens	-12.1531
▁resistance	-12.1531
▁Michel	-12.1531
▁cautiously	-12.1531
▁Naval	-12.1531
▁unfair	-12.1531
▁Warsaw	-12.1531
▁hyper	-12.1531
▁junk	-12.1531
▁levey	-12.1531
▁uneasy	-12.1531
▁Woodpecker	-12.1531
▁tornado	-12.1531
▁Fireman	-12.1531
▁tinker	-12.1531
▁Pardon	-12.1531
▁GOING	-12.1531
▁View	-12.1531
▁vigorously	-12.1531
▁Obviously	-12.1531
▁chapter	-12.1531
▁Desk	-12.1531
▁Paddy	-12.1531
▁draft	-12.1532
▁Honestly	-12.1532
▁Dinner	-12.1532
▁bargain	-12.1532
▁popularity	-12.1532
▁(2016)	-12.1532
▁Trish	-12.1532
▁thrust	-12.1532
▁generation	-12.1532
▁enjoyment	-12.1532
▁bloke	-12.1532
▁Space	-12.1532
▁proposal	-12.1532
▁pausing	-12.1532
▁kak	-12.1533
▁CUT	-12.1533
▁tournament	-12.1533
▁illustrated	-12.1533
▁Richardson	-12.1533
▁bowel	-12.1533
▁idle	-12.1533
▁Money	-12.1533
▁housekeeper	-12.1533
▁Often	-12.1533
▁crooked	-12.1533
▁Guster	-12.1533
▁labour	-12.1533
▁alert	-12.1534
▁dental	-12.1534
▁impressive	-12.1534
▁patting	-12.1534
▁(2017)	-12.1534
▁Denis	-12.1534
▁toluene	-12.1535
▁perfection	-12.1535
▁Diana	-12.1535
▁convenient	-12.1536
▁flattered	-12.1536
▁fitz	-12.1536
▁darkness	-12.1536
▁Ché	-12.1536
▁Psych	-12.1536
▁timid	-12.1536
▁poker	-12.1536
▁scattered	-12.1537
▁greeted	-12.1537
▁satisfy	-12.1537
▁statue	-12.1537
▁jug	-12.1537
▁medium	-12.1537
▁Forever	-12.1537
▁quaint	-12.1538
▁Squad	-12.1538
▁dashing	-12.1538
pped	-12.1538
▁GREAT	-12.1538
▁colony	-12.1538
▁rapid	-12.1539
▁pocketbook	-12.1539
▁admiral	-12.1539
▁forbidden	-12.1539
▁tasting	-12.1539
▁Tonight	-12.154
▁pl	-12.154
▁deck	-12.154
▁complained	-12.154
."—_	-12.154
▁gloss	-12.154
▁impatiently	-12.154
▁Wise	-12.154
▁shivering	-12.1541
▁Heather	-12.1541
▁writin	-12.1542
▁sweetest	-12.1542
▁tipped	-12.1542
▁industri	-12.1542
▁Anti	-12.1543
▁momma	-12.1543
▁Italia	-12.1543
▁fiddle	-12.1545
leans	-12.1545
▁ignore	-12.1545
▁gratefully	-12.1545
▁wealthy	-12.1545
▁blooming	-12.1545
▁Tower	-12.1546
▁fist	-12.1546
▁Jill	-12.1546
▁correctly	-12.1546
▁Action	-12.1546
▁gallant	-12.1547
▁urgent	-12.1547
▁helpful	-12.1547
▁RINGS	-12.1548
▁agricultural	-12.1548
▁critical	-12.1549
▁foreign	-12.1549
▁tidy	-12.1549
▁Nine	-12.1549
▁shelter	-12.1549
Mend	-12.1549
▁hernia	-12.155
▁Saxon	-12.1551
▁convict	-12.1551
ware	-12.1551
▁proceeding	-12.1552
▁eminence	-12.1552
▁SARAH	-12.1552
▁Tyumen	-12.1553
▁ultimate	-12.1553
▁Prague	-12.1553
▁Armenia	-12.1553
▁ryan	-12.1553
▁physics	-12.1553
▁Wonderful	-12.1553
▁therapy	-12.1553
▁imaginary	-12.1553
▁Dark	-12.1554
▁cardinal	-12.1554
▁Garden	-12.1554
▁awareness	-12.1554
▁separated	-12.1554
▁Donkey	-12.1554
▁distinctly	-12.1555
▁registered	-12.1555
▁Buddha	-12.1555
▁icing	-12.1555
▁flask	-12.1555
▁Round	-12.1555
▁playground	-12.1556
prompting	-12.1557
▁hunger	-12.1557
▁borough	-12.1557
Walsh	-12.1557
▁counties	-12.1557
▁Mice	-12.1557
▁thunder	-12.1558
▁Fourth	-12.1558
▁collected	-12.1558
▁facing	-12.1559
▁Somehow	-12.1559
▁arrangements	-12.156
▁professionally	-12.156
▁Pull	-12.156
▁atoll	-12.1561
▁siblings	-12.1562
▁surprising	-12.1563
▁amuse	-12.1563
▁DUCK	-12.1566
▁Holt	-12.1566
race	-12.1566
▁Mum	-12.1567
▁licked	-12.1568
▁mutters	-12.1569
▁Asian	-12.157
▁beef	-12.1571
▁sweat	-12.1571
ten	-12.1572
▁delivered	-12.1572
▁Box	-12.1574
▁Small	-12.1574
▁Though	-12.1574
▁efficient	-12.1574
▁desired	-12.1575
▁BED	-12.1575
▁1938	-12.1577
▁clack	-12.1577
▁consistent	-12.1577
▁dignity	-12.1577
▁seventh	-12.158
▁Wolfe	-12.158
▁Dover	-12.1581
mm	-12.1581
▁DE	-12.1583
▁discussed	-12.1583
▁TALES	-12.1584
▁ignorance	-12.1585
▁foundation	-12.1586
▁Pierre	-12.1586
▁Joy	-12.1587
▁Annie	-12.1587
▁skate	-12.1587
▁heroes	-12.1589
▁billy	-12.1589
ringing	-12.159
▁claw	-12.1591
des	-12.1591
—_	-12.1592
▁sn	-12.1592
▁Aah	-12.1594
▁fowls	-12.1595
▁indoors	-12.1595
5.5	-12.1596
▁Stone	-12.1598
▁respected	-12.16
▁shooter	-12.16
▁zoom	-12.1601
MADE	-12.1601
▁Fred	-12.1602
▁searching	-12.1602
▁Lion	-12.1602
▁hedge	-12.1603
▁piers	-12.1603
▁THEM	-12.1603
▁Beautiful	-12.1603
▁yield	-12.1603
▁elton	-12.1604
▁filmed	-12.1604
▁crowded	-12.1605
▁dusk	-12.1606
▁informed	-12.1608
▁MP	-12.1608
▁Hugh	-12.1609
▁reel	-12.1611
▁safer	-12.1611
á	-12.1612
ite	-12.1612
▁scorn	-12.1613
▁pressing	-12.1613
▁pi	-12.1614
▁Grampa	-12.1615
HAD	-12.1617
▁striped	-12.1619
▁probabilit	-12.1627
▁crosses	-12.1627
sec	-12.1628
▁justice	-12.1629
▁inches	-12.1632
▁dreamy	-12.1632
▁fussing	-12.1632
▁permits	-12.1636
▁positions	-12.1637
▁rice	-12.1645
▁protesting	-12.1647
▁Milan	-12.1648
▁threats	-12.1658
▁[3.1	-12.1659
▁Allen	-12.1659
▁rating	-12.1659
▁principal	-12.1662
▁Thought	-12.1665
▁mask	-12.1665
▁daytime	-12.1666
▁prey	-12.1667
▁iamb	-12.1669
▁finishes	-12.1672
▁crumbs	-12.1679
▁Poli	-12.1682
sley	-12.1683
▁reporter	-12.1684
▁aunts	-12.1689
▁Stand	-12.1692
▁preparations	-12.1693
▁Team	-12.1693
▁Hand	-12.1694
▁sway	-12.1696
▁PG	-12.1696
▁gung	-12.1697
▁govern	-12.1706
▁Ti	-12.1706
▁pistols	-12.1711
▁disasters	-12.1711
▁ET	-12.1712
hoo	-12.1712
ú	-12.1712
boats	-12.1715
lance	-12.172
using	-12.1722
▁wire	-12.1723
▁Democrats	-12.1725
▁Burt	-12.1725
30	-12.1735
▁camels	-12.1735
▁links	-12.1735
nterior	-12.1736
▁whimpers	-12.1737
▁successfully	-12.174
▁teasing	-12.174
▁debate	-12.174
▁reader	-12.1742
▁Pea	-12.1743
▁WHERE	-12.1743
▁sob	-12.1746
▁freed	-12.1748
ike	-12.1749
NNIE	-12.1749
▁requests	-12.175
▁Better	-12.1753
▁slid	-12.1755
▁wasted	-12.1758
▁react	-12.1759
▁measure	-12.176
▁puzzled	-12.1761
ić	-12.1761
▁squeals	-12.1765
▁devices	-12.1769
▁musicians	-12.1769
▁engineers	-12.1771
▁96	-12.1772
▁2006.	-12.1774
▁units	-12.1775
▁LAUGH	-12.1781
▁Poke	-12.1783
▁grill	-12.1784
▁limbs	-12.1789
▁Strong	-12.1789
▁belly	-12.1789
▁blown	-12.1792
29	-12.1793
▁Done	-12.1794
▁Found	-12.1797
▁Kir	-12.1799
▁70	-12.1801
▁estates	-12.1805
elected	-12.1806
▁Heart	-12.1808
▁Silver	-12.1811
gasps	-12.1812
duke	-12.1815
▁goat	-12.1816
▁beak	-12.1823
▁Fin	-12.1827
▁emotions	-12.183
▁pursue	-12.1831
▁OLD	-12.1837
▁si	-12.1838
▁stray	-12.184
Jackie	-12.1841
ets	-12.1846
▁unlike	-12.185
rept	-12.1856
after	-12.1862
_.	-12.1862
▁75	-12.1866
▁limits	-12.1867
▁Fl	-12.1869
▁fee	-12.1872
uardians	-12.1881
▁equals	-12.1883
▁thinkin	-12.1884
▁errors	-12.1888
iness	-12.1889
Lots	-12.1899
▁dislike	-12.19
▁listener	-12.1904
▁chances	-12.1909
OLUM	-12.1919
▁Cam	-12.1919
▁lid	-12.192
▁turkeys	-12.1921
▁deny	-12.1926
▁É	-12.1928
▁siren	-12.1929
ö	-12.1933
umbled	-12.1942
▁1.1	-12.1943
▁Ven	-12.1945
▁associate	-12.1947
take	-12.1947
sk	-12.1948
▁inner	-12.1956
2,	-12.1958
war	-12.1971
▁bra	-12.1974
▁Ches	-12.1974
▁oop	-12.1983
▁FRO	-12.1985
▁leaders	-12.1987
putt	-12.1989
▁packages	-12.1992
guer	-12.1996
EST	-12.1999
▁sources	-12.2
▁lu	-12.2002
journ	-12.2002
▁wonders	-12.2011
▁troll	-12.2018
▁onions	-12.2027
▁sounding	-12.2034
▁wander	-12.2058
upon	-12.2059
▁55	-12.2059
▁travels	-12.2059
▁paw	-12.206
▁Cay	-12.2062
iled	-12.2066
▁Inter	-12.2066
▁STAR	-12.2067
keep	-12.2071
Persian	-12.2076
45	-12.2076
rances	-12.2077
▁forks	-12.2079
▁Heh	-12.2082
▁cages	-12.2086
▁ru	-12.2088
ld	-12.2089
▁Burg	-12.2096
▁killings	-12.2096
▁tails	-12.2101
▁titles	-12.2105
▁Macleods	-12.2111
rá	-12.2126
▁em	-12.2133
▁newspapers	-12.2134
▁Hell	-12.2134
ugged	-12.2145
mpression	-12.2148
▁magazines	-12.2148
▁aboard	-12.2153
▁doc	-12.2166
▁3.5	-12.2181
▁Bir	-12.2181
▁revolt	-12.2184
▁mirrors	-12.2186
LES	-12.2187
▁boil	-12.2192
▁bites	-12.2206
ita	-12.2209
▁iP	-12.2212
first	-12.2213
▁Dan	-12.2217
▁gaz	-12.2218
4.3	-12.2223
▁droop	-12.2223
▁urban	-12.2226
UE	-12.2228
▁Whigs	-12.2231
▁minded	-12.2236
▁tins	-12.2245
▁commit	-12.225
▁Bi	-12.2257
▁erases	-12.2257
▁Cla	-12.2259
armed	-12.2264
00.	-12.2265
▁hotels	-12.2274
voted	-12.2276
▁61	-12.2278
▁98	-12.2286
▁trucks	-12.2294
another	-12.2294
beat	-12.2296
▁Tar	-12.2301
▁subjects	-12.2317
ski	-12.2319
▁perch	-12.2327
ister	-12.2333
▁Ton	-12.2345
▁operat	-12.2352
referr	-12.236
saw	-12.2364
uck	-12.2366
liness	-12.2371
▁1951	-12.2378
▁Step	-12.2379
▁Whit	-12.2387
▁evolve	-12.2387
5.4	-12.2393
really	-12.2393
met	-12.2394
▁1959	-12.24
▁Bid	-12.2401
face	-12.2404
▁rub	-12.2407
▁Wal	-12.241
▁1896	-12.2413
▁1999	-12.2433
▁masters	-12.2435
▁suits	-12.2435
▁Sp	-12.2439
though	-12.2439
urled	-12.2441
▁pit	-12.2444
▁height	-12.2454
3.9	-12.2454
▁knocks	-12.249
port	-12.2496
▁Days	-12.25
block	-12.2502
choo	-12.2502
▁witch	-12.2503
▁Kat	-12.2504
want	-12.2504
mighty	-12.2506
▁comp	-12.251
▁Kin	-12.2514
▁"_	-12.2517
▁praise	-12.252
cap	-12.2521
climb	-12.2529
See	-12.254
▁Jam	-12.2542
handle	-12.2543
ded	-12.2546
▁edges	-12.255
▁1943	-12.255
lée	-12.255
ELL	-12.2557
▁Sch	-12.256
Right	-12.256
maybe	-12.2565
umber	-12.2569
▁committees	-12.2573
magnetic	-12.2576
Ha	-12.2576
▁95	-12.2579
nched	-12.2585
almost	-12.2586
white	-12.2587
woman	-12.2587
remember	-12.2602
▁owl	-12.2605
▁hum	-12.2609
én	-12.2618
een	-12.262
▁excel	-12.2629
nia	-12.2636
running	-12.2637
▁leads	-12.2638
▁spinn	-12.2643
▁Hals	-12.2643
▁dies	-12.2643
Christmas	-12.2643
▁Te	-12.2651
wife	-12.2653
▁fro	-12.2666
mong	-12.2669
▁rent	-12.267
MP	-12.2672
explain	-12.2672
▁(19	-12.2674
whispered	-12.2677
▁bio	-12.2677
risk	-12.2678
bly	-12.2679
enans	-12.268
fried	-12.2682
iff	-12.2686
ick	-12.2688
▁lakes	-12.269
▁hail	-12.2692
▁Ski	-12.2695
Hank	-12.2695
▁kills	-12.2699
▁Ko	-12.2701
Take	-12.2705
eight	-12.2706
Dad	-12.2706
videotape	-12.2706
Two	-12.2709
complete	-12.2709
▁adopt	-12.2709
insistent	-12.2713
ademoiselle	-12.2713
pause	-12.2714
▁Hal	-12.2716
Better	-12.2716
firmly	-12.2716
Grand	-12.2716
Club	-12.2717
WHERE	-12.2718
cluele	-12.2718
Lord	-12.2719
berger	-12.272
|	-12.2722
friendly	-12.2724
▁choices	-12.2724
▁Fi	-12.2726
ney	-12.2726
▁sour	-12.2727
Many	-12.2735
▁surprises	-12.2737
▁Revolutionar	-12.2741
▁joys	-12.2741
coloring	-12.2743
▁Kari	-12.2744
Say	-12.2746
LAUGH	-12.2748
▁critic	-12.2754
gave	-12.2756
ired	-12.2762
ST	-12.2764
ester	-12.2768
▁Mid	-12.2768
▁murmur	-12.2769
ternity	-12.2769
▁Sul	-12.2773
seems	-12.2778
▁Arch	-12.278
▁Cl	-12.278
GAR	-12.2787
▁attache	-12.2788
▁affection	-12.2788
▁routine	-12.2789
▁Fly	-12.2792
▁mechanic	-12.2793
▁percentage	-12.2803
▁banjo	-12.2804
▁colon	-12.2806
▁corporation	-12.2806
▁Championship	-12.2808
▁statistic	-12.2808
▁Wood	-12.281
West	-12.281
▁divers	-12.2811
▁website	-12.2811
Red	-12.2813
▁Spark	-12.2813
▁freeze	-12.2817
▁suggestion	-12.2817
▁scissor	-12.2819
▁1944	-12.282
▁Rivers	-12.2821
▁Bank	-12.2822
od	-12.2824
▁Ross	-12.2829
▁frock	-12.283
Her	-12.283
▁bells	-12.2837
▁somersault	-12.2839
France	-12.2842
▁spear	-12.2842
med	-12.2843
4.7	-12.2848
▁rd	-12.2853
▁33	-12.2853
atch	-12.2859
ERS	-12.2859
St	-12.2864
uttering	-12.2864
▁convention	-12.287
▁2003.	-12.2875
▁usage	-12.2876
bef	-12.2881
▁complaint	-12.2884
▁qu	-12.2885
▁factor	-12.2889
▁Non	-12.2895
▁NEED	-12.2896
hmm	-12.2904
▁BROWN	-12.2914
▁disgust	-12.2918
▁proceed	-12.292
▁z	-12.2922
▁ramp	-12.2923
▁architect	-12.2925
▁disturb	-12.2927
▁pr	-12.2927
▁Wolf	-12.2931
▁graduat	-12.2932
▁Cop	-12.2934
▁compromise	-12.2938
▁tremble	-12.2939
▁haste	-12.294
▁hollo	-12.294
▁encounter	-12.2943
▁froze	-12.2943
▁layer	-12.2944
▁overwhelm	-12.2944
▁encourage	-12.2945
uicide	-12.2947
haired	-12.2949
▁lecture	-12.295
▁Sugar	-12.2951
▁scoot	-12.2953
▁restore	-12.2954
oon	-12.2955
▁XVI	-12.2956
▁Salva	-12.2957
ssouri	-12.2958
▁guitar	-12.2958
▁Interpret	-12.2958
▁municipal	-12.2958
▁Chavannes	-12.2958
Î	-12.2958
▁Anthony	-12.2958
▁Arkansas	-12.2958
▁Baxter	-12.2958
▁Canelones	-12.2958
▁Chuganji	-12.2958
▁Commerce	-12.2958
▁Consumer	-12.2958
▁DANNY	-12.2958
▁Dommartin	-12.2958
▁Drosophilidae	-12.2958
▁Dupree	-12.2958
▁Emergency	-12.2958
▁Energy	-12.2958
▁Fulton	-12.2958
▁Galaxy	-12.2958
▁Gambaccini	-12.2958
▁Gervassen	-12.2958
▁Hercules	-12.2958
▁Hirsch	-12.2958
▁JUVENILES	-12.2958
▁Kramatorsk	-12.2958
▁Lafferty	-12.2958
▁Lucifer	-12.2958
▁MICHELLE	-12.2958
▁Magazine	-12.2958
▁Mercedes	-12.2958
▁Monroe	-12.2958
▁Montilliez	-12.2958
▁Pawnee	-12.2958
▁Ralph	-12.2958
▁SPRING	-12.2958
▁Solomon	-12.2958
▁TEMPLE	-12.2958
▁Tallahassee	-12.2958
▁Trujillo	-12.2958
▁Wisconsin	-12.2958
▁Yamazaki	-12.2958
▁arithmetic	-12.2958
▁barricade	-12.2958
▁bewildered	-12.2958
▁bewilderment	-12.2958
▁cocaine	-12.2958
▁dimension	-12.2958
▁discreet	-12.2958
▁hickory	-12.2958
▁hummocks	-12.2958
▁inkfishes	-12.2958
▁intervals	-12.2958
▁lafferty	-12.2958
▁lesbian	-12.2958
▁opponent	-12.2958
▁parliament	-12.2958
▁participating	-12.2958
▁phonics	-12.2958
▁prohibition	-12.2958
▁qualified	-12.2958
▁reindeer	-12.2958
▁serpent	-12.2958
▁substance	-12.2958
▁verdict	-12.2958
▁Honeysuckle	-12.2958
▁Lynch	-12.2958
▁SCHOOL	-12.2958
▁Statistic	-12.2958
▁bureau	-12.2958
▁evaluation	-12.2958
▁hammock	-12.2958
▁instinctively	-12.2958
▁mutual	-12.2958
▁narrative	-12.2958
▁opportunities	-12.2958
▁quantities	-12.2958
▁Alicia	-12.2958
▁Vogel	-12.2958
▁external	-12.2958
▁sheriff	-12.2958
▁veranda	-12.2958
▁warfare	-12.2958
▁Bateman	-12.2958
▁Lynn	-12.2958
▁Monique	-12.2958
▁SPELL	-12.2958
▁Tsada	-12.2958
▁communities	-12.2958
▁marvellous	-12.2958
MLB	-12.2958
▁Beauty	-12.2958
▁Bureau	-12.2958
▁Doolittle	-12.2958
▁Pazzaglia	-12.2958
▁Ramsay	-12.2958
▁casino	-12.2958
▁tippet	-12.2958
Anhalt	-12.2958
▁dentist	-12.2958
▁Appeal	-12.2958
TRUMAN	-12.2958
▁Fibrian	-12.2958
▁stadium	-12.2958
▁Agency	-12.2958
▁Yamada	-12.2958
▁Connie	-12.2958
▁trauma	-12.2958
▁untidy	-12.2958
▁Blaine	-12.2958
▁TWO	-12.2958
▁complex	-12.2958
▁chieftain	-12.2958
▁despised	-12.2958
▁controversy	-12.2958
▁Sterling	-12.2958
▁enemies	-12.2958
▁Tucker	-12.2958
▁XIV	-12.2958
▁Blakeman	-12.2958
▁Bravo	-12.2958
▁festival	-12.2958
▁Johnnie	-12.2958
▁Wayne	-12.2958
▁chuckle	-12.2958
▁italian	-12.2958
▁comparison	-12.2958
▁Either	-12.2959
▁punctuation	-12.2959
▁Apollo	-12.2959
▁Nevada	-12.2959
▁ponies	-12.2959
▁Palace	-12.2959
▁suture	-12.2959
▁Ruiz	-12.2959
▁gruffly	-12.2959
▁plague	-12.2959
stution	-12.2959
▁barefoot	-12.2959
▁corruption	-12.2959
▁Staff	-12.2959
▁Federation	-12.2959
▁AWAY	-12.2959
▁Mumps	-12.2959
▁Whidb	-12.2959
▁muslin	-12.2959
▁poppop	-12.2959
▁CLOSES	-12.2959
▁MUCH	-12.2959
▁Gaskins	-12.2959
▁Legislature	-12.2959
▁wolves	-12.2959
▁blabber	-12.2959
▁FIRE	-12.2959
▁battered	-12.2959
▁educator	-12.2959
▁charities	-12.2959
▁Java	-12.2959
▁describing	-12.2959
▁marten	-12.2959
▁godfather	-12.2959
▁novelist	-12.2959
▁judgment	-12.2959
▁rubbed	-12.2959
▁Protection	-12.2959
▁MONKEY	-12.2959
▁admission	-12.2959
▁helmet	-12.2959
▁Belfast	-12.2959
▁crude	-12.2959
▁strictly	-12.2959
▁surplus	-12.2959
▁cranberry	-12.2959
▁extraordinary	-12.2959
▁hostess	-12.2959
▁masterpiece	-12.2959
▁Yoshino	-12.2959
▁Screw	-12.2959
▁contemptuously	-12.2959
▁SIR	-12.2959
▁truncata	-12.2959
LARS	-12.2959
▁infection	-12.2959
dbury	-12.2959
▁goblin	-12.2959
▁ABC	-12.2959
▁Wendy	-12.2959
▁circuit	-12.2959
▁travelling	-12.296
▁transcript	-12.296
▁carpenter	-12.296
▁advisor	-12.296
▁Faction	-12.296
▁Engineering	-12.296
▁harmless	-12.296
▁Lucky	-12.296
▁transferred	-12.296
▁Perch	-12.296
▁sunfish	-12.296
▁continuously	-12.296
▁subconsciously	-12.296
▁genie	-12.296
▁Tribe	-12.296
▁MOVE	-12.296
▁1924	-12.296
▁hunhunh	-12.296
▁assistance	-12.296
▁travelled	-12.296
▁Trade	-12.296
▁administrator	-12.296
▁flicker	-12.296
▁Together	-12.296
▁Discover	-12.2961
▁Sharon	-12.2961
▁deliberately	-12.2961
hansk	-12.2961
▁technology	-12.2961
▁sawmill	-12.2961
▁division	-12.2961
▁wowie	-12.2961
▁chef	-12.2961
▁Jamal	-12.2961
▁lemon	-12.2961
▁Slayer	-12.2961
▁Jenni	-12.2961
▁DAD	-12.2961
▁surf	-12.2961
▁salad	-12.2961
▁Jun	-12.2962
▁certificate	-12.2962
▁Riverside	-12.2962
▁Seriously	-12.2962
▁presentation	-12.2962
▁Giovanni	-12.2962
▁eldest	-12.2962
▁shady	-12.2962
▁Gregg	-12.2962
▁voce	-12.2963
▁Ethan	-12.2963
▁devoted	-12.2963
▁acknowledge	-12.2963
▁Report	-12.2963
▁requirement	-12.2963
▁clapping	-12.2964
▁hopefully	-12.2964
▁universe	-12.2964
▁10%	-12.2965
▁password	-12.2965
▁Ouch	-12.2965
▁separately	-12.2965
▁lightning	-12.2965
▁touchdown	-12.2965
▁taxes	-12.2965
▁Burton	-12.2965
▁rendered	-12.2965
▁outfit	-12.2965
▁Personally	-12.2965
▁Christie	-12.2965
▁considerably	-12.2965
▁sweetness	-12.2965
▁croak	-12.2966
▁FACE	-12.2966
▁bride	-12.2966
▁suitable	-12.2966
▁prudent	-12.2966
▁wrestler	-12.2966
reliable	-12.2966
▁glider	-12.2967
▁Lance	-12.2967
zul	-12.2967
▁Sierra	-12.2968
▁pissed	-12.2968
▁rapture	-12.2968
▁weeping	-12.2969
née	-12.2969
▁julian	-12.2969
▁swayed	-12.297
▁enormously	-12.297
▁tub	-12.297
▁Yup	-12.297
▁ambulance	-12.2971
▁Rover	-12.2971
▁Bando	-12.2972
▁survived	-12.2972
▁disturbed	-12.2972
▁daylight	-12.2972
cking	-12.2973
▁Luke	-12.2973
▁creepy	-12.2973
▁reduced	-12.2973
▁gloomy	-12.2974
▁Poland	-12.2974
Billboard	-12.2974
▁Socialist	-12.2974
▁pierce	-12.2975
▁homework	-12.2976
gnens	-12.2976
▁1954)	-12.2976
▁improve	-12.2976
▁novice	-12.2976
▁spoiled	-12.2977
▁modest	-12.2977
▁obey	-12.2978
▁slumber	-12.2978
▁Tea	-12.2978
▁sweeping	-12.2978
▁Archa	-12.2978
▁Turner	-12.2978
▁virus	-12.2979
▁poisoned	-12.2979
▁tomatoes	-12.2979
▁distinguished	-12.2979
clunks	-12.298
▁hooker	-12.298
▁restored	-12.2981
▁silently	-12.2981
▁marching	-12.2981
▁Hesse	-12.2982
▁oxygen	-12.2982
▁Trost	-12.2983
▁spanking	-12.2983
cher	-12.2984
▁Yost	-12.2984
▁challeng	-12.2984
▁persuade	-12.2984
▁Awesome	-12.2984
▁GIRLS	-12.2984
▁juncture	-12.2984
▁Alstarnah	-12.2985
▁Venezuela	-12.2985
▁buckingham	-12.2985
▁Gosh	-12.2985
▁speeches	-12.2985
▁ignored	-12.2985
▁rattling	-12.2985
▁Cinderella	-12.2985
▁woodpecker	-12.2985
▁changies	-12.2985
▁bib	-12.2985
▁SANTA	-12.2986
ered	-12.2986
▁comprehension	-12.2986
▁Syria	-12.2986
▁CARE	-12.2986
▁assumed	-12.2986
▁shocked	-12.2987
▁Illustrations	-12.2987
▁suspected	-12.2988
▁transcribed	-12.2988
▁engineering	-12.2989
▁missus	-12.2989
▁Rockas	-12.2989
▁nickname	-12.299
▁Iranian	-12.299
▁anythin	-12.299
▁Guam	-12.2991
▁mangos	-12.2991
▁Beck	-12.2991
▁sealed	-12.2993
▁chiefly	-12.2993
▁sandwiches	-12.2994
▁hassy	-12.2994
▁Ru	-12.2994
▁saunter	-12.2995
▁Labs	-12.2995
▁meaningless	-12.2995
▁fury	-12.2996
▁sober	-12.2997
▁Store	-12.2997
▁equally	-12.2997
▁Mole	-12.2997
▁endeavour	-12.2998
garet	-12.2998
▁taping	-12.3
tmospher	-12.3
▁Ceramic	-12.3
▁bonk	-12.3001
▁mink	-12.3001
▁waved	-12.3002
▁Fork	-12.3002
Memorial	-12.3003
▁nighttime	-12.3003
▁caves	-12.3004
Nor	-12.3005
wiping	-12.3005
▁Steve	-12.3006
rcade	-12.3006
▁achieved	-12.3006
▁takin	-12.3007
▁tricky	-12.3007
▁brushed	-12.3008
▁lago	-12.3008
▁considering	-12.3008
▁Arr	-12.3008
▁confess	-12.3008
▁pow	-12.3009
▁Kate	-12.3011
▁blessed	-12.3011
▁diplomatic	-12.3011
▁LONG	-12.3013
▁Rick	-12.3013
▁dryer	-12.3013
▁waitress	-12.3015
▁scold	-12.3015
▁consequences	-12.3015
▁Hart	-12.3015
ologist	-12.3015
▁Name	-12.3016
▁waking	-12.3017
▁freely	-12.3018
▁chairman	-12.3018
▁traveled	-12.3018
▁invest	-12.3019
▁BBC	-12.3019
▁Paradise	-12.3021
▁Manchester	-12.3021
▁Neither	-12.3022
▁Tales	-12.3023
▁cur	-12.3026
▁romance	-12.3029
▁circuses	-12.3032
▁dug	-12.3033
▁Jacques	-12.3033
▁brook	-12.3034
▁Sally	-12.3034
▁Dale	-12.3034
uhu	-12.3036
▁barked	-12.3036
▁plugs	-12.3037
▁passages	-12.3037
▁2021)	-12.3038
▁overcome	-12.3039
eval	-12.3041
▁Arabs	-12.3042
▁forgetting	-12.3043
▁fooled	-12.3043
1953)	-12.3043
▁COL	-12.3045
▁deeds	-12.3046
Bur	-12.3047
▁smack	-12.3048
▁Bern	-12.3049
ory	-12.3049
▁Iowa	-12.3049
▁aspect	-12.3049
▁gladly	-12.305
▁wobble	-12.3052
▁wider	-12.3053
▁troops	-12.3053
▁chewing	-12.3054
▁Harun	-12.3054
▁garth	-12.3055
▁eastward	-12.3055
▁Canal	-12.3056
▁giggling	-12.3057
▁Donneloye	-12.3058
▁rifles	-12.3059
▁overnight	-12.3059
▁ancestors	-12.3059
▁Variations	-12.3059
bert	-12.3059
▁Systems	-12.306
▁FIN	-12.306
▁businesses	-12.3061
▁autonom	-12.3062
IS	-12.3066
▁toaster	-12.3069
▁Georgi	-12.307
▁bursting	-12.307
▁Student	-12.3072
tor	-12.3073
▁Noel	-12.3075
▁Made	-12.3078
17	-12.3079
▁donkey	-12.308
▁arf	-12.308
▁kicking	-12.3082
▁contented	-12.3083
1921	-12.3087
oping	-12.3089
▁51	-12.3091
▁loaded	-12.3092
▁trusted	-12.3092
▁riots	-12.3093
▁ruins	-12.3095
eno	-12.3095
ality	-12.3095
▁ferns	-12.3095
▁stacking	-12.3098
▁mend	-12.3102
▁skates	-12.3104
▁liking	-12.3105
▁blend	-12.3107
▁beasts	-12.3111
▁homeward	-12.3112
▁coughs	-12.3118
▁exile	-12.3118
▁margin	-12.312
▁heating	-12.3121
▁marketing	-12.3122
▁dough	-12.3122
▁syllables	-12.3126
▁assholes	-12.3126
IE	-12.3131
▁MU	-12.3132
▁ditch	-12.3132
▁landed	-12.3139
▁Gran	-12.3141
▁translate	-12.3142
▁Br	-12.3144
▁imp	-12.3147
▁blunt	-12.3152
▁Lama	-12.3154
▁True	-12.3156
▁drying	-12.3156
▁dread	-12.3158
▁3.8	-12.3158
▁makeup	-12.3159
▁topic	-12.3159
▁planet	-12.3161
▁boxer	-12.3163
▁Animals	-12.3169
▁volunteers	-12.317
▁explaining	-12.3174
▁mademoiselle	-12.3175
▁factors	-12.3175
▁worship	-12.3178
▁sur	-12.3179
run	-12.3181
▁dancer	-12.3182
▁Eight	-12.3185
▁Guess	-12.319
▁standin	-12.3192
outhern	-12.3195
▁photograph	-12.3196
nyone	-12.3197
ecutive	-12.3198
▁Bund	-12.3204
▁hereby	-12.3205
▁bathing	-12.3211
▁fallin	-12.3215
▁strangers	-12.3221
▁meetings	-12.3226
▁Plan	-12.3227
LLOWS	-12.3228
▁cleared	-12.3239
zo	-12.3243
▁genuine	-12.3244
▁Amen	-12.325
▁splash	-12.3251
▁Brave	-12.3252
▁deaths	-12.3252
▁lamps	-12.3253
▁unintelligible	-12.3253
▁fellas	-12.3255
▁Avery	-12.3258
▁leagues	-12.3261
ap	-12.3261
fe	-12.3262
sotto	-12.3263
▁Mon	-12.3267
▁fore	-12.3267
mple	-12.3267
je	-12.3267
▁SU	-12.3271
hitting	-12.3273
▁softer	-12.3277
▁Pra	-12.328
class	-12.3284
ulens	-12.3287
▁checks	-12.3287
▁adults	-12.3288
▁doubtful	-12.3289
▁rags	-12.3291
▁Follow	-12.3294
bell	-12.3302
▁comics	-12.3303
Pin	-12.3303
ug	-12.3307
▁piss	-12.3309
▁dashe	-12.331
▁photos	-12.3312
mer	-12.3314
▁mission	-12.3319
▁mingl	-12.332
▁Fellow	-12.3321
▁Daniels	-12.3323
▁spells	-12.3325
▁principles	-12.3325
gna	-12.3328
▁classic	-12.3331
assive	-12.3333
▁cheers	-12.3335
▁laundr	-12.3342
▁organizations	-12.3347
▁undo	-12.3352
▁sleeves	-12.3353
▁Eisen	-12.3355
▁forests	-12.3359
▁volumes	-12.3367
iz	-12.3374
▁outward	-12.3375
▁Springs	-12.338
▁Sound	-12.3385
▁heated	-12.3391
nsu	-12.3391
ockey	-12.3393
▁Pene	-12.3394
▁Maid	-12.3396
▁dam	-12.3401
▁tune	-12.341
▁clients	-12.3412
▁fe	-12.3413
ev	-12.3428
▁Pi	-12.3428
▁dudes	-12.3429
▁paddle	-12.343
▁HI	-12.3433
▁Chan	-12.3436
▁Lar	-12.3437
ure	-12.344
cast	-12.3444
incorrect	-12.3448
▁Die	-12.3449
▁Rad	-12.3452
ston	-12.3457
rin	-12.3464
▁Lis	-12.3466
ivar	-12.3467
▁battles	-12.347
ium	-12.3471
▁occasions	-12.3472
▁bounds	-12.3472
arian	-12.3473
▁shrink	-12.348
myr	-12.348
▁pots	-12.3489
▁Dec	-12.3491
▁Bang	-12.3492
▁managers	-12.3499
▁bush	-12.35
▁LOS	-12.3502
▁luxur	-12.3504
▁bait	-12.3508
▁reject	-12.3516
CA	-12.3516
▁conditions	-12.3519
▁1990.	-12.3527
bear	-12.3527
uel	-12.353
▁helper	-12.3532
▁bon	-12.3532
placement	-12.3535
▁advantages	-12.3536
▁forwards	-12.3542
▁bananas	-12.3546
opped	-12.3552
2.	-12.3554
▁remembering	-12.3554
▁Others	-12.3559
▁beard	-12.3564
▁bundles	-12.3568
▁drivers	-12.3573
tz	-12.3578
▁fished	-12.3582
▁lighter	-12.3588
▁gr	-12.359
▁Ne	-12.359
▁qui	-12.3593
▁rec	-12.3601
▁1968,	-12.3607
▁hearth	-12.3611
5.8	-12.3612
ctor	-12.3631
▁Col	-12.3634
▁endure	-12.3644
▁controll	-12.3651
cks	-12.3662
▁emotional	-12.3662
1.	-12.3664
ONS	-12.3667
▁guessed	-12.3671
anned	-12.3671
▁gates	-12.3673
▁edit	-12.3676
stand	-12.3681
ichi	-12.3686
▁Marcel	-12.3695
hot	-12.3698
whine	-12.3701
▁ar	-12.371
▁videotape	-12.3715
31	-12.3728
▁scrape	-12.3731
▁Saf	-12.3731
babbles	-12.3731
phin	-12.3734
▁overall	-12.3734
▁workin	-12.3738
▁Monte	-12.3739
▁squeal	-12.3744
▁employ	-12.375
lines	-12.3752
▁suggests	-12.3753
lar	-12.3762
▁dangers	-12.3766
▁crimes	-12.3781
▁2.5	-12.3783
ove	-12.3785
▁echo	-12.3786
cock	-12.3786
ID	-12.3787
boys	-12.3788
▁owners	-12.3788
eign	-12.3793
▁Hans	-12.3798
▁oar	-12.3801
correct	-12.3803
▁gifts	-12.3805
▁Cas	-12.3805
▁Duck	-12.3808
mail	-12.3811
kar	-12.3814
anton	-12.3815
cut	-12.3818
▁partners	-12.3819
▁Ball	-12.382
stop	-12.3825
▁depend	-12.3825
▁campus	-12.3825
▁dart	-12.3836
▁rivers	-12.3846
▁dee	-12.3856
▁truthful	-12.3858
▁Ice	-12.3863
thank	-12.3867
OWN	-12.387
rk	-12.3874
▁Hav	-12.3875
▁films	-12.3877
▁singsong	-12.3877
gt	-12.388
▁(10	-12.3881
wi	-12.3882
oval	-12.3887
step	-12.3889
▁lalal	-12.3889
▁Inside	-12.3889
giving	-12.3893
▁slate	-12.3896
shaw	-12.3897
▁Creat	-12.3901
▁owes	-12.3904
▁quarters	-12.3915
▁favorites	-12.3917
▁spa	-12.3918
father	-12.3921
ced	-12.3922
sa	-12.3925
▁Send	-12.394
▁Wi	-12.394
stead	-12.3943
bed	-12.3953
ability	-12.3963
minded	-12.398
ä	-12.398
always	-12.3988
▁DA	-12.3988
▁grumble	-12.3992
té	-12.4
▁bellow	-12.4005
does	-12.401
▁WAL	-12.4013
mont	-12.4017
wing	-12.4017
thod	-12.4022
aking	-12.4022
▁clo	-12.4022
turtle	-12.4027
Dance	-12.4028
own	-12.4032
▁kn	-12.4033
these	-12.4034
ith	-12.4036
▁64	-12.4054
▁Wa	-12.4065
▁82	-12.4067
▁sore	-12.4076
▁1861	-12.4076
▁52	-12.4081
train	-12.4081
sure	-12.4087
▁Mari	-12.4092
▁HA	-12.4102
_2	-12.4104
-1	-12.4104
cloth	-12.4106
meeting	-12.4109
tes	-12.4117
▁seed	-12.412
sit	-12.4122
▁Messi	-12.4124
aa	-12.4129
í	-12.4135
▁rig	-12.4138
▁aft	-12.414
▁goo	-12.4143
urs	-12.4149
▁Boh	-12.4151
ROM	-12.4151
dden	-12.4152
▁giggles	-12.4152
force	-12.4154
HE	-12.4155
6.5	-12.4158
▁babe	-12.4159
▁Bor	-12.4162
BA	-12.4173
Word	-12.4173
----	-12.4175
bal	-12.4176
▁Roll	-12.4177
▁Har	-12.4179
ius	-12.418
keeper	-12.4181
ouncillor	-12.4184
otic	-12.4184
▁184	-12.4185
ried	-12.4185
week	-12.4189
turned	-12.4205
Tick	-12.4208
▁backs	-12.4211
ang	-12.4211
▁partial	-12.4212
ks	-12.4212
▁strings	-12.4213
ong	-12.4217
color	-12.4219
pole	-12.4224
eller	-12.4229
▁Ban	-12.423
wise	-12.4232
33	-12.4235
▁rightly	-12.4235
▁compassion	-12.4236
▁doubl	-12.4238
heart	-12.4242
hen	-12.4243
sometimes	-12.4246
lot	-12.4254
object	-12.4256
▁roses	-12.4257
▁2.3	-12.4261
▁CA	-12.4268
ially	-12.4268
movie	-12.4268
care	-12.427
▁attracti	-12.4271
▁dip	-12.4273
47	-12.4281
▁recogniz	-12.4282
▁ensu	-12.4284
▁[12	-12.4287
▁bud	-12.4293
▁1992.	-12.4293
green	-12.4295
als	-12.4298
suspect	-12.4302
cular	-12.4305
▁mar	-12.4307
com	-12.4307
French	-12.4313
▁cu	-12.4315
▁mak	-12.4322
Harper	-12.4328
People	-12.4329
07	-12.433
Great	-12.4333
include	-12.4334
Nothing	-12.4335
▁Rai	-12.4341
▁chi	-12.4342
unk	-12.4345
Tripp	-12.4347
90	-12.4349
true	-12.4354
bite	-12.4355
Neil	-12.4357
Listen	-12.4357
▁differences	-12.4358
imploded	-12.4358
spread	-12.4359
▁link	-12.436
successfully	-12.436
third	-12.4365
▁ab	-12.4366
whimpering	-12.4367
Stop	-12.4367
Pitt	-12.4369
Guess	-12.4369
knife	-12.4372
Black	-12.4372
match	-12.4372
penny	-12.4373
▁ease	-12.4375
apparently	-12.4375
Candyman	-12.4375
Yverdon	-12.4375
▁[17	-12.4378
smiling	-12.4378
flying	-12.4378
Shut	-12.4378
Ukrainian	-12.4381
Keep	-12.4382
whimpers	-12.4382
doves	-12.4383
Hurry	-12.4384
Lausanne	-12.4384
Stacy	-12.4384
poor	-12.4387
Old	-12.439
Pop	-12.4398
named	-12.4398
dialog	-12.4402
mademoiselle	-12.4402
Sir	-12.4403
ahn	-12.4405
Hey	-12.4406
burn	-12.4406
mine	-12.4407
ways	-12.4409
DO	-12.4409
erases	-12.4409
▁mover	-12.4417
MO	-12.4421
▁ST	-12.4423
COV	-12.4425
grunts	-12.443
▁contribute	-12.4432
▁Late	-12.4448
leaves	-12.445
▁yawn	-12.4452
▁Rowntree	-12.4454
▁Thornton	-12.4454
▁emperor	-12.4454
▁fossil	-12.4454
▁ambition	-12.4456
▁187	-12.4457
▁Juli	-12.4458
▁vital	-12.4458
▁tradition	-12.446
▁oo	-12.4463
ass	-12.4466
▁medi	-12.4469
TA	-12.4469
▁acquaintance	-12.4469
▁crisp	-12.4471
ren	-12.4472
▁treasure	-12.4472
▁Glen	-12.4473
slides	-12.4474
▁raccoon	-12.4474
▁championship	-12.4474
▁1965	-12.4475
▁sailor	-12.4476
▁civilian	-12.4476
▁objective	-12.4478
▁hiccup	-12.4478
▁bean	-12.4479
▁Natur	-12.4481
knocks	-12.4481
▁ag	-12.4481
▁fraud	-12.4482
▁permit	-12.4483
▁Writer	-12.4483
▁thumb	-12.4484
▁Service	-12.4485
▁Blue	-12.4486
ears	-12.4488
▁angel	-12.449
▁Sister	-12.449
▁shave	-12.449
▁insect	-12.4492
▁data	-12.4494
▁Band	-12.4495
▁wrist	-12.4496
nicky	-12.4497
▁genre	-12.4497
cept	-12.4498
▁palm	-12.4498
OUT	-12.4499
▁cabbage	-12.45
▁1937	-12.4501
▁Kansa	-12.4501
▁Fish	-12.4501
▁prisoner	-12.4503
▁argument	-12.4504
utonom	-12.4506
▁fern	-12.4512
▁Key	-12.4512
▁employee	-12.4512
ink	-12.4514
▁PR	-12.4516
▁stripe	-12.4517
▁$1	-12.4519
▁complain	-12.4522
▁Devil	-12.453
TH	-12.4531
▁(1	-12.4535
poles	-12.4543
onne	-12.4544
▁upward	-12.455
▁reproach	-12.4554
▁continent	-12.4558
▁Dai	-12.4561
▁merit	-12.4563
▁[$=	-12.4564
▁endeavor	-12.4564
om	-12.4569
ILDA	-12.4571
raffic	-12.4573
rod	-12.4574
▁Ever	-12.4578
quin	-12.4579
▁define	-12.458
▁Ag	-12.4586
▁disguis	-12.4588
▁dar	-12.4591
▁disappoint	-12.4593
ions	-12.4593
▁shiver	-12.4596
▁slam	-12.4599
▁loser	-12.46
▁reverse	-12.4604
▁recruit	-12.4606
▁fighter	-12.4606
▁argue	-12.4607
▁convince	-12.4607
▁reduce	-12.4607
▁punish	-12.4609
▁Korea	-12.461
▁Marsh	-12.461
▁XV	-12.4613
pigot	-12.4613
▁republic	-12.4614
▁commence	-12.4615
▁talent	-12.4615
▁promises	-12.4615
▁fare	-12.4616
▁Bowl	-12.4616
▁Monke	-12.4617
▁random	-12.462
▁CIRCU	-12.462
▁venture	-12.462
▁Serious	-12.4621
outhwestern	-12.4622
▁XII	-12.4623
▁multicultural	-12.4623
IGHT	-12.4624
▁earnest	-12.4624
▁grocer	-12.4624
▁recollect	-12.4625
▁sovereign	-12.4625
▁cinema	-12.4625
▁Pazzag	-12.4625
▁Dompierre	-12.4625
▁excursion	-12.4625
exasperat	-12.4625
â	-12.4625
ś	-12.4625
▁Piedmont	-12.4625
COOPER	-12.4625
Chavornay	-12.4625
Chestnut	-12.4625
Dalbergia	-12.4625
à	-12.4625
▁Alabama	-12.4625
▁Alejandro	-12.4625
▁Anoctah	-12.4625
▁Barbara	-12.4625
▁Beatrice	-12.4625
▁Beijing	-12.4625
▁Bubba	-12.4625
▁CHILDREN	-12.4625
▁Cunningham	-12.4625
▁EDITH	-12.4625
▁Eclagnens	-12.4625
▁Ecuador	-12.4625
▁Fantastic	-12.4625
▁Fitzgerald	-12.4625
▁Flycatcher	-12.4625
▁Fontanezier	-12.4625
▁Gavà	-12.4625
▁Gippsland	-12.4625
▁Goldsmith	-12.4625
▁Goumoëns	-12.4625
▁Jellyfish	-12.4625
▁Kelantan	-12.4625
▁Lanchester	-12.4625
▁Language	-12.4625
▁MAGIC	-12.4625
▁MISTAKE	-12.4625
▁MUSIC	-12.4625
▁Masakuni	-12.4625
▁Massacre	-12.4625
▁Miyamoto	-12.4625
▁Morticia	-12.4625
▁Neptune	-12.4625
▁Nestlé	-12.4625
▁Oedipus	-12.4625
▁Okinawa	-12.4625
▁Peacocke	-12.4625
▁Ratcliffe	-12.4625
▁Relax	-12.4625
▁Rhonda	-12.4625
▁Romairon	-12.4625
▁Rovray	-12.4625
▁SWEET	-12.4625
▁Semenza	-12.4625
▁Snyder	-12.4625
▁Species	-12.4625
▁Swahili	-12.4625
▁Takahara	-12.4625
▁Tehran	-12.4625
▁Tekirdağ	-12.4625
▁Teraoka	-12.4625
▁Tévenon	-12.4625
▁Uegaki	-12.4625
▁Yamamoto	-12.4625
▁Zhadan	-12.4625
▁behaviour	-12.4625
▁clarinet	-12.4625
▁constellation	-12.4625
▁countenance	-12.4625
▁defensive	-12.4625
▁eugenioi	-12.4625
▁juggling	-12.4625
▁jurisdiction	-12.4625
▁lollipop	-12.4625
▁manufacturing	-12.4625
▁mbbm	-12.4625
▁merchant	-12.4625
▁mischievous	-12.4625
▁nephew	-12.4625
▁particulates	-12.4625
▁possibilities	-12.4625
▁prosopagnosia	-12.4625
▁pseudonym	-12.4625
▁scarecrow	-12.4625
▁sequel	-12.4625
▁stimulus	-12.4625
▁sturdy	-12.4625
▁wheelbarrow	-12.4625
▁AFTER	-12.4625
▁Duflo	-12.4625
▁Hitler	-12.4625
▁Nicatoos	-12.4625
▁Prefecture	-12.4625
▁Roosky	-12.4625
▁Scotia	-12.4625
▁THOUGHT	-12.4625
▁accelerat	-12.4625
▁devotion	-12.4625
▁eligible	-12.4625
▁zebra	-12.4625
▁Bunkie	-12.4625
▁Manager	-12.4625
▁Nevertheless	-12.4625
▁Porgie	-12.4625
▁SEARCH	-12.4625
▁centimeters	-12.4625
▁decelerat	-12.4625
▁remorse	-12.4625
▁survivors	-12.4625
▁vampire	-12.4625
▁vault	-12.4625
▁violets	-12.4625
▁virtue	-12.4625
HUMMING	-12.4625
▁Answer	-12.4625
▁Geneva	-12.4625
▁monitor	-12.4625
▁retrieve	-12.4625
▁Definitely	-12.4625
▁OFFERED	-12.4625
▁Scissor	-12.4625
▁Stupid	-12.4625
▁batteries	-12.4625
▁priorities	-12.4625
▁violence	-12.4625
▁confusion	-12.4625
▁extensive	-12.4625
▁Alliance	-12.4625
▁LETTER	-12.4625
▁dingdong	-12.4625
▁Parlor	-12.4625
▁facilities	-12.4625
▁grandeur	-12.4625
▁gullies	-12.4625
▁physician	-12.4625
▁brooch	-12.4625
▁kingdom	-12.4625
▁Vermont	-12.4625
▁quantity	-12.4625
▁Colbert	-12.4625
▁eternal	-12.4625
▁implement	-12.4625
▁knelt	-12.4625
▁René	-12.4625
▁shield	-12.4625
▁BATH	-12.4625
▁Salmon	-12.4625
▁jeffersonian	-12.4625
▁Daisy	-12.4625
▁Saragi	-12.4625
▁creaks	-12.4625
▁Leslie	-12.4625
▁Colombia	-12.4625
▁HORSE	-12.4625
▁Ridge	-12.4625
▁Abdel	-12.4625
▁Urgh	-12.4625
▁engrav	-12.4625
▁Arnex	-12.4625
▁BABY	-12.4625
▁precinct	-12.4625
▁LAURA	-12.4625
▁Hampton	-12.4625
▁Holck	-12.4625
▁Hyacinth	-12.4625
▁captivity	-12.4625
▁establishment	-12.4625
▁USSR	-12.4625
▁temptation	-12.4625
▁$500	-12.4625
▁Marcia	-12.4625
▁Rhodesia	-12.4625
▁cockatoo	-12.4625
▁Crossfire	-12.4625
▁JULIA	-12.4625
▁NEVER	-12.4625
▁civilization	-12.4625
▁spider	-12.4625
▁MORE	-12.4625
▁proportion	-12.4625
▁Pollard	-12.4625
▁Hesston	-12.4625
▁cleanliness	-12.4625
▁psychiatrist	-12.4625
▁Whistler	-12.4625
▁froggie	-12.4625
▁sovereignty	-12.4625
▁HBO	-12.4625
▁988)	-12.4625
▁unaware	-12.4625
▁Gamble	-12.4625
▁historian	-12.4625
▁Dennis	-12.4625
▁Fortunately	-12.4625
▁Cyprus	-12.4625
▁SHOW	-12.4625
▁Wilson	-12.4625
▁jellyfishes	-12.4625
▁Goddammit	-12.4625
▁bookworm	-12.4625
▁Temperance	-12.4625
▁drummer	-12.4625
▁uncommon	-12.4625
▁goshawk	-12.4625
▁radioactive	-12.4625
▁PARTNER	-12.4625
▁documentary	-12.4625
▁mirth	-12.4625
▁Magic	-12.4625
▁poverty	-12.4625
▁Oslo	-12.4626
▁Grandpa	-12.4626
▁comfortably	-12.4626
▁Egyptian	-12.4626
▁Careful	-12.4626
▁unbelievable	-12.4626
▁observation	-12.4626
▁Person	-12.4626
▁walnutting	-12.4626
▁temple	-12.4626
▁wrestling	-12.4626
▁Cancer	-12.4626
▁Riley	-12.4626
▁butterflies	-12.4626
▁spiritual	-12.4626
▁conviction	-12.4626
▁stabbed	-12.4626
▁mudhole	-12.4626
▁(1973)	-12.4626
ondrous	-12.4626
▁Dumpty	-12.4626
▁bullshit	-12.4626
▁creaking	-12.4626
▁1920	-12.4626
▁contribution	-12.4626
▁Medal	-12.4626
▁flashlight	-12.4626
▁contrary	-12.4626
▁partnership	-12.4626
▁homesickness	-12.4626
▁Castle	-12.4626
▁blueberry	-12.4626
▁Kirk	-12.4626
▁bashful	-12.4626
ence	-12.4626
▁Tomatoes	-12.4626
▁apologies	-12.4626
▁unique	-12.4626
▁VIP	-12.4626
▁YEARS	-12.4626
▁1908	-12.4626
▁spinach	-12.4626
▁Jordan	-12.4626
▁motionless	-12.4626
▁retorted	-12.4626
▁YOUNG	-12.4626
▁brisk	-12.4626
▁timber	-12.4627
▁apology	-12.4627
▁confrontation	-12.4627
▁Gilles	-12.4627
▁theoretical	-12.4627
▁AGA	-12.4627
▁Pickle	-12.4627
▁Michelle	-12.4627
▁regiment	-12.4627
▁Slim	-12.4627
▁defence	-12.4627
▁quarterback	-12.4627
▁JANE	-12.4627
▁fondness	-12.4627
▁(2014)	-12.4627
▁Dunno	-12.4628
▁LIVE	-12.4628
▁Stamp	-12.4628
▁rosewood	-12.4628
▁misbehave	-12.4628
▁padded	-12.4628
▁tacky	-12.4628
▁Landsberg	-12.4628
▁divine	-12.4628
▁Slowly	-12.4628
▁sugarcane	-12.4628
▁Enjoy	-12.4628
▁Shereen	-12.4628
▁peasant	-12.4628
▁metropolitan	-12.4629
▁jury	-12.4629
▁engagement	-12.4629
▁vicious	-12.4629
▁devastated	-12.4629
▁slim	-12.4629
▁disposition	-12.4629
▁Building	-12.4629
▁strengthened	-12.4629
▁1961)	-12.4629
▁Todd	-12.4629
▁prescribe	-12.463
▁hockey	-12.463
▁Cosmo	-12.463
▁specialty	-12.463
▁thief	-12.463
▁endorsed	-12.463
▁Singh	-12.463
▁soberly	-12.463
▁dummy	-12.463
▁profile	-12.4631
▁copied	-12.4631
▁Sheila	-12.4631
▁Hiya	-12.4632
▁Evette	-12.4632
▁attendant	-12.4632
▁auction	-12.4632
▁photographer	-12.4632
▁WON	-12.4632
▁enable	-12.4632
▁1956)	-12.4632
▁chirping	-12.4632
▁Human	-12.4632
▁participated	-12.4632
▁Storm	-12.4632
▁Donbas	-12.4633
▁offense	-12.4633
▁Mesk	-12.4633
▁blup	-12.4633
▁concluded	-12.4633
▁thither	-12.4634
▁boyhood	-12.4634
▁accomplished	-12.4634
▁Atlanta	-12.4634
▁breed	-12.4634
▁tempted	-12.4634
▁remarkable	-12.4634
▁Nei	-12.4634
▁Hamburg	-12.4635
▁BEST	-12.4635
▁Wales	-12.4635
▁drowning	-12.4635
▁unlocked	-12.4635
▁finalist	-12.4635
▁stinking	-12.4636
▁shaved	-12.4636
▁Kazu	-12.4636
▁invaded	-12.4636
▁VIII	-12.4637
▁haunted	-12.4637
▁springtime	-12.4637
▁untied	-12.4637
▁inventor	-12.4637
▁departed	-12.4638
cyclist	-12.4638
▁rejoiced	-12.4638
▁growling	-12.4638
▁enchant	-12.4638
▁invisible	-12.4638
▁echoed	-12.4638
▁Harrison	-12.4639
▁mister	-12.4639
nasal	-12.4639
▁shivered	-12.4639
▁Walter	-12.4639
▁Tibetan	-12.4639
▁(14	-12.4639
▁followers	-12.4639
▁cherish	-12.4639
▁Abbas	-12.464
▁Train	-12.464
▁descendants	-12.464
▁squad	-12.4641
▁Bran	-12.4642
▁Angela	-12.4642
▁hypocrite	-12.4642
▁Peng	-12.4643
▁filter	-12.4643
▁smelt	-12.4643
60	-12.4643
▁handful	-12.4644
ritique	-12.4644
▁disgusting	-12.4644
▁Victory	-12.4644
▁fragrant	-12.4644
mad	-12.4644
▁expanded	-12.4645
▁thankfully	-12.4645
▁2024	-12.4645
dry	-12.4645
▁yoyo	-12.4645
▁molecul	-12.4645
▁Englishman	-12.4646
▁blah	-12.4646
▁1955)	-12.4646
▁Landing	-12.4646
eep	-12.4646
▁chuckled	-12.4646
▁encouraged	-12.4646
▁CAREER	-12.4647
▁shutting	-12.4647
▁dwel	-12.4647
▁strongest	-12.4647
▁JACK	-12.4648
▁thoughtful	-12.4648
▁Hiro	-12.4649
▁repaired	-12.465
▁HAPPY	-12.465
▁captured	-12.4651
▁cheaper	-12.4651
▁waist	-12.4651
▁unsuccessful	-12.4651
▁declare	-12.4651
▁brood	-12.4651
▁robbed	-12.4651
▁slime	-12.4652
melia	-12.4652
▁fifteenth	-12.4652
▁chewy	-12.4652
▁Howard	-12.4652
▁HELP	-12.4653
AUGHT	-12.4653
▁gratitude	-12.4653
lan	-12.4654
▁Testa	-12.4654
▁lyin	-12.4654
▁Negro	-12.4655
▁physicist	-12.4655
▁Hakeem	-12.4655
▁downtown	-12.4655
▁Eduard	-12.4655
▁Vienna	-12.4655
▁Tallula	-12.4655
▁advertisement	-12.4655
▁collapse	-12.4655
▁grandpa	-12.4655
▁primitive	-12.4655
▁footsteps	-12.4656
▁Sweetie	-12.4656
▁Television	-12.4656
▁Previously	-12.4656
▁humour	-12.4656
▁Harold	-12.4656
▁Judge	-12.4656
▁admirabl	-12.4656
▁existed	-12.4657
▁Fool	-12.4657
▁Scottish	-12.4657
▁Funny	-12.4657
_3	-12.4657
▁audio	-12.4657
Ju	-12.4657
▁philosophical	-12.4658
▁Swan	-12.4658
▁vertebrae	-12.4658
▁assisted	-12.4658
SAID	-12.4659
▁elsewhere	-12.4659
▁reactor	-12.4659
▁spelt	-12.4659
▁Alfredo	-12.4659
▁Aires	-12.4659
▁Jock	-12.4659
▁lobe	-12.4659
▁ballroom	-12.466
▁Philippe	-12.4661
▁behaving	-12.4661
▁WATER	-12.4661
▁guaranteed	-12.4661
purity	-12.4662
▁clang	-12.4662
▁wreck	-12.4662
rawi	-12.4663
▁Whoever	-12.4663
▁commented	-12.4664
▁snapping	-12.4664
▁backhand	-12.4664
▁complaining	-12.4665
▁borrowed	-12.4665
▁Porto	-12.4665
▁maam	-12.4665
▁printers	-12.4666
▁willingly	-12.4666
▁Sears	-12.4666
▁foul	-12.4666
▁interior	-12.4666
▁avoided	-12.4667
▁lifetime	-12.4669
▁sinking	-12.467
▁awakened	-12.4671
▁couches	-12.4672
▁bravely	-12.4672
▁teased	-12.4673
▁Less	-12.4673
▁publicly	-12.4674
▁cupboard	-12.4676
▁carby	-12.4677
▁researcher	-12.4677
▁defender	-12.4679
▁Luis	-12.468
▁faction	-12.468
▁3.1	-12.468
▁overtake	-12.4681
▁communication	-12.4681
▁EVEN	-12.4682
▁plumes	-12.4683
▁Gold	-12.4683
ajan	-12.4686
▁resume	-12.4686
took	-12.4686
▁threatening	-12.4687
▁cured	-12.4687
▁witnesses	-12.4688
▁dearest	-12.4688
▁appropriately	-12.4689
▁knuckles	-12.469
▁assent	-12.4691
ending	-12.4691
▁casual	-12.4692
▁quilts	-12.4692
▁deeper	-12.4692
▁settlers	-12.4692
▁crotchets	-12.4692
▁(9	-12.4693
▁script	-12.4693
▁decidedly	-12.4694
▁hoop	-12.4694
▁Miles	-12.4696
▁Guer	-12.4696
▁poachers	-12.4696
▁squeezed	-12.4698
▁hideous	-12.4698
▁Large	-12.4699
▁Site	-12.47
▁wit	-12.47
▁Stories	-12.47
▁utt	-12.4701
▁bribe	-12.4701
▁dre	-12.4702
▁EFF	-12.4704
▁filth	-12.4704
▁eaves	-12.4705
▁rewind	-12.4705
west	-12.4705
▁clattering	-12.4707
▁headquarter	-12.4707
▁realistic	-12.4708
▁GLAD	-12.4708
▁Count	-12.4709
▁soaked	-12.4709
▁buff	-12.4712
▁fitting	-12.4713
spress	-12.4713
▁smother	-12.4714
Screaming	-12.4714
▁Hale	-12.4714
▁wel	-12.4715
▁beads	-12.4715
masses	-12.4716
▁Pan	-12.4717
kick	-12.4717
▁el	-12.4718
▁Meet	-12.4718
▁hangin	-12.4719
▁hunters	-12.4719
▁windshields	-12.4719
▁carrie	-12.472
▁Whoops	-12.4721
▁res	-12.4721
▁stump	-12.4721
▁trapped	-12.4722
▁stunt	-12.4723
▁awaken	-12.4724
▁hace	-12.4724
▁poisoning	-12.4726
▁henry	-12.4727
bois	-12.4727
▁Friends	-12.4728
▁damaged	-12.4731
▁immortal	-12.4731
▁burrow	-12.4731
▁misses	-12.4735
wide	-12.4736
▁judged	-12.4736
dale	-12.4736
faced	-12.4736
▁Tsu	-12.4738
▁appealing	-12.4739
▁absent	-12.4742
▁Ghost	-12.4742
▁failing	-12.4744
▁reviews	-12.4745
▁surroundings	-12.4745
▁Walendas	-12.4745
▁vitamins	-12.4746
▁beater	-12.4746
▁bandages	-12.4747
dwin	-12.4748
▁Emili	-12.4749
ab	-12.4751
▁holders	-12.4755
▁damp	-12.4756
▁balanced	-12.4756
minated	-12.4756
▁brightly	-12.4757
▁slap	-12.4759
▁Bright	-12.4763
▁hub	-12.4763
▁mop	-12.4765
▁holly	-12.4766
▁fucker	-12.4767
▁posted	-12.477
▁Fight	-12.477
▁frauds	-12.477
▁(5	-12.4774
▁dna	-12.4778
says	-12.4778
▁petition	-12.4779
iously	-12.4779
▁cooler	-12.4779
▁Shh	-12.478
ci	-12.4782
▁genera	-12.4782
▁FAIR	-12.4783
▁woes	-12.4784
▁COLD	-12.4787
▁unto	-12.4787
▁rung	-12.4787
▁messing	-12.4787
▁outcome	-12.4788
▁freak	-12.4788
▁Names	-12.4788
vi	-12.4788
▁REAL	-12.4793
▁decks	-12.4794
▁Louise	-12.4795
▁suggestions	-12.4799
▁somersaults	-12.4799
▁rack	-12.4799
▁formation	-12.48
▁rash	-12.4801
rest	-12.4801
▁angels	-12.4801
environmentalist	-12.4802
Johann	-12.4802
▁lively	-12.4803
▁Ana	-12.4803
4.2	-12.4806
▁Emir	-12.4806
little	-12.4806
▁farming	-12.4807
▁fleet	-12.4811
▁grants	-12.4812
▁Collegi	-12.4813
▁mary	-12.4816
pending	-12.4818
▁que	-12.4819
▁eighth	-12.482
works	-12.4822
▁lanterns	-12.4825
▁detache	-12.4827
▁appreciated	-12.4827
▁disk	-12.4828
▁mules	-12.4831
pox	-12.4831
seven	-12.4832
▁trot	-12.4835
▁gene	-12.4836
▁Rivera	-12.4841
▁Hour	-12.4841
za	-12.4844
lves	-12.4845
▁1918	-12.4847
▁tutor	-12.485
▁Paph	-12.485
▁senators	-12.4852
leaned	-12.4855
▁(17	-12.4857
AL	-12.4858
▁taxis	-12.4859
nding	-12.4861
▁4.5	-12.4865
!'"	-12.4865
▁walkin	-12.4866
▁crew	-12.487
fastened	-12.487
▁flames	-12.4871
▁stoned	-12.4874
1963)	-12.4875
▁beings	-12.4875
▁tits	-12.4876
▁Taka	-12.4878
▁tonic	-12.488
lier	-12.4883
rcol	-12.4884
▁Heron	-12.4885
▁sap	-12.4888
▁stink	-12.4891
▁supporter	-12.4892
▁hanged	-12.4895
type	-12.4895
▁urns	-12.4899
▁glare	-12.4904
▁thus	-12.4905
▁Ald	-12.4906
▁ordering	-12.4907
kus	-12.4909
▁anus	-12.4909
▁stead	-12.491
▁1913	-12.4915
▁dissolve	-12.4918
▁insistent	-12.4924
)"	-12.4928
▁Tonsils	-12.4932
//	-12.4936
▁expans	-12.4937
RY	-12.4941
ov	-12.4942
orex	-12.4943
baldi	-12.4944
▁192	-12.4946
▁49	-12.4947
ounty	-12.4949
▁graphic	-12.4954
▁Shoot	-12.4956
▁constables	-12.4957
▁sunk	-12.4957
▁elbows	-12.4957
ould	-12.4958
▁Adventure	-12.4964
abbage	-12.4966
▁induce	-12.4966
▁raft	-12.4967
▁Born	-12.4967
▁2.6	-12.4969
▁stables	-12.4972
▁PO	-12.4973
ainly	-12.4974
▁files	-12.4974
▁Lamb	-12.4976
bin	-12.4979
▁tended	-12.498
▁ofthe	-12.4984
▁Marbles	-12.4984
llowing	-12.4986
,]	-12.4987
▁crows	-12.4991
ialogue	-12.5
▁fried	-12.5001
▁thi	-12.5001
▁Vall	-12.5002
onia	-12.5005
rich	-12.5006
ub	-12.502
▁vary	-12.5022
hy	-12.5023
▁skirts	-12.5027
▁END	-12.5028
▁drums	-12.5035
▁Inc	-12.5035
▁Simpsons	-12.5037
nets	-12.5038
outed	-12.5039
▁clue	-12.504
▁bases	-12.504
▁1923	-12.5041
lon	-12.5045
▁womb	-12.5053
1941)	-12.5054
▁Sort	-12.5057
▁dedicate	-12.5057
▁preserve	-12.5059
▁Fre	-12.5061
▁hawk	-12.5062
▁Qu	-12.5063
▁Sá	-12.5067
▁PS	-12.5068
order	-12.5071
gue	-12.5074
▁Kha	-12.5076
orduroy	-12.5076
▁39	-12.5081
chian	-12.5082
▁functions	-12.509
ives	-12.5093
▁Barr	-12.5094
▁whine	-12.5094
eadow	-12.5094
▁financi	-12.5095
ux	-12.5099
wai	-12.51
▁pictured	-12.5103
shy	-12.5104
▁rac	-12.5111
ís	-12.5112
▁Sleep	-12.5114
▁shift	-12.5115
▁Due	-12.512
▁satin	-12.5122
oul	-12.5122
▁[8.	-12.5124
▁joints	-12.513
date	-12.5131
▁Priso	-12.5135
raging	-12.5137
▁cooker	-12.5143
correcting	-12.5148
ua	-12.515
▁entertain	-12.5152
▁56	-12.516
▁gee	-12.516
▁im	-12.5167
▁Fun	-12.5171
hop	-12.5173
lies	-12.5177
▁Books	-12.5177
▁fronto	-12.5177
ner	-12.5181
▁stor	-12.5186
▁motorcycles	-12.5196
▁tro	-12.5197
▁Gun	-12.5202
ilkman	-12.5204
▁render	-12.5205
▁appearances	-12.5211
hind	-12.5211
icular	-12.5211
pper	-12.5212
▁Char	-12.5215
▁fearful	-12.5217
"—	-12.5218
▁Catholics	-12.5222
try	-12.5229
▁82.	-12.5236
▁tal	-12.5237
everend	-12.5238
▁northwest	-12.5238
▁Simone	-12.5244
▁ached	-12.5245
▁afar	-12.5253
▁appreciates	-12.5253
35	-12.5257
▁inappropriate	-12.5259
▁Works	-12.526
▁Es	-12.5262
ssums	-12.5262
gone	-12.5267
▁grandmothers	-12.5275
▁liver	-12.5276
FK	-12.5278
▁und	-12.5284
ane	-12.5289
yeah	-12.5289
▁yuck	-12.5293
▁Walk	-12.5293
▁Pick	-12.5296
oopsie	-12.5297
▁shovels	-12.5297
ieur	-12.5298
▁eatin	-12.53
▁bicycles	-12.53
western	-12.5301
agent	-12.5301
ement	-12.5304
Down	-12.5306
▁Ser	-12.5307
▁breasts	-12.5314
ue	-12.5315
▁165	-12.5317
▁Burn	-12.5317
▁acro	-12.5319
ough	-12.532
▁loft	-12.532
▁stated	-12.5321
▁steer	-12.5322
▁purposes	-12.5327
▁whittle	-12.5334
hook	-12.5353
mill	-12.5358
hr	-12.5361
▁spur	-12.5363
▁Eat	-12.5365
▁+	-12.5368
▁84	-12.5369
sen	-12.5371
▁employe	-12.5373
ds	-12.5373
▁officiate	-12.5381
▁undergo	-12.539
▁floors	-12.5392
longed	-12.5395
▁cardi	-12.5399
IP	-12.54
7.5	-12.5405
path	-12.5406
▁69	-12.541
▁Masa	-12.5413
▁prob	-12.5419
100	-12.5421
▁blames	-12.5429
▁computers	-12.5432
▁str	-12.5438
▁mot	-12.5439
▁Kan	-12.5443
▁hood	-12.5453
▁Que	-12.5454
oreign	-12.5456
cold	-12.5467
ille	-12.5468
▁Francesc	-12.5473
▁expose	-12.548
▁Stre	-12.548
ONCE	-12.5485
atal	-12.5496
net	-12.5497
▁Frei	-12.5509
▁winds	-12.5511
▁Ash	-12.5516
▁troop	-12.5518
▁peck	-12.5519
ura	-12.5523
▁seeming	-12.5524
▁incorporated	-12.5524
▁mor	-12.5529
▁Fisher	-12.5536
▁pear	-12.5539
▁delay	-12.5542
▁wars	-12.5543
▁mode	-12.5545
nny	-12.5547
▁Set	-12.5559
▁cuts	-12.556
▁explore	-12.5562
▁Dominic	-12.5563
usbee	-12.5563
door	-12.5574
win	-12.5577
semit	-12.5582
▁acquit	-12.5583
▁showers	-12.5586
▁pew	-12.5616
ánd	-12.5617
▁baker	-12.5624
never	-12.5625
ix	-12.563
uf	-12.563
lock	-12.563
▁fort	-12.5633
▁gap	-12.5633
bs	-12.5634
▁forge	-12.5637
▁colleges	-12.5641
▁41	-12.5644
▁Laun	-12.5646
▁populations	-12.5648
ants	-12.565
odern	-12.565
era	-12.5653
▁Pl	-12.5655
noted	-12.5659
pop	-12.5675
ept	-12.568
▁Sad	-12.5682
▁circula	-12.5687
trained	-12.5687
▁proven	-12.5687
▁fools	-12.5691
É	-12.5691
▁Nu	-12.5696
▁Chu	-12.5704
▁Fra	-12.5705
▁yells	-12.5712
ups	-12.5717
open	-12.572
▁lest	-12.572
▁nestle	-12.5722
▁constitute	-12.5725
▁Dam	-12.5733
sir	-12.5739
▁noses	-12.5744
järvi	-12.5751
mom	-12.5752
▁drawings	-12.5758
tial	-12.5762
oni	-12.5764
▁civilize	-12.5765
venge	-12.5771
aga	-12.5771
▁blues	-12.5777
3%	-12.578
teller	-12.5786
ek	-12.5789
▁Communit	-12.5791
AAA	-12.5795
again	-12.5798
val	-12.5798
▁bun	-12.5798
▁44	-12.5803
neu	-12.5807
ously	-12.5808
reach	-12.581
reservation	-12.5814
▁65	-12.5814
anuel	-12.5819
stic	-12.5819
▁Ea	-12.5823
Ge	-12.5826
▁oppos	-12.5828
▁ver	-12.583
▁Certain	-12.5834
▁cou	-12.5837
great	-12.584
▁Cut	-12.5842
▁va	-12.5848
—"	-12.585
aka	-12.586
▁wakes	-12.5863
mouth	-12.5864
▁Doc	-12.5866
rug	-12.587
ared	-12.5877
Got	-12.5882
many	-12.5895
▁outline	-12.5897
voice	-12.5901
cked	-12.5927
ardly	-12.5934
willn	-12.5934
▁pains	-12.5951
tha	-12.5953
letter	-12.596
itz	-12.5969
cup	-12.5982
zing	-12.5997
▁onward	-12.6002
lated	-12.6004
dding	-12.6013
watch	-12.6014
▁1890	-12.6017
ments	-12.6019
▁rs	-12.6022
founded	-12.6022
▁1979.	-12.6024
▁Ples	-12.6026
rsity	-12.6032
tempo	-12.6036
▁pairs	-12.6037
▁Jen	-12.6037
▁1956	-12.6041
▁flatter	-12.6042
wed	-12.6047
FF	-12.605
▁soil	-12.6053
▁71	-12.6053
aw	-12.6055
nior	-12.6058
uk	-12.6064
▁bugg	-12.607
anilla	-12.607
tsk	-12.6071
ask	-12.6074
▁MISS	-12.6074
▁2023.	-12.6079
▁Desp	-12.6082
ker	-12.6082
▁Yam	-12.6088
▁1888	-12.6091
arc	-12.6098
92.	-12.6103
pile	-12.6105
▁sho	-12.6106
nothing	-12.6107
▁Rossi	-12.6109
1970)	-12.612
past	-12.6124
1992)	-12.6125
bar	-12.6125
Dess	-12.6128
dur	-12.613
▁1988.	-12.6131
▁repel	-12.6134
▁brew	-12.6135
▁Kr	-12.6141
▁publish	-12.6141
believe	-12.6149
quarter	-12.6151
brother	-12.6159
wan	-12.6162
specially	-12.6164
ngs	-12.6174
shirt	-12.6179
▁Williams	-12.618
crawl	-12.618
Day	-12.6181
small	-12.6181
snake	-12.6185
iate	-12.6187
▁Enri	-12.6194
20	-12.6195
both	-12.6198
1000	-12.6198
▁Ashl	-12.6199
▁Gra	-12.6201
▁Dani	-12.6202
NO	-12.6212
▁fabric	-12.6222
gate	-12.6224
yan	-12.6224
Mot	-12.623
▁Ph	-12.623
ida	-12.6234
CB	-12.6235
barrel	-12.6239
elin	-12.6242
lived	-12.6247
active	-12.6253
▁fig	-12.6254
▁wrap	-12.6257
▁produc	-12.626
stay	-12.6262
business	-12.6262
▁examples	-12.6266
▁Progress	-12.6267
▁Beyon	-12.6272
broken	-12.6273
▁pays	-12.6276
▁hospitals	-12.6276
▁Finn	-12.6287
uil	-12.6294
bottom	-12.6295
▁refuge	-12.6298
Would	-12.6306
Ka	-12.6308
state	-12.631
national	-12.6312
▁Galle	-12.6314
language	-12.6316
tal	-12.6318
State	-12.6324
▁46	-12.6324
via	-12.6331
glass	-12.6332
ars	-12.6335
Very	-12.6337
spirit	-12.6338
▁counts	-12.6341
▁via	-12.6341
runner	-12.6343
important	-12.6344
ize	-12.6346
tripp	-12.6346
dressed	-12.6348
www	-12.6349
▁Off	-12.6355
taperecorder	-12.6356
▁Dirt	-12.6356
Give	-12.6357
slowly	-12.6359
hash	-12.6361
▁Bus	-12.6361
anny	-12.6362
front	-12.6363
ritable	-12.6363
▁Tho	-12.6364
launch	-12.6365
carefully	-12.6365
revolutionary	-12.6366
Before	-12.6367
growly	-12.6368
Carry	-12.6369
flies	-12.637
True	-12.6371
winning	-12.6372
▁Vaug	-12.6372
Jones	-12.6373
creaky	-12.6374
Fantasy	-12.6374
Bob	-12.6374
voiceless	-12.6375
▁scor	-12.6375
Next	-12.6375
▁Emma	-12.6376
grown	-12.6376
spilled	-12.6378
aught	-12.6378
deep	-12.6379
Stay	-12.638
closing	-12.638
crumbs	-12.6381
Bless	-12.6382
bishop	-12.6382
Lucens	-12.6382
▁tones	-12.6382
shouts	-12.6383
repeatedly	-12.6383
Lor	-12.6384
senator	-12.6385
UNDER	-12.6386
▁emphasis	-12.6386
SA	-12.6387
modern	-12.6387
Clock	-12.6388
cooked	-12.6388
listening	-12.6389
Was	-12.639
From	-12.639
Tock	-12.6392
part	-12.6393
smoking	-12.6393
▁napkins	-12.6393
coin	-12.6394
Hold	-12.6396
loudly	-12.6398
iamb	-12.64
stretched	-12.6401
thology	-12.6401
ging	-12.6402
▁wrench	-12.6402
▁exp	-12.6406
picking	-12.6407
scribbles	-12.641
holy	-12.641
▁wool	-12.6411
softer	-12.6412
▁Cover	-12.6413
ref	-12.6413
wheels	-12.6415
▁taps	-12.6416
▁alleviat	-12.6422
▁tad	-12.6425
▁amiabl	-12.6426
pay	-12.6429
▁privilege	-12.6429
Won	-12.6429
Fuck	-12.6434
Gar	-12.644
girls	-12.6441
▁des	-12.6441
legs	-12.6442
q	-12.6445
fi	-12.6446
▁exam	-12.6447
▁philanthropist	-12.6453
▁Kennedy	-12.6453
▁Mountie	-12.6453
▁chamber	-12.6454
▁beggar	-12.6455
▁snail	-12.6455
▁Rui	-12.6455
▁whe	-12.6456
▁preacher	-12.6456
▁["	-12.6457
▁firearm	-12.6458
▁Mul	-12.6458
▁muster	-12.6461
▁maiden	-12.6463
uti	-12.6463
▁Hel	-12.6463
riz	-12.6464
▁lamb	-12.6466
▁bandage	-12.6467
▁culvert	-12.6467
▁Yankee	-12.6467
▁Jew	-12.6468
▁tavern	-12.6469
ecki	-12.6469
ANT	-12.6471
▁Folcutt	-12.6474
rope	-12.6474
▁celebration	-12.6474
▁mumble	-12.6475
▁Tac	-12.6477
▁grin	-12.6478
▁hou	-12.6478
▁composition	-12.6478
Mrs	-12.6479
▁Walenda	-12.648
▁FEL	-12.648
▁System	-12.6481
▁Variation	-12.6481
▁ancestor	-12.6481
▁expense	-12.6482
▁walnut	-12.6482
28	-12.6482
▁surrounding	-12.6482
án	-12.6483
▁Affair	-12.6484
▁review	-12.6484
▁competitor	-12.6485
▁pigeon	-12.6486
▁nerve	-12.6486
▁ew	-12.6486
▁mixer	-12.6487
6)	-12.6488
▁PER	-12.649
▁Paper	-12.6499
▁stair	-12.65
cumbe	-12.6502
▁enthusias	-12.6504
▁tips	-12.6509
▁Flower	-12.6511
crete	-12.6514
▁vitamin	-12.6515
dime	-12.6515
▁toss	-12.6516
▁hon	-12.6517
▁rifle	-12.6523
▁psycho	-12.6529
▁Carlo	-12.6529
Young	-12.653
▁Friend	-12.6531
3.3	-12.6531
ual	-12.6536
▁nex	-12.6539
Had	-12.6545
▁Harr	-12.6548
comment	-12.6549
▁Rhy	-12.6556
▁astonish	-12.656
▁WAY	-12.6563
Things	-12.6565
▁180	-12.6566
▁IMPO	-12.657
pplause	-12.6574
▁resident	-12.6575
▁coax	-12.6579
cannon	-12.6583
▁involv	-12.6589
▁Kara	-12.6592
4.6	-12.6593
IES	-12.6597
▁annoy	-12.66
▁Lords	-12.66
▁dwell	-12.6601
▁deprive	-12.6602
bart	-12.6604
▁bronze	-12.6604
▁evacuate	-12.6605
▁recite	-12.6606
ei	-12.6607
▁plunge	-12.6608
▁blub	-12.6609
▁threaten	-12.6609
č	-12.6609
▁survive	-12.6611
▁establish	-12.6611
hausen	-12.6613
▁haunt	-12.6617
nsurance	-12.6617
▁Engine	-12.6617
ROUND	-12.6619
VERY	-12.6619
▁confident	-12.6619
▁shrewd	-12.6619
▁SHARK	-12.662
etropolitan	-12.662
SN	-12.6621
▁Amazon	-12.6621
▁Historic	-12.6621
▁surve	-12.6622
▁stocking	-12.6622
▁darlin	-12.6623
▁Universi	-12.6624
thletic	-12.6624
▁televis	-12.6624
colleg	-12.6624
AVE	-12.6624
lavi	-12.6625
▁JESS	-12.6625
øn	-12.6625
(192,200)}	-12.6625
▁Lloyd	-12.6625
▁Pelodryadi	-12.6625
▁domestic	-12.6625
▁CONFEREN	-12.6625
Jambuda	-12.6625
Mézery	-12.6625
Zamenhof	-12.6625
▁ADVENTURE	-12.6625
▁AUTHOR	-12.6625
▁Anchorage	-12.6625
▁Bastards	-12.6625
▁Brunswick	-12.6625
▁Buchanan	-12.6625
▁Bærum	-12.6625
▁CHOOSE	-12.6625
▁CUPID	-12.6625
▁Canterbury	-12.6625
▁Caterpillar	-12.6625
▁Cathedral	-12.6625
▁Chimbote	-12.6625
▁Dolgan	-12.6625
▁ELEPHANT	-12.6625
▁EWING	-12.6625
▁Envelope	-12.6625
▁Eventually	-12.6625
▁Fusako	-12.6625
▁GODDESS	-12.6625
▁Glasgow	-12.6625
▁Global	-12.6625
▁Hadewych	-12.6625
▁Henniez	-12.6625
▁Icicle	-12.6625
▁Inditex	-12.6625
▁Iroquois	-12.6625
▁Kathikas	-12.6625
▁LGBT	-12.6625
▁Leicester	-12.6625
▁Mabaleka	-12.6625
▁Melinda	-12.6625
▁Monument	-12.6625
▁Murphy	-12.6625
▁Namekata	-12.6625
▁Nicaragua	-12.6625
▁ORPHAN	-12.6625
▁Ogdensburg	-12.6625
▁Ogletree	-12.6625
▁Okudaira	-12.6625
▁Ontario	-12.6625
▁Ostrobothnia	-12.6625
▁Otsuki	-12.6625
▁Pakistan	-12.6625
▁Peebles	-12.6625
▁Pharmaceuticals	-12.6625
▁Pittsburgh	-12.6625
▁Pulaski	-12.6625
▁Puritan	-12.6625
▁Renault	-12.6625
▁Ribeira	-12.6625
▁Rodríguez	-12.6625
▁Salazar	-12.6625
▁Shattuck	-12.6625
▁Singapore	-12.6625
▁Thailand	-12.6625
▁Traveller	-12.6625
▁Trudeau	-12.6625
▁Tsvetaeva	-12.6625
▁Twelve	-12.6625
▁UNESCO	-12.6625
▁VULCAN	-12.6625
▁Vegetables	-12.6625
▁Wyoming	-12.6625
▁Zavorotnyu	-12.6625
▁agriculture	-12.6625
▁asphalt	-12.6625
▁binoculars	-12.6625
▁boomerang	-12.6625
▁bracelet	-12.6625
▁cauldron	-12.6625
▁contemporary	-12.6625
▁elastic	-12.6625
▁entrepreneur	-12.6625
▁exertion	-12.6625
▁extension	-12.6625
▁fervently	-12.6625
▁grumpy	-12.6625
▁hippopotamus	-12.6625
▁hollyhocks	-12.6625
▁identical	-12.6625
▁implications	-12.6625
▁inhabited	-12.6625
▁integrity	-12.6625
▁intelligence	-12.6625
▁kildees	-12.6625
▁kindergarten	-12.6625
▁martyr	-12.6625
▁miserably	-12.6625
▁nimbly	-12.6625
▁obstacle	-12.6625
▁peekaboo	-12.6625
▁pinafore	-12.6625
▁precipice	-12.6625
▁prejudice	-12.6625
▁reluctance	-12.6625
▁scenario	-12.6625
▁substantial	-12.6625
▁trampoline	-12.6625
▁transgender	-12.6625
▁trapeze	-12.6625
▁unkempt	-12.6625
▁virtually	-12.6625
▁zombies	-12.6625
▁Étalans	-12.6625
▁(1999)	-12.6625
▁Alissa	-12.6625
▁Arnold	-12.6625
▁Delaware	-12.6625
▁Dolores	-12.6625
▁Durazno	-12.6625
▁Malaysia	-12.6625
▁Nixon	-12.6625
▁Norwich	-12.6625
▁Rosemary	-12.6625
▁Soprano	-12.6625
▁TROUBLE	-12.6625
▁Wizard	-12.6625
▁calico	-12.6625
▁celebrating	-12.6625
▁fancies	-12.6625
▁floozy	-12.6625
▁forefathers	-12.6625
▁kiawe	-12.6625
▁merrily	-12.6625
▁pandemic	-12.6625
▁shepherd	-12.6625
▁zzz	-12.6625
▁Conservatory	-12.6625
▁Copenhagen	-12.6625
▁Elaine	-12.6625
▁Gressy	-12.6625
▁KISS	-12.6625
▁Literature	-12.6625
▁Management	-12.6625
▁Marvellous	-12.6625
▁Pepsi	-12.6625
▁Project	-12.6625
▁Somerset	-12.6625
▁emblem	-12.6625
▁murderweapon	-12.6625
▁resolution	-12.6625
▁Bronx	-12.6625
▁KEEP	-12.6625
▁Philippines	-12.6625
▁ROBINSON	-12.6625
▁Woodroof	-12.6625
▁Yasuda	-12.6625
▁celebrity	-12.6625
▁discriminat	-12.6625
▁energetic	-12.6625
▁ghastly	-12.6625
▁Bridish	-12.6625
▁COMING	-12.6625
▁Entrance	-12.6625
▁HAPPENED	-12.6625
▁Marilyn	-12.6625
▁Clyde	-12.6625
▁FAIRIES	-12.6625
▁Greece	-12.6625
▁bollocks	-12.6625
▁currency	-12.6625
▁guidance	-12.6625
▁immigration	-12.6625
▁luxuriant	-12.6625
▁qualities	-12.6625
▁scruples	-12.6625
▁stolid	-12.6625
▁supermarket	-12.6625
▁voyage	-12.6625
CHOO	-12.6625
▁Aircraft	-12.6625
▁Apex	-12.6625
▁Fairbanks	-12.6625
▁Giorno	-12.6625
▁Rimini	-12.6625
▁WORLD	-12.6625
▁frowning	-12.6625
▁rascal	-12.6625
▁Munich	-12.6625
▁deportment	-12.6625
▁honeysuckle	-12.6625
▁nostrils	-12.6625
▁respectively	-12.6625
▁Investigation	-12.6625
▁censorship	-12.6625
▁snuff	-12.6625
schlegel	-12.6625
▁LADY	-12.6625
▁bridle	-12.6625
▁desolate	-12.6625
▁molasses	-12.6625
▁prostitute	-12.6625
▁uneasily	-12.6625
▁Cypress	-12.6625
▁Georgescu	-12.6625
▁huddl	-12.6625
▁Houston	-12.6625
▁Quincy	-12.6625
▁measles	-12.6625
▁Bisset	-12.6625
▁Hegarty	-12.6625
▁Rooster	-12.6625
▁Tallis	-12.6625
▁skeptic	-12.6625
▁supernatural	-12.6625
▁Actress	-12.6625
▁inaugura	-12.6625
▁Busybox	-12.6625
▁Exchange	-12.6625
▁KIMMY	-12.6625
▁nominee	-12.6625
▁reputation	-12.6625
▁utility	-12.6625
▁avenue	-12.6625
▁Fleek	-12.6625
▁LOUIS	-12.6625
▁Usually	-12.6625
▁Sweetheart	-12.6625
▁privacy	-12.6625
▁prosper	-12.6625
▁Meridian	-12.6625
▁commotion	-12.6625
▁jungle	-12.6625
▁landscape	-12.6625
▁NBC	-12.6625
▁consultation	-12.6625
▁paranoi	-12.6625
▁Chelsea	-12.6625
▁WHITE	-12.6625
▁puppet	-12.6625
▁classification	-12.6625
▁Landau	-12.6625
▁Methodist	-12.6625
▁automatically	-12.6625
▁Kirkland	-12.6625
▁assurance	-12.6625
▁Basically	-12.6625
▁MOON	-12.6625
▁disadvantage	-12.6625
▁simulator	-12.6625
▁Tampa	-12.6625
▁scrubbed	-12.6625
▁crippled	-12.6625
▁snug	-12.6625
▁Watson	-12.6625
▁encouragement	-12.6625
▁thieves	-12.6625
▁Labour	-12.6625
▁expertise	-12.6625
▁frantically	-12.6625
Dessous	-12.6625
jargon	-12.6625
▁Freud	-12.6625
Rupert	-12.6625
▁lilac	-12.6625
▁bathrobe	-12.6625
▁colonial	-12.6625
▁prosperous	-12.6625
dorf	-12.6625
▁NOSE	-12.6625
▁compact	-12.6625
▁Folk	-12.6625
▁cheque	-12.6625
▁WORKING	-12.6625
▁Courtney	-12.6625
▁Medical	-12.6625
▁Hotel	-12.6625
▁Roger	-12.6625
▁risotto	-12.6625
▁Widow	-12.6625
▁disobedience	-12.6625
▁Peaks	-12.6625
▁Murder	-12.6625
▁rinse	-12.6625
vocative	-12.6625
▁(2013)	-12.6625
GASPS	-12.6625
casion	-12.6625
▁Malachi	-12.6626
▁MISSING	-12.6626
▁yawl	-12.6626
▁Palestin	-12.6626
▁Conservative	-12.6626
▁Hodgins	-12.6626
▁daffodils	-12.6626
▁GBM	-12.6626
▁Assam	-12.6626
▁Sasha	-12.6626
▁Shibano	-12.6626
▁fishermen	-12.6626
▁enforcement	-12.6626
▁freesof	-12.6626
▁demonstration	-12.6626
▁Petra	-12.6626
▁jewelry	-12.6626
▁phase	-12.6626
▁Peace	-12.6626
▁priestess	-12.6626
▁Levy	-12.6626
▁genome	-12.6626
▁CIA	-12.6626
▁helleries	-12.6626
▁Riddle	-12.6626
▁Leather	-12.6626
▁hurrah	-12.6626
▁loaves	-12.6626
▁rehearsal	-12.6626
▁Delta	-12.6626
▁poisonous	-12.6626
▁yellowhammer	-12.6626
▁Valentina	-12.6626
▁Chinatown	-12.6626
▁Colonia	-12.6626
▁harness	-12.6626
▁sandbox	-12.6626
▁Awaits	-12.6626
▁sledge	-12.6626
▁artwork	-12.6626
▁HONEY	-12.6626
▁Gerard	-12.6626
▁Griffin	-12.6626
▁irrelevant	-12.6626
▁strategy	-12.6626
▁Metal	-12.6626
▁Logan	-12.6626
▁DEAD	-12.6626
▁abounded	-12.6626
▁constituency	-12.6626
▁humid	-12.6626
▁pineapple	-12.6626
▁Eye	-12.6626
▁agreeably	-12.6626
▁inheritance	-12.6626
▁Kingsley	-12.6626
▁Movement	-12.6626
▁Sesame	-12.6626
▁obligation	-12.6626
▁rattlesnake	-12.6626
flection	-12.6626
▁cemetery	-12.6626
▁Territories	-12.6626
▁Ordinary	-12.6626
▁scarf	-12.6626
Vercel	-12.6626
▁Jeez	-12.6626
▁picketh	-12.6626
▁Royalty	-12.6626
▁Wokey	-12.6626
▁parole	-12.6626
▁Narc	-12.6626
▁swollen	-12.6626
▁Clav	-12.6626
▁interpretation	-12.6626
▁soothingly	-12.6626
▁ornamental	-12.6626
▁anchor	-12.6626
▁Brownie	-12.6627
▁FLOWERS	-12.6627
▁1801	-12.6627
▁Strait	-12.6627
▁Larned	-12.6627
▁Angie	-12.6627
kevin	-12.6627
▁conceited	-12.6627
▁reappeared	-12.6627
▁blister	-12.6627
▁glitter	-12.6627
▁Kabua	-12.6627
▁trembling	-12.6627
▁kitten	-12.6627
/63205	-12.6627
▁electricity	-12.6627
▁translator	-12.6627
▁1854	-12.6627
▁Alvarez	-12.6627
▁Dobby	-12.6627
▁reconciled	-12.6627
▁Carter	-12.6627
▁Mount	-12.6627
▁Worden	-12.6627
▁Peanut	-12.6627
▁refreshing	-12.6627
▁lovable	-12.6627
▁toothache	-12.6627
▁software	-12.6627
▁Sacrament	-12.6627
▁pledge	-12.6627
▁rivalry	-12.6627
▁SOUND	-12.6627
▁twelfth	-12.6627
▁Timmy	-12.6627
▁resort	-12.6627
▁Europa	-12.6627
▁Echo	-12.6627
▁fluid	-12.6627
▁panda	-12.6627
▁Bryan	-12.6627
▁Trina	-12.6627
▁underwear	-12.6627
▁choco	-12.6627
▁FRIENDS	-12.6628
▁altar	-12.6628
▁slipping	-12.6628
▁tenner	-12.6628
▁succession	-12.6628
▁trotted	-12.6628
▁transportation	-12.6628
▁Stretch	-12.6628
▁fiery	-12.6628
▁mutton	-12.6628
▁Cher	-12.6628
▁subsidies	-12.6628
▁managing	-12.6628
▁rejoined	-12.6628
▁Simple	-12.6628
▁Dutchmen	-12.6628
▁trading	-12.6628
▁SCROOGEY	-12.6628
▁Barton	-12.6628
lewski	-12.6628
▁1855	-12.6628
▁10:00	-12.6628
▁Viola	-12.6628
▁perpetually	-12.6629
▁typically	-12.6629
▁Sandra	-12.6629
NFL	-12.6629
▁awoh	-12.6629
▁Aurigae	-12.6629
▁bidding	-12.6629
▁homesick	-12.6629
▁Bunch	-12.6629
▁Crap	-12.6629
▁TOWN	-12.6629
▁freight	-12.6629
▁Remind	-12.6629
▁courtyard	-12.6629
▁classroom	-12.6629
▁intently	-12.6629
waki	-12.6629
▁douche	-12.663
▁usefulness	-12.663
▁tragic	-12.663
▁extracted	-12.663
▁bluntly	-12.663
▁Parade	-12.663
▁twirl	-12.663
▁vessel	-12.663
▁midday	-12.663
▁haws	-12.663
▁grater	-12.663
▁ginger	-12.6631
▁1800	-12.6631
▁cranky	-12.6631
▁Nobility	-12.6631
▁XVII	-12.6631
▁CIRCUS	-12.6631
▁Easy	-12.6631
▁1901	-12.6632
▁piety	-12.6632
▁operator	-12.6632
▁magnetism	-12.6632
▁disputed	-12.6632
▁viruses	-12.6632
▁(1969)	-12.6632
▁deception	-12.6632
▁peoples	-12.6632
▁Release	-12.6632
▁notebook	-12.6632
▁supplement	-12.6632
▁industries	-12.6632
▁tumbling	-12.6632
▁sternly	-12.6632
▁Akers	-12.6633
▁vertically	-12.6633
▁Cristo	-12.6633
▁brightness	-12.6633
▁inspected	-12.6633
▁Trent	-12.6633
ndigen	-12.6633
▁reserve	-12.6633
▁resolved	-12.6633
▁undertook	-12.6633
▁mechanically	-12.6633
▁Pilgrims	-12.6633
▁substitute	-12.6634
▁occasional	-12.6634
▁Emmy	-12.6634
▁Rich	-12.6634
▁Vogue	-12.6634
▁assembled	-12.6635
▁APRA	-12.6635
▁Bergen	-12.6635
▁Universe	-12.6635
▁Addamses	-12.6635
▁bouncing	-12.6635
▁Doug	-12.6636
▁urged	-12.6636
▁exploded	-12.6636
▁woolly	-12.6636
▁lecturer	-12.6636
▁teenager	-12.6636
▁mosquitoes	-12.6636
Bedtime	-12.6636
▁depart	-12.6637
▁mysteriously	-12.6637
▁Feds	-12.6637
▁withdrew	-12.6637
▁dimly	-12.6637
▁shrieked	-12.6637
▁Irene	-12.6638
▁furiously	-12.6638
▁Bridge	-12.6638
▁Problem	-12.6639
Hullo	-12.6639
▁Paso	-12.6639
▁peaches	-12.6639
▁wearily	-12.664
▁NEWS	-12.664
▁repeling	-12.664
▁withdraw	-12.6641
▁AROUND	-12.6641
▁painfully	-12.6641
▁moonlight	-12.6641
▁Clarke	-12.6641
▁Information	-12.6641
▁Menon	-12.6642
▁examine	-12.6642
▁eleventh	-12.6642
▁slain	-12.6643
▁Poo	-12.6643
▁Mand	-12.6643
▁rejected	-12.6643
▁Field	-12.6643
nded	-12.6643
▁Vegas	-12.6644
▁Swallows	-12.6644
▁publishing	-12.6644
▁accomplishments	-12.6644
▁superstitions	-12.6644
[...]
