[PAD]	0
[CLS]	0
[SEP]	0
[UNK]	0
[MASK]	0
<0x00>	0
<0x01>	0
<0x02>	0
<0x03>	0
<0x04>	0
<0x05>	0
<0x06>	0
<0x07>	0
<0x08>	0
<0x09>	0
<0x0A>	0
<0x0B>	0
<0x0C>	0
<0x0D>	0
<0x0E>	0
<0x0F>	0
<0x10>	0
<0x11>	0
<0x12>	0
<0x13>	0
<0x14>	0
<0x15>	0
<0x16>	0
<0x17>	0
<0x18>	0
<0x19>	0
<0x1A>	0
<0x1B>	0
<0x1C>	0
<0x1D>	0
<0x1E>	0
<0x1F>	0
<0x20>	0
<0x21>	0
<0x22>	0
<0x23>	0
<0x24>	0
<0x25>	0
<0x26>	0
<0x27>	0
<0x28>	0
<0x29>	0
<0x2A>	0
<0x2B>	0
<0x2C>	0
<0x2D>	0
<0x2E>	0
<0x2F>	0
<0x30>	0
<0x31>	0
<0x32>	0
<0x33>	0
<0x34>	0
<0x35>	0
<0x36>	0
<0x37>	0
<0x38>	0
<0x39>	0
<0x3A>	0
<0x3B>	0
<0x3C>	0
<0x3D>	0
<0x3E>	0
<0x3F>	0
<0x40>	0
<0x41>	0
<0x42>	0
<0x43>	0
<0x44>	0
<0x45>	0
<0x46>	0
<0x47>	0
<0x48>	0
<0x49>	0
<0x4A>	0
<0x4B>	0
<0x4C>	0
<0x4D>	0
<0x4E>	0
<0x4F>	0
<0x50>	0
<0x51>	0
<0x52>	0
<0x53>	0
<0x54>	0
<0x55>	0
<0x56>	0
<0x57>	0
<0x58>	0
<0x59>	0
<0x5A>	0
<0x5B>	0
<0x5C>	0
<0x5D>	0
<0x5E>	0
<0x5F>	0
<0x60>	0
<0x61>	0
<0x62>	0
<0x63>	0
<0x64>	0
<0x65>	0
<0x66>	0
<0x67>	0
<0x68>	0
<0x69>	0
<0x6A>	0
<0x6B>	0
<0x6C>	0
<0x6D>	0
<0x6E>	0
<0x6F>	0
<0x70>	0
<0x71>	0
<0x72>	0
<0x73>	0
<0x74>	0
<0x75>	0
<0x76>	0
<0x77>	0
<0x78>	0
<0x79>	0
<0x7A>	0
<0x7B>	0
<0x7C>	0
<0x7D>	0
<0x7E>	0
<0x7F>	0
<0x80>	0
<0x81>	0
<0x82>	0
<0x83>	0
<0x84>	0
<0x85>	0
<0x86>	0
<0x87>	0
<0x88>	0
<0x89>	0
<0x8A>	0
<0x8B>	0
<0x8C>	0
<0x8D>	0
<0x8E>	0
<0x8F>	0
<0x90>	0
<0x91>	0
<0x92>	0
<0x93>	0
<0x94>	0
<0x95>	0
<0x96>	0
<0x97>	0
<0x98>	0
<0x99>	0
<0x9A>	0
<0x9B>	0
<0x9C>	0
<0x9D>	0
<0x9E>	0
<0x9F>	0
<0xA0>	0
<0xA1>	0
<0xA2>	0
<0xA3>	0
<0xA4>	0
<0xA5>	0
<0xA6>	0
<0xA7>	0
<0xA8>	0
<0xA9>	0
<0xAA>	0
<0xAB>	0
<0xAC>	0
<0xAD>	0
<0xAE>	0
<0xAF>	0
<0xB0>	0
<0xB1>	0
<0xB2>	0
<0xB3>	0
<0xB4>	0
<0xB5>	0
<0xB6>	0
<0xB7>	0
<0xB8>	0
<0xB9>	0
<0xBA>	0
<0xBB>	0
<0xBC>	0
<0xBD>	0
<0xBE>	0
<0xBF>	0
<0xC0>	0
<0xC1>	0
<0xC2>	0
<0xC3>	0
<0xC4>	0
<0xC5>	0
<0xC6>	0
<0xC7>	0
<0xC8>	0
<0xC9>	0
<0xCA>	0
<0xCB>	0
<0xCC>	0
<0xCD>	0
<0xCE>	0
<0xCF>	0
<0xD0>	0
<0xD1>	0
<0xD2>	0
<0xD3>	0
<0xD4>	0
<0xD5>	0
<0xD6>	0
<0xD7>	0
<0xD8>	0
<0xD9>	0
<0xDA>	0
<0xDB>	0
<0xDC>	0
<0xDD>	0
<0xDE>	0
<0xDF>	0
<0xE0>	0
<0xE1>	0
<0xE2>	0
<0xE3>	0
<0xE4>	0
<0xE5>	0
<0xE6>	0
<0xE7>	0
<0xE8>	0
<0xE9>	0
<0xEA>	0
<0xEB>	0
<0xEC>	0
<0xED>	0
<0xEE>	0
<0xEF>	0
<0xF0>	0
<0xF1>	0
<0xF2>	0
<0xF3>	0
<0xF4>	0
<0xF5>	0
<0xF6>	0
<0xF7>	0
<0xF8>	0
<0xF9>	0
<0xFA>	0
<0xFB>	0
<0xFC>	0
<0xFD>	0
<0xFE>	0
<0xFF>	0
.	-2.93835
:	-3.40136
▁*	-3.47298
s	-3.53023
,	-3.53179
▁the	-3.76403
'	-3.91583
CHI	-4.1941
▁a	-4.26176
▁I	-4.3552
?	-4.39218
▁to	-4.39516
▁you	-4.43151
▁and	-4.43234
▁of	-4.58667
MOT	-4.59094
t	-4.65554
▁it	-4.73426
▁in	-4.7571
▁that	-4.96532
▁[	-5.06824
▁=	-5.07209
]	-5.09936
▁is	-5.21636
▁was	-5.26607
ing	-5.33918
ed	-5.37942
▁on	-5.40908
▁	-5.48681
▁he	-5.497
▁for	-5.54729
d	-5.6166
▁-	-5.63393
▁"	-5.63851
▁what	-5.65077
-	-5.65631
re	-5.67429
!	-5.68999
m	-5.69754
▁with	-5.7499
n	-5.86448
▁have	-5.87024
▁be	-5.88087
▁not	-5.89753
▁me	-5.92791
▁do	-5.93545
▁they	-6.00157
y	-6.02514
▁we	-6.03939
▁one	-6.05742
▁no	-6.06675
▁this	-6.06751
▁his	-6.08945
’	-6.10566
▁can	-6.10691
▁her	-6.13225
▁at	-6.13777
FAT	-6.14575
ll	-6.14731
▁up	-6.17738
▁had	-6.18613
▁know	-6.1906
e	-6.19284
ly	-6.19718
▁she	-6.20153
▁your	-6.20208
▁are	-6.22889
▁there	-6.22932
▁don	-6.23962
...	-6.24118
▁all	-6.24364
▁like	-6.24696
;	-6.25538
▁my	-6.26575
er	-6.26591
▁The	-6.26983
▁as	-6.27527
▁so	-6.28081
▁A	-6.30683
▁from	-6.35716
▁an	-6.3631
▁but	-6.36365
▁He	-6.40622
▁'	-6.42036
▁out	-6.42347
▁him	-6.4478
r	-6.46346
▁go	-6.46491
▁get	-6.46869
▁It	-6.47397
▁said	-6.47404
a	-6.49192
▁You	-6.4988
▁were	-6.52298
▁sec	-6.55739
▁them	-6.57075
in	-6.57985
▁B	-6.58763
I	-6.58847
▁just	-6.59508
▁see	-6.60404
▁about	-6.6084
▁S	-6.62076
▁some	-6.62625
o	-6.63301
▁here	-6.64354
al	-6.64649
p	-6.65114
▁by	-6.65833
▁would	-6.6908
▁or	-6.69691
▁xxx	-6.7027
ve	-6.70958
▁put	-6.72479
▁if	-6.7564
▁did	-6.77182
▁when	-6.78969
▁want	-6.79322
▁right	-6.81285
▁think	-6.81806
▁little	-6.82001
▁who	-6.82302
▁oh	-6.85702
▁now	-6.87074
b	-6.87748
▁where	-6.91036
l	-6.91565
▁very	-6.92502
▁got	-6.93032
▁back	-6.93312
▁over	-6.93493
▁how	-6.93895
▁good	-6.93933
▁man	-6.94058
g	-6.95776
le	-6.96552
c	-6.96578
▁And	-6.96848
▁“	-6.97069
▁What	-6.97111
or	-6.97152
S	-6.98085
es	-6.98268
▁down	-6.98298
INV	-6.99018
▁time	-6.99051
▁will	-6.9957
▁could	-7.00235
▁going	-7.00733
▁more	-7.01007
"	-7.03092
▁other	-7.03094
▁then	-7.05277
▁come	-7.05419
u	-7.07618
URS	-7.07783
▁No	-7.08034
▁been	-7.09215
,"	-7.09769
▁(	-7.09791
▁their	-7.10166
▁s	-7.1038
▁two	-7.11016
▁de	-7.11231
▁off	-7.11869
."	-7.12938
▁yeah	-7.13011
▁which	-7.1333
▁t	-7.14353
▁say	-7.14447
▁has	-7.15239
A	-7.17698
].	-7.19952
▁take	-7.19989
ar	-7.2043
▁make	-7.22347
▁well	-7.22349
▁She	-7.23612
en	-7.23864
▁gonna	-7.24551
▁too	-7.24794
th	-7.2618
▁f	-7.26529
▁We	-7.27261
▁okay	-7.2739
▁look	-7.27878
ri	-7.28065
▁%	-7.2868
▁yes	-7.29224
i	-7.2997
▁into	-7.30279
▁silver	-7.3035
▁boy	-7.31153
▁Oh	-7.31163
▁people	-7.31609
BRO	-7.31755
se	-7.33251
▁But	-7.33274
▁way	-7.33429
▁C	-7.33988
▁base	-7.35605
▁They	-7.35786
▁d	-7.36783
ch	-7.38242
k	-7.3961
on	-7.39714
▁let	-7.40988
▁any	-7.42503
)	-7.42881
ra	-7.43583
▁T	-7.44564
▁why	-7.44755
it	-7.45447
▁re	-7.46359
▁Yeah	-7.4655
▁tell	-7.46561
COL	-7.46688
▁That	-7.47149
an	-7.48047
▁black	-7.50352
ur	-7.51446
▁Mommy	-7.51463
▁need	-7.51479
▁dat	-7.52594
▁us	-7.53448
▁much	-7.53891
▁In	-7.54958
ro	-7.5545
▁p	-7.55707
▁dis	-7.55827
▁i	-7.55962
▁something	-7.56988
▁never	-7.57475
▁So	-7.57968
D	-7.58105
ion	-7.58193
el	-7.58444
▁first	-7.58811
▁o	-7.59026
▁Well	-7.59077
▁P	-7.59257
w	-7.59868
▁G	-7.60746
▁F	-7.61598
▁because	-7.6189
ic	-7.62408
▁c	-7.62878
laughs	-7.62897
il	-7.63198
▁mean	-7.63648
▁D	-7.63927
--	-7.64742
▁only	-7.64857
h	-7.65663
▁after	-7.66085
E	-7.66163
▁Chi	-7.66441
la	-7.66649
▁give	-7.67161
ce	-7.67558
▁made	-7.67587
?"	-7.68586
ir	-7.68971
▁didn	-7.69061
us	-7.69168
▁E	-7.71344
▁day	-7.71701
▁these	-7.71727
▁away	-7.71961
▁another	-7.72177
▁came	-7.72327
▁write	-7.72581
O	-7.72675
▁home	-7.728
▁men	-7.72915
int	-7.73104
▁work	-7.73608
▁long	-7.74054
▁than	-7.74203
▁again	-7.74599
P	-7.75097
▁before	-7.75372
▁boys	-7.76005
▁r	-7.76391
T	-7.77152
▁old	-7.77294
▁should	-7.77475
▁help	-7.77728
▁stick	-7.7778
▁things	-7.78328
ne	-7.78917
C	-7.8002
▁great	-7.80089
ma	-7.80193
▁really	-7.80396
▁There	-7.80555
▁Adam	-7.80926
▁thing	-7.81069
▁play	-7.81354
est	-7.81414
M	-7.82008
▁thought	-7.82154
▁M	-7.82417
ation	-7.82668
▁big	-7.83093
▁wand	-7.83147
f	-7.83481
ent	-7.83719
▁kind	-7.83856
▁house	-7.84021
▁wanna	-7.84181
▁This	-7.84362
5	-7.84814
as	-7.84822
▁doing	-7.85346
ta	-7.85492
▁those	-7.85771
▁e	-7.85965
lo	-7.8623
▁Yes	-7.86877
te	-7.8702
”	-7.8704
▁name	-7.87364
▁Eve	-7.87693
▁went	-7.87762
add	-7.8778
▁un	-7.897
de	-7.89755
▁uh	-7.89908
ry	-7.90357
2	-7.90726
ter	-7.90895
▁new	-7.91765
▁W	-7.92383
▁head	-7.927
▁three	-7.9278
z	-7.93439
▁does	-7.93574
et	-7.93656
ck	-7.93769
li	-7.93772
SIS	-7.94014
ad	-7.94458
ive	-7.94685
▁top	-7.9505
/	-7.95367
▁keep	-7.9547
▁our	-7.95475
▁am	-7.95519
▁O	-7.95713
▁must	-7.9587
ie	-7.95875
ist	-7.96713
is	-7.96771
▁part	-7.9727
▁father	-7.97762
em	-7.97786
▁through	-7.98106
ment	-7.98375
▁place	-7.98851
▁many	-7.98981
▁eat	-7.99259
▁paper	-7.99448
▁mother	-7.99601
▁water	-7.99975
▁Do	-8.00975
▁always	-8.01065
8	-8.01619
no	-8.01759
id	-8.01957
▁love	-8.02174
▁girl	-8.02509
to	-8.02987
ul	-8.03542
▁please	-8.03546
the	-8.04032
H	-8.04037
!"	-8.04301
ers	-8.04438
▁yellow	-8.04762
B	-8.04821
▁g	-8.05015
▁use	-8.05482
▁anything	-8.05874
▁even	-8.06293
4	-8.06577
▁around	-8.0674
▁last	-8.06886
v	-8.07036
▁THE	-8.07463
▁hand	-8.0831
▁dog	-8.08956
▁find	-8.09282
▁ball	-8.09372
▁thank	-8.09374
▁talk	-8.09414
▁How	-8.09442
na	-8.09486
ton	-8.09595
man	-8.09826
▁under	-8.09936
▁night	-8.106
▁turn	-8.1066
▁car	-8.11104
G	-8.1129
▁also	-8.11549
▁won	-8.11666
▁H	-8.12336
▁most	-8.12873
ha	-8.12948
▁wait	-8.13186
ting	-8.13433
▁Mr	-8.13484
—	-8.14083
▁might	-8.14083
▁alright	-8.14083
hi	-8.14139
0	-8.1429
▁found	-8.14753
3	-8.15168
▁such	-8.15183
▁show	-8.15371
▁l	-8.15518
▁Paul	-8.15607
op	-8.15669
L	-8.15763
▁♪	-8.15809
▁b	-8.16367
and	-8.16574
ol	-8.16716
6	-8.16797
▁book	-8.1692
▁still	-8.16926
▁nice	-8.17127
▁end	-8.17322
vi	-8.17394
▁try	-8.18083
he	-8.18382
▁J	-8.18642
▁magnet	-8.19138
at	-8.1917
▁school	-8.19353
▁else	-8.20043
R	-8.20113
▁better	-8.20615
▁U	-8.21385
▁silence	-8.21426
▁K	-8.21847
▁n	-8.22006
ian	-8.2205
age	-8.22053
▁If	-8.22766
▁sure	-8.22946
▁doesn	-8.23173
▁table	-8.23335
▁m	-8.23422
um	-8.2363
▁while	-8.23734
▁hard	-8.23748
ge	-8.2419
ho	-8.24325
▁read	-8.2451
▁’	-8.24669
ke	-8.24699
▁Ma	-8.24867
ate	-8.2549
x	-8.25584
ty	-8.25924
ity	-8.25997
▁19	-8.26154
▁Mom	-8.26348
▁feel	-8.2636
▁side	-8.26491
▁saw	-8.26653
ies	-8.27052
▁own	-8.27241
ia	-8.27726
▁done	-8.27897
7	-8.28548
▁children	-8.29054
▁told	-8.2959
9	-8.29611
▁bit	-8.29717
im	-8.29725
▁every	-8.2978
▁watch	-8.30112
▁!	-8.30221
sh	-8.3035
▁sit	-8.30392
▁ever	-8.32061
▁enough	-8.32084
am	-8.32109
▁face	-8.32338
▁baby	-8.32376
▁called	-8.32539
▁may	-8.3279
Y	-8.32997
▁call	-8.33044
▁together	-8.3311
▁same	-8.33158
▁L	-8.33245
▁Fraser	-8.33369
▁next	-8.33369
ig	-8.33994
ci	-8.3464
▁stay	-8.34771
▁years	-8.34853
able	-8.34952
▁family	-8.35466
U	-8.35521
▁Why	-8.35539
▁hear	-8.35732
▁Now	-8.35737
ine	-8.35766
1:	-8.36111
▁being	-8.36127
▁life	-8.3627
▁dear	-8.36525
N	-8.37339
▁1	-8.37728
The	-8.37731
▁used	-8.37838
▁ask	-8.38528
un	-8.3905
1	-8.39204
▁Come	-8.39909
▁asked	-8.40269
▁N	-8.4034
▁St	-8.404
nd	-8.40625
▁Okay	-8.40917
silver	-8.41335
▁door	-8.41467
▁best	-8.41632
pe	-8.42032
▁?	-8.42059
ant	-8.42386
F	-8.42417
▁bed	-8.42471
▁took	-8.42553
▁My	-8.4311
ni	-8.43132
–	-8.43459
▁money	-8.43464
▁For	-8.4368
▁la	-8.43788
ted	-8.43983
be	-8.44127
▁Don	-8.4457
▁guess	-8.44615
ness	-8.44653
▁room	-8.44995
▁four	-8.45171
▁letter	-8.45298
▁high	-8.45308
▁young	-8.4538
▁heard	-8.45722
▁morning	-8.45786
▁fish	-8.45934
ard	-8.46263
ful	-8.46347
▁world	-8.46667
▁course	-8.46667
▁light	-8.4678
▁open	-8.46837
▁lot	-8.47288
ow	-8.47792
▁Unit	-8.47861
▁hi	-8.48101
tion	-8.4822
▁To	-8.48264
▁Ha	-8.48397
per	-8.48449
▁left	-8.48461
▁though	-8.48725
ling	-8.48926
▁Mrs	-8.49024
▁fire	-8.49378
▁“‘	-8.49674
ak	-8.4973
▁po	-8.49915
▁move	-8.50298
▁known	-8.50346
▁child	-8.50903
▁Guy	-8.50989
ca	-8.51108
▁w	-8.51171
▁con	-8.51266
▁3	-8.51285
▁ma	-8.51386
▁Cromer	-8.51835
▁American	-8.51926
▁game	-8.52053
▁pro	-8.52317
▁All	-8.52572
▁talking	-8.52602
▁V	-8.52707
▁Jane	-8.53109
▁nothing	-8.5342
You	-8.53441
▁quite	-8.53443
▁few	-8.53443
Possum	-8.53728
▁stop	-8.53742
▁knew	-8.54043
▁until	-8.54044
▁huh	-8.5418
▁run	-8.54426
▁leave	-8.54636
▁sorry	-8.54684
up	-8.54858
▁Daddy	-8.5501
▁Then	-8.55288
les	-8.55459
▁coming	-8.5619
▁hm	-8.563
▁co	-8.56318
▁ten	-8.56485
ru	-8.56798
ish	-8.56901
ti	-8.57045
▁soon	-8.5725
▁each	-8.57309
put	-8.57372
ap	-8.58414
▁near	-8.58435
co	-8.58524
Tilda	-8.58612
▁pencil	-8.58612
▁pretty	-8.58612
▁everything	-8.58612
▁round	-8.59108
▁care	-8.59148
K	-8.59164
▁getting	-8.59231
▁When	-8.59336
pa	-8.59365
▁st	-8.59895
▁small	-8.60103
▁drink	-8.60164
▁R	-8.60172
▁ex	-8.60187
_	-8.60214
me	-8.60385
▁real	-8.60403
less	-8.6059
▁seen	-8.60666
▁died	-8.60722
▁between	-8.60977
▁4	-8.61066
tic	-8.61156
▁God	-8.61316
▁‘	-8.61663
▁brother	-8.61664
▁city	-8.61733
▁mind	-8.62017
▁without	-8.62188
▁voice	-8.62354
▁himself	-8.62354
▁States	-8.62502
▁h	-8.62514
ens	-8.62531
▁pick	-8.62784
▁wanted	-8.62818
▁close	-8.62828
▁k	-8.62871
▁red	-8.62906
ver	-8.62978
▁remember	-8.63053
▁ch	-8.63488
▁far	-8.63817
di	-8.64255
▁[1	-8.64667
▁line	-8.64706
▁Tom	-8.64718
▁upon	-8.64837
▁isn	-8.64926
▁age	-8.64989
▁start	-8.6509
▁eyes	-8.65112
▁Uh	-8.65238
▁question	-8.65447
mo	-8.65455
▁ba	-8.65582
ick	-8.6579
▁story	-8.65882
▁different	-8.66241
▁Just	-8.66661
▁looking	-8.6685
▁hafta	-8.66964
ake	-8.66966
▁Re	-8.67008
▁heart	-8.67057
▁once	-8.67105
▁mo	-8.67358
▁ho	-8.67449
▁tape	-8.67764
▁7	-8.67846
▁ha	-8.67916
▁erm	-8.67983
son	-8.68102
▁On	-8.68274
▁Right	-8.68427
▁second	-8.68429
▁18	-8.68535
▁set	-8.6905
▁half	-8.69177
▁Go	-8.6927
.”	-8.69367
▁Ca	-8.69434
▁born	-8.69436
▁today	-8.69516
▁Can	-8.69756
▁October	-8.69911
▁municipality	-8.69912
▁having	-8.69916
▁Are	-8.7021
ip	-8.70411
▁Kitty	-8.70662
▁hold	-8.70847
▁mhm	-8.71039
▁New	-8.71052
▁maybe	-8.71071
ct	-8.71174
▁hope	-8.71282
W	-8.71428
▁minute	-8.71525
go	-8.71655
▁believe	-8.71811
▁year	-8.71961
▁Thank	-8.71967
▁fine	-8.71968
▁point	-8.72109
red	-8.72125
▁coffee	-8.7218
RIC	-8.72207
▁yet	-8.72381
▁bad	-8.72528
▁De	-8.72775
▁piece	-8.72779
you	-8.72786
▁box	-8.73027
we	-8.73246
▁goes	-8.73593
▁says	-8.73726
do	-8.73728
ut	-8.73736
RE	-8.73864
▁along	-8.73959
▁gave	-8.7417
▁happened	-8.74347
▁Le	-8.74715
one	-8.74853
po	-8.74937
▁cut	-8.74959
▁bring	-8.74978
▁um	-8.74989
▁hot	-8.75098
▁Bo	-8.75147
▁2019	-8.75197
▁almost	-8.75287
▁gone	-8.7534
▁La	-8.75471
▁ready	-8.76085
▁blue	-8.76134
dy	-8.76312
▁ro	-8.76424
▁word	-8.76428
ated	-8.76437
▁milk	-8.76477
▁color	-8.76478
ence	-8.7695
ward	-8.7705
ue	-8.7717
▁war	-8.77534
▁chair	-8.7771
ack	-8.78043
▁friend	-8.78439
▁actually	-8.78511
▁town	-8.78629
va	-8.78708
▁cr	-8.7874
▁whole	-8.78779
▁Bro	-8.78901
▁making	-8.78917
▁woman	-8.78919
▁saying	-8.78937
▁looked	-8.78944
▁stand	-8.7897
▁8	-8.78989
▁break	-8.7932
ba	-8.79378
▁yep	-8.79384
▁bu	-8.79564
bo	-8.79669
ary	-8.79953
▁both	-8.79978
ous	-8.80039
▁y	-8.80262
▁idea	-8.80579
ING	-8.8065
▁five	-8.80717
ern	-8.80846
wa	-8.80865
ee	-8.8118
ance	-8.81464
▁fun	-8.81585
for	-8.81854
▁Hey	-8.81992
min	-8.82068
ble	-8.82197
▁fact	-8.82274
cu	-8.82568
▁France	-8.82653
ally	-8.82997
▁sound	-8.83202
▁5	-8.83243
▁Mar	-8.8345
▁Look	-8.83518
▁His	-8.83782
ran	-8.83842
▁speak	-8.83934
▁against	-8.84017
▁tree	-8.84109
io	-8.842
bb	-8.84466
▁Let	-8.84486
mi	-8.84766
▁John	-8.84767
▁Ursula	-8.84798
▁movie	-8.84798
▁began	-8.848
▁white	-8.84802
fi	-8.84874
▁dere	-8.85048
pi	-8.85064
▁rest	-8.85316
▁noise	-8.85447
▁truck	-8.8567
▁spell	-8.8611
▁th	-8.8615
ay	-8.86651
▁shall	-8.86661
cause	-8.8673
▁Me	-8.86907
our	-8.86928
▁understand	-8.86998
▁Where	-8.87043
▁Po	-8.87086
▁Your	-8.87414
▁hurt	-8.87437
▁air	-8.87564
led	-8.87704
▁Mot	-8.87734
▁cup	-8.88038
▁live	-8.88212
▁ri	-8.88479
▁er	-8.88726
▁feet	-8.88782
▁sort	-8.88811
way	-8.89249
▁son	-8.89346
▁sp	-8.89722
▁goin	-8.89789
▁floor	-8.90145
▁Hi	-8.90287
da	-8.90414
oo	-8.9042
▁fell	-8.9051
▁6	-8.90551
ping	-8.9063
▁mine	-8.90709
▁Ro	-8.90768
▁later	-8.90769
▁number	-8.9107
▁Who	-8.91088
der	-8.91128
Oh	-8.91261
▁le	-8.91296
▁already	-8.91527
▁lady	-8.91554
And	-8.91704
ang	-8.91735
▁days	-8.91961
▁six	-8.92019
▁means	-8.92068
▁star	-8.92112
▁Ho	-8.92264
▁fall	-8.92289
▁objects	-8.92491
lt	-8.92658
cha	-8.92711
▁Switzerland	-8.92929
wi	-8.93121
▁hands	-8.93181
▁An	-8.93184
▁YOU	-8.93373
▁district	-8.934
▁pre	-8.93508
▁2	-8.93584
▁hey	-8.93799
▁juice	-8.93875
▁ca	-8.9394
▁sign	-8.93982
▁playing	-8.94018
▁wouldn	-8.94151
▁felt	-8.94353
▁sometimes	-8.94354
▁large	-8.94355
ng	-8.94509
vo	-8.94559
▁Aileen	-8.94829
▁train	-8.94895
▁often	-8.94896
▁moment	-8.94914
▁party	-8.95006
ring	-8.95178
▁Pa	-8.95248
▁Sarah	-8.9531
▁Be	-8.95648
▁li	-8.95754
▁wrong	-8.95793
▁food	-8.95793
▁Good	-8.9587
▁trying	-8.95872
▁...	-8.95987
▁mom	-8.96189
▁job	-8.96279
▁Sa	-8.96383
▁toy	-8.969
▁Ba	-8.97071
▁throw	-8.9727
▁person	-8.97351
ac	-8.97405
land	-8.97456
▁Not	-8.97468
▁touch	-8.97477
LL	-8.97576
▁sleep	-8.97764
▁hit	-8.97854
▁Na	-8.98102
▁circle	-8.98244
ER	-8.98388
gh	-8.9876
ical	-8.99086
▁bo	-8.99322
by	-8.99419
▁ran	-8.99662
▁vi	-8.9972
▁happy	-8.99744
▁wan	-8.99834
▁turned	-8.99862
▁boat	-8.99904
▁till	-9.00252
▁September	-9.00269
▁kill	-9.00295
▁death	-9.00758
▁push	-9.00944
▁10	-9.01037
▁Ka	-9.0111
du	-9.01124
▁Did	-9.016
▁Ar	-9.01632
▁listen	-9.01885
é	-9.02295
▁lunch	-9.02295
▁since	-9.02324
tter	-9.02415
▁Vaud	-9.02422
▁lived	-9.02719
▁probably	-9.02813
▁9	-9.02862
▁[2	-9.03022
picks	-9.03122
row	-9.03261
ot	-9.03754
▁fl	-9.03795
".	-9.038
▁herself	-9.03858
▁seemed	-9.04164
▁full	-9.04296
ey	-9.04358
▁beautiful	-9.04384
▁kitchen	-9.04384
▁jump	-9.04396
▁dey	-9.04532
que	-9.04602
cr	-9.04643
mon	-9.0467
uck	-9.04677
end	-9.04809
▁ice	-9.05138
▁cold	-9.05473
▁poor	-9.05608
ction	-9.05678
▁pay	-9.05701
▁ear	-9.05724
▁j	-9.05851
▁Or	-9.05939
▁front	-9.05981
▁sh	-9.06045
▁outside	-9.06095
▁ring	-9.06122
▁bar	-9.06308
▁lo	-9.06484
▁department	-9.06518
▁mouth	-9.06518
▁short	-9.06519
▁matter	-9.06539
▁As	-9.06674
▁someone	-9.067
▁state	-9.0691
2:	-9.07042
▁behind	-9.07058
▁check	-9.07059
▁bear	-9.07082
▁Mm	-9.07137
ster	-9.07163
Well	-9.07339
ny	-9.07402
ame	-9.07424
▁Man	-9.07473
SS	-9.07543
▁George	-9.07602
▁brought	-9.07602
▁Lo	-9.07699
▁mar	-9.07798
▁walk	-9.07803
art	-9.07815
ach	-9.0789
gi	-9.07951
ka	-9.08063
▁eight	-9.08223
),	-9.08329
but	-9.08642
aw	-9.08658
▁wagon	-9.08697
▁picture	-9.08733
▁May	-9.08735
▁draw	-9.08765
▁girls	-9.089
No	-9.08988
▁pull	-9.09041
king	-9.09205
But	-9.09434
▁commune	-9.09806
▁daddy	-9.09816
▁arm	-9.09894
ON	-9.09897
▁plan	-9.09989
▁Se	-9.10023
▁bl	-9.10029
ever	-9.10129
▁pass	-9.10417
▁One	-9.1084
▁yourself	-9.10926
▁July	-9.10996
▁Mother	-9.11072
▁gun	-9.1129
▁Car	-9.11294
▁sir	-9.11314
▁knock	-9.11491
▁lost	-9.1152
▁change	-9.1169
▁buy	-9.11809
▁miss	-9.1192
AR	-9.12017
▁east	-9.1209
lin	-9.12297
bi	-9.12752
▁gotta	-9.12998
▁country	-9.13223
▁toward	-9.13234
▁guy	-9.13315
▁page	-9.13358
▁group	-9.13783
ub	-9.13836
▁hair	-9.13856
▁nut	-9.13921
born	-9.13951
▁across	-9.14365
▁Z	-9.14471
ound	-9.14942
▁blow	-9.14998
▁At	-9.15002
V	-9.15047
lf	-9.15096
ank	-9.15131
fe	-9.15339
▁business	-9.15538
▁rock	-9.15898
▁deal	-9.1596
▁ago	-9.16075
▁trouble	-9.16129
▁construction	-9.16186
▁snow	-9.16188
▁20	-9.16249
It	-9.16336
▁Al	-9.16498
▁area	-9.16762
▁foot	-9.16779
▁di	-9.16853
ner	-9.16905
hy	-9.16927
tor	-9.16979
▁ra	-9.17047
▁dur	-9.17087
▁wonder	-9.17121
▁Pe	-9.17207
ES	-9.17295
rs	-9.1736
00	-9.17604
AN	-9.18013
men	-9.18035
time	-9.18081
ron	-9.1824
▁Of	-9.18261
fa	-9.1852
▁window	-9.18551
▁case	-9.1864
ab	-9.1903
▁true	-9.19143
▁Sh	-9.193
▁looks	-9.19357
▁week	-9.19394
▁makes	-9.19552
my	-9.19648
▁ain	-9.197
▁clip	-9.19755
▁dream	-9.19756
▁funny	-9.19773
gu	-9.19779
▁words	-9.19972
▁music	-9.20046
▁bag	-9.20133
▁act	-9.2014
▁da	-9.2021
He	-9.20239
▁form	-9.20241
ki	-9.20269
▁Some	-9.20357
▁County	-9.20372
▁present	-9.20374
out	-9.2043
▁ride	-9.20459
▁12	-9.20554
▁member	-9.20583
▁2020	-9.20996
▁send	-9.2111
▁started	-9.21213
Chi	-9.21326
ley	-9.21413
ther	-9.21495
",	-9.21685
▁friends	-9.21702
▁va	-9.21758
▁cool	-9.2177
▁tried	-9.21852
▁airplane	-9.2288
▁Garth	-9.22881
▁sugar	-9.22883
cy	-9.22942
▁en	-9.22948
rk	-9.23061
▁haven	-9.23285
ew	-9.23305
▁wasn	-9.23524
▁guys	-9.23575
▁Hu	-9.23938
▁reason	-9.24159
day	-9.24229
ff	-9.24248
▁sun	-9.24391
▁wish	-9.24402
ex	-9.24422
mer	-9.24585
eat	-9.2459
ped	-9.24645
▁per	-9.24649
▁perhaps	-9.24804
▁street	-9.24804
low	-9.24882
▁hole	-9.2532
huh	-9.25383
▁became	-9.25453
▁road	-9.25512
▁couldn	-9.25512
▁duck	-9.25535
if	-9.25622
ud	-9.25623
▁become	-9.25651
▁dress	-9.25655
▁Get	-9.2566
▁Mo	-9.25664
▁cha	-9.25666
▁dead	-9.25759
▁fair	-9.25866
▁Her	-9.26077
▁afraid	-9.26106
▁kept	-9.26106
▁straight	-9.26106
▁finger	-9.26126
▁After	-9.26147
▁clear	-9.26166
cent	-9.26663
▁stuck	-9.26789
▁2019)	-9.26917
What	-9.27009
ga	-9.2709
▁AND	-9.27443
▁tea	-9.27455
takes	-9.27664
▁Da	-9.27705
▁drop	-9.27729
▁played	-9.2809
ber	-9.28091
▁land	-9.28148
▁given	-9.28159
▁lay	-9.28729
▁able	-9.28736
▁meet	-9.28819
ai	-9.28977
▁soft	-9.29338
▁daughter	-9.2944
▁green	-9.29441
▁seven	-9.29488
NA	-9.29509
▁sounds	-9.30033
▁among	-9.30123
▁running	-9.30123
▁January	-9.30148
▁fix	-9.3015
▁nine	-9.30166
▁sl	-9.30383
▁Li	-9.30611
▁wind	-9.30637
ial	-9.30802
▁myself	-9.30805
▁King	-9.30875
not	-9.31364
▁strong	-9.31495
▁alone	-9.31501
▁cons	-9.31512
▁times	-9.31579
port	-9.31808
▁hat	-9.31818
▁late	-9.31923
▁song	-9.32111
▁somebody	-9.32189
▁With	-9.32215
▁comes	-9.32606
Yes	-9.32739
▁win	-9.32747
ating	-9.32837
▁trunk	-9.32889
▁taking	-9.3289
▁Papa	-9.32917
ye	-9.33013
▁pa	-9.33436
.7	-9.33438
of	-9.3351
all	-9.33533
▁wheel	-9.33593
▁wo	-9.3363
▁glad	-9.33681
▁inside	-9.33686
▁sitting	-9.33689
▁sent	-9.34028
▁Have	-9.34029
▁cat	-9.34279
▁feeling	-9.34296
▁burn	-9.34304
▁visit	-9.34305
ily	-9.34398
▁wh	-9.34413
▁ahead	-9.34766
▁minutes	-9.34814
▁sw	-9.34884
▁April	-9.35017
▁broken	-9.35246
au	-9.35324
▁ju	-9.35415
▁careful	-9.35575
ations	-9.35643
▁either	-9.35736
▁clean	-9.35736
▁Doubs	-9.35737
▁writing	-9.3582
▁Th	-9.36035
▁roll	-9.36134
▁seat	-9.36246
▁Cl	-9.36283
▁record	-9.36296
▁sweet	-9.3646
▁breath	-9.3646
▁politician	-9.3646
▁wife	-9.36468
▁fast	-9.36483
Franc	-9.3664
pen	-9.36791
▁Boy	-9.36911
con	-9.37037
▁stuff	-9.37205
▁body	-9.37214
▁wash	-9.37238
▁Ah	-9.37285
▁ye	-9.37367
eep	-9.37526
ans	-9.37773
▁Jack	-9.38012
▁taken	-9.38192
ture	-9.38212
ough	-9.38451
os	-9.38471
▁rather	-9.38679
▁catch	-9.38755
▁past	-9.38821
▁Ja	-9.38914
▁early	-9.38951
We	-9.39195
▁wear	-9.39404
▁twenty	-9.39413
▁spoon	-9.39413
▁power	-9.39414
▁river	-9.39443
▁wood	-9.39797
ure	-9.399
▁Mi	-9.39934
amp	-9.39966
▁TO	-9.40101
▁Because	-9.40187
▁butter	-9.40243
ah	-9.40319
▁sta	-9.4035
▁sing	-9.40645
▁happen	-9.4084
ious	-9.40868
▁sister	-9.40924
▁Maybe	-9.40952
▁com	-9.41093
▁order	-9.41143
▁finished	-9.41342
side	-9.41414
▁sticks	-9.41436
OR	-9.41448
ez	-9.41625
▁Florence	-9.41685
▁population	-9.41685
▁stood	-9.41686
▁Mu	-9.41802
▁worked	-9.41859
▁sick	-9.4189
▁answer	-9.4199
▁sur	-9.42195
LE	-9.42443
▁easy	-9.42455
▁Christmas	-9.42476
▁16	-9.42536
▁17	-9.42652
▁hour	-9.42755
ise	-9.42772
▁team	-9.4287
▁tomorrow	-9.42887
ump	-9.43006
▁Kansas	-9.4323
▁Harwood	-9.43232
).	-9.43335
▁15	-9.43465
▁nose	-9.43501
▁working	-9.43512
▁free	-9.43542
gen	-9.43569
▁Ra	-9.43604
,’	-9.43674
▁die	-9.43765
▁report	-9.44081
▁tired	-9.44154
ook	-9.4427
▁imp	-9.44472
▁Bourg	-9.448
▁shoot	-9.44801
IN	-9.4496
▁balls	-9.45102
range	-9.45178
ET	-9.45316
▁pen	-9.45569
▁cheese	-9.45592
rac	-9.45595
▁doctor	-9.4573
▁warm	-9.45828
▁fit	-9.46123
▁eating	-9.46129
pr	-9.46382
▁themselves	-9.46392
▁several	-9.46392
▁ah	-9.46403
fully	-9.46583
▁See	-9.46614
J	-9.46754
▁ga	-9.46951
▁whether	-9.47199
ogne	-9.47199
▁stool	-9.47199
▁living	-9.47199
▁$	-9.47231
▁Peter	-9.47253
▁strange	-9.47311
tries	-9.47474
▁Here	-9.47577
▁President	-9.48012
▁hu	-9.48043
▁OF	-9.48091
run	-9.48119
▁Miss	-9.48121
▁cream	-9.48153
▁fight	-9.48345
lic	-9.48607
▁War	-9.48634
▁passed	-9.48693
▁Con	-9.48695
ED	-9.48746
referent	-9.48828
Comté	-9.48831
▁#	-9.48833
▁cross	-9.48835
▁health	-9.48837
▁drive	-9.48847
ef	-9.48913
ug	-9.49057
▁thinking	-9.49205
▁cookie	-9.49214
▁Please	-9.49658
▁figure	-9.49658
▁University	-9.4966
▁store	-9.49668
▁tonight	-9.4988
▁14	-9.49881
▁par	-9.50044
▁seems	-9.50232
▁Bu	-9.50322
▁English	-9.50491
▁police	-9.50491
▁company	-9.50491
▁term	-9.50529
▁fear	-9.50565
▁pie	-9.50615
X	-9.50861
▁finish	-9.50868
▁cover	-9.50942
▁fellow	-9.50961
▁grow	-9.51099
▁card	-9.5122
▁dinner	-9.51332
▁least	-9.51332
▁tail	-9.51334
▁held	-9.51352
▁Fi	-9.51431
▁seem	-9.51515
▁horse	-9.51651
▁bird	-9.51837
▁pieces	-9.51865
▁pop	-9.5197
▁trees	-9.52025
▁hundred	-9.52179
▁uhhuh	-9.52228
▁evening	-9.52551
kin	-9.52574
ship	-9.52765
▁Thanks	-9.52769
▁Mon	-9.52815
▁Di	-9.52822
▁ground	-9.5306
▁(19	-9.53068
▁clothes	-9.53083
▁nuts	-9.53097
ler	-9.53119
▁named	-9.53242
▁sub	-9.53486
▁Per	-9.5356
ries	-9.5385
▁Laura	-9.53896
▁usually	-9.53973
1.5	-9.53992
▁te	-9.54017
▁[3	-9.54153
▁Gu	-9.54375
▁bath	-9.54625
▁summer	-9.54765
▁wild	-9.54767
▁teacher	-9.54904
▁standing	-9.54922
▁safe	-9.54935
▁band	-9.54946
tu	-9.54954
▁bite	-9.54976
.6	-9.55013
holds	-9.55307
fl	-9.55313
▁broke	-9.55372
qui	-9.55373
▁test	-9.55387
▁Cha	-9.55415
▁gu	-9.55489
ged	-9.55555
▁ne	-9.55596
▁breakfast	-9.55643
▁service	-9.55643
▁caught	-9.55659
▁million	-9.55663
▁spring	-9.5567
▁tower	-9.5567
ite	-9.55716
▁OK	-9.55735
▁By	-9.55739
▁March	-9.55789
gue	-9.55843
val	-9.55867
▁aren	-9.55892
▁wants	-9.56014
use	-9.56068
▁apple	-9.56528
▁magic	-9.56529
▁Jo	-9.56996
ache	-9.57003
▁leg	-9.572
that	-9.57337
▁French	-9.5742
▁bottom	-9.5742
▁dark	-9.57435
▁busy	-9.57436
▁Bill	-9.57676
ger	-9.57726
▁cry	-9.5774
▁Pro	-9.57814
▁birds	-9.57838
▁sat	-9.57904
▁Ri	-9.58021
aft	-9.5815
ator	-9.58262
▁Jean	-9.58322
▁chance	-9.5837
▁phone	-9.58464
▁El	-9.58487
EN	-9.58601
▁step	-9.58678
▁Y	-9.587
erry	-9.58742
▁23	-9.58896
▁killed	-9.59151
▁former	-9.59196
▁North	-9.59223
▁capital	-9.5923
▁circus	-9.5923
▁giving	-9.5923
▁attack	-9.59236
▁paint	-9.59553
▁whatever	-9.59817
▁Ed	-9.59839
LDES	-9.60148
▁television	-9.60148
▁November	-9.60181
▁Che	-9.6019
▁[4	-9.60308
ram	-9.6045
lan	-9.60586
▁Ta	-9.60644
come	-9.60767
▁rep	-9.60822
▁forward	-9.61042
▁Aggie	-9.61074
▁important	-9.61074
▁general	-9.61078
▁Town	-9.61095
▁lovely	-9.61148
▁11	-9.6122
▁ya	-9.61428
▁wa	-9.61584
▁dem	-9.6161
spec	-9.61715
▁follow	-9.62001
▁spend	-9.62035
▁gold	-9.62047
▁unclear	-9.62071
▁forget	-9.62112
ze	-9.62371
▁Fe	-9.62604
wn	-9.62631
▁washer	-9.62657
AL	-9.62671
▁character	-9.62952
▁turtle	-9.62952
▁blood	-9.62952
▁24	-9.63016
▁lift	-9.63033
uff	-9.63125
▁cake	-9.63136
▁sha	-9.63165
house	-9.63516
▁force	-9.63531
▁problem	-9.63833
▁above	-9.63908
▁Nick	-9.63983
rap	-9.63992
▁cook	-9.64019
▁main	-9.64301
▁clock	-9.64327
▁return	-9.64439
▁dad	-9.64614
▁doll	-9.6473
▁block	-9.64843
▁plastic	-9.64969
▁corner	-9.65018
▁fly	-9.65104
▁21	-9.65125
▁longer	-9.65192
AT	-9.6524
TH	-9.65318
▁v	-9.65356
▁dogs	-9.65395
ric	-9.65451
now	-9.65518
▁quiet	-9.6563
▁middle	-9.65852
▁sco	-9.65883
▁Hello	-9.65929
▁loud	-9.66088
night	-9.66133
▁Co	-9.662
▁laughing	-9.66444
▁Fa	-9.66532
▁anybody	-9.66817
▁language	-9.66817
▁supper	-9.66817
▁village	-9.66817
▁secret	-9.66901
▁beat	-9.67325
right	-9.67348
.9	-9.6762
nce	-9.67621
▁u	-9.67673
▁forgot	-9.67702
ere	-9.67717
ier	-9.67774
▁mm	-9.67801
▁Illinois	-9.67807
▁wrote	-9.67807
▁self	-9.67825
▁moved	-9.67997
▁pig	-9.68053
tte	-9.68153
iz	-9.68192
▁less	-9.68218
That	-9.6839
what	-9.68391
▁carry	-9.68502
je	-9.6852
moves	-9.68855
▁Urs	-9.68873
▁king	-9.68946
▁IN	-9.6907
▁falls	-9.6909
▁mi	-9.69603
VE	-9.69622
CH	-9.69649
▁button	-9.69684
▁afternoon	-9.69817
▁include	-9.69817
▁balloon	-9.69818
▁25	-9.69902
▁following	-9.7034
▁learn	-9.70372
▁hate	-9.70479
▁lie	-9.70536
▁gen	-9.70703
▁enjoy	-9.70837
▁begin	-9.70887
▁August	-9.70896
▁28	-9.7091
▁pound	-9.7093
▁flat	-9.70939
▁Ga	-9.70946
round	-9.7095
▁anyway	-9.70975
OW	-9.7101
▁race	-9.71053
ham	-9.71125
▁eye	-9.71216
clear	-9.71413
ray	-9.71598
▁whom	-9.71768
▁Dad	-9.71784
▁loved	-9.71803
▁hell	-9.71809
old	-9.71819
▁exactly	-9.71868
▁Tripp	-9.71869
▁series	-9.7187
▁IT	-9.71895
▁treat	-9.71905
▁kid	-9.72144
▁30	-9.72287
▁wonderful	-9.72291
ST	-9.72338
▁meeting	-9.72624
▁tear	-9.72815
▁everybody	-9.7291
▁birthday	-9.72913
▁bread	-9.72933
▁Indian	-9.73073
▁tu	-9.73248
▁beside	-9.73296
▁eggs	-9.73389
▁building	-9.73444
▁low	-9.73594
IL	-9.73666
▁bi	-9.73722
▁certain	-9.73757
▁cap	-9.73847
ek	-9.73941
▁Sir	-9.73956
▁spoke	-9.73963
▁grew	-9.73964
▁joy	-9.73965
▁James	-9.73966
▁cried	-9.73967
▁plate	-9.73994
▁December	-9.74001
ible	-9.74039
▁belong	-9.74092
OO	-9.74106
▁certainly	-9.74168
don	-9.74227
az	-9.74261
▁wi	-9.74393
▁Sure	-9.7447
▁fellows	-9.74478
▁qu	-9.74528
▁opened	-9.74561
*	-9.74608
▁date	-9.74666
▁lead	-9.74749
▁Vi	-9.74755
ja	-9.74841
▁murder	-9.75027
▁region	-9.75027
▁football	-9.75032
▁bright	-9.75059
▁shut	-9.75062
line	-9.75075
ev	-9.75167
▁dance	-9.75204
▁22	-9.75257
▁13	-9.75269
very	-9.75723
Home	-9.75899
▁kids	-9.75919
act	-9.75948
ets	-9.76072
▁sense	-9.76104
com	-9.76149
▁Will	-9.76247
places	-9.76412
▁onto	-9.76579
▁pe	-9.76599
vin	-9.76667
▁Even	-9.76877
▁cur	-9.76961
▁save	-9.76963
▁weeks	-9.76968
cla	-9.77084
▁HE	-9.77125
▁basket	-9.77186
▁People	-9.77189
▁crayon	-9.77189
▁Nothing	-9.77194
▁except	-9.77204
▁shot	-9.77219
▁delight	-9.77271
chi	-9.77291
points	-9.77305
▁law	-9.77335
▁stone	-9.77448
▁pan	-9.77527
van	-9.77549
light	-9.77692
▁crying	-9.77782
▁build	-9.77804
▁flowers	-9.77936
clock	-9.77943
▁continue	-9.77995
▁Sis	-9.78028
▁Any	-9.78151
RA	-9.78225
▁San	-9.78239
▁special	-9.78288
▁current	-9.78288
▁thousand	-9.78288
▁Sorry	-9.78289
▁River	-9.78317
▁June	-9.78379
ain	-9.78574
▁instead	-9.7864
▁cannot	-9.78657
ya	-9.78814
can	-9.78875
some	-9.78996
bra	-9.79064
▁woods	-9.79117
▁happens	-9.79249
▁role	-9.79389
▁accident	-9.79399
▁worth	-9.79399
▁charge	-9.79401
▁type	-9.79402
▁honey	-9.79416
▁Really	-9.79445
▁winter	-9.79462
▁video	-9.79529
▁deep	-9.79529
▁coat	-9.79562
▁waiting	-9.79708
▁places	-9.79805
▁hang	-9.8013
jo	-9.80151
▁agree	-9.80154
▁Dr	-9.80192
▁Indians	-9.80308
▁pocket	-9.80522
▁puzzle	-9.80522
▁bought	-9.80523
▁Robin	-9.80523
▁season	-9.8054
▁decided	-9.80645
bout	-9.80702
▁reading	-9.80721
▁questions	-9.80762
▁_	-9.80791
▁dry	-9.80962
▁shoe	-9.80987
▁sad	-9.81171
let	-9.8131
looking	-9.81493
▁lots	-9.81557
▁written	-9.81659
▁census	-9.81659
▁stopped	-9.81696
▁suddenly	-9.8174
SE	-9.81902
▁recorder	-9.81961
▁City	-9.81971
ney	-9.82012
ov	-9.82018
II	-9.82137
▁ve	-9.82164
ery	-9.82309
▁expect	-9.82342
=	-9.82389
▁Col	-9.82582
▁office	-9.82587
▁California	-9.82808
▁worry	-9.82808
▁Jura	-9.82851
▁camp	-9.82887
CE	-9.82913
▁leaves	-9.82987
Nord	-9.82987
▁em	-9.83051
▁Su	-9.83091
▁legs	-9.83148
▁whispered	-9.8315
▁Ki	-9.83327
▁crack	-9.83435
▁suppose	-9.83602
hoo	-9.83695
▁pleasure	-9.83971
▁yesterday	-9.83971
▁frog	-9.83972
▁York	-9.83976
▁list	-9.84055
ened	-9.84147
▁Ru	-9.8441
rri	-9.84627
▁tro	-9.84679
▁laugh	-9.8472
▁WE	-9.84729
▁press	-9.84901
qua	-9.84944
well	-9.84961
▁quick	-9.84962
▁dese	-9.85066
pos	-9.8509
ging	-9.8512
▁heavy	-9.85147
▁support	-9.85147
▁background	-9.85147
▁grape	-9.85148
▁truth	-9.85148
▁election	-9.85148
▁third	-9.85148
▁Grace	-9.85148
▁Great	-9.85148
▁shop	-9.85211
▁East	-9.85213
▁Lu	-9.85253
▁EXP	-9.85335
▁interest	-9.85388
▁position	-9.85395
lar	-9.85433
▁sight	-9.85617
▁liked	-9.85645
▁telling	-9.85661
▁den	-9.85663
▁Joe	-9.85717
▁X	-9.85741
▁shoulder	-9.85953
▁fat	-9.8601
▁flu	-9.86066
1.2	-9.86252
▁imagine	-9.86338
▁church	-9.86338
▁2011	-9.86342
▁sentence	-9.86364
▁Would	-9.86371
▁climb	-9.86411
▁slowly	-9.8643
▁cow	-9.86452
lia	-9.86593
▁gas	-9.86686
ably	-9.86845
ously	-9.86925
▁month	-9.87011
▁lives	-9.87012
▁Va	-9.87013
?”	-9.871
▁State	-9.87146
▁wide	-9.87225
bel	-9.87293
▁simply	-9.87543
▁suggest	-9.87543
▁thirty	-9.87543
▁bottle	-9.87553
▁human	-9.87589
▁letters	-9.87614
▁Wo	-9.87649
▁released	-9.87679
▁official	-9.8775
▁appeared	-9.87845
IT	-9.87972
ile	-9.88194
▁str	-9.88352
▁count	-9.88419
▁sa	-9.88491
▁mess	-9.88507
▁difficult	-9.88762
▁moving	-9.88763
▁Lord	-9.88765
▁sharp	-9.88768
▁proud	-9.88802
▁metal	-9.88832
▁using	-9.88968
▁washers	-9.88985
▁Nation	-9.89214
▁interesting	-9.89263
▁sea	-9.89767
▁Minister	-9.89997
▁suffer	-9.89997
▁trans	-9.89999
▁kiss	-9.90006
▁shout	-9.9002
kay	-9.90031
▁problems	-9.9009
▁Little	-9.90112
▁blocks	-9.9016
▁arrow	-9.90162
▁quickly	-9.90213
▁[.8	-9.90218
▁27	-9.9043
▁lion	-9.90459
▁Pu	-9.90634
how	-9.90839
▁promise	-9.90876
▁tri	-9.90932
▁hours	-9.90999
There	-9.91168
á	-9.91246
▁Diandra	-9.91247
▁Keith	-9.91247
▁government	-9.91247
▁vaudois	-9.91247
▁hurry	-9.91247
▁From	-9.91248
▁stories	-9.91258
▁26	-9.91323
▁actor	-9.91339
pro	-9.91441
ized	-9.9158
▁officer	-9.91591
▁holding	-9.916
▁starts	-9.91632
ky	-9.91668
HS	-9.91852
▁29	-9.91921
yellow	-9.92094
board	-9.92159
han	-9.92242
shed	-9.9237
▁Cr	-9.92407
▁()	-9.92466
▁grand	-9.92511
▁oatmeal	-9.92513
▁Canada	-9.92513
▁David	-9.92513
▁itself	-9.92514
▁history	-9.92514
▁House	-9.92532
▁indeed	-9.92543
▁Er	-9.92583
▁post	-9.9269
▁cost	-9.92692
ium	-9.92719
▁asking	-9.92756
ox	-9.92761
▁wall	-9.92856
▁games	-9.93017
▁softly	-9.93091
▁nearly	-9.933
▁join	-9.93343
hu	-9.93367
work	-9.93432
▁event	-9.93486
har	-9.93749
▁within	-9.93785
▁monkey	-9.93795
▁president	-9.93795
▁garden	-9.93795
▁stove	-9.93796
▁class	-9.93798
▁Tell	-9.93801
▁court	-9.93803
▁sell	-9.93836
▁dose	-9.93838
fer	-9.93876
ties	-9.93946
vision	-9.94075
▁mis	-9.94474
▁South	-9.95086
▁couple	-9.95093
▁silly	-9.95095
▁Visit	-9.95096
▁protect	-9.95102
▁Robert	-9.95103
▁rush	-9.95105
▁ski	-9.95137
▁bank	-9.95161
▁FOR	-9.9518
▁earth	-9.95267
▁anyone	-9.95295
cat	-9.95437
▁supposed	-9.95507
▁turning	-9.95535
▁followed	-9.95741
▁BRO	-9.95814
pull	-9.96002
▁animal	-9.96106
▁brown	-9.96162
lthough	-9.96229
even	-9.96268
▁[5	-9.96353
ould	-9.96379
▁ME	-9.96401
▁Wait	-9.96411
HV	-9.96482
▁op	-9.96596
▁awful	-9.96604
gar	-9.96821
ome	-9.9688
cking	-9.96927
col	-9.97018
▁farm	-9.97036
▁dare	-9.97092
▁CO	-9.97112
she	-9.97167
oc	-9.97217
1.3	-9.97409
▁reach	-9.97525
▁walking	-9.97588
ssed	-9.97649
▁nobody	-9.97742
▁stupid	-9.97742
▁tapioca	-9.97742
▁serious	-9.97743
▁common	-9.97764
▁Party	-9.97768
▁mix	-9.97801
▁Take	-9.98001
▁shoes	-9.98541
room	-9.98621
▁members	-9.98734
like	-9.98908
graph	-9.99089
▁medicine	-9.99094
▁fruit	-9.99094
▁created	-9.99095
▁napkin	-9.99098
▁feed	-9.99113
▁women	-9.99114
▁key	-9.99149
▁Very	-9.9915
▁(20	-9.99209
▁rule	-9.9926
▁rich	-9.99288
cept	-9.99292
▁rose	-9.99393
▁bill	-9.99426
▁brave	-9.99461
▁meat	-9.99499
▁joined	-9.99586
▁su	-9.99613
▁camera	-9.99674
car	-9.99779
where	-10.0003
▁ill	-10.0031
▁ver	-10.0035
▁click	-10.0047
▁2014	-10.0047
▁doubt	-10.0047
▁dropped	-10.0049
▁hungry	-10.0049
▁February	-10.0051
▁Like	-10.0052
▁mistake	-10.0052
▁orange	-10.0056
fish	-10.0059
▁Stop	-10.0062
ttle	-10.0069
▁rough	-10.0083
▁arms	-10.0085
▁wha	-10.0089
▁pitch	-10.0097
They	-10.0128
lock	-10.0128
▁answered	-10.013
▁none	-10.0136
%	-10.0143
ities	-10.015
over	-10.0151
▁led	-10.0175
▁Ye	-10.0179
▁pain	-10.0179
▁School	-10.0185
▁attention	-10.0185
▁husband	-10.0185
▁public	-10.0185
▁concern	-10.0185
▁parents	-10.0185
▁honor	-10.0185
▁south	-10.0186
▁Hank	-10.0193
ARY	-10.0197
ppe	-10.0239
▁miles	-10.0256
▁soup	-10.0268
ism	-10.0274
▁happening	-10.0275
▁object	-10.0316
▁Majesty	-10.0326
▁World	-10.0326
▁control	-10.0326
▁difference	-10.0326
▁hospital	-10.0326
▁mountain	-10.0326
▁possible	-10.0326
▁William	-10.0326
▁crazy	-10.0326
▁chicken	-10.0326
▁space	-10.0326
▁built	-10.0326
,000	-10.0327
▁leaving	-10.0327
▁super	-10.0329
▁pretend	-10.0337
▁sex	-10.0347
▁player	-10.0349
▁Ex	-10.0349
uch	-10.0355
▁pet	-10.0372
overlap	-10.0384
▁bark	-10.0385
▁months	-10.0389
▁clo	-10.0404
▁Har	-10.0408
")	-10.0416
▁surprise	-10.0432
paper	-10.0436
BR	-10.0437
▁Mor	-10.0439
▁Tra	-10.0447
gie	-10.0449
Now	-10.0451
▁soul	-10.0468
▁explain	-10.0469
▁travel	-10.0469
▁Which	-10.0469
▁period	-10.0469
▁trust	-10.0469
▁creature	-10.0469
▁teeth	-10.0469
▁Two	-10.0469
▁Italian	-10.0469
▁local	-10.0469
▁apart	-10.047
▁ST	-10.0484
▁talked	-10.0508
▁Gus	-10.0512
▁Mark	-10.0513
She	-10.0521
▁gl	-10.0545
j	-10.0549
▁pin	-10.0569
reak	-10.0571
turn	-10.0572
▁smile	-10.0577
▁offer	-10.059
▁perfect	-10.0593
▁Clavering	-10.0614
▁example	-10.0614
▁simple	-10.0614
▁replied	-10.0614
▁Grand	-10.0615
▁glance	-10.0615
▁neck	-10.062
▁paid	-10.0621
her	-10.0641
▁stage	-10.0643
▁mad	-10.0644
stern	-10.0651
▁tv	-10.0673
▁gri	-10.0687
LY	-10.071
▁rate	-10.0712
song	-10.0715
aving	-10.0716
▁Mama	-10.0731
▁walked	-10.0739
So	-10.0758
vocalization	-10.0761
▁carried	-10.0761
▁afterwards	-10.0761
▁ought	-10.0763
▁doggie	-10.0764
▁finally	-10.0771
▁issue	-10.0773
▁Tri	-10.0788
▁lose	-10.0789
▁field	-10.0789
▁attempt	-10.0797
tell	-10.0812
▁north	-10.0831
gged	-10.0839
▁horses	-10.0854
unk	-10.086
Do	-10.0862
Then	-10.0874
▁Bar	-10.0906
Illustration	-10.091
▁Richard	-10.091
▁briefcase	-10.091
▁community	-10.091
▁chief	-10.091
▁grass	-10.091
▁swimming	-10.091
▁beginning	-10.091
▁protest	-10.091
WOM	-10.0911
▁2017	-10.0911
▁Danny	-10.0913
▁Johnson	-10.0917
▁suit	-10.0917
▁lying	-10.0921
iff	-10.093
▁design	-10.093
▁Sha	-10.093
▁bone	-10.0935
▁lake	-10.0937
▁considered	-10.0941
▁animals	-10.0945
hand	-10.0946
▁art	-10.0955
▁park	-10.0967
▁Com	-10.0975
gin	-10.0992
rink	-10.0998
▁Par	-10.1
▁action	-10.1015
▁cause	-10.1019
▁mark	-10.1027
▁luck	-10.1048
▁glass	-10.1052
iti	-10.1056
▁Graham	-10.1062
▁Michael	-10.1062
▁experience	-10.1062
▁throat	-10.1062
▁spirit	-10.1062
xcuse	-10.1062
▁market	-10.1066
▁baseball	-10.1067
▁spot	-10.1068
▁rain	-10.1103
▁organis	-10.1108
rate	-10.1114
US	-10.1164
▁pad	-10.1186
▁natural	-10.1216
▁neither	-10.1216
▁discuss	-10.1216
▁national	-10.1216
▁level	-10.1217
▁Father	-10.1217
▁pink	-10.1222
▁slight	-10.1229
▁lap	-10.1231
▁bang	-10.1232
▁received	-10.1235
▁wow	-10.1239
▁Cos	-10.1243
▁station	-10.1246
▁Gi	-10.1249
▁meant	-10.1267
▁el	-10.1267
AU	-10.1269
ctor	-10.1277
▁En	-10.1279
▁string	-10.1285
▁cracker	-10.1294
▁whisper	-10.131
cord	-10.1344
▁pu	-10.1347
▁singing	-10.1353
▁Cor	-10.1356
elect	-10.1362
▁British	-10.1372
▁patient	-10.1372
▁www	-10.1372
▁slide	-10.1372
▁smell	-10.1372
▁snake	-10.1372
▁drew	-10.1372
▁knee	-10.1372
▁Harry	-10.1376
▁mud	-10.1379
▁bigger	-10.1379
▁settle	-10.1379
▁Santa	-10.1383
▁Fuck	-10.1387
▁Colin	-10.1393
▁county	-10.1403
▁chain	-10.1408
▁grown	-10.1425
▁ng	-10.1466
zi	-10.1469
▁hall	-10.1476
magnet	-10.1491
▁US	-10.1508
▁Republic	-10.1522
▁West	-10.1529
è	-10.1531
▁England	-10.1531
▁especially	-10.1531
▁system	-10.1531
▁terrible	-10.1531
▁engine	-10.1531
▁affect	-10.1531
▁married	-10.1531
▁fresh	-10.1531
▁Henry	-10.1531
▁tongue	-10.1531
▁edge	-10.1534
▁31	-10.1535
▁master	-10.1537
▁everyone	-10.1541
▁Russian	-10.1545
▁perfectly	-10.1553
▁tall	-10.1556
▁moon	-10.1558
ified	-10.16
ju	-10.1605
wood	-10.165
▁notice	-10.1658
▁add	-10.1662
▁missed	-10.1665
▁personal	-10.1665
▁watching	-10.168
ung	-10.1689
▁twelve	-10.1692
▁2013	-10.1692
▁drug	-10.1692
▁extra	-10.1693
▁couch	-10.1698
▁kick	-10.17
▁erase	-10.1702
▁spread	-10.1707
▁horseshoe	-10.1708
bur	-10.1712
▁Ben	-10.1716
oh	-10.1717
▁fallen	-10.1718
sses	-10.1737
ix	-10.1741
▁realize	-10.1741
▁laughed	-10.1756
▁Day	-10.1768
▁career	-10.1786
▁changed	-10.1798
atch	-10.1801
DAN	-10.1823
aunt	-10.1848
▁2016	-10.1856
▁Saturday	-10.1856
▁Texas	-10.1856
▁Lucas	-10.1856
▁plain	-10.1856
▁smart	-10.1856
▁shirt	-10.1856
▁track	-10.1856
▁elected	-10.1856
▁flag	-10.1858
▁attach	-10.1858
▁peace	-10.186
▁trick	-10.1861
▁Q	-10.1864
▁Roman	-10.1868
▁brain	-10.1868
▁fold	-10.1868
▁boo	-10.188
gain	-10.1888
mple	-10.1891
▁stack	-10.1896
NE	-10.1927
▁2022	-10.1928
play	-10.1933
▁returned	-10.1936
ature	-10.1943
▁Ju	-10.1952
▁fur	-10.1962
▁America	-10.1994
▁chocolate	-10.2022
▁political	-10.2022
▁empty	-10.2022
▁twice	-10.2022
▁direction	-10.2022
▁situation	-10.2022
▁threw	-10.2023
▁crowd	-10.2023
▁respect	-10.2023
▁professional	-10.2023
▁pipe	-10.2023
▁deliver	-10.2023
▁pair	-10.2034
ement	-10.204
▁hide	-10.2044
▁showed	-10.2045
▁cast	-10.2054
18	-10.2055
▁Leo	-10.206
oop	-10.2075
▁picked	-10.2079
▁board	-10.2085
▁gay	-10.2086
UR	-10.2119
▁More	-10.2148
black	-10.215
▁Pi	-10.2152
overlapp	-10.2174
▁adventure	-10.2192
▁First	-10.2192
▁Black	-10.2192
▁Thomas	-10.2192
▁grandfather	-10.2192
▁center	-10.2192
▁Albert	-10.2193
▁Gros	-10.2194
▁bike	-10.2196
▁Perhaps	-10.2198
▁Mc	-10.22
▁committee	-10.2203
▁movement	-10.2211
ko	-10.2217
▁MY	-10.2218
▁host	-10.2221
▁pat	-10.2224
▁Was	-10.2238
My	-10.2245
▁continued	-10.2249
Don	-10.2262
▁share	-10.2298
▁handle	-10.2301
posed	-10.2317
attempt	-10.2322
▁wipe	-10.2324
▁Mary	-10.2334
▁fuck	-10.234
ince	-10.2351
mission	-10.2354
▁beyond	-10.2364
▁Listen	-10.2364
▁Smith	-10.2364
▁darling	-10.2364
▁crawl	-10.2364
▁prize	-10.2365
▁film	-10.2365
▁Patch	-10.237
▁yard	-10.2374
▁fence	-10.2395
▁however	-10.2395
▁single	-10.2396
more	-10.2406
▁allowed	-10.2406
▁Aye	-10.2411
▁flower	-10.242
▁cloth	-10.242
iddle	-10.2423
▁comp	-10.2441
▁deer	-10.2454
▁farmer	-10.2456
▁Ve	-10.2477
▁boots	-10.2479
▁higher	-10.2479
▁RE	-10.2481
▁bug	-10.2481
▁hunt	-10.2494
Vaud	-10.2498
loud	-10.2504
▁enter	-10.2506
ular	-10.2534
▁Governor	-10.254
▁represent	-10.254
▁sandwich	-10.254
▁THAT	-10.254
▁diaper	-10.254
▁square	-10.254
▁worse	-10.254
▁nor	-10.2544
▁shit	-10.256
▁Tho	-10.2579
▁expected	-10.2611
1.1	-10.2649
Mother	-10.2676
late	-10.2714
▁fool	-10.2717
▁Queen	-10.2718
▁choice	-10.2718
▁exclaimed	-10.2718
▁frightened	-10.2718
▁highchair	-10.2718
▁upstairs	-10.2718
▁Friday	-10.2718
▁machine	-10.2718
▁Jesus	-10.2718
▁grace	-10.2718
▁match	-10.2722
▁boot	-10.2722
▁excuse	-10.2723
▁sail	-10.2726
▁drag	-10.2743
TER	-10.2749
▁manner	-10.2753
▁Every	-10.2766
▁refer	-10.2783
▁coin	-10.2794
▁Does	-10.2815
▁swing	-10.2842
▁fill	-10.2855
stand	-10.288
uh	-10.2894
▁mostly	-10.2895
▁remark	-10.29
▁entire	-10.29
ology	-10.29
▁result	-10.29
▁print	-10.29
▁firm	-10.29
▁soldier	-10.2901
▁2012	-10.2901
▁dozen	-10.2901
▁cherry	-10.2904
word	-10.2911
▁wake	-10.2921
▁BE	-10.2944
▁tip	-10.2948
ville	-10.295
▁Ya	-10.2951
▁Give	-10.2967
hold	-10.2981
▁bother	-10.3
▁whoa	-10.3022
eign	-10.3025
▁appear	-10.3038
boat	-10.3057
berg	-10.3058
sign	-10.3061
▁shape	-10.3064
▁believed	-10.3079
▁Brazil	-10.3085
▁Empire	-10.3085
▁Gippie	-10.3085
▁affair	-10.3085
▁album	-10.3085
▁Poacher	-10.3085
▁anxious	-10.3085
▁pillow	-10.3085
▁director	-10.3085
▁Sometimes	-10.3085
▁burst	-10.3086
▁teddy	-10.3086
▁popular	-10.3086
▁taste	-10.3086
▁utter	-10.3086
▁2018	-10.3087
▁amount	-10.3089
UM	-10.309
▁FE	-10.3091
▁size	-10.3094
▁Chief	-10.3096
▁served	-10.3107
▁About	-10.3116
▁Erm	-10.3136
▁DO	-10.3146
this	-10.3151
▁sale	-10.3171
▁remove	-10.3188
lves	-10.3229
▁ON	-10.3241
▁German	-10.325
17	-10.3255
▁Washington	-10.3274
▁fifteen	-10.3274
▁terror	-10.3274
▁2010	-10.3274
▁White	-10.3274
▁effect	-10.3274
▁Prince	-10.3274
▁study	-10.3274
▁Julie	-10.3274
▁regard	-10.3274
▁welcome	-10.3274
▁address	-10.3274
▁2021	-10.3275
▁normal	-10.3275
▁partner	-10.3286
▁choo	-10.329
▁Germany	-10.3298
▁bow	-10.3299
▁bra	-10.3314
▁entered	-10.3324
▁fucking	-10.3328
▁added	-10.3331
▁Run	-10.3333
▁Bur	-10.334
▁LI	-10.3353
▁drinking	-10.3356
▁hanging	-10.3356
90	-10.3358
▁cooking	-10.3372
▁ship	-10.3374
ount	-10.3426
Why	-10.343
▁watched	-10.3437
▁pea	-10.344
▁quit	-10.3457
ability	-10.3466
▁THIS	-10.3466
▁Ukraine	-10.3466
▁tight	-10.3466
▁disappear	-10.3466
▁disappoint	-10.3466
▁switch	-10.3466
▁Lassie	-10.3466
▁monster	-10.3466
▁distance	-10.3467
▁Sun	-10.3467
▁Army	-10.3471
Prime	-10.3471
▁falling	-10.3473
▁cell	-10.3475
▁pause	-10.3475
▁anywhere	-10.3475
▁spent	-10.3484
▁log	-10.3486
▁somehow	-10.3488
▁arrested	-10.3489
▁compar	-10.3493
▁quarter	-10.3506
pointing	-10.3512
▁greatest	-10.352
▁mus	-10.3527
▁skin	-10.3531
▁leader	-10.3532
▁reached	-10.3534
▁lock	-10.3538
▁allow	-10.3551
▁prove	-10.3553
▁trip	-10.3554
▁gain	-10.3557
▁Sue	-10.3566
star	-10.3567
▁Ni	-10.3582
bert	-10.3604
▁remain	-10.3616
laughing	-10.362
pose	-10.3621
itude	-10.3639
▁fuss	-10.3656
▁governor	-10.3662
▁information	-10.3662
▁screw	-10.3662
▁subject	-10.3662
▁Dillson	-10.3662
▁escape	-10.3662
▁club	-10.3662
▁cruel	-10.3662
▁cousin	-10.3662
▁favorite	-10.3663
▁spill	-10.3663
▁tiny	-10.3663
▁Alright	-10.3665
▁connect	-10.3665
▁nature	-10.3666
▁hook	-10.3667
▁High	-10.3668
▁Johnny	-10.3668
gging	-10.3668
▁CHAPTER	-10.367
▁Lady	-10.3671
▁shame	-10.3673
▁correct	-10.3677
▁Wi	-10.3694
5/	-10.3706
ask	-10.3734
▁Christ	-10.3741
▁starting	-10.3749
▁Bye	-10.3749
ERS	-10.3772
tree	-10.3793
▁success	-10.3805
position	-10.382
▁nope	-10.3829
most	-10.3844
▁tale	-10.385
▁Ciscasset	-10.3862
▁Oxford	-10.3862
▁conversation	-10.3862
▁dancing	-10.3862
▁decision	-10.3862
▁elephant	-10.3862
▁prairie	-10.3862
▁response	-10.3862
▁rubber	-10.3862
▁London	-10.3862
▁border	-10.3862
▁radio	-10.3862
▁municipalities	-10.3862
▁queen	-10.3863
▁Old	-10.3863
▁Humm	-10.3863
▁weird	-10.3865
▁pale	-10.3865
▁twin	-10.3867
▁message	-10.3867
▁dump	-10.388
▁clunk	-10.388
▁raised	-10.3884
RY	-10.3889
▁sport	-10.3891
▁hello	-10.3893
▁hill	-10.3902
owl	-10.3909
Be	-10.3921
burg	-10.395
rough	-10.3955
▁Dur	-10.3958
▁dressed	-10.4007
▁tire	-10.4032
▁pulled	-10.4034
singing	-10.4043
▁fashion	-10.4045
▁teach	-10.406
▁sleeping	-10.4063
▁fail	-10.4066
▁approach	-10.4066
▁pleasant	-10.4066
▁rabbit	-10.4066
▁speech	-10.4066
▁struggle	-10.4066
▁fifty	-10.4067
▁future	-10.4067
▁steam	-10.4067
▁account	-10.4067
▁lawyer	-10.4067
▁limit	-10.4067
▁Court	-10.4067
▁Agent	-10.4067
▁Democratic	-10.4068
▁cancer	-10.4068
▁slip	-10.4071
▁Jess	-10.4072
▁taught	-10.4073
▁Ken	-10.4074
▁pray	-10.4077
LW	-10.4085
▁somewhere	-10.4087
lung	-10.4087
▁mum	-10.4095
▁caused	-10.4118
▁Fine	-10.4118
▁upside	-10.4123
gotten	-10.4151
▁learned	-10.4161
▁sand	-10.4161
nick	-10.4182
19	-10.4198
pitched	-10.4198
▁mid	-10.4209
appropriate	-10.4232
▁corn	-10.4242
▁bowl	-10.4243
▁drawing	-10.4261
▁comfort	-10.4273
▁District	-10.4275
▁Raymond	-10.4275
▁benefit	-10.4275
▁ribbon	-10.4275
▁previous	-10.4275
▁price	-10.4276
▁calm	-10.4276
▁lips	-10.4277
▁bou	-10.4279
nut	-10.4281
▁fancy	-10.4282
▁wound	-10.4282
▁Could	-10.4285
▁closed	-10.4289
▁Year	-10.429
▁announced	-10.4291
▁retired	-10.4292
▁Saint	-10.4296
▁hotel	-10.4303
whining	-10.4303
ouch	-10.4323
▁bowling	-10.4326
▁pack	-10.4329
▁older	-10.4339
▁Award	-10.4371
▁egg	-10.439
▁Only	-10.4394
ize	-10.4435
cup	-10.4436
Adam	-10.4446
1.4	-10.4468
How	-10.4469
▁cowboy	-10.4488
▁stretch	-10.4488
▁project	-10.4488
▁scene	-10.4488
▁grave	-10.4488
▁gift	-10.4488
▁directed	-10.4488
▁damn	-10.4488
▁actress	-10.4488
▁queer	-10.4488
▁Philip	-10.4489
▁hung	-10.449
▁tribe	-10.4492
▁motor	-10.4495
▁anymore	-10.4495
▁coach	-10.4495
▁However	-10.45
goes	-10.4503
▁published	-10.4504
coughs	-10.4505
ories	-10.4516
▁Paris	-10.4517
▁pile	-10.4521
▁invite	-10.4522
▁Pence	-10.4522
▁mail	-10.4522
▁bare	-10.4537
▁China	-10.4538
▁AN	-10.454
▁fourth	-10.454
nother	-10.4561
look	-10.4642
head	-10.4643
off	-10.4643
▁total	-10.4643
▁tha	-10.4657
washer	-10.4663
field	-10.4671
▁Illustrated	-10.4705
▁Missouri	-10.4705
▁evidence	-10.4705
▁province	-10.4705
▁suitcase	-10.4705
▁dunno	-10.4705
▁History	-10.4705
▁species	-10.4705
▁Whig	-10.4705
▁remind	-10.4705
▁content	-10.4705
▁storm	-10.4706
▁2015	-10.4706
▁fond	-10.4706
▁Work	-10.4708
▁roof	-10.471
direct	-10.4711
▁European	-10.4712
▁swim	-10.4713
▁Ann	-10.4716
▁rug	-10.4717
▁sky	-10.4722
▁tray	-10.4723
▁iron	-10.4725
▁coo	-10.4729
▁unless	-10.473
▁lucky	-10.474
▁screaming	-10.4742
ancy	-10.4749
Brown	-10.476
▁filled	-10.4761
▁original	-10.4764
▁eh	-10.4771
tape	-10.4772
▁Park	-10.4776
gaa	-10.4791
▁interested	-10.4792
▁owner	-10.4798
morrow	-10.4811
▁wave	-10.4816
▁wished	-10.4866
▁Stan	-10.488
uk	-10.4921
▁develop	-10.4924
▁Natalie	-10.4927
▁WHAT	-10.4927
▁college	-10.4927
▁doughnut	-10.4927
▁Charles	-10.4927
▁heaven	-10.4927
▁major	-10.4927
▁sposta	-10.4927
▁Larita	-10.4927
▁Trump	-10.4927
▁branch	-10.4927
▁joke	-10.4927
▁asleep	-10.4927
▁crime	-10.4927
▁tiger	-10.4927
▁accept	-10.4927
▁peanut	-10.4928
▁trade	-10.4928
▁Lucy	-10.4929
▁horn	-10.4929
▁Tony	-10.4937
▁completely	-10.4945
▁tripp	-10.4958
▁Aha	-10.496
▁mill	-10.4971
ball	-10.4975
▁remained	-10.498
▁hunting	-10.4989
▁comb	-10.5003
▁fighting	-10.5061
▁plane	-10.5094
▁thin	-10.5096
AM	-10.5098
onald	-10.5104
▁consider	-10.5108
Z	-10.5113
▁quart	-10.5123
▁usual	-10.5134
▁effort	-10.5154
▁excited	-10.5154
▁excitement	-10.5154
▁exciting	-10.5154
▁including	-10.5154
▁military	-10.5154
▁plenty	-10.5154
▁professor	-10.5154
▁League	-10.5154
▁Naomi	-10.5154
▁feather	-10.5154
▁search	-10.5154
▁balance	-10.5155
▁Cooper	-10.5155
▁ladies	-10.5155
▁honest	-10.5155
▁double	-10.5155
▁Time	-10.5155
▁Martin	-10.5155
▁further	-10.5156
▁battle	-10.5157
▁whoops	-10.5158
▁alive	-10.5159
▁mommy	-10.516
▁|	-10.5161
▁India	-10.5163
▁involved	-10.5164
▁Other	-10.5168
umber	-10.5169
▁shake	-10.517
1.6	-10.517
▁neat	-10.5173
▁critique	-10.5179
playing	-10.5179
▁arrived	-10.5181
long	-10.5202
▁magnetic	-10.5205
▁oil	-10.5205
▁lean	-10.5215
▁pour	-10.5224
▁needta	-10.5236
▁singer	-10.5248
▁Yo	-10.5255
▁mate	-10.5274
▁smaller	-10.5286
1.7	-10.5292
▁Pen	-10.5303
keeper	-10.5309
▁writer	-10.5319
▁prepar	-10.5345
just	-10.535
▁danger	-10.5376
▁program	-10.5383
▁majesty	-10.5387
▁brief	-10.5387
▁fault	-10.5387
▁mirror	-10.5387
▁splendid	-10.5387
▁taperecorder	-10.5387
▁rustle	-10.5387
▁smoke	-10.5387
▁Fairy	-10.5387
▁value	-10.5387
▁silent	-10.5387
▁truly	-10.5387
▁Spain	-10.5387
▁Mhm	-10.5387
▁tickle	-10.5387
▁dollars	-10.5388
▁Bird	-10.5388
▁faint	-10.5388
▁stock	-10.5388
▁text	-10.5389
▁view	-10.5392
▁Ooh	-10.5392
1.8	-10.5393
▁comma	-10.5397
▁Centr	-10.5422
▁tied	-10.5426
▁Anne	-10.5437
▁cop	-10.5457
OL	-10.5458
▁agreed	-10.5465
▁squ	-10.5469
▁carrying	-10.5502
▁flying	-10.5509
▁badly	-10.5515
▁NO	-10.5517
▁covered	-10.5518
▁wearing	-10.5544
37	-10.5555
grab	-10.5567
▁Mel	-10.5587
▁yo	-10.5596
noise	-10.5597
▁uncle	-10.5618
▁civil	-10.5625
▁blanket	-10.5625
▁holiday	-10.5625
▁2005	-10.5625
▁Major	-10.5625
▁hurried	-10.5625
▁regular	-10.5625
▁repeated	-10.5625
▁process	-10.5625
▁Think	-10.5625
▁Senate	-10.5625
▁complain	-10.5625
▁Street	-10.5625
▁kidding	-10.5626
▁shore	-10.5626
▁minister	-10.5626
▁immediately	-10.5629
▁artist	-10.5631
▁pony	-10.5635
▁chip	-10.5637
▁chop	-10.5645
▁scared	-10.5648
▁Once	-10.5665
aves	-10.5672
▁counter	-10.5679
▁smiled	-10.5687
▁offered	-10.5707
▁tie	-10.5708
▁fairy	-10.5715
▁gar	-10.5726
▁bro	-10.5778
▁nap	-10.5806
cream	-10.5818
▁Love	-10.5822
▁particular	-10.5848
lw	-10.5849
▁somethin	-10.586
▁council	-10.5861
▁nurse	-10.5866
▁Patrick	-10.5869
▁magazine	-10.5869
▁occur	-10.5869
▁private	-10.5869
▁respond	-10.5869
▁squirrel	-10.5869
▁swallow	-10.5869
▁length	-10.5869
▁fourteen	-10.5869
▁brush	-10.5869
▁weapon	-10.5869
▁Sweet	-10.5869
▁steal	-10.5869
▁Brian	-10.587
▁Polly	-10.587
▁locate	-10.5874
▁Watch	-10.5875
▁blame	-10.5875
▁handsome	-10.5879
▁dirty	-10.5889
▁Over	-10.5894
▁snap	-10.5918
▁prepared	-10.5918
▁whenever	-10.592
▁nest	-10.5926
▁promised	-10.5942
▁Alan	-10.5944
▁saved	-10.5953
▁path	-10.5955
▁toast	-10.6046
▁Mil	-10.605
▁lu	-10.6087
▁Europe	-10.6112
▁education	-10.6119
▁macaroni	-10.6119
▁scarce	-10.6119
▁scratch	-10.6119
▁similar	-10.6119
▁succeed	-10.6119
▁triangle	-10.6119
▁vegetable	-10.6119
▁reflect	-10.6119
▁MAY	-10.6119
▁prison	-10.6119
▁Something	-10.6119
▁judge	-10.6119
▁angry	-10.612
▁weight	-10.6121
▁title	-10.6121
▁Raff	-10.6122
▁1990	-10.6123
▁penny	-10.6123
▁vote	-10.6126
▁huge	-10.6127
▁Stu	-10.6131
▁wings	-10.6132
apping	-10.6132
▁load	-10.6136
▁pool	-10.6143
▁copy	-10.6146
▁replaced	-10.6147
▁stir	-10.6155
▁lower	-10.6166
ANT	-10.6184
▁sigh	-10.6192
▁bull	-10.6251
ella	-10.6258
▁UN	-10.6272
▁Act	-10.6279
▁nu	-10.6294
gets	-10.6327
When	-10.6334
volution	-10.6369
▁dim	-10.6374
▁Phil	-10.6374
▁gentle	-10.6375
▁Africa	-10.6375
▁Angeles	-10.6375
▁Julián	-10.6375
▁Macleod	-10.6375
▁driving	-10.6375
▁positive	-10.6375
▁practice	-10.6375
▁smooth	-10.6375
▁student	-10.6375
▁1995	-10.6375
▁famous	-10.6375
▁ghost	-10.6375
▁beauty	-10.6375
▁cheek	-10.6375
▁credit	-10.6376
▁newspaper	-10.6376
▁provide	-10.6376
▁instant	-10.6376
▁revolutionary	-10.6377
21	-10.6377
▁social	-10.6377
▁bridge	-10.6378
▁chug	-10.6383
▁harm	-10.6384
▁potatoes	-10.6385
▁Keep	-10.6386
▁Most	-10.6387
▁YOUR	-10.6391
▁mass	-10.6396
▁boil	-10.6402
▁Qui	-10.6404
pelle	-10.6413
▁Woo	-10.6419
▁quietly	-10.6431
▁noticed	-10.6438
▁cage	-10.6446
▁Nico	-10.6449
▁carefully	-10.6456
▁coal	-10.648
▁below	-10.649
▁gate	-10.6542
place	-10.6564
▁pole	-10.6594
Q	-10.6596
Good	-10.6597
▁complete	-10.6619
phone	-10.6622
aught	-10.6628
▁potato	-10.6629
▁rap	-10.6633
▁product	-10.6633
▁Actually	-10.6639
▁Florida	-10.6639
▁Valentine	-10.6639
▁absolutely	-10.6639
▁knife	-10.6639
▁obviously	-10.6639
▁purple	-10.6639
▁tricycle	-10.6639
▁1994	-10.6639
▁budget	-10.6639
▁courage	-10.6639
▁orphan	-10.6639
▁sauce	-10.6639
▁Kong	-10.6639
▁choke	-10.6639
▁goodbye	-10.6639
▁fought	-10.6639
▁Louis	-10.6639
▁cabin	-10.6639
▁nail	-10.6639
▁cube	-10.6639
▁gently	-10.6639
▁planning	-10.6639
ROB	-10.6639
▁centre	-10.6639
▁speed	-10.664
▁Tracy	-10.6641
▁Life	-10.6643
▁strip	-10.6644
▁desk	-10.6645
▁eagerly	-10.6649
▁Never	-10.665
▁thick	-10.665
▁Chair	-10.6653
▁bound	-10.6655
▁Island	-10.6659
▁&	-10.6661
▁Six	-10.6661
▁slow	-10.6666
▁rag	-10.6672
▁Seth	-10.6674
Villars	-10.6692
▁surprised	-10.6708
▁suck	-10.6711
▁dish	-10.6712
▁clearly	-10.6723
15	-10.6726
▁ALL	-10.674
ARCH	-10.6758
▁cheer	-10.6786
▁organ	-10.6826
stead	-10.6829
30	-10.6863
Come	-10.6876
▁environment	-10.6908
ridge	-10.6909
▁victim	-10.6909
▁Australia	-10.6909
▁advance	-10.6909
▁advice	-10.6909
▁excellent	-10.6909
í	-10.6909
▁babaa	-10.6909
▁strike	-10.6909
▁Cherry	-10.6909
▁RAF	-10.6909
▁feature	-10.6909
▁hammer	-10.6909
▁claim	-10.6909
▁computer	-10.6909
▁Duke	-10.6909
▁swift	-10.6909
▁admit	-10.6909
▁weather	-10.6909
▁Frank	-10.6909
▁formula	-10.691
▁slipped	-10.691
▁Sunday	-10.691
▁authority	-10.6911
▁narrow	-10.6911
▁struck	-10.6912
▁stole	-10.6914
▁weekend	-10.6914
▁Madam	-10.6916
▁birdie	-10.692
▁comment	-10.6921
▁statement	-10.6927
bring	-10.6929
▁bless	-10.6937
raz	-10.6938
▁discovered	-10.6939
13	-10.6943
▁brownie	-10.6961
ears	-10.7034
chuckles	-10.7036
▁stepp	-10.7077
▁40	-10.7142
14	-10.7155
▁Villa	-10.7158
cries	-10.7159
count	-10.716
softly	-10.7162
▁Scholarship	-10.7187
▁administrati	-10.7187
▁appreciate	-10.7187
▁dreadful	-10.7187
▁tinkertoy	-10.7187
▁degree	-10.7187
▁nineteen	-10.7187
▁LOVE	-10.7187
▁equal	-10.7187
▁material	-10.7187
sylum	-10.7187
▁Palmer	-10.7187
▁article	-10.7187
▁scrap	-10.7187
▁stream	-10.7187
▁related	-10.7187
▁threat	-10.7187
▁indicate	-10.7187
▁attract	-10.7187
▁relationship	-10.7187
▁forgive	-10.7188
▁APR	-10.719
▁Hong	-10.7195
▁demand	-10.7196
▁ninety	-10.7199
▁Republican	-10.7201
▁Rock	-10.7209
▁shh	-10.7211
▁gathered	-10.7224
▁inquir	-10.7237
back	-10.7243
▁appropriate	-10.7244
▁Jim	-10.725
Poss	-10.7259
sighs	-10.7277
▁medal	-10.7286
20	-10.7289
PLA	-10.7354
eph	-10.7371
▁Author	-10.7411
12	-10.7418
▁scream	-10.7435
▁sudden	-10.7452
▁occasion	-10.7471
▁Uncle	-10.7472
▁dialect	-10.7472
▁guilty	-10.7472
▁surface	-10.7472
▁1969	-10.7472
▁Canadian	-10.7472
▁RLF	-10.7472
▁dessert	-10.7472
▁clatter	-10.7472
▁bundle	-10.7472
▁Becky	-10.7472
▁jelly	-10.7472
▁ticket	-10.7472
▁constant	-10.7472
▁Death	-10.7472
▁loose	-10.7472
▁whistle	-10.7473
▁Berta	-10.7473
▁Shawn	-10.7474
▁bathroom	-10.7474
▁broad	-10.7477
▁Clare	-10.7485
▁bump	-10.7487
Let	-10.7491
▁glasses	-10.7491
▁slave	-10.7495
▁Another	-10.7497
▁Land	-10.7523
▁DON	-10.7535
11	-10.7607
▁useful	-10.761
lex	-10.7636
▁Move	-10.7674
CON	-10.7683
reading	-10.7693
▁dirt	-10.7744
▁final	-10.7747
Connor	-10.7766
UCK	-10.7766
ological	-10.7766
▁buffalo	-10.7766
▁century	-10.7766
▁destroy	-10.7766
▁envelope	-10.7766
▁journey	-10.7766
▁murmur	-10.7766
▁neighbor	-10.7766
▁2006	-10.7766
▁HAVE	-10.7766
▁Scott	-10.7766
▁banana	-10.7766
▁companion	-10.7766
▁gimme	-10.7766
▁horsie	-10.7766
▁Before	-10.7767
▁Office	-10.7767
▁Prize	-10.7767
▁buggy	-10.7767
▁earlier	-10.7767
▁grateful	-10.7767
▁worst	-10.7767
▁biggest	-10.7767
▁dumb	-10.7767
▁fortune	-10.7767
▁trail	-10.7767
▁distinct	-10.7767
▁worm	-10.7767
▁flash	-10.7767
▁crash	-10.7767
▁curious	-10.7769
▁elder	-10.7769
▁stamp	-10.7775
▁chase	-10.7775
▁Hold	-10.7776
▁pants	-10.7776
ARD	-10.7795
▁comin	-10.7825
▁50	-10.7835
ji	-10.787
▁cheerful	-10.7904
2.5	-10.797
eight	-10.8027
piece	-10.8028
This	-10.8029
▁author	-10.8041
under	-10.8065
▁perform	-10.8068
▁birth	-10.8069
▁separat	-10.807
▁Bertha	-10.807
▁Church	-10.807
▁Department	-10.807
▁Mexican	-10.807
▁Representative	-10.807
▁Treaty	-10.807
▁Uruguay	-10.807
▁advantage	-10.807
▁breast	-10.807
▁condition	-10.807
▁consumption	-10.807
▁downstairs	-10.807
▁episode	-10.807
▁families	-10.807
▁recognize	-10.807
▁strength	-10.807
▁2007	-10.807
▁focus	-10.807
▁purpose	-10.807
▁worried	-10.807
▁prevent	-10.807
▁Japanese	-10.807
▁cereal	-10.807
▁captain	-10.807
▁drunk	-10.807
▁jolly	-10.807
▁BUT	-10.807
▁reckon	-10.807
▁evil	-10.807
▁picnic	-10.807
▁habit	-10.807
▁Green	-10.807
▁Turn	-10.8072
▁rattle	-10.8072
▁package	-10.8074
▁dust	-10.8074
▁quack	-10.8074
▁bedroom	-10.8075
▁Doctor	-10.8076
▁cents	-10.8078
ANU	-10.8079
▁186	-10.8093
▁particularly	-10.8095
giggles	-10.8101
▁Although	-10.8113
▁sew	-10.8117
▁customer	-10.8118
▁Book	-10.8123
with	-10.8153
shook	-10.8157
train	-10.8161
▁rise	-10.8174
▁marker	-10.8198
anny	-10.8203
▁NOT	-10.8205
evel	-10.8222
2.2	-10.8261
3.5	-10.8275
▁prefer	-10.8333
▁serve	-10.8346
▁Russia	-10.8353
▁Council	-10.836
ification	-10.8373
▁collect	-10.8377
EVE	-10.8378
ó	-10.8382
▁Constitution	-10.8382
▁Deborah	-10.8382
▁International	-10.8382
▁Olympic	-10.8382
▁SCROOGE	-10.8382
▁Wednesday	-10.8382
▁bicycle	-10.8382
▁crutches	-10.8382
▁delicious	-10.8382
▁glorious	-10.8382
▁necessary	-10.8382
▁opposite	-10.8382
▁ourselves	-10.8382
▁shovel	-10.8382
▁specific	-10.8382
▁university	-10.8382
▁2002	-10.8382
▁Goblin	-10.8382
▁Hilda	-10.8382
▁Truman	-10.8382
▁bunny	-10.8382
▁inspector	-10.8382
▁cheap	-10.8382
▁Cousin	-10.8382
$=2	-10.8382
▁merged	-10.8382
▁Command	-10.8382
▁Dream	-10.8382
▁duty	-10.8382
▁manager	-10.8382
▁drip	-10.8382
▁Claus	-10.8383
▁1930	-10.8385
▁Monday	-10.8386
▁Wind	-10.8387
box	-10.8387
▁brand	-10.8388
BRU	-10.8388
▁broom	-10.8389
▁kite	-10.8389
▁Maria	-10.8391
▁chew	-10.8391
▁Mike	-10.8393
▁salt	-10.8395
▁dishes	-10.8396
▁TV	-10.8414
▁chest	-10.8421
▁Tip	-10.8433
▁Earl	-10.8491
stone	-10.8578
▁mile	-10.8585
▁seal	-10.8613
▁release	-10.8668
▁dive	-10.8675
continues	-10.869
soft	-10.8698
▁grampa	-10.8705
▁opportunity	-10.8705
▁platform	-10.8705
▁practical	-10.8705
▁1986	-10.8705
▁1987	-10.8705
▁2009	-10.8705
▁General	-10.8705
▁borrow	-10.8705
▁carriage	-10.8705
▁target	-10.8705
▁Francis	-10.8705
▁leaf	-10.8705
▁contact	-10.8705
▁glove	-10.8705
Moudon	-10.8705
▁Nyon	-10.8705
▁drama	-10.8705
▁source	-10.8705
▁shining	-10.8705
▁ugly	-10.8705
▁becoming	-10.8705
▁grandmother	-10.8705
▁Damn	-10.8705
▁style	-10.8706
▁attend	-10.8706
▁awake	-10.8707
▁woof	-10.8709
▁nursery	-10.871
▁Bones	-10.871
▁option	-10.871
▁production	-10.8711
▁Brother	-10.8713
▁fusses	-10.8721
▁MAN	-10.873
▁sold	-10.8738
▁exist	-10.874
▁cock	-10.874
▁tough	-10.8742
echo	-10.8747
aux	-10.875
ENT	-10.8757
▁replace	-10.8808
singsong	-10.8811
apped	-10.8908
American	-10.8996
Just	-10.8996
down	-10.8998
▁decide	-10.9001
water	-10.9028
▁distribut	-10.9038
▁Mexico	-10.9038
▁alphabet	-10.9038
▁favour	-10.9038
▁individual	-10.9038
▁laboratory	-10.9038
▁umbrella	-10.9038
▁2008	-10.9038
▁Freddy	-10.9038
▁emotion	-10.9038
▁Dutch	-10.9038
▁faith	-10.9038
▁Vagn	-10.9038
▁clever	-10.9038
▁Girl	-10.9038
▁Booth	-10.9038
▁presence	-10.9038
▁Three	-10.9038
▁require	-10.9038
▁defeat	-10.9039
▁eleven	-10.9039
▁Laugh	-10.9039
▁Victor	-10.9039
▁dull	-10.9039
▁failure	-10.9039
various	-10.9041
▁odd	-10.9042
▁garage	-10.9042
folk	-10.9042
▁percent	-10.9043
▁revolution	-10.9044
▁apparently	-10.9045
70	-10.9045
▁sleigh	-10.9045
▁airport	-10.9045
▁bold	-10.9049
▁Italy	-10.9049
▁Markus	-10.9049
arrow	-10.9049
▁vol	-10.9052
▁vast	-10.9053
▁lesson	-10.906
▁Whil	-10.9066
▁Lake	-10.9085
begins	-10.9087
CLE	-10.9106
EAR	-10.9207
two	-10.9269
EST	-10.9323
▁referr	-10.9339
▁gather	-10.9341
Thank	-10.9341
q	-10.9344
▁dash	-10.9345
▁raise	-10.9351
means	-10.9352
mother	-10.9353
▁Vice	-10.9354
▁favor	-10.9382
▁desperate	-10.9383
▁scholar	-10.9383
+	-10.9383
frigerator	-10.9383
▁Catholic	-10.9383
▁Charlie	-10.9383
▁Douglas	-10.9383
▁Elizabeth	-10.9383
▁Government	-10.9383
▁Sharston	-10.9383
▁Spanish	-10.9383
▁assistant	-10.9383
▁central	-10.9383
▁describe	-10.9383
▁impossible	-10.9383
▁negative	-10.9383
▁produced	-10.9383
▁puppy	-10.9383
▁restaurant	-10.9383
▁ridiculous	-10.9383
▁stomach	-10.9383
▁telephone	-10.9383
▁traffic	-10.9383
▁turkey	-10.9383
▁understood	-10.9383
▁vehicle	-10.9383
▁wastebasket	-10.9383
▁2003	-10.9383
▁Crimea	-10.9383
▁Louisiana	-10.9383
▁Picture	-10.9383
▁addition	-10.9383
▁disease	-10.9383
▁miserable	-10.9383
▁session	-10.9383
▁WITH	-10.9383
▁smiling	-10.9383
▁suburb	-10.9383
▁sprang	-10.9383
▁butterfly	-10.9383
▁colour	-10.9383
▁bodies	-10.9383
▁Ryan	-10.9383
▁Besides	-10.9383
▁drove	-10.9383
▁drum	-10.9383
▁dude	-10.9383
▁minor	-10.9383
▁winning	-10.9383
▁planned	-10.9384
▁gentlemen	-10.9384
ography	-10.9384
▁Jones	-10.9384
▁alarm	-10.9384
▁performance	-10.9384
▁novel	-10.9385
▁1970	-10.9386
▁aware	-10.9387
▁Honey	-10.9387
▁expression	-10.9388
▁oops	-10.9388
▁conductor	-10.9391
▁guard	-10.9392
▁Shut	-10.9392
▁Bush	-10.9394
▁cloud	-10.9395
▁task	-10.9398
▁Last	-10.9408
▁Cook	-10.9412
▁Nei	-10.9444
laid	-10.9471
▁mini	-10.9485
2.3	-10.9575
▁Chris	-10.9592
video	-10.9698
writing	-10.9698
Where	-10.9698
father	-10.9705
▁receiv	-10.9707
baby	-10.971
incorporated	-10.974
▁Congress	-10.974
▁Contreras	-10.974
▁companies	-10.974
▁declared	-10.974
▁employ	-10.974
▁mistress	-10.974
▁motorcycle	-10.974
▁Jenny	-10.974
▁Nobody	-10.974
▁property	-10.974
▁1968	-10.974
▁powder	-10.974
▁client	-10.974
▁knowledge	-10.974
▁poison	-10.974
▁daisy	-10.974
▁amazing	-10.974
▁enemy	-10.974
▁recently	-10.974
▁spark	-10.974
▁BOY	-10.974
▁fiction	-10.974
▁damage	-10.974
▁Next	-10.974
▁funeral	-10.974
▁error	-10.974
▁proceed	-10.974
▁version	-10.974
▁blast	-10.974
▁behave	-10.9741
▁Health	-10.9741
▁Andrew	-10.9741
▁grant	-10.9741
▁intonation	-10.9741
▁Hmm	-10.9742
▁countries	-10.9742
▁appearance	-10.9743
▁command	-10.9744
▁compete	-10.9744
▁brake	-10.9745
▁awarded	-10.9746
▁uhoh	-10.9749
▁Norma	-10.9751
▁ooh	-10.9752
▁root	-10.9753
▁theatre	-10.9754
▁risk	-10.9755
▁etc	-10.9756
▁peel	-10.9759
▁motion	-10.9761
▁Stay	-10.9761
▁gaze	-10.9765
umbled	-10.9965
OLD	-10.9974
blue	-11.0068
Jim	-11.008
strange	-11.0098
▁express	-11.0105
▁thou	-11.0109
▁temper	-11.011
▁appointed	-11.011
▁campaign	-11.011
▁celebrate	-11.011
▁didldow	-11.011
▁firetruck	-11.011
▁fracture	-11.011
▁interrupt	-11.011
▁possibly	-11.011
▁savage	-11.011
▁1960	-11.011
▁1992	-11.011
▁champion	-11.011
▁easier	-11.011
▁exercise	-11.011
▁experiment	-11.011
▁female	-11.011
▁kangaroo	-11.011
▁OUT	-11.011
▁horrid	-11.011
▁kitty	-11.011
▁windmill	-11.011
▁Joseph	-11.011
▁polite	-11.011
▁shawl	-11.011
▁Russo	-11.011
▁babies	-11.011
▁Japan	-11.011
▁DAY	-11.011
▁Everything	-11.011
▁accus	-11.011
▁severe	-11.011
▁sorrow	-11.0111
▁deaf	-11.0111
▁therefore	-11.0111
▁ashamed	-11.0111
▁photograph	-11.0111
▁Spring	-11.0111
▁Weener	-11.0111
▁Boston	-11.0111
▁colon	-11.0111
▁clown	-11.0112
▁hiding	-11.0113
▁utterance	-11.0113
▁comfortable	-11.0115
▁desert	-11.0115
▁trace	-11.0115
▁legend	-11.0116
▁dying	-11.0117
▁2000	-11.0117
▁sheep	-11.012
▁Nice	-11.012
OWN	-11.0121
▁farther	-11.0121
▁laughter	-11.0123
▁cities	-11.0124
▁assure	-11.0126
▁Long	-11.0127
▁dangerous	-11.0128
▁rope	-11.0133
▁candle	-11.0133
▁Josh	-11.0149
▁household	-11.0266
wealth	-11.0399
writes	-11.0406
▁arrest	-11.0448
critique	-11.0453
plastic	-11.0453
[	-11.0453
▁scare	-11.0458
continu	-11.0485
lude	-11.0487
OULD	-11.0495
Ukrainian	-11.0495
É	-11.0495
▁Aylmer	-11.0495
▁Captain	-11.0495
▁Fuzhou	-11.0495
▁JUST	-11.0495
▁Leavenworth	-11.0495
▁Oklahoma	-11.0495
▁Secretary	-11.0495
▁Special	-11.0495
▁activity	-11.0495
▁blossom	-11.0495
▁contract	-11.0495
▁economic	-11.0495
▁energy	-11.0495
▁establish	-11.0495
▁hamburger	-11.0495
▁passenger	-11.0495
▁scientist	-11.0495
▁2023	-11.0495
▁increase	-11.0495
▁observ	-11.0495
▁1985	-11.0495
▁seventeen	-11.0495
▁sixteen	-11.0495
▁volume	-11.0495
▁Deputy	-11.0495
▁defend	-11.0495
▁prince	-11.0495
▁refuse	-11.0495
▁properly	-11.0495
▁psych	-11.0495
▁otherwise	-11.0495
▁Chinese	-11.0495
▁clef	-11.0495
▁commit	-11.0495
▁wicked	-11.0495
TTLE	-11.0495
▁crush	-11.0495
▁Film	-11.0496
▁Remember	-11.0496
▁bomb	-11.0496
▁folks	-11.0496
▁Latin	-11.0497
▁compound	-11.0497
▁limb	-11.0498
▁desire	-11.0498
▁Common	-11.0498
▁Ireland	-11.0498
▁Pink	-11.0499
▁Christian	-11.05
▁development	-11.0501
▁collection	-11.0501
commun	-11.0502
▁flew	-11.0503
▁OFF	-11.0506
▁Cool	-11.0507
▁gray	-11.0508
▁fireplace	-11.0508
▁leap	-11.0513
LIS	-11.0565
remove	-11.0567
successfully	-11.0607
Cause	-11.0618
touches	-11.0685
talks	-11.0785
when	-11.0853
walk	-11.0854
bird	-11.0854
still	-11.0863
▁conduct	-11.0885
▁photo	-11.0894
▁According	-11.0895
▁Georgia	-11.0895
▁LOOK	-11.0895
▁Melissa	-11.0895
▁THANK	-11.0895
▁Taiwan	-11.0895
▁anniversary	-11.0895
▁basically	-11.0895
▁conference	-11.0895
▁disagree	-11.0895
▁impatient	-11.0895
▁international	-11.0895
▁neighbour	-11.0895
▁organization	-11.0895
▁pizza	-11.0895
▁practise	-11.0895
▁producer	-11.0895
▁telegram	-11.0895
▁unknown	-11.0895
▁Tokyo	-11.0895
▁afford	-11.0895
▁sneeze	-11.0895
▁squeeze	-11.0895
▁1972	-11.0895
▁opinion	-11.0895
▁science	-11.0895
▁Police	-11.0895
▁intended	-11.0895
▁request	-11.0895
▁Kingdom	-11.0895
▁Bozo	-11.0895
▁Minley	-11.0895
▁suspect	-11.0895
▁Dude	-11.0895
▁Square	-11.0895
▁Kelly	-11.0895
▁pride	-11.0895
▁Fitz	-11.0895
trochee	-11.0895
▁cotton	-11.0895
▁model	-11.0895
▁appeal	-11.0895
▁Still	-11.0896
▁charm	-11.0896
▁split	-11.0896
▁Royal	-11.0896
▁ruin	-11.0896
▁sample	-11.0896
▁guide	-11.0898
▁bench	-11.0898
▁Everyone	-11.0899
▁Southern	-11.09
▁staff	-11.09
▁Series	-11.0901
▁daily	-11.0901
mcee	-11.0901
▁plum	-11.0902
DIA	-11.0908
▁woke	-11.091
stein	-11.094
TION	-11.1034
3.4	-11.11
▁critic	-11.1227
▁custom	-11.1245
▁discover	-11.1265
horseshoe	-11.1269
EXP	-11.1269
from	-11.127
silence	-11.1271
▁zoo	-11.1283
simultaneous	-11.1312
▁APHRODUCKY	-11.1312
▁Malenda	-11.1312
▁Pacific	-11.1312
▁STORY	-11.1312
▁altogether	-11.1312
▁boyfriend	-11.1312
▁channel	-11.1312
▁diamond	-11.1312
▁enormous	-11.1312
▁neighborhood	-11.1312
▁nervous	-11.1312
▁principle	-11.1312
▁research	-11.1312
▁resources	-11.1312
▁studies	-11.1312
▁swingswing	-11.1312
▁1981	-11.1312
▁1993	-11.1312
▁achieve	-11.1312
▁easily	-11.1312
▁insurance	-11.1312
▁rapidly	-11.1312
▁relief	-11.1312
▁sponge	-11.1312
▁Daniel	-11.1312
▁Edition	-11.1312
▁Bobby	-11.1312
▁Wonder	-11.1312
▁stroke	-11.1312
▁Children	-11.1312
▁pattern	-11.1312
OCK	-11.1312
▁José	-11.1312
▁twist	-11.1312
▁permit	-11.1312
▁parrot	-11.1312
▁depend	-11.1312
▁Betty	-11.1312
▁Susan	-11.1312
▁midnight	-11.1313
▁Hawk	-11.1313
▁occasionally	-11.1314
▁Corey	-11.1315
▁northern	-11.1316
▁foolish	-11.1316
▁Club	-11.1318
▁float	-11.1318
▁spare	-11.1321
mumbles	-11.1321
agger	-11.1321
▁Hunt	-11.1332
ologist	-11.134
▁tumble	-11.1504
struction	-11.1517
maid	-11.156
which	-11.1705
foot	-11.1705
talking	-11.1708
▁Academy	-11.1746
▁Arroniz	-11.1746
▁Britain	-11.1746
▁Buckingham	-11.1746
▁Frosty	-11.1746
▁Humphrey	-11.1746
▁Mississippi	-11.1746
▁Probably	-11.1746
▁Stephen	-11.1746
▁Thursday	-11.1746
▁apologize	-11.1746
▁candidate	-11.1746
▁citizen	-11.1746
▁crocodile	-11.1746
▁ejaculated	-11.1746
▁expensive	-11.1746
▁girlfriend	-11.1746
▁responsibility	-11.1746
▁uniform	-11.1746
▁whipped	-11.1746
▁1996	-11.1746
▁College	-11.1746
▁drift	-11.1746
▁horizon	-11.1746
▁1988	-11.1746
▁Furber	-11.1746
▁comrade	-11.1746
▁electric	-11.1746
▁invasion	-11.1746
▁native	-11.1746
▁Family	-11.1746
▁Valley	-11.1746
▁Group	-11.1746
▁mechanic	-11.1746
▁divide	-11.1746
▁federal	-11.1746
▁parlor	-11.1746
▁razor	-11.1746
▁KNOW	-11.1746
▁SHE	-11.1746
▁shock	-11.1747
structur	-11.1747
▁instance	-11.1747
▁estate	-11.1747
▁avoid	-11.1747
▁blind	-11.1747
▁clay	-11.1747
▁tennis	-11.1747
▁parade	-11.1748
▁Jimmy	-11.1748
▁Greg	-11.1749
▁Aunt	-11.1749
▁Harris	-11.1749
▁skiff	-11.175
▁Mouse	-11.1751
▁programme	-11.1754
illon	-11.1754
▁Tree	-11.177
▁propose	-11.1797
▁multi	-11.18
▁media	-11.1817
Indeed	-11.183
▁semi	-11.184
WELL	-11.1857
▁arrive	-11.2149
construction	-11.216
▁retire	-11.2164
▁actual	-11.2181
******	-11.2201
▁recommend	-11.2201
▁Everybody	-11.2201
▁Hydraulic	-11.2201
▁Mahdrusa	-11.2201
▁Matthew	-11.2201
▁Mountain	-11.2201
▁Simpson	-11.2201
▁Whittaker	-11.2201
▁activist	-11.2201
▁executed	-11.2201
▁horrible	-11.2201
▁horror	-11.2201
▁incident	-11.2201
▁jacket	-11.2201
▁journalist	-11.2201
▁ntuu	-11.2201
▁ordinary	-11.2201
▁pumpkin	-11.2201
▁servant	-11.2201
▁society	-11.2201
▁studied	-11.2201
▁symbol	-11.2201
▁thirteen	-11.2201
▁1979	-11.2201
▁lobster	-11.2201
▁slept	-11.2201
▁1950	-11.2201
▁launch	-11.2201
▁scrub	-11.2201
▁tempt	-11.2201
▁Shadow	-11.2201
▁bastard	-11.2201
▁Kevin	-11.2201
▁freedom	-11.2201
▁Alfred	-11.2201
▁widow	-11.2201
▁loaf	-11.2201
▁illustrations	-11.2201
▁jewel	-11.2201
▁changing	-11.2201
▁memory	-11.2201
▁contain	-11.2201
▁loving	-11.2201
▁modern	-11.2201
▁Maple	-11.2201
▁Teddy	-11.2201
▁relation	-11.2201
▁Katie	-11.2201
▁lodge	-11.2202
▁racing	-11.2203
▁swear	-11.2203
▁clam	-11.2204
▁route	-11.2204
▁Julia	-11.2205
▁dining	-11.2205
▁HIS	-11.2205
▁dangl	-11.2206
▁seiz	-11.2228
hawk	-11.232
LOU	-11.2397
drops	-11.2451
2.4	-11.2453
clunk	-11.2635
Little	-11.2635
Hello	-11.2635
blocks	-11.2636
▁announce	-11.264
ademoiselle	-11.2677
▁Committee	-11.2677
▁Economic	-11.2677
▁Exactly	-11.2677
▁Fielding	-11.2677
▁Jeremy	-11.2677
▁Massachusetts	-11.2677
▁Professor	-11.2677
▁breeze	-11.2677
▁climate	-11.2677
▁cottage	-11.2677
▁disturb	-11.2677
▁extremely	-11.2677
▁instrument	-11.2677
▁interview	-11.2677
▁investigation	-11.2677
▁marvelous	-11.2677
▁seldom	-11.2677
▁tobacco	-11.2677
▁2004	-11.2677
▁Chicago	-11.2677
▁Northeast	-11.2677
▁delicate	-11.2677
▁league	-11.2677
▁pepper	-11.2677
▁walnut	-11.2677
▁chosen	-11.2677
▁communist	-11.2677
▁multiple	-11.2677
▁sleeve	-11.2677
▁Gordon	-11.2677
▁Night	-11.2677
▁historical	-11.2677
▁Science	-11.2677
▁Welcome	-11.2677
▁punish	-11.2677
demonstrat	-11.2677
▁intense	-11.2677
▁Golden	-11.2677
▁device	-11.2677
▁bubble	-11.2677
▁deserve	-11.2677
▁spoil	-11.2677
▁measure	-11.2677
▁eighteen	-11.2677
▁jail	-11.2677
▁operation	-11.2677
▁bunch	-11.2677
▁collar	-11.2677
▁ladder	-11.2677
▁recover	-11.2677
▁buried	-11.2677
▁compass	-11.2677
▁adult	-11.2678
▁basketball	-11.2678
▁chih	-11.2678
▁lord	-11.2678
▁Horne	-11.2679
▁transfer	-11.2679
▁rude	-11.2682
criticism	-11.2745
uthwestern	-11.2875
wept	-11.3083
&	-11.3135
lift	-11.314
▁eager	-11.3157
▁nothin	-11.3173
­	-11.3177
JOHN	-11.3177
buzzing	-11.3177
occupied	-11.3177
▁Edgewater	-11.3177
▁HOME	-11.3177
▁Hospital	-11.3177
▁Nebraska	-11.3177
▁Parliament	-11.3177
▁RIGHT	-11.3177
▁Reservoir	-11.3177
▁Walrus	-11.3177
▁according	-11.3177
▁activities	-11.3177
▁balcony	-11.3177
▁behavior	-11.3177
▁bulldozer	-11.3177
▁jealous	-11.3177
▁muttered	-11.3177
▁paddock	-11.3177
▁phrase	-11.3177
▁progress	-11.3177
▁pudding	-11.3177
▁relative	-11.3177
▁religious	-11.3177
▁serving	-11.3177
▁suppli	-11.3177
▁thirsty	-11.3177
▁1991	-11.3177
▁1997	-11.3177
▁GOOD	-11.3177
▁Wallis	-11.3177
▁challeng	-11.3177
▁contemp	-11.3177
▁estimate	-11.3177
▁tradition	-11.3177
▁victory	-11.3177
▁1933	-11.3177
▁1959	-11.3177
▁1955	-11.3177
▁NEW	-11.3177
▁curtain	-11.3177
▁parcel	-11.3177
▁primar	-11.3177
▁Darling	-11.3177
▁Goumo	-11.3177
▁splash	-11.3177
▁Hurry	-11.3177
▁Ocean	-11.3177
▁***	-11.3177
▁steak	-11.3177
▁raising	-11.3177
▁thrill	-11.3177
▁zone	-11.3177
▁pantry	-11.3177
▁Earth	-11.3177
▁polish	-11.3177
▁Yoshi	-11.3177
▁flesh	-11.3177
▁Kyle	-11.3178
▁temperature	-11.3178
▁Play	-11.3178
▁prune	-11.3178
▁grade	-11.3178
▁image	-11.3178
▁shiver	-11.3178
▁rescue	-11.3178
▁wrappe	-11.3179
▁Wild	-11.3183
▁slice	-11.3196
▁charit	-11.3206
▁criticize	-11.3211
▁Free	-11.3261
ISH	-11.3598
▁Tea	-11.3702
ü	-11.3703
ć	-11.3703
▁ABOUT	-11.3703
▁Anhui	-11.3703
▁Christopher	-11.3703
▁Football	-11.3703
▁Harvard	-11.3703
▁Internet	-11.3703
▁Oblast	-11.3703
▁Portugal	-11.3703
▁Service	-11.3703
▁Zebedee	-11.3703
▁approve	-11.3703
▁beneath	-11.3703
▁caterpillar	-11.3703
▁confirm	-11.3703
▁consignment	-11.3703
▁furniture	-11.3703
▁giraffe	-11.3703
▁graduat	-11.3703
▁guarantee	-11.3703
▁incredible	-11.3703
▁literature	-11.3703
▁microphone	-11.3703
▁necessarily	-11.3703
▁obliged	-11.3703
▁parallel	-11.3703
▁peculiar	-11.3703
▁physical	-11.3703
▁pregnant	-11.3703
▁puppies	-11.3703
▁rustling	-11.3703
▁sarcoma	-11.3703
▁skull	-11.3703
▁unhappy	-11.3703
▁unusual	-11.3703
scribbl	-11.3703
▁2001	-11.3703
▁celery	-11.3703
▁elbow	-11.3703
▁romantic	-11.3703
▁1941	-11.3703
▁1980	-11.3703
▁Communi	-11.3703
▁Kapoor	-11.3703
▁injuries	-11.3703
▁smoking	-11.3703
▁1982	-11.3703
▁Guitar	-11.3703
▁LIKE	-11.3703
▁Second	-11.3703
▁Pepper	-11.3703
▁UDP	-11.3703
▁WHO	-11.3703
▁wharf	-11.3703
▁shadow	-11.3703
▁gloom	-11.3703
▁engage	-11.3703
dolph	-11.3704
▁grub	-11.3704
▁orchard	-11.3704
▁witness	-11.3704
▁studio	-11.3704
▁squeal	-11.3704
▁Phillip	-11.3704
▁constable	-11.3704
▁lazy	-11.3704
▁recall	-11.3704
▁dinghy	-11.3704
▁Cross	-11.3704
▁generous	-11.3704
▁yyy	-11.3704
▁giant	-11.3704
▁Lauren	-11.3704
▁purse	-11.3705
▁Child	-11.3705
▁Thatcher	-11.3705
▁oven	-11.3705
▁insult	-11.3705
▁WAS	-11.3705
▁Close	-11.371
▁sink	-11.3712
presso	-11.3715
▁chill	-11.3722
▁Silv	-11.3757
▁plac	-11.376
DOOR	-11.3823
▁cancel	-11.389
▁origin	-11.4106
member	-11.421
correct	-11.4217
pretend	-11.4217
office	-11.4218
Lausanne	-11.4259
¶	-11.4259
▁Abigail	-11.4259
▁Administration	-11.4259
▁Institute	-11.4259
▁Lucious	-11.4259
▁Portuguese	-11.4259
▁Security	-11.4259
▁Taylor	-11.4259
▁anxiety	-11.4259
▁definitely	-11.4259
▁dungaree	-11.4259
▁embarrass	-11.4259
▁encourage	-11.4259
▁handkerchief	-11.4259
▁industry	-11.4259
▁religion	-11.4259
▁scheme	-11.4259
▁unfortunate	-11.4259
▁Tonsil	-11.4259
▁railway	-11.4259
▁1939	-11.4259
▁1940	-11.4259
▁1974	-11.4259
▁1989	-11.4259
▁marriage	-11.4259
▁sissy	-11.4259
▁1925	-11.4259
▁Mummy	-11.4259
▁broadcast	-11.4259
▁humble	-11.4259
▁fifth	-11.4259
▁leetle	-11.4259
▁pistol	-11.4259
▁improve	-11.4259
▁Region	-11.4259
▁awesome	-11.4259
▁document	-11.4259
▁sniff	-11.4259
▁zero	-11.4259
▁brick	-11.4259
▁drank	-11.4259
▁frank	-11.4259
▁disaster	-11.4259
▁bloom	-11.4259
▁extend	-11.4259
▁piano	-11.4259
▁Leave	-11.4259
▁ocean	-11.4259
▁Berlin	-11.4259
▁agenda	-11.4259
▁Lyon	-11.4259
▁expert	-11.4259
Gabbar	-11.4259
▁carrier	-11.4259
▁whirl	-11.426
▁Alice	-11.426
▁coast	-11.4261
ADE	-11.4262
▁kilo	-11.4263
▁steel	-11.4263
▁Euro	-11.4267
▁Elect	-11.4289
▁spear	-11.432
whispers	-11.4406
magn	-11.4421
Word	-11.4505
TIME	-11.4689
WHI	-11.4692
whispering	-11.4751
ficial	-11.4751
▁publish	-11.4801
building	-11.4805
Bill	-11.4821
▁Democrat	-11.4842
▁illustrat	-11.4847
OUND	-11.4847
č	-11.4847
▁Alexand	-11.4847
▁Apple	-11.4847
▁Association	-11.4847
▁Castelsarrasin	-11.4847
▁Catherine	-11.4847
▁Congratulations	-11.4847
▁Haversham	-11.4847
▁Lawrence	-11.4847
▁Montreal	-11.4847
▁Nintendo	-11.4847
▁Oregon	-11.4847
▁Pennsylvania	-11.4847
▁Ubisoft	-11.4847
▁Wilks	-11.4847
▁YEAH	-11.4847
▁cluster	-11.4847
▁column	-11.4847
▁competitor	-11.4847
▁complicated	-11.4847
▁concentrate	-11.4847
▁despair	-11.4847
▁distinguish	-11.4847
▁elliot	-11.4847
▁immigrant	-11.4847
▁instinct	-11.4847
▁pyramid	-11.4847
▁quarrel	-11.4847
▁resident	-11.4847
▁triumph	-11.4847
▁vanished	-11.4847
▁volunteer	-11.4847
▁chemical	-11.4847
▁furnace	-11.4847
▁feeble	-11.4847
▁mysterious	-11.4847
▁1962	-11.4847
▁1966	-11.4847
▁1975	-11.4847
▁Chamber	-11.4847
▁Urler	-11.4847
▁cherries	-11.4847
▁solemn	-11.4847
▁Animal	-11.4847
▁arrival	-11.4847
▁relax	-11.4847
▁cocoa	-11.4847
▁duties	-11.4847
▁pennies	-11.4847
▁disgust	-11.4847
▁Greek	-11.4847
▁Sheriff	-11.4847
▁HIM	-11.4847
▁Scout	-11.4847
▁Jeff	-11.4847
▁Andrade	-11.4847
▁Gowen	-11.4847
▁repair	-11.4847
▁steady	-11.4847
▁Tomás	-11.4847
▁bushes	-11.4847
▁Personal	-11.4848
▁Diane	-11.4848
▁jerk	-11.4848
▁housing	-11.4848
▁Social	-11.4848
▁destin	-11.4848
▁silk	-11.4848
▁industri	-11.4848
▁assume	-11.4857
▁consume	-11.4866
▁SEE	-11.4883
▁1967	-11.5028
Rhin	-11.5277
pushe	-11.5312
designat	-11.5418
OTHER	-11.5427
committee	-11.543
picture	-11.543
(	-11.543
aseball	-11.5471
▁Absolutely	-11.5472
▁Apparently	-11.5472
▁Between	-11.5472
▁Brutus	-11.5472
▁Kazakh	-11.5472
▁Lieutenant	-11.5472
▁MAKE	-11.5472
ä	-11.6139
ö	-11.7622
°	-11.7622
à	-11.8456
ú	-11.8456
ñ	-11.9365
ç	-11.9365
$	-12.0323
@	-12.0365
š	-12.0365
`	-12.0365
¡	-12.0365
â	-12.0365
æ	-12.2726
ô	-12.2726
|	-12.4112
Î	-12.4154
ß	-12.5821
ś	-12.5821
}	-12.7821
ū	-13.0321
‚	-13.0321
À	-13.0321
ł	-13.0321
“	-13.3613
ʊ	-13.3654
å	-13.3654
ė	-13.3654
ě	-13.3654
′	-13.3654
œ	-13.8654
Ö	-13.8654
ŭ	-13.8654
ɐ	-13.8654
ˈ	-13.8654
Ò	-13.8654
×	-13.8654
î	-13.8654
ï	-13.8654
∂	-13.8654
ù	-13.8654
¤	-13.8655
Í	-13.8655
#	-14.8616
ž	-14.8642
^	-14.8643
Š	-14.8644
ø	-14.8645
Á	-14.8646
~	-14.8647
ğ	-14.8648
ë	-14.8649
ê	-14.865
\	-14.8651
{	-14.8652
ã	-14.8653
♪	-14.8654
Û	-14.8654
ą	-14.8654
„	-14.8654
ā	-14.8654
₤	-14.8654
ò	-14.8654
÷	-14.8654
ý	-14.8654
Č	-14.8654
đ	-14.8654
ı	-14.8654
ň	-14.8654
ō	-14.8654
ř	-14.8654
ş	-14.8654
ș	-14.8654
ɫ	-14.8654
ʋ	-14.8654
†	-14.8654
€	-14.8654
Ú	-14.8655
£	-14.8655
Ś	-14.8655
‘	-14.8655
