[PAD]	0
[CLS]	0
[SEP]	0
[UNK]	0
[MASK]	0
<0x00>	0
<0x01>	0
<0x02>	0
<0x03>	0
<0x04>	0
<0x05>	0
<0x06>	0
<0x07>	0
<0x08>	0
<0x09>	0
<0x0A>	0
<0x0B>	0
<0x0C>	0
<0x0D>	0
<0x0E>	0
<0x0F>	0
<0x10>	0
<0x11>	0
<0x12>	0
<0x13>	0
<0x14>	0
<0x15>	0
<0x16>	0
<0x17>	0
<0x18>	0
<0x19>	0
<0x1A>	0
<0x1B>	0
<0x1C>	0
<0x1D>	0
<0x1E>	0
<0x1F>	0
<0x20>	0
<0x21>	0
<0x22>	0
<0x23>	0
<0x24>	0
<0x25>	0
<0x26>	0
<0x27>	0
<0x28>	0
<0x29>	0
<0x2A>	0
<0x2B>	0
<0x2C>	0
<0x2D>	0
<0x2E>	0
<0x2F>	0
<0x30>	0
<0x31>	0
<0x32>	0
<0x33>	0
<0x34>	0
<0x35>	0
<0x36>	0
<0x37>	0
<0x38>	0
<0x39>	0
<0x3A>	0
<0x3B>	0
<0x3C>	0
<0x3D>	0
<0x3E>	0
<0x3F>	0
<0x40>	0
<0x41>	0
<0x42>	0
<0x43>	0
<0x44>	0
<0x45>	0
<0x46>	0
<0x47>	0
<0x48>	0
<0x49>	0
<0x4A>	0
<0x4B>	0
<0x4C>	0
<0x4D>	0
<0x4E>	0
<0x4F>	0
<0x50>	0
<0x51>	0
<0x52>	0
<0x53>	0
<0x54>	0
<0x55>	0
<0x56>	0
<0x57>	0
<0x58>	0
<0x59>	0
<0x5A>	0
<0x5B>	0
<0x5C>	0
<0x5D>	0
<0x5E>	0
<0x5F>	0
<0x60>	0
<0x61>	0
<0x62>	0
<0x63>	0
<0x64>	0
<0x65>	0
<0x66>	0
<0x67>	0
<0x68>	0
<0x69>	0
<0x6A>	0
<0x6B>	0
<0x6C>	0
<0x6D>	0
<0x6E>	0
<0x6F>	0
<0x70>	0
<0x71>	0
<0x72>	0
<0x73>	0
<0x74>	0
<0x75>	0
<0x76>	0
<0x77>	0
<0x78>	0
<0x79>	0
<0x7A>	0
<0x7B>	0
<0x7C>	0
<0x7D>	0
<0x7E>	0
<0x7F>	0
<0x80>	0
<0x81>	0
<0x82>	0
<0x83>	0
<0x84>	0
<0x85>	0
<0x86>	0
<0x87>	0
<0x88>	0
<0x89>	0
<0x8A>	0
<0x8B>	0
<0x8C>	0
<0x8D>	0
<0x8E>	0
<0x8F>	0
<0x90>	0
<0x91>	0
<0x92>	0
<0x93>	0
<0x94>	0
<0x95>	0
<0x96>	0
<0x97>	0
<0x98>	0
<0x99>	0
<0x9A>	0
<0x9B>	0
<0x9C>	0
<0x9D>	0
<0x9E>	0
<0x9F>	0
<0xA0>	0
<0xA1>	0
<0xA2>	0
<0xA3>	0
<0xA4>	0
<0xA5>	0
<0xA6>	0
<0xA7>	0
<0xA8>	0
<0xA9>	0
<0xAA>	0
<0xAB>	0
<0xAC>	0
<0xAD>	0
<0xAE>	0
<0xAF>	0
<0xB0>	0
<0xB1>	0
<0xB2>	0
<0xB3>	0
<0xB4>	0
<0xB5>	0
<0xB6>	0
<0xB7>	0
<0xB8>	0
<0xB9>	0
<0xBA>	0
<0xBB>	0
<0xBC>	0
<0xBD>	0
<0xBE>	0
<0xBF>	0
<0xC0>	0
<0xC1>	0
<0xC2>	0
<0xC3>	0
<0xC4>	0
<0xC5>	0
<0xC6>	0
<0xC7>	0
<0xC8>	0
<0xC9>	0
<0xCA>	0
<0xCB>	0
<0xCC>	0
<0xCD>	0
<0xCE>	0
<0xCF>	0
<0xD0>	0
<0xD1>	0
<0xD2>	0
<0xD3>	0
<0xD4>	0
<0xD5>	0
<0xD6>	0
<0xD7>	0
<0xD8>	0
<0xD9>	0
<0xDA>	0
<0xDB>	0
<0xDC>	0
<0xDD>	0
<0xDE>	0
<0xDF>	0
<0xE0>	0
<0xE1>	0
<0xE2>	0
<0xE3>	0
<0xE4>	0
<0xE5>	0
<0xE6>	0
<0xE7>	0
<0xE8>	0
<0xE9>	0
<0xEA>	0
<0xEB>	0
<0xEC>	0
<0xED>	0
<0xEE>	0
<0xEF>	0
<0xF0>	0
<0xF1>	0
<0xF2>	0
<0xF3>	0
<0xF4>	0
<0xF5>	0
<0xF6>	0
<0xF7>	0
<0xF8>	0
<0xF9>	0
<0xFA>	0
<0xFB>	0
<0xFC>	0
<0xFD>	0
<0xFE>	0
<0xFF>	0
▁t	-0
he	-1
▁a	-2
in	-3
▁w	-4
▁s	-5
▁the	-6
ou	-7
▁*	-8
re	-9
▁o	-10
ha	-11
▁b	-12
er	-13
it	-14
nd	-15
▁d	-16
▁m	-17
▁c	-18
▁y	-19
is	-20
▁f	-21
ing	-22
on	-23
▁I	-24
CH	-25
CHI	-26
ll	-27
▁to	-28
▁you	-29
an	-30
▁p	-31
or	-32
es	-33
▁g	-34
hat	-35
ed	-36
en	-37
▁l	-38
▁and	-39
as	-40
▁n	-41
▁of	-42
om	-43
ar	-44
▁in	-45
OT	-46
at	-47
MOT	-48
▁he	-49
ow	-50
▁h	-51
▁it	-52
ot	-53
le	-54
▁ha	-55
et	-56
ic	-57
ve	-58
▁on	-59
ay	-60
▁that	-61
▁T	-62
▁[	-63
▁th	-64
us	-65
gh	-66
id	-67
▁=	-68
ut	-69
▁A	-70
ld	-71
▁be	-72
ver	-73
▁is	-74
▁S	-75
▁was	-76
▁e	-77
ac	-78
al	-79
oo	-80
ke	-81
▁we	-82
▁M	-83
im	-84
ad	-85
ir	-86
..	-87
▁st	-88
▁r	-89
▁do	-90
▁u	-91
▁W	-92
ly	-93
▁for	-94
ght	-95
▁se	-96
▁H	-97
am	-98
▁C	-99
▁re	-100
her	-101
▁B	-102
▁k	-103
se	-104
out	-105
ion	-106
▁an	-107
ent	-108
ith	-109
▁-	-110
▁what	-111
st	-112
▁"	-113
▁me	-114
ome	-115
il	-116
▁with	-117
ight	-118
▁wh	-119
all	-120
▁The	-121
ur	-122
▁not	-123
▁Y	-124
ould	-125
ch	-126
▁as	-127
▁go	-128
▁li	-129
▁have	-130
ce	-131
ter	-132
ro	-133
▁D	-134
ill	-135
▁kn	-136
ell	-137
▁P	-138
▁at	-139
▁no	-140
▁they	-141
ea	-142
un	-143
▁O	-144
ct	-145
xx	-146
▁N	-147
ust	-148
ant	-149
▁G	-150
▁his	-151
▁j	-152
▁whe	-153
▁fr	-154
▁up	-155
▁this	-156
if	-157
ack	-158
AT	-159
▁so	-160
ie	-161
▁her	-162
▁de	-163
and	-164
▁know	-165
▁one	-166
...	-167
▁don	-168
pp	-169
▁ne	-170
▁are	-171
▁can	-172
▁F	-173
▁your	-174
ag	-175
FAT	-176
▁sa	-177
▁1	-178
▁there	-179
ul	-180
▁had	-181
▁L	-182
▁all	-183
▁she	-184
▁J	-185
ore	-186
op	-187
▁my	-188
ook	-189
ck	-190
ain	-191
▁like	-192
▁but	-193
▁tr	-194
art	-195
▁He	-196
ap	-197
ood	-198
▁E	-199
ake	-200
▁him	-201
▁2	-202
▁bo	-203
▁al	-204
▁out	-205
▁get	-206
▁from	-207
▁It	-208
our	-209
um	-210
▁'	-211
itt	-212
very	-213
▁sh	-214
▁R	-215
▁ab	-216
ick	-217
ol	-218
ink	-219
▁sec	-220
▁did	-221
ig	-222
hing	-223
ab	-224
▁see	-225
▁some	-226
▁pl	-227
el	-228
▁them	-229
▁said	-230
▁or	-231
est	-232
▁You	-233
hi	-234
han	-235
▁were	-236
▁su	-237
ound	-238
qu	-239
ong	-240
ame	-241
ind	-242
ist	-243
ess	-244
red	-245
eah	-246
▁would	-247
▁man	-248
▁want	-249
ep	-250
▁just	-251
os	-252
▁about	-253
▁sp	-254
own	-255
ry	-256
ri	-257
▁here	-258
ak	-259
ase	-260
ast	-261
▁wor	-262
au	-263
▁by	-264
▁com	-265
ation	-266
ers	-267
nt	-268
▁us	-269
other	-270
one	-271
▁who	-272
ard	-273
na	-274
res	-275
▁bl	-276
xxx	-277
▁xxx	-278
em	-279
▁put	-280
ice	-281
ally	-282
▁think	-283
IN	-284
▁if	-285
ittle	-286
ber	-287
ive	-288
▁any	-289
▁U	-290
▁when	-291
▁“	-292
fe	-293
▁look	-294
▁got	-295
▁boy	-296
▁say	-297
▁right	-298
ate	-299
ime	-300
▁little	-301
▁20	-302
ite	-303
ge	-304
▁v	-305
ther	-306
].	-307
ough	-308
▁K	-309
▁oh	-310
ra	-311
▁tw	-312
▁now	-313
▁con	-314
ide	-315
▁back	-316
ort	-317
ine	-318
▁off	-319
▁how	-320
▁could	-321
▁(	-322
▁where	-323
▁over	-324
▁good	-325
ich	-326
way	-327
ies	-328
▁cl	-329
▁sil	-330
▁very	-331
▁mo	-332
▁And	-333
kay	-334
ity	-335
▁19	-336
▁down	-337
▁ex	-338
▁int	-339
▁What	-340
▁then	-341
use	-342
UR	-343
ous	-344
▁too	-345
ven	-346
▁will	-347
▁going	-348
▁br	-349
▁more	-350
▁fe	-351
▁other	-352
INV	-353
▁lo	-354
▁qu	-355
dy	-356
▁time	-357
▁co	-358
ace	-359
▁let	-360
lf	-361
▁ag	-362
▁pe	-363
ca	-364
,"	-365
▁No	-366
URS	-367
."	-368
▁wr	-369
▁ar	-370
▁their	-371
▁been	-372
int	-373
alk	-374
reat	-375
▁thing	-376
RO	-377
▁come	-378
th	-379
▁two	-380
▁gr	-381
▁pro	-382
▁le	-383
▁Mom	-384
▁yeah	-385
are	-386
▁which	-387
▁af	-388
ip	-389
my	-390
orn	-391
urn	-392
omet	-393
▁dis	-394
ose	-395
ree	-396
uck	-397
▁has	-398
ft	-399
▁V	-400
ian	-401
ish	-402
▁than	-403
▁yes	-404
▁well	-405
onna	-406
ock	-407
ople	-408
▁She	-409
cause	-410
▁gonna	-411
▁make	-412
nder	-413
ue	-414
ure	-415
ear	-416
▁okay	-417
▁St	-418
▁take	-419
▁%	-420
▁We	-421
▁somet	-422
▁into	-423
▁silver	-424
▁play	-425
hed	-426
BRO	-427
ought	-428
ect	-429
▁wat	-430
▁people	-431
augh	-432
▁But	-433
▁way	-434
▁Oh	-435
ather	-436
ence	-437
ass	-438
▁They	-439
pl	-440
▁base	-441
age	-442
--	-443
ho	-444
OL	-445
▁does	-446
▁tell	-447
ool	-448
ull	-449
ves	-450
ment	-451
ade	-452
pt	-453
▁mean	-454
▁201	-455
▁work	-456
▁Th	-457
▁mu	-458
ble	-459
▁fl	-460
ving	-461
▁In	-462
ord	-463
ved	-464
ren	-465
▁why	-466
ran	-467
▁That	-468
▁day	-469
mer	-470
▁again	-471
ile	-472
▁after	-473
▁Yeah	-474
▁need	-475
▁ro	-476
▁pr	-477
▁un	-478
irst	-479
self	-480
able	-481
▁en	-482
▁part	-483
COL	-484
▁am	-485
ire	-486
▁black	-487
ud	-488
▁talk	-489
▁Mommy	-490
▁dat	-491
bl	-492
thing	-493
uy	-494
ary	-495
▁every	-496
mo	-497
▁much	-498
ty	-499
ount	-500
we	-501
ied	-502
ps	-503
wn	-504
▁something	-505
be	-506
▁wan	-507
ellow	-508
▁hand	-509
iss	-510
▁never	-511
act	-512
▁ke	-513
aughs	-514
▁Well	-515
ng	-516
▁bet	-517
▁first	-518
▁thr	-519
▁ask	-520
ouse	-521
ia	-522
ady	-523
▁stick	-524
▁Mr	-525
▁long	-526
bo	-527
▁po	-528
▁cha	-529
ress	-530
▁cr	-531
▁chi	-532
▁happ	-533
IS	-534
▁because	-535
▁Ad	-536
fore	-537
irl	-538
▁only	-539
ff	-540
▁call	-541
▁te	-542
▁sc	-543
▁Chi	-544
ach	-545
laughs	-546
▁turn	-547
▁should	-548
ne	-549
▁under	-550
?"	-551
ild	-552
ting	-553
ret	-554
▁made	-555
get	-556
▁these	-557
▁So	-558
▁didn	-559
▁big	-560
ated	-561
so	-562
▁fo	-563
ru	-564
ark	-565
per	-566
▁ball	-567
ict	-568
▁child	-569
hen	-570
▁old	-571
▁uh	-572
▁[1	-573
▁away	-574
▁boys	-575
od	-576
▁another	-577
ew	-578
▁great	-579
▁.	-580
ful	-581
▁girl	-582
▁act	-583
ait	-584
▁give	-585
▁hel	-586
iz	-587
▁i	-588
▁car	-589
▁came	-590
▁before	-591
hy	-592
▁sha	-593
▁things	-594
ily	-595
day	-596
▁TH	-597
▁ho	-598
oss	-599
▁There	-600
▁ple	-601
aper	-602
ens	-603
▁dog	-604
▁mag	-605
▁eat	-606
add	-607
ors	-608
▁write	-609
▁ad	-610
uh	-611
▁try	-612
ory	-613
▁really	-614
hes	-615
▁may	-616
cl	-617
pe	-618
▁Adam	-619
▁home	-620
ny	-621
air	-622
▁sm	-623
▁thought	-624
ward	-625
▁doing	-626
ise	-627
▁year	-628
net	-629
▁men	-630
te	-631
▁wand	-632
▁app	-633
og	-634
ious	-635
▁kind	-636
ons	-637
igh	-638
▁wanna	-639
▁This	-640
▁help	-641
▁per	-642
▁new	-643
ane	-644
▁those	-645
▁Yes	-646
▁even	-647
ix	-648
▁ac	-649
ond	-650
ans	-651
▁im	-652
ks	-653
ction	-654
▁went	-655
oy	-656
▁er	-657
les	-658
ways	-659
▁our	-660
▁Eve	-661
akes	-662
▁dr	-663
ings	-664
▁house	-665
▁che	-666
▁love	-667
ail	-668
▁ch	-669
cle	-670
right	-671
▁head	-672
▁comp	-673
▁Un	-674
up	-675
here	-676
▁three	-677
gg	-678
rd	-679
▁lea	-680
ang	-681
▁comm	-682
▁start	-683
ave	-684
ance	-685
▁keep	-686
ob	-687
aul	-688
▁wait	-689
ars	-690
▁must	-691
▁Fr	-692
▁sl	-693
▁feel	-694
▁name	-695
▁father	-696
▁min	-697
▁through	-698
▁many	-699
SIS	-700
ign	-701
▁top	-702
▁gl	-703
▁mother	-704
iver	-705
▁How	-706
ci	-707
ER	-708
ath	-709
ened	-710
▁always	-711
▁rem	-712
rent	-713
▁most	-714
▁gu	-715
chool	-716
ert	-717
▁Ch	-718
▁el	-719
!"	-720
enc	-721
▁water	-722
ere	-723
land	-724
▁care	-725
▁yellow	-726
▁bre	-727
ont	-728
ates	-729
▁read	-730
▁anything	-731
▁3	-732
▁sw	-733
addy	-734
ird	-735
▁around	-736
xt	-737
ember	-738
▁paper	-739
▁last	-740
▁show	-741
body	-742
ited	-743
av	-744
side	-745
▁bel	-746
imes	-747
▁bu	-748
oney	-749
▁find	-750
oh	-751
aking	-752
▁magnet	-753
ream	-754
▁cont	-755
ee	-756
▁night	-757
row	-758
ions	-759
▁place	-760
▁please	-761
iend	-762
▁also	-763
▁op	-764
▁won	-765
man	-766
▁THE	-767
ually	-768
▁Do	-769
ros	-770
▁bab	-771
▁end	-772
▁fam	-773
▁might	-774
▁alright	-775
▁found	-776
▁rec	-777
▁use	-778
▁such	-779
▁run	-780
▁♪	-781
ape	-782
▁mom	-783
ope	-784
▁Paul	-785
▁pie	-786
ms	-787
▁own	-788
▁cour	-789
▁book	-790
▁still	-791
,”	-792
oth	-793
▁res	-794
pped	-795
ject	-796
med	-797
ah	-798
uc	-799
▁watch	-800
ump	-801
ican	-802
▁school	-803
▁its	-804
▁else	-805
▁better	-806
The	-807
▁?	-808
▁If	-809
ater	-810
▁dif	-811
▁’	-812
ning	-813
▁beg	-814
ute	-815
1:	-816
▁nice	-817
▁silence	-818
orry	-819
▁four	-820
▁des	-821
▁ser	-822
▁sure	-823
▁doesn	-824
me	-825
▁fall	-826
▁thank	-827
▁,	-828
gether	-829
ott	-830
aser	-831
▁letter	-832
the	-833
▁while	-834
▁Al	-835
▁lot	-836
▁hard	-837
no	-838
▁Cr	-839
▁sit	-840
▁!	-841
pr	-842
uts	-843
▁table	-844
▁pol	-845
▁done	-846
iv	-847
aw	-848
▁ob	-849
▁[1.	-850
▁word	-851
▁saw	-852
▁chan	-853
ug	-854
▁dist	-855
ferent	-856
00	-857
▁fun	-858
▁air	-859
▁2019	-860
▁friend	-861
ident	-862
▁bed	-863
▁far	-864
▁supp	-865
ins	-866
mber	-867
▁children	-868
rs	-869
▁bit	-870
▁told	-871
ES	-872
▁fin	-873
ical	-874
▁att	-875
▁ever	-876
▁called	-877
▁enough	-878
ling	-879
▁cle	-880
▁baby	-881
▁years	-882
▁same	-883
▁being	-884
▁together	-885
anc	-886
▁next	-887
▁Fraser	-888
▁pret	-889
aught	-890
ffe	-891
ove	-892
sil	-893
orm	-894
▁sound	-895
▁ey	-896
▁Amer	-897
▁Than	-898
▁stay	-899
AN	-900
▁mil	-901
urt	-902
▁Now	-903
▁Why	-904
▁family	-905
ever	-906
▁used	-907
amp	-908
▁sn	-909
▁side	-910
icip	-911
az	-912
▁Can	-913
ality	-914
▁quest	-915
AR	-916
▁Is	-917
vent	-918
end	-919
▁bus	-920
▁high	-921
▁dear	-922
aud	-923
outh	-924
ult	-925
▁hear	-926
▁life	-927
▁asked	-928
omer	-929
▁Don	-930
▁pre	-931
▁stand	-932
▁morn	-933
ober	-934
▁Okay	-935
rew	-936
▁Come	-937
▁best	-938
ohn	-939
▁On	-940
la	-941
silver	-942
llow	-943
port	-944
RI	-945
▁Mar	-946
▁took	-947
▁My	-948
▁pick	-949
▁unt	-950
bs	-951
arly	-952
▁John	-953
▁hold	-954
▁wind	-955
▁money	-956
▁vo	-957
▁count	-958
▁drink	-959
une	-960
Poss	-961
▁bro	-962
unicip	-963
▁sle	-964
▁Go	-965
▁guess	-966
▁young	-967
▁Mrs	-968
▁cir	-969
▁room	-970
▁heard	-971
ross	-972
▁bec	-973
ations	-974
atch	-975
▁face	-976
▁gi	-977
▁real	-978
▁small	-979
▁war	-980
▁light	-981
▁world	-982
gr	-983
itc	-984
ince	-985
ec	-986
▁set	-987
▁known	-988
▁course	-989
▁belie	-990
▁morning	-991
ilda	-992
ried	-993
hm	-994
ial	-995
▁col	-996
▁left	-997
▁4	-998
oman	-999
▁Urs	-1000
▁guy	-1001
▁open	-1002
▁break	-1003
▁mon	-1004
OU	-1005
▁United	-1006
▁“‘	-1007
ished	-1008
▁pass	-1009
▁though	-1010
▁Ar	-1011
▁Be	-1012
▁All	-1013
▁walk	-1014
raw	-1015
pect	-1016
ner	-1017
▁municip	-1018
▁Guy	-1019
▁Fran	-1020
▁fire	-1021
▁wee	-1022
▁door	-1023
▁pres	-1024
de	-1025
▁Cromer	-1026
▁talking	-1027
io	-1028
▁202	-1029
▁An	-1030
ness	-1031
▁Then	-1032
▁[.	-1033
ully	-1034
ank	-1035
eak	-1036
erson	-1037
ier	-1038
▁few	-1039
▁quite	-1040
▁nothing	-1041
cha	-1042
rop	-1043
▁May	-1044
▁huh	-1045
oud	-1046
rit	-1047
▁Jane	-1048
▁knew	-1049
▁Not	-1050
Possum	-1051
▁until	-1052
uss	-1053
▁sorry	-1054
▁Tom	-1055
▁Daddy	-1056
▁pu	-1057
ition	-1058
▁game	-1059
ween	-1060
▁God	-1061
▁American	-1062
ub	-1063
oup	-1064
▁hm	-1065
ired	-1066
▁kill	-1067
▁coming	-1068
▁As	-1069
▁str	-1070
▁ter	-1071
atter	-1072
ister	-1073
LL	-1074
▁isn	-1075
▁soon	-1076
▁18	-1077
▁sho	-1078
▁De	-1079
aces	-1080
▁each	-1081
▁move	-1082
ula	-1083
▁hot	-1084
▁leave	-1085
.”	-1086
ief	-1087
itty	-1088
encil	-1089
oor	-1090
most	-1091
▁ele	-1092
ON	-1093
▁red	-1094
▁seen	-1095
▁pencil	-1096
▁pretty	-1097
▁everything	-1098
Tilda	-1099
▁round	-1100
▁getting	-1101
led	-1102
▁wanted	-1103
▁spo	-1104
▁When	-1105
▁died	-1106
▁says	-1107
ces	-1108
ush	-1109
▁Ind	-1110
▁stop	-1111
2.	-1112
ably	-1113
▁between	-1114
ta	-1115
You	-1116
part	-1117
▁bad	-1118
▁sing	-1119
▁‘	-1120
▁city	-1121
▁States	-1122
▁brother	-1123
▁ret	-1124
▁mind	-1125
▁without	-1126
als	-1127
ger	-1128
vel	-1129
▁himself	-1130
▁Har	-1131
▁um	-1132
▁200	-1133
▁Sw	-1134
▁heart	-1135
oint	-1136
▁object	-1137
ts	-1138
▁Gr	-1139
▁eyes	-1140
▁upon	-1141
▁pop	-1142
ib	-1143
▁7	-1144
▁follow	-1145
▁looking	-1146
ye	-1147
unk	-1148
▁Re	-1149
▁Uh	-1150
ctor	-1151
stand	-1152
▁list	-1153
ames	-1154
icks	-1155
▁cook	-1156
▁once	-1157
▁story	-1158
▁different	-1159
ipp	-1160
▁Just	-1161
fta	-1162
arth	-1163
ctober	-1164
▁hafta	-1165
aut	-1166
▁acc	-1167
▁erm	-1168
zer	-1169
▁wo	-1170
ged	-1171
ures	-1172
▁Right	-1173
▁second	-1174
▁question	-1175
cc	-1176
▁5	-1177
ouch	-1178
▁today	-1179
app	-1180
rict	-1181
▁sur	-1182
▁born	-1183
▁half	-1184
▁const	-1185
ten	-1186
▁fish	-1187
▁hands	-1188
▁having	-1189
▁October	-1190
▁municipality	-1191
ffee	-1192
▁bird	-1193
ike	-1194
rist	-1195
▁age	-1196
▁rest	-1197
▁Kitty	-1198
▁point	-1199
".	-1200
huh	-1201
▁New	-1202
▁mhm	-1203
▁maybe	-1204
idd	-1205
▁Are	-1206
ask	-1207
▁yet	-1208
less	-1209
▁foot	-1210
▁Fl	-1211
▁sk	-1212
ball	-1213
▁199	-1214
uring	-1215
▁goes	-1216
),	-1217
oun	-1218
▁box	-1219
▁toy	-1220
▁char	-1221
ING	-1222
▁ten	-1223
▁tape	-1224
to	-1225
elt	-1226
ating	-1227
▁along	-1228
▁coffee	-1229
ery	-1230
▁dec	-1231
▁del	-1232
▁hat	-1233
▁mar	-1234
▁gave	-1235
▁happened	-1236
RIC	-1237
der	-1238
▁Thank	-1239
▁minute	-1240
aj	-1241
▁gone	-1242
ower	-1243
▁For	-1244
▁almost	-1245
iet	-1246
▁near	-1247
▁piece	-1248
▁ready	-1249
▁Wh	-1250
▁sleep	-1251
ale	-1252
che	-1253
ung	-1254
unch	-1255
eor	-1256
▁milk	-1257
▁looked	-1258
ats	-1259
ason	-1260
tern	-1261
ither	-1262
▁person	-1263
▁saying	-1264
▁believe	-1265
▁8	-1266
▁reg	-1267
▁meet	-1268
▁town	-1269
ton	-1270
ivers	-1271
▁miss	-1272
▁actually	-1273
ertain	-1274
▁woman	-1275
▁making	-1276
OR	-1277
ese	-1278
▁Hey	-1279
▁yep	-1280
▁chair	-1281
ham	-1282
ife	-1283
▁Cl	-1284
ased	-1285
▁rel	-1286
▁cons	-1287
oll	-1288
ible	-1289
vern	-1290
▁both	-1291
arn	-1292
▁aw	-1293
▁ent	-1294
▁six	-1295
▁blue	-1296
▁fine	-1297
▁remember	-1298
2:	-1299
att	-1300
▁inst	-1301
▁id	-1302
▁Sar	-1303
fully	-1304
har	-1305
ows	-1306
▁inv	-1307
▁num	-1308
▁five	-1309
▁bring	-1310
▁means	-1311
ept	-1312
uth	-1313
▁Let	-1314
▁fact	-1315
▁writ	-1316
▁whole	-1317
ois	-1318
uly	-1319
▁cap	-1320
orrow	-1321
▁days	-1322
ision	-1323
▁dere	-1324
,’	-1325
und	-1326
▁em	-1327
haps	-1328
iness	-1329
▁Look	-1330
▁voice	-1331
its	-1332
vie	-1333
ution	-1334
▁beaut	-1335
▁against	-1336
oc	-1337
ener	-1338
ents	-1339
▁ind	-1340
▁cut	-1341
▁pull	-1342
▁began	-1343
▁Ursula	-1344
ork	-1345
▁ph	-1346
▁win	-1347
ready	-1348
▁Your	-1349
▁truck	-1350
ash	-1351
son	-1352
wer	-1353
▁Bro	-1354
▁His	-1355
▁Mot	-1356
▁spell	-1357
▁France	-1358
▁ju	-1359
▁hey	-1360
erest	-1361
▁wonder	-1362
▁sent	-1363
▁tree	-1364
▁Christ	-1365
▁record	-1366
▁understand	-1367
aid	-1368
bably	-1369
▁Where	-1370
any	-1371
ring	-1372
▁wood	-1373
▁white	-1374
not	-1375
▁Tr	-1376
reet	-1377
ries	-1378
▁goin	-1379
▁6	-1380
aint	-1381
▁feet	-1382
▁sign	-1383
▁sort	-1384
▁eas	-1385
ities	-1386
ined	-1387
▁198	-1388
▁soft	-1389
you	-1390
osed	-1391
▁fell	-1392
ze	-1393
▁met	-1394
▁later	-1395
▁polit	-1396
▁speak	-1397
ND	-1398
imp	-1399
ocks	-1400
▁Geor	-1401
Oh	-1402
ex	-1403
ura	-1404
▁hi	-1405
reen	-1406
▁hope	-1407
▁lady	-1408
▁wouldn	-1409
▁already	-1410
▁objects	-1411
And	-1412
▁...	-1413
ician	-1414
itzer	-1415
▁line	-1416
ruction	-1417
dd	-1418
▁At	-1419
▁exc	-1420
▁hor	-1421
ileen	-1422
▁fellow	-1423
▁playing	-1424
▁9	-1425
uff	-1426
ital	-1427
▁hurt	-1428
▁shall	-1429
▁Switzer	-1430
▁Switzerland	-1431
▁YOU	-1432
▁lar	-1433
▁mus	-1434
▁district	-1435
▁interest	-1436
fect	-1437
▁close	-1438
▁floor	-1439
ational	-1440
cept	-1441
▁felt	-1442
▁hour	-1443
▁party	-1444
▁sometimes	-1445
ster	-1446
▁ans	-1447
▁juice	-1448
▁train	-1449
▁Aileen	-1450
▁trying	-1451
ken	-1452
orth	-1453
▁Sarah	-1454
▁often	-1455
eptember	-1456
puts	-1457
▁Good	-1458
▁food	-1459
▁wrong	-1460
5.	-1461
gs	-1462
▁job	-1463
).	-1464
▁Eng	-1465
▁cur	-1466
▁tre	-1467
▁live	-1468
▁depart	-1469
RE	-1470
ey	-1471
weet	-1472
▁196	-1473
▁cry	-1474
▁eight	-1475
ants	-1476
head	-1477
over	-1478
▁son	-1479
▁wag	-1480
▁dress	-1481
.’	-1482
▁ass	-1483
▁par	-1484
▁squ	-1485
",	-1486
ony	-1487
sel	-1488
hind	-1489
ustr	-1490
▁Her	-1491
▁cho	-1492
▁ste	-1493
▁cant	-1494
▁draw	-1495
▁turned	-1496
ics	-1497
ised	-1498
▁cup	-1499
ative	-1500
19	-1501
eb	-1502
key	-1503
ered	-1504
▁add	-1505
▁happy	-1506
▁happen	-1507
▁dire	-1508
▁till	-1509
▁makes	-1510
▁September	-1511
▁Af	-1512
▁idea	-1513
▁death	-1514
▁girls	-1515
▁ca	-1516
cial	-1517
▁dri	-1518
▁looks	-1519
▁To	-1520
ient	-1521
iful	-1522
▁Did	-1523
acher	-1524
▁bott	-1525
lo	-1526
but	-1527
els	-1528
▁ain	-1529
▁Vaud	-1530
▁lived	-1531
▁popul	-1532
▁Le	-1533
isit	-1534
▁dey	-1535
itchen	-1536
▁probably	-1537
com	-1538
ched	-1539
enty	-1540
▁Who	-1541
wards	-1542
▁Miss	-1543
▁fair	-1544
▁color	-1545
▁since	-1546
ains	-1547
ches	-1548
hold	-1549
wood	-1550
▁sub	-1551
▁mine	-1552
▁canton	-1553
▁circle	-1554
▁seemed	-1555
▁herself	-1556
ement	-1557
▁contin	-1558
▁certain	-1559
▁kitchen	-1560
It	-1561
eth	-1562
ude	-1563
▁Sp	-1564
▁jo	-1565
▁Com	-1566
▁pay	-1567
itting	-1568
▁washer	-1569
ern	-1570
vers	-1571
▁ins	-1572
picks	-1573
▁cold	-1574
▁disc	-1575
▁lunch	-1576
▁times	-1577
LD	-1578
▁Ex	-1579
▁Mm	-1580
▁ice	-1581
▁kid	-1582
▁build	-1583
▁front	-1584
▁Indian	-1585
LE	-1586
ato	-1587
▁ref	-1588
▁poor	-1589
▁proble	-1590
▁someone	-1591
▁department	-1592
▁ran	-1593
▁mouth	-1594
▁behind	-1595
apa	-1596
gar	-1597
▁Pr	-1598
Well	-1599
ones	-1600
▁Count	-1601
▁comes	-1602
▁matter	-1603
▁moment	-1604
▁brought	-1605
▁da	-1606
▁rep	-1607
▁cent	-1608
▁tele	-1609
▁friends	-1610
▁outside	-1611
ene	-1612
ize	-1613
▁med	-1614
▁pict	-1615
iously	-1616
▁check	-1617
3.	-1618
rap	-1619
alth	-1620
▁197	-1621
▁short	-1622
But	-1623
ense	-1624
eter	-1625
read	-1626
▁Per	-1627
▁wasn	-1628
▁daddy	-1629
anu	-1630
hip	-1631
ote	-1632
ouble	-1633
▁full	-1634
▁number	-1635
inc	-1636
▁July	-1637
aughter	-1638
▁Mother	-1639
▁yourself	-1640
▁beautiful	-1641
▁10	-1642
▁es	-1643
ator	-1644
▁buy	-1645
astic	-1646
▁lost	-1647
▁George	-1648
▁hit	-1649
▁offic	-1650
ual	-1651
▁La	-1652
▁Or	-1653
ages	-1654
▁Dou	-1655
▁tom	-1656
▁jump	-1657
▁gotta	-1658
▁laugh	-1659
VE	-1660
ots	-1661
▁Sh	-1662
ield	-1663
▁One	-1664
▁forg	-1665
▁country	-1666
OM	-1667
▁pen	-1668
ately	-1669
lease	-1670
▁whis	-1671
zz	-1672
ues	-1673
ific	-1674
▁movie	-1675
▁across	-1676
born	-1677
▁gun	-1678
aster	-1679
▁throw	-1680
▁commune	-1681
1,	-1682
ina	-1683
▁Bo	-1684
▁Ed	-1685
▁bear	-1686
▁form	-1687
▁haven	-1688
▁noise	-1689
▁words	-1690
▁business	-1691
cus	-1692
▁nut	-1693
▁anim	-1694
▁boat	-1695
▁snow	-1696
selves	-1697
▁grand	-1698
▁construction	-1699
mp	-1700
unt	-1701
▁Br	-1702
▁ed	-1703
aken	-1704
▁sir	-1705
▁deal	-1706
▁hors	-1707
▁creat	-1708
▁knock	-1709
4.	-1710
▁fight	-1711
▁during	-1712
by	-1713
mb	-1714
▁touch	-1715
▁wants	-1716
▁Car	-1717
▁bag	-1718
▁imp	-1719
▁hair	-1720
▁mark	-1721
▁quick	-1722
▁return	-1723
gan	-1724
empt	-1725
raid	-1726
range	-1727
▁King	-1728
▁Will	-1729
▁195	-1730
▁pri	-1731
▁true	-1732
▁dream	-1733
▁funny	-1734
ama	-1735
▁Pe	-1736
▁[2.	-1737
▁dem	-1738
ently	-1739
where	-1740
▁guys	-1741
▁incl	-1742
▁County	-1743
▁butter	-1744
▁started	-1745
ides	-1746
▁Ill	-1747
▁2020	-1748
▁hell	-1749
▁send	-1750
IT	-1751
iam	-1752
ley	-1753
urs	-1754
▁Ke	-1755
▁inc	-1756
▁coll	-1757
▁prom	-1758
▁tried	-1759
ls	-1760
raz	-1761
cted	-1762
▁din	-1763
▁sat	-1764
arent	-1765
▁mill	-1766
▁stra	-1767
▁week	-1768
▁listen	-1769
airs	-1770
olog	-1771
ounc	-1772
▁sum	-1773
▁wear	-1774
▁Garth	-1775
▁airpl	-1776
▁couldn	-1777
▁hum	-1778
▁tap	-1779
ature	-1780
▁cool	-1781
▁doll	-1782
▁prot	-1783
anuary	-1784
Chi	-1785
form	-1786
icul	-1787
iversity	-1788
br	-1789
ma	-1790
ked	-1791
▁sy	-1792
pril	-1793
vice	-1794
▁clip	-1795
▁fing	-1796
▁member	-1797
▁street	-1798
▁perhaps	-1799
ying	-1800
▁Get	-1801
▁bar	-1802
▁bur	-1803
ories	-1804
▁dead	-1805
▁duck	-1806
▁road	-1807
▁month	-1808
▁state	-1809
▁became	-1810
▁sounds	-1811
**	-1812
ided	-1813
room	-1814
▁Some	-1815
▁able	-1816
▁kept	-1817
▁ring	-1818
▁After	-1819
▁afraid	-1820
▁played	-1821
▁straight	-1822
'.	-1823
▁ago	-1824
▁corn	-1825
▁given	-1826
▁stuck	-1827
nce	-1828
oon	-1829
What	-1830
irth	-1831
utes	-1832
▁AND	-1833
iddle	-1834
▁land	-1835
▁ones	-1836
▁repl	-1837
▁crack	-1838
▁sugar	-1839
▁yours	-1840
▁sticks	-1841
que	-1842
blic	-1843
▁Col	-1844
▁lay	-1845
▁song	-1846
▁inter	-1847
SS	-1848
ets	-1849
▁OF	-1850
ards	-1851
ared	-1852
ming	-1853
▁fly	-1854
▁hur	-1855
point	-1856
▁sweet	-1857
go	-1858
▁Of	-1859
▁hon	-1860
▁Pro	-1861
▁fix	-1862
ained	-1863
takes	-1864
▁among	-1865
▁change	-1866
▁January	-1867
▁minutes	-1868
▁running	-1869
mas	-1870
▁Er	-1871
ices	-1872
▁lead	-1873
▁nine	-1874
▁prod	-1875
▁simp	-1876
▁gener	-1877
▁myself	-1878
fess	-1879
▁193	-1880
▁sun	-1881
▁case	-1882
▁page	-1883
▁plan	-1884
▁alone	-1885
▁strong	-1886
▁airplane	-1887
lish	-1888
▁Luc	-1889
▁ann	-1890
▁dro	-1891
▁With	-1892
▁area	-1893
▁gets	-1894
▁star	-1895
▁green	-1896
▁large	-1897
▁expect	-1898
▁somebody	-1899
Yes	-1900
▁12	-1901
▁Rep	-1902
▁egg	-1903
eared	-1904
rence	-1905
▁Papa	-1906
▁carry	-1907
▁taking	-1908
ET	-1909
sh	-1910
for	-1911
▁TO	-1912
▁ve	-1913
atur	-1914
bles	-1915
ines	-1916
irty	-1917
▁east	-1918
▁hang	-1919
▁quiet	-1920
▁inside	-1921
▁sitting	-1922
een	-1923
▁adm	-1924
▁fro	-1925
▁clot	-1926
▁poss	-1927
▁ahead	-1928
▁balls	-1929
ello	-1930
fast	-1931
▁glad	-1932
▁April	-1933
▁broken	-1934
amed	-1935
cess	-1936
▁Min	-1937
▁bow	-1938
▁mess	-1939
▁resp	-1940
▁roll	-1941
▁wish	-1942
▁2019)	-1943
▁Doubs	-1944
▁pleas	-1945
▁taken	-1946
▁trunk	-1947
▁uncle	-1948
▁either	-1949
▁govern	-1950
▁careful	-1951
vol	-1952
▁Ah	-1953
king	-1954
rest	-1955
▁Boy	-1956
▁Jul	-1957
▁art	-1958
ansas	-1959
▁wife	-1960
▁breat	-1961
▁writing	-1962
▁politician	-1963
NA	-1964
▁IN	-1965
▁ear	-1966
▁occ	-1967
asket	-1968
▁blow	-1969
▁body	-1970
▁Flore	-1971
▁clean	-1972
▁stuff	-1973
▁ah	-1974
icha	-1975
illy	-1976
▁Jack	-1977
▁past	-1978
▁rock	-1979
ention	-1980
▁others	-1981
▁reason	-1982
ph	-1983
▁ra	-1984
ured	-1985
▁ton	-1986
rench	-1987
▁bath	-1988
▁clear	-1989
▁early	-1990
▁rather	-1991
1.	-1992
3,	-1993
ean	-1994
look	-1995
▁exp	-1996
▁pos	-1997
vision	-1998
▁twenty	-1999
▁worked	-2000
▁daughter	-2001
ror	-2002
ized	-2003
teen	-2004
▁sto	-2005
ering	-2006
moves	-2007
▁Here	-2008
ically	-2009
▁horses	-2010
▁Because	-2011
▁trouble	-2012
AY	-2013
OW	-2014
ead	-2015
▁Ger	-2016
▁Tri	-2017
▁pat	-2018
▁spe	-2019
▁Bour	-2020
▁Pres	-2021
▁less	-2022
▁Maybe	-2023
▁wagon	-2024
▁sister	-2025
▁finished	-2026
Com	-2027
ays	-2028
let	-2029
▁17	-2030
▁Bl	-2031
▁(19	-2032
▁194	-2033
▁law	-2034
▁sick	-2035
▁stood	-2036
▁working	-2037
▁Florence	-2038
co	-2039
ges	-2040
ift	-2041
▁16	-2042
Fran	-2043
used	-2044
▁Dan	-2045
▁pot	-2046
▁easy	-2047
▁ride	-2048
▁team	-2049
▁Every	-2050
▁become	-2051
▁thinking	-2052
▁tomorrow	-2053
▁Christmas	-2054
ED	-2055
yl	-2056
con	-2057
kes	-2058
oles	-2059
sing	-2060
▁fig	-2061
▁ill	-2062
▁loc	-2063
▁mur	-2064
▁Have	-2065
▁birth	-2066
▁Kansas	-2067
▁Harwood	-2068
▁picture	-2069
CK	-2070
aff	-2071
iff	-2072
imb	-2073
men	-2074
esty	-2075
▁Con	-2076
ounds	-2077
pping	-2078
▁sever	-2079
▁tired	-2080
▁eating	-2081
oof	-2082
ost	-2083
▁di	-2084
dden	-2085
ises	-2086
▁music	-2087
té	-2088
kin	-2089
rat	-2090
▁Ph	-2091
▁mot	-2092
▁fore	-2093
▁news	-2094
▁Bourg	-2095
▁river	-2096
▁pieces	-2097
]?	-2098
irt	-2099
▁Sc	-2100
▁Tw	-2101
▁catch	-2102
▁shoot	-2103
▁trees	-2104
▁commun	-2105
▁several	-2106
▁themselves	-2107
.]	-2108
EN	-2109
fort	-2110
ters	-2111
▁burn	-2112
▁nose	-2113
▁seems	-2114
▁stool	-2115
▁Thanks	-2116
▁living	-2117
▁perfect	-2118
▁whether	-2119
▁population	-2120
▁15	-2121
▁[2	-2122
ists	-2123
ogne	-2124
▁fast	-2125
▁cream	-2126
▁organ	-2127
▁passed	-2128
▁sudden	-2129
▁toward	-2130
▁President	-2131
20	-2132
ST	-2133
fl	-2134
ney	-2135
▁ev	-2136
aced	-2137
▁ext	-2138
Comté	-2139
ments	-2140
▁aren	-2141
▁nuts	-2142
undred	-2143
▁begin	-2144
▁spoon	-2145
Franche	-2146
▁tonight	-2147
▁Bourgogne	-2148
uit	-2149
rave	-2150
▁Cal	-2151
actly	-2152
▁cross	-2153
▁store	-2154
▁cheese	-2155
▁health	-2156
▁import	-2157
▁putting	-2158
▁University	-2159
We	-2160
ax	-2161
wh	-2162
bout	-2163
▁arm	-2164
▁cat	-2165
▁fif	-2166
ached	-2167
owers	-2168
▁slow	-2169
▁Peter	-2170
ference	-2171
▁report	-2172
▁English	-2173
▁company	-2174
7.	-2175
ipe	-2176
▁By	-2177
angu	-2178
▁cow	-2179
holds	-2180
ility	-2181
▁conc	-2182
▁expl	-2183
▁held	-2184
▁tail	-2185
▁least	-2186
▁named	-2187
▁Please	-2188
▁feeling	-2189
▁CH	-2190
ored	-2191
▁Maj	-2192
▁dogs	-2193
▁push	-2194
▁warm	-2195
▁uhhuh	-2196
▁window	-2197
▁hundred	-2198
0.	-2199
No	-2200
abb	-2201
ada	-2202
cri	-2203
▁WH	-2204
----	-2205
ggie	-2206
▁Comm	-2207
▁seem	-2208
▁surpr	-2209
▁clothes	-2210
ai	-2211
vi	-2212
▁14	-2213
amer	-2214
▁See	-2215
▁bes	-2216
▁pur	-2217
▁tea	-2218
ience	-2219
▁late	-2220
▁Laura	-2221
▁usually	-2222
▁Hi	-2223
▁ty	-2224
urch	-2225
▁Man	-2226
▁band	-2227
▁wild	-2228
▁birds	-2229
▁group	-2230
▁horse	-2231
▁evening	-2232
▁teacher	-2233
▁standing	-2234
▁OK	-2235
ford	-2236
▁die	-2237
▁nap	-2238
CHILD	-2239
ining	-2240
night	-2241
▁March	-2242
▁exper	-2243
▁power	-2244
▁caught	-2245
▁dinner	-2246
▁breakfast	-2247
II	-2248
acy	-2249
aim	-2250
ears	-2251
itch	-2252
olly	-2253
▁Par	-2254
▁Sha	-2255
ugust	-2256
▁camp	-2257
▁drop	-2258
▁free	-2259
▁swim	-2260
▁test	-2261
▁brown	-2262
▁seven	-2263
▁trans	-2264
▁visit	-2265
▁doctor	-2266
6.	-2267
vo	-2268
ica	-2269
ilt	-2270
▁Pl	-2271
ison	-2272
▁opp	-2273
▁busy	-2274
▁dark	-2275
▁hung	-2276
▁luck	-2277
▁French	-2278
▁bottom	-2279
▁present	-2280
2,	-2281
8.	-2282
OO	-2283
ele	-2284
▁1.	-2285
that	-2286
uthor	-2287
▁Ital	-2288
▁Jean	-2289
▁Nove	-2290
▁fuck	-2291
▁vill	-2292
though	-2293
▁learn	-2294
▁former	-2295
▁killed	-2296
▁summer	-2297
He	-2298
aa	-2299
joy	-2300
ned	-2301
old	-2302
▁fav	-2303
▁leg	-2304
herry	-2305
urtle	-2306
▁hist	-2307
▁imag	-2308
ground	-2309
▁brief	-2310
▁attack	-2311
▁circus	-2312
▁giving	-2313
▁million	-2314
▁profess	-2315
▁whatever	-2316
ped	-2317
ives	-2318
pper	-2319
▁Cha	-2320
▁Was	-2321
▁cal	-2322
itten	-2323
▁grow	-2324
▁hole	-2325
▁broke	-2326
▁lovely	-2327
▁capital	-2328
▁November	-2329
▁television	-2330
▁Ag	-2331
▁Town	-2332
▁step	-2333
▁Aggie	-2334
▁tower	-2335
CHILDES	-2336
▁answer	-2337
▁spring	-2338
volution	-2339
▁childes	-2340
▁important	-2341
0,	-2342
bor	-2343
ety	-2344
igg	-2345
ider	-2346
▁mer	-2347
pered	-2348
▁bite	-2349
▁dang	-2350
▁gold	-2351
▁spend	-2352
▁basket	-2353
▁forget	-2354
▁unclear	-2355
fr	-2356
▁]	-2357
TER	-2358
ism	-2359
▁El	-2360
▁IT	-2361
iron	-2362
▁eng	-2363
▁sal	-2364
▁smo	-2365
ional	-2366
▁lift	-2367
▁mist	-2368
▁sand	-2369
▁blood	-2370
▁falls	-2371
▁langu	-2372
▁charac	-2373
▁disapp	-2374
▁ground	-2375
▁places	-2376
▁24	-2377
▁Po	-2378
▁Eur	-2379
inois	-2380
▁heav	-2381
▁puts	-2382
▁stud	-2383
▁above	-2384
▁longer	-2385
cei	-2386
osp	-2387
▁Jo	-2388
aine	-2389
iled	-2390
▁Cla	-2391
cember	-2392
▁allow	-2393
▁phone	-2394
▁plastic	-2395
▁mm	-2396
▁ut	-2397
gram	-2398
▁adv	-2399
▁Nick	-2400
▁crit	-2401
▁loud	-2402
▁Hello	-2403
▁clock	-2404
▁turtle	-2405
▁laughing	-2406
8,	-2407
9.	-2408
col	-2409
▁Di	-2410
ique	-2411
noon	-2412
▁ban	-2413
▁dad	-2414
▁fit	-2415
ograp	-2416
▁seat	-2417
▁moved	-2418
▁pract	-2419
▁chance	-2420
▁finger	-2421
▁middle	-2422
▁secret	-2423
referent	-2424
▁anybody	-2425
ky	-2426
▁[?	-2427
ising	-2428
▁Char	-2429
▁Mark	-2430
▁fill	-2431
▁self	-2432
stairs	-2433
▁block	-2434
▁glass	-2435
▁wrote	-2436
▁German	-2437
▁forgot	-2438
▁forward	-2439
▁problem	-2440
▁Illinois	-2441
eng	-2442
That	-2443
omen	-2444
ston	-2445
what	-2446
▁War	-2447
▁mis	-2448
icult	-2449
iding	-2450
▁Repu	-2451
▁pain	-2452
▁whom	-2453
▁cover	-2454
ization	-2455
▁includ	-2456
▁fellows	-2457
▁strange	-2458
BR	-2459
ald	-2460
▁Ne	-2461
aged	-2462
▁est	-2463
▁hop	-2464
ensus	-2465
▁king	-2466
▁event	-2467
▁loved	-2468
▁finish	-2469
▁following	-2470
UT	-2471
▁Rob	-2472
▁low	-2473
▁cond	-2474
▁lots	-2475
▁enjoy	-2476
▁woods	-2477
▁August	-2478
▁supper	-2479
hin	-2480
ler	-2481
uct	-2482
ideo	-2483
inal	-2484
orre	-2485
▁Dad	-2486
▁maj	-2487
arden	-2488
paper	-2489
velop	-2490
▁eggs	-2491
▁rele	-2492
resent	-2493
▁Tripp	-2494
▁order	-2495
▁takes	-2496
▁treat	-2497
▁weeks	-2498
▁series	-2499
▁exactly	-2500
▁afternoon	-2501
▁questions	-2502
5,	-2503
AP	-2504
gie	-2505
now	-2506
▁Em	-2507
ager	-2508
idge	-2509
ills	-2510
zzle	-2511
▁Russ	-2512
▁kids	-2513
▁bread	-2514
▁knows	-2515
▁liked	-2516
▁works	-2517
▁leaves	-2518
▁opened	-2519
▁birthday	-2520
▁everybody	-2521
AD	-2522
HS	-2523
how	-2524
icy	-2525
par	-2526
ple	-2527
ral	-2528
▁Ha	-2529
▁ST	-2530
▁Dav	-2531
▁Sir	-2532
▁fur	-2533
▁joy	-2534
▁Sure	-2535
▁arri	-2536
▁grew	-2537
▁onto	-2538
▁shar	-2539
ousand	-2540
▁James	-2541
▁Somet	-2542
▁cried	-2543
▁belong	-2544
▁police	-2545
▁December	-2546
▁certainly	-2547
ued	-2548
▁Am	-2549
▁Se	-2550
come	-2551
▁Phil	-2552
▁cand	-2553
▁fear	-2554
▁tick	-2555
places	-2556
▁bright	-2557
▁happens	-2558
▁football	-2559
isc	-2560
▁Ma	-2561
ancy	-2562
phan	-2563
▁Lea	-2564
order	-2565
▁cray	-2566
▁main	-2567
▁apple	-2568
▁whose	-2569
▁fright	-2570
▁flowers	-2571
▁letters	-2572
ium	-2573
nes	-2574
▁Any	-2575
▁prov	-2576
cially	-2577
▁crying	-2578
▁except	-2579
▁Indians	-2580
▁Nothing	-2581
▁delight	-2582
▁waiting	-2583
?”	-2584
hoe	-2585
iny	-2586
umb	-2587
▁WE	-2588
ract	-2589
▁BRO	-2590
▁cre	-2591
▁pig	-2592
▁June	-2593
▁clos	-2594
▁date	-2595
▁spec	-2596
ceived	-2597
▁North	-2598
▁Sorry	-2599
▁grape	-2600
▁People	-2601
▁cannot	-2602
▁current	-2603
▁instead	-2604
▁service	-2605
▁thousand	-2606
▁wonderful	-2607
▁:	-2608
▁_	-2609
cuse	-2610
ging	-2611
reed	-2612
▁Che	-2613
▁Pat	-2614
▁dou	-2615
chair	-2616
clock	-2617
▁deep	-2618
▁legs	-2619
▁save	-2620
terday	-2621
▁Diand	-2622
▁honey	-2623
▁Really	-2624
▁corner	-2625
▁reading	-2626
▁village	-2627
▁accident	-2628
arty	-2629
bert	-2630
bled	-2631
cell	-2632
▁192	-2633
▁Feb	-2634
▁[3.	-2635
▁ang	-2636
▁dry	-2637
▁nor	-2638
iforn	-2639
ption	-2640
rible	-2641
▁Brit	-2642
▁conf	-2643
▁farm	-2644
▁pock	-2645
▁shot	-2646
▁shut	-2647
ishing	-2648
▁mount	-2649
▁worth	-2650
▁bought	-2651
▁decided	-2652
▁meeting	-2653
▁telling	-2654
ss	-2655
lin	-2656
rey	-2657
uel	-2658
ange	-2659
ires	-2660
attle	-2661
tered	-2662
▁City	-2663
▁Even	-2664
▁stri	-2665
▁excit	-2666
▁games	-2667
▁lives	-2668
looking	-2669
▁anyway	-2670
▁census	-2671
▁starts	-2672
▁stopped	-2673
▁written	-2674
▁recorder	-2675
▁suddenly	-2676
bt	-2677
dam	-2678
ury	-2679
▁Me	-2680
band	-2681
omes	-2682
roat	-2683
▁iss	-2684
▁nin	-2685
▁flat	-2686
father	-2687
points	-2688
▁books	-2689
▁chick	-2690
▁worry	-2691
ifornia	-2692
▁parent	-2693
▁whispered	-2694
ik	-2695
lly	-2696
ras	-2697
sur	-2698
gest	-2699
more	-2700
▁dam	-2701
▁den	-2702
▁gas	-2703
▁hig	-2704
▁lab	-2705
▁val	-2706
ipped	-2707
ittee	-2708
▁Bill	-2709
▁dese	-2710
▁diff	-2711
▁sold	-2712
▁press	-2713
▁using	-2714
▁Europe	-2715
▁Govern	-2716
▁winter	-2717
▁suppose	-2718
▁yesterday	-2719
▁California	-2720
6,	-2721
kr	-2722
bed	-2723
pos	-2724
ris	-2725
arch	-2726
time	-2727
▁[.7	-2728
ropri	-2729
ushed	-2730
▁fort	-2731
▁hous	-2732
▁wash	-2733
▁Grace	-2734
▁Great	-2735
▁heavy	-2736
▁magic	-2737
▁meant	-2738
▁sight	-2739
▁third	-2740
▁truth	-2741
▁within	-2742
▁magnets	-2743
▁washers	-2744
▁election	-2745
erv	-2746
ron	-2747
play	-2748
▁ham	-2749
▁sad	-2750
▁Fair	-2751
▁[1.5	-2752
▁cake	-2753
▁excl	-2754
▁inde	-2755
▁safe	-2756
▁South	-2757
▁Would	-2758
▁hours	-2759
ospital	-2760
▁blocks	-2761
▁slowly	-2762
▁special	-2763
▁language	-2764
▁problems	-2765
gue	-2766
irm	-2767
ops	-2768
was	-2769
elly	-2770
iger	-2771
meal	-2772
nded	-2773
oops	-2774
stem	-2775
▁eye	-2776
▁hun	-2777
▁vol	-2778
empts	-2779
ggest	-2780
house	-2781
icine	-2782
mbers	-2783
▁Jura	-2784
▁hate	-2785
▁shoe	-2786
▁River	-2787
▁neigh	-2788
▁sense	-2789
▁contro	-2790
▁figure	-2791
▁simply	-2792
▁thirty	-2793
▁suggest	-2794
▁appeared	-2795
▁building	-2796
▁pleasure	-2797
▁released	-2798
AU	-2799
St	-2800
af	-2801
lt	-2802
ita	-2803
oop	-2804
▁Dr	-2805
▁ya	-2806
ency	-2807
ular	-2808
upid	-2809
▁Nor	-2810
▁Sec	-2811
▁Wor	-2812
▁lad	-2813
entle	-2814
iling	-2815
raham	-2816
ruary	-2817
▁Lord	-2818
▁York	-2819
▁fuss	-2820
▁appro	-2821
▁proud	-2822
▁wheel	-2823
▁moving	-2824
▁office	-2825
pecially	-2826
▁interesting	-2827
aps	-2828
bye	-2829
ppy	-2830
sta	-2831
Nord	-2832
▁Lar	-2833
▁[.8	-2834
▁bud	-2835
▁oat	-2836
▁sca	-2837
There	-2838
▁bene	-2839
▁dose	-2840
▁kiss	-2841
▁pack	-2842
▁compl	-2843
▁plate	-2844
▁sharp	-2845
▁shout	-2846
▁Little	-2847
▁asking	-2848
▁puzzle	-2849
▁scream	-2850
▁holding	-2851
▁members	-2852
▁quickly	-2853
▁Minister	-2854
▁background	-2855
AS	-2856
fer	-2857
▁23	-2858
▁27	-2859
oose	-2860
▁Sis	-2861
▁esc	-2862
▁rub	-2863
sings	-2864
▁From	-2865
▁fool	-2866
▁vaud	-2867
estern	-2868
▁Keith	-2869
▁These	-2870
▁arrow	-2871
▁favor	-2872
▁hurry	-2873
ination	-2874
viously	-2875
▁comple	-2876
▁balloon	-2877
▁stories	-2878
▁vaudois	-2879
▁particul	-2880
000	-2881
eal	-2882
rel	-2883
rug	-2884
▁29	-2885
▁Co	-2886
▁Gu	-2887
▁Sm	-2888
stit	-2889
▁fil	-2890
▁Mont	-2891
▁cost	-2892
▁coup	-2893
▁fail	-2894
▁wall	-2895
usband	-2896
yellow	-2897
▁House	-2898
▁climb	-2899
▁needs	-2900
▁Canada	-2901
▁church	-2902
▁indeed	-2903
▁itself	-2904
▁nearly	-2905
▁softly	-2906
▁history	-2907
▁oatmeal	-2908
▁support	-2909
▁turning	-2910
IR	-2911
va	-2912
▁z	-2913
ana	-2914
aug	-2915
case	-2916
eddy	-2917
razy	-2918
▁fat	-2919
amera	-2920
▁List	-2921
▁Tell	-2922
▁arms	-2923
▁post	-2924
▁sell	-2925
▁State	-2926
▁class	-2927
▁arrest	-2928
▁monkey	-2929
▁pocket	-2930
▁character	-2931
▁president	-2932
CE	-2933
agn	-2934
ico	-2935
uty	-2936
acks	-2937
ceed	-2938
writ	-2939
▁Act	-2940
▁FOR	-2941
▁Lou	-2942
▁Pol	-2943
▁def	-2944
ample	-2945
asion	-2946
▁Bert	-2947
▁Sant	-2948
▁coat	-2949
▁danc	-2950
▁stat	-2951
vering	-2952
▁David	-2953
▁Rober	-2954
▁Robin	-2955
▁Visit	-2956
▁earth	-2957
▁moves	-2958
▁north	-2959
▁shoes	-2960
▁silly	-2961
▁super	-2962
▁anyone	-2963
▁potato	-2964
▁Diandra	-2965
▁protect	-2966
▁followed	-2967
▁supposed	-2968
HV	-2969
cy	-2970
sc	-2971
LLD	-2972
has	-2973
iod	-2974
▁ME	-2975
▁pa	-2976
Home	-2977
pull	-2978
song	-2979
▁Dem	-2980
▁Nat	-2981
▁aff	-2982
▁anx	-2983
▁led	-2984
HSLLD	-2985
▁Vill	-2986
▁Wait	-2987
uation	-2988
▁paint	-2989
▁stove	-2990
▁couple	-2991
▁walking	-2992
▁position	-2993
▁government	-2994
!’	-2995
do	-2996
ww	-2997
iday	-2998
ioca	-2999
▁Dep	-3000
▁Jos	-3001
▁Mad	-3002
▁Ukr	-3003
▁dar	-3004
▁mix	-3005
▁wha	-3006
ables	-3007
conom	-3008
wered	-3009
▁meat	-3010
▁Party	-3011
▁activ	-3012
▁video	-3013
▁button	-3014
▁common	-3015
▁nobody	-3016
▁stupid	-3017
ropriate	-3018
▁general	-3019
▁tapioca	-3020
AK	-3021
ns	-3022
boy	-3023
▁Hen	-3024
▁key	-3025
▁mad	-3026
▁rad	-3027
▁sou	-3028
aimed	-3029
inist	-3030
▁Mart	-3031
▁Take	-3032
▁Very	-3033
▁feed	-3034
▁suff	-3035
itched	-3036
▁drive	-3037
▁animal	-3038
▁joined	-3039
▁created	-3040
AL	-3041
ux	-3042
iot	-3043
mon	-3044
por	-3045
ram	-3046
▁HE	-3047
▁Ox	-3048
They	-3049
ummy	-3050
▁Hum	-3051
▁ate	-3052
▁bal	-3053
▁mid	-3054
▁Like	-3055
▁beha	-3056
▁crow	-3057
▁none	-3058
▁repe	-3059
▁stru	-3060
ouncil	-3061
▁2019,	-3062
▁human	-3063
▁motor	-3064
▁women	-3065
▁author	-3066
▁hungry	-3067
▁months	-3068
▁seeing	-3069
▁comfort	-3070
▁dropped	-3071
▁promise	-3072
▁February	-3073
▁answered	-3074
gy	-3075
ARY	-3076
▁"'	-3077
▁[3	-3078
▁ye	-3079
cent	-3080
cher	-3081
lect	-3082
rian	-3083
▁lie	-3084
itted	-3085
▁Hank	-3086
▁bark	-3087
▁card	-3088
▁soup	-3089
▁toys	-3090
idence	-3091
▁miles	-3092
▁south	-3093
▁School	-3094
▁bottle	-3095
▁garden	-3096
▁public	-3097
▁talked	-3098
▁husband	-3099
▁parents	-3100
▁although	-3101
▁attention	-3102
IG	-3103
eg	-3104
mag	-3105
pty	-3106
vin	-3107
▁25	-3108
▁AP	-3109
well	-3110
work	-3111
▁Ang	-3112
▁Gus	-3113
▁Joe	-3114
▁gen	-3115
▁sex	-3116
ously	-3117
tries	-3118
▁Stop	-3119
▁wide	-3120
▁World	-3121
▁actor	-3122
▁built	-3123
▁crazy	-3124
▁rough	-3125
▁proper	-3126
▁region	-3127
▁Majesty	-3128
▁William	-3129
▁develop	-3130
▁leaving	-3131
▁pretend	-3132
▁possible	-3133
ID	-3134
ek	-3135
Now	-3136
onn	-3137
ume	-3138
▁28	-3139
▁Su	-3140
ests	-3141
iced	-3142
irit	-3143
ural	-3144
▁Mel	-3145
▁bas	-3146
▁Mary	-3147
▁[1.2	-3148
▁beat	-3149
ichard	-3150
▁Which	-3151
▁apart	-3152
▁trave	-3153
▁trust	-3154
▁Robert	-3155
▁camera	-3156
▁period	-3157
▁season	-3158
▁Italian	-3159
▁complete	-3160
▁medicine	-3161
SE	-3162
ka	-3163
sp	-3164
,--	-3165
She	-3166
bur	-3167
str	-3168
▁13	-3169
▁tv	-3170
uced	-3171
▁equ	-3172
▁neck	-3173
▁paid	-3174
▁quar	-3175
▁Democ	-3176
▁Grand	-3177
▁Their	-3178
▁doubt	-3179
▁space	-3180
▁beside	-3181
▁breath	-3182
▁walked	-3183
▁animals	-3184
▁replied	-3185
▁Clavering	-3186
▁happening	-3187
▁revolution	-3188
?’	-3189
UN	-3190
ko	-3191
eer	-3192
ida	-3193
ino	-3194
uce	-3195
▁30	-3196
Then	-3197
ault	-3198
chol	-3199
hile	-3200
lend	-3201
tain	-3202
▁Bar	-3203
▁Jes	-3204
▁Mex	-3205
▁Ser	-3206
▁Tex	-3207
▁Two	-3208
▁har	-3209
▁wet	-3210
ified	-3211
▁race	-3212
▁rust	-3213
icycle	-3214
ressed	-3215
▁court	-3216
▁dance	-3217
▁field	-3218
▁metal	-3219
▁ought	-3220
▁stone	-3221
▁teeth	-3222
▁napkin	-3223
▁carried	-3224
▁finally	-3225
▁afterwards	-3226
?]	-3227
tr	-3228
nut	-3229
▁wa	-3230
elve	-3231
mond	-3232
▁Mon	-3233
▁cos	-3234
▁ver	-3235
oring	-3236
▁park	-3237
▁rose	-3238
▁term	-3239
▁type	-3240
▁Danny	-3241
▁grass	-3242
▁lying	-3243
sidered	-3244
▁doggie	-3245
▁houses	-3246
▁Johnson	-3247
▁Richard	-3248
ustration	-3249
▁swimming	-3250
▁briefcase	-3251
▁community	-3252
▁difficult	-3253
▁considered	-3254
IM	-3255
ERE	-3256
cer	-3257
ric	-3258
▁tem	-3259
alent	-3260
▁Mama	-3261
▁Thom	-3262
▁lion	-3263
▁sett	-3264
▁vict	-3265
ashion	-3266
atural	-3267
▁Micha	-3268
▁invol	-3269
▁Excuse	-3270
▁design	-3271
▁gentle	-3272
▁program	-3273
▁National	-3274
▁Republic	-3275
▁baseball	-3276
Th	-3277
]!	-3278
chn	-3279
omi	-3280
▁la	-3281
apan	-3282
ille	-3283
yond	-3284
▁San	-3285
▁sus	-3286
▁wow	-3287
icked	-3288
▁bang	-3289
▁orig	-3290
▁pink	-3291
▁publ	-3292
▁screw	-3293
▁Father	-3294
▁compet	-3295
▁cookie	-3296
▁slight	-3297
▁Michael	-3298
▁discuss	-3299
▁neither	-3300
▁singing	-3301
alization	-3302
▁received	-3303
▁sentence	-3304
ced	-3305
nel	-3306
she	-3307
▁(;	-3308
▁ng	-3309
ades	-3310
eral	-3311
nect	-3312
resh	-3313
wing	-3314
▁[.6	-3315
▁abs	-3316
▁gar	-3317
▁lim	-3318
▁mud	-3319
▁sim	-3320
▁www	-3321
olute	-3322
ousin	-3323
▁Fuck	-3324
▁drew	-3325
▁jour	-3326
inistr	-3327
▁Colin	-3328
▁Harry	-3329
▁fruit	-3330
▁grown	-3331
▁level	-3332
▁reach	-3333
▁stage	-3334
▁tries	-3335
▁Graham	-3336
▁appear	-3337
▁bigger	-3338
▁county	-3339
▁inform	-3340
▁market	-3341
▁orange	-3342
▁concern	-3343
▁hospital	-3344
▁watching	-3345
▁beginning	-3346
▁difference	-3347
li	-3348
of	-3349
nda	-3350
ule	-3351
▁1,	-3352
leep	-3353
pose	-3354
▁Bel	-3355
▁lap	-3356
▁pet	-3357
▁sol	-3358
itive	-3359
pulls	-3360
▁Cent	-3361
▁tall	-3362
▁tong	-3363
▁Henry	-3364
▁local	-3365
▁Oxford	-3366
▁danger	-3367
▁master	-3368
▁missed	-3369
▁simple	-3370
▁system	-3371
▁thanks	-3372
▁British	-3373
▁England	-3374
▁Russian	-3375
▁example	-3376
▁married	-3377
▁everyone	-3378
▁national	-3379
▁terrible	-3380
▁perfectly	-3381
▁represent	-3382
▁especially	-3383
Ill	-3384
cel	-3385
ege	-3386
ogn	-3387
oot	-3388
udy	-3389
▁En	-3390
▁IS	-3391
UARY	-3392
iles	-3393
soft	-3394
vies	-3395
▁(20	-3396
▁Jer	-3397
▁MOT	-3398
▁Mac	-3399
▁Sen	-3400
▁pra	-3401
acing	-3402
ences	-3403
ishes	-3404
▁educ	-3405
▁laug	-3406
▁tast	-3407
aining	-3408
elling	-3409
ointed	-3410
▁brave	-3411
▁force	-3412
▁waste	-3413
aturday	-3414
▁compan	-3415
▁fallen	-3416
▁showed	-3417
▁spread	-3418
▁throat	-3419
▁twelve	-3420
▁changed	-3421
▁laughed	-3422
▁station	-3423
▁surprise	-3424
So	-3425
ki	-3426
Don	-3427
ELL	-3428
off	-3429
▁Mc	-3430
▁ON	-3431
▁ap	-3432
▁rid	-3433
ances	-3434
iment	-3435
ology	-3436
▁West	-3437
▁[1.3	-3438
▁craw	-3439
▁cust	-3440
▁flag	-3441
▁fold	-3442
▁requ	-3443
▁succ	-3444
▁Lucas	-3445
▁Texas	-3446
▁holds	-3447
▁spoke	-3448
▁weren	-3449
▁willn	-3450
▁picked	-3451
▁points	-3452
▁sevent	-3453
▁elected	-3454
▁Saturday	-3455
▁returned	-3456
My	-3457
OG	-3458
bb	-3459
ya	-3460
bum	-3461
lap	-3462
put	-3463
udd	-3464
▁()	-3465
▁US	-3466
athe	-3467
rees	-3468
wich	-3469
▁[4.	-3470
▁gay	-3471
▁god	-3472
▁wel	-3473
APTER	-3474
ingly	-3475
▁East	-3476
▁Gipp	-3477
▁More	-3478
▁bell	-3479
▁cast	-3480
▁deer	-3481
▁nurs	-3482
▁pill	-3483
▁Japan	-3484
▁Louis	-3485
▁chief	-3486
▁crowd	-3487
▁peace	-3488
▁shows	-3489
▁threw	-3490
▁twice	-3491
olutely	-3492
▁career	-3493
▁chocol	-3494
▁wheels	-3495
▁imagine	-3496
▁respect	-3497
▁direction	-3498
▁horseshoe	-3499
Illustration	-3500
;.	-3501
AM	-3502
ez	-3503
ij	-3504
amb	-3505
aur	-3506
gle	-3507
lor	-3508
nds	-3509
uke	-3510
zen	-3511
▁26	-3512
▁MY	-3513
ales	-3514
chan	-3515
enny	-3516
▁Bob	-3517
▁Jim	-3518
▁mum	-3519
▁pad	-3520
▁sea	-3521
itary	-3522
▁Gros	-3523
▁host	-3524
▁lake	-3525
▁moon	-3526
▁rich	-3527
magnet	-3528
orrect	-3529
▁First	-3530
▁Santa	-3531
▁boots	-3532
▁smile	-3533
alities	-3534
▁Thomas	-3535
▁advent	-3536
▁movies	-3537
▁needed	-3538
▁recogn	-3539
▁strugg	-3540
▁Perhaps	-3541
▁continued	-3542
▁grandfather	-3543
dr	-3544
UCK	-3545
WOM	-3546
ata	-3547
ees	-3548
ibb	-3549
ips	-3550
run	-3551
▁(2	-3552
▁11	-3553
▁Ro	-3554
▁ma	-3555
▁ri	-3556
▁tu	-3557
ampa	-3558
andy	-3559
fact	-3560
oups	-3561
▁Aye	-3562
▁Pal	-3563
▁Pri	-3564
▁Ray	-3565
▁env	-3566
aches	-3567
black	-3568
ffect	-3569
place	-3570
▁Hist	-3571
▁mach	-3572
▁pant	-3573
▁shop	-3574
ounced	-3575
ushing	-3576
▁Patch	-3577
▁Smith	-3578
▁eager	-3579
▁empty	-3580
▁fresh	-3581
▁honor	-3582
ression	-3583
▁Listen	-3584
▁beyond	-3585
▁center	-3586
▁groups	-3587
▁higher	-3588
▁string	-3589
▁tongue	-3590
ustrated	-3591
▁allowed	-3592
▁collect	-3593
▁however	-3594
▁success	-3595
▁Democrat	-3596
▁official	-3597
bre	-3598
reg	-3599
ted	-3600
yon	-3601
▁(1	-3602
▁SH	-3603
Vaud	-3604
ells	-3605
iter	-3606
vere	-3607
▁Emp	-3608
▁Ste	-3609
▁cop	-3610
▁div	-3611
▁eff	-3612
▁tot	-3613
▁var	-3614
antly	-3615
ashed	-3616
bling	-3617
oming	-3618
uture	-3619
▁THAT	-3620
▁bike	-3621
▁bill	-3622
▁comb	-3623
▁decl	-3624
▁hadn	-3625
▁pipe	-3626
▁priv	-3627
▁whoa	-3628
clears	-3629
▁based	-3630
▁chain	-3631
▁names	-3632
▁stack	-3633
cholars	-3634
▁likely	-3635
▁noises	-3636
▁square	-3637
▁serious	-3638
▁expected	-3639
▁political	-3640
kn	-3641
oph	-3642
uge	-3643
yle	-3644
▁ow	-3645
aker	-3646
ouri	-3647
▁dep	-3648
▁tor	-3649
apers	-3650
▁Cour	-3651
▁Does	-3652
▁Juli	-3653
▁defe	-3654
▁drag	-3655
▁hide	-3656
▁rate	-3657
▁suit	-3658
Mother	-3659
▁Black	-3660
▁Jesus	-3661
▁couch	-3662
▁delic	-3663
▁extra	-3664
▁lines	-3665
▁remem	-3666
▁smart	-3667
▁utter	-3668
▁worse	-3669
▁charge	-3670
▁mostly	-3671
attempts	-3672
ironment	-3673
▁America	-3674
▁cookies	-3675
▁Governor	-3676
▁upstairs	-3677
▁chocolate	-3678
▁exclaimed	-3679
▁highchair	-3680
▁frightened	-3681
alt	-3682
cks	-3683
emy	-3684
hys	-3685
rib	-3686
sey	-3687
▁BE	-3688
ueen	-3689
▁Bet	-3690
▁MAR	-3691
▁[.9	-3692
▁jus	-3693
▁rap	-3694
asset	-3695
board	-3696
razil	-3697
▁Port	-3698
▁dest	-3699
▁guns	-3700
▁hall	-3701
▁shit	-3702
▁Roman	-3703
▁board	-3704
▁cherry	-3705
▁diaper	-3706
▁entire	-3707
▁flower	-3708
▁invest	-3709
▁notice	-3710
▁remark	-3711
▁single	-3712
▁splend	-3713
▁believed	-3714
▁situation	-3715
7,	-3716
Is	-3717
US	-3718
jo	-3719
bar	-3720
bit	-3721
cul	-3722
ils	-3723
lla	-3724
nic	-3725
omb	-3726
ray	-3727
voc	-3728
▁LO	-3729
▁cu	-3730
bers	-3731
bour	-3732
ighs	-3733
inct	-3734
medi	-3735
▁Day	-3736
▁Erm	-3737
▁bye	-3738
▁mut	-3739
▁spl	-3740
assie	-3741
inary	-3742
orpor	-3743
riage	-3744
ushes	-3745
▁Give	-3746
▁bull	-3747
▁edge	-3748
▁firm	-3749
▁lose	-3750
▁pair	-3751
▁prop	-3752
▁tear	-3753
corder	-3754
mother	-3755
▁About	-3756
▁Chief	-3757
▁agree	-3758
▁album	-3759
▁burst	-3760
▁clips	-3761
▁teddy	-3762
aughing	-3763
hington	-3764
▁Brazil	-3765
▁Empire	-3766
▁Friday	-3767
▁Gippie	-3768
▁amount	-3769
▁engine	-3770
▁necess	-3771
▁served	-3772
▁Poacher	-3773
▁natural	-3774
▁towards	-3775
▁watched	-3776
▁drinking	-3777
▁Sometimes	-3778
ternational	-3779
.'	-3780
4)	-3781
5/	-3782
UM	-3783
aki	-3784
asy	-3785
ems	-3786
van	-3787
▁Fe	-3788
▁RE	-3789
ecut	-3790
rick	-3791
rupt	-3792
▁Run	-3793
▁aut	-3794
▁jud	-3795
▁rul	-3796
nding	-3797
▁Dill	-3798
▁dare	-3799
▁ears	-3800
▁norm	-3801
▁prep	-3802
▁remo	-3803
overla	-3804
uction	-3805
▁added	-3806
▁broad	-3807
▁study	-3808
▁handle	-3809
▁helped	-3810
▁player	-3811
▁spirit	-3812
▁Germany	-3813
▁cooking	-3814
▁darling	-3815
▁entered	-3816
▁falling	-3817
▁fucking	-3818
▁popular	-3819
▁Washington	-3820
.=	-3821
2)	-3822
ERS	-3823
Why	-3824
ior	-3825
▁LI	-3826
▁Ok	-3827
▁Sl	-3828
▁[4	-3829
hood	-3830
keep	-3831
like	-3832
unno	-3833
▁Sue	-3834
▁dev	-3835
▁vis	-3836
ondon	-3837
▁Army	-3838
▁Dist	-3839
▁THIS	-3840
▁phot	-3841
iction	-3842
overed	-3843
▁awful	-3844
▁benef	-3845
▁cause	-3846
▁dough	-3847
▁fence	-3848
▁grace	-3849
▁offer	-3850
▁picks	-3851
▁slide	-3852
▁spent	-3853
▁swing	-3854
▁terms	-3855
▁tight	-3856
arently	-3857
▁Lassie	-3858
▁assist	-3859
▁crayon	-3860
▁econom	-3861
▁effect	-3862
▁hardly	-3863
iscasset	-3864
▁Ukraine	-3865
▁control	-3866
▁hanging	-3867
▁mention	-3868
▁reached	-3869
▁somehow	-3870
▁anywhere	-3871
▁arrested	-3872
▁greatest	-3873
▁starting	-3874
")	-3875
Do	-3876
sy	-3877
hel	-3878
iew	-3879
ases	-3880
ivil	-3881
ners	-3882
rang	-3883
turn	-3884
uses	-3885
▁Bye	-3886
▁Cos	-3887
▁cro	-3888
▁mir	-3889
▁neg	-3890
bered	-3891
imate	-3892
ooper	-3893
round	-3894
▁Gold	-3895
▁Lady	-3896
▁bank	-3897
▁cele	-3898
▁ding	-3899
▁mult	-3900
▁nope	-3901
▁scar	-3902
▁size	-3903
▁skin	-3904
▁soul	-3905
▁tiny	-3906
▁Angel	-3907
▁White	-3908
▁blank	-3909
▁ended	-3910
▁oppos	-3911
▁stars	-3912
▁Johnny	-3913
▁descri	-3914
▁terror	-3915
laughing	-3916
▁Alright	-3917
▁CHAPTER	-3918
▁Dillson	-3919
▁connect	-3920
▁convers	-3921
▁subject	-3922
▁committee	-3923
▁experience	-3924
▁information	-3925
"]	-3926
bu	-3927
DAN	-3928
aby	-3929
aph	-3930
yer	-3931
****	-3932
anda	-3933
fish	-3934
host	-3935
icle	-3936
lier	-3937
onse	-3938
▁Hur	-3939
▁Old	-3940
▁cab	-3941
▁fed	-3942
▁nar	-3943
ching	-3944
dered	-3945
eless	-3946
itude	-3947
oughs	-3948
phone	-3949
water	-3950
▁(201	-3951
▁boot	-3952
▁offe	-3953
▁ribb	-3954
▁role	-3955
ensive	-3956
▁cards	-3957
▁hello	-3958
▁indic	-3959
▁pound	-3960
▁prair	-3961
▁radio	-3962
▁shame	-3963
▁shirt	-3964
▁spill	-3965
▁sport	-3966
▁weird	-3967
singing	-3968
▁London	-3969
▁immedi	-3970
▁murder	-3971
▁pulled	-3972
▁raised	-3973
▁regard	-3974
▁result	-3975
▁wagons	-3976
--------	-3977
▁chicken	-3978
▁dancing	-3979
▁dressed	-3980
▁elephan	-3981
▁fingers	-3982
▁inspect	-3983
▁mistake	-3984
▁monster	-3985
▁sandwich	-3986
▁sleeping	-3987
▁Ciscasset	-3988
▁professional	-3989
▁municipalities	-3990
.,	-3991
RA	-3992
cr	-3993
OME	-3994
oma	-3995
pha	-3996
sha	-3997
▁AN	-3998
aven	-3999
orat	-4000
this	-4001
▁App	-4002
▁Res	-4003
▁Sun	-4004
▁ant	-4005
▁imm	-4006
ially	-4007
ortun	-4008
vered	-4009
▁Cont	-4010
▁High	-4011
▁[1.1	-4012
▁amaz	-4013
▁lock	-4014
▁pray	-4015
▁quit	-4016
▁rabb	-4017
▁spee	-4018
▁spot	-4019
ession	-4020
ission	-4021
▁Agent	-4022
▁appre	-4023
▁famil	-4024
▁fifty	-4025
▁gives	-4026
▁homes	-4027
▁older	-4028
▁cancer	-4029
▁caused	-4030
▁closed	-4031
▁excuse	-4032
▁taught	-4033
▁upside	-4034
pointing	-4035
▁account	-4036
▁keeping	-4037
▁learned	-4038
▁meaning	-4039
▁director	-4040
▁distance	-4041
▁somewhere	-4042
IE	-4043
LW	-4044
gi	-4045
za	-4046
All	-4047
alo	-4048
lew	-4049
oni	-4050
roy	-4051
▁21	-4052
▁3,	-4053
▁Na	-4054
▁et	-4055
arts	-4056
aves	-4057
ians	-4058
talk	-4059
utch	-4060
▁Mor	-4061
▁Spe	-4062
▁det	-4063
▁gir	-4064
▁mac	-4065
▁tha	-4066
▁tou	-4067
▁Chan	-4068
▁Cong	-4069
▁Only	-4070
▁bare	-4071
▁cere	-4072
▁frog	-4073
▁hook	-4074
▁tink	-4075
▁yard	-4076
idding	-4077
▁Could	-4078
▁brain	-4079
▁cheer	-4080
▁fancy	-4081
▁plays	-4082
▁sciss	-4083
▁smell	-4084
▁action	-4085
▁choice	-4086
▁future	-4087
▁plants	-4088
▁pounds	-4089
▁Raymond	-4090
▁bowling	-4091
▁fashion	-4092
▁respons	-4093
▁retired	-4094
▁whisper	-4095
erecorder	-4096
▁District	-4097
▁brothers	-4098
▁continue	-4099
▁governor	-4100
▁personal	-4101
overlapped	-4102
▁announced	-4103
▁Democratic	-4104
▁conversation	-4105
4,	-4106
EE	-4107
LY	-4108
ok	-4109
yn	-4110
How	-4111
asc	-4112
dom	-4113
rie	-4114
rod	-4115
▁2,	-4116
▁22	-4117
▁HA	-4118
▁ur	-4119
Adam	-4120
elle	-4121
face	-4122
goes	-4123
hern	-4124
ilar	-4125
wise	-4126
▁Leo	-4127
▁hol	-4128
ument	-4129
▁Fine	-4130
▁Fred	-4131
▁earn	-4132
▁hero	-4133
▁mail	-4134
▁pean	-4135
▁sens	-4136
▁trip	-4137
atives	-4138
ounter	-4139
▁Prime	-4140
▁notes	-4141
▁print	-4142
▁refer	-4143
▁snake	-4144
▁stret	-4145
▁turns	-4146
cellent	-4147
overlap	-4148
▁cowboy	-4149
▁dreams	-4150
▁fourth	-4151
▁glance	-4152
▁nature	-4153
▁pillow	-4154
▁thinks	-4155
▁However	-4156
▁actress	-4157
▁anymore	-4158
▁fifteen	-4159
▁patient	-4160
▁project	-4161
▁windows	-4162
▁directed	-4163
▁occasion	-4164
▁pictures	-4165
▁response	-4166
▁published	-4167
AF	-4168
mm	-4169
bel	-4170
isy	-4171
nis	-4172
pes	-4173
rav	-4174
uch	-4175
▁3.	-4176
▁Te	-4177
▁eh	-4178
aked	-4179
aple	-4180
boat	-4181
cont	-4182
iers	-4183
reme	-4184
▁Ham	-4185
▁Med	-4186
▁Off	-4187
▁bun	-4188
▁gag	-4189
▁rug	-4190
▁tri	-4191
ening	-4192
thern	-4193
uckle	-4194
▁Park	-4195
▁Whig	-4196
▁cott	-4197
▁kick	-4198
▁laid	-4199
▁tops	-4200
▁uses	-4201
ingham	-4202
uckles	-4203
washer	-4204
▁Natal	-4205
▁Pence	-4206
▁dunno	-4207
▁holes	-4208
▁lucky	-4209
▁parts	-4210
▁suitc	-4211
outhern	-4212
▁celebr	-4213
▁filled	-4214
▁remind	-4215
▁rubber	-4216
▁switch	-4217
▁unless	-4218
▁wished	-4219
▁History	-4220
▁machine	-4221
▁officer	-4222
▁prairie	-4223
▁species	-4224
▁Missouri	-4225
▁pleasant	-4226
▁shoulder	-4227
cholarship	-4228
▁relations	-4229
▁screaming	-4230
▁interested	-4231
vocalization	-4232
▁Illustrated	-4233
EY	-4234
In	-4235
TH	-4236
VER	-4237
het	-4238
lex	-4239
ums	-4240
▁2.	-4241
▁Um	-4242
burg	-4243
ucer	-4244
▁Ber	-4245
▁Sim	-4246
▁ide	-4247
▁ign	-4248
▁non	-4249
▁obl	-4250
▁sky	-4251
▁tit	-4252
ators	-4253
▁Lucy	-4254
▁Tony	-4255
▁WHAT	-4256
▁dump	-4257
▁exam	-4258
▁fond	-4259
▁horn	-4260
▁hunt	-4261
▁lips	-4262
▁rain	-4263
▁serv	-4264
aching	-4265
tering	-4266
▁Court	-4267
▁Inter	-4268
▁Paris	-4269
▁Since	-4270
▁Trump	-4271
▁dozen	-4272
▁gagaa	-4273
▁princ	-4274
▁prize	-4275
▁wound	-4276
ciation	-4277
▁Larita	-4278
▁accept	-4279
▁asleep	-4280
▁begins	-4281
▁heaven	-4282
▁sposta	-4283
▁Natalie	-4284
▁fishing	-4285
▁hunting	-4286
▁organis	-4287
▁quarter	-4288
▁evidence	-4289
▁fighting	-4290
▁remained	-4291
▁speaking	-4292
▁suitcase	-4293
▁continues	-4294
appropriate	-4295
▁completely	-4296
!”	-4297
,]	-4298
LF	-4299
OB	-4300
gl	-4301
hu	-4302
OUR	-4303
don	-4304
pis	-4305
urb	-4306
val	-4307
wan	-4308
▁Mo	-4309
'...	-4310
gets	-4311
gged	-4312
rant	-4313
usan	-4314
▁Aha	-4315
▁Ann	-4316
▁Ant	-4317
▁Its	-4318
▁Pet	-4319
▁Red	-4320
▁Ter	-4321
▁mat	-4322
▁scr	-4323
epend	-4324
pisod	-4325
using	-4326
ville	-4327
▁Humm	-4328
▁Jess	-4329
▁bowl	-4330
▁calm	-4331
▁oper	-4332
▁pers	-4333
▁wake	-4334
ording	-4335
▁Naomi	-4336
▁Other	-4337
▁alive	-4338
▁heads	-4339
▁major	-4340
▁mommy	-4341
▁queer	-4342
▁share	-4343
▁squir	-4344
▁tears	-4345
▁usual	-4346
ography	-4347
playing	-4348
▁Cooper	-4349
▁bother	-4350
▁consum	-4351
▁effort	-4352
▁ladies	-4353
▁needta	-4354
▁plenty	-4355
▁possib	-4356
▁signed	-4357
▁temper	-4358
▁whoops	-4359
▁writes	-4360
▁Charles	-4361
▁arrived	-4362
▁calling	-4363
▁excited	-4364
▁further	-4365
▁perform	-4366
▁smaller	-4367
▁exciting	-4368
▁involved	-4369
▁magnetic	-4370
▁military	-4371
▁including	-4372
',	-4373
OP	-4374
uk	-4375
ago	-4376
rem	-4377
rid	-4378
▁JU	-4379
▁fa	-4380
berg	-4381
iana	-4382
just	-4383
kend	-4384
roll	-4385
▁Dam	-4386
▁Mer	-4387
▁Mhm	-4388
▁Ooh	-4389
▁nea	-4390
▁tar	-4391
alley	-4392
asons	-4393
▁Bird	-4394
▁bugg	-4395
▁damn	-4396
▁furn	-4397
▁mere	-4398
▁neat	-4399
▁pale	-4400
▁roof	-4401
▁text	-4402
▁tied	-4403
▁tray	-4404
▁view	-4405
▁west	-4406
▁Child	-4407
▁Fairy	-4408
▁Spain	-4409
▁badly	-4410
▁click	-4411
▁dread	-4412
▁forth	-4413
▁techn	-4414
▁tiger	-4415
▁truly	-4416
▁veget	-4417
▁League	-4418
▁Secret	-4419
▁Valent	-4420
▁affect	-4421
▁agreed	-4422
▁flying	-4423
▁placed	-4424
▁covered	-4425
▁dollars	-4426
▁drawing	-4427
▁include	-4428
▁majesty	-4429
▁wearing	-4430
▁European	-4431
▁carrying	-4432
▁favorite	-4433
▁investig	-4434
▁movement	-4435
▁splendid	-4436
▁creatures	-4437
▁listening	-4438
▁taperecorder	-4439
An	-4440
If	-4441
zo	-4442
ITH	-4443
abs	-4444
car	-4445
den	-4446
dow	-4447
▁Ab	-4448
acul	-4449
cely	-4450
cles	-4451
ites	-4452
pers	-4453
rels	-4454
they	-4455
▁Cle	-4456
▁Los	-4457
▁Tim	-4458
▁[5.	-4459
▁eld	-4460
▁mic	-4461
▁tow	-4462
allow	-4463
ander	-4464
field	-4465
owder	-4466
urkey	-4467
▁Beck	-4468
▁Once	-4469
▁acqu	-4470
▁bone	-4471
▁cell	-4472
▁conv	-4473
▁cred	-4474
▁hasn	-4475
▁iron	-4476
▁pony	-4477
▁thin	-4478
▁tone	-4479
▁wipe	-4480
itions	-4481
▁2019.	-4482
▁Charl	-4483
▁India	-4484
▁Saint	-4485
▁Think	-4486
▁coach	-4487
▁cruel	-4488
▁fairy	-4489
▁incre	-4490
▁shore	-4491
▁stock	-4492
▁trian	-4493
▁tripp	-4494
▁Senate	-4495
▁Street	-4496
▁scared	-4497
▁search	-4498
▁smiled	-4499
▁speech	-4500
▁checked	-4501
▁cracker	-4502
▁feather	-4503
▁hurried	-4504
▁kidding	-4505
▁offered	-4506
▁process	-4507
▁welcome	-4508
▁minister	-4509
▁neighbor	-4510
▁repeated	-4511
▁sticking	-4512
▁professor	-4513
▁shoulders	-4514
▁excitement	-4515
▁remembered	-4516
▁environment	-4517
▁immediately	-4518
AA	-4519
HT	-4520
amm	-4521
awa	-4522
can	-4523
ius	-4524
yan	-4525
▁("	-4526
▁FE	-4527
▁NE	-4528
aded	-4529
ival	-4530
mill	-4531
▁Ben	-4532
▁swe	-4533
alist	-4534
aroni	-4535
azine	-4536
ength	-4537
gress	-4538
icles	-4539
itely	-4540
otten	-4541
press	-4542
there	-4543
vious	-4544
▁Alan	-4545
▁Shar	-4546
▁Sund	-4547
▁doin	-4548
▁lean	-4549
▁port	-4550
▁rail	-4551
▁weap	-4552
iggles	-4553
▁China	-4554
▁Major	-4555
▁Polly	-4556
▁Sweet	-4557
▁civil	-4558
▁comma	-4559
▁dirty	-4560
▁likes	-4561
▁queen	-4562
▁roles	-4563
▁saved	-4564
▁Albert	-4565
▁comput	-4566
▁double	-4567
▁honest	-4568
▁voices	-4569
▁Patrick	-4570
▁appreci	-4571
▁attempt	-4572
▁council	-4573
▁protest	-4574
▁realize	-4575
▁respond	-4576
▁shouldn	-4577
▁staying	-4578
▁decision	-4579
▁prepared	-4580
▁promised	-4581
▁scissors	-4582
▁somethin	-4583
▁whenever	-4584
▁administr	-4585
'?	-4586
IA	-4587
ILL	-4588
Not	-4589
cut	-4590
hod	-4591
iol	-4592
ker	-4593
met	-4594
mit	-4595
ses	-4596
▁31	-4597
▁SC	-4598
▁ce	-4599
ague	-4600
ando	-4601
atre	-4602
hest	-4603
imme	-4604
line	-4605
omin	-4606
view	-4607
▁190	-4608
▁Cor	-4609
▁Fin	-4610
▁MAY	-4611
▁Pen	-4612
▁Squ	-4613
▁bod	-4614
▁inj	-4615
▁suc	-4616
orida	-4617
rying	-4618
▁Raff	-4619
▁Work	-4620
▁buff	-4621
▁cats	-4622
▁club	-4623
▁deli	-4624
▁gift	-4625
▁mass	-4626
▁phys	-4627
▁pool	-4628
▁sail	-4629
▁stir	-4630
▁wond	-4631
ustral	-4632
▁Julie	-4633
▁Watch	-4634
▁angry	-4635
▁award	-4636
▁faces	-4637
▁hotel	-4638
▁mater	-4639
▁penny	-4640
▁steps	-4641
▁track	-4642
▁trick	-4643
▁wings	-4644
▁During	-4645
▁critic	-4646
▁direct	-4647
▁kindly	-4648
▁lawyer	-4649
▁leader	-4650
▁singer	-4651
▁weight	-4652
▁crayons	-4653
▁marbles	-4654
▁partner	-4655
▁similar	-4656
▁succeed	-4657
▁critique	-4658
▁macaroni	-4659
▁opportun	-4660
▁replaced	-4661
▁triangle	-4662
▁Something	-4663
8)	-4664
CT	-4665
OH	-4666
wo	-4667
zy	-4668
ITT	-4669
OOK	-4670
ams	-4671
rer	-4672
rot	-4673
▁4,	-4674
▁5,	-4675
▁CO	-4676
▁DO	-4677
▁Jr	-4678
▁UN	-4679
▁hy	-4680
ache	-4681
aska	-4682
enth	-4683
ivid	-4684
leod	-4685
nuts	-4686
ords	-4687
whis	-4688
▁Afr	-4689
▁Cap	-4690
▁Our	-4691
▁deg	-4692
▁fol	-4693
▁mem	-4694
▁ord	-4695
▁pun	-4696
▁tie	-4697
▁tum	-4698
▁und	-4699
▁voc	-4700
cient	-4701
known	-4702
▁Call	-4703
▁Keep	-4704
▁Most	-4705
▁Over	-4706
▁Peru	-4707
▁Span	-4708
▁film	-4709
▁grad	-4710
▁huge	-4711
▁poet	-4712
▁pump	-4713
▁sour	-4714
▁trou	-4715
coughs	-4716
▁Award	-4717
▁Brian	-4718
▁Those	-4719
▁aside	-4720
▁below	-4721
▁elect	-4722
▁fault	-4723
▁ghost	-4724
▁liter	-4725
▁owner	-4726
▁plain	-4727
▁satis	-4728
▁whist	-4729
▁Martin	-4730
▁beauty	-4731
▁colors	-4732
▁execut	-4733
▁famous	-4734
▁income	-4735
▁stayed	-4736
▁waited	-4737
▁Angeles	-4738
▁Macleod	-4739
▁burning	-4740
▁college	-4741
▁counter	-4742
▁driving	-4743
▁located	-4744
▁mothers	-4745
▁noticed	-4746
▁quietly	-4747
▁handsome	-4748
▁potatoes	-4749
▁carefully	-4750
▁particular	-4751
▁revolutionary	-4752
1)	-4753
3)	-4754
po	-4755
uu	-4756
wl	-4757
ALL	-4758
ANT	-4759
ION	-4760
PAU	-4761
ari	-4762
fly	-4763
had	-4764
iar	-4765
nam	-4766
▁AB	-4767
▁BO	-4768
▁Fu	-4769
▁Hy	-4770
▁[5	-4771
Good	-4772
When	-4773
crit	-4774
iple	-4775
oted	-4776
raft	-4777
▁21,	-4778
▁ALL	-4779
▁Bas	-4780
▁Hel	-4781
▁JAN	-4782
▁Kat	-4783
▁Law	-4784
▁Six	-4785
▁enc	-4786
▁los	-4787
▁nic	-4788
▁oil	-4789
▁pal	-4790
▁sar	-4791
antic	-4792
ellig	-4793
heart	-4794
idden	-4795
isted	-4796
lands	-4797
▁Best	-4798
▁Coll	-4799
▁Hero	-4800
▁Kong	-4801
▁Mars	-4802
▁Seth	-4803
▁copy	-4804
▁join	-4805
▁nail	-4806
▁note	-4807
▁reck	-4808
ograph	-4809
▁Chair	-4810
▁Never	-4811
▁Tracy	-4812
▁cabin	-4813
▁crime	-4814
▁feels	-4815
▁pitch	-4816
▁relig	-4817
▁rings	-4818
▁smoke	-4819
▁speed	-4820
▁storm	-4821
▁talks	-4822
▁taste	-4823
▁thick	-4824
athered	-4825
▁Author	-4826
▁Portug	-4827
▁custom	-4828
▁fought	-4829
▁gently	-4830
▁jumped	-4831
▁orphan	-4832
▁papers	-4833
▁rights	-4834
▁Austral	-4835
▁Florida	-4836
▁anxious	-4837
▁clearly	-4838
▁courage	-4839
▁eagerly	-4840
▁product	-4841
▁regular	-4842
▁Actually	-4843
▁planning	-4844
▁tricycle	-4845
▁Valentine	-4846
▁obviously	-4847
▁surprised	-4848
▁absolutely	-4849
10	-4850
IL	-4851
cho	-4852
uay	-4853
▁Ac	-4854
▁Bu	-4855
atic	-4856
ause	-4857
chie	-4858
iety	-4859
pret	-4860
runs	-4861
uman	-4862
▁Jew	-4863
▁Met	-4864
▁RAF	-4865
▁Rem	-4866
▁dea	-4867
▁due	-4868
▁glo	-4869
▁log	-4870
▁pan	-4871
▁ups	-4872
▁van	-4873
ading	-4874
aming	-4875
asing	-4876
cious	-4877
iring	-4878
ively	-4879
ledge	-4880
otted	-4881
umber	-4882
▁Duke	-4883
▁Year	-4884
▁chug	-4885
▁coin	-4886
▁dish	-4887
▁drug	-4888
▁lies	-4889
▁meal	-4890
▁phil	-4891
▁ship	-4892
blican	-4893
contin	-4894
▁accom	-4895
▁babaa	-4896
▁bless	-4897
▁doors	-4898
▁grave	-4899
▁knife	-4900
▁lower	-4901
▁occup	-4902
▁occur	-4903
▁sides	-4904
▁steal	-4905
▁tells	-4906
agement	-4907
pitched	-4908
▁Cherry	-4909
▁advice	-4910
▁affair	-4911
▁birdie	-4912
▁budget	-4913
▁credit	-4914
▁formed	-4915
▁intend	-4916
▁narrow	-4917
▁prison	-4918
▁purple	-4919
▁scient	-4920
▁struck	-4921
▁victim	-4922
▁content	-4923
▁correct	-4924
▁goodbye	-4925
▁pleased	-4926
▁slipped	-4927
▁soldier	-4928
▁weather	-4929
▁bringing	-4930
▁fourteen	-4931
▁authority	-4932
▁breathing	-4933
▁excellent	-4934
▁discovered	-4935
DP	-4936
gn	-4937
ado	-4938
eds	-4939
itz	-4940
ste	-4941
vey	-4942
▁Lu	-4943
▁Sy	-4944
▁ta	-4945
Come	-4946
blin	-4947
gent	-4948
hire	-4949
iece	-4950
ploy	-4951
umph	-4952
ylum	-4953
▁Ken	-4954
▁Mil	-4955
▁Wal	-4956
▁dia	-4957
▁flo	-4958
▁mod	-4959
▁mor	-4960
▁ris	-4961
▁shh	-4962
▁tax	-4963
arily	-4964
ental	-4965
ertoy	-4966
heast	-4967
▁2011	-4968
▁Cast	-4969
▁Hong	-4970
▁Life	-4971
▁Wall	-4972
▁Wood	-4973
▁[1.4	-4974
▁[1.7	-4975
▁alto	-4976
▁bund	-4977
▁cars	-4978
▁cart	-4979
▁desp	-4980
▁glor	-4981
▁inqu	-4982
▁lear	-4983
▁padd	-4984
▁pile	-4985
▁pour	-4986
▁vers	-4987
icture	-4988
keeper	-4989
softly	-4990
▁Canad	-4991
▁areas	-4992
▁fixed	-4993
▁fract	-4994
▁grate	-4995
▁ninet	-4996
▁trade	-4997
▁value	-4998
removes	-4999
▁Palmer	-5000
▁centre	-5001
▁demand	-5002
▁length	-5003
▁ninety	-5004
▁normal	-5005
▁silent	-5006
▁stream	-5007
▁threat	-5008
▁tomato	-5009
chuckles	-5010
▁Constit	-5011
▁Villars	-5012
▁attract	-5013
▁feeding	-5014
▁formula	-5015
▁message	-5016
▁related	-5017
▁rocking	-5018
▁swallow	-5019
▁consider	-5020
▁gathered	-5021
▁material	-5022
▁original	-5023
▁province	-5024
▁scarcely	-5025
▁throwing	-5026
▁tinkertoy	-5027
▁Scholarship	-5028
AH	-5029
Ah	-5030
UL	-5031
00.	-5032
AKE	-5033
ESS	-5034
IST	-5035
Let	-5036
ads	-5037
ano	-5038
eed	-5039
esh	-5040
lic	-5041
tin	-5042
umn	-5043
▁NO	-5044
▁ir	-5045
Conn	-5046
Here	-5047
cast	-5048
eman	-5049
gins	-5050
ilty	-5051
inks	-5052
mend	-5053
unks	-5054
▁Acc	-5055
▁Bre	-5056
▁Cat	-5057
▁DON	-5058
▁Gar	-5059
▁Mat	-5060
▁RLF	-5061
▁Wed	-5062
▁gro	-5063
▁rac	-5064
▁uns	-5065
anced	-5066
aring	-5067
cture	-5068
light	-5069
sighs	-5070
urity	-5071
▁Land	-5072
▁Love	-5073
▁Many	-5074
▁Mond	-5075
▁[1.6	-5076
▁buck	-5077
▁choo	-5078
▁dess	-5079
▁rush	-5080
▁suck	-5081
▁ways	-5082
▁wore	-5083
nesday	-5084
nother	-5085
▁Becky	-5086
▁Berta	-5087
▁Clare	-5088
▁Death	-5089
▁Franc	-5090
▁Shawn	-5091
▁Uncle	-5092
▁faint	-5093
▁jelly	-5094
▁shook	-5095
▁shove	-5096
▁stren	-5097
▁swift	-5098
artment	-5099
fection	-5100
▁battle	-5101
▁guilty	-5102
▁indust	-5103
▁lifted	-5104
▁manner	-5105
▁social	-5106
▁tickle	-5107
▁Another	-5108
▁clatter	-5109
▁dessert	-5110
▁dialect	-5111
▁explain	-5112
▁glasses	-5113
▁greatly	-5114
▁growing	-5115
▁private	-5116
▁bathroom	-5117
▁checking	-5118
▁elephant	-5119
▁spending	-5120
▁delighted	-5121
▁mountains	-5122
"?	-5123
7)	-5124
ARD	-5125
bec	-5126
gly	-5127
ini	-5128
sit	-5129
▁BY	-5130
▁Ho	-5131
▁Wo	-5132
acon	-5133
draw	-5134
lymp	-5135
note	-5136
sych	-5137
▁Air	-5138
▁Dog	-5139
▁INV	-5140
▁Ron	-5141
▁Tod	-5142
▁Wel	-5143
▁ben	-5144
▁pic	-5145
▁pin	-5146
▁rag	-5147
▁rob	-5148
▁rom	-5149
▁sne	-5150
anted	-5151
enced	-5152
otion	-5153
▁(199	-5154
▁Alex	-5155
▁HAVE	-5156
▁Hold	-5157
▁YOUR	-5158
▁beds	-5159
▁coal	-5160
▁dirt	-5161
▁dumb	-5162
▁murm	-5163
▁perm	-5164
▁prim	-5165
friend	-5166
utches	-5167
▁Mount	-5168
▁Prize	-5169
▁Treat	-5170
▁buggy	-5171
▁cloth	-5172
▁comin	-5173
▁enter	-5174
▁fires	-5175
▁gimme	-5176
▁hasta	-5177
▁kinds	-5178
▁loose	-5179
▁loves	-5180
▁miser	-5181
▁pants	-5182
▁plane	-5183
▁rocks	-5184
▁scene	-5185
▁toast	-5186
▁trail	-5187
▁tryin	-5188
▁worst	-5189
ability	-5190
putting	-5191
reading	-5192
▁Before	-5193
▁Sunday	-5194
▁bridge	-5195
▁closer	-5196
▁farmer	-5197
▁horsie	-5198
▁mirror	-5199
▁shower	-5200
▁useful	-5201
▁writer	-5202
▁biggest	-5203
▁buffalo	-5204
▁century	-5205
▁earlier	-5206
▁founded	-5207
▁helping	-5208
▁journey	-5209
▁largest	-5210
▁numbers	-5211
▁section	-5212
▁sisters	-5213
▁weekend	-5214
▁Canadian	-5215
▁attached	-5216
▁mountain	-5217
▁officers	-5218
▁positive	-5219
▁practice	-5220
,'	-5221
Ch	-5222
NT	-5223
ev	-5224
ua	-5225
EST	-5226
aft	-5227
aly	-5228
aze	-5229
bet	-5230
dro	-5231
ett	-5232
gen	-5233
olf	-5234
sty	-5235
vet	-5236
▁Da	-5237
▁bi	-5238
This	-5239
anny	-5240
cean	-5241
etch	-5242
long	-5243
rawn	-5244
reek	-5245
▁186	-5246
▁188	-5247
▁24,	-5248
▁ARE	-5249
▁BUT	-5250
▁Lab	-5251
▁Mag	-5252
▁Mal	-5253
▁NOT	-5254
▁Rec	-5255
▁[.5	-5256
▁bat	-5257
▁cam	-5258
▁gal	-5259
▁por	-5260
▁sem	-5261
▁Anne	-5262
▁Book	-5263
▁Hall	-5264
▁LOVE	-5265
▁Mass	-5266
▁Move	-5267
▁Time	-5268
▁Turn	-5269
▁Urug	-5270
▁aged	-5271
▁army	-5272
▁desk	-5273
▁dust	-5274
▁harm	-5275
▁infl	-5276
▁mate	-5277
▁path	-5278
▁plat	-5279
▁pole	-5280
▁purs	-5281
brings	-5282
▁Gener	-5283
▁Olymp	-5284
▁Scott	-5285
▁calls	-5286
▁cents	-5287
▁comed	-5288
▁condu	-5289
▁drunk	-5290
▁jolly	-5291
▁keeps	-5292
▁knees	-5293
▁polic	-5294
▁price	-5295
▁quack	-5296
▁separ	-5297
▁songs	-5298
▁Bertha	-5299
▁Treaty	-5300
▁advant	-5301
▁apolog	-5302
▁breast	-5303
▁candid	-5304
▁cereal	-5305
▁desper	-5306
▁episod	-5307
▁invent	-5308
▁reckon	-5309
▁streng	-5310
▁Central	-5311
▁Uruguay	-5312
▁balance	-5313
▁bedroom	-5314
▁eastern	-5315
▁missing	-5316
▁picking	-5317
▁prevent	-5318
▁worried	-5319
▁Although	-5320
▁Japanese	-5321
▁families	-5322
▁included	-5323
▁magazine	-5324
▁nineteen	-5325
▁Represent	-5326
▁education	-5327
▁Department	-5328
▁Republican	-5329
▁downstairs	-5330
▁consumption	-5331
▁particularly	-5332
▁relationship	-5333
/0	-5334
5)	-5335
6)	-5336
9,	-5337
=2	-5338
AG	-5339
IC	-5340
RY	-5341
da	-5342
sm	-5343
RIL	-5344
arm	-5345
bow	-5346
box	-5347
ols	-5348
▁6,	-5349
▁7,	-5350
▁Bi	-5351
▁PL	-5352
▁Pa	-5353
▁SE	-5354
▁TV	-5355
▁[6	-5356
▁km	-5357
Amer	-5358
ROOG	-5359
]...	-5360
aroo	-5361
asks	-5362
hamp	-5363
hank	-5364
iant	-5365
inds	-5366
issa	-5367
orse	-5368
some	-5369
urse	-5370
uten	-5371
your	-5372
▁11,	-5373
▁16,	-5374
▁191	-5375
▁20,	-5376
▁Bes	-5377
▁COL	-5378
▁Fur	-5379
▁Hug	-5380
▁Isn	-5381
▁dim	-5382
▁fem	-5383
▁mos	-5384
▁row	-5385
abeth	-5386
acket	-5387
borah	-5388
isher	-5389
ishop	-5390
rance	-5391
ratul	-5392
turns	-5393
usion	-5394
▁(197	-5395
▁Chin	-5396
▁Gord	-5397
▁Mike	-5398
▁Rock	-5399
▁Step	-5400
▁barn	-5401
▁chem	-5402
▁duty	-5403
▁ener	-5404
▁item	-5405
▁pity	-5406
▁rout	-5407
▁rule	-5408
▁stom	-5409
▁weak	-5410
ashing	-5411
▁Dream	-5412
▁Hilda	-5413
▁MARCH	-5414
▁Momma	-5415
▁blame	-5416
▁bunny	-5417
▁chest	-5418
▁final	-5419
▁focus	-5420
▁frogs	-5421
▁match	-5422
▁mixed	-5423
▁pause	-5424
▁rapid	-5425
▁sales	-5426
onation	-5427
oratory	-5428
ossible	-5429
▁Russia	-5430
▁SCROOG	-5431
▁Truman	-5432
▁bitter	-5433
▁cousin	-5434
▁dishes	-5435
▁larger	-5436
▁lights	-5437
▁manage	-5438
▁merged	-5439
▁prepar	-5440
▁smooth	-5441
▁spoken	-5442
▁strike	-5443
▁washed	-5444
atherine	-5445
▁Council	-5446
▁Deborah	-5447
▁JANUARY	-5448
▁blanket	-5449
▁captain	-5450
▁knocked	-5451
▁knowing	-5452
▁underst	-5453
▁crutches	-5454
▁goodness	-5455
▁learning	-5456
▁opposite	-5457
▁touching	-5458
▁training	-5459
▁Wednesday	-5460
▁delicious	-5461
▁generally	-5462
▁necessary	-5463
▁ourselves	-5464
▁presently	-5465
▁statement	-5466
▁adventures	-5467
▁university	-5468
▁disappeared	-5469
▁Constitution	-5470
▁disappointed	-5471
▁International	-5472
AB	-5473
Be	-5474
PH	-5475
zh	-5476
abl	-5477
igr	-5478
pan	-5479
ubs	-5480
▁(,	-5481
▁Ur	-5482
▁ge	-5483
aled	-5484
back	-5485
gain	-5486
itan	-5487
rors	-5488
ture	-5489
▁Adm	-5490
▁Aud	-5491
▁Big	-5492
▁CON	-5493
▁Des	-5494
▁Lat	-5495
▁MAN	-5496
▁Mus	-5497
▁Nic	-5498
▁Put	-5499
▁Wil	-5500
▁sen	-5501
ciety	-5502
eller	-5503
found	-5504
idays	-5505
inger	-5506
oudon	-5507
worth	-5508
▁2022	-5509
▁Nyon	-5510
▁Poor	-5511
▁Stan	-5512
▁[1.8	-5513
▁agre	-5514
▁atte	-5515
▁butt	-5516
▁cage	-5517
▁chat	-5518
▁ends	-5519
▁evil	-5520
▁exer	-5521
▁fasc	-5522
▁gate	-5523
▁joke	-5524
▁leaf	-5525
▁stro	-5526
▁ugly	-5527
▁woof	-5528
Connor	-5529
acking	-5530
inking	-5531
morrow	-5532
phabet	-5533
▁2011,	-5534
▁APRIL	-5535
▁Bones	-5536
▁Green	-5537
▁bound	-5538
▁broom	-5539
▁issue	-5540
▁pulls	-5541
▁teach	-5542
angaroo	-5543
izabeth	-5544
▁Church	-5545
▁Doctor	-5546
▁Monday	-5547
▁border	-5548
▁borrow	-5549
▁fairly	-5550
▁fusses	-5551
▁grampa	-5552
▁hammer	-5553
▁paying	-5554
▁picnic	-5555
▁rushed	-5556
▁settle	-5557
ological	-5558
▁Brother	-5559
▁Francis	-5560
▁contact	-5561
▁destroy	-5562
▁nursery	-5563
▁restaur	-5564
▁rustles	-5565
▁shining	-5566
▁stepped	-5567
▁surface	-5568
▁willing	-5569
▁carriage	-5570
▁computer	-5571
▁feathers	-5572
▁independ	-5573
▁somewhat	-5574
▁inspector	-5575
▁newspaper	-5576
▁production	-5577
▁grandmother	-5578
▁opportunity	-5579
gu	-5580
ANK	-5581
URE	-5582
des	-5583
eff	-5584
ids	-5585
ios	-5586
▁Gl	-5587
▁II	-5588
▁Ir	-5589
▁SP	-5590
▁Up	-5591
▁ru	-5592
Just	-5593
akin	-5594
loud	-5595
rier	-5596
road	-5597
umps	-5598
with	-5599
▁189	-5600
▁Pot	-5601
▁Reg	-5602
▁Roy	-5603
▁Rus	-5604
▁Spr	-5605
▁coo	-5606
▁odd	-5607
▁wid	-5608
amily	-5609
comes	-5610
eable	-5611
erved	-5612
ights	-5613
istry	-5614
lliot	-5615
▁Care	-5616
▁Damn	-5617
▁FEBR	-5618
▁Fore	-5619
▁Fort	-5620
▁Girl	-5621
▁Play	-5622
▁Vagn	-5623
▁Vict	-5624
▁bold	-5625
▁bump	-5626
▁cult	-5627
▁dull	-5628
▁fart	-5629
▁sole	-5630
▁vast	-5631
basket	-5632
▁Booth	-5633
▁Claus	-5634
▁Dutch	-5635
▁Frank	-5636
▁Italy	-5637
▁Three	-5638
▁champ	-5639
▁elder	-5640
▁exerc	-5641
▁faith	-5642
▁freed	-5643
▁range	-5644
▁scrap	-5645
▁umbre	-5646
giggles	-5647
ilities	-5648
▁Freddy	-5649
▁Markus	-5650
▁Mexico	-5651
▁burned	-5652
▁escape	-5653
▁events	-5654
▁histor	-5655
▁hoping	-5656
▁introd	-5657
▁nearer	-5658
▁rabbit	-5659
▁Mexican	-5660
▁airport	-5661
▁figures	-5662
▁greater	-5663
▁individ	-5664
▁leading	-5665
▁percent	-5666
▁pitched	-5667
▁pushing	-5668
▁scratch	-5669
▁yelling	-5670
ification	-5671
▁FEBRUARY	-5672
▁becoming	-5673
▁presence	-5674
▁specific	-5675
▁concerned	-5676
▁apparently	-5677
▁laboratory	-5678
▁appropriate	-5679
!'	-5680
Br	-5681
Go	-5682
MP	-5683
Of	-5684
cu	-5685
lw	-5686
▁)	-5687
▁x	-5688
--"	-5689
AND	-5690
enn	-5691
hoh	-5692
low	-5693
ota	-5694
▁2:	-5695
▁MR	-5696
▁Ty	-5697
▁yo	-5698
amps	-5699
aped	-5700
down	-5701
erve	-5702
glas	-5703
irts	-5704
ping	-5705
rade	-5706
rows	-5707
west	-5708
▁14,	-5709
▁23,	-5710
▁Bol	-5711
▁Det	-5712
▁Fil	-5713
▁Haw	-5714
▁Kar	-5715
▁Neb	-5716
▁Ver	-5717
▁Wow	-5718
▁apt	-5719
▁bin	-5720
▁der	-5721
▁lem	-5722
▁rod	-5723
▁veh	-5724
affic	-5725
ardon	-5726
athol	-5727
chief	-5728
clear	-5729
ients	-5730
means	-5731
truck	-5732
▁1930	-5733
▁Buck	-5734
▁Cook	-5735
▁Each	-5736
▁Jose	-5737
▁Know	-5738
▁Last	-5739
▁Ryan	-5740
▁Shut	-5741
▁WITH	-5742
▁Wind	-5743
▁chee	-5744
▁cock	-5745
▁dise	-5746
▁emer	-5747
▁feat	-5748
▁jobs	-5749
▁loss	-5750
▁mile	-5751
▁oops	-5752
▁rese	-5753
▁rise	-5754
giving	-5755
icated	-5756
▁2020.	-5757
▁Honey	-5758
▁Princ	-5759
▁annoy	-5760
▁arran	-5761
▁aware	-5762
▁candy	-5763
▁choke	-5764
▁drawn	-5765
▁drove	-5766
▁eaten	-5767
▁forty	-5768
▁minor	-5769
▁novel	-5770
▁pages	-5771
▁puppy	-5772
▁react	-5773
▁roads	-5774
▁squee	-5775
▁tough	-5776
▁towns	-5777
▁youth	-5778
ibility	-5779
inating	-5780
western	-5781
▁Cathol	-5782
▁bodies	-5783
▁clever	-5784
▁gather	-5785
▁laughs	-5786
▁prefer	-5787
▁resign	-5788
▁sprang	-5789
▁travel	-5790
▁turkey	-5791
American	-5792
▁Besides	-5793
▁Charlie	-5794
▁Douglas	-5795
▁Spanish	-5796
▁address	-5797
▁central	-5798
▁instant	-5799
▁killing	-5800
▁managed	-5801
▁planned	-5802
▁release	-5803
▁ridicul	-5804
▁schools	-5805
▁smiling	-5806
▁stomach	-5807
▁traffic	-5808
▁whining	-5809
▁winning	-5810
continues	-5811
orporated	-5812
struction	-5813
▁Sharston	-5814
▁affected	-5815
▁alphabet	-5816
▁glorious	-5817
▁platform	-5818
▁produced	-5819
▁struggle	-5820
ustrations	-5821
▁Elizabeth	-5822
▁Louisiana	-5823
▁butterfly	-5824
▁conductor	-5825
▁gentlemen	-5826
▁mentioned	-5827
▁miserable	-5828
▁Government	-5829
▁expression	-5830
▁impossible	-5831
▁understood	-5832
▁wastebasket	-5833
9)	-5834
As	-5835
WN	-5836
sk	-5837
ENT	-5838
eno	-5839
ify	-5840
ila	-5841
lah	-5842
may	-5843
pet	-5844
rom	-5845
two	-5846
▁40	-5847
▁50	-5848
▁AS	-5849
▁Hu	-5850
▁SO	-5851
▁YE	-5852
▁av	-5853
aren	-5854
baby	-5855
bell	-5856
dern	-5857
eaks	-5858
hone	-5859
onge	-5860
orce	-5861
ples	-5862
real	-5863
rens	-5864
star	-5865
will	-5866
▁29,	-5867
▁BOY	-5868
▁Cup	-5869
▁Hmm	-5870
▁Hon	-5871
▁Jan	-5872
▁Kap	-5873
▁Sam	-5874
▁Tai	-5875
▁Yep	-5876
▁bee	-5877
▁dru	-5878
▁etc	-5879
▁hay	-5880
▁lod	-5881
▁obs	-5882
▁ole	-5883
▁ooh	-5884
▁sav	-5885
Where	-5886
cries	-5887
reras	-5888
roche	-5889
uated	-5890
▁Cons	-5891
▁Gran	-5892
▁Norm	-5893
▁Stay	-5894
▁adop	-5895
▁circ	-5896
▁cong	-5897
▁fant	-5898
▁gall	-5899
▁hill	-5900
▁imit	-5901
▁knee	-5902
▁nest	-5903
▁pine	-5904
▁scru	-5905
▁sons	-5906
▁tire	-5907
▁uhoh	-5908
begins	-5909
formed	-5910
ipping	-5911
urance	-5912
velope	-5913
▁Jenny	-5914
▁Jones	-5915
▁While	-5916
▁achie	-5917
▁blast	-5918
▁boxes	-5919
▁daisy	-5920
▁enemy	-5921
▁estim	-5922
▁hated	-5923
▁hurts	-5924
▁judge	-5925
▁owned	-5926
▁plans	-5927
▁shake	-5928
▁shape	-5929
▁spark	-5930
writing	-5931
▁Andrew	-5932
▁Cousin	-5933
▁Goblin	-5934
▁Health	-5935
▁Nobody	-5936
▁bundle	-5937
▁clicks	-5938
▁eighty	-5939
▁employ	-5940
▁garage	-5941
▁issues	-5942
▁kissed	-5943
▁reward	-5944
▁swings	-5945
▁undert	-5946
igerator	-5947
▁amazing	-5948
▁awarded	-5949
▁brownie	-5950
▁constit	-5951
▁forever	-5952
▁highest	-5953
▁motorcy	-5954
▁parties	-5955
▁passing	-5956
▁proceed	-5957
▁rolling	-5958
▁sending	-5959
▁streets	-5960
▁western	-5961
▁younger	-5962
▁Congress	-5963
▁Whatever	-5964
▁declared	-5965
▁mistress	-5966
▁property	-5967
▁recently	-5968
▁wondered	-5969
▁Contreras	-5970
▁assistant	-5971
▁companies	-5972
▁countries	-5973
▁knowledge	-5974
▁telephone	-5975
▁characters	-5976
▁intonation	-5977
▁organisations	-5978
mn	-5979
AIN	-5980
CLE	-5981
Jim	-5982
NOW	-5983
ORY	-5984
ROD	-5985
ael	-5986
erg	-5987
gin	-5988
hib	-5989
hio	-5990
iez	-5991
irk	-5992
isa	-5993
oto	-5994
pen	-5995
rim	-5996
▁4.	-5997
▁AG	-5998
▁CL	-5999
▁Cy	-6000
▁FA	-6001
▁GO	-6002
▁nk	-6003
aign	-6004
anch	-6005
blue	-6006
fter	-6007
ldow	-6008
liam	-6009
llen	-6010
tape	-6011
vert	-6012
▁10,	-6013
▁10:	-6014
▁17,	-6015
▁COM	-6016
▁DAY	-6017
▁Hol	-6018
▁Les	-6019
▁Mic	-6020
▁OUT	-6021
▁Say	-6022
▁blo	-6023
▁boo	-6024
▁bug	-6025
▁cor	-6026
▁fre	-6027
▁inf	-6028
▁tip	-6029
▁vac	-6030
ademy	-6031
esome	-6032
hamed	-6033
ierce	-6034
looks	-6035
▁Carl	-6036
▁Core	-6037
▁Next	-6038
▁Nice	-6039
▁Ohio	-6040
▁Sand	-6041
▁deaf	-6042
▁lege	-6043
▁meas	-6044
▁peel	-6045
▁salt	-6046
▁thou	-6047
▁trib	-6048
▁viol	-6049
Moudon	-6050
atient	-6051
ential	-6052
fortun	-6053
uccess	-6054
▁Chris	-6055
▁Georg	-6056
▁admir	-6057
▁boats	-6058
▁canal	-6059
▁cloud	-6060
▁clown	-6061
▁clunk	-6062
▁dying	-6063
▁kitty	-6064
▁noted	-6065
▁oblig	-6066
▁raise	-6067
▁refle	-6068
▁serve	-6069
▁sheep	-6070
▁total	-6071
▁trial	-6072
▁walls	-6073
ception	-6074
liament	-6075
reaches	-6076
stitute	-6077
▁Boston	-6078
▁Island	-6079
▁Joseph	-6080
▁Weener	-6081
▁acting	-6082
▁babies	-6083
▁banana	-6084
▁cities	-6085
▁decide	-6086
▁easier	-6087
▁favour	-6088
▁firmly	-6089
▁hiding	-6090
▁horrid	-6091
▁peanut	-6092
▁rising	-6093
▁severe	-6094
▁sleigh	-6095
▁sorrow	-6096
▁suffer	-6097
▁target	-6098
▁SCROOGE	-6099
▁ashamed	-6100
▁benefit	-6101
▁besides	-6102
▁didldow	-6103
▁farther	-6104
▁passion	-6105
▁pulling	-6106
▁purpose	-6107
▁session	-6108
▁various	-6109
▁attempts	-6110
▁breaking	-6111
▁campaign	-6112
▁creature	-6113
▁holidays	-6114
▁kangaroo	-6115
▁laughter	-6116
▁possibly	-6117
▁windmill	-6118
▁appointed	-6119
▁currently	-6120
▁firetruck	-6121
▁forgotten	-6122
▁suffering	-6123
▁therefore	-6124
▁wondering	-6125
▁Everything	-6126
▁vegetables	-6127
▁comfortable	-6128
ART	-6129
ROB	-6130
ara	-6131
ban	-6132
iel	-6133
lyn	-6134
pir	-6135
▁DE	-6136
▁Gi	-6137
▁Ju	-6138
▁ly	-6139
▁ry	-6140
IGHT	-6141
OULD	-6142
ador	-6143
azed	-6144
entr	-6145
illa	-6146
ippi	-6147
mbur	-6148
osen	-6149
outs	-6150
▁28,	-6151
▁Ayl	-6152
▁Bus	-6153
▁Den	-6154
▁Fro	-6155
▁Gre	-6156
▁Ire	-6157
▁Jay	-6158
▁Lel	-6159
▁Naz	-6160
▁OFF	-6161
▁SIS	-6162
▁Sil	-6163
▁Sol	-6164
▁cit	-6165
▁doc	-6166
▁dum	-6167
▁fal	-6168
▁wra	-6169
adder	-6170
berry	-6171
orses	-6172
ossom	-6173
ribut	-6174
riend	-6175
stead	-6176
uries	-6177
▁2017	-6178
▁Bush	-6179
▁Cool	-6180
▁Fuzh	-6181
▁JUST	-6182
▁Nort	-6183
▁Pink	-6184
▁Shit	-6185
▁Snow	-6186
▁chap	-6187
▁chip	-6188
▁clef	-6189
▁flew	-6190
▁fork	-6191
▁gain	-6192
▁gray	-6193
▁mock	-6194
▁prof	-6195
▁rode	-6196
▁torn	-6197
▁tour	-6198
▁wing	-6199
acific	-6200
apping	-6201
astern	-6202
iamond	-6203
lahoma	-6204
ources	-6205
pering	-6206
ptions	-6207
stands	-6208
ultane	-6209
writes	-6210
▁Billy	-6211
▁Carol	-6212
▁Field	-6213
▁Madam	-6214
▁Russo	-6215
▁Shall	-6216
▁THERE	-6217
▁banks	-6218
▁cheap	-6219
▁contr	-6220
▁defin	-6221
▁erase	-6222
▁folks	-6223
▁influ	-6224
▁joint	-6225
▁medal	-6226
▁nurse	-6227
▁plant	-6228
▁psych	-6229
▁shawl	-6230
▁sorts	-6231
▁tests	-6232
▁tribe	-6233
holding	-6234
plastic	-6235
▁Aylmer	-6236
▁Deputy	-6237
▁Laughs	-6238
▁Leaven	-6239
▁Marion	-6240
▁behavi	-6241
▁cheeks	-6242
▁colour	-6243
▁energy	-6244
▁forced	-6245
▁hambur	-6246
▁hearts	-6247
▁loudly	-6248
▁motion	-6249
▁passes	-6250
▁patter	-6251
▁poison	-6252
▁ribbon	-6253
▁shovel	-6254
▁stores	-6255
▁territ	-6256
▁weapon	-6257
▁wicked	-6258
gressive	-6259
▁Captain	-6260
▁Chinese	-6261
▁General	-6262
▁Ireland	-6263
▁Special	-6264
▁bicycle	-6265
▁changes	-6266
▁forgive	-6267
▁invited	-6268
▁opening	-6269
▁shouted	-6270
▁touched	-6271
▁Oklahoma	-6272
▁Remember	-6273
▁activity	-6274
▁addition	-6275
▁contract	-6276
▁delivery	-6277
▁friendly	-6278
▁grateful	-6279
▁previous	-6280
▁properly	-6281
▁Secretary	-6282
▁advantage	-6283
▁adventure	-6284
▁condition	-6285
▁dangerous	-6286
▁interrupt	-6287
▁otherwise	-6288
▁ridiculous	-6289
▁Leavenworth	-6290
▁performance	-6291
-1	-6292
30	-6293
ja	-6294
tt	-6295
ACK	-6296
Can	-6297
OOD	-6298
bra	-6299
cee	-6300
kel	-6301
kyo	-6302
olk	-6303
see	-6304
usa	-6305
▁32	-6306
▁8,	-6307
▁8:	-6308
▁9,	-6309
▁Es	-6310
▁ok	-6311
▁ol	-6312
acco	-6313
appy	-6314
ateg	-6315
iest	-6316
itor	-6317
izza	-6318
orge	-6319
then	-6320
walk	-6321
wers	-6322
when	-6323
▁13,	-6324
▁22,	-6325
▁Alf	-6326
▁Est	-6327
▁Far	-6328
▁Inv	-6329
▁Lie	-6330
▁Mur	-6331
▁Pre	-6332
▁Sal	-6333
▁Try	-6334
▁git	-6335
▁lob	-6336
▁raz	-6337
▁woo	-6338
Thank	-6339
eremy	-6340
gency	-6341
izing	-6342
piece	-6343
pless	-6344
reeze	-6345
stein	-6346
ummer	-6347
uties	-6348
▁(196	-6349
▁Both	-6350
▁Bozo	-6351
▁Didn	-6352
▁Dude	-6353
▁Fire	-6354
▁Fitz	-6355
▁LOOK	-6356
▁Lake	-6357
▁Make	-6358
▁Male	-6359
▁Vice	-6360
▁[2.2	-6361
▁bass	-6362
▁cher	-6363
▁chew	-6364
▁male	-6365
▁murd	-6366
▁opin	-6367
▁sigh	-6368
▁susp	-6369
▁terr	-6370
▁vice	-6371
▁woke	-6372
acious	-6373
ainian	-6374
ements	-6375
ension	-6376
ervous	-6377
heriff	-6378
horses	-6379
illing	-6380
ouches	-6381
rochee	-6382
▁2013,	-6383
▁Kelly	-6384
▁Maria	-6385
▁Still	-6386
▁THANK	-6387
▁Tokyo	-6388
▁UNCLE	-6389
▁chase	-6390
▁daily	-6391
▁disag	-6392
▁ident	-6393
▁impro	-6394
▁journ	-6395
▁mines	-6396
▁pizza	-6397
▁rooms	-6398
▁staff	-6399
▁style	-6400
▁suffe	-6401
lfriend	-6402
strange	-6403
▁Fuzhou	-6404
▁Leland	-6405
▁Minley	-6406
▁Series	-6407
▁Square	-6408
▁Taiwan	-6409
▁active	-6410
▁afford	-6411
▁appeal	-6412
▁closet	-6413
▁degree	-6414
▁dispos	-6415
▁eleven	-6416
▁failed	-6417
▁female	-6418
▁forest	-6419
▁fortun	-6420
▁mainly	-6421
▁mechan	-6422
▁merely	-6423
▁oldest	-6424
▁powder	-6425
▁pushes	-6426
▁remove	-6427
▁stands	-6428
▁tender	-6429
▁wildly	-6430
critique	-6431
iversary	-6432
▁Kingdom	-6433
▁Melissa	-6434
▁Profess	-6435
▁buttons	-6436
▁comment	-6437
▁disease	-6438
▁extreme	-6439
▁failure	-6440
▁funeral	-6441
▁manager	-6442
▁moments	-6443
▁science	-6444
▁suspect	-6445
▁theatre	-6446
▁unknown	-6447
sociation	-6448
▁Everyone	-6449
▁Southern	-6450
▁attacked	-6451
▁doughnut	-6452
▁intended	-6453
▁listened	-6454
▁strength	-6455
▁telegram	-6456
▁umbrella	-6457
▁Brazilian	-6458
▁basically	-6459
▁fireplace	-6460
▁impatient	-6461
▁neighbour	-6462
▁utterance	-6463
▁officially	-6464
▁anniversary	-6465
PS	-6466
Are	-6467
HER	-6468
OUT	-6469
azz	-6470
bly	-6471
cod	-6472
ito	-6473
oft	-6474
pot	-6475
rus	-6476
sec	-6477
win	-6478
▁Ev	-6479
▁OH	-6480
▁ej	-6481
▁gh	-6482
▁ou	-6483
HROD	-6484
UCKY	-6485
Your	-6486
ahdr	-6487
bird	-6488
call	-6489
from	-6490
hall	-6491
hand	-6492
hole	-6493
mont	-6494
oned	-6495
onom	-6496
oons	-6497
pill	-6498
rank	-6499
ruct	-6500
ware	-6501
year	-6502
▁185	-6503
▁25,	-6504
▁Got	-6505
▁Gou	-6506
▁Hal	-6507
▁Lau	-6508
▁Men	-6509
▁Nav	-6510
▁Out	-6511
▁Sch	-6512
▁Tur	-6513
▁amb	-6514
▁fee	-6515
▁ink	-6516
▁net	-6517
▁saf	-6518
▁shy	-6519
▁wal	-6520
▁wit	-6521
▁yup	-6522
Brown	-6523
Cause	-6524
aging	-6525
build	-6526
estly	-6527
going	-6528
illed	-6529
opher	-6530
▁1990	-6531
▁2010	-6532
▁2013	-6533
▁Andy	-6534
▁Crim	-6535
▁Dear	-6536
▁José	-6537
▁Nico	-6538
▁bugs	-6539
▁depe	-6540
▁pork	-6541
▁pros	-6542
▁pudd	-6543
▁pupp	-6544
▁spin	-6545
▁trad	-6546
icient	-6547
ranger	-6548
unting	-6549
▁2016,	-6550
▁Betty	-6551
▁Bobby	-6552
▁Brown	-6553
▁Corey	-6554
▁Early	-6555
▁Emcee	-6556
▁Looks	-6557
▁STORY	-6558
▁Susan	-6559
▁Today	-6560
▁Tommy	-6561
▁bench	-6562
▁blows	-6563
▁bones	-6564
▁branc	-6565
▁claim	-6566
▁drops	-6567
▁enorm	-6568
▁fired	-6569
▁fully	-6570
▁guard	-6571
▁mayor	-6572
▁prove	-6573
▁scare	-6574
▁steam	-6575
▁title	-6576
▁uncom	-6577
▁upset	-6578
ahdrusa	-6579
ishment	-6580
silence	-6581
utenant	-6582
▁APHROD	-6583
▁Columb	-6584
▁Donald	-6585
▁Justin	-6586
▁Loring	-6587
▁Philip	-6588
▁Prince	-6589
▁Victor	-6590
▁arrows	-6591
▁artist	-6592
▁bloody	-6593
▁compos	-6594
▁decent	-6595
▁desert	-6596
▁drinks	-6597
▁driver	-6598
▁easily	-6599
▁ejacul	-6600
▁eraser	-6601
▁gettin	-6602
▁marvel	-6603
▁parrot	-6604
▁relief	-6605
▁remain	-6606
▁riding	-6607
▁seated	-6608
▁sleepy	-6609
▁stairs	-6610
aterpill	-6611
singsong	-6612
▁Edition	-6613
▁Mississ	-6614
▁Pacific	-6615
▁Someone	-6616
▁ability	-6617
▁awfully	-6618
▁becomes	-6619
▁belongs	-6620
▁blossom	-6621
▁closely	-6622
▁command	-6623
▁crossed	-6624
▁deliver	-6625
▁diamond	-6626
▁farmers	-6627
▁foolish	-6628
▁hearing	-6629
▁package	-6630
▁painted	-6631
▁rapidly	-6632
▁results	-6633
▁showing	-6634
▁sounded	-6635
▁studies	-6636
▁totally	-6637
horseshoe	-6638
icultural	-6639
▁Children	-6640
▁belonged	-6641
▁concentr	-6642
▁crawling	-6643
▁feelings	-6644
▁function	-6645
▁midnight	-6646
▁northern	-6647
▁producer	-6648
▁remarked	-6649
▁slightly	-6650
▁squirrel	-6651
▁suffered	-6652
▁visitors	-6653
▁addressed	-6654
▁boyfriend	-6655
▁hamburger	-6656
▁recording	-6657
▁resources	-6658
▁APHRODUCKY	-6659
▁altogether	-6660
▁appreciate	-6661
▁conference	-6662
▁experiment	-6663
▁swingswing	-6664
▁neighborhood	-6665
▁occasionally	-6666
UP	-6667
DIA	-6668
LIS	-6669
One	-6670
akh	-6671
eat	-6672
fin	-6673
ija	-6674
ima	-6675
ims	-6676
inn	-6677
kov	-6678
yal	-6679
▁4]	-6680
▁7:	-6681
▁AR	-6682
▁Ts	-6683
▁nt	-6684
HING	-6685
book	-6686
etle	-6687
fall	-6688
heim	-6689
iano	-6690
ingu	-6691
itar	-6692
kins	-6693
lets	-6694
ogue	-6695
omed	-6696
rass	-6697
raul	-6698
thew	-6699
tree	-6700
umes	-6701
wait	-6702
▁1.5	-6703
▁100	-6704
▁180	-6705
▁Art	-6706
▁Bay	-6707
▁CAN	-6708
▁Del	-6709
▁Fed	-6710
▁HOW	-6711
▁Kaz	-6712
▁Yam	-6713
▁[6.	-6714
▁avo	-6715
▁bon	-6716
▁jet	-6717
▁jew	-6718
▁lat	-6719
▁laz	-6720
ITTLE	-6721
eping	-6722
eterm	-6723
happy	-6724
iance	-6725
icken	-6726
illon	-6727
irsty	-6728
iting	-6729
iture	-6730
leans	-6731
ocked	-6732
ounce	-6733
raska	-6734
roniz	-6735
talks	-6736
which	-6737
▁(200	-6738
▁Aunt	-6739
▁Bart	-6740
▁Dart	-6741
▁Four	-6742
▁Holy	-6743
▁KNOW	-6744
▁Long	-6745
▁Swed	-6746
▁[3.5	-6747
▁beer	-6748
▁boss	-6749
▁clay	-6750
▁clop	-6751
▁cube	-6752
▁cups	-6753
▁curt	-6754
▁goal	-6755
▁heat	-6756
▁pail	-6757
▁rang	-6758
▁rope	-6759
▁runs	-6760
▁sake	-6761
▁slip	-6762
▁sock	-6763
▁stem	-6764
▁toss	-6765
▁unif	-6766
▁vain	-6767
▁wine	-6768
codile	-6769
orough	-6770
ousins	-6771
ursday	-6772
writer	-6773
▁2017.	-6774
▁Group	-6775
▁Humph	-6776
▁Jerry	-6777
▁Jimmy	-6778
▁Latin	-6779
▁Mayor	-6780
▁Mouse	-6781
▁Speak	-6782
▁autom	-6783
▁bored	-6784
▁citiz	-6785
▁dolls	-6786
▁dolly	-6787
▁drama	-6788
▁finds	-6789
▁hesit	-6790
▁horiz	-6791
▁messy	-6792
▁pride	-6793
▁skiff	-6794
▁spect	-6795
▁teams	-6796
▁weary	-6797
gewater	-6798
▁Family	-6799
▁Frosty	-6800
▁Furber	-6801
▁LITTLE	-6802
▁Police	-6803
▁Valley	-6804
▁Wonder	-6805
▁clunks	-6806
▁keeper	-6807
▁mighty	-6808
▁origin	-6809
▁pushed	-6810
▁safety	-6811
▁screen	-6812
▁source	-6813
▁sticky	-6814
▁tennis	-6815
▁treaty	-6816
▁Academy	-6817
▁African	-6818
▁Arroniz	-6819
▁Britain	-6820
▁College	-6821
▁Philipp	-6822
▁Stephen	-6823
▁express	-6824
▁murdere	-6825
▁ordered	-6826
▁returns	-6827
▁setting	-6828
▁seventy	-6829
▁sixteen	-6830
▁version	-6831
▁whipped	-6832
▁Catholic	-6833
▁Humphrey	-6834
▁Probably	-6835
▁Thursday	-6836
▁branches	-6837
▁catching	-6838
▁cheerful	-6839
▁compound	-6840
▁crackers	-6841
▁entirely	-6842
▁envelope	-6843
▁imagined	-6844
▁includes	-6845
▁magician	-6846
▁negative	-6847
▁powerful	-6848
▁protests	-6849
▁reported	-6850
▁Christian	-6851
▁crocodile	-6852
▁developed	-6853
▁expensive	-6854
▁insurance	-6855
▁Buckingham	-6856
▁ejaculated	-6857
▁girlfriend	-6858
▁Mississippi	-6859
▁fascinating	-6860
▁administration	-6861
▁responsibility	-6862
▁Representatives	-6863
-2	-6864
50	-6865
80	-6866
Cl	-6867
FE	-6868
IP	-6869
KE	-6870
WE	-6871
—"	-6872
’,	-6873
▁;	-6874
ALE	-6875
ARS	-6876
AUG	-6877
IND	-6878
INE	-6879
ISS	-6880
OHN	-6881
ali	-6882
dri	-6883
hia	-6884
lar	-6885
ole	-6886
olo	-6887
oul	-6888
pro	-6889
riz	-6890
zed	-6891
zes	-6892
▁7]	-6893
▁Li	-6894
▁UK	-6895
▁UP	-6896
▁cy	-6897
▁mi	-6898
▁rs	-6899
▁si	-6900
Look	-6901
ader	-6902
also	-6903
comm	-6904
ding	-6905
foot	-6906
hips	-6907
inny	-6908
inth	-6909
issy	-6910
nick	-6911
orne	-6912
ucky	-6913
vard	-6914
voir	-6915
▁18,	-6916
▁27,	-6917
▁Ain	-6918
▁Bea	-6919
▁Bud	-6920
▁Dar	-6921
▁Dis	-6922
▁GET	-6923
▁Hir	-6924
▁Hyd	-6925
▁JRA	-6926
▁Jon	-6927
▁Mmm	-6928
▁NOW	-6929
▁Rad	-6930
▁TRE	-6931
▁WOR	-6932
▁bou	-6933
▁bub	-6934
▁dig	-6935
▁fox	-6936
▁gle	-6937
▁roo	-6938
▁sac	-6939
▁sna	-6940
▁tad	-6941
▁wig	-6942
▁yum	-6943
icago	-6944
icing	-6945
lling	-6946
lying	-6947
omers	-6948
oured	-6949
still	-6950
ufact	-6951
under	-6952
while	-6953
▁2000	-6954
▁2014	-6955
▁Club	-6956
▁Fern	-6957
▁Hugo	-6958
▁[2.5	-6959
▁[2.7	-6960
▁bast	-6961
▁bits	-6962
▁chop	-6963
▁dude	-6964
▁fund	-6965
▁hast	-6966
▁kite	-6967
▁loaf	-6968
▁nodd	-6969
▁ntuu	-6970
▁ours	-6971
▁penn	-6972
▁pige	-6973
▁sale	-6974
▁site	-6975
▁stol	-6976
▁symb	-6977
▁tank	-6978
▁thir	-6979
coming	-6980
inence	-6981
noises	-6982
object	-6983
raulic	-6984
sounds	-6985
stacks	-6986
▁Katie	-6987
▁Kevin	-6988
▁Maple	-6989
▁Norma	-6990
▁Simps	-6991
▁Teddy	-6992
▁Whitt	-6993
▁armed	-6994
▁beach	-6995
▁cakes	-6996
▁conse	-6997
▁decor	-6998
▁drugs	-6999
▁ducks	-7000
▁exist	-7001
▁habit	-7002
▁hills	-7003
▁onion	-7004
▁pregn	-7005
▁prior	-7006
▁quart	-7007
▁recom	-7008
▁signs	-7009
▁sixty	-7010
▁slept	-7011
▁spare	-7012
▁stead	-7013
▁uninc	-7014
▁Alfred	-7015
▁Argent	-7016
▁Crimea	-7017
▁Econom	-7018
▁Missus	-7019
▁Person	-7020
▁asylum	-7021
▁cellar	-7022
▁dining	-7023
▁forces	-7024
▁legend	-7025
▁loving	-7026
▁memory	-7027
▁parade	-7028
▁parlor	-7029
▁plains	-7030
▁priest	-7031
▁quarts	-7032
▁racing	-7033
▁rattle	-7034
▁retire	-7035
▁rolled	-7036
▁sponge	-7037
▁stared	-7038
▁suburb	-7039
▁winner	-7040
▁Indiana	-7041
▁Matthew	-7042
▁Western	-7043
▁advance	-7044
▁answers	-7045
▁barking	-7046
▁channel	-7047
▁dresses	-7048
▁enjoyed	-7049
▁freedom	-7050
▁jumping	-7051
▁leaning	-7052
▁matches	-7053
▁opinion	-7054
▁ribbons	-7055
▁ringing	-7056
▁settled	-7057
▁shortly	-7058
▁society	-7059
▁spilled	-7060
▁studied	-7061
▁uttered	-7062
▁whistle	-7063
ultaneous	-7064
▁Mahdrusa	-7065
▁Northern	-7066
▁bouillon	-7067
▁changing	-7068
▁executed	-7069
▁helpless	-7070
▁horrible	-7071
▁incident	-7072
▁manufact	-7073
▁ordinary	-7074
▁particip	-7075
▁services	-7076
▁shouting	-7077
▁students	-7078
▁Administr	-7079
▁Everybody	-7080
▁Hydraulic	-7081
▁seventeen	-7082
ratulations	-7083
▁Revolution	-7084
▁appearance	-7085
▁everywhere	-7086
▁motorcycle	-7087
▁previously	-7088
▁illustrations	-7089
▁unincorporated	-7090
----------------	-7091
7/	-7092
Gu	-7093
Mr	-7094
Ne	-7095
OS	-7096
PL	-7097
ga	-7098
xy	-7099
yy	-7100
Did	-7101
LES	-7102
bby	-7103
cup	-7104
hal	-7105
haw	-7106
hui	-7107
idy	-7108
ili	-7109
lsa	-7110
nie	-7111
osh	-7112
ref	-7113
ulf	-7114
who	-7115
▁5:	-7116
▁GU	-7117
▁JO	-7118
▁OR	-7119
▁Pu	-7120
▁Ss	-7121
▁Ut	-7122
▁ax	-7123
▁oo	-7124
abel	-7125
amin	-7126
anna	-7127
cony	-7128
erry	-7129
etts	-7130
ifts	-7131
ldom	-7132
made	-7133
yram	-7134
▁15,	-7135
▁Bow	-7136
▁Bur	-7137
▁Cam	-7138
▁GOT	-7139
▁III	-7140
▁Jac	-7141
▁Lee	-7142
▁Obl	-7143
▁Ord	-7144
▁Pop	-7145
▁Sci	-7146
▁Sub	-7147
▁Ten	-7148
▁Val	-7149
▁aye	-7150
▁flu	-7151
▁sin	-7152
▁tob	-7153
▁toe	-7154
▁ugh	-7155
Hello	-7156
achus	-7157
adium	-7158
arant	-7159
asses	-7160
elled	-7161
emois	-7162
gging	-7163
indic	-7164
inton	-7165
nette	-7166
onstr	-7167
owing	-7168
video	-7169
▁1960	-7170
▁Base	-7171
▁Brun	-7172
▁Clip	-7173
▁Cold	-7174
▁Film	-7175
▁Foot	-7176
▁Hang	-7177
▁Pope	-7178
▁Scot	-7179
▁[2.3	-7180
▁bord	-7181
▁cash	-7182
▁coon	-7183
▁cows	-7184
▁drip	-7185
▁fare	-7186
▁forb	-7187
▁godd	-7188
▁impe	-7189
▁jail	-7190
▁laws	-7191
▁rece	-7192
▁slee	-7193
▁symp	-7194
▁trem	-7195
▁worm	-7196
Little	-7197
blocks	-7198
bourne	-7199
ealous	-7200
rosoph	-7201
unning	-7202
▁2014.	-7203
▁2020,	-7204
▁Again	-7205
▁Champ	-7206
▁Elton	-7207
▁Karen	-7208
▁Offic	-7209
▁Perro	-7210
▁Young	-7211
▁admit	-7212
▁aloud	-7213
▁bacon	-7214
▁brush	-7215
▁categ	-7216
▁concl	-7217
▁crown	-7218
▁instr	-7219
▁media	-7220
▁merry	-7221
▁ofthe	-7222
▁rules	-7223
▁split	-7224
▁swear	-7225
▁sword	-7226
▁tempt	-7227
▁tires	-7228
▁troll	-7229
▁types	-7230
ignment	-7231
redible	-7232
talking	-7233
▁Gordon	-7234
▁Jeremy	-7235
▁Master	-7236
▁Sweets	-7237
▁actual	-7238
▁buried	-7239
▁buying	-7240
▁chosen	-7241
▁client	-7242
▁comedy	-7243
▁damage	-7244
▁dotted	-7245
▁dumped	-7246
▁encour	-7247
▁gotten	-7248
▁hollow	-7249
▁island	-7250
▁ladder	-7251
▁modern	-7252
▁poetry	-7253
▁satisf	-7254
▁saving	-7255
▁seldom	-7256
▁states	-7257
▁ticket	-7258
▁tracks	-7259
▁tribes	-7260
▁wooden	-7261
▁Chicago	-7262
▁Exactly	-7263
▁Univers	-7264
▁Welcome	-7265
▁actions	-7266
▁blowing	-7267
▁briefly	-7268
▁compass	-7269
▁conduct	-7270
▁curious	-7271
▁fortune	-7272
▁intense	-7273
▁limited	-7274
▁matters	-7275
▁nervous	-7276
▁pencils	-7277
▁players	-7278
▁pumpkin	-7279
▁seconds	-7280
▁secrets	-7281
▁selling	-7282
▁snowman	-7283
▁tobacco	-7284
▁washing	-7285
achusetts	-7286
emoiselle	-7287
▁Fielding	-7288
▁chickens	-7289
▁dreadful	-7290
▁eighteen	-7291
▁exercise	-7292
▁instance	-7293
▁invasion	-7294
▁musician	-7295
▁realized	-7296
▁surround	-7297
▁According	-7298
▁Australia	-7299
▁Committee	-7300
▁Professor	-7301
▁Whittaker	-7302
▁entertain	-7303
▁extremely	-7304
▁policeman	-7305
▁practical	-7306
▁recommend	-7307
▁basketball	-7308
▁management	-7309
▁businessman	-7310
▁development	-7311
▁represented	-7312
▁Massachusetts	-7313
▁environmental	-7314
▁international	-7315
37	-7316
WS	-7317
pa	-7318
2,2	-7319
3),	-7320
Eve	-7321
ILD	-7322
Who	-7323
ahn	-7324
aks	-7325
ati	-7326
aws	-7327
cat	-7328
eps	-7329
eta	-7330
iat	-7331
ira	-7332
nan	-7333
ona	-7334
sis	-7335
umm	-7336
yes	-7337
▁1:	-7338
▁9:	-7339
▁Fo	-7340
▁Ru	-7341
▁Ub	-7342
...?	-7343
REAM	-7344
arms	-7345
asty	-7346
away	-7347
ebed	-7348
harm	-7349
high	-7350
ieve	-7351
igen	-7352
ores	-7353
othe	-7354
rily	-7355
taps	-7356
unts	-7357
uous	-7358
▁11:	-7359
▁12:	-7360
▁Atl	-7361
▁Cry	-7362
▁Div	-7363
▁Dom	-7364
▁HIS	-7365
▁Hor	-7366
▁SHE	-7367
▁Sem	-7368
▁Tak	-7369
▁Tay	-7370
▁Tip	-7371
▁Wha	-7372
▁bra	-7373
▁cel	-7374
▁ess	-7375
▁fle	-7376
▁inn	-7377
▁las	-7378
▁pry	-7379
▁tim	-7380
▁tin	-7381
▁unc	-7382
▁une	-7383
allel	-7384
arras	-7385
dozer	-7386
drops	-7387
ented	-7388
eters	-7389
inter	-7390
peror	-7391
ridge	-7392
trees	-7393
uitar	-7394
uster	-7395
zzing	-7396
▁(198	-7397
▁1970	-7398
▁1994	-7399
▁2005	-7400
▁2016	-7401
▁Anim	-7402
▁Back	-7403
▁Eric	-7404
▁GOOD	-7405
▁Kyle	-7406
▁Mori	-7407
▁Prod	-7408
▁Show	-7409
▁Tall	-7410
▁Wild	-7411
▁ages	-7412
▁aver	-7413
▁bent	-7414
▁blew	-7415
▁capt	-7416
▁caut	-7417
▁chih	-7418
▁clam	-7419
▁cris	-7420
▁fanc	-7421
▁inno	-7422
▁lets	-7423
▁lick	-7424
▁magn	-7425
▁maid	-7426
▁pist	-7427
▁prec	-7428
▁pron	-7429
▁puff	-7430
▁shed	-7431
▁tube	-7432
▁ward	-7433
▁wave	-7434
ebedee	-7435
ective	-7436
ervoir	-7437
istent	-7438
ivered	-7439
uments	-7440
▁2018,	-7441
▁2021.	-7442
▁Basin	-7443
▁Check	-7444
▁Earth	-7445
▁Goumo	-7446
▁Happy	-7447
▁Horne	-7448
▁Hurry	-7449
▁Irish	-7450
▁RIGHT	-7451
▁Royal	-7452
▁adult	-7453
▁avail	-7454
▁backs	-7455
▁bands	-7456
▁beans	-7457
▁blind	-7458
▁brand	-7459
▁cases	-7460
▁drift	-7461
▁error	-7462
▁flash	-7463
▁flesh	-7464
▁glove	-7465
▁goods	-7466
▁guide	-7467
▁hoped	-7468
▁ideas	-7469
▁ketch	-7470
▁legal	-7471
▁makin	-7472
▁route	-7473
▁sadly	-7474
▁sauce	-7475
▁sheet	-7476
▁shown	-7477
▁sings	-7478
▁souls	-7479
▁stays	-7480
▁steak	-7481
▁stiff	-7482
▁stole	-7483
ensburg	-7484
ferring	-7485
ologist	-7486
ributed	-7487
washers	-7488
▁Shadow	-7489
▁Territ	-7490
▁Wallis	-7491
▁Walrus	-7492
▁apples	-7493
▁cooked	-7494
▁cotton	-7495
▁detail	-7496
▁determ	-7497
▁flight	-7498
▁highly	-7499
▁horror	-7500
▁immigr	-7501
▁latter	-7502
▁marker	-7503
▁native	-7504
▁nothin	-7505
▁notion	-7506
▁pantry	-7507
▁sports	-7508
▁vision	-7509
elsarras	-7510
▁Command	-7511
▁Georgia	-7512
▁Municip	-7513
▁Picture	-7514
▁Without	-7515
▁article	-7516
▁balcony	-7517
▁colored	-7518
▁fairies	-7519
▁finding	-7520
▁jealous	-7521
▁letting	-7522
▁reasons	-7523
▁regions	-7524
▁serving	-7525
▁steamer	-7526
▁thirsty	-7527
▁treated	-7528
▁uniform	-7529
▁victory	-7530
▁winding	-7531
▁Hospital	-7532
▁Nebraska	-7533
▁Olympics	-7534
▁arranged	-7535
▁behavior	-7536
▁delicate	-7537
▁designed	-7538
▁electric	-7539
▁episodes	-7540
▁multiple	-7541
▁muttered	-7542
▁referent	-7543
▁shooting	-7544
▁southern	-7545
▁stopping	-7546
▁thankyou	-7547
▁troubles	-7548
▁whispers	-7549
orporation	-7550
▁Edgewater	-7551
▁Reservoir	-7552
▁affection	-7553
▁alongside	-7554
▁apologize	-7555
▁bulldozer	-7556
▁doughnuts	-7557
▁household	-7558
▁marvelous	-7559
▁programme	-7560
▁religious	-7561
▁Parliament	-7562
▁activities	-7563
▁approached	-7564
▁companions	-7565
▁delightful	-7566
▁disappoint	-7567
▁discussion	-7568
▁journalist	-7569
▁successful	-7570
At	-7571
CO	-7572
To	-7573
UE	-7574
bi	-7575
ov	-7576
ti	-7577
ér	-7578
(19	-7579
.’”	-7580
BLE	-7581
CON	-7582
NIE	-7583
OOR	-7584
PER	-7585
erk	-7586
min	-7587
nia	-7588
sed	-7589
sim	-7590
▁45	-7591
▁4:	-7592
▁6:	-7593
▁AM	-7594
▁FB	-7595
▁Sa	-7596
▁[7	-7597
acle	-7598
airy	-7599
amen	-7600
aret	-7601
burn	-7602
coma	-7603
edly	-7604
fire	-7605
folk	-7606
harf	-7607
liad	-7608
nsyl	-7609
opes	-7610
oshi	-7611
rase	-7612
rers	-7613
sect	-7614
ubes	-7615
ussy	-7616
vant	-7617
wall	-7618
word	-7619
▁15:	-7620
▁17:	-7621
▁26,	-7622
▁30,	-7623
▁Ald	-7624
▁Ele	-7625
▁Has	-7626
▁Jam	-7627
▁MON	-7628
▁Saf	-7629
▁Tha	-7630
▁Thi	-7631
▁Tra	-7632
▁UDP	-7633
▁aud	-7634
▁ble	-7635
▁cas	-7636
▁cig	-7637
▁dip	-7638
▁hen	-7639
▁mel	-7640
▁nom	-7641
▁pup	-7642
▁rum	-7643
▁unf	-7644
▁yyy	-7645
addle	-7646
chard	-7647
gives	-7648
iches	-7649
irgin	-7650
noise	-7651
orial	-7652
orter	-7653
vania	-7654
▁2012	-7655
▁Aust	-7656
▁Bang	-7657
▁Camp	-7658
▁Chat	-7659
▁Comp	-7660
▁Elsa	-7661
▁Home	-7662
▁Hope	-7663
▁Jake	-7664
▁Moon	-7665
▁Morn	-7666
▁Must	-7667
▁Open	-7668
▁Pass	-7669
▁Prov	-7670
▁Rose	-7671
▁Sing	-7672
▁[2.4	-7673
▁[3.4	-7674
▁asks	-7675
▁bore	-7676
▁chin	-7677
▁diss	-7678
▁eats	-7679
▁grey	-7680
▁grin	-7681
▁hits	-7682
▁init	-7683
▁lazy	-7684
▁math	-7685
▁meek	-7686
▁oven	-7687
▁papa	-7688
▁plun	-7689
▁pure	-7690
▁rank	-7691
▁rare	-7692
▁sang	-7693
▁tack	-7694
▁task	-7695
▁trop	-7696
▁unus	-7697
▁vent	-7698
▁vote	-7699
▁wise	-7700
▁wret	-7701
▁zone	-7702
(192,2	-7703
choing	-7704
ensity	-7705
lessly	-7706
rences	-7707
scream	-7708
uctive	-7709
ungare	-7710
untary	-7711
yramid	-7712
▁2010,	-7713
▁2018.	-7714
▁ABOUT	-7715
▁Anhui	-7716
▁Cross	-7717
▁Nancy	-7718
▁Nobel	-7719
▁Ocean	-7720
▁Phill	-7721
▁Seven	-7722
▁Stand	-7723
▁awake	-7724
▁beats	-7725
▁dared	-7726
▁equal	-7727
▁flute	-7728
▁gloom	-7729
▁graph	-7730
▁heels	-7731
▁ignor	-7732
▁maple	-7733
▁marry	-7734
▁minds	-7735
▁model	-7736
▁noble	-7737
▁pecul	-7738
▁score	-7739
▁scrub	-7740
▁shade	-7741
▁skull	-7742
▁spank	-7743
▁tales	-7744
▁upper	-7745
▁wharf	-7746
▁widow	-7747
barrass	-7748
itation	-7749
rophone	-7750
touches	-7751
whining	-7752
▁Commun	-7753
▁Golden	-7754
▁Guitar	-7755
▁Kapoor	-7756
▁Middle	-7757
▁Moreno	-7758
▁Oblast	-7759
▁Pepper	-7760
▁Second	-7761
▁Should	-7762
▁Willie	-7763
▁arrive	-7764
▁behave	-7765
▁breeze	-7766
▁celery	-7767
▁conven	-7768
▁covers	-7769
▁dinghy	-7770
▁folded	-7771
▁gasped	-7772
▁lately	-7773
▁marble	-7774
▁myster	-7775
▁nodded	-7776
▁paused	-7777
▁recall	-7778
▁roller	-7779
▁thrown	-7780
▁volume	-7781
intellig	-7782
▁Goodbye	-7783
▁Harvard	-7784
▁Malenda	-7785
▁ancient	-7786
▁bastard	-7787
▁beneath	-7788
▁breathe	-7789
▁cousins	-7790
▁guarant	-7791
▁healthy	-7792
▁manners	-7793
▁obliged	-7794
▁orchard	-7795
▁pudding	-7796
▁puppies	-7797
▁rabbits	-7798
▁raising	-7799
▁seasons	-7800
▁smoking	-7801
▁touches	-7802
▁unhappy	-7803
▁witness	-7804
nsylvania	-7805
▁Football	-7806
▁Internet	-7807
▁Portugal	-7808
▁Thatcher	-7809
▁acquaint	-7810
▁balloons	-7811
▁benefits	-7812
▁cleaning	-7813
▁clothing	-7814
▁complain	-7815
▁customer	-7816
▁dangling	-7817
▁discover	-7818
▁distinct	-7819
▁injuries	-7820
▁murdered	-7821
▁murmured	-7822
▁parallel	-7823
▁pointing	-7824
▁pregnant	-7825
▁pressure	-7826
▁romantic	-7827
▁rustling	-7828
▁standard	-7829
▁thirteen	-7830
▁youngest	-7831
▁Ukrainian	-7832
▁candidate	-7833
▁caterpill	-7834
▁disappear	-7835
▁furniture	-7836
▁interview	-7837
▁suggested	-7838
▁constantly	-7839
▁directions	-7840
▁incredible	-7841
▁individual	-7842
▁literature	-7843
▁throughout	-7844
simultaneous	-7845
▁Christopher	-7846
▁consignment	-7847
▁necessarily	-7848
▁presidential	-7849
?'	-7850
BE	-7851
Or	-7852
Ps	-7853
_,	-7854
ba	-7855
lk	-7856
ni	-7857
sl	-7858
."]	-7859
III	-7860
Ind	-7861
May	-7862
aco	-7863
bey	-7864
his	-7865
iga	-7866
ilk	-7867
isl	-7868
mum	-7869
nin	-7870
rob	-7871
uda	-7872
▁7.	-7873
▁Ge	-7874
▁LA	-7875
▁ec	-7876
affe	-7877
anue	-7878
bank	-7879
bors	-7880
cope	-7881
dale	-7882
ella	-7883
have	-7884
iane	-7885
igan	-7886
lled	-7887
mark	-7888
neth	-7889
owdy	-7890
peed	-7891
pent	-7892
pton	-7893
ruit	-7894
sous	-7895
uese	-7896
wide	-7897
yard	-7898
zero	-7899
▁(),	-7900
▁14:	-7901
▁184	-7902
▁187	-7903
▁21:	-7904
▁22:	-7905
▁Bat	-7906
▁Gas	-7907
▁Han	-7908
▁Hay	-7909
▁Huh	-7910
▁Lew	-7911
▁Nad	-7912
▁Rel	-7913
▁TAL	-7914
▁Toy	-7915
▁WAS	-7916
▁ast	-7917
▁eth	-7918
▁fac	-7919
▁gon	-7920
▁gre	-7921
▁kil	-7922
▁map	-7923
▁mob	-7924
▁sew	-7925
▁wip	-7926
abbar	-7927
agger	-7928
ainty	-7929
blows	-7930
count	-7931
eries	-7932
ester	-7933
iable	-7934
icans	-7935
icide	-7936
igail	-7937
iller	-7938
obile	-7939
regon	-7940
▁1995	-7941
▁2002	-7942
▁Cass	-7943
▁HERE	-7944
▁Hahn	-7945
▁Iris	-7946
▁Kore	-7947
▁LIKE	-7948
▁Leon	-7949
▁Mich	-7950
▁Mind	-7951
▁Ruth	-7952
▁Supp	-7953
▁Tons	-7954
▁[2.8	-7955
▁anti	-7956
▁bags	-7957
▁bein	-7958
▁bend	-7959
▁coco	-7960
▁crim	-7961
▁exte	-7962
▁gest	-7963
▁impl	-7964
▁lone	-7965
▁ouch	-7966
▁pigs	-7967
▁pins	-7968
▁ratt	-7969
▁refr	-7970
▁rejo	-7971
▁rela	-7972
▁scen	-7973
▁sche	-7974
▁sees	-7975
▁subs	-7976
▁syll	-7977
▁tale	-7978
▁tool	-7979
▁uhuh	-7980
▁vert	-7981
▁zero	-7982
anueva	-7983
engers	-7984
intend	-7985
throws	-7986
usanne	-7987
▁2012.	-7988
▁2017,	-7989
▁2022)	-7990
▁Alber	-7991
▁Alice	-7992
▁Dolly	-7993
▁Edith	-7994
▁Found	-7995
▁Hills	-7996
▁Leave	-7997
▁Marie	-7998
▁Mummy	-7999
▁Night	-8000
▁Upper	-8001
▁agent	-8002
▁aston	-8003
▁bitch	-8004
▁buddy	-8005
▁bunch	-8006
▁coast	-8007
▁coins	-8008
▁crash	-8009
▁crawl	-8010
▁crink	-8011
▁drank	-8012
▁facts	-8013
▁fifth	-8014
▁flies	-8015
▁flung	-8016
▁gazed	-8017
▁hopes	-8018
▁illeg	-8019
▁mustn	-8020
▁sissy	-8021
▁sniff	-8022
▁walks	-8023
▁whirl	-8024
estival	-8025
faction	-8026
idently	-8027
onsense	-8028
orgeous	-8029
pretend	-8030
▁Berlin	-8031
▁Easter	-8032
▁Edward	-8033
▁Polish	-8034
▁Sounds	-8035
▁Steven	-8036
▁Taylor	-8037
▁branch	-8038
▁ceased	-8039
▁choose	-8040
▁dating	-8041
▁experi	-8042
▁fields	-8043
▁gained	-8044
▁golden	-8045
▁jacket	-8046
▁leetle	-8047
▁method	-8048
▁needle	-8049
▁powers	-8050
▁rocket	-8051
▁shouts	-8052
▁stones	-8053
▁surely	-8054
▁suspic	-8055
▁waters	-8056
▁wealth	-8057
kerchief	-8058
ribution	-8059
▁Abigail	-8060
▁Jackson	-8061
▁Lucious	-8062
▁anxiety	-8063
▁appears	-8064
▁awesome	-8065
▁bearing	-8066
▁charges	-8067
▁climate	-8068
▁dungare	-8069
▁escaped	-8070
▁federal	-8071
▁giraffe	-8072
▁lobster	-8073
▁options	-8074
▁pattern	-8075
▁peanuts	-8076
▁persons	-8077
▁pointed	-8078
▁reality	-8079
▁sarcoma	-8080
▁spelled	-8081
▁squeeze	-8082
▁univers	-8083
▁warning	-8084
referring	-8085
▁Security	-8086
▁accepted	-8087
▁activist	-8088
▁clicking	-8089
▁composed	-8090
▁disaster	-8091
▁industry	-8092
▁marriage	-8093
▁murderer	-8094
▁painting	-8095
▁presents	-8096
▁printing	-8097
▁soldiers	-8098
▁spelling	-8099
▁thankful	-8100
▁thoughts	-8101
▁transcri	-8102
▁unfortun	-8103
▁wherever	-8104
elsarrasin	-8105
▁Institute	-8106
▁Melbourne	-8107
▁Northeast	-8108
▁according	-8109
▁apartment	-8110
▁celebrate	-8111
▁communist	-8112
▁desperate	-8113
▁embarrass	-8114
▁expecting	-8115
▁languages	-8116
▁seriously	-8117
uccessfully	-8118
▁Commission	-8119
▁Portuguese	-8120
▁Villanueva	-8121
▁definitely	-8122
▁microphone	-8123
▁protection	-8124
▁restaurant	-8125
construction	-8126
▁temperature	-8127
▁handkerchief	-8128
▁vocalization	-8129
▁investigation	-8130
▁Administration	-8131
DY	-8132
IF	-8133
On	-8134
WV	-8135
ao	-8136
sn	-8137
▁0	-8138
").	-8139
ADE	-8140
Bro	-8141
For	-8142
OCK	-8143
eav	-8144
ena	-8145
ias	-8146
ien	-8147
mat	-8148
oke	-8149
ria	-8150
ugs	-8151
von	-8152
why	-8153
▁3:	-8154
▁6.	-8155
▁AH	-8156
▁Et	-8157
▁IV	-8158
▁Ob	-8159
▁Sr	-8160
▁TE	-8161
▁ga	-8162
▁lt	-8163
▁nu	-8164
▁wi	-8165
agle	-8166
alle	-8167
arse	-8168
eram	-8169
flat	-8170
gust	-8171
olas	-8172
only	-8173
owen	-8174
rans	-8175
ripp	-8176
soci	-8177
unte	-8178
urns	-8179
utus	-8180
▁***	-8181
▁12,	-8182
▁13:	-8183
▁16:	-8184
▁182	-8185
▁18:	-8186
▁19,	-8187
▁19:	-8188
▁20:	-8189
▁23:	-8190
▁24:	-8191
▁25:	-8192
▁26:	-8193
▁27:	-8194
▁28:	-8195
▁29:	-8196
▁CAR	-8197
▁Fig	-8198
▁Gro	-8199
▁HER	-8200
▁HIM	-8201
▁LET	-8202
▁Mos	-8203
▁Nin	-8204
▁Stu	-8205
▁Sug	-8206
▁Too	-8207
▁Tor	-8208
▁WHO	-8209
▁awk	-8210
▁bew	-8211
▁clo	-8212
▁cul	-8213
▁fan	-8214
▁jam	-8215
▁que	-8216
▁rat	-8217
▁spr	-8218
▁tun	-8219
Every	-8220
anche	-8221
cream	-8222
ctors	-8223
enger	-8224
eorge	-8225
etter	-8226
ettle	-8227
front	-8228
hands	-8229
ideot	-8230
ierre	-8231
inate	-8232
inces	-8233
isoft	-8234
ittin	-8235
ivity	-8236
liest	-8237
pired	-8238
posed	-8239
quest	-8240
quito	-8241
reads	-8242
rough	-8243
stone	-8244
unter	-8245
▁1950	-8246
▁1987	-8247
▁2007	-8248
▁Aren	-8249
▁HOME	-8250
▁Jeff	-8251
▁Josh	-8252
▁None	-8253
▁Post	-8254
▁Tele	-8255
▁YEAH	-8256
▁bolt	-8257
▁boom	-8258
▁cmon	-8259
▁cord	-8260
▁drum	-8261
▁jing	-8262
▁keys	-8263
▁lord	-8264
▁melt	-8265
▁neur	-8266
▁resc	-8267
▁reve	-8268
▁rude	-8269
▁seal	-8270
▁sexy	-8271
▁snap	-8272
▁soap	-8273
▁sout	-8274
▁spir	-8275
▁tame	-8276
action	-8277
atured	-8278
aughty	-8279
design	-8280
eaking	-8281
icking	-8282
office	-8283
ooping	-8284
ousers	-8285
uously	-8286
▁2011.	-8287
▁Adams	-8288
▁Anish	-8289
▁Diane	-8290
▁Gowen	-8291
▁Helen	-8292
▁Holly	-8293
▁Stacy	-8294
▁Stone	-8295
▁Urler	-8296
▁Wilks	-8297
▁adopt	-8298
▁alarm	-8299
▁avoid	-8300
▁beast	-8301
▁burnt	-8302
▁comic	-8303
▁conce	-8304
▁cough	-8305
▁crush	-8306
▁genus	-8307
▁ideal	-8308
▁limit	-8309
▁needn	-8310
▁numer	-8311
▁piano	-8312
▁purse	-8313
▁races	-8314
▁razor	-8315
▁relax	-8316
▁rider	-8317
▁shelf	-8318
▁shell	-8319
▁sneez	-8320
▁stamp	-8321
▁swept	-8322
▁tooth	-8323
▁twins	-8324
▁vague	-8325
achment	-8326
amation	-8327
fashion	-8328
inction	-8329
intendo	-8330
versham	-8331
▁Harris	-8332
▁Oregon	-8333
▁Virgin	-8334
▁agenda	-8335
▁allerg	-8336
▁attach	-8337
▁brings	-8338
▁bushes	-8339
▁chairs	-8340
▁collar	-8341
▁copper	-8342
▁create	-8343
▁desire	-8344
▁duties	-8345
▁elliot	-8346
▁establ	-8347
▁folder	-8348
▁guests	-8349
▁handed	-8350
▁harder	-8351
▁hidden	-8352
▁inquir	-8353
▁locked	-8354
▁losing	-8355
▁pepper	-8356
▁phrase	-8357
▁repeat	-8358
▁shadow	-8359
▁snakes	-8360
▁solemn	-8361
▁stamps	-8362
▁steady	-8363
▁symbol	-8364
▁transl	-8365
▁tricks	-8366
building	-8367
ervation	-8368
whispers	-8369
▁Andrade	-8370
▁Chamber	-8371
▁Chatter	-8372
▁Sheriff	-8373
▁Ubisoft	-8374
▁accompl	-8375
▁affairs	-8376
▁artists	-8377
▁carrier	-8378
▁compete	-8379
▁cottage	-8380
▁cutting	-8381
▁disgust	-8382
▁doorway	-8383
▁dreamed	-8384
▁effects	-8385
▁emotion	-8386
▁fireman	-8387
▁furnace	-8388
▁gravely	-8389
▁hastily	-8390
▁housing	-8391
▁lessons	-8392
▁monkeys	-8393
▁pennies	-8394
▁pigeons	-8395
▁pressed	-8396
▁pyramid	-8397
▁removed	-8398
▁request	-8399
▁student	-8400
▁theater	-8401
▁vehicle	-8402
▁volunte	-8403
▁Lawrence	-8404
▁Montreal	-8405
▁Nintendo	-8406
▁bitterly	-8407
▁chemical	-8408
▁cherries	-8409
▁demonstr	-8410
▁distingu	-8411
▁enormous	-8412
▁hundreds	-8413
▁instinct	-8414
▁normally	-8415
▁patients	-8416
▁products	-8417
▁proposed	-8418
▁referred	-8419
▁religion	-8420
▁research	-8421
▁resident	-8422
▁transfer	-8423
▁vanished	-8424
▁Catherine	-8425
▁Haversham	-8426
▁principle	-8427
▁squirrels	-8428
▁stretched	-8429
▁succeeded	-8430
▁tradition	-8431
▁photograph	-8432
▁recognized	-8433
▁whispering	-8434
▁Association	-8435
▁complicated	-8436
▁independent	-8437
▁Pennsylvania	-8438
▁organization	-8439
▁Castelsarrasin	-8440
▁Congratulations	-8441
70	-8442
By	-8443
Fr	-8444
Gr	-8445
IV	-8446
La	-8447
SI	-8448
Sh	-8449
ji	-8450
oj	-8451
—_	-8452
5),	-8453
7),	-8454
ANN	-8455
ISH	-8456
ONE	-8457
PEN	-8458
VEN	-8459
acc	-8460
ava	-8461
bon	-8462
ded	-8463
dum	-8464
got	-8465
ode	-8466
ods	-8467
oos	-8468
pre	-8469
rol	-8470
rup	-8471
too	-8472
éaz	-8473
▁0.	-8474
▁34	-8475
▁36	-8476
▁5]	-8477
▁AT	-8478
▁Ap	-8479
▁LE	-8480
▁Od	-8481
▁PR	-8482
▁Sk	-8483
▁WA	-8484
▁na	-8485
▁rd	-8486
Poor	-8487
agan	-8488
ambi	-8489
bish	-8490
bury	-8491
cest	-8492
char	-8493
corn	-8494
dard	-8495
ebye	-8496
eled	-8497
enix	-8498
five	-8499
hous	-8500
iami	-8501
igot	-8502
ilet	-8503
ilts	-8504
kind	-8505
lers	-8506
name	-8507
ntil	-8508
onia	-8509
otes	-8510
ourn	-8511
ques	-8512
reak	-8513
resp	-8514
rong	-8515
sits	-8516
sive	-8517
uing	-8518
were	-8519
wind	-8520
▁Abs	-8521
▁Aff	-8522
▁Bad	-8523
▁Bid	-8524
▁Cop	-8525
▁FBI	-8526
▁Jud	-8527
▁Leg	-8528
▁Nag	-8529
▁Pho	-8530
▁Ref	-8531
▁Ton	-8532
▁Wol	-8533
▁Yet	-8534
▁aid	-8535
▁doo	-8536
▁emp	-8537
▁hev	-8538
▁jul	-8539
▁lan	-8540
▁owe	-8541
▁pau	-8542
▁sed	-8543
▁shr	-8544
▁ske	-8545
▁ski	-8546
▁tel	-8547
▁una	-8548
▁unl	-8549
▁wis	-8550
▁zoo	-8551
ALENT	-8552
aries	-8553
eness	-8554
finds	-8555
force	-8556
iggle	-8557
ighed	-8558
inson	-8559
itors	-8560
neath	-8561
onies	-8562
orney	-8563
plays	-8564
shire	-8565
short	-8566
sound	-8567
stant	-8568
upper	-8569
waves	-8570
▁1969	-8571
▁1980	-8572
▁1986	-8573
▁ARRO	-8574
▁Also	-8575
▁Arch	-8576
▁Baby	-8577
▁Beat	-8578
▁Bern	-8579
▁Boss	-8580
▁Burt	-8581
▁Corn	-8582
▁Dana	-8583
▁Five	-8584
▁Food	-8585
▁Ford	-8586
▁Greg	-8587
▁Hear	-8588
▁Hill	-8589
▁Iran	-8590
▁Nich	-8591
▁PART	-8592
▁Pete	-8593
▁Prem	-8594
▁Prot	-8595
▁Stud	-8596
▁Such	-8597
▁Tues	-8598
▁WILL	-8599
▁Writ	-8600
▁arch	-8601
▁belt	-8602
▁chim	-8603
▁cran	-8604
▁cute	-8605
▁dism	-8606
▁grab	-8607
▁haha	-8608
▁herd	-8609
▁holl	-8610
▁mood	-8611
▁pitc	-8612
▁prel	-8613
▁prem	-8614
▁prob	-8615
▁raid	-8616
▁risk	-8617
▁sits	-8618
▁tend	-8619
▁tent	-8620
▁twin	-8621
ailing	-8622
ancing	-8623
boards	-8624
heimer	-8625
iverse	-8626
presso	-8627
pushes	-8628
teenth	-8629
vation	-8630
▁2012,	-8631
▁2014)	-8632
▁2016.	-8633
▁2021,	-8634
▁Bambi	-8635
▁Buddy	-8636
▁DREAM	-8637
▁Evans	-8638
▁Girls	-8639
▁Greek	-8640
▁Later	-8641
▁Miami	-8642
▁Rocky	-8643
▁Union	-8644
▁Until	-8645
▁Women	-8646
▁affix	-8647
▁alike	-8648
▁begun	-8649
▁corre	-8650
▁costs	-8651
▁desce	-8652
▁false	-8653
▁feast	-8654
▁giant	-8655
▁grade	-8656
▁greet	-8657
▁lands	-8658
▁lodge	-8659
▁photo	-8660
▁potty	-8661
▁rival	-8662
▁sayin	-8663
▁slipp	-8664
▁snowy	-8665
▁socks	-8666
▁stops	-8667
▁tadah	-8668
▁towel	-8669
▁tummy	-8670
▁useta	-8671
▁waves	-8672
▁wrest	-8673
buzzing	-8674
colored	-8675
objects	-8676
picture	-8677
▁Africa	-8678
▁Alaska	-8679
▁Around	-8680
▁Brutus	-8681
▁Except	-8682
▁Grande	-8683
▁Jersey	-8684
▁Kazakh	-8685
▁Native	-8686
▁Office	-8687
▁Social	-8688
▁Spring	-8689
▁assure	-8690
▁attend	-8691
▁byebye	-8692
▁circum	-8693
▁dainty	-8694
▁danced	-8695
▁deeply	-8696
▁defeat	-8697
▁dollar	-8698
▁escort	-8699
▁feeble	-8700
▁george	-8701
▁guitar	-8702
▁humble	-8703
▁insane	-8704
▁insect	-8705
▁invite	-8706
▁lonely	-8707
▁packet	-8708
▁pardon	-8709
▁proved	-8710
▁saucer	-8711
▁scheme	-8712
▁shaped	-8713
▁studio	-8714
▁talent	-8715
▁talkin	-8716
▁tumble	-8717
ertainly	-8718
heastern	-8719
▁Between	-8720
▁Finally	-8721
▁Goddard	-8722
▁Instead	-8723
▁Manning	-8724
▁Montana	-8725
▁Phoenix	-8726
▁Sanders	-8727
▁Simpson	-8728
▁Tuesday	-8729
▁achieve	-8730
▁appoint	-8731
▁attacks	-8732
▁awkward	-8733
▁boiling	-8734
▁compare	-8735
▁convinc	-8736
▁despair	-8737
▁fathers	-8738
▁heavily	-8739
▁hopping	-8740
▁placing	-8741
▁pursuit	-8742
▁quality	-8743
▁railway	-8744
▁raining	-8745
▁remains	-8746
▁servant	-8747
▁sharply	-8748
▁staring	-8749
▁tearing	-8750
▁upright	-8751
▁useless	-8752
▁whoever	-8753
▁wrapped	-8754
unciation	-8755
▁Division	-8756
▁admitted	-8757
▁approach	-8758
▁articles	-8759
▁coloring	-8760
▁confused	-8761
▁directly	-8762
▁familiar	-8763
▁forehead	-8764
▁intellig	-8765
▁mosquito	-8766
▁occurred	-8767
▁peculiar	-8768
▁sailboat	-8769
▁speakers	-8770
▁troubled	-8771
▁trousers	-8772
designated	-8773
▁Therefore	-8774
▁anxiously	-8775
▁available	-8776
▁commenced	-8777
▁connected	-8778
▁described	-8779
▁emergency	-8780
▁movements	-8781
▁neighbors	-8782
▁patiently	-8783
▁thousands	-8784
▁transport	-8785
▁voluntary	-8786
▁Absolutely	-8787
▁Apparently	-8788
▁Lieutenant	-8789
▁collection	-8790
▁connection	-8791
▁historical	-8792
▁opposition	-8793
▁scientists	-8794
▁impeachment	-8795
▁responsible	-8796
▁Municipality	-8797
▁Thanksgiving	-8798
▁satisfaction	-8799
';	-8800
18	-8801
34	-8802
51	-8803
AC	-8804
MT	-8805
Me	-8806
TA	-8807
UG	-8808
WH	-8809
_1	-8810
fa	-8811
ws	-8812
ée	-8813
9),	-8814
;.9	-8815
BWV	-8816
CEC	-8817
FRE	-8818
IVE	-8819
RIP	-8820
del	-8821
eau	-8822
eze	-8823
gas	-8824
hus	-8825
mad	-8826
mes	-8827
nex	-8828
owk	-8829
sch	-8830
uri	-8831
▁(3	-8832
▁..	-8833
▁AD	-8834
▁Aw	-8835
▁Du	-8836
▁MO	-8837
▁Og	-8838
▁SA	-8839
ALLY	-8840
Bill	-8841
DOOR	-8842
ILDA	-8843
Okay	-8844
Some	-8845
Tell	-8846
aned	-8847
bing	-8848
bler	-8849
even	-8850
gery	-8851
gypt	-8852
iary	-8853
idae	-8854
ifer	-8855
imit	-8856
mann	-8857
mbly	-8858
obal	-8859
oded	-8860
ohol	-8861
olph	-8862
ours	-8863
peck	-8864
roit	-8865
rose	-8866
rous	-8867
sion	-8868
stal	-8869
thin	-8870
umbs	-8871
unes	-8872
urer	-8873
zech	-8874
▁30:	-8875
▁Ask	-8876
▁Ass	-8877
▁BUS	-8878
▁Bon	-8879
▁CAT	-8880
▁Gut	-8881
▁Had	-8882
▁Ink	-8883
▁Isa	-8884
▁McK	-8885
▁NEW	-8886
▁Net	-8887
▁ONE	-8888
▁Ren	-8889
▁Sky	-8890
▁Son	-8891
▁Syl	-8892
▁Tre	-8893
▁ack	-8894
▁agr	-8895
▁aim	-8896
▁axe	-8897
▁bap	-8898
▁bul	-8899
▁bum	-8900
▁dom	-8901
▁fer	-8902
▁kin	-8903
▁kit	-8904
▁lag	-8905
▁lux	-8906
▁mam	-8907
▁tox	-8908
▁tra	-8909
▁typ	-8910
After	-8911
March	-8912
Vully	-8913
abbed	-8914
about	-8915
akota	-8916
alend	-8917
allas	-8918
ammar	-8919
bones	-8920
cakes	-8921
could	-8922
craft	-8923
hetic	-8924
icate	-8925
ipple	-8926
issed	-8927
lings	-8928
osaur	-8929
oting	-8930
somet	-8931
three	-8932
uable	-8933
vable	-8934
would	-8935
▁1925	-8936
▁1967	-8937
▁1997	-8938
▁Asia	-8939
▁Band	-8940
▁Bent	-8941
▁Cost	-8942
▁Dire	-8943
▁Font	-8944
▁Huck	-8945
▁Jenn	-8946
▁Juan	-8947
▁Lock	-8948
▁Lyon	-8949
▁Need	-8950
▁News	-8951
▁Rang	-8952
▁Said	-8953
▁Soon	-8954
▁Star	-8955
▁Turk	-8956
▁Utah	-8957
▁beep	-8958
▁calf	-8959
▁clas	-8960
▁cone	-8961
▁crap	-8962
▁dece	-8963
▁eeat	-8964
▁grav	-8965
▁inch	-8966
▁inha	-8967
▁jamm	-8968
▁keen	-8969
▁lack	-8970
▁mike	-8971
▁mild	-8972
▁noon	-8973
▁obst	-8974
▁ooaa	-8975
▁panc	-8976
▁peas	-8977
▁peop	-8978
▁perf	-8979
▁pond	-8980
▁pred	-8981
▁radi	-8982
▁refe	-8983
▁root	-8984
▁sarc	-8985
▁scan	-8986
▁silk	-8987
▁soda	-8988
▁sore	-8989
▁sung	-8990
▁sway	-8991
▁user	-8992
▁warn	-8993
▁whee	-8994
▁whip	-8995
▁worn	-8996
ancial	-8997
fishes	-8998
houses	-8999
iculty	-9000
idency	-9001
ifully	-9002
isions	-9003
rennan	-9004
sembly	-9005
ulting	-9006
▁2015,	-9007
▁2015.	-9008
▁Addam	-9009
▁Anton	-9010
▁Apple	-9011
▁Blood	-9012
▁Broye	-9013
▁Carly	-9014
▁Carry	-9015
▁Corre	-9016
▁Feast	-9017
▁Ginny	-9018
▁Going	-9019
▁Julia	-9020
▁Lewis	-9021
▁Might	-9022
▁Odawa	-9023
▁Paula	-9024
▁Poppy	-9025
▁Story	-9026
▁Under	-9027
▁aband	-9028
▁acted	-9029
▁agony	-9030
▁brill	-9031
▁cares	-9032
▁cocoa	-9033
▁creep	-9034
▁cries	-9035
▁cubes	-9036
▁fever	-9037
▁fewer	-9038
▁fussy	-9039
▁glory	-9040
▁helps	-9041
▁items	-9042
▁lemon	-9043
▁lions	-9044
▁masks	-9045
▁proof	-9046
▁quant	-9047
▁roast	-9048
▁rolls	-9049
▁scram	-9050
▁scree	-9051
▁shine	-9052
▁shops	-9053
▁shrie	-9054
▁slave	-9055
▁sorce	-9056
▁steel	-9057
▁straw	-9058
▁suspe	-9059
▁swung	-9060
▁yummy	-9061
acement	-9062
attress	-9063
echoing	-9064
eration	-9065
imately	-9066
magnets	-9067
trochee	-9068
▁Amanda	-9069
▁Anyway	-9070
▁Audrey	-9071
▁Bishop	-9072
▁Engine	-9073
▁Evelyn	-9074
▁Plains	-9075
▁Region	-9076
▁Ronald	-9077
▁VALENT	-9078
▁associ	-9079
▁autumn	-9080
▁brakes	-9081
▁causes	-9082
▁column	-9083
▁commer	-9084
▁endeav	-9085
▁estate	-9086
▁ethnic	-9087
▁expand	-9088
▁expert	-9089
▁faster	-9090
▁fights	-9091
▁gallop	-9092
▁instit	-9093
▁marked	-9094
▁mornin	-9095
▁nights	-9096
▁parcel	-9097
▁perpet	-9098
▁polish	-9099
▁propos	-9100
▁purcha	-9101
▁regret	-9102
▁reject	-9103
▁shared	-9104
▁sittin	-9105
▁speaks	-9106
▁stolen	-9107
▁teapot	-9108
▁theory	-9109
▁toilet	-9110
▁tossed	-9111
▁valley	-9112
ographer	-9113
uttering	-9114
▁Commons	-9115
▁Darling	-9116
▁Detroit	-9117
▁Orleans	-9118
▁Phillip	-9119
▁arrival	-9120
▁beating	-9121
▁causing	-9122
▁charged	-9123
▁complet	-9124
▁cunning	-9125
▁dealing	-9126
▁deserve	-9127
▁dragged	-9128
▁fancied	-9129
▁feature	-9130
▁fiction	-9131
▁follows	-9132
▁holiday	-9133
▁lighted	-9134
▁medical	-9135
▁musical	-9136
▁painful	-9137
▁plunged	-9138
▁princip	-9139
▁starred	-9140
▁sweetie	-9141
▁treason	-9142
▁visitor	-9143
▁wanting	-9144
▁weapons	-9145
anchester	-9146
fashioned	-9147
▁Michigan	-9148
▁attitude	-9149
▁attorney	-9150
▁compared	-9151
▁constant	-9152
▁contrast	-9153
▁document	-9154
▁dungaree	-9155
▁enjoying	-9156
▁entrance	-9157
▁features	-9158
▁frighten	-9159
▁generous	-9160
▁gorgeous	-9161
▁magnific	-9162
▁physical	-9163
▁provided	-9164
▁signific	-9165
▁sometime	-9166
▁Biography	-9167
▁Francisco	-9168
▁Katherine	-9169
▁agreement	-9170
▁broadcast	-9171
▁champions	-9172
▁conscious	-9173
▁criticize	-9174
▁earnestly	-9175
▁elephants	-9176
▁fortnight	-9177
▁fractures	-9178
▁happiness	-9179
▁indicated	-9180
▁objection	-9181
▁officials	-9182
▁presented	-9183
▁sorcerers	-9184
▁supported	-9185
▁Australian	-9186
▁Greensburg	-9187
▁complaints	-9188
▁determined	-9189
▁difficulty	-9190
▁disposable	-9191
▁dreadfully	-9192
▁friendship	-9193
▁increasing	-9194
▁passengers	-9195
▁possession	-9196
▁underneath	-9197
intelligible	-9198
▁distinction	-9199
▁established	-9200
▁instruction	-9201
!]	-9202
22	-9203
40	-9204
90	-9205
BC	-9206
BO	-9207
FF	-9208
HE	-9209
LI	-9210
LS	-9211
Le	-9212
_.	-9213
sw	-9214
▁—	-9215
-19	-9216
20)	-9217
BER	-9218
END	-9219
Get	-9220
IRE	-9221
Isn	-9222
New	-9223
OND	-9224
ONG	-9225
OOL	-9226
ROM	-9227
did	-9228
dog	-9229
gro	-9230
iac	-9231
isk	-9232
lia	-9233
lov	-9234
oco	-9235
oln	-9236
ora	-9237
uuw	-9238
vis	-9239
——"	-9240
▁35	-9241
▁60	-9242
▁8.	-9243
▁Id	-9244
▁Im	-9245
▁MU	-9246
▁NC	-9247
▁Os	-9248
▁TR	-9249
▁ox	-9250
▁ze	-9251
..."	-9252
Dear	-9253
INGS	-9254
June	-9255
KING	-9256
ONNA	-9257
RIES	-9258
With	-9259
abor	-9260
adel	-9261
anes	-9262
aval	-9263
care	-9264
cons	-9265
eija	-9266
elia	-9267
emic	-9268
erty	-9269
eyed	-9270
gage	-9271
hard	-9272
ibet	-9273
icia	-9274
igor	-9275
inem	-9276
ithe	-9277
iven	-9278
ivin	-9279
leyn	-9280
life	-9281
mato	-9282
ombs	-9283
oses	-9284
otte	-9285
rats	-9286
reck	-9287
ship	-9288
text	-9289
uate	-9290
ubon	-9291
uite	-9292
uits	-9293
vell	-9294
▁1.6	-9295
▁31,	-9296
▁Add	-9297
▁Amy	-9298
▁Aux	-9299
▁Bra	-9300
▁CHR	-9301
▁Cay	-9302
▁DOG	-9303
▁Dal	-9304
▁Env	-9305
▁Key	-9306
▁Kun	-9307
▁Liz	-9308
▁Lyn	-9309
▁Mas	-9310
▁Mod	-9311
▁Nov	-9312
▁Pel	-9313
▁Rio	-9314
▁SEE	-9315
▁Sea	-9316
▁Sel	-9317
▁Sup	-9318
▁Van	-9319
▁Ven	-9320
▁Whe	-9321
▁[7.	-9322
▁alc	-9323
▁awe	-9324
▁bob	-9325
▁han	-9326
▁hid	-9327
▁kok	-9328
▁lal	-9329
▁mes	-9330
▁vit	-9331
0,000	-9332
agedy	-9333
agnos	-9334
ailed	-9335
ament	-9336
amoto	-9337
appen	-9338
armed	-9339
arter	-9340
attoo	-9341
bbing	-9342
clunk	-9343
elect	-9344
icism	-9345
itect	-9346
itter	-9347
leton	-9348
makes	-9349
mount	-9350
obart	-9351
onnie	-9352
oodle	-9353
orado	-9354
ports	-9355
sters	-9356
ucker	-9357
ureau	-9358
▁1940	-9359
▁COME	-9360
▁Ella	-9361
▁Emer	-9362
▁Hard	-9363
▁Hawk	-9364
▁Head	-9365
▁Kato	-9366
▁Navy	-9367
▁Road	-9368
▁Serv	-9369
▁Tack	-9370
▁Talk	-9371
▁Yoma	-9372
▁amus	-9373
▁bomb	-9374
▁caps	-9375
▁coff	-9376
▁dign	-9377
▁fits	-9378
▁fled	-9379
▁hers	-9380
▁hind	-9381
▁knot	-9382
▁laig	-9383
▁lamp	-9384
▁limb	-9385
▁mart	-9386
▁mort	-9387
▁mush	-9388
▁nuuw	-9389
▁pans	-9390
▁pies	-9391
▁plus	-9392
▁poll	-9393
▁rear	-9394
▁robe	-9395
▁sank	-9396
▁seek	-9397
▁shel	-9398
▁thee	-9399
▁yell	-9400
August	-9401
Christ	-9402
active	-9403
aculty	-9404
amples	-9405
driver	-9406
hedral	-9407
impers	-9408
incoln	-9409
ipment	-9410
making	-9411
ocking	-9412
olitan	-9413
riding	-9414
rowing	-9415
shakes	-9416
utiful	-9417
ynasty	-9418
▁1995.	-9419
▁2014,	-9420
▁Czech	-9421
▁Debby	-9422
▁Egypt	-9423
▁GONNA	-9424
▁Games	-9425
▁Guard	-9426
▁Hurst	-9427
▁Iliad	-9428
▁Josie	-9429
▁Music	-9430
▁Nanna	-9431
▁Price	-9432
▁Rowdy	-9433
▁Short	-9434
▁Tibet	-9435
▁appet	-9436
▁arose	-9437
▁bases	-9438
▁brick	-9439
▁cared	-9440
▁chalk	-9441
▁chang	-9442
▁chose	-9443
▁debut	-9444
▁diary	-9445
▁drain	-9446
▁drown	-9447
▁flour	-9448
▁forms	-9449
▁fount	-9450
▁idiot	-9451
▁imper	-9452
▁irrit	-9453
▁kinda	-9454
▁label	-9455
▁landl	-9456
▁madam	-9457
▁meals	-9458
▁nails	-9459
▁ocean	-9460
▁pools	-9461
▁resol	-9462
▁sched	-9463
▁seeds	-9464
▁shaft	-9465
▁slice	-9466
▁stern	-9467
▁wards	-9468
▁whale	-9469
mumbles	-9470
othered	-9471
ravagan	-9472
ressing	-9473
screams	-9474
unclear	-9475
verness	-9476
▁Always	-9477
▁Anyone	-9478
▁Career	-9479
▁Dakota	-9480
▁Execut	-9481
▁Fester	-9482
▁Forget	-9483
▁Gentle	-9484
▁Julius	-9485
▁Lauren	-9486
▁Marble	-9487
▁Potato	-9488
▁Shelly	-9489
▁Summer	-9490
▁Sweden	-9491
▁abrupt	-9492
▁advert	-9493
▁altern	-9494
▁ancest	-9495
▁annual	-9496
▁applic	-9497
▁barrel	-9498
▁begged	-9499
▁bewild	-9500
▁breaks	-9501
▁charit	-9502
▁coward	-9503
▁dashed	-9504
▁daught	-9505
▁feared	-9506
▁headed	-9507
▁insult	-9508
▁joking	-9509
▁kokowk	-9510
▁launch	-9511
▁league	-9512
▁meekly	-9513
▁nation	-9514
▁nicely	-9515
▁oblast	-9516
▁proced	-9517
▁reluct	-9518
▁resist	-9519
▁sewing	-9520
▁shiver	-9521
▁signal	-9522
▁sleeve	-9523
▁sought	-9524
▁stable	-9525
▁throne	-9526
▁trains	-9527
▁visits	-9528
▁worker	-9529
▁worthy	-9530
aturally	-9531
fortable	-9532
standing	-9533
▁Audubon	-9534
▁Blackie	-9535
▁Country	-9536
▁Drosoph	-9537
▁Emperor	-9538
▁Federal	-9539
▁Labeija	-9540
▁Nations	-9541
▁Officer	-9542
▁Records	-9543
▁Reficul	-9544
▁Secrets	-9545
▁Working	-9546
▁alcohol	-9547
▁arrange	-9548
▁barrels	-9549
▁butcher	-9550
▁challen	-9551
▁chasing	-9552
▁chimney	-9553
▁consult	-9554
▁contest	-9555
▁disturb	-9556
▁divided	-9557
▁flushed	-9558
▁granted	-9559
▁islands	-9560
▁lantern	-9561
▁leather	-9562
▁naughty	-9563
▁ninight	-9564
▁nursing	-9565
▁proudly	-9566
▁quicker	-9567
▁receive	-9568
▁replace	-9569
▁require	-9570
▁resting	-9571
▁shallow	-9572
▁skating	-9573
▁statist	-9574
▁sweater	-9575
▁swiftly	-9576
▁tickets	-9577
▁tightly	-9578
▁trained	-9579
▁unusual	-9580
▁visible	-9581
▁visited	-9582
▁warrant	-9583
(192,220)	-9584
▁Anderson	-9585
▁Anything	-9586
▁Baseball	-9587
▁Chairman	-9588
▁Columbia	-9589
▁Marshall	-9590
▁Princess	-9591
▁Virginia	-9592
▁announce	-9593
▁creation	-9594
▁cultural	-9595
▁dropping	-9596
▁explains	-9597
▁farewell	-9598
▁increase	-9599
▁innocent	-9600
▁mattress	-9601
▁messages	-9602
▁numerous	-9603
▁occupied	-9604
▁salesman	-9605
▁steadily	-9606
▁stealing	-9607
▁teachers	-9608
▁teaching	-9609
▁valuable	-9610
▁wretched	-9611
frigerator	-9612
whispering	-9613
▁Alexander	-9614
▁Mountains	-9615
▁companion	-9616
▁confident	-9617
▁customers	-9618
▁daughters	-9619
▁equipment	-9620
▁explained	-9621
▁fantastic	-9622
▁financial	-9623
▁hesitated	-9624
▁operation	-9625
▁organized	-9626
▁preparing	-9627
▁recognize	-9628
▁scrambled	-9629
▁stockings	-9630
▁suspended	-9631
▁eventually	-9632
▁immigrants	-9633
▁neighbours	-9634
▁permission	-9635
▁procession	-9636
▁reflection	-9637
▁sufficient	-9638
▁wheelchair	-9639
▁Environment	-9640
▁competition	-9641
▁photographs	-9642
▁screwdriver	-9643
▁refrigerator	-9644
▁uncomfortable	-9645
-4	-9646
17	-9647
27	-9648
Ar	-9649
De	-9650
Tr	-9651
Un	-9652
WA	-9653
ox	-9654
py	-9655
wa	-9656
;.8	-9657
ACH	-9658
ADY	-9659
AGE	-9660
ANG	-9661
ATH	-9662
ICE	-9663
IME	-9664
Mar	-9665
OWN	-9666
Per	-9667
UND	-9668
UNG	-9669
bot	-9670
cow	-9671
egr	-9672
eli	-9673
fam	-9674
hik	-9675
ika	-9676
law	-9677
owa	-9678
rov	-9679
ruz	-9680
sem	-9681
tub	-9682
urg	-9683
whe	-9684
zig	-9685
▁5.	-9686
▁?[	-9687
▁Lo	-9688
▁PE	-9689
▁Ra	-9690
▁SF	-9691
▁[9	-9692
▁hu	-9693
July	-9694
Note	-9695
OMET	-9696
Page	-9697
alls	-9698
ayer	-9699
edro	-9700
expl	-9701
geon	-9702
gues	-9703
hums	-9704
hyla	-9705
iate	-9706
idad	-9707
imbs	-9708
imul	-9709
izes	-9710
lemy	-9711
mans	-9712
mare	-9713
mate	-9714
mers	-9715
moor	-9716
okke	-9717
otto	-9718
rene	-9719
repe	-9720
ruce	-9721
shed	-9722
thur	-9723
urry	-9724
uted	-9725
vate	-9726
whel	-9727
zens	-9728
zing	-9729
▁(18	-9730
▁1.3	-9731
▁1.8	-9732
▁300	-9733
▁Arm	-9734
▁BIG	-9735
▁Cre	-9736
▁Dec	-9737
▁Die	-9738
▁Dun	-9739
▁Ess	-9740
▁Fre	-9741
▁Gay	-9742
▁Hes	-9743
▁Kix	-9744
▁Lam	-9745
▁Lis	-9746
▁Mis	-9747
▁Ney	-9748
▁Ost	-9749
▁Raf	-9750
▁Rom	-9751
▁Sac	-9752
▁Sak	-9753
▁[8.	-9754
▁abc	-9755
▁ash	-9756
▁bay	-9757
▁gob	-9758
▁hab	-9759
▁hug	-9760
▁jun	-9761
▁les	-9762
▁lif	-9763
▁rip	-9764
▁sla	-9765
▁tan	-9766
▁thy	-9767
▁ult	-9768
▁vir	-9769
▁web	-9770
▁wol	-9771
actor	-9772
azing	-9773
azzag	-9774
birds	-9775
break	-9776
eaven	-9777
emper	-9778
encer	-9779
etime	-9780
flies	-9781
hetti	-9782
ieved	-9783
letic	-9784
omilk	-9785
opard	-9786
orted	-9787
osing	-9788
retty	-9789
rooms	-9790
stems	-9791
udden	-9792
ultan	-9793
unted	-9794
verse	-9795
▁1939	-9796
▁1941	-9797
▁1968	-9798
▁1972	-9799
▁1985	-9800
▁1992	-9801
▁1996	-9802
▁2006	-9803
▁2015	-9804
▁2018	-9805
▁Arts	-9806
▁BACK	-9807
▁Bach	-9808
▁Boys	-9809
▁Bret	-9810
▁CARE	-9811
▁Cayo	-9812
▁Chap	-9813
▁Crit	-9814
▁Fant	-9815
▁Free	-9816
▁Gram	-9817
▁Hart	-9818
▁Hunt	-9819
▁Joey	-9820
▁LIFE	-9821
▁Lari	-9822
▁Lars	-9823
▁MAKE	-9824
▁Neil	-9825
▁OVER	-9826
▁Pack	-9827
▁Page	-9828
▁Part	-9829
▁Plus	-9830
▁Rail	-9831
▁Roll	-9832
▁Ross	-9833
▁Slam	-9834
▁Thor	-9835
▁Tick	-9836
▁Tree	-9837
▁Vern	-9838
▁Vinc	-9839
▁Want	-9840
▁Wars	-9841
▁Wash	-9842
▁Whit	-9843
▁Wich	-9844
▁[2.1	-9845
▁[2.6	-9846
▁acts	-9847
▁agin	-9848
▁alma	-9849
▁aunt	-9850
▁batt	-9851
▁chir	-9852
▁coke	-9853
▁cycl	-9854
▁digg	-9855
▁emot	-9856
▁fern	-9857
▁fict	-9858
▁flow	-9859
▁frag	-9860
▁haul	-9861
▁jack	-9862
▁lend	-9863
▁liar	-9864
▁load	-9865
▁logs	-9866
▁maze	-9867
▁poem	-9868
▁qual	-9869
▁rats	-9870
▁roar	-9871
▁semi	-9872
▁shud	-9873
▁sink	-9874
▁spit	-9875
▁stor	-9876
▁subm	-9877
▁surv	-9878
▁thar	-9879
▁tide	-9880
▁tiss	-9881
▁tons	-9882
▁trap	-9883
▁unit	-9884
▁vari	-9885
▁virt	-9886
▁wolf	-9887
******	-9888
Gabbar	-9889
abbage	-9890
bridge	-9891
ealand	-9892
former	-9893
handed	-9894
inated	-9895
shield	-9896
sticks	-9897
umbled	-9898
▁2005.	-9899
▁2009.	-9900
▁BROWN	-9901
▁Close	-9902
▁Creat	-9903
▁Davis	-9904
▁Grant	-9905
▁Jacob	-9906
▁Mabel	-9907
▁Maine	-9908
▁Ninja	-9909
▁Order	-9910
▁Patty	-9911
▁Radio	-9912
▁Ready	-9913
▁Rider	-9914
▁SOMET	-9915
▁Super	-9916
▁Techn	-9917
▁Timor	-9918
▁bears	-9919
▁bliss	-9920
▁booth	-9921
▁brake	-9922
▁brass	-9923
▁chart	-9924
▁crest	-9925
▁dairy	-9926
▁devil	-9927
▁elbow	-9928
▁frank	-9929
▁hadta	-9930
▁lemme	-9931
▁loyal	-9932
▁nests	-9933
▁nicer	-9934
▁nomin	-9935
▁persu	-9936
▁poems	-9937
▁prime	-9938
▁punch	-9939
▁recon	-9940
▁reign	-9941
▁ships	-9942
▁snack	-9943
▁sober	-9944
▁solve	-9945
▁stake	-9946
▁stout	-9947
▁tenor	-9948
▁twist	-9949
▁wrath	-9950
drawing	-9951
enohyla	-9952
natured	-9953
ouncing	-9954
pulling	-9955
working	-9956
▁ARROWS	-9957
▁Adrian	-9958
▁Arthur	-9959
▁Battle	-9960
▁Brandy	-9961
▁Brenda	-9962
▁CHRIST	-9963
▁Carrie	-9964
▁Daniel	-9965
▁Elliot	-9966
▁Essert	-9967
▁Juliet	-9968
▁Madrid	-9969
▁Marine	-9970
▁Orange	-9971
▁Pazzag	-9972
▁Rafael	-9973
▁Scient	-9974
▁Stokke	-9975
▁Thirty	-9976
▁Toyama	-9977
▁Turkey	-9978
▁Unless	-9979
▁awhile	-9980
▁behalf	-9981
▁belief	-9982
▁betray	-9983
▁brains	-9984
▁burden	-9985
▁candle	-9986
▁cattle	-9987
▁clouds	-9988
▁device	-9989
▁drawer	-9990
▁finest	-9991
▁french	-9992
▁fridge	-9993
▁ghosts	-9994
▁graham	-9995
▁hunted	-9996
▁infect	-9997
▁kicked	-9998
▁killer	-9999
▁lasted	-10000
▁lesson	-10001
▁lumber	-10002
▁matron	-10003
▁microw	-10004
▁mobile	-10005
▁nearby	-10006
▁nickel	-10007
▁option	-10008
▁philos	-10009
▁plates	-10010
▁popped	-10011
▁prompt	-10012
▁recent	-10013
▁rescue	-10014
▁robins	-10015
▁safely	-10016
▁sample	-10017
▁savage	-10018
▁seized	-10019
▁sneeze	-10020
▁somers	-10021
▁stimul	-10022
▁supply	-10023
▁tanker	-10024
▁throws	-10025
▁traces	-10026
▁unable	-10027
▁valent	-10028
▁wiggle	-10029
▁wishes	-10030
cription	-10031
ferences	-10032
▁Chicken	-10033
▁Company	-10034
▁Flupper	-10035
▁Grandma	-10036
▁Knowles	-10037
▁Lincoln	-10038
▁Morning	-10039
▁Premier	-10040
▁Theatre	-10041
▁Weather	-10042
▁Wichita	-10043
▁annoyed	-10044
▁average	-10045
▁billion	-10046
▁borders	-10047
▁choking	-10048
▁chowder	-10049
▁citizen	-10050
▁claimed	-10051
▁closing	-10052
▁consequ	-10053
▁corners	-10054
▁curtain	-10055
▁deliber	-10056
▁disagre	-10057
▁episode	-10058
▁factory	-10059
▁fantasy	-10060
▁floated	-10061
▁furious	-10062
▁glanced	-10063
▁grinned	-10064
▁hamster	-10065
▁happily	-10066
▁honored	-10067
▁induced	-10068
▁longest	-10069
▁longing	-10070
▁mailman	-10071
▁markers	-10072
▁moomilk	-10073
▁mumbled	-10074
▁peoples	-10075
▁portion	-10076
▁prayers	-10077
▁primary	-10078
▁provide	-10079
▁reflect	-10080
▁reports	-10081
▁rooster	-10082
▁savages	-10083
▁shaking	-10084
▁stacked	-10085
▁stretch	-10086
▁tragedy	-10087
▁tremend	-10088
▁watches	-10089
committee	-10090
ightspeed	-10091
ravaganza	-10092
▁Assembly	-10093
▁Colorado	-10094
▁Independ	-10095
▁Medicine	-10096
▁Province	-10097
▁Services	-10098
▁Somebody	-10099
▁allergic	-10100
▁animated	-10101
▁backward	-10102
▁charming	-10103
▁circumst	-10104
▁contempt	-10105
▁counting	-10106
▁cracking	-10107
▁distress	-10108
▁dreaming	-10109
▁dressing	-10110
▁educated	-10111
▁guessing	-10112
▁honestly	-10113
▁knocking	-10114
▁mustache	-10115
▁nonsense	-10116
▁partners	-10117
▁politely	-10118
▁porridge	-10119
▁practise	-10120
▁princess	-10121
▁secretly	-10122
▁security	-10123
▁sidewalk	-10124
▁terrific	-10125
▁Detective	-10126
▁Executive	-10127
▁Fairmount	-10128
▁Territory	-10129
▁VALENTINE	-10130
▁airplanes	-10131
▁brilliant	-10132
▁buffaloes	-10133
▁buildings	-10134
▁chemistry	-10135
▁childhood	-10136
▁constable	-10137
▁curiously	-10138
▁economics	-10139
▁evidently	-10140
▁fictional	-10141
▁graduated	-10142
▁influence	-10143
▁innkeeper	-10144
▁nightmare	-10145
▁potential	-10146
▁preferred	-10147
▁proceeded	-10148
▁referring	-10149
▁reflected	-10150
▁responded	-10151
▁southwest	-10152
▁vegetable	-10153
▁Conference	-10154
▁profession	-10155
▁straighten	-10156
▁stretching	-10157
▁supporting	-10158
▁terrorists	-10159
▁Oxfordshire	-10160
▁combination	-10161
▁concentrate	-10162
▁distribution	-10163
▁manufacturer	-10164
▁thoughtfully	-10165
▁pronunciation	-10166
▁administrative	-10167
,.	-10168
11	-10169
60	-10170
63	-10171
75	-10172
:=	-10173
Al	-10174
Bl	-10175
CI	-10176
DE	-10177
PY	-10178
]:	-10179
gt	-10180
ih	-10181
iy	-10182
mt	-10183
su	-10184
uo	-10185
00,	-10186
AYS	-10187
Col	-10188
IES	-10189
ILE	-10190
LOW	-10191
MAS	-10192
OLD	-10193
THE	-10194
ais	-10195
bie	-10196
bro	-10197
eez	-10198
fit	-10199
gel	-10200
nah	-10201
new	-10202
non	-10203
phe	-10204
rah	-10205
sen	-10206
sho	-10207
til	-10208
ups	-10209
vas	-10210
wor	-10211
▁37	-10212
▁90	-10213
▁AL	-10214
▁Eh	-10215
▁FR	-10216
▁GB	-10217
▁Oj	-10218
▁Ou	-10219
▁Oz	-10220
▁Ya	-10221
▁Ye	-10222
▁[8	-10223
▁vs	-10224
/010	-10225
Cier	-10226
IGHS	-10227
Jack	-10228
NING	-10229
Paul	-10230
VERY	-10231
Yeah	-10232
acht	-10233
apes	-10234
arin	-10235
athy	-10236
boro	-10237
comp	-10238
enne	-10239
eton	-10240
hara	-10241
icky	-10242
ikki	-10243
illo	-10244
ilot	-10245
inae	-10246
incl	-10247
inda	-10248
know	-10249
lied	-10250
lies	-10251
maid	-10252
nens	-10253
otic	-10254
otta	-10255
pend	-10256
pert	-10257
phia	-10258
quis	-10259
rive	-10260
robe	-10261
stan	-10262
sure	-10263
ties	-10264
uals	-10265
uces	-10266
ucks	-10267
umed	-10268
viet	-10269
weed	-10270
▁1.7	-10271
▁183	-10272
▁AUT	-10273
▁Alz	-10274
▁Ath	-10275
▁BET	-10276
▁Ban	-10277
▁Bir	-10278
▁Def	-10279
▁Dev	-10280
▁Fat	-10281
▁Fun	-10282
▁GRE	-10283
▁Gal	-10284
▁HAP	-10285
▁HEY	-10286
▁Int	-10287
▁Kim	-10288
▁Kin	-10289
▁MOB	-10290
▁MRS	-10291
▁Mem	-10292
▁OOH	-10293
▁Owl	-10294
▁Pey	-10295
▁ROB	-10296
▁RUN	-10297
▁Sus	-10298
▁Tro	-10299
▁arg	-10300
▁cou	-10301
▁deb	-10302
▁era	-10303
▁fab	-10304
▁fow	-10305
▁ing	-10306
▁lic	-10307
▁oak	-10308
▁pow	-10309
▁rif	-10310
April	-10311
adies	-10312
adise	-10313
after	-10314
apaho	-10315
avier	-10316
becca	-10317
butus	-10318
cleis	-10319
comed	-10320
earch	-10321
eding	-10322
enezy	-10323
eting	-10324
flict	-10325
graph	-10326
heren	-10327
hibit	-10328
holes	-10329
icker	-10330
ilton	-10331
isure	-10332
lades	-10333
ooked	-10334
ooped	-10335
othes	-10336
rades	-10337
rison	-10338
shows	-10339
storm	-10340
sweet	-10341
ucked	-10342
umper	-10343
woman	-10344
▁1927	-10345
▁1933	-10346
▁1982	-10347
▁1988	-10348
▁1998	-10349
▁2001	-10350
▁2004	-10351
▁Ariz	-10352
▁Bund	-10353
▁COMP	-10354
▁Clay	-10355
▁Cole	-10356
▁Cumm	-10357
▁DOWN	-10358
▁Dark	-10359
▁Down	-10360
▁JOHN	-10361
▁Left	-10362
▁Leip	-10363
▁MISS	-10364
▁Manu	-10365
▁Mort	-10366
▁Nazi	-10367
▁Near	-10368
▁Nora	-10369
▁Pers	-10370
▁SFWA	-10371
▁SOME	-10372
▁Sent	-10373
▁Song	-10374
▁Tock	-10375
▁Trin	-10376
▁Vall	-10377
▁Vari	-10378
▁WELL	-10379
▁Walt	-10380
▁[4.5	-10381
▁ache	-10382
▁bade	-10383
▁buds	-10384
▁cert	-10385
▁code	-10386
▁cops	-10387
▁cush	-10388
▁dart	-10389
▁dawn	-10390
▁dent	-10391
▁dive	-10392
▁evac	-10393
▁fans	-10394
▁file	-10395
▁fuel	-10396
▁gang	-10397
▁glue	-10398
▁gras	-10399
▁grat	-10400
▁hint	-10401
▁jerk	-10402
▁leap	-10403
▁liqu	-10404
▁mare	-10405
▁meme	-10406
▁narr	-10407
▁pang	-10408
▁peep	-10409
▁punk	-10410
▁puzz	-10411
▁scot	-10412
▁sets	-10413
▁sofa	-10414
▁soot	-10415
▁swam	-10416
▁swan	-10417
▁weas	-10418
▁webs	-10419
Fraser	-10420
Indeed	-10421
ainbow	-10422
blings	-10423
ection	-10424
errens	-10425
ithely	-10426
ittees	-10427
lement	-10428
orange	-10429
refers	-10430
shaped	-10431
suckle	-10432
taking	-10433
trying	-10434
ventry	-10435
▁1994.	-10436
▁2002.	-10437
▁2013.	-10438
▁2022,	-10439
▁Biden	-10440
▁Blake	-10441
▁Bring	-10442
▁COULD	-10443
▁Chile	-10444
▁Colon	-10445
▁Corps	-10446
▁Costa	-10447
▁Crist	-10448
▁Edgar	-10449
▁Haven	-10450
▁Horse	-10451
▁Kamen	-10452
▁Mandy	-10453
▁Nikki	-10454
▁Peruv	-10455
▁Roany	-10456
▁Spark	-10457
▁Swiss	-10458
▁anger	-10459
▁baked	-10460
▁boast	-10461
▁chips	-10462
▁cloak	-10463
▁coats	-10464
▁colon	-10465
▁danny	-10466
▁dwell	-10467
▁fears	-10468
▁flood	-10469
▁fraud	-10470
▁frequ	-10471
▁geese	-10472
▁gross	-10473
▁hollo	-10474
▁maint	-10475
▁mercy	-10476
▁midst	-10477
▁mills	-10478
▁mummy	-10479
▁occas	-10480
▁pills	-10481
▁pussy	-10482
▁racer	-10483
▁repro	-10484
▁rides	-10485
▁roots	-10486
▁rugby	-10487
▁shock	-10488
▁sixth	-10489
▁solid	-10490
▁spots	-10491
▁sworn	-10492
▁syrup	-10493
▁tapes	-10494
▁trace	-10495
▁whiny	-10496
▁wiped	-10497
Cierges	-10498
Possens	-10499
Station	-10500
ceiving	-10501
eramics	-10502
fecture	-10503
hearted	-10504
ication	-10505
iggling	-10506
sterdam	-10507
uddenly	-10508
ulation	-10509
vellous	-10510
vention	-10511
▁2019),	-10512
▁Austin	-10513
▁Belize	-10514
▁Carlos	-10515
▁Center	-10516
▁Cookie	-10517
▁Dallas	-10518
▁Denezy	-10519
▁Florry	-10520
▁Friend	-10521
▁Harvey	-10522
▁Heaven	-10523
▁Histor	-10524
▁Knight	-10525
▁Korean	-10526
▁Lovely	-10527
▁Mister	-10528
▁Moscow	-10529
▁Nadine	-10530
▁Nagata	-10531
▁Neyruz	-10532
▁Norway	-10533
▁Peyres	-10534
▁Safety	-10535
▁Semple	-10536
▁Sherry	-10537
▁THANKS	-10538
▁Tonsil	-10539
▁Twenty	-10540
▁Warner	-10541
▁amused	-10542
▁anyhow	-10543
▁awards	-10544
▁barely	-10545
▁bishop	-10546
▁boiled	-10547
▁brandy	-10548
▁calcul	-10549
▁calmly	-10550
▁combat	-10551
▁compar	-10552
▁crutch	-10553
▁denied	-10554
▁dismay	-10555
▁dragon	-10556
▁driven	-10557
▁enthus	-10558
▁firing	-10559
▁joyful	-10560
▁louder	-10561
▁nipple	-10562
▁online	-10563
▁orders	-10564
▁palace	-10565
▁policy	-10566
▁prices	-10567
▁pupils	-10568
▁refers	-10569
▁resent	-10570
▁runnin	-10571
▁salary	-10572
▁scored	-10573
▁slides	-10574
▁sovere	-10575
▁spoons	-10576
▁status	-10577
▁summit	-10578
▁tattoo	-10579
▁unkind	-10580
adelphia	-10581
herenges	-10582
ideotape	-10583
izations	-10584
pretends	-10585
speaking	-10586
▁Airport	-10587
▁Arapaho	-10588
▁Arizona	-10589
▁Channel	-10590
▁Chanéaz	-10591
▁Fairies	-10592
▁Grannis	-10593
▁Kenneth	-10594
▁Norfolk	-10595
▁Olympic	-10596
▁Science	-10597
▁Supreme	-10598
▁accused	-10599
▁angrily	-10600
▁bubbles	-10601
▁candles	-10602
▁concert	-10603
▁confirm	-10604
▁defense	-10605
▁depends	-10606
▁display	-10607
▁doctors	-10608
▁economy	-10609
▁efforts	-10610
▁foreign	-10611
▁grammar	-10612
▁hardest	-10613
▁hostage	-10614
▁hurting	-10615
▁immense	-10616
▁impress	-10617
▁ketchup	-10618
▁leaders	-10619
▁lecture	-10620
▁leisure	-10621
▁lightly	-10622
▁massive	-10623
▁nearest	-10624
▁needles	-10625
▁perfume	-10626
▁popcorn	-10627
▁printed	-10628
▁readily	-10629
▁reminds	-10630
▁removes	-10631
▁runaway	-10632
▁samples	-10633
▁screwed	-10634
▁surgery	-10635
▁systems	-10636
▁testing	-10637
▁triumph	-10638
▁variety	-10639
▁wounded	-10640
▁Atlantic	-10641
▁Carolina	-10642
▁Caroline	-10643
▁Chapelle	-10644
▁Correvon	-10645
▁Coventry	-10646
▁Cummings	-10647
▁Dartmoor	-10648
▁Economic	-10649
▁Eminence	-10650
▁Goumoens	-10651
▁Hamilton	-10652
▁Lausanne	-10653
▁Scotland	-10654
▁Suddenly	-10655
▁advanced	-10656
▁basement	-10657
▁careless	-10658
▁champion	-10659
▁collabor	-10660
▁comments	-10661
▁comrades	-10662
▁confront	-10663
▁covering	-10664
▁creamery	-10665
▁creating	-10666
▁criminal	-10667
▁economic	-10668
▁engineer	-10669
▁entering	-10670
▁examined	-10671
▁grandson	-10672
▁hurrying	-10673
▁inclined	-10674
▁industri	-10675
▁inquired	-10676
▁inspired	-10677
▁internet	-10678
▁location	-10679
▁meantime	-10680
▁mistakes	-10681
▁overwhel	-10682
▁paddocks	-10683
▁precious	-10684
▁programs	-10685
▁projects	-10686
▁radiator	-10687
▁relation	-10688
▁reserved	-10689
▁scraping	-10690
▁sensible	-10691
▁shopping	-10692
▁sickness	-10693
▁stranger	-10694
▁stronger	-10695
▁superior	-10696
▁tiresome	-10697
▁trailing	-10698
▁vacation	-10699
▁vehicles	-10700
▁villages	-10701
▁Aldithely	-10702
▁Alzheimer	-10703
▁Americans	-10704
▁Amsterdam	-10705
▁Banglades	-10706
▁CHRISTMAS	-10707
▁Champions	-10708
▁Gentlemen	-10709
▁Princeton	-10710
▁SOMETHING	-10711
▁Thierrens	-10712
▁Universal	-10713
▁attempted	-10714
▁committed	-10715
▁completed	-10716
▁convinced	-10717
▁elections	-10718
▁estimator	-10719
▁executive	-10720
▁favourite	-10721
▁finishing	-10722
▁gentleman	-10723
▁legendary	-10724
▁liability	-10725
▁nominated	-10726
▁performed	-10727
▁sarcastic	-10728
▁satisfied	-10729
▁secretary	-10730
▁signature	-10731
▁swallowed	-10732
▁technical	-10733
▁territory	-10734
▁worldwide	-10735
▁Especially	-10736
▁Montanaire	-10737
▁compliment	-10738
▁confidence	-10739
▁controvers	-10740
▁instrument	-10741
▁introduced	-10742
▁mysterious	-10743
▁punishment	-10744
▁reasonable	-10745
▁settlement	-10746
▁tremendous	-10747
▁Corporation	-10748
▁PlayStation	-10749
▁beautifully	-10750
▁competitors	-10751
▁description	-10752
▁distributed	-10753
▁exclamation	-10754
▁investigate	-10755
▁personality	-10756
▁resignation	-10757
▁territories	-10758
▁understands	-10759
▁Martherenges	-10760
▁Southwestern	-10761
▁constitution	-10762
▁disagreeable	-10763
▁organisation	-10764
▁consciousness	-10765
▁entertainment	-10766
";	-10767
._	-10768
15	-10769
21	-10770
28	-10771
YS	-10772
ds	-10773
du	-10774
oz	-10775
tu	-10776
yu	-10777
▁/	-10778
!’”	-10779
.'"	-10780
2),	-10781
4),	-10782
6),	-10783
;.7	-10784
ANS	-10785
FOR	-10786
Far	-10787
Har	-10788
ICK	-10789
INK	-10790
INS	-10791
IRC	-10792
IRD	-10793
OSE	-10794
OUG	-10795
REN	-10796
VES	-10797
aro	-10798
axy	-10799
bba	-10800
cia	-10801
ede	-10802
err	-10803
hiy	-10804
iya	-10805
kar	-10806
kee	-10807
lle	-10808
obu	-10809
occ	-10810
ola	-10811
ooh	-10812
oux	-10813
poc	-10814
rog	-10815
rvi	-10816
toy	-10817
ulk	-10818
unc	-10819
via	-10820
yed	-10821
▁""	-10822
▁53	-10823
▁98	-10824
▁Ak	-10825
▁CD	-10826
▁Cu	-10827
▁Dy	-10828
▁Gw	-10829
▁IF	-10830
▁MP	-10831
▁Ny	-10832
▁Oi	-10833
▁SM	-10834
▁Ta	-10835
▁VI	-10836
▁Ve	-10837
▁ba	-10838
▁ls	-10839
▁nd	-10840
▁oy	-10841
000.	-10842
AKER	-10843
Chan	-10844
IRST	-10845
Jane	-10846
RING	-10847
Rhin	-10848
Will	-10849
abin	-10850
agon	-10851
aman	-10852
apoo	-10853
avor	-10854
bian	-10855
coll	-10856
eals	-10857
edge	-10858
etto	-10859
ffic	-10860
font	-10861
four	-10862
gian	-10863
girl	-10864
give	-10865
good	-10866
grow	-10867
ibly	-10868
ichi	-10869
icit	-10870
ints	-10871
kali	-10872
laps	-10873
ller	-10874
lobe	-10875
nods	-10876
okay	-10877
onym	-10878
ooey	-10879
osem	-10880
quet	-10881
rait	-10882
udes	-10883
uene	-10884
ugen	-10885
uish	-10886
ulls	-10887
umer	-10888
vest	-10889
worm	-10890
yers	-10891
▁1.4	-10892
▁88.	-10893
▁Age	-10894
▁Ale	-10895
▁Ash	-10896
▁Aut	-10897
▁Bog	-10898
▁CHI	-10899
▁Cra	-10900
▁Cut	-10901
▁Dol	-10902
▁OUR	-10903
▁Sex	-10904
▁Shi	-10905
▁Wom	-10906
▁cru	-10907
▁goo	-10908
▁hic	-10909
▁hip	-10910
▁hom	-10911
▁jog	-10912
▁lin	-10913
▁lit	-10914
▁mol	-10915
▁pea	-10916
▁ped	-10917
▁pir	-10918
▁pul	-10919
▁ren	-10920
▁rot	-10921
▁sch	-10922
▁sox	-10923
▁unm	-10924
▁unp	-10925
▁vel	-10926
▁vow	-10927
▁wed	-10928
OTHER	-10929
SIGHS	-10930
amped	-10931
andal	-10932
arian	-10933
asure	-10934
balls	-10935
becue	-10936
child	-10937
eling	-10938
erina	-10939
faced	-10940
fruit	-10941
grabs	-10942
illes	-10943
impse	-10944
istic	-10945
itals	-10946
lause	-10947
lifts	-10948
oning	-10949
ossie	-10950
overs	-10951
prise	-10952
ribly	-10953
shine	-10954
stery	-10955
sylum	-10956
uning	-10957
vived	-10958
wants	-10959
▁1936	-10960
▁1957	-10961
▁1962	-10962
▁2009	-10963
▁2021	-10964
▁Alma	-10965
▁Bear	-10966
▁Bolt	-10967
▁Budd	-10968
▁Bull	-10969
▁CHAR	-10970
▁CIRC	-10971
▁Dick	-10972
▁GIVE	-10973
▁Gray	-10974
▁Half	-10975
▁Hand	-10976
▁Haut	-10977
▁Help	-10978
▁Inez	-10979
▁JOEY	-10980
▁Kirk	-10981
▁Lisa	-10982
▁Mean	-10983
▁Mess	-10984
▁Mult	-10985
▁NCAA	-10986
▁Name	-10987
▁Nova	-10988
▁Plan	-10989
▁Prix	-10990
▁SHAR	-10991
▁STOP	-10992
▁SURE	-10993
▁Salt	-10994
▁Same	-10995
▁TRIP	-10996
▁Twin	-10997
▁Vant	-10998
▁Wasn	-10999
▁[4.8	-11000
▁[5.3	-11001
▁bust	-11002
▁darn	-11003
▁debt	-11004
▁deck	-11005
▁dime	-11006
▁fake	-11007
▁fate	-11008
▁fier	-11009
▁heap	-11010
▁hosp	-11011
▁judg	-11012
▁kilo	-11013
▁lame	-11014
▁lawn	-11015
▁leak	-11016
▁limp	-11017
▁mama	-11018
▁mend	-11019
▁nort	-11020
▁obsc	-11021
▁pier	-11022
▁seed	-11023
▁sequ	-11024
▁teen	-11025
▁tipp	-11026
▁tore	-11027
▁wist	-11028
▁yawn	-11029
ablack	-11030
achers	-11031
allows	-11032
askins	-11033
atters	-11034
everal	-11035
iments	-11036
legged	-11037
liness	-11038
nament	-11039
orship	-11040
ounces	-11041
outing	-11042
pisode	-11043
please	-11044
ribble	-11045
starts	-11046
string	-11047
ternal	-11048
turned	-11049
verdon	-11050
▁1993.	-11051
▁2008.	-11052
▁2022.	-11053
▁2023,	-11054
▁AGAIN	-11055
▁Andre	-11056
▁Birth	-11057
▁Bless	-11058
▁CHUNG	-11059
▁Celia	-11060
▁Chuck	-11061
▁Coast	-11062
▁Croat	-11063
▁Doesn	-11064
▁Donna	-11065
▁Hooey	-11066
▁Liber	-11067
▁Panda	-11068
▁Pedro	-11069
▁Times	-11070
▁WHITT	-11071
▁Years	-11072
▁accur	-11073
▁ashes	-11074
▁bubba	-11075
▁bucks	-11076
▁camel	-11077
▁cheek	-11078
▁clubs	-11079
▁crept	-11080
▁crops	-11081
▁diagn	-11082
▁dings	-11083
▁disgu	-11084
▁domin	-11085
▁exact	-11086
▁faded	-11087
▁frame	-11088
▁givin	-11089
▁goals	-11090
▁grubs	-11091
▁havin	-11092
▁holly	-11093
▁hoots	-11094
▁jokes	-11095
▁liber	-11096
▁lifts	-11097
▁mamma	-11098
▁march	-11099
▁marks	-11100
▁mouse	-11101
▁noisy	-11102
▁overt	-11103
▁peach	-11104
▁porch	-11105
▁prune	-11106
▁punct	-11107
▁rates	-11108
▁reply	-11109
▁ruled	-11110
▁sabot	-11111
▁scoot	-11112
▁seats	-11113
▁shone	-11114
▁simpl	-11115
▁sunny	-11116
▁tease	-11117
▁trash	-11118
▁vigor	-11119
▁votes	-11120
▁wreck	-11121
▁yacht	-11122
aghetti	-11123
anation	-11124
andyman	-11125
because	-11126
calling	-11127
correct	-11128
iceless	-11129
ickapoo	-11130
onomous	-11131
related	-11132
someone	-11133
velopes	-11134
▁Barrow	-11135
▁Biddle	-11136
▁Bremer	-11137
▁CONNIE	-11138
▁Census	-11139
▁Common	-11140
▁Forces	-11141
▁Hurley	-11142
▁Indeed	-11143
▁Jewell	-11144
▁Keeper	-11145
▁Maggie	-11146
▁Marcus	-11147
▁Marino	-11148
▁Murray	-11149
▁REALLY	-11150
▁Season	-11151
▁Sentai	-11152
▁Sultan	-11153
▁Vernon	-11154
▁Winter	-11155
▁accent	-11156
▁adding	-11157
▁advise	-11158
▁agency	-11159
▁albums	-11160
▁alkali	-11161
▁ashore	-11162
▁astron	-11163
▁bucket	-11164
▁coffin	-11165
▁crisis	-11166
▁crowds	-11167
▁deputy	-11168
▁ending	-11169
▁exquis	-11170
▁fisher	-11171
▁garlic	-11172
▁gloves	-11173
▁habits	-11174
▁honour	-11175
▁images	-11176
▁integr	-11177
▁jewels	-11178
▁kidney	-11179
▁laying	-11180
▁listed	-11181
▁lookin	-11182
▁melted	-11183
▁messed	-11184
▁metals	-11185
▁muzzle	-11186
▁nurses	-11187
▁offers	-11188
▁packed	-11189
▁partly	-11190
▁polite	-11191
▁prayer	-11192
▁precip	-11193
▁prizes	-11194
▁recess	-11195
▁repair	-11196
▁ruling	-11197
▁rustle	-11198
▁sacred	-11199
▁scenes	-11200
▁sector	-11201
▁shirts	-11202
▁sooner	-11203
▁spears	-11204
▁squeal	-11205
▁strang	-11206
▁stress	-11207
▁tastes	-11208
▁treble	-11209
▁trolls	-11210
▁velvet	-11211
▁walnut	-11212
▁warmth	-11213
▁waving	-11214
▁wholly	-11215
▁wisdom	-11216
atteries	-11217
election	-11218
ications	-11219
inations	-11220
islature	-11221
ximately	-11222
▁Already	-11223
▁Antonio	-11224
▁Bowling	-11225
▁Connect	-11226
▁Episode	-11227
▁Express	-11228
▁Faculty	-11229
▁Flossie	-11230
▁Fucking	-11231
▁Hayward	-11232
▁Horrors	-11233
▁Islands	-11234
▁Leipzig	-11235
▁Monster	-11236
▁Packard	-11237
▁Rebecca	-11238
▁Senator	-11239
▁Several	-11240
▁Stadium	-11241
▁Station	-11242
▁Through	-11243
▁Vincent	-11244
▁arbutus	-11245
▁assured	-11246
▁baggage	-11247
▁banging	-11248
▁bathtub	-11249
▁bottles	-11250
▁capable	-11251
▁chopped	-11252
▁circles	-11253
▁climbed	-11254
▁comrade	-11255
▁context	-11256
▁degrees	-11257
▁distant	-11258
▁divorce	-11259
▁dresser	-11260
▁elderly	-11261
▁forming	-11262
▁glimpse	-11263
▁grounds	-11264
▁horizon	-11265
▁humming	-11266
▁jammies	-11267
▁landing	-11268
▁lifting	-11269
▁milkman	-11270
▁nowhere	-11271
▁orphans	-11272
▁overlap	-11273
▁pitcher	-11274
▁pockets	-11275
▁prepare	-11276
▁produce	-11277
▁slender	-11278
▁spirits	-11279
▁trailer	-11280
▁twisted	-11281
▁workers	-11282
▁writers	-11283
imitating	-11284
ropolitan	-11285
velopment	-11286
▁Bartlemy	-11287
▁Director	-11288
▁Fernando	-11289
▁Festival	-11290
▁MaryJane	-11291
▁Peruvian	-11292
▁Philippa	-11293
▁Railroad	-11294
▁Tomorrow	-11295
▁Washburn	-11296
▁abruptly	-11297
▁adoption	-11298
▁annoying	-11299
▁approved	-11300
▁barbecue	-11301
▁bothered	-11302
▁category	-11303
▁clatters	-11304
▁clearing	-11305
▁climbing	-11306
▁concerns	-11307
▁crossing	-11308
▁deceived	-11309
▁defeated	-11310
▁describe	-11311
▁disagree	-11312
▁extended	-11313
▁fountain	-11314
▁fracture	-11315
▁gracious	-11316
▁homesick	-11317
▁hopeless	-11318
▁horizont	-11319
▁ignorant	-11320
▁illusion	-11321
▁indicate	-11322
▁mistaken	-11323
▁observed	-11324
▁offering	-11325
▁pathetic	-11326
▁politics	-11327
▁reaction	-11328
▁recorded	-11329
▁regarded	-11330
▁relieved	-11331
▁required	-11332
▁scholars	-11333
▁severely	-11334
▁speedily	-11335
▁splendor	-11336
▁startled	-11337
▁thorough	-11338
▁wandered	-11339
▁welcomed	-11340
indicating	-11341
travaganza	-11342
▁Argentine	-11343
▁Authority	-11344
▁Commander	-11345
▁Drosophil	-11346
▁Geography	-11347
▁WHITTAKER	-11348
▁architect	-11349
▁ballerina	-11350
▁crinkling	-11351
▁diagnosed	-11352
▁envelopes	-11353
▁gradually	-11354
▁guarantee	-11355
▁introduce	-11356
▁materials	-11357
▁mushrooms	-11358
▁naturally	-11359
▁passenger	-11360
▁pollution	-11361
▁presenter	-11362
▁pretended	-11363
▁reference	-11364
▁regarding	-11365
▁relatives	-11366
▁remaining	-11367
▁returning	-11368
▁suspicion	-11369
▁treatment	-11370
▁uncertain	-11371
▁Vantablack	-11372
▁aggressive	-11373
▁attempting	-11374
▁cheerfully	-11375
▁depression	-11376
▁importance	-11377
▁nomination	-11378
▁presidency	-11379
▁scientific	-11380
▁desperately	-11381
▁differently	-11382
▁explanation	-11383
▁intelligent	-11384
▁magnificent	-11385
▁possibility	-11386
▁restaurants	-11387
▁independence	-11388
▁instructions	-11389
▁unsuccessfully	-11390
12	-11391
45	-11392
96	-11393
FL	-11394
KS	-11395
ME	-11396
MY	-11397
NG	-11398
Re	-11399
Sc	-11400
TC	-11401
vy	-11402
;.5	-11403
;.6	-11404
Ain	-11405
CDP	-11406
CES	-11407
ICH	-11408
IDS	-11409
OTH	-11410
San	-11411
War	-11412
abe	-11413
aka	-11414
ani	-11415
arl	-11416
asm	-11417
bag	-11418
big	-11419
chi	-11420
ela	-11421
elf	-11422
equ	-11423
god	-11424
gon	-11425
hem	-11426
him	-11427
hot	-11428
hua	-11429
hum	-11430
hun	-11431
irs	-11432
itn	-11433
lan	-11434
lom	-11435
lyb	-11436
osa	-11437
oye	-11438
rep	-11439
rio	-11440
sne	-11441
tur	-11442
uan	-11443
una	-11444
war	-11445
▁"’	-11446
▁AW	-11447
▁BC	-11448
▁Ca	-11449
▁Fa	-11450
▁Kn	-11451
▁Ow	-11452
▁Si	-11453
▁Wi	-11454
▁Wy	-11455
▁["	-11456
▁ic	-11457
▁ss	-11458
Dess	-11459
ELLE	-11460
ENCE	-11461
IONS	-11462
LING	-11463
Mend	-11464
OUND	-11465
ahoo	-11466
atsu	-11467
atus	-11468
avis	-11469
awat	-11470
ayed	-11471
bear	-11472
blem	-11473
bson	-11474
cane	-11475
cats	-11476
chor	-11477
cies	-11478
ckey	-11479
crib	-11480
does	-11481
eaux	-11482
eros	-11483
ezes	-11484
ggle	-11485
goin	-11486
hunh	-11487
igue	-11488
jake	-11489
last	-11490
loat	-11491
lots	-11492
mith	-11493
mony	-11494
oard	-11495
omez	-11496
oore	-11497
orff	-11498
orus	-11499
page	-11500
pran	-11501
pron	-11502
raph	-11503
resa	-11504
term	-11505
uchi	-11506
uded	-11507
uroy	-11508
▁1.2	-11509
▁31:	-11510
▁79.	-11511
▁92.	-11512
▁Buc	-11513
▁Cad	-11514
▁DAD	-11515
▁DID	-11516
▁Dum	-11517
▁Fol	-11518
▁Gen	-11519
▁HOR	-11520
▁Heh	-11521
▁Hot	-11522
▁Ice	-11523
▁Kay	-11524
▁MOR	-11525
▁Pan	-11526
▁Pap	-11527
▁Rub	-11528
▁SAY	-11529
▁SUN	-11530
▁Sav	-11531
▁Sax	-11532
▁Sop	-11533
▁TOO	-11534
▁Tam	-11535
▁Tru	-11536
▁Use	-11537
▁Yan	-11538
▁bef	-11539
▁ded	-11540
▁dee	-11541
▁dot	-11542
▁gee	-11543
▁gra	-11544
▁gri	-11545
▁gum	-11546
▁jar	-11547
▁mul	-11548
▁obt	-11549
▁paw	-11550
▁peg	-11551
▁pit	-11552
▁qua	-11553
▁raw	-11554
▁rev	-11555
▁sob	-11556
▁unw	-11557
▁vib	-11558
Champ	-11559
Somet	-11560
abber	-11561
adays	-11562
agers	-11563
airns	-11564
anges	-11565
atist	-11566
atory	-11567
aults	-11568
cking	-11569
cloth	-11570
cular	-11571
denum	-11572
enses	-11573
every	-11574
eward	-11575
hagen	-11576
hindo	-11577
inery	-11578
iping	-11579
isten	-11580
jamin	-11581
kered	-11582
letes	-11583
metal	-11584
ophie	-11585
outed	-11586
▁1928	-11587
▁1964	-11588
▁1979	-11589
▁1981	-11590
▁2003	-11591
▁2008	-11592
▁Arab	-11593
▁BOOK	-11594
▁BOYS	-11595
▁Ball	-11596
▁Bott	-11597
▁CLOS	-11598
▁Cher	-11599
▁Cinc	-11600
▁DUCK	-11601
▁Dead	-11602
▁Ditn	-11603
▁Dogs	-11604
▁Done	-11605
▁Drop	-11606
▁Educ	-11607
▁Emil	-11608
▁FROM	-11609
▁Flag	-11610
▁Isra	-11611
▁Lion	-11612
▁Magn	-11613
▁Marg	-11614
▁Meas	-11615
▁Nail	-11616
▁Nest	-11617
▁Nope	-11618
▁OPEN	-11619
▁Ojib	-11620
▁PAGE	-11621
▁Paph	-11622
▁Peng	-11623
▁Pick	-11624
▁Pict	-11625
▁Pint	-11626
▁Poll	-11627
▁Push	-11628
▁Rial	-11629
▁Rome	-11630
▁Sask	-11631
▁Shan	-11632
▁Skau	-11633
▁TAKE	-11634
▁TIME	-11635
▁Thus	-11636
▁Tour	-11637
▁Viet	-11638
▁Were	-11639
▁Whoa	-11640
▁Whoo	-11641
▁[1.9	-11642
▁acad	-11643
▁amen	-11644
▁bars	-11645
▁beef	-11646
▁boil	-11647
▁brid	-11648
▁crot	-11649
▁dies	-11650
▁exec	-11651
▁folk	-11652
▁fulf	-11653
▁goat	-11654
▁goss	-11655
▁hats	-11656
▁hump	-11657
▁iamb	-11658
▁idol	-11659
▁irre	-11660
▁mast	-11661
▁mead	-11662
▁nick	-11663
▁pace	-11664
▁pets	-11665
▁pion	-11666
▁plot	-11667
▁quid	-11668
▁rage	-11669
▁rent	-11670
▁ribs	-11671
▁sack	-11672
▁sele	-11673
▁slam	-11674
▁toes	-11675
▁toil	-11676
▁toot	-11677
▁vase	-11678
▁verd	-11679
▁wigw	-11680
▁yous	-11681
Peters	-11682
agraph	-11683
aguchi	-11684
aloons	-11685
angled	-11686
arette	-11687
celles	-11688
ceries	-11689
drinks	-11690
during	-11691
encies	-11692
enough	-11693
igible	-11694
imming	-11695
inging	-11696
innati	-11697
ipline	-11698
lasses	-11699
pecker	-11700
thened	-11701
uality	-11702
▁1969.	-11703
▁1986.	-11704
▁1987.	-11705
▁2006,	-11706
▁2010.	-11707
▁Auxon	-11708
▁Baker	-11709
▁Bible	-11710
▁Birds	-11711
▁Board	-11712
▁Bossy	-11713
▁Cathy	-11714
▁Civil	-11715
▁Clock	-11716
▁Craig	-11717
▁Danie	-11718
▁Dyson	-11719
▁Elect	-11720
▁Exede	-11721
▁Gomez	-11722
▁Jewel	-11723
▁Kerry	-11724
▁Larry	-11725
▁Lenny	-11726
▁MONEY	-11727
▁Marks	-11728
▁Nicky	-11729
▁Norwe	-11730
▁Ozaki	-11731
▁Pinky	-11732
▁Silva	-11733
▁Simon	-11734
▁Stine	-11735
▁Theis	-11736
▁Trees	-11737
▁Trust	-11738
▁Twins	-11739
▁Vance	-11740
▁Water	-11741
▁aired	-11742
▁alley	-11743
▁apost	-11744
▁awoke	-11745
▁basic	-11746
▁basis	-11747
▁cells	-11748
▁charm	-11749
▁craft	-11750
▁dated	-11751
▁ducky	-11752
▁entit	-11753
▁fella	-11754
▁fetch	-11755
▁flame	-11756
▁gaily	-11757
▁grows	-11758
▁handy	-11759
▁hired	-11760
▁horns	-11761
▁impul	-11762
▁inher	-11763
▁kites	-11764
▁lalal	-11765
▁loads	-11766
▁lover	-11767
▁mates	-11768
▁multi	-11769
▁naked	-11770
▁outta	-11771
▁param	-11772
▁peers	-11773
▁pharm	-11774
▁prose	-11775
▁revol	-11776
▁royal	-11777
▁scrat	-11778
▁sends	-11779
▁shark	-11780
▁skill	-11781
▁sneak	-11782
▁soxer	-11783
▁stair	-11784
▁strip	-11785
▁surve	-11786
▁tasks	-11787
▁union	-11788
▁views	-11789
▁warri	-11790
▁yards	-11791
Because	-11792
January	-11793
agnosia	-11794
anguage	-11795
atively	-11796
ciously	-11797
clearly	-11798
dropped	-11799
hension	-11800
igation	-11801
largest	-11802
perhaps	-11803
returns	-11804
ruption	-11805
section	-11806
sneezes	-11807
▁Addams	-11808
▁Animal	-11809
▁Bairns	-11810
▁Barcel	-11811
▁COMPAN	-11812
▁Carney	-11813
▁Clover	-11814
▁Design	-11815
▁Gibson	-11816
▁Hobart	-11817
▁Invest	-11818
▁Joshua	-11819
▁Leader	-11820
▁Leonor	-11821
▁Member	-11822
▁Montau	-11823
▁Patten	-11824
▁Shindo	-11825
▁Sister	-11826
▁Sophie	-11827
▁Spirit	-11828
▁Throat	-11829
▁Wouldn	-11830
▁Wright	-11831
▁accord	-11832
▁actors	-11833
▁arrang	-11834
▁assass	-11835
▁assume	-11836
▁behold	-11837
▁beings	-11838
▁bellow	-11839
▁bodily	-11840
▁boldly	-11841
▁canvas	-11842
▁castle	-11843
▁compre	-11844
▁diplom	-11845
▁dissol	-11846
▁distur	-11847
▁earned	-11848
▁exchan	-11849
▁fishes	-11850
▁france	-11851
▁fruits	-11852
▁global	-11853
▁grandd	-11854
▁humans	-11855
▁insist	-11856
▁jingle	-11857
▁lagoon	-11858
▁latest	-11859
▁parish	-11860
▁parted	-11861
▁pistol	-11862
▁playin	-11863
▁profit	-11864
▁refuge	-11865
▁rotten	-11866
▁ruined	-11867
▁saddle	-11868
▁scotch	-11869
▁senior	-11870
▁senses	-11871
▁smiles	-11872
▁spigot	-11873
▁squash	-11874
▁strict	-11875
▁survey	-11876
▁therap	-11877
▁trucks	-11878
▁tucked	-11879
▁tunnel	-11880
▁uncles	-11881
▁wander	-11882
▁warden	-11883
▁weasel	-11884
▁wholes	-11885
▁widely	-11886
ersonian	-11887
etterstr	-11888
hibition	-11889
impering	-11890
lybdenum	-11891
ordinary	-11892
▁Affairs	-11893
▁Annette	-11894
▁Colonel	-11895
▁Conserv	-11896
▁Foreign	-11897
▁Speaker	-11898
▁Suppose	-11899
▁Turkish	-11900
▁Village	-11901
▁Wallace	-11902
▁adopted	-11903
▁anguish	-11904
▁anyways	-11905
▁bending	-11906
▁cabinet	-11907
▁carpent	-11908
▁cartoon	-11909
▁caution	-11910
▁ceiling	-11911
▁checker	-11912
▁cleaned	-11913
▁cluster	-11914
▁comprom	-11915
▁consent	-11916
▁cracked	-11917
▁crashed	-11918
▁crystal	-11919
▁defined	-11920
▁descend	-11921
▁digging	-11922
▁england	-11923
▁faintly	-11924
▁firemen	-11925
▁flashed	-11926
▁goddard	-11927
▁happier	-11928
▁heading	-11929
▁hitting	-11930
▁illegal	-11931
▁illness	-11932
▁initial	-11933
▁injured	-11934
▁insects	-11935
▁kissing	-11936
▁loading	-11937
▁measure	-11938
▁mounted	-11939
▁mumbles	-11940
▁network	-11941
▁nuclear	-11942
▁painter	-11943
▁perched	-11944
▁privile	-11945
▁rattles	-11946
▁refused	-11947
▁rubbish	-11948
▁scandal	-11949
▁screams	-11950
▁slavery	-11951
▁strokes	-11952
▁subcons	-11953
▁torment	-11954
▁trochee	-11955
▁victims	-11956
▁wailing	-11957
▁walnuts	-11958
▁whiskey	-11959
Champvent	-11960
September	-11961
criticism	-11962
foundland	-11963
opagnosia	-11964
▁Benjamin	-11965
▁Columbus	-11966
▁Diandros	-11967
▁Nicholas	-11968
▁Personal	-11969
▁Research	-11970
▁Ronnette	-11971
▁accompan	-11972
▁apparent	-11973
▁appetite	-11974
▁arriving	-11975
▁attended	-11976
▁blankets	-11977
▁blossoms	-11978
▁breakers	-11979
▁breathed	-11980
▁brushing	-11981
▁ceremony	-11982
▁citizens	-11983
▁combined	-11984
▁demanded	-11985
▁dinosaur	-11986
▁faithful	-11987
▁heartily	-11988
▁infected	-11989
▁invented	-11990
▁kindness	-11991
▁literary	-11992
▁minority	-11993
▁mumbling	-11994
▁nowadays	-11995
▁obtained	-11996
▁peaceful	-11997
▁progress	-11998
▁railroad	-11999
▁reminded	-12000
▁revealed	-12001
▁separate	-12002
▁solution	-12003
▁talented	-12004
▁taunting	-12005
▁terribly	-12006
▁tropical	-12007
▁whistled	-12008
▁Argentina	-12009
▁Cambridge	-12010
▁Charlotte	-12011
▁Corcelles	-12012
▁Excellent	-12013
▁Meanwhile	-12014
▁Sakaguchi	-12015
▁Stonewall	-12016
▁Vanceboro	-12017
▁abandoned	-12018
▁agreeable	-12019
▁backwards	-12020
▁congratul	-12021
▁contracts	-12022
▁destroyed	-12023
▁gathering	-12024
▁governess	-12025
▁guitarist	-12026
▁honorable	-12027
▁impressed	-12028
▁indicates	-12029
▁instantly	-12030
▁interests	-12031
▁invention	-12032
▁microwave	-12033
▁muttering	-12034
▁permitted	-12035
▁propeller	-12036
▁provinces	-12037
▁reception	-12038
▁recognise	-12039
▁residents	-12040
▁scientist	-12041
▁sensitive	-12042
▁sentences	-12043
▁someplace	-12044
▁southeast	-12045
▁splashing	-12046
▁struggled	-12047
▁struggles	-12048
▁swordfish	-12049
▁targeting	-12050
▁thrilling	-12051
▁valentine	-12052
▁wistfully	-12053
volutionary	-12054
▁Bairnsdale	-12055
▁Cincinnati	-12056
▁Foundation	-12057
▁Scientists	-12058
▁associated	-12059
▁automobile	-12060
▁categories	-12061
▁decorative	-12062
▁discipline	-12063
▁indication	-12064
▁pantaloons	-12065
▁propensity	-12066
▁repeatedly	-12067
▁retirement	-12068
▁struggling	-12069
▁sunglasses	-12070
▁surrounded	-12071
▁sweetheart	-12072
▁windshield	-12073
▁yourselves	-12074
▁appointment	-12075
▁caterpillar	-12076
▁collections	-12077
▁continental	-12078
▁convenience	-12079
▁experiences	-12080
▁interrupted	-12081
▁neighboring	-12082
▁practically	-12083
▁questioning	-12084
▁scholarship	-12085
▁underground	-12086
▁Commissioner	-12087
▁Independence	-12088
▁astonishment	-12089
▁difficulties	-12090
▁screenwriter	-12091
▁Environmental	-12092
▁approximately	-12093
▁understanding	-12094
▁unfortunately	-12095
▁Representative	-12096
▁representative	-12097
13	-12098
25	-12099
35	-12100
CA	-12101
DD	-12102
Ke	-12103
NO	-12104
Pr	-12105
VI	-12106
hl	-12107
si	-12108
wk	-12109
él	-12110
’.	-12111
'."	-12112
1),	-12113
500	-12114
8).	-12115
ERY	-12116
Feb	-12117
Her	-12118
His	-12119
Man	-12120
NER	-12121
OOH	-12122
OSS	-12123
OWS	-12124
UST	-12125
Ven	-12126
apt	-12127
aux	-12128
bab	-12129
bas	-12130
bee	-12131
bia	-12132
din	-12133
eap	-12134
fed	-12135
hah	-12136
lie	-12137
odr	-12138
oms	-12139
omy	-12140
oom	-12141
osi	-12142
six	-12143
tal	-12144
tar	-12145
tic	-12146
tit	-12147
tor	-12148
ugg	-12149
urd	-12150
’,"	-12151
▁73	-12152
▁74	-12153
▁FC	-12154
▁HI	-12155
▁Mu	-12156
▁PH	-12157
▁Rh	-12158
▁ew	-12159
▁od	-12160
▁ts	-12161
ARAH	-12162
Char	-12163
ERED	-12164
Have	-12165
ILES	-12166
MING	-12167
Nove	-12168
OPLE	-12169
Once	-12170
STON	-12171
WARD	-12172
WELL	-12173
West	-12174
achi	-12175
ahas	-12176
ails	-12177
airo	-12178
anas	-12179
arsh	-12180
asmo	-12181
aste	-12182
atta	-12183
aund	-12184
axim	-12185
beat	-12186
bois	-12187
cade	-12188
chet	-12189
cing	-12190
coin	-12191
cups	-12192
door	-12193
ente	-12194
full	-12195
hame	-12196
hatt	-12197
hony	-12198
igny	-12199
iley	-12200
imed	-12201
inax	-12202
ippa	-12203
isha	-12204
ista	-12205
ivar	-12206
loft	-12207
mary	-12208
nine	-12209
nsic	-12210
obed	-12211
olis	-12212
onto	-12213
owed	-12214
prit	-12215
rain	-12216
rush	-12217
seud	-12218
stop	-12219
such	-12220
surd	-12221
tele	-12222
them	-12223
town	-12224
ught	-12225
umen	-12226
utor	-12227
vada	-12228
vals	-12229
vill	-12230
wear	-12231
ynam	-12232
zier	-12233
▁400	-12234
▁Abb	-12235
▁BAB	-12236
▁BAR	-12237
▁BRE	-12238
▁Bul	-12239
▁Cho	-12240
▁Daw	-12241
▁Dob	-12242
▁ETC	-12243
▁Ell	-12244
▁FAT	-12245
▁FRI	-12246
▁Fle	-12247
▁Gam	-12248
▁HAR	-12249
▁Hop	-12250
▁Inc	-12251
▁Jun	-12252
▁Kev	-12253
▁Koj	-12254
▁Las	-12255
▁MAK	-12256
▁McC	-12257
▁Mol	-12258
▁Mum	-12259
▁Non	-12260
▁Nyx	-12261
▁Pee	-12262
▁Pur	-12263
▁Rac	-12264
▁Rat	-12265
▁Rim	-12266
▁Sas	-12267
▁Sit	-12268
▁Sul	-12269
▁Tun	-12270
▁Typ	-12271
▁Viz	-12272
▁Vog	-12273
▁WAT	-12274
▁WHY	-12275
▁WOM	-12276
▁Way	-12277
▁Wee	-12278
▁Wid	-12279
▁Wik	-12280
▁Won	-12281
▁Woo	-12282
▁Yas	-12283
▁Yue	-12284
▁[11	-12285
▁[13	-12286
▁[16	-12287
▁ath	-12288
▁coc	-12289
▁hed	-12290
▁heh	-12291
▁moo	-12292
▁mop	-12293
▁oui	-12294
▁ram	-12295
▁rhy	-12296
▁rig	-12297
▁sod	-12298
▁ted	-12299
▁vic	-12300
▁wob	-12301
ASURE	-12302
Colin	-12303
Grand	-12304
Maybe	-12305
Sorry	-12306
aceut	-12307
acter	-12308
alian	-12309
aling	-12310
ancer	-12311
andel	-12312
angle	-12313
aning	-12314
anton	-12315
ashes	-12316
asper	-12317
atche	-12318
ateur	-12319
bells	-12320
carra	-12321
chant	-12322
class	-12323
draws	-12324
emies	-12325
ernal	-12326
estic	-12327
fires	-12328
grand	-12329
horse	-12330
icial	-12331
ickly	-12332
icted	-12333
inked	-12334
izard	-12335
journ	-12336
lines	-12337
mouth	-12338
never	-12339
opeka	-12340
overy	-12341
plant	-12342
pleas	-12343
plete	-12344
ppers	-12345
quire	-12346
rophy	-12347
sized	-12348
tells	-12349
ublic	-12350
umble	-12351
urred	-12352
uther	-12353
▁1929	-12354
▁1946	-12355
▁1952	-12356
▁1954	-12357
▁1955	-12358
▁1963	-12359
▁1974	-12360
▁1989	-12361
▁AGCO	-12362
▁Alle	-12363
▁Area	-12364
▁Barn	-12365
▁Belg	-12366
▁Birk	-12367
▁Bran	-12368
▁Busy	-12369
▁Cara	-12370
▁Conc	-12371
▁DOES	-12372
▁Deal	-12373
▁Euro	-12374
▁Fall	-12375
▁Fame	-12376
▁Find	-12377
▁GUYS	-12378
▁Garc	-12379
▁Gwen	-12380
▁Hell	-12381
▁Hind	-12382
▁Hung	-12383
▁Item	-12384
▁Kent	-12385
▁Lift	-12386
▁Live	-12387
▁Lots	-12388
▁Mesh	-12389
▁Mill	-12390
▁NEED	-12391
▁Pied	-12392
▁Raki	-12393
▁Real	-12394
▁Room	-12395
▁Sald	-12396
▁Susy	-12397
▁TELL	-12398
▁THEN	-12399
▁THEY	-12400
▁Thad	-12401
▁Took	-12402
▁Trud	-12403
▁WHEN	-12404
▁Walk	-12405
▁Ways	-12406
▁Word	-12407
▁abou	-12408
▁alle	-12409
▁amid	-12410
▁arts	-12411
▁bean	-12412
▁bows	-12413
▁coax	-12414
▁envy	-12415
▁evol	-12416
▁exit	-12417
▁gaze	-12418
▁gosh	-12419
▁grim	-12420
▁hath	-12421
▁heel	-12422
▁hire	-12423
▁huhu	-12424
▁lied	-12425
▁meow	-12426
▁muff	-12427
▁mule	-12428
▁oars	-12429
▁oxen	-12430
▁peak	-12431
▁pigg	-12432
▁pope	-12433
▁popp	-12434
▁rand	-12435
▁shru	-12436
▁sked	-12437
▁skip	-12438
▁surf	-12439
▁taxi	-12440
▁toll	-12441
▁trim	-12442
Please	-12443
Vennes	-12444
ablish	-12445
accini	-12446
alysis	-12447
ardens	-12448
berger	-12449
brance	-12450
cellor	-12451
crying	-12452
ctoral	-12453
egiate	-12454
elopes	-12455
headed	-12456
indere	-12457
iotics	-12458
ndered	-12459
nessee	-12460
olphus	-12461
omeday	-12462
orting	-12463
owered	-12464
papers	-12465
person	-12466
pshire	-12467
racted	-12468
resses	-12469
school	-12470
ulated	-12471
unched	-12472
utions	-12473
veland	-12474
verend	-12475
▁1959.	-12476
▁1981.	-12477
▁1991.	-12478
▁2003,	-12479
▁2006.	-12480
▁2007,	-12481
▁2008,	-12482
▁2020)	-12483
▁Adolf	-12484
▁Baron	-12485
▁Cairo	-12486
▁Class	-12487
▁Clear	-12488
▁Crime	-12489
▁Domin	-12490
▁EVERY	-12491
▁FIRST	-12492
▁Final	-12493
▁Gator	-12494
▁Globe	-12495
▁Griff	-12496
▁Grove	-12497
▁Heart	-12498
▁Honor	-12499
▁Joint	-12500
▁Judic	-12501
▁Kings	-12502
▁MOBAs	-12503
▁Mette	-12504
▁Micro	-12505
▁Molly	-12506
▁Monte	-12507
▁Moore	-12508
▁Nicol	-12509
▁OPENS	-12510
▁PARTY	-12511
▁Perse	-12512
▁Press	-12513
▁Rangy	-12514
▁Regan	-12515
▁Seems	-12516
▁Solar	-12517
▁Sugar	-12518
▁THINK	-12519
▁Terry	-12520
▁Third	-12521
▁abuse	-12522
▁ahhah	-12523
▁angle	-12524
▁apply	-12525
▁barks	-12526
▁bills	-12527
▁bites	-12528
▁blade	-12529
▁blunt	-12530
▁bombs	-12531
▁breed	-12532
▁brisk	-12533
▁chill	-12534
▁chimp	-12535
▁choir	-12536
▁curly	-12537
▁disgr	-12538
▁drape	-12539
▁eugen	-12540
▁funds	-12541
▁goose	-12542
▁grief	-12543
▁guilt	-12544
▁image	-12545
▁jetty	-12546
▁kills	-12547
▁minim	-12548
▁ninth	-12549
▁ornam	-12550
▁patch	-12551
▁pseud	-12552
▁scale	-12553
▁shiny	-12554
▁skirt	-12555
▁snaps	-12556
▁spite	-12557
▁spoil	-12558
▁spray	-12559
▁steep	-12560
▁tails	-12561
▁tense	-12562
▁toler	-12563
▁tools	-12564
▁toxin	-12565
▁twine	-12566
▁uneas	-12567
▁urban	-12568
▁verse	-12569
▁vivid	-12570
▁voted	-12571
▁wasps	-12572
▁wears	-12573
▁whoop	-12574
▁worms	-12575
▁yahoo	-12576
CHAPTER	-12577
Perhaps	-12578
alendar	-12579
alsetto	-12580
attered	-12581
awatomi	-12582
carries	-12583
handing	-12584
igenobu	-12585
istered	-12586
pective	-12587
respond	-12588
ringing	-12589
telling	-12590
theless	-12591
thology	-12592
▁Almost	-12593
▁Awards	-12594
▁Billie	-12595
▁Boleyn	-12596
▁Bulgar	-12597
▁Centre	-12598
▁Cheers	-12599
▁Clancy	-12600
▁Corner	-12601
▁Cuning	-12602
▁Disney	-12603
▁Enough	-12604
▁Folcut	-12605
▁Fortun	-12606
▁Freder	-12607
▁Gaspar	-12608
▁Grammy	-12609
▁Guards	-12610
▁Hector	-12611
▁Hubert	-12612
▁Hughes	-12613
▁Hunter	-12614
▁Jacoby	-12615
▁Kojima	-12616
▁Ladies	-12617
▁Larsen	-12618
▁Lucens	-12619
▁Madame	-12620
▁Making	-12621
▁Manuel	-12622
▁Ojibwe	-12623
▁PEOPLE	-12624
▁Paphos	-12625
▁Parker	-12626
▁Poliez	-12627
▁Scouts	-12628
▁Shiomi	-12629
▁Soviet	-12630
▁Speier	-12631
▁Surely	-12632
▁Sylvia	-12633
▁Topeka	-12634
▁Warren	-12635
▁abroad	-12636
▁absurd	-12637
▁admire	-12638
▁afloat	-12639
▁amazed	-12640
▁assail	-12641
▁beaten	-12642
▁biting	-12643
▁bitten	-12644
▁bubble	-12645
▁buckle	-12646
▁calves	-12647
▁carbon	-12648
▁clears	-12649
▁commit	-12650
▁consol	-12651
▁crawls	-12652
▁curios	-12653
▁curled	-12654
▁daring	-12655
▁deaths	-12656
▁defend	-12657
▁divide	-12658
▁dozens	-12659
▁editor	-12660
▁emphas	-12661
▁excurs	-12662
▁fierce	-12663
▁forbid	-12664
▁formal	-12665
▁frocks	-12666
▁frozen	-12667
▁fucked	-12668
▁genius	-12669
▁gobble	-12670
▁hallow	-12671
▁indent	-12672
▁injury	-12673
▁issued	-12674
▁kettle	-12675
▁knocks	-12676
▁ledger	-12677
▁linger	-12678
▁lining	-12679
▁meadow	-12680
▁misery	-12681
▁mixing	-12682
▁nutter	-12683
▁oyster	-12684
▁pirate	-12685
▁poorly	-12686
▁prince	-12687
▁prunes	-12688
▁queens	-12689
▁quiver	-12690
▁racket	-12691
▁refuse	-12692
▁riches	-12693
▁robert	-12694
▁rocked	-12695
▁shaken	-12696
▁shapes	-12697
▁sheets	-12698
▁sighed	-12699
▁skills	-12700
▁slaves	-12701
▁smells	-12702
▁spells	-12703
▁swords	-12704
▁tables	-12705
▁teeter	-12706
▁voiced	-12707
▁warmly	-12708
▁wasted	-12709
December	-12710
February	-12711
November	-12712
actually	-12713
atchewan	-12714
fontaine	-12715
ifferent	-12716
▁Alberta	-12717
▁Bentley	-12718
▁Brennan	-12719
▁COMPANY	-12720
▁Clinton	-12721
▁Clothes	-12722
▁Contest	-12723
▁Croatia	-12724
▁Dynasty	-12725
▁Looking	-12726
▁Marsden	-12727
▁Measles	-12728
▁Meshkov	-12729
▁Private	-12730
▁Rainbow	-12731
▁Society	-12732
▁Spencer	-12733
▁Swedish	-12734
▁Toronto	-12735
▁Vietnam	-12736
▁amongst	-12737
▁bandaid	-12738
▁banquet	-12739
▁blocked	-12740
▁chances	-12741
▁clasped	-12742
▁consume	-12743
▁costume	-12744
▁culprit	-12745
▁culture	-12746
▁cursive	-12747
▁cushion	-12748
▁customs	-12749
▁decades	-12750
▁details	-12751
▁diction	-12752
▁enforce	-12753
▁engines	-12754
▁entreat	-12755
▁founder	-12756
▁gesture	-12757
▁gingham	-12758
▁glances	-12759
▁grandma	-12760
▁imitate	-12761
▁inquiry	-12762
▁lawyers	-12763
▁leopard	-12764
▁oranges	-12765
▁plainly	-12766
▁prosper	-12767
▁readers	-12768
▁remarks	-12769
▁roughly	-12770
▁rushing	-12771
▁sailing	-12772
▁selfish	-12773
▁senator	-12774
▁suicide	-12775
▁surgeon	-12776
▁thanked	-12777
▁thinkin	-12778
▁torture	-12779
▁tractor	-12780
▁unpleas	-12781
▁wedding	-12782
▁wonders	-12783
▁worries	-12784
Sometimes	-12785
aceutical	-12786
asmocleis	-12787
indicates	-12788
▁Adolphus	-12789
▁Franklin	-12790
▁Goldberg	-12791
▁Goldrush	-12792
▁Kickapoo	-12793
▁Maryland	-12794
▁Pictures	-12795
▁Robinson	-12796
▁Saldivar	-12797
▁Sciences	-12798
▁Standard	-12799
▁TREASURE	-12800
▁Victoria	-12801
▁Vizcarra	-12802
▁aircraft	-12803
▁alliance	-12804
▁brighter	-12805
▁brownies	-12806
▁calendar	-12807
▁cheating	-12808
▁cheering	-12809
▁coachman	-12810
▁communes	-12811
▁competed	-12812
▁conflict	-12813
▁conquest	-12814
▁contents	-12815
▁designer	-12816
▁dripping	-12817
▁elements	-12818
▁employed	-12819
▁estimate	-12820
▁forgiven	-12821
▁formerly	-12822
▁fortunes	-12823
▁homeless	-12824
▁improved	-12825
▁joyfully	-12826
▁latitude	-12827
▁lighting	-12828
▁maintain	-12829
▁majority	-12830
▁measures	-12831
▁memories	-12832
▁mischief	-12833
▁organist	-12834
▁patience	-12835
▁pounding	-12836
▁promptly	-12837
▁removing	-12838
▁reproach	-12839
▁schedule	-12840
▁screamed	-12841
▁shilling	-12842
▁slippery	-12843
▁starring	-12844
▁stirring	-12845
▁sunshine	-12846
▁swelling	-12847
▁ventured	-12848
▁visiting	-12849
Lightspeed	-12850
ropriately	-12851
▁Certainly	-12852
▁Cleveland	-12853
▁Economics	-12854
▁Education	-12855
▁Hampshire	-12856
▁Jewelweed	-12857
▁Otherwise	-12858
▁Shigenobu	-12859
▁Tennessee	-12860
▁amusement	-12861
▁antelopes	-12862
▁borrowing	-12863
▁budgeting	-12864
▁candidacy	-12865
▁cathedral	-12866
▁challenge	-12867
▁cigarette	-12868
▁decisions	-12869
▁economist	-12870
▁essential	-12871
▁establish	-12872
▁estimated	-12873
▁excitedly	-12874
▁existence	-12875
▁groceries	-12876
▁hurriedly	-12877
▁imitation	-12878
▁incidents	-12879
▁increased	-12880
▁intention	-12881
▁interpret	-12882
▁lalalight	-12883
▁literally	-12884
▁machinery	-12885
▁meanwhile	-12886
▁offensive	-12887
▁paperwork	-12888
▁paragraph	-12889
▁partially	-12890
▁positions	-12891
▁practised	-12892
▁procedure	-12893
▁receiving	-12894
▁recovered	-12895
▁screeches	-12896
▁sentenced	-12897
▁sharpened	-12898
▁skedaddle	-12899
▁spaghetti	-12900
▁steamboat	-12901
▁strangely	-12902
▁structure	-12903
▁terrified	-12904
▁terrorist	-12905
▁wholesome	-12906
▁Afterwards	-12907
▁Bangladesh	-12908
▁Cuninghame	-12909
▁Technology	-12910
▁acquainted	-12911
▁additional	-12912
▁admiration	-12913
▁celebrated	-12914
▁commercial	-12915
▁conclusion	-12916
▁correction	-12917
▁dictionary	-12918
▁footballer	-12919
▁grapefruit	-12920
▁invitation	-12921
▁originally	-12922
▁passionate	-12923
▁pretending	-12924
▁questioned	-12925
▁spectators	-12926
▁suggesting	-12927
▁technician	-12928
▁threatened	-12929
▁approaching	-12930
▁authorities	-12931
▁individuals	-12932
▁instruments	-12933
▁preparation	-12934
▁remembrance	-12935
▁significant	-12936
▁Newfoundland	-12937
▁Saskatchewan	-12938
▁accidentally	-12939
▁caterpillars	-12940
▁confidential	-12941
▁universities	-12942
▁circumstances	-12943
▁disappointment	-12944
'!	-12945
23	-12946
26	-12947
2]	-12948
48	-12949
5%	-12950
69	-12951
76	-12952
99	-12953
=3	-12954
Hi	-12955
LB	-12956
PE	-12957
Pe	-12958
TE	-12959
fo	-12960
yr	-12961
én	-12962
',"	-12963
--'	-12964
30.	-12965
5).	-12966
?].	-12967
ALS	-12968
AST	-12969
Guy	-12970
Int	-12971
KEY	-12972
LOU	-12973
Nor	-12974
ONS	-12975
OUS	-12976
RED	-12977
Say	-12978
Ukr	-12979
aik	-12980
aiy	-12981
ako	-12982
amn	-12983
bal	-12984
cam	-12985
eph	-12986
ext	-12987
far	-12988
flo	-12989
gos	-12990
guy	-12991
hey	-12992
hol	-12993
iki	-12994
jar	-12995
lam	-12996
lde	-12997
lee	-12998
lit	-12999
loy	-13000
mar	-13001
mpt	-13002
orb	-13003
ori	-13004
ovi	-13005
pat	-13006
pox	-13007
rsh	-13008
rum	-13009
tem	-13010
tri	-13011
uba	-13012
uki	-13013
ulu	-13014
uro	-13015
var	-13016
wha	-13017
zie	-13018
▁"_	-13019
▁(*	-13020
▁55	-13021
▁68	-13022
▁80	-13023
▁95	-13024
▁Ba	-13025
▁Ki	-13026
▁PG	-13027
▁Ri	-13028
▁TW	-13029
▁Us	-13030
▁Vo	-13031
▁az	-13032
▁iP	-13033
▁je	-13034
."—_	-13035
ANTA	-13036
IRLS	-13037
JOHN	-13038
OUNT	-13039
UMAN	-13040
WEET	-13041
aboo	-13042
abwe	-13043
acie	-13044
adds	-13045
aiti	-13046
alsh	-13047
amus	-13048
anth	-13049
aral	-13050
ardo	-13051
bang	-13052
bery	-13053
bion	-13054
boys	-13055
cese	-13056
clif	-13057
cour	-13058
ddie	-13059
dist	-13060
emen	-13061
enez	-13062
ento	-13063
fare	-13064
feld	-13065
ften	-13066
hast	-13067
haus	-13068
held	-13069
hies	-13070
hino	-13071
hoot	-13072
hran	-13073
icut	-13074
inky	-13075
isen	-13076
itus	-13077
leen	-13078
mart	-13079
mind	-13080
nery	-13081
neum	-13082
nold	-13083
omon	-13084
oors	-13085
ophy	-13086
otty	-13087
oved	-13088
pile	-13089
pool	-13090
prom	-13091
pted	-13092
quar	-13093
rich	-13094
rock	-13095
rome	-13096
rust	-13097
scar	-13098
sels	-13099
shit	-13100
step	-13101
thel	-13102
uest	-13103
uine	-13104
urbs	-13105
vous	-13106
yres	-13107
▁1.1	-13108
▁179	-13109
▁3.5	-13110
▁90.	-13111
▁Aah	-13112
▁Ans	-13113
▁Ark	-13114
▁BED	-13115
▁Bab	-13116
▁Box	-13117
▁CUT	-13118
▁Cow	-13119
▁Din	-13120
▁Dup	-13121
▁Dur	-13122
▁ELE	-13123
▁Ecl	-13124
▁Ent	-13125
▁Fer	-13126
▁Fib	-13127
▁Fly	-13128
▁Gio	-13129
▁Gun	-13130
▁HAD	-13131
▁Hee	-13132
▁Hod	-13133
▁Hou	-13134
▁Ian	-13135
▁Joy	-13136
▁Kir	-13137
▁Mes	-13138
▁Mid	-13139
▁Muk	-13140
▁Mul	-13141
▁Mun	-13142
▁Nap	-13143
▁OLD	-13144
▁PET	-13145
▁Ple	-13146
▁Por	-13147
▁RES	-13148
▁Ral	-13149
▁SCH	-13150
▁STE	-13151
▁Sad	-13152
▁Sie	-13153
▁Smo	-13154
▁Sur	-13155
▁Tab	-13156
▁Tob	-13157
▁Top	-13158
▁VOL	-13159
▁Var	-13160
▁Vel	-13161
▁Wat	-13162
▁Win	-13163
▁ber	-13164
▁bri	-13165
▁cla	-13166
▁dus	-13167
▁fib	-13168
▁gam	-13169
▁hij	-13170
▁jug	-13171
▁jur	-13172
▁kak	-13173
▁lid	-13174
▁lip	-13175
▁mak	-13176
▁oop	-13177
▁sty	-13178
▁sul	-13179
▁tal	-13180
▁tol	-13181
▁ven	-13182
Chard	-13183
First	-13184
INESS	-13185
Jorat	-13186
Menth	-13187
Never	-13188
Ville	-13189
abata	-13190
agged	-13191
aison	-13192
aneko	-13193
aping	-13194
arned	-13195
arrow	-13196
assen	-13197
athan	-13198
banks	-13199
belie	-13200
bited	-13201
boats	-13202
brary	-13203
brush	-13204
cedes	-13205
chaic	-13206
click	-13207
crack	-13208
cules	-13209
eight	-13210
eoria	-13211
erves	-13212
hanks	-13213
hears	-13214
helps	-13215
ialog	-13216
inals	-13217
inted	-13218
ipper	-13219
ishly	-13220
itage	-13221
lined	-13222
mills	-13223
occup	-13224
ocoam	-13225
onney	-13226
orese	-13227
ormit	-13228
rador	-13229
raspy	-13230
ratic	-13231
scrib	-13232
shoes	-13233
smith	-13234
steps	-13235
tebra	-13236
techn	-13237
their	-13238
ucers	-13239
ucing	-13240
uebec	-13241
uency	-13242
ulous	-13243
usage	-13244
venue	-13245
vette	-13246
vised	-13247
xygen	-13248
yells	-13249
yenne	-13250
▁1931	-13251
▁1945	-13252
▁1973	-13253
▁1975	-13254
▁1978	-13255
▁1983	-13256
▁1984	-13257
▁Anna	-13258
▁Anti	-13259
▁Bank	-13260
▁Card	-13261
▁Chem	-13262
▁Cord	-13263
▁Days	-13264
▁Desk	-13265
▁Fear	-13266
▁Feld	-13267
▁Form	-13268
▁Gamb	-13269
▁Game	-13270
▁Guin	-13271
▁Holt	-13272
▁Hugh	-13273
▁Hulk	-13274
▁Jill	-13275
▁LAUG	-13276
▁LOST	-13277
▁Maid	-13278
▁Main	-13279
▁Mice	-13280
▁Mick	-13281
▁Milk	-13282
▁Nash	-13283
▁Nine	-13284
▁Oper	-13285
▁Pine	-13286
▁Pull	-13287
▁Rown	-13288
▁SEND	-13289
▁SHOW	-13290
▁Slow	-13291
▁Sott	-13292
▁Ster	-13293
▁Sull	-13294
▁THEM	-13295
▁TREE	-13296
▁View	-13297
▁WANT	-13298
▁Wake	-13299
▁Wolf	-13300
▁[2.9	-13301
▁[3.2	-13302
▁[3.8	-13303
▁[4.4	-13304
▁airs	-13305
▁bail	-13306
▁bask	-13307
▁bisc	-13308
▁brew	-13309
▁bron	-13310
▁cens	-13311
▁crop	-13312
▁cuts	-13313
▁demo	-13314
▁dram	-13315
▁echo	-13316
▁fain	-13317
▁fame	-13318
▁fist	-13319
▁fitz	-13320
▁flip	-13321
▁foss	-13322
▁grub	-13323
▁gung	-13324
▁hipp	-13325
▁impr	-13326
▁joys	-13327
▁junk	-13328
▁mask	-13329
▁migr	-13330
▁mini	-13331
▁peek	-13332
▁phon	-13333
▁plea	-13334
▁poly	-13335
▁pter	-13336
▁ramp	-13337
▁rice	-13338
▁riot	-13339
▁ripe	-13340
▁ruff	-13341
▁ryan	-13342
▁tact	-13343
▁thie	-13344
▁trot	-13345
▁twig	-13346
▁unex	-13347
▁unin	-13348
▁wars	-13349
▁wire	-13350
▁womb	-13351
▁zeal	-13352
▁zoom	-13353
Tierce	-13354
abbing	-13355
abella	-13356
abouts	-13357
aiyama	-13358
akened	-13359
arting	-13360
azines	-13361
celine	-13362
cholar	-13363
cience	-13364
cliffe	-13365
climbs	-13366
eander	-13367
ellite	-13368
encing	-13369
erning	-13370
filler	-13371
hausen	-13372
ifting	-13373
ildred	-13374
inator	-13375
ington	-13376
inters	-13377
iocese	-13378
issing	-13379
master	-13380
member	-13381
mentia	-13382
moving	-13383
nesota	-13384
people	-13385
porary	-13386
rising	-13387
ructed	-13388
stones	-13389
sweets	-13390
uating	-13391
ulance	-13392
umping	-13393
wealth	-13394
wiches	-13395
▁1964)	-13396
▁1990,	-13397
▁1990.	-13398
▁2003.	-13399
▁2005,	-13400
▁Annie	-13401
▁Armen	-13402
▁Asian	-13403
▁Belle	-13404
▁Bolte	-13405
▁Bruce	-13406
▁Build	-13407
▁Butch	-13408
▁Creek	-13409
▁Crown	-13410
▁Diana	-13411
▁Dover	-13412
▁Eagle	-13413
▁Eddie	-13414
▁Ethel	-13415
▁Force	-13416
▁GOING	-13417
▁GREAT	-13418
▁Gotta	-13419
▁Haiti	-13420
▁Human	-13421
▁Jorat	-13422
▁Miche	-13423
▁Milan	-13424
▁Money	-13425
▁Naval	-13426
▁Often	-13427
▁Oxfam	-13428
▁Paddy	-13429
▁Peney	-13430
▁Pharm	-13431
▁Polit	-13432
▁Power	-13433
▁Psych	-13434
▁RINGS	-13435
▁Rhine	-13436
▁Rogue	-13437
▁Round	-13438
▁SARAH	-13439
▁SWEET	-13440
▁Scout	-13441
▁Squad	-13442
▁TALES	-13443
▁THOSE	-13444
▁Touch	-13445
▁Trish	-13446
▁Trost	-13447
▁Tunis	-13448
▁WHERE	-13449
▁WOMAN	-13450
▁WOULD	-13451
▁Whigs	-13452
▁Yoshi	-13453
▁acrob	-13454
▁advis	-13455
▁alert	-13456
▁alleg	-13457
▁amend	-13458
▁amuse	-13459
▁assem	-13460
▁atoll	-13461
▁aunts	-13462
▁bells	-13463
▁belly	-13464
▁billy	-13465
▁blaze	-13466
▁blown	-13467
▁blues	-13468
▁borne	-13469
▁brook	-13470
▁cages	-13471
▁chuck	-13472
▁cinem	-13473
▁clung	-13474
▁crypt	-13475
▁diver	-13476
▁draft	-13477
▁eagle	-13478
▁edges	-13479
▁elton	-13480
▁fatal	-13481
▁forks	-13482
▁fowls	-13483
▁frost	-13484
▁frown	-13485
▁gloss	-13486
▁grant	-13487
▁gruff	-13488
▁guest	-13489
▁harsh	-13490
▁hitch	-13491
▁hypoc	-13492
▁icing	-13493
▁inner	-13494
▁jewel	-13495
▁labor	-13496
▁laden	-13497
▁lakes	-13498
▁leads	-13499
▁levey	-13500
▁limbs	-13501
▁links	-13502
▁luxur	-13503
▁milit	-13504
▁momma	-13505
▁piers	-13506
▁pilot	-13507
▁pinch	-13508
▁poker	-13509
▁posit	-13510
▁procl	-13511
▁rumor	-13512
▁safer	-13513
▁scorn	-13514
▁seals	-13515
▁semin	-13516
▁sting	-13517
▁suits	-13518
▁surpl	-13519
▁timid	-13520
▁tramp	-13521
▁trunc	-13522
▁units	-13523
▁vocal	-13524
▁yield	-13525
Mendraz	-13526
Menthue	-13527
October	-13528
anthrop	-13529
assador	-13530
bitants	-13531
catcher	-13532
central	-13533
diction	-13534
enezuel	-13535
enhagen	-13536
errilla	-13537
idering	-13538
ificate	-13539
igenous	-13540
imbabwe	-13541
imeters	-13542
natural	-13543
ouncill	-13544
portant	-13545
repeats	-13546
starnah	-13547
▁Action	-13548
▁Amaral	-13549
▁BETTER	-13550
▁Better	-13551
▁Bobbie	-13552
▁Buddha	-13553
▁Butter	-13554
▁Calcul	-13555
▁Cocoam	-13556
▁Conway	-13557
▁Deaths	-13558
▁Dinner	-13559
▁Donkey	-13560
▁FRIEND	-13561
▁Fellow	-13562
▁Fourth	-13563
▁Giovan	-13564
▁Gracie	-13565
▁Grampa	-13566
▁Guster	-13567
▁Having	-13568
▁Italia	-13569
▁Jewish	-13570
▁Kaneko	-13571
▁Mighty	-13572
▁Mobile	-13573
▁Nebula	-13574
▁Nonnie	-13575
▁Pardon	-13576
▁Prague	-13577
▁Rivers	-13578
▁Select	-13579
▁Silver	-13580
▁Stevie	-13581
▁Thornt	-13582
▁Though	-13583
▁Tomato	-13584
▁Tyumen	-13585
▁Warsaw	-13586
▁Wolsey	-13587
▁aboard	-13588
▁access	-13589
▁ackack	-13590
▁backed	-13591
▁camels	-13592
▁carrot	-13593
▁chased	-13594
▁checks	-13595
▁chorus	-13596
▁closes	-13597
▁colony	-13598
▁coughs	-13599
▁crumbs	-13600
▁darted	-13601
▁depend	-13602
▁detect	-13603
▁devast	-13604
▁dormit	-13605
▁dreamy	-13606
▁ensure	-13607
▁equals	-13608
▁erases	-13609
▁errors	-13610
▁fabric	-13611
▁facing	-13612
▁filmed	-13613
▁floors	-13614
▁franch	-13615
▁garret	-13616
▁ginger	-13617
▁haught	-13618
▁hearty	-13619
▁height	-13620
▁heroes	-13621
▁hoarse	-13622
▁hotels	-13623
▁hunger	-13624
▁ignore	-13625
▁inches	-13626
▁indign	-13627
▁intent	-13628
▁inward	-13629
▁jumper	-13630
▁leaped	-13631
▁levels	-13632
▁licked	-13633
▁limits	-13634
▁liquid	-13635
▁medium	-13636
▁micros	-13637
▁minded	-13638
▁motive	-13639
▁onions	-13640
▁openly	-13641
▁outlet	-13642
▁overla	-13643
▁owners	-13644
▁piggie	-13645
▁plough	-13646
▁poured	-13647
▁prelim	-13648
▁quaint	-13649
▁random	-13650
▁rating	-13651
▁reader	-13652
▁refres	-13653
▁remote	-13654
▁repent	-13655
▁review	-13656
▁rivers	-13657
▁roared	-13658
▁secure	-13659
▁sexual	-13660
▁squeak	-13661
▁statue	-13662
▁stroll	-13663
▁subsid	-13664
▁tackle	-13665
▁tavern	-13666
▁thrust	-13667
▁tinker	-13668
▁tipped	-13669
▁tissue	-13670
▁titled	-13671
▁titles	-13672
▁uneasy	-13673
▁unfair	-13674
▁unlike	-13675
▁urgent	-13676
▁warned	-13677
▁wigwam	-13678
▁writin	-13679
counting	-13680
falsetto	-13681
iculture	-13682
probably	-13683
shouting	-13684
▁(1967),	-13685
▁Alberto	-13686
▁Bandaid	-13687
▁Belgium	-13688
▁Bernard	-13689
▁Dawlish	-13690
▁Fiction	-13691
▁Fireman	-13692
▁Forever	-13693
▁Frances	-13694
▁Gordian	-13695
▁Heather	-13696
▁Hiroshi	-13697
▁Indones	-13698
▁Network	-13699
▁RUNNING	-13700
▁Raffael	-13701
▁Somehow	-13702
▁Sottens	-13703
▁Thought	-13704
▁Tonight	-13705
▁absence	-13706
▁admiral	-13707
▁approve	-13708
▁asshole	-13709
▁bargain	-13710
▁battles	-13711
▁behaved	-13712
▁beloved	-13713
▁borough	-13714
▁casting	-13715
▁consort	-13716
▁contain	-13717
▁crosses	-13718
▁crowded	-13719
▁dashing	-13720
▁derrick	-13721
▁descent	-13722
▁desired	-13723
▁devices	-13724
▁dignity	-13725
▁disobed	-13726
▁edition	-13727
▁engaged	-13728
▁esquire	-13729
▁estates	-13730
▁eternal	-13731
▁fatigue	-13732
▁figured	-13733
▁filling	-13734
▁fussing	-13735
▁gallant	-13736
▁glowing	-13737
▁goddamn	-13738
▁gravity	-13739
▁greeted	-13740
▁helpful	-13741
▁improve	-13742
▁indoors	-13743
▁involve	-13744
▁joining	-13745
▁justice	-13746
▁library	-13747
▁masters	-13748
▁miracle	-13749
▁mirrors	-13750
▁muscles	-13751
▁mutters	-13752
▁mystery	-13753
▁notable	-13754
▁obvious	-13755
▁offence	-13756
▁paddock	-13757
▁pancake	-13758
▁panting	-13759
▁patting	-13760
▁pausing	-13761
▁permits	-13762
▁physics	-13763
▁pioneer	-13764
▁pistols	-13765
▁planted	-13766
▁possess	-13767
▁puzzled	-13768
▁quarrel	-13769
▁recover	-13770
▁referee	-13771
▁regatta	-13772
▁satisfy	-13773
▁seventh	-13774
▁shooter	-13775
▁shudder	-13776
▁sources	-13777
▁squeals	-13778
▁striped	-13779
▁tasting	-13780
▁therapy	-13781
▁threats	-13782
▁toluene	-13783
▁tornado	-13784
▁travels	-13785
▁turkeys	-13786
▁utterly	-13787
▁wealthy	-13788
Tiercelin	-13789
ibilities	-13790
inderella	-13791
something	-13792
telephone	-13793
uccessful	-13794
▁BUSINESS	-13795
▁Birthday	-13796
▁Campbell	-13797
▁Cheyenne	-13798
▁Deputies	-13799
▁Honestly	-13800
▁Jennings	-13801
▁Jonathan	-13802
▁Labrador	-13803
▁Macleods	-13804
▁Military	-13805
▁Ministry	-13806
▁Mountain	-13807
▁Trinidad	-13808
▁Unfortun	-13809
▁Waysmith	-13810
▁academic	-13811
▁accurate	-13812
▁animiles	-13813
▁attaches	-13814
▁blooming	-13815
▁childish	-13816
▁comedian	-13817
▁composer	-13818
▁contains	-13819
▁counties	-13820
▁critical	-13821
▁darkness	-13822
▁dementia	-13823
▁dragging	-13824
▁earliest	-13825
▁eminence	-13826
▁emotions	-13827
▁entitled	-13828
▁finishes	-13829
▁forwards	-13830
▁graceful	-13831
▁hanabata	-13832
▁headache	-13833
▁identify	-13834
▁informed	-13835
▁intimate	-13836
▁inviting	-13837
▁killings	-13838
▁lemonade	-13839
▁meetings	-13840
▁monument	-13841
▁overlaps	-13842
▁packages	-13843
▁policies	-13844
▁pressing	-13845
▁priority	-13846
▁prosecut	-13847
▁purchase	-13848
▁reaching	-13849
▁requests	-13850
▁resigned	-13851
▁scribble	-13852
▁siblings	-13853
▁smallest	-13854
▁sounding	-13855
▁subjects	-13856
▁sweetest	-13857
▁swinging	-13858
▁syllable	-13859
▁sympathe	-13860
▁sympathy	-13861
▁unexpect	-13862
▁upcoming	-13863
▁vertical	-13864
▁whimpers	-13865
▁withdraw	-13866
Chardonney	-13867
believable	-13868
etterstrom	-13869
ographical	-13870
songwriter	-13871
▁Barcelona	-13872
▁Beautiful	-13873
▁Democrats	-13874
▁Frederick	-13875
▁Josceline	-13876
▁Judiciary	-13877
▁Minnesota	-13878
▁Mukaiyama	-13879
▁Obviously	-13880
▁Performer	-13881
▁Wonderful	-13882
▁amazement	-13883
▁answering	-13884
▁arranging	-13885
▁awareness	-13886
▁bothering	-13887
▁collected	-13888
▁conceived	-13889
▁consisted	-13890
▁correctly	-13891
▁criticism	-13892
▁curiosity	-13893
▁delivered	-13894
▁disasters	-13895
▁discussed	-13896
▁efficient	-13897
▁engineers	-13898
▁enjoyment	-13899
▁exception	-13900
▁execution	-13901
▁exquisite	-13902
▁flattered	-13903
▁forbidden	-13904
▁fortunate	-13905
▁halloween	-13906
▁ignorance	-13907
▁imaginary	-13908
▁immediate	-13909
▁interface	-13910
▁magazines	-13911
▁musicians	-13912
▁parameter	-13913
▁provision	-13914
▁respected	-13915
▁satellite	-13916
▁scattered	-13917
▁searching	-13918
▁sentiment	-13919
▁separated	-13920
▁shivering	-13921
▁slightest	-13922
▁sorrowful	-13923
▁streaming	-13924
▁submitted	-13925
▁surprises	-13926
▁technique	-13927
▁telegraph	-13928
▁undertake	-13929
▁volunteer	-13930
▁wandering	-13931
▁Cocoamarsh	-13932
▁Goodenough	-13933
▁Kazakhstan	-13934
▁Montaubion	-13935
▁Potawatomi	-13936
▁Richardson	-13937
▁accomplish	-13938
▁addressing	-13939
▁breathless	-13940
▁cautiously	-13941
▁committees	-13942
▁complained	-13943
▁conception	-13944
▁concerning	-13945
▁conscience	-13946
▁convenient	-13947
▁distinctly	-13948
▁gratefully	-13949
▁impression	-13950
▁impressive	-13951
▁industrial	-13952
▁lieutenant	-13953
▁mechanical	-13954
▁molybdenum	-13955
▁newspapers	-13956
▁perfection	-13957
▁playground	-13958
▁pocketbook	-13959
▁popularity	-13960
▁properties	-13961
▁protesting	-13962
▁registered	-13963
▁resistance	-13964
▁surprising	-13965
▁unpleasant	-13966
▁vigorously	-13967
▁Connecticut	-13968
▁Development	-13969
▁accompanied	-13970
▁application	-13971
▁association	-13972
▁communicate	-13973
▁distinguish	-13974
▁examination	-13975
▁housekeeper	-13976
▁illustrated	-13977
▁imagination	-13978
▁impatiently	-13979
▁inhabitants	-13980
▁perspective	-13981
▁philanthrop	-13982
▁progressive	-13983
▁recognition	-13984
▁reluctantly	-13985
▁replacement	-13986
▁traditional	-13987
▁unfortunate	-13988
▁Mademoiselle	-13989
▁Philadelphia	-13990
▁agricultural	-13991
▁announcement	-13992
▁arrangements	-13993
▁preparations	-13994
▁southwestern	-13995
▁successfully	-13996
unintelligible	-13997
▁Revolutionary	-13998
▁Unfortunately	-13999
▁professionally	-14000
41	-14001
43	-14002
46	-14003
5-	-14004
82	-14005
88	-14006
DS	-14007
EF	-14008
Ha	-14009
Se	-14010
]]	-14011
_]	-14012
cz	-14013
eu	-14014
lé	-14015
ys	-14016
és	-14017
,].	-14018
-17	-14019
201	-14020
4).	-14021
7).	-14022
AME	-14023
ATE	-14024
AVE	-14025
DAY	-14026
Dad	-14027
EEP	-14028
ERA	-14029
IDE	-14030
IFA	-14031
ITE	-14032
Mon	-14033
Mus	-14034
ORT	-14035
Pop	-14036
RAT	-14037
Red	-14038
See	-14039
Two	-14040
UME	-14041
URA	-14042
URG	-14043
Was	-14044
agi	-14045
arb	-14046
asg	-14047
aso	-14048
aya	-14049
bad	-14050
bef	-14051
bes	-14052
cal	-14053
def	-14054
edy	-14055
eur	-14056
ggy	-14057
gov	-14058
hmm	-14059
iah	-14060
ige	-14061
ioi	-14062
iti	-14063
kur	-14064
lad	-14065
log	-14066
mil	-14067
mps	-14068
ndy	-14069
née	-14070
oga	-14071
oko	-14072
oqu	-14073
orr	-14074
oti	-14075
oty	-14076
oyo	-14077
pin	-14078
rac	-14079
rin	-14080
roe	-14081
smo	-14082
tes	-14083
ths	-14084
top	-14085
tot	-14086
tra	-14087
uet	-14088
uhu	-14089
uko	-14090
uma	-14091
uns	-14092
usc	-14093
ych	-14094
zon	-14095
▁(9	-14096
▁),	-14097
▁48	-14098
▁52	-14099
▁62	-14100
▁96	-14101
▁AF	-14102
▁BL	-14103
▁BR	-14104
▁BU	-14105
▁ED	-14106
▁ES	-14107
▁Fi	-14108
▁GL	-14109
▁Ja	-14110
▁Ka	-14111
▁Ko	-14112
▁Kr	-14113
▁Ly	-14114
▁MA	-14115
▁PS	-14116
▁Pg	-14117
▁YO	-14118
▁ay	-14119
▁du	-14120
▁gn	-14121
▁rt	-14122
1.50	-14123
ABLE	-14124
ANGE	-14125
ANNY	-14126
ATES	-14127
AUSE	-14128
BELL	-14129
Club	-14130
Hank	-14131
IBLE	-14132
IGER	-14133
IMMY	-14134
LAUG	-14135
Lord	-14136
MPLE	-14137
Many	-14138
OOSE	-14139
PING	-14140
Pins	-14141
Take	-14142
UPID	-14143
VING	-14144
acha	-14145
acre	-14146
adze	-14147
agna	-14148
aldi	-14149
alty	-14150
amel	-14151
ango	-14152
anji	-14153
anks	-14154
arer	-14155
arus	-14156
ashi	-14157
atis	-14158
atoo	-14159
azon	-14160
bark	-14161
bees	-14162
bows	-14163
choo	-14164
clue	-14165
coon	-14166
cord	-14167
dong	-14168
dust	-14169
emed	-14170
emet	-14171
esta	-14172
fere	-14173
firm	-14174
gans	-14175
halt	-14176
hant	-14177
hase	-14178
hoon	-14179
ieft	-14180
igns	-14181
ilgr	-14182
iner	-14183
ipes	-14184
isse	-14185
ixon	-14186
mail	-14187
mock	-14188
mosp	-14189
nche	-14190
ndez	-14191
nity	-14192
ocke	-14193
ollo	-14194
ooch	-14195
opal	-14196
open	-14197
oray	-14198
oret	-14199
orum	-14200
oser	-14201
othy	-14202
oubt	-14203
pher	-14204
quer	-14205
quin	-14206
rate	-14207
rice	-14208
risk	-14209
roof	-14210
same	-14211
stra	-14212
stri	-14213
tail	-14214
uiet	-14215
umin	-14216
welt	-14217
wife	-14218
▁10%	-14219
▁2.5	-14220
▁3.8	-14221
▁94.	-14222
▁ABC	-14223
▁AII	-14224
▁Arr	-14225
▁Att	-14226
▁Aur	-14227
▁BBC	-14228
▁BUN	-14229
▁Bax	-14230
▁Bed	-14231
▁Boh	-14232
▁Cur	-14233
▁EAR	-14234
▁Fal	-14235
▁Fif	-14236
▁Gav	-14237
▁HOO	-14238
▁Hit	-14239
▁IMP	-14240
▁Imp	-14241
▁Kas	-14242
▁Kel	-14243
▁Kid	-14244
▁Lav	-14245
▁Lem	-14246
▁Lib	-14247
▁Lod	-14248
▁Log	-14249
▁MAG	-14250
▁McL	-14251
▁Mir	-14252
▁Nob	-14253
▁Pea	-14254
▁Pin	-14255
▁Pul	-14256
▁Rho	-14257
▁Ros	-14258
▁SIR	-14259
▁SPE	-14260
▁Sat	-14261
▁Seb	-14262
▁TWO	-14263
▁Tea	-14264
▁Tot	-14265
▁VUL	-14266
▁Vol	-14267
▁Yos	-14268
▁Yup	-14269
▁[14	-14270
▁[18	-14271
▁[9.	-14272
▁aft	-14273
▁agg	-14274
▁ank	-14275
▁ard	-14276
▁arf	-14277
▁bio	-14278
▁cad	-14279
▁cau	-14280
▁cra	-14281
▁dod	-14282
▁dre	-14283
▁dug	-14284
▁fir	-14285
▁gna	-14286
▁mim	-14287
▁mou	-14288
▁nsu	-14289
▁oar	-14290
▁owl	-14291
▁rud	-14292
▁sug	-14293
▁tub	-14294
▁vod	-14295
AYING	-14296
ROUND	-14297
Right	-14298
WHERE	-14299
Would	-14300
acked	-14301
ahara	-14302
aired	-14303
akeem	-14304
akers	-14305
amsay	-14306
andra	-14307
andro	-14308
assed	-14309
azaki	-14310
blins	-14311
block	-14312
burgh	-14313
climb	-14314
doors	-14315
eably	-14316
eenth	-14317
first	-14318
fried	-14319
gasps	-14320
gered	-14321
hansk	-14322
hodes	-14323
icist	-14324
iders	-14325
ienna	-14326
jillo	-14327
later	-14328
lleng	-14329
llers	-14330
maybe	-14331
merce	-14332
metic	-14333
mocks	-14334
nergy	-14335
ockey	-14336
onsin	-14337
oping	-14338
print	-14339
pting	-14340
rency	-14341
ronic	-14342
seems	-14343
snake	-14344
table	-14345
udent	-14346
uding	-14347
ulton	-14348
useum	-14349
venge	-14350
venth	-14351
white	-14352
works	-14353
▁1905	-14354
▁1932	-14355
▁1942	-14356
▁1949	-14357
▁1966	-14358
▁1976	-14359
▁1991	-14360
▁1993	-14361
▁AWAY	-14362
▁Amen	-14363
▁Blue	-14364
▁Bonn	-14365
▁Brid	-14366
▁Bron	-14367
▁Bunk	-14368
▁CONF	-14369
▁Chug	-14370
▁Dale	-14371
▁Dest	-14372
▁Disc	-14373
▁Domp	-14374
▁Dool	-14375
▁Ever	-14376
▁FELL	-14377
▁FIFA	-14378
▁FIRE	-14379
▁FLOW	-14380
▁Feel	-14381
▁Fork	-14382
▁Full	-14383
▁Gary	-14384
▁Gene	-14385
▁Gerv	-14386
▁Gosh	-14387
▁Hans	-14388
▁Hoff	-14389
▁Iowa	-14390
▁Java	-14391
▁Kate	-14392
▁Kath	-14393
▁Kram	-14394
▁LONG	-14395
▁Labs	-14396
▁Laff	-14397
▁Less	-14398
▁Luke	-14399
▁Lynn	-14400
▁MICH	-14401
▁MIST	-14402
▁MOVE	-14403
▁MUCH	-14404
▁Made	-14405
▁Matt	-14406
▁Mend	-14407
▁Mole	-14408
▁Noel	-14409
▁Orig	-14410
▁Ouch	-14411
▁PERS	-14412
▁Pawn	-14413
▁Peac	-14414
▁Pend	-14415
▁Phys	-14416
▁Pian	-14417
▁Pitt	-14418
▁Poly	-14419
▁Prom	-14420
▁Publ	-14421
▁Rick	-14422
▁Ruiz	-14423
▁Rule	-14424
▁STAR	-14425
▁Sain	-14426
▁Sale	-14427
▁Salv	-14428
▁Send	-14429
▁Shib	-14430
▁Sier	-14431
▁Sore	-14432
▁TALK	-14433
▁Team	-14434
▁Them	-14435
▁True	-14436
▁Viol	-14437
▁Whid	-14438
▁Wisc	-14439
▁Wise	-14440
▁Wond	-14441
▁Yost	-14442
▁[3.1	-14443
▁[5.4	-14444
▁[5.5	-14445
▁abst	-14446
▁adds	-14447
▁anus	-14448
▁bait	-14449
▁bees	-14450
▁begg	-14451
▁brim	-14452
▁burp	-14453
▁bush	-14454
▁chef	-14455
▁data	-14456
▁duke	-14457
▁dusk	-14458
▁ease	-14459
▁ecst	-14460
▁elev	-14461
▁elim	-14462
▁eval	-14463
▁fert	-14464
▁fest	-14465
▁fury	-14466
▁gent	-14467
▁glee	-14468
▁graz	-14469
▁grie	-14470
▁gull	-14471
▁hick	-14472
▁howl	-14473
▁hunm	-14474
▁idle	-14475
▁laff	-14476
▁lago	-14477
▁lith	-14478
▁loll	-14479
▁lump	-14480
▁lure	-14481
▁mans	-14482
▁mars	-14483
▁ming	-14484
▁mink	-14485
▁mole	-14486
▁moth	-14487
▁neut	-14488
▁obey	-14489
▁owns	-14490
▁pays	-14491
▁pots	-14492
▁prev	-14493
▁prey	-14494
▁raft	-14495
▁rags	-14496
▁rais	-14497
▁saun	-14498
▁slid	-14499
▁ther	-14500
▁thus	-14501
▁tins	-14502
▁tips	-14503
▁toad	-14504
▁undo	-14505
▁unre	-14506
▁voce	-14507
France	-14508
Pretty	-14509
acinth	-14510
addies	-14511
almost	-14512
arding	-14513
arents	-14514
atorsk	-14515
called	-14516
camera	-14517
champs	-14518
clunks	-14519
cutive	-14520
econom	-14521
elones	-14522
erment	-14523
esties	-14524
family	-14525
firmly	-14526
haired	-14527
handle	-14528
igrant	-14529
illiez	-14530
inally	-14531
indeer	-14532
inical	-14533
isible	-14534
itated	-14535
kshire	-14536
levant	-14537
martin	-14538
modern	-14539
neloye	-14540
orable	-14541
ounded	-14542
really	-14543
ssouri	-14544
tebrae	-14545
ularly	-14546
urches	-14547
uspect	-14548
vannes	-14549
whines	-14550
▁1968,	-14551
▁1992.	-14552
▁2009,	-14553
▁ANNIE	-14554
▁Alger	-14555
▁Allen	-14556
▁Among	-14557
▁Arabs	-14558
▁Armed	-14559
▁Avery	-14560
▁Bando	-14561
▁Being	-14562
▁Bravo	-14563
▁CHUCK	-14564
▁Canal	-14565
▁Claud	-14566
▁Coach	-14567
▁Const	-14568
▁DANNY	-14569
▁Dance	-14570
▁Denis	-14571
▁Eight	-14572
▁Eisen	-14573
▁Ethan	-14574
▁Front	-14575
▁GIRLS	-14576
▁Gonna	-14577
▁Gregg	-14578
▁Guess	-14579
▁JUVEN	-14580
▁Jamal	-14581
▁Lance	-14582
▁Lands	-14583
▁Liter	-14584
▁Lucky	-14585
▁Lynch	-14586
▁Mumps	-14587
▁Nelly	-14588
▁Peace	-14589
▁Perch	-14590
▁Phone	-14591
▁Ralph	-14592
▁Rover	-14593
▁SANTA	-14594
▁SPELL	-14595
▁Sally	-14596
▁Screw	-14597
▁Sighs	-14598
▁Space	-14599
▁Staff	-14600
▁Steve	-14601
▁TIGER	-14602
▁Tales	-14603
▁Thing	-14604
▁Trade	-14605
▁Trans	-14606
▁Tribe	-14607
▁Tsada	-14608
▁Tully	-14609
▁Uclue	-14610
▁Wayne	-14611
▁Wendy	-14612
▁Whist	-14613
▁Wolfe	-14614
▁Youth	-14615
▁abund	-14616
▁acorn	-14617
▁appar	-14618
▁arith	-14619
▁banjo	-14620
▁beard	-14621
▁bloom	-14622
▁bowed	-14623
▁bowel	-14624
▁boxer	-14625
▁bride	-14626
▁bully	-14627
▁cable	-14628
▁caves	-14629
▁coord	-14630
▁creek	-14631
▁criti	-14632
▁crude	-14633
▁daint	-14634
▁deeds	-14635
▁ditch	-14636
▁dryer	-14637
▁dudes	-14638
▁dynam	-14639
▁explo	-14640
▁ferns	-14641
▁films	-14642
▁flask	-14643
▁flown	-14644
▁frock	-14645
▁froze	-14646
▁garth	-14647
▁gates	-14648
▁genie	-14649
▁ghast	-14650
▁gifts	-14651
▁greed	-14652
▁hangs	-14653
▁hassy	-14654
▁haste	-14655
▁hates	-14656
▁jumps	-14657
▁lamps	-14658
▁laund	-14659
▁layer	-14660
▁manip	-14661
▁medic	-14662
▁misbe	-14663
▁moist	-14664
▁noses	-14665
▁obser	-14666
▁opera	-14667
▁oppon	-14668
▁outer	-14669
▁piled	-14670
▁pluck	-14671
▁plugs	-14672
▁pneum	-14673
▁prett	-14674
▁rance	-14675
▁reapp	-14676
▁reput	-14677
▁retin	-14678
▁riots	-14679
▁roses	-14680
▁ruins	-14681
▁ruler	-14682
▁rural	-14683
▁salad	-14684
▁scold	-14685
▁shady	-14686
▁shrew	-14687
▁slack	-14688
▁spear	-14689
▁stain	-14690
▁subst	-14691
▁sweat	-14692
▁sweep	-14693
▁takin	-14694
▁taxes	-14695
▁theme	-14696
▁toman	-14697
▁trump	-14698
▁usage	-14699
▁virus	-14700
▁waved	-14701
▁wider	-14702
▁winds	-14703
▁withd	-14704
▁wowie	-14705
Drosoph	-14706
ahassee	-14707
another	-14708
atching	-14709
berries	-14710
chanted	-14711
emetery	-14712
ieftain	-14713
mentary	-14714
oration	-14715
resents	-14716
ructive	-14717
running	-14718
stution	-14719
technic	-14720
umbling	-14721
▁Advent	-14722
▁Agency	-14723
▁Alicia	-14724
▁Atlant	-14725
▁Baxter	-14726
▁Beauty	-14727
▁Blaine	-14728
▁Bureau	-14729
▁Burton	-14730
▁Butler	-14731
▁CLOSES	-14732
▁Connie	-14733
▁Dupree	-14734
▁Either	-14735
▁Energy	-14736
▁Follow	-14737
▁Fulton	-14738
▁Galaxy	-14739
▁Goddam	-14740
▁Halsey	-14741
▁Hirsch	-14742
▁Huckle	-14743
▁Jackie	-14744
▁Kenned	-14745
▁Kunert	-14746
▁MONKEY	-14747
▁Marian	-14748
▁Method	-14749
▁Monkey	-14750
▁Monroe	-14751
▁Nature	-14752
▁Nicole	-14753
▁Others	-14754
▁Palace	-14755
▁Peoria	-14756
▁Poland	-14757
▁REWARD	-14758
▁Ramsay	-14759
▁Rockas	-14760
▁SCHOOL	-14761
▁SPRING	-14762
▁Sharon	-14763
▁Slayer	-14764
▁Strong	-14765
▁TEMPLE	-14766
▁Temper	-14767
▁Tucker	-14768
▁Turner	-14769
▁VOLUME	-14770
▁Yamada	-14771
▁acknow	-14772
▁adults	-14773
▁aspect	-14774
▁banned	-14775
▁barked	-14776
▁barric	-14777
▁beasts	-14778
▁blames	-14779
▁bounds	-14780
▁bureau	-14781
▁caller	-14782
▁cancel	-14783
▁cheers	-14784
▁choked	-14785
▁coarse	-14786
▁comics	-14787
▁confir	-14788
▁contem	-14789
▁cooper	-14790
▁creepy	-14791
▁crimes	-14792
▁deadly	-14793
▁debate	-14794
▁deport	-14795
▁disput	-14796
▁donkey	-14797
▁drying	-14798
▁eldest	-14799
▁factor	-14800
▁fallin	-14801
▁fellas	-14802
▁feller	-14803
▁fished	-14804
▁fooled	-14805
▁freely	-14806
▁freeze	-14807
▁gladly	-14808
▁glider	-14809
▁gloomy	-14810
▁hearth	-14811
▁heated	-14812
▁helmet	-14813
▁helper	-14814
▁hereby	-14815
▁hernia	-14816
▁hither	-14817
▁hooker	-14818
▁hopped	-14819
▁hugged	-14820
▁induce	-14821
▁intern	-14822
▁julian	-14823
▁labour	-14824
▁lament	-14825
▁landed	-14826
▁liking	-14827
▁loaded	-14828
▁makeup	-14829
▁mangos	-14830
▁masses	-14831
▁mental	-14832
▁missus	-14833
▁murmur	-14834
▁muslin	-14835
▁mutual	-14836
▁nicest	-14837
▁novice	-14838
▁outfit	-14839
▁oxygen	-14840
▁pediat	-14841
▁photos	-14842
▁pickle	-14843
▁pierce	-14844
▁pissed	-14845
▁planet	-14846
▁ponies	-14847
▁poppop	-14848
▁proven	-14849
▁pursue	-14850
▁quarre	-14851
▁raging	-14852
▁recoll	-14853
▁reform	-14854
▁resear	-14855
▁rifles	-14856
▁rubbed	-14857
▁runner	-14858
▁sealed	-14859
▁shakes	-14860
▁shisha	-14861
▁skates	-14862
▁softer	-14863
▁stroke	-14864
▁suture	-14865
▁swayed	-14866
▁taping	-14867
▁thread	-14868
▁tippet	-14869
▁tricky	-14870
▁troops	-14871
▁untidy	-14872
▁unwill	-14873
▁vainly	-14874
▁waking	-14875
▁wolves	-14876
▁workin	-14877
********	-14878
JOHNSTON	-14879
atically	-14880
children	-14881
coloring	-14882
enezuela	-14883
friendly	-14884
magnetic	-14885
ographic	-14886
piration	-14887
quarters	-14888
remember	-14889
▁Animals	-14890
▁Anthony	-14891
▁Awesome	-14892
▁Bateman	-14893
▁Belfast	-14894
▁Cadbury	-14895
▁Crimean	-14896
▁Daniels	-14897
▁Eastern	-14898
▁FELLOWS	-14899
▁Faction	-14900
▁Fibrian	-14901
▁Gaskins	-14902
▁Highway	-14903
▁Jacques	-14904
▁Johnnie	-14905
▁Justice	-14906
▁Lucifer	-14907
▁Luhansk	-14908
▁Milkman	-14909
▁Monique	-14910
▁Neither	-14911
▁Peabody	-14912
▁Persian	-14913
▁Solomon	-14914
▁Springs	-14915
▁Statist	-14916
▁Sugnens	-14917
▁Systems	-14918
▁Yoshino	-14919
▁anythin	-14920
▁applied	-14921
▁assault	-14922
▁assumed	-14923
▁auction	-14924
▁bananas	-14925
▁bathing	-14926
▁blabber	-14927
▁blessed	-14928
▁brushed	-14929
▁bundles	-14930
▁burying	-14931
▁capture	-14932
▁carries	-14933
▁chamber	-14934
▁chapter	-14935
▁chewing	-14936
▁chiefly	-14937
▁choices	-14938
▁chuckle	-14939
▁circuit	-14940
▁cleared	-14941
▁clients	-14942
▁cocaine	-14943
▁complex	-14944
▁confess	-14945
▁consist	-14946
▁counted	-14947
▁crawled	-14948
▁crooked	-14949
▁dangers	-14950
▁daytime	-14951
▁devoted	-14952
▁drivers	-14953
▁enemies	-14954
▁enthusi	-14955
▁equally	-14956
▁exclaim	-14957
▁factors	-14958
▁forests	-14959
▁gaining	-14960
▁genuine	-14961
▁giggles	-14962
▁gruffly	-14963
▁guessed	-14964
▁hammock	-14965
▁heating	-14966
▁hellery	-14967
▁hickory	-14968
▁highway	-14969
▁hostess	-14970
▁hunhunh	-14971
▁ignored	-14972
▁inhibit	-14973
▁italian	-14974
▁kicking	-14975
▁knitted	-14976
▁leagues	-14977
▁needing	-14978
▁notices	-14979
▁opposed	-14980
▁outward	-14981
▁parking	-14982
▁parting	-14983
▁phonics	-14984
▁pillows	-14985
▁pouring	-14986
▁prescri	-14987
▁reduced	-14988
▁refuses	-14989
▁restore	-14990
▁rightly	-14991
▁routine	-14992
▁sawmill	-14993
▁scholar	-14994
▁scissor	-14995
▁seminar	-14996
▁serpent	-14997
▁shaving	-14998
▁shelter	-14999
▁sheriff	-15000
▁shocked	-15001
▁sleeves	-15002
▁slumber	-15003
▁sneezed	-15004
▁snouted	-15005
▁spoiled	-15006
▁stadium	-15007
▁standin	-15008
▁streams	-15009
▁strings	-15010
▁stroked	-15011
▁suburbs	-15012
▁sunfish	-15013
▁teasing	-15014
▁theoret	-15015
▁toaster	-15016
▁tremble	-15017
▁trusted	-15018
▁tumbled	-15019
▁veranda	-15020
▁verdict	-15021
▁violent	-15022
▁volumes	-15023
▁warfare	-15024
▁warrior	-15025
▁website	-15026
▁weeping	-15027
▁whereas	-15028
Christmas	-15029
antically	-15030
completes	-15031
insistent	-15032
ouncillor	-15033
prompting	-15034
videotape	-15035
whispered	-15036
▁Arkansas	-15037
▁Athletic	-15038
▁Blakeman	-15039
▁Brothers	-15040
▁Cardinal	-15041
▁Christie	-15042
▁Chuganji	-15043
▁Commerce	-15044
▁Hercules	-15045
▁Jennifer	-15046
▁Lafferty	-15047
▁MICHELLE	-15048
▁Magazine	-15049
▁Margaret	-15050
▁Mercedes	-15051
▁Paradise	-15052
▁Sterling	-15053
▁Timorese	-15054
▁Together	-15055
▁Trujillo	-15056
▁Ucluelet	-15057
▁Yamazaki	-15058
▁accounts	-15059
▁achieved	-15060
▁applying	-15061
▁assholes	-15062
▁barefoot	-15063
▁battered	-15064
▁believes	-15065
▁bursting	-15066
▁chairman	-15067
▁changies	-15068
▁circuses	-15069
▁clapping	-15070
▁commonly	-15071
▁congress	-15072
▁daylight	-15073
▁despised	-15074
▁discreet	-15075
▁espresso	-15076
▁featured	-15077
▁festival	-15078
▁forensic	-15079
▁formally	-15080
▁fraction	-15081
▁giggling	-15082
▁glancing	-15083
▁harmless	-15084
▁homework	-15085
▁hummocks	-15086
▁imprison	-15087
▁juncture	-15088
▁lafferty	-15089
▁landlord	-15090
▁managers	-15091
▁marching	-15092
▁mechanic	-15093
▁mornings	-15094
▁novelist	-15095
▁overcome	-15096
▁passages	-15097
▁philippa	-15098
▁poisoned	-15099
▁promises	-15100
▁promoted	-15101
▁provides	-15102
▁psychiat	-15103
▁quarters	-15104
▁rattling	-15105
▁reindeer	-15106
▁reliable	-15107
▁rendered	-15108
▁replaces	-15109
▁reporter	-15110
▁republic	-15111
▁restless	-15112
▁restored	-15113
▁resulted	-15114
▁silently	-15115
▁singsong	-15116
▁soothing	-15117
▁spanking	-15118
▁speeches	-15119
▁spilling	-15120
▁stacking	-15121
▁stepping	-15122
▁strictly	-15123
▁substant	-15124
▁suggests	-15125
▁suitable	-15126
▁supplier	-15127
▁survived	-15128
▁sweeping	-15129
▁theories	-15130
▁tomatoes	-15131
▁township	-15132
▁traveled	-15133
▁truncata	-15134
▁universe	-15135
Drosophila	-15136
▁Alstarnah	-15137
▁Canelones	-15138
▁Chavannes	-15139
▁Community	-15140
▁Dommartin	-15141
▁Donneloye	-15142
▁Doolittle	-15143
▁Emergency	-15144
▁Gervassen	-15145
▁JUVENILES	-15146
▁Norwegian	-15147
▁Pazzaglia	-15148
▁Riverside	-15149
▁Seriously	-15150
▁Taiwanese	-15151
▁Wisconsin	-15152
▁ambulance	-15153
▁ancestors	-15154
▁attracted	-15155
▁charities	-15156
▁chieftain	-15157
▁comparing	-15158
▁complaint	-15159
▁contented	-15160
▁cranberry	-15161
▁departure	-15162
▁dimension	-15163
▁disturbed	-15164
▁excursion	-15165
▁favorites	-15166
▁godfather	-15167
▁hopefully	-15168
▁infection	-15169
▁inkfishes	-15170
▁interfere	-15171
▁intervals	-15172
▁lightning	-15173
▁marketing	-15174
▁municipal	-15175
▁narrative	-15176
▁nighttime	-15177
▁occasions	-15178
▁overnight	-15179
▁philosoph	-15180
▁pneumonia	-15181
▁qualified	-15182
▁seductive	-15183
▁springing	-15184
▁strangers	-15185
▁superstit	-15186
▁suspected	-15187
▁sweetness	-15188
▁syllables	-15189
▁touchdown	-15190
▁travelled	-15191
▁universal	-15192
effersonian	-15193
▁Cinderella	-15194
▁Commandant	-15195
▁Councillor	-15196
▁EVERYWHERE	-15197
▁Federation	-15198
▁Gambaccini	-15199
▁Kramatorsk	-15200
▁Manchester	-15201
▁Montilliez	-15202
▁Personally	-15203
▁Protection	-15204
▁Variations	-15205
▁Woodpecker	-15206
▁advantages	-15207
▁arithmetic	-15208
▁assistance	-15209
▁attractive	-15210
▁bewildered	-15211
▁buckingham	-15212
[...]
