[PAD]	0
[CLS]	0
[SEP]	0
[UNK]	0
[MASK]	0
<0x00>	0
<0x01>	0
<0x02>	0
<0x03>	0
<0x04>	0
<0x05>	0
<0x06>	0
<0x07>	0
<0x08>	0
<0x09>	0
<0x0A>	0
<0x0B>	0
<0x0C>	0
<0x0D>	0
<0x0E>	0
<0x0F>	0
<0x10>	0
<0x11>	0
<0x12>	0
<0x13>	0
<0x14>	0
<0x15>	0
<0x16>	0
<0x17>	0
<0x18>	0
<0x19>	0
<0x1A>	0
<0x1B>	0
<0x1C>	0
<0x1D>	0
<0x1E>	0
<0x1F>	0
<0x20>	0
<0x21>	0
<0x22>	0
<0x23>	0
<0x24>	0
<0x25>	0
<0x26>	0
<0x27>	0
<0x28>	0
<0x29>	0
<0x2A>	0
<0x2B>	0
<0x2C>	0
<0x2D>	0
<0x2E>	0
<0x2F>	0
<0x30>	0
<0x31>	0
<0x32>	0
<0x33>	0
<0x34>	0
<0x35>	0
<0x36>	0
<0x37>	0
<0x38>	0
<0x39>	0
<0x3A>	0
<0x3B>	0
<0x3C>	0
<0x3D>	0
<0x3E>	0
<0x3F>	0
<0x40>	0
<0x41>	0
<0x42>	0
<0x43>	0
<0x44>	0
<0x45>	0
<0x46>	0
<0x47>	0
<0x48>	0
<0x49>	0
<0x4A>	0
<0x4B>	0
<0x4C>	0
<0x4D>	0
<0x4E>	0
<0x4F>	0
<0x50>	0
<0x51>	0
<0x52>	0
<0x53>	0
<0x54>	0
<0x55>	0
<0x56>	0
<0x57>	0
<0x58>	0
<0x59>	0
<0x5A>	0
<0x5B>	0
<0x5C>	0
<0x5D>	0
<0x5E>	0
<0x5F>	0
<0x60>	0
<0x61>	0
<0x62>	0
<0x63>	0
<0x64>	0
<0x65>	0
<0x66>	0
<0x67>	0
<0x68>	0
<0x69>	0
<0x6A>	0
<0x6B>	0
<0x6C>	0
<0x6D>	0
<0x6E>	0
<0x6F>	0
<0x70>	0
<0x71>	0
<0x72>	0
<0x73>	0
<0x74>	0
<0x75>	0
<0x76>	0
<0x77>	0
<0x78>	0
<0x79>	0
<0x7A>	0
<0x7B>	0
<0x7C>	0
<0x7D>	0
<0x7E>	0
<0x7F>	0
<0x80>	0
<0x81>	0
<0x82>	0
<0x83>	0
<0x84>	0
<0x85>	0
<0x86>	0
<0x87>	0
<0x88>	0
<0x89>	0
<0x8A>	0
<0x8B>	0
<0x8C>	0
<0x8D>	0
<0x8E>	0
<0x8F>	0
<0x90>	0
<0x91>	0
<0x92>	0
<0x93>	0
<0x94>	0
<0x95>	0
<0x96>	0
<0x97>	0
<0x98>	0
<0x99>	0
<0x9A>	0
<0x9B>	0
<0x9C>	0
<0x9D>	0
<0x9E>	0
<0x9F>	0
<0xA0>	0
<0xA1>	0
<0xA2>	0
<0xA3>	0
<0xA4>	0
<0xA5>	0
<0xA6>	0
<0xA7>	0
<0xA8>	0
<0xA9>	0
<0xAA>	0
<0xAB>	0
<0xAC>	0
<0xAD>	0
<0xAE>	0
<0xAF>	0
<0xB0>	0
<0xB1>	0
<0xB2>	0
<0xB3>	0
<0xB4>	0
<0xB5>	0
<0xB6>	0
<0xB7>	0
<0xB8>	0
<0xB9>	0
<0xBA>	0
<0xBB>	0
<0xBC>	0
<0xBD>	0
<0xBE>	0
<0xBF>	0
<0xC0>	0
<0xC1>	0
<0xC2>	0
<0xC3>	0
<0xC4>	0
<0xC5>	0
<0xC6>	0
<0xC7>	0
<0xC8>	0
<0xC9>	0
<0xCA>	0
<0xCB>	0
<0xCC>	0
<0xCD>	0
<0xCE>	0
<0xCF>	0
<0xD0>	0
<0xD1>	0
<0xD2>	0
<0xD3>	0
<0xD4>	0
<0xD5>	0
<0xD6>	0
<0xD7>	0
<0xD8>	0
<0xD9>	0
<0xDA>	0
<0xDB>	0
<0xDC>	0
<0xDD>	0
<0xDE>	0
<0xDF>	0
<0xE0>	0
<0xE1>	0
<0xE2>	0
<0xE3>	0
<0xE4>	0
<0xE5>	0
<0xE6>	0
<0xE7>	0
<0xE8>	0
<0xE9>	0
<0xEA>	0
<0xEB>	0
<0xEC>	0
<0xED>	0
<0xEE>	0
<0xEF>	0
<0xF0>	0
<0xF1>	0
<0xF2>	0
<0xF3>	0
<0xF4>	0
<0xF5>	0
<0xF6>	0
<0xF7>	0
<0xF8>	0
<0xF9>	0
<0xFA>	0
<0xFB>	0
<0xFC>	0
<0xFD>	0
<0xFE>	0
<0xFF>	0
▁s	-0
▁t	-1
▁i	-2
▁a	-3
▁e	-4
▁th	-5
▁y	-6
▁w	-7
▁the	-8
▁h	-9
▁o	-10
▁*	-11
ou	-12
re	-13
▁b	-14
▁in	-15
▁m	-16
▁c	-17
▁d	-18
nd	-19
at	-20
▁l	-21
▁f	-22
▁er	-23
▁p	-24
▁to	-25
▁you	-26
on	-27
▁g	-28
an	-29
CH	-30
CHI	-31
▁n	-32
▁ing	-33
ll	-34
▁ed	-35
or	-36
▁and	-37
in	-38
it	-39
er	-40
ar	-41
▁of	-42
▁wh	-43
▁it	-44
om	-45
OT	-46
MOT	-47
▁es	-48
ow	-49
▁he	-50
le	-51
st	-52
▁en	-53
ot	-54
ve	-55
▁ha	-56
▁on	-57
et	-58
ut	-59
▁wa	-60
▁that	-61
ic	-62
se	-63
▁we	-64
▁u	-65
▁[	-66
gh	-67
▁be	-68
id	-69
▁=	-70
ld	-71
▁st	-72
▁r	-73
▁ly	-74
▁k	-75
en	-76
▁sh	-77
ac	-78
oo	-79
▁hi	-80
▁do	-81
▁se	-82
▁al	-83
ir	-84
▁re	-85
▁for	-86
▁what	-87
▁j	-88
ke	-89
am	-90
ght	-91
▁me	-92
▁an	-93
ch	-94
▁ti	-95
ith	-96
▁at	-97
ur	-98
ad	-99
▁li	-100
is	-101
▁sa	-102
ome	-103
▁no	-104
▁with	-105
▁ch	-106
▁-	-107
th	-108
▁go	-109
▁de	-110
▁not	-111
▁v	-112
al	-113
la	-114
ight	-115
▁fr	-116
▁have	-117
il	-118
ould	-119
▁ne	-120
ce	-121
▁ma	-122
▁so	-123
▁she	-124
▁thi	-125
▁kn	-126
▁but	-127
ro	-128
ea	-129
ent	-130
▁can	-131
▁there	-132
un	-133
▁don	-134
ra	-135
xx	-136
ust	-137
▁are	-138
▁one	-139
▁mo	-140
ill	-141
▁ab	-142
▁up	-143
ie	-144
ant	-145
▁your	-146
▁know	-147
ack	-148
▁all	-149
ss	-150
ing	-151
▁1	-152
pp	-153
AT	-154
FAT	-155
all	-156
ct	-157
▁tr	-158
▁had	-159
▁bo	-160
op	-161
▁su	-162
au	-163
ook	-164
▁like	-165
ck	-166
ge	-167
▁tion	-168
ver	-169
nt	-170
▁oh	-171
ell	-172
▁get	-173
▁ad	-174
▁2	-175
ood	-176
out	-177
▁from	-178
ere	-179
ion	-180
▁him	-181
▁sp	-182
▁out	-183
▁did	-184
itt	-185
art	-186
ap	-187
▁or	-188
▁sec	-189
▁some	-190
▁see	-191
oth	-192
ick	-193
ink	-194
ft	-195
ol	-196
um	-197
ard	-198
ee	-199
▁just	-200
▁them	-201
▁said	-202
ul	-203
qu	-204
as	-205
▁man	-206
▁if	-207
▁di	-208
ame	-209
▁un	-210
▁were	-211
ound	-212
▁here	-213
ri	-214
na	-215
▁com	-216
▁would	-217
es	-218
▁wor	-219
me	-220
▁who	-221
▁yea	-222
▁about	-223
ind	-224
▁yeah	-225
▁want	-226
▁how	-227
ong	-228
ain	-229
▁well	-230
ig	-231
▁ta	-232
▁now	-233
▁ba	-234
▁ar	-235
▁ive	-236
▁look	-237
▁right	-238
▁put	-239
▁bl	-240
us	-241
own	-242
▁co	-243
▁xx	-244
▁xxx	-245
▁con	-246
▁think	-247
one	-248
ittle	-249
▁little	-250
ff	-251
▁where	-252
wa	-253
▁good	-254
▁ex	-255
▁got	-256
▁la	-257
▁ver	-258
ine	-259
▁cl	-260
▁20	-261
▁tw	-262
our	-263
▁come	-264
ite	-265
▁lo	-266
▁po	-267
▁le	-268
im	-269
ice	-270
ich	-271
▁off	-272
eth	-273
ish	-274
▁qu	-275
▁est	-276
ka	-277
▁let	-278
▁pe	-279
ath	-280
▁back	-281
▁could	-282
▁19	-283
▁ag	-284
▁will	-285
▁than	-286
▁br	-287
▁ro	-288
▁ate	-289
▁chi	-290
▁mom	-291
and	-292
ide	-293
▁down	-294
▁pre	-295
▁too	-296
ile	-297
▁more	-298
▁ov	-299
ore	-300
▁oth	-301
▁oka	-302
▁pro	-303
▁time	-304
IN	-305
ace	-306
▁da	-307
▁pl	-308
INV	-309
▁am	-310
▁fe	-311
lf	-312
▁te	-313
▁gu	-314
▁their	-315
ip	-316
▁two	-317
▁wr	-318
sh	-319
▁which	-320
RS	-321
URS	-322
▁pla	-323
ree	-324
ort	-325
ough	-326
▁jo	-327
▁ment	-328
▁bec	-329
mb	-330
ause	-331
▁take	-332
uck	-333
▁som	-334
urn	-335
▁as	-336
▁part	-337
orn	-338
ugh	-339
▁cr	-340
▁gre	-341
ist	-342
▁pa	-343
▁sil	-344
ect	-345
▁gon	-346
▁ca	-347
▁make	-348
].	-349
▁fl	-350
▁peop	-351
▁dis	-352
▁gonna	-353
▁sc	-354
▁ye	-355
▁people	-356
▁ev	-357
▁mar	-358
ach	-359
▁wat	-360
▁per	-361
ue	-362
▁tell	-363
▁gr	-364
BR	-365
ter	-366
ose	-367
pt	-368
▁aft	-369
▁silv	-370
ous	-371
ade	-372
▁pr	-373
iv	-374
▁able	-375
BRO	-376
▁base	-377
▁mu	-378
▁sw	-379
▁uh	-380
▁fir	-381
▁ever	-382
▁bu	-383
▁work	-384
ool	-385
▁201	-386
alk	-387
▁mean	-388
ang	-389
gn	-390
ought	-391
ance	-392
ure	-393
▁boy	-394
ble	-395
▁turn	-396
▁any	-397
▁momm	-398
▁again	-399
▁black	-400
wn	-401
air	-402
▁because	-403
int	-404
▁thank	-405
▁lea	-406
▁someth	-407
▁ho	-408
ase	-409
ord	-410
▁ful	-411
▁new	-412
be	-413
ian	-414
CO	-415
fe	-416
self	-417
▁car	-418
▁cou	-419
▁.	-420
▁talk	-421
bl	-422
od	-423
COL	-424
ond	-425
ia	-426
▁bet	-427
▁ple	-428
▁first	-429
▁dat	-430
ast	-431
▁nev	-432
▁much	-433
▁mr	-434
▁happ	-435
▁sm	-436
▁eve	-437
▁call	-438
▁hand	-439
da	-440
▁app	-441
ock	-442
▁wan	-443
▁ask	-444
▁thr	-445
▁long	-446
ag	-447
ak	-448
ellow	-449
▁these	-450
▁dr	-451
el	-452
▁stick	-453
ouse	-454
act	-455
laugh	-456
▁awa	-457
▁great	-458
ud	-459
▁gir	-460
nce	-461
age	-462
eel	-463
orr	-464
▁old	-465
fore	-466
▁big	-467
▁should	-468
--	-469
▁add	-470
▁child	-471
ert	-472
▁made	-473
▁us	-474
▁didn	-475
▁act	-476
laughs	-477
▁anoth	-478
▁they	-479
▁fo	-480
▁ac	-481
mp	-482
▁ball	-483
▁girl	-484
▁hel	-485
▁comm	-486
▁bre	-487
▁moth	-488
▁pap	-489
▁pu	-490
▁before	-491
▁comp	-492
▁fi	-493
▁[1	-494
▁dad	-495
▁came	-496
▁mis	-497
▁side	-498
▁thing	-499
ane	-500
ph	-501
ation	-502
▁dog	-503
▁home	-504
▁year	-505
▁help	-506
ict	-507
▁min	-508
▁eat	-509
so	-510
▁gra	-511
ab	-512
▁house	-513
uh	-514
▁sch	-515
▁those	-516
eep	-517
son	-518
lt	-519
▁write	-520
uc	-521
▁thought	-522
▁bro	-523
▁love	-524
▁our	-525
▁adam	-526
ed	-527
▁wait	-528
▁kind	-529
▁cle	-530
▁wand	-531
up	-532
▁wanna	-533
▁exp	-534
▁head	-535
mo	-536
▁fath	-537
▁el	-538
way	-539
sn	-540
▁please	-541
▁keep	-542
▁went	-543
te	-544
ward	-545
▁top	-546
os	-547
▁sion	-548
▁stand	-549
▁ise	-550
▁three	-551
ep	-552
▁ser	-553
▁count	-554
ug	-555
▁gl	-556
▁sta	-557
▁must	-558
▁say	-559
▁every	-560
▁start	-561
▁op	-562
▁memb	-563
ern	-564
▁str	-565
▁most	-566
▁feel	-567
▁name	-568
▁care	-569
right	-570
IS	-571
ence	-572
▁watch	-573
land	-574
▁through	-575
ne	-576
▁play	-577
gnet	-578
▁mov	-579
xt	-580
▁ve	-581
▁bel	-582
▁pol	-583
▁cre	-584
▁alway	-585
▁tri	-586
▁sure	-587
ng	-588
▁dre	-589
ush	-590
SIS	-591
▁3	-592
▁last	-593
▁night	-594
▁ness	-595
▁anyth	-596
ma	-597
ild	-598
unn	-599
▁show	-600
▁around	-601
▁school	-602
▁sl	-603
▁par	-604
▁mon	-605
▁yellow	-606
▁alright	-607
▁place	-608
man	-609
▁ah	-610
▁ear	-611
▁also	-612
ton	-613
enc	-614
ta	-615
▁fam	-616
we	-617
▁ju	-618
ird	-619
▁col	-620
▁pau	-621
▁tra	-622
▁find	-623
▁stor	-624
ze	-625
▁high	-626
bod	-627
▁si	-628
▁mak	-629
▁cont	-630
▁dadd	-631
av	-632
ye	-633
ump	-634
▁won	-635
▁book	-636
▁bab	-637
▁fin	-638
▁em	-639
▁use	-640
iz	-641
pe	-642
err	-643
ual	-644
▁sile	-645
▁magnet	-646
amp	-647
▁still	-648
iend	-649
▁tom	-650
▁bett	-651
▁might	-652
▁such	-653
▁found	-654
og	-655
att	-656
▁ph	-657
▁ur	-658
ew	-659
▁may	-660
▁far	-661
▁cour	-662
▁inter	-663
▁noth	-664
▁air	-665
ange	-666
▁ob	-667
▁war	-668
▁pie	-669
▁beg	-670
▁ra	-671
ican	-672
▁nice	-673
▁ga	-674
▁nor	-675
ev	-676
▁own	-677
▁♪	-678
ci	-679
ope	-680
▁seem	-681
esn	-682
▁tre	-683
▁four	-684
▁while	-685
▁light	-686
▁diff	-687
ank	-688
▁cit	-689
▁ial	-690
▁paul	-691
▁fall	-692
▁doesn	-693
ula	-694
▁tak	-695
▁sit	-696
wh	-697
▁else	-698
nder	-699
▁ious	-700
▁hard	-701
▁poss	-702
ute	-703
itch	-704
▁sorr	-705
dd	-706
▁lot	-707
▁silence	-708
▁liv	-709
ign	-710
▁friend	-711
▁stat	-712
outh	-713
▁happen	-714
ott	-715
▁word	-716
▁born	-717
▁done	-718
▁mil	-719
ob	-720
▁?	-721
▁supp	-722
sp	-723
▁hur	-724
▁next	-725
▁,	-726
▁sent	-727
▁!	-728
▁tap	-729
▁life	-730
est	-731
oon	-732
▁ous	-733
▁saw	-734
▁world	-735
alit	-736
▁[1.	-737
▁maybe	-738
▁sound	-739
hn	-740
pr	-741
erent	-742
▁wal	-743
▁told	-744
▁2019	-745
pl	-746
▁her	-747
▁mot	-748
▁hear	-749
▁ough	-750
▁wash	-751
▁childr	-752
▁spe	-753
▁lad	-754
▁ste	-755
▁amer	-756
ah	-757
▁tog	-758
▁same	-759
cle	-760
▁fami	-761
▁togeth	-762
are	-763
▁che	-764
▁near	-765
io	-766
▁hold	-767
▁wind	-768
1:	-769
▁sn	-770
▁vo	-771
▁fras	-772
▁stop	-773
atch	-774
▁har	-775
▁char	-776
▁cla	-777
umb	-778
00	-779
gr	-780
ident	-781
▁morn	-782
gg	-783
▁lau	-784
▁form	-785
anc	-786
sil	-787
▁lat	-788
▁imp	-789
▁door	-790
▁young	-791
if	-792
▁wom	-793
▁list	-794
▁break	-795
▁took	-796
unic	-797
▁move	-798
▁mind	-799
▁pick	-800
▁under	-801
ince	-802
▁sle	-803
▁john	-804
ull	-805
ros	-806
▁mone	-807
▁known	-808
▁fire	-809
▁lett	-810
ub	-811
▁ke	-812
read	-813
inn	-814
▁exc	-815
▁drink	-816
▁town	-817
sa	-818
▁face	-819
▁fish	-820
▁4	-821
▁bar	-822
ject	-823
..	-824
▁cir	-825
▁isn	-826
▁sho	-827
▁room	-828
▁stre	-829
aud	-830
▁set	-831
silver	-832
▁bit	-833
per	-834
▁cent	-835
une	-836
▁sk	-837
lda	-838
▁heard	-839
▁leave	-840
ont	-841
▁god	-842
▁belie	-843
▁small	-844
aught	-845
▁left	-846
unicip	-847
▁municip	-848
eak	-849
▁til	-850
str	-851
llow	-852
▁bra	-853
▁course	-854
▁though	-855
▁dra	-856
▁hm	-857
▁arm	-858
▁wee	-859
▁run	-860
▁huh	-861
▁cra	-862
▁gues	-863
▁walk	-864
▁municipalit	-865
vi	-866
sit	-867
▁ele	-868
▁giv	-869
▁hor	-870
▁each	-871
▁once	-872
▁broth	-873
▁everyth	-874
hm	-875
▁urs	-876
▁gett	-877
▁mark	-878
▁id	-879
▁american	-880
the	-881
▁att	-882
▁sign	-883
▁round	-884
▁erm	-885
▁202	-886
▁fre	-887
▁crom	-888
▁quite	-889
▁ce	-890
▁tt	-891
▁lar	-892
▁both	-893
▁ible	-894
rop	-895
▁18	-896
unk	-897
ho	-898
▁bad	-899
▁game	-900
▁bus	-901
▁dou	-902
▁cons	-903
▁soon	-904
▁jane	-905
▁few	-906
▁sur	-907
▁knew	-908
oud	-909
▁[.	-910
▁pop	-911
▁clear	-912
hi	-913
▁bird	-914
▁without	-915
▁kill	-916
▁laugh	-917
br	-918
ann	-919
▁possum	-920
rist	-921
▁hot	-922
▁bas	-923
▁cook	-924
▁betwe	-925
ctor	-926
uar	-927
▁acc	-928
ult	-929
▁mhm	-930
▁200	-931
get	-932
▁ey	-933
▁im	-934
▁tilda	-935
▁kitt	-936
cl	-937
encil	-938
▁hell	-939
▁wond	-940
▁um	-941
▁fair	-942
▁pencil	-943
irt	-944
▁less	-945
▁day	-946
▁toda	-947
▁ill	-948
ount	-949
▁heart	-950
▁person	-951
itic	-952
▁hav	-953
▁fine	-954
▁somet	-955
▁second	-956
▁5	-957
most	-958
▁sir	-959
▁serv	-960
ate	-961
▁mm	-962
▁nut	-963
▁199	-964
▁sar	-965
▁follow	-966
unch	-967
▁cap	-968
▁gen	-969
▁himself	-970
▁7	-971
▁chair	-972
oup	-973
▁different	-974
▁z	-975
unt	-976
▁[2	-977
▁foot	-978
▁ge	-979
▁coff	-980
▁upon	-981
▁cause	-982
▁white	-983
▁oct	-984
▁cord	-985
go	-986
▁actual	-987
▁beh	-988
▁yet	-989
▁half	-990
bo	-991
fr	-992
ens	-993
▁age	-994
▁gar	-995
▁vol	-996
▁sometim	-997
fta	-998
ipp	-999
▁octob	-1000
▁hafta	-1001
▁yep	-1002
▁tim	-1003
▁vaud	-1004
ator	-1005
▁object	-1006
li	-1007
▁ter	-1008
▁vis	-1009
bab	-1010
▁box	-1011
sw	-1012
ief	-1013
res	-1014
ouch	-1015
▁color	-1016
▁point	-1017
▁sim	-1018
no	-1019
▁swe	-1020
▁east	-1021
▁wood	-1022
aut	-1023
huh	-1024
▁almost	-1025
▁–	-1026
▁ath	-1027
▁gone	-1028
▁coffee	-1029
▁gave	-1030
▁milk	-1031
▁speak	-1032
ina	-1033
▁appe	-1034
▁sleep	-1035
▁flo	-1036
▁along	-1037
▁cur	-1038
▁dar	-1039
▁son	-1040
▁publ	-1041
▁trict	-1042
riv	-1043
ball	-1044
▁cup	-1045
▁tape	-1046
▁week	-1047
▁8	-1048
itz	-1049
▁cut	-1050
▁six	-1051
▁minute	-1052
ple	-1053
▁ize	-1054
▁shall	-1055
▁'	-1056
▁meet	-1057
▁woman	-1058
▁finish	-1059
▁believe	-1060
ful	-1061
▁writ	-1062
▁beaut	-1063
▁piece	-1064
▁christ	-1065
em	-1066
▁hum	-1067
▁kid	-1068
▁blue	-1069
▁ru	-1070
▁nat	-1071
put	-1072
uth	-1073
▁try	-1074
▁hope	-1075
IC	-1076
▁need	-1077
▁star	-1078
ertain	-1079
▁north	-1080
▁whole	-1081
ca	-1082
RIC	-1083
ash	-1084
▁voice	-1085
use	-1086
▁fun	-1087
▁pet	-1088
▁squ	-1089
oint	-1090
vern	-1091
▁tree	-1092
▁sing	-1093
▁france	-1094
▁sat	-1095
▁198	-1096
lv	-1097
vel	-1098
▁pull	-1099
▁ques	-1100
ly	-1101
ular	-1102
▁ton	-1103
com	-1104
ient	-1105
▁poor	-1106
▁grand	-1107
▁since	-1108
ib	-1109
ura	-1110
▁sub	-1111
▁spell	-1112
▁rob	-1113
▁geor	-1114
▁soft	-1115
enn	-1116
▁pass	-1117
▁against	-1118
gon	-1119
hap	-1120
ustr	-1121
▁med	-1122
▁fact	-1123
▁sort	-1124
▁truck	-1125
▁6	-1126
▁sto	-1127
▁9	-1128
iti	-1129
▁port	-1130
▁ursula	-1131
▁ain	-1132
▁alread	-1133
oc	-1134
▁196	-1135
▁numb	-1136
▁stra	-1137
iet	-1138
▁met	-1139
▁began	-1140
▁wouldn	-1141
lo	-1142
gar	-1143
ote	-1144
▁ass	-1145
▁doub	-1146
▁hurt	-1147
▁visit	-1148
▁perf	-1149
▁close	-1150
▁south	-1151
▁sy	-1152
▁mus	-1153
▁goin	-1154
▁govern	-1155
▁cri	-1156
▁leg	-1157
▁food	-1158
▁appear	-1159
▁fellow	-1160
▁probab	-1161
▁dire	-1162
▁feet	-1163
▁idea	-1164
erland	-1165
▁touch	-1166
ail	-1167
ire	-1168
▁mi	-1169
▁jan	-1170
▁oft	-1171
▁fell	-1172
▁perhap	-1173
▁arr	-1174
▁plac	-1175
▁ship	-1176
▁floor	-1177
▁sident	-1178
▁cal	-1179
▁dur	-1180
▁sen	-1181
▁line	-1182
▁certain	-1183
mm	-1184
▁train	-1185
ster	-1186
▁job	-1187
▁sarah	-1188
iss	-1189
▁maj	-1190
▁cold	-1191
▁politic	-1192
aint	-1193
▁hour	-1194
▁pict	-1195
gie	-1196
▁juice	-1197
pte	-1198
▁my	-1199
▁197	-1200
▁eas	-1201
▁tur	-1202
▁felt	-1203
▁push	-1204
▁tele	-1205
▁switz	-1206
▁switzerland	-1207
stor	-1208
▁aile	-1209
▁answ	-1210
▁coll	-1211
▁someone	-1212
to	-1213
icks	-1214
▁riv	-1215
▁dream	-1216
▁guy	-1217
orrow	-1218
▁eight	-1219
▁compan	-1220
▁(	-1221
▁pat	-1222
ptemb	-1223
▁wrong	-1224
▁nation	-1225
▁septemb	-1226
▁mid	-1227
▁rock	-1228
nc	-1229
ment	-1230
▁sun	-1231
▁wish	-1232
▁iver	-1233
2:	-1234
oi	-1235
zz	-1236
puts	-1237
▁ach	-1238
▁pos	-1239
▁check	-1240
cr	-1241
▁af	-1242
▁boat	-1243
▁bott	-1244
▁draw	-1245
▁short	-1246
you	-1247
▁bur	-1248
▁cat	-1249
▁tir	-1250
▁bear	-1251
ork	-1252
▁wear	-1253
▁offic	-1254
oke	-1255
ret	-1256
▁10	-1257
rent	-1258
▁mine	-1259
▁till	-1260
▁george	-1261
▁ice	-1262
▁dian	-1263
▁snow	-1264
nch	-1265
▁ok	-1266
anch	-1267
▁...	-1268
▁jump	-1269
▁contin	-1270
▁street	-1271
cu	-1272
ife	-1273
oop	-1274
▁apr	-1275
▁spr	-1276
▁anim	-1277
▁build	-1278
▁group	-1279
▁throw	-1280
az	-1281
▁carr	-1282
▁main	-1283
▁horse	-1284
▁lunch	-1285
▁canton	-1286
de	-1287
ida	-1288
uct	-1289
ude	-1290
blem	-1291
▁cor	-1292
▁land	-1293
▁wasn	-1294
▁circle	-1295
con	-1296
uff	-1297
▁ord	-1298
▁kitch	-1299
▁music	-1300
▁pleas	-1301
▁beauti	-1302
era	-1303
▁hit	-1304
▁herself	-1305
▁problem	-1306
wood	-1307
▁nam	-1308
▁front	-1309
ung	-1310
▁area	-1311
▁vill	-1312
▁countr	-1313
▁januar	-1314
oh	-1315
ale	-1316
▁full	-1317
▁lost	-1318
▁runn	-1319
▁cloth	-1320
▁constr	-1321
▁brought	-1322
und	-1323
▁cool	-1324
▁other	-1325
▁behind	-1326
erg	-1327
▁aff	-1328
▁bod	-1329
▁flow	-1330
▁fort	-1331
▁sist	-1332
▁mouth	-1333
ama	-1334
eri	-1335
▁pow	-1336
picks	-1337
▁scre	-1338
▁april	-1339
▁block	-1340
ti	-1341
ans	-1342
▁je	-1343
hold	-1344
▁art	-1345
▁jack	-1346
▁gotta	-1347
▁forg	-1348
▁true	-1349
alth	-1350
▁mag	-1351
▁march	-1352
▁wonder	-1353
ato	-1354
▁knock	-1355
ica	-1356
mpt	-1357
▁gun	-1358
▁que	-1359
▁fuck	-1360
▁matt	-1361
▁trou	-1362
▁haven	-1363
▁sweet	-1364
ead	-1365
not	-1366
▁les	-1367
▁lov	-1368
▁wagon	-1369
▁yourself	-1370
igh	-1371
▁aw	-1372
sing	-1373
▁ann	-1374
▁terr	-1375
▁toward	-1376
kes	-1377
▁pri	-1378
▁chee	-1379
▁exce	-1380
▁leav	-1381
▁acros	-1382
▁creat	-1383
▁movie	-1384
▁adm	-1385
▁law	-1386
▁clip	-1387
▁stud	-1388
▁whis	-1389
▁construc	-1390
ield	-1391
▁send	-1392
▁hello	-1393
.5	-1394
nda	-1395
▁over	-1396
▁prod	-1397
▁gener	-1398
vent	-1399
▁bow	-1400
▁duck	-1401
▁funn	-1402
▁bill	-1403
▁fight	-1404
▁quick	-1405
▁histor	-1406
▁hair	-1407
▁mill	-1408
▁sugar	-1409
▁window	-1410
▁commune	-1411
▁non	-1412
orm	-1413
ves	-1414
selv	-1415
▁bir	-1416
▁page	-1417
▁prom	-1418
▁iversit	-1419
vid	-1420
ress	-1421
side	-1422
▁corn	-1423
▁hang	-1424
▁shar	-1425
▁garth	-1426
▁teach	-1427
▁couldn	-1428
gan	-1429
▁blow	-1430
▁12	-1431
▁road	-1432
▁song	-1433
arn	-1434
▁ap	-1435
▁195	-1436
▁tow	-1437
inc	-1438
tle	-1439
▁jul	-1440
▁rid	-1441
▁papa	-1442
▁pur	-1443
where	-1444
▁2020	-1445
▁gold	-1446
▁lead	-1447
▁doctor	-1448
▁somebod	-1449
▁[3	-1450
▁luc	-1451
▁fing	-1452
▁cover	-1453
▁"	-1454
▁ep	-1455
▁mur	-1456
▁bath	-1457
▁clos	-1458
▁fore	-1459
▁airpl	-1460
▁stood	-1461
cc	-1462
tr	-1463
ilt	-1464
olog	-1465
raid	-1466
stic	-1467
▁ason	-1468
▁sitt	-1469
▁month	-1470
▁afraid	-1471
▁hat	-1472
▁busi	-1473
▁nine	-1474
▁roll	-1475
kin	-1476
▁hon	-1477
▁tea	-1478
▁conf	-1479
▁among	-1480
▁straight	-1481
ste	-1482
▁pot	-1483
▁free	-1484
▁open	-1485
▁crack	-1486
▁stuck	-1487
▁change	-1488
▁expect	-1489
▁jam	-1490
▁stead	-1491
▁became	-1492
room	-1493
▁ran	-1494
▁brok	-1495
▁tend	-1496
▁strong	-1497
▁adv	-1498
▁ago	-1499
▁bag	-1500
▁heav	-1501
▁hone	-1502
▁summ	-1503
▁brown	-1504
▁large	-1505
▁picture	-1506
ua	-1507
▁ty	-1508
▁drop	-1509
▁kept	-1510
▁prot	-1511
▁health	-1512
▁secret	-1513
ref	-1514
ical	-1515
▁193	-1516
▁cow	-1517
▁fix	-1518
point	-1519
▁eith	-1520
▁twent	-1521
▁daught	-1522
ket	-1523
▁case	-1524
▁gard	-1525
▁glad	-1526
▁minut	-1527
▁quiet	-1528
▁wheel	-1529
que	-1530
sent	-1531
▁lik	-1532
▁low	-1533
▁mat	-1534
▁alone	-1535
▁learn	-1536
co	-1537
▁dom	-1538
▁egg	-1539
▁fig	-1540
▁rich	-1541
▁seri	-1542
▁trunk	-1543
▁myself	-1544
▁bi	-1545
▁mad	-1546
takes	-1547
▁aren	-1548
▁clean	-1549
▁treat	-1550
▁airplane	-1551
ather	-1552
▁birth	-1553
Chi	-1554
▁hol	-1555
▁police	-1556
▁christma	-1557
bb	-1558
ov	-1559
▁fast	-1560
▁seat	-1561
▁catch	-1562
▁grace	-1563
▁quest	-1564
ove	-1565
▁doll	-1566
▁breath	-1567
▁tomorrow	-1568
▁17	-1569
ansa	-1570
▁fla	-1571
▁rath	-1572
▁sick	-1573
▁ahead	-1574
▁stuff	-1575
▁tripp	-1576
▁politician	-1577
▁vi	-1578
▁[2.	-1579
tempt	-1580
▁farm	-1581
▁tail	-1582
▁wife	-1583
▁member	-1584
▁public	-1585
▁camp	-1586
▁card	-1587
▁team	-1588
▁trouble	-1589
wl	-1590
cess	-1591
▁fur	-1592
▁conc	-1593
▁sudd	-1594
▁wild	-1595
▁sever	-1596
he	-1597
ys	-1598
bit	-1599
bor	-1600
yon	-1601
▁15	-1602
▁ou	-1603
▁cro	-1604
▁sev	-1605
▁vel	-1606
▁flore	-1607
▁whatev	-1608
▁perfect	-1609
sta	-1610
▁ri	-1611
▁ut	-1612
▁pra	-1613
▁bour	-1614
▁butt	-1615
▁phil	-1616
ies	-1617
▁is	-1618
fess	-1619
▁emp	-1620
▁term	-1621
▁shoot	-1622
cha	-1623
▁194	-1624
▁cry	-1625
▁ger	-1626
▁kansa	-1627
▁spoon	-1628
▁become	-1629
▁cheese	-1630
▁florence	-1631
ok	-1632
▁16	-1633
fast	-1634
▁dam	-1635
▁gam	-1636
▁burn	-1637
▁exact	-1638
▁organ	-1639
▁gent	-1640
▁ride	-1641
▁slow	-1642
▁french	-1643
aa	-1644
gne	-1645
▁ir	-1646
raph	-1647
▁putt	-1648
▁import	-1649
▁profess	-1650
sk	-1651
▁x	-1652
▁fle	-1653
▁even	-1654
▁join	-1655
▁luck	-1656
▁shut	-1657
▁spect	-1658
▁ground	-1659
▁tonight	-1660
ada	-1661
ason	-1662
▁die	-1663
▁scr	-1664
▁fear	-1665
▁nose	-1666
▁spon	-1667
▁warm	-1668
▁chang	-1669
▁harwood	-1670
▁question	-1671
imm	-1672
oof	-1673
ison	-1674
▁alb	-1675
▁dinn	-1676
▁imag	-1677
▁commun	-1678
ita	-1679
▁14	-1680
▁aug	-1681
▁past	-1682
▁piec	-1683
▁carri	-1684
▁const	-1685
▁elect	-1686
▁mount	-1687
▁usual	-1688
▁popula	-1689
sc	-1690
look	-1691
▁bye	-1692
▁loc	-1693
▁sha	-1694
▁beat	-1695
▁grow	-1696
▁sand	-1697
▁court	-1698
▁cream	-1699
▁whisper	-1700
der	-1701
let	-1702
▁lie	-1703
▁prop	-1704
▁themselv	-1705
▁fu	-1706
ston	-1707
▁occ	-1708
anche	-1709
▁dark	-1710
▁prov	-1711
▁russ	-1712
▁glish	-1713
▁magic	-1714
▁stool	-1715
▁majest	-1716
▁continu	-1717
case	-1718
cial	-1719
ilit	-1720
▁eff	-1721
▁nap	-1722
▁sou	-1723
erence	-1724
▁chief	-1725
▁laura	-1726
▁wheth	-1727
▁minist	-1728
SS	-1729
té	-1730
rel	-1731
▁dle	-1732
▁dro	-1733
comté	-1734
gogne	-1735
uthor	-1736
▁band	-1737
▁nove	-1738
franche	-1739
▁author	-1740
▁forget	-1741
▁bourgogne	-1742
ana	-1743
ipe	-1744
urch	-1745
▁pas	-1746
moves	-1747
▁hunt	-1748
▁blood	-1749
▁clock	-1750
▁least	-1751
di	-1752
child	-1753
▁hund	-1754
▁hurr	-1755
▁spec	-1756
▁excuse	-1757
angu	-1758
▁fit	-1759
▁jes	-1760
▁dang	-1761
▁capit	-1762
▁surpr	-1763
▁everybod	-1764
▁#	-1765
pla	-1766
▁uhhuh	-1767
▁caught	-1768
▁novemb	-1769
▁important	-1770
ers	-1771
gle	-1772
ism	-1773
uit	-1774
▁nin	-1775
▁suc	-1776
▁held	-1777
▁lift	-1778
▁paint	-1779
▁church	-1780
▁million	-1781
▁breakfast	-1782
ape	-1783
▁gla	-1784
▁nick	-1785
▁consid	-1786
▁televi	-1787
yl	-1788
oma	-1789
ven	-1790
▁11	-1791
▁gi	-1792
▁tro	-1793
▁win	-1794
icult	-1795
▁robin	-1796
▁football	-1797
▁fav	-1798
▁mac	-1799
▁opp	-1800
▁sol	-1801
▁step	-1802
▁suit	-1803
▁wall	-1804
▁august	-1805
▁bottom	-1806
▁23	-1807
▁ext	-1808
▁bowl	-1809
▁jean	-1810
▁medic	-1811
▁basket	-1812
but	-1813
ham	-1814
imb	-1815
rew	-1816
row	-1817
umm	-1818
▁[4	-1819
▁sav	-1820
▁tin	-1821
bruar	-1822
holds	-1823
▁gion	-1824
▁park	-1825
▁allow	-1826
▁chick	-1827
▁langu	-1828
▁phone	-1829
▁spend	-1830
▁attack	-1831
▁mother	-1832
▁februar	-1833
▁21	-1834
▁bon	-1835
▁fil	-1836
▁rom	-1837
▁boot	-1838
▁hole	-1839
▁tick	-1840
▁stopp	-1841
▁strange	-1842
gue	-1843
▁cam	-1844
▁eur	-1845
▁self	-1846
▁apple	-1847
▁brief	-1848
▁broke	-1849
▁forward	-1850
nut	-1851
▁24	-1852
atic	-1853
▁pad	-1854
▁fift	-1855
▁loud	-1856
▁mich	-1857
▁plan	-1858
though	-1859
▁aggie	-1860
▁button	-1861
▁chance	-1862
▁direct	-1863
▁birthda	-1864
ec	-1865
oe	-1866
come	-1867
lain	-1868
▁cand	-1869
▁dres	-1870
▁june	-1871
▁simp	-1872
▁store	-1873
childes	-1874
▁partic	-1875
▁childes	-1876
▁governor	-1877
ii	-1878
ym	-1879
▁ya	-1880
▁sad	-1881
▁bite	-1882
▁cens	-1883
▁fill	-1884
▁ward	-1885
▁above	-1886
▁dress	-1887
▁nobod	-1888
▁common	-1889
▁flower	-1890
▁german	-1891
▁although	-1892
ori	-1893
----	-1894
over	-1895
▁hun	-1896
▁lord	-1897
▁tire	-1898
▁answer	-1899
▁produc	-1900
▁plastic	-1901
lin	-1902
gram	-1903
song	-1904
▁fac	-1905
▁wel	-1906
stair	-1907
▁bigg	-1908
▁cemb	-1909
▁clud	-1910
▁stay	-1911
▁agree	-1912
itar	-1913
▁cov	-1914
▁cond	-1915
▁hors	-1916
▁mess	-1917
▁scar	-1918
ograph	-1919
▁event	-1920
▁howev	-1921
▁pract	-1922
▁except	-1923
▁father	-1924
▁letter	-1925
▁season	-1926
▁turtle	-1927
▁25	-1928
▁28	-1929
inoi	-1930
▁hop	-1931
ernoon	-1932
overla	-1933
▁quart	-1934
▁trans	-1935
▁anybod	-1936
▁present	-1937
▁]	-1938
owd	-1939
▁22	-1940
▁ss	-1941
▁tv	-1942
▁uk	-1943
ideo	-1944
▁vie	-1945
▁scri	-1946
▁suff	-1947
▁tear	-1948
▁anywa	-1949
▁earth	-1950
▁sudden	-1951
referent	-1952
▁_	-1953
ari	-1954
ars	-1955
bye	-1956
▁[?	-1957
▁cau	-1958
stern	-1959
▁spir	-1960
ground	-1961
▁award	-1962
▁sense	-1963
▁illinoi	-1964
▁suppose	-1965
▁village	-1966
▁afternoon	-1967
ha	-1968
arch	-1969
zzle	-1970
▁val	-1971
▁whom	-1972
▁bread	-1973
▁daddy	-1974
▁third	-1975
▁thirt	-1976
▁wrote	-1977
▁bright	-1978
▁forgot	-1979
cket	-1980
▁192	-1981
▁rad	-1982
▁cast	-1983
▁pack	-1984
▁post	-1985
▁charl	-1986
▁balloon	-1987
rit	-1988
▁13	-1989
▁joe	-1990
other	-1991
ution	-1992
▁comf	-1993
▁hosp	-1994
▁arrow	-1995
▁begin	-1996
▁hundr	-1997
▁monke	-1998
▁pound	-1999
▁whose	-2000
▁office	-2001
▁committ	-2002
▁service	-2003
lld	-2004
mon	-2005
ubb	-2006
icat	-2007
▁bed	-2008
▁cid	-2009
▁lin	-2010
▁wow	-2011
alian	-2012
▁onto	-2013
▁cherr	-2014
▁field	-2015
urs	-2016
aces	-2017
ingh	-2018
tain	-2019
ycle	-2020
▁fat	-2021
▁chap	-2022
▁grew	-2023
▁shot	-2024
▁view	-2025
▁wint	-2026
▁worth	-2027
▁appoint	-2028
▁illustr	-2029
gl	-2030
ix	-2031
▁sna	-2032
ature	-2033
clock	-2034
▁flat	-2035
▁pink	-2036
ousand	-2037
▁circu	-2038
▁belong	-2039
▁hospit	-2040
▁current	-2041
▁thousand	-2042
▁30	-2043
▁ox	-2044
▁toy	-2045
attle	-2046
▁coat	-2047
▁save	-2048
▁sold	-2049
▁vict	-2050
▁potato	-2051
▁accident	-2052
arm	-2053
mit	-2054
▁1.	-2055
▁mer	-2056
▁rose	-2057
▁worr	-2058
places	-2059
▁after	-2060
▁fright	-2061
▁mountain	-2062
5.	-2063
ya	-2064
bur	-2065
ford	-2066
▁ooh	-2067
▁ceiv	-2068
▁leas	-2069
▁york	-2070
▁human	-2071
▁writt	-2072
▁cannot	-2073
▁crayon	-2074
▁listen	-2075
▁everyone	-2076
000	-2077
abl	-2078
ael	-2079
iff	-2080
▁cho	-2081
▁eye	-2082
▁hen	-2083
▁lap	-2084
▁pig	-2085
▁hall	-2086
▁pant	-2087
▁stri	-2088
▁grape	-2089
▁anyone	-2090
▁pocket	-2091
▁within	-2092
ico	-2093
aliz	-2094
▁tor	-2095
▁vir	-2096
chair	-2097
▁bank	-2098
▁lion	-2099
▁sult	-2100
sterda	-2101
▁actor	-2102
▁calif	-2103
▁diand	-2104
▁dropp	-2105
▁final	-2106
▁plant	-2107
▁velop	-2108
▁parent	-2109
▁comfort	-2110
▁consider	-2111
▁yesterda	-2112
ise	-2113
▁ign	-2114
▁joy	-2115
▁bell	-2116
▁brit	-2117
▁major	-2118
▁speci	-2119
▁truth	-2120
▁bought	-2121
▁experi	-2122
▁search	-2123
▁californ	-2124
▁language	-2125
▁background	-2126
how	-2127
ier	-2128
idge	-2129
oose	-2130
shoe	-2131
▁ere	-2132
▁pal	-2133
▁hero	-2134
▁appro	-2135
▁marri	-2136
▁neigh	-2137
▁sharp	-2138
▁europe	-2139
▁scream	-2140
▁washer	-2141
bon	-2142
erv	-2143
▁27	-2144
▁na	-2145
▁cop	-2146
▁lou	-2147
▁sla	-2148
▁ten	-2149
ousin	-2150
▁2011	-2151
▁bang	-2152
▁fool	-2153
▁horr	-2154
▁jura	-2155
▁moon	-2156
▁penn	-2157
▁tall	-2158
▁pitch	-2159
▁sight	-2160
▁stori	-2161
▁comple	-2162
▁contro	-2163
▁robert	-2164
▁support	-2165
▁california	-2166
amb	-2167
rat	-2168
band	-2169
ounc	-2170
▁oat	-2171
▁sid	-2172
▁dann	-2173
▁frog	-2174
▁harr	-2175
▁mart	-2176
▁shit	-2177
points	-2178
▁stone	-2179
▁cousin	-2180
gu	-2181
nic	-2182
time	-2183
utch	-2184
▁[.7	-2185
▁bal	-2186
▁bor	-2187
ropri	-2188
▁cake	-2189
▁hill	-2190
▁ring	-2191
▁safe	-2192
▁sant	-2193
▁climb	-2194
▁meant	-2195
▁pleasure	-2196
▁:	-2197
ene	-2198
▁26	-2199
ific	-2200
roat	-2201
upid	-2202
▁esc	-2203
▁hus	-2204
▁mel	-2205
▁rac	-2206
▁san	-2207
▁[1.5	-2208
▁hous	-2209
▁lake	-2210
▁mann	-2211
▁posi	-2212
▁shoe	-2213
▁temp	-2214
▁vale	-2215
▁brother	-2216
▁medicine	-2217
lem	-2218
oph	-2219
stem	-2220
▁sex	-2221
▁bene	-2222
▁danc	-2223
▁film	-2224
▁rain	-2225
▁smil	-2226
▁censu	-2227
▁favor	-2228
▁honor	-2229
▁keith	-2230
▁trust	-2231
▁animal	-2232
▁figure	-2233
▁puzzle	-2234
▁stupid	-2235
▁difficult	-2236
vo	-2237
▁29	-2238
▁du	-2239
▁abs	-2240
▁bla	-2241
▁eag	-2242
▁equ	-2243
house	-2244
▁cost	-2245
▁driv	-2246
▁hank	-2247
▁colle	-2248
▁proce	-2249
▁proud	-2250
▁square	-2251
▁afterward	-2252
▁()	-2253
▁ka	-2254
▁tu	-2255
nord	-2256
▁[.8	-2257
▁aye	-2258
▁jud	-2259
▁2014	-2260
▁dirt	-2261
▁dose	-2262
▁lock	-2263
▁sell	-2264
▁counc	-2265
▁natur	-2266
▁shout	-2267
▁video	-2268
▁orange	-2269
▁baseball	-2270
iam	-2271
idd	-2272
mar	-2273
rap	-2274
uel	-2275
ault	-2276
some	-2277
▁ber	-2278
▁mod	-2279
▁sea	-2280
inist	-2281
▁caus	-2282
▁craz	-2283
▁darl	-2284
▁rais	-2285
▁vent	-2286
▁doubt	-2287
▁excit	-2288
▁plain	-2289
▁graham	-2290
▁itself	-2291
▁market	-2292
▁vaudoi	-2293
▁diandra	-2294
hs	-2295
ium	-2296
ren	-2297
lend	-2298
more	-2299
▁var	-2300
phone	-2301
uckle	-2302
▁espe	-2303
▁fail	-2304
▁pill	-2305
▁rush	-2306
▁force	-2307
▁motor	-2308
▁oatme	-2309
▁canada	-2310
▁cookie	-2311
▁suppos	-2312
▁throat	-2313
▁concern	-2314
▁italian	-2315
bel	-2316
ili	-2317
itor	-2318
rest	-2319
▁anx	-2320
▁mix	-2321
conom	-2322
▁bark	-2323
▁club	-2324
▁damn	-2325
▁kick	-2326
▁mama	-2327
▁meat	-2328
▁mocr	-2329
▁pair	-2330
▁ukra	-2331
▁activ	-2332
▁david	-2333
▁fruit	-2334
▁rough	-2335
▁couple	-2336
hv	-2337
▁hy	-2338
well	-2339
work	-2340
▁dri	-2341
ample	-2342
▁mont	-2343
▁soup	-2344
▁tedd	-2345
ington	-2346
yellow	-2347
▁fresh	-2348
▁ninet	-2349
▁space	-2350
▁stove	-2351
▁swimm	-2352
▁believ	-2353
▁bottle	-2354
▁spirit	-2355
▁husband	-2356
▁complete	-2357
▁especial	-2358
dge	-2359
ost	-2360
▁dy	-2361
pull	-2362
writ	-2363
▁ban	-2364
hslld	-2365
ition	-2366
▁cong	-2367
▁edge	-2368
▁gain	-2369
▁stro	-2370
▁corre	-2371
▁hungr	-2372
▁patch	-2373
▁plann	-2374
ik	-2375
ww	-2376
gel	-2377
iod	-2378
ror	-2379
ioca	-2380
ulat	-2381
what	-2382
▁sal	-2383
▁2017	-2384
▁2022	-2385
▁priv	-2386
▁board	-2387
▁built	-2388
▁cross	-2389
▁dance	-2390
▁manag	-2391
▁neith	-2392
▁system	-2393
▁publish	-2394
▁tapioca	-2395
▁william	-2396
▁committee	-2397
▁particular	-2398
**	-2399
ial	-2400
ime	-2401
igin	-2402
rian	-2403
that	-2404
umbl	-2405
▁fee	-2406
▁tit	-2407
▁wha	-2408
▁educ	-2409
▁pain	-2410
▁rubb	-2411
▁arriv	-2412
▁atten	-2413
▁cheer	-2414
▁offer	-2415
▁napkin	-2416
▁period	-2417
▁explain	-2418
▁communit	-2419
lw	-2420
va	-2421
...	-2422
ino	-2423
ume	-2424
▁ze	-2425
aper	-2426
▁men	-2427
▁henr	-2428
▁shop	-2429
▁apart	-2430
▁click	-2431
▁gland	-2432
▁screw	-2433
▁camera	-2434
▁council	-2435
▁program	-2436
oss	-2437
▁fa	-2438
▁iss	-2439
▁pli	-2440
▁wet	-2441
▁humm	-2442
▁king	-2443
▁peat	-2444
▁beginn	-2445
▁beside	-2446
▁island	-2447
▁origin	-2448
▁welcome	-2449
dr	-2450
yr	-2451
sur	-2452
yle	-2453
▁ja	-2454
,000	-2455
Home	-2456
tend	-2457
wich	-2458
▁aut	-2459
▁lic	-2460
tries	-2461
▁paid	-2462
▁soul	-2463
▁wide	-2464
itique	-2465
▁brave	-2466
▁advent	-2467
▁econom	-2468
▁valent	-2469
▁charact	-2470
▁richard	-2471
bu	-2472
xa	-2473
ber	-2474
▁31	-2475
fish	-2476
laim	-2477
soft	-2478
ssie	-2479
▁fly	-2480
ience	-2481
night	-2482
▁2016	-2483
▁[1.2	-2484
▁gros	-2485
▁ject	-2486
▁jour	-2487
▁nois	-2488
▁whoa	-2489
▁agent	-2490
▁poach	-2491
▁teeth	-2492
▁compet	-2493
▁attempt	-2494
▁perform	-2495
cel	-2496
eng	-2497
ive	-2498
ras	-2499
red	-2500
ric	-2501
▁ng	-2502
ying	-2503
▁mex	-2504
▁mor	-2505
▁net	-2506
▁oop	-2507
atter	-2508
board	-2509
▁flag	-2510
▁gine	-2511
▁race	-2512
▁rust	-2513
icycle	-2514
▁peace	-2515
▁claver	-2516
▁director	-2517
ave	-2518
sid	-2519
bour	-2520
east	-2521
elve	-2522
fath	-2523
ille	-2524
olar	-2525
pend	-2526
▁cis	-2527
▁ris	-2528
arent	-2529
▁bout	-2530
▁cros	-2531
▁mast	-2532
▁neck	-2533
▁sour	-2534
▁trip	-2535
▁type	-2536
ashion	-2537
▁grown	-2538
▁super	-2539
▁whoop	-2540
▁simple	-2541
▁twelve	-2542
▁johnson	-2543
▁administ	-2544
ba	-2545
ja	-2546
su	-2547
min	-2548
uce	-2549
cent	-2550
cept	-2551
inat	-2552
less	-2553
▁mir	-2554
▁2013	-2555
▁choc	-2556
▁elec	-2557
▁glas	-2558
▁horn	-2559
▁spee	-2560
▁level	-2561
▁ought	-2562
▁stage	-2563
looking	-2564
▁affair	-2565
▁doggie	-2566
▁patient	-2567
▁briefcase	-2568
bi	-2569
bin	-2570
gin	-2571
oni	-2572
▁[3.	-2573
▁rat	-2574
▁spo	-2575
▁vit	-2576
▁clar	-2577
▁conn	-2578
▁feat	-2579
▁larg	-2580
▁mult	-2581
▁vice	-2582
▁centr	-2583
▁chain	-2584
▁santa	-2585
▁utter	-2586
▁weren	-2587
▁exclaim	-2588
▁imagine	-2589
▁scholar	-2590
▁difference	-2591
ux	-2592
fit	-2593
omi	-2594
ious	-2595
▁bud	-2596
▁los	-2597
▁tha	-2598
▁tot	-2599
ustom	-2600
▁cred	-2601
▁drug	-2602
▁empt	-2603
▁mach	-2604
▁monst	-2605
▁posit	-2606
▁smell	-2607
▁theat	-2608
▁track	-2609
▁trick	-2610
▁slight	-2611
▁protect	-2612
▁sentence	-2613
▁professor	-2614
▁profession	-2615
lla	-2616
par	-2617
▁(;	-2618
yond	-2619
▁[.6	-2620
▁ash	-2621
▁www	-2622
▁bush	-2623
▁drew	-2624
▁easi	-2625
▁fold	-2626
▁colin	-2627
▁crowd	-2628
▁radio	-2629
▁smart	-2630
▁smile	-2631
▁spoke	-2632
▁stack	-2633
▁beyond	-2634
▁cromer	-2635
▁finger	-2636
▁spread	-2637
▁america	-2638
▁british	-2639
▁example	-2640
▁michael	-2641
,--	-2642
bar	-2643
dra	-2644
ger	-2645
tch	-2646
▁va	-2647
ract	-2648
▁flu	-2649
▁ham	-2650
▁pan	-2651
▁rib	-2652
phant	-2653
pulls	-2654
▁fuss	-2655
▁tong	-2656
▁coura	-2657
▁match	-2658
▁strug	-2659
▁succe	-2660
▁twice	-2661
▁water	-2662
▁critic	-2663
▁fortun	-2664
▁oxford	-2665
▁prince	-2666
▁russian	-2667
19	-2668
sy	-2669
hand	-2670
urda	-2671
▁jap	-2672
▁mud	-2673
▁cogn	-2674
▁forc	-2675
▁nope	-2676
▁nurs	-2677
▁sett	-2678
▁brain	-2679
▁couch	-2680
▁roman	-2681
▁waste	-2682
▁college	-2683
▁saturda	-2684
▁frighten	-2685
olk	-2686
pped	-2687
▁jew	-2688
▁lit	-2689
olute	-2690
▁[1.3	-2691
▁buck	-2692
▁dare	-2693
▁gipp	-2694
▁hood	-2695
▁jesu	-2696
▁movi	-2697
▁plat	-2698
▁texa	-2699
▁coach	-2700
▁extra	-2701
▁fence	-2702
▁shirt	-2703
▁threw	-2704
▁willn	-2705
▁assist	-2706
▁attach	-2707
▁chocol	-2708
▁custom	-2709
▁pictur	-2710
▁popular	-2711
▁somehow	-2712
ustration	-2713
▁valentine	-2714
Ill	-2715
iot	-2716
▁eh	-2717
port	-2718
▁pin	-2719
paper	-2720
utter	-2721
▁bord	-2722
▁cell	-2723
▁gras	-2724
▁mand	-2725
▁spot	-2726
▁vest	-2727
idence	-2728
▁johnn	-2729
▁sport	-2730
▁thoma	-2731
▁arrest	-2732
▁conver	-2733
▁announc	-2734
▁captain	-2735
▁command	-2736
▁goodbye	-2737
▁horseshoe	-2738
Illustration	-2739
OM	-2740
iu	-2741
don	-2742
adow	-2743
▁jur	-2744
▁rab	-2745
black	-2746
▁firm	-2747
▁hadn	-2748
▁host	-2749
▁lose	-2750
▁norm	-2751
▁sail	-2752
▁warn	-2753
magnet	-2754
▁becom	-2755
▁chapt	-2756
▁crawl	-2757
▁forma	-2758
▁guard	-2759
▁partn	-2760
▁slipp	-2761
▁smith	-2762
utionar	-2763
▁albert	-2764
▁charge	-2765
▁dollar	-2766
▁manage	-2767
▁necess	-2768
▁splend	-2769
▁constit	-2770
▁control	-2771
▁upstair	-2772
▁absolute	-2773
▁illustrat	-2774
WOM	-2775
ald	-2776
has	-2777
por	-2778
wat	-2779
yan	-2780
▁civ	-2781
▁dia	-2782
▁gro	-2783
▁lip	-2784
▁rap	-2785
▁usu	-2786
alist	-2787
place	-2788
▁2012	-2789
▁2018	-2790
▁hide	-2791
▁parl	-2792
▁pupp	-2793
▁yard	-2794
▁bring	-2795
▁frida	-2796
▁oppos	-2797
▁prime	-2798
▁spons	-2799
attempt	-2800
▁affect	-2801
▁notice	-2802
▁single	-2803
▁suffer	-2804
▁tongue	-2805
▁elephant	-2806
▁neighbor	-2807
▁pleasant	-2808
eez	-2809
▁cu	-2810
alle	-2811
ampa	-2812
ndon	-2813
sset	-2814
vaud	-2815
▁bug	-2816
▁doz	-2817
▁gag	-2818
uture	-2819
▁2010	-2820
▁bike	-2821
▁braz	-2822
▁coin	-2823
▁luca	-2824
▁pipe	-2825
▁quir	-2826
▁tech	-2827
▁volv	-2828
▁album	-2829
▁besid	-2830
▁broad	-2831
▁cooki	-2832
▁viron	-2833
▁worse	-2834
▁fourth	-2835
▁league	-2836
▁nature	-2837
▁travel	-2838
▁sandwich	-2839
za	-2840
ifi	-2841
▁yo	-2842
gest	-2843
rant	-2844
tern	-2845
▁dan	-2846
▁nar	-2847
▁rul	-2848
issor	-2849
▁agre	-2850
▁cath	-2851
▁diap	-2852
▁item	-2853
▁sigh	-2854
▁wake	-2855
▁winn	-2856
▁yell	-2857
clears	-2858
ingham	-2859
▁accord	-2860
▁effect	-2861
▁empire	-2862
▁rabbit	-2863
▁sevent	-2864
attempts	-2865
▁militar	-2866
▁scissor	-2867
▁stretch	-2868
▁surpris	-2869
▁anywhere	-2870
▁apparent	-2871
▁highchair	-2872
▁[6	-2873
▁ck	-2874
▁ow	-2875
rick	-2876
very	-2877
▁[.9	-2878
▁cas	-2879
▁pen	-2880
anish	-2881
sings	-2882
▁2021	-2883
▁canc	-2884
▁coop	-2885
▁exec	-2886
▁ladi	-2887
▁phot	-2888
▁quit	-2889
▁susp	-2890
▁test	-2891
▁trac	-2892
▁angel	-2893
▁fifte	-2894
▁paper	-2895
▁princ	-2896
▁print	-2897
▁brazil	-2898
▁famili	-2899
▁gippie	-2900
▁handle	-2901
▁london	-2902
AN	-2903
jo	-2904
fic	-2905
off	-2906
▁nt	-2907
boat	-2908
cord	-2909
▁hom	-2910
▁pay	-2911
▁sue	-2912
▁tru	-2913
umble	-2914
▁calm	-2915
▁dill	-2916
▁dunn	-2917
▁fanc	-2918
▁fant	-2919
▁gift	-2920
▁gree	-2921
▁pean	-2922
▁rail	-2923
▁twin	-2924
▁burst	-2925
▁frank	-2926
▁limit	-2927
▁serve	-2928
▁situa	-2929
▁weird	-2930
▁amount	-2931
▁excite	-2932
▁lassie	-2933
▁pillow	-2934
▁switch	-2935
▁terror	-2936
▁grandfath	-2937
▁experience	-2938
5/	-2939
gi	-2940
app	-2941
for	-2942
▁hu	-2943
ense	-2944
iver	-2945
▁emb	-2946
▁gas	-2947
▁imm	-2948
▁log	-2949
▁mic	-2950
▁rug	-2951
▁way	-2952
▁wol	-2953
angle	-2954
▁budd	-2955
▁cele	-2956
▁circ	-2957
▁imme	-2958
▁iron	-2959
▁shin	-2960
▁voic	-2961
▁when	-2962
▁appre	-2963
▁hotel	-2964
▁saint	-2965
▁slide	-2966
▁spent	-2967
▁storm	-2968
▁account	-2969
▁content	-2970
▁courage	-2971
▁product	-2972
▁success	-2973
▁western	-2974
▁washington	-2975
01	-2976
do	-2977
uk	-2978
án	-2979
met	-2980
voc	-2981
▁pi	-2982
mend	-2983
pose	-2984
▁aud	-2985
▁mes	-2986
▁pon	-2987
▁tar	-2988
allow	-2989
stand	-2990
▁2015	-2991
▁ferr	-2992
▁glor	-2993
casset	-2994
▁blank	-2995
▁civil	-2996
▁dough	-2997
▁dunno	-2998
▁shame	-2999
▁spill	-3000
▁trump	-3001
▁promis	-3002
▁victor	-3003
▁ukraine	-3004
▁mocratic	-3005
▁ciscasset	-3006
of	-3007
ark	-3008
ask	-3009
iga	-3010
sar	-3011
▁rh	-3012
esda	-3013
host	-3014
icle	-3015
keep	-3016
leep	-3017
▁alt	-3018
▁jon	-3019
▁sus	-3020
▁dump	-3021
▁note	-3022
▁role	-3023
Mother	-3024
▁carry	-3025
▁notic	-3026
▁power	-3027
▁prair	-3028
▁rustl	-3029
▁state	-3030
▁stock	-3031
▁tight	-3032
vocaliz	-3033
▁accept	-3034
▁artist	-3035
▁butter	-3036
▁fraser	-3037
▁immedi	-3038
▁larita	-3039
▁murder	-3040
▁speech	-3041
▁dillson	-3042
▁fashion	-3043
▁project	-3044
▁somewhere	-3045
▁municipaliti	-3046
.8	-3047
ata	-3048
mor	-3049
omb	-3050
set	-3051
anda	-3052
berg	-3053
inar	-3054
phan	-3055
wash	-3056
▁ale	-3057
▁jer	-3058
▁kar	-3059
▁leo	-3060
▁neg	-3061
▁raf	-3062
▁saf	-3063
▁sup	-3064
▁tip	-3065
itude	-3066
▁cere	-3067
▁hamm	-3068
▁lawy	-3069
▁male	-3070
▁mass	-3071
▁thir	-3072
▁clunk	-3073
▁habit	-3074
▁liver	-3075
▁price	-3076
▁steam	-3077
▁studi	-3078
▁veget	-3079
overlap	-3080
singing	-3081
▁battle	-3082
▁choice	-3083
▁excell	-3084
▁expres	-3085
▁future	-3086
▁holida	-3087
▁lation	-3088
▁peanut	-3089
▁scient	-3090
▁sister	-3091
--------	-3092
laughing	-3093
▁approach	-3094
▁continue	-3095
▁volutionar	-3096
oz	-3097
DAN	-3098
ior	-3099
oom	-3100
mill	-3101
reme	-3102
▁cus	-3103
▁dol	-3104
▁dut	-3105
▁fan	-3106
▁fic	-3107
▁fus	-3108
▁hid	-3109
▁jos	-3110
▁pit	-3111
▁sug	-3112
▁wid	-3113
vious	-3114
▁[1.1	-3115
▁anti	-3116
▁godd	-3117
▁hook	-3118
▁hung	-3119
▁mail	-3120
▁murd	-3121
▁nail	-3122
▁pale	-3123
▁palm	-3124
▁path	-3125
▁sale	-3126
▁skin	-3127
▁cowbo	-3128
▁magaz	-3129
▁mayor	-3130
▁plent	-3131
▁snake	-3132
▁souri	-3133
▁tance	-3134
▁wound	-3135
▁execut	-3136
▁ribbon	-3137
▁taught	-3138
▁upside	-3139
pointing	-3140
▁swallow	-3141
▁province	-3142
vocalization	-3143
col	-3144
isf	-3145
lle	-3146
old	-3147
she	-3148
▁cy	-3149
▁et	-3150
▁div	-3151
▁hug	-3152
▁nic	-3153
▁tal	-3154
irrel	-3155
ymond	-3156
▁aunt	-3157
▁bund	-3158
▁clas	-3159
▁dude	-3160
▁epis	-3161
▁furn	-3162
▁mike	-3163
▁stit	-3164
▁text	-3165
▁tink	-3166
▁brand	-3167
▁furth	-3168
▁liter	-3169
▁river	-3170
▁stant	-3171
▁whist	-3172
erecord	-3173
▁asleep	-3174
▁benefit	-3175
▁collect	-3176
▁connect	-3177
▁machine	-3178
▁organis	-3179
▁raymond	-3180
▁authorit	-3181
overlapped	-3182
.6	-3183
fl	-3184
ga	-3185
yo	-3186
aki	-3187
alt	-3188
can	-3189
ift	-3190
sha	-3191
blin	-3192
cont	-3193
talk	-3194
▁row	-3195
▁urb	-3196
acter	-3197
▁amaz	-3198
▁bitt	-3199
▁bull	-3200
▁laid	-3201
▁phys	-3202
▁poet	-3203
▁champ	-3204
▁crime	-3205
▁divid	-3206
▁marbl	-3207
▁pence	-3208
▁actres	-3209
▁gather	-3210
▁glance	-3211
▁possib	-3212
▁satisf	-3213
▁silent	-3214
▁sponse	-3215
▁anymore	-3216
▁correct	-3217
▁prairie	-3218
▁shouldn	-3219
▁visitor	-3220
▁northern	-3221
▁squirrel	-3222
▁excellent	-3223
bas	-3224
ett	-3225
gla	-3226
udd	-3227
▁ci	-3228
kend	-3229
reat	-3230
▁aha	-3231
▁eth	-3232
▁kis	-3233
▁oil	-3234
▁2005	-3235
▁chug	-3236
▁comb	-3237
▁feed	-3238
▁flor	-3239
▁fond	-3240
▁kiss	-3241
▁pour	-3242
▁pump	-3243
▁salt	-3244
▁china	-3245
▁earli	-3246
▁faint	-3247
▁fault	-3248
▁ghost	-3249
▁grant	-3250
▁happi	-3251
▁labor	-3252
▁weath	-3253
▁branch	-3254
ropriate	-3255
▁creatur	-3256
▁obvious	-3257
▁student	-3258
▁conversa	-3259
▁critique	-3260
▁european	-3261
▁favorite	-3262
▁southern	-3263
▁presentat	-3264
ru	-3265
wk	-3266
end	-3267
gra	-3268
ron	-3269
▁[5	-3270
alie	-3271
erto	-3272
vell	-3273
vere	-3274
▁ell	-3275
▁fer	-3276
▁gim	-3277
▁lig	-3278
▁mal	-3279
▁ven	-3280
iggle	-3281
▁acqu	-3282
▁beck	-3283
▁bert	-3284
▁bolt	-3285
▁conv	-3286
▁dust	-3287
▁grad	-3288
▁kidd	-3289
▁load	-3290
▁pool	-3291
▁stir	-3292
▁tone	-3293
▁whig	-3294
▁whin	-3295
▁charg	-3296
▁forth	-3297
▁gagaa	-3298
▁order	-3299
▁scrib	-3300
▁share	-3301
▁comput	-3302
▁depend	-3303
▁effort	-3304
▁sposta	-3305
▁tomato	-3306
▁whenev	-3307
▁natalie	-3308
▁patrick	-3309
▁protest	-3310
▁weekend	-3311
▁doughnut	-3312
▁evidence	-3313
▁splendid	-3314
▁suitcase	-3315
.3	-3316
.4	-3317
asc	-3318
erc	-3319
mur	-3320
burg	-3321
goes	-3322
ings	-3323
uman	-3324
▁due	-3325
▁shh	-3326
anese	-3327
▁1995	-3328
▁bone	-3329
▁buff	-3330
▁duke	-3331
▁heat	-3332
▁jenn	-3333
▁neat	-3334
▁padd	-3335
▁pari	-3336
▁swim	-3337
▁wing	-3338
▁clude	-3339
▁cruel	-3340
▁direc	-3341
▁guilt	-3342
▁maple	-3343
▁naomi	-3344
▁smoke	-3345
▁spain	-3346
▁spond	-3347
▁apolog	-3348
▁compos	-3349
▁crutch	-3350
▁double	-3351
▁episod	-3352
▁goblin	-3353
▁grampa	-3354
▁mirror	-3355
▁needta	-3356
▁orphan	-3357
▁appreci	-3358
▁magnetic	-3359
ai	-3360
kn	-3361
dam	-3362
eap	-3363
alia	-3364
apon	-3365
cast	-3366
gent	-3367
line	-3368
ream	-3369
ting	-3370
▁eld	-3371
▁por	-3372
▁rag	-3373
asion	-3374
there	-3375
ville	-3376
▁barn	-3377
▁bugg	-3378
▁cart	-3379
▁cree	-3380
▁hasn	-3381
▁lady	-3382
▁lean	-3383
▁mere	-3384
▁pepp	-3385
▁raff	-3386
▁roof	-3387
▁siss	-3388
▁below	-3389
▁booth	-3390
▁brian	-3391
▁class	-3392
▁comma	-3393
▁dread	-3394
▁gular	-3395
▁locat	-3396
▁madam	-3397
▁occup	-3398
▁stepp	-3399
▁taste	-3400
▁trade	-3401
▁turke	-3402
▁worri	-3403
playing	-3404
▁celebr	-3405
▁centre	-3406
▁prison	-3407
▁struct	-3408
▁weapon	-3409
▁organiz	-3410
▁scratch	-3411
▁economic	-3412
▁shoulder	-3413
▁immediate	-3414
▁therefore	-3415
▁taperecord	-3416
ps	-3417
▁|	-3418
cul	-3419
▁lu	-3420
form	-3421
ilar	-3422
ooth	-3423
turn	-3424
▁cha	-3425
▁jol	-3426
▁rol	-3427
▁tie	-3428
▁tig	-3429
actur	-3430
antic	-3431
field	-3432
▁1990	-3433
▁alan	-3434
▁angr	-3435
▁chem	-3436
▁fest	-3437
▁folk	-3438
▁fork	-3439
▁juli	-3440
▁popp	-3441
▁surf	-3442
▁tenn	-3443
▁wipe	-3444
▁austr	-3445
▁behav	-3446
▁claim	-3447
▁educa	-3448
▁stamp	-3449
▁whitt	-3450
▁credit	-3451
▁fourte	-3452
▁martin	-3453
▁airport	-3454
▁blanket	-3455
▁officer	-3456
▁official	-3457
▁somethin	-3458
20	-3459
umn	-3460
uns	-3461
ache	-3462
etch	-3463
last	-3464
lent	-3465
▁ble	-3466
▁bob	-3467
▁cel	-3468
▁shr	-3469
▁typ	-3470
aroni	-3471
ength	-3472
noise	-3473
▁1994	-3474
▁anne	-3475
▁bare	-3476
▁bobb	-3477
▁chip	-3478
▁doin	-3479
▁dumb	-3480
▁earn	-3481
▁expl	-3482
▁pine	-3483
▁tres	-3484
▁bound	-3485
▁brush	-3486
▁cabin	-3487
▁figur	-3488
▁glass	-3489
▁hilda	-3490
▁julie	-3491
▁macle	-3492
▁newsp	-3493
▁occur	-3494
▁secur	-3495
▁swing	-3496
▁terri	-3497
▁toast	-3498
▁valle	-3499
▁centur	-3500
▁danger	-3501
▁length	-3502
▁number	-3503
▁opport	-3504
▁scarce	-3505
▁temper	-3506
▁weight	-3507
▁butterf	-3508
▁gentlem	-3509
▁similar	-3510
▁suggest	-3511
▁handsome	-3512
▁magazine	-3513
▁triangle	-3514
.7	-3515
.9	-3516
ki	-3517
aft	-3518
▁gh	-3519
adem	-3520
ffic	-3521
iana	-3522
▁kat	-3523
▁lor	-3524
▁pun	-3525
▁soc	-3526
▁wav	-3527
▁wil	-3528
cough	-3529
▁1969	-3530
▁arch	-3531
▁boil	-3532
▁exam	-3533
▁huge	-3534
▁meas	-3535
▁peru	-3536
▁suck	-3537
▁volu	-3538
▁cheek	-3539
▁clare	-3540
▁estim	-3541
▁momma	-3542
▁shore	-3543
▁spark	-3544
▁sunda	-3545
▁trail	-3546
▁gentle	-3547
▁eastern	-3548
▁formula	-3549
▁champion	-3550
▁constant	-3551
▁constitu	-3552
▁macaroni	-3553
▁opportun	-3554
▁publican	-3555
▁administra	-3556
AU	-3557
dg	-3558
eg	-3559
zh	-3560
alo	-3561
ass	-3562
bow	-3563
car	-3564
ero	-3565
tha	-3566
▁jr	-3567
▁ug	-3568
gend	-3569
geon	-3570
orse	-3571
whis	-3572
▁afr	-3573
▁bak	-3574
▁jim	-3575
▁pic	-3576
istic	-3577
▁bodi	-3578
▁dais	-3579
▁eras	-3580
▁evil	-3581
▁gram	-3582
▁merg	-3583
▁rule	-3584
▁sock	-3585
▁vast	-3586
▁weak	-3587
contin	-3588
coughs	-3589
▁aside	-3590
▁chuck	-3591
▁eager	-3592
▁feder	-3593
▁gimme	-3594
▁youth	-3595
▁advant	-3596
▁advice	-3597
▁bridge	-3598
▁budget	-3599
▁compar	-3600
▁guitar	-3601
▁julián	-3602
▁physic	-3603
▁polish	-3604
▁smooth	-3605
▁careful	-3606
▁florida	-3607
▁general	-3608
▁macleod	-3609
▁occasion	-3610
▁character	-3611
▁conference	-3612
sm	-3613
uu	-3614
▁)	-3615
PAU	-3616
nor	-3617
oot	-3618
ows	-3619
bell	-3620
iple	-3621
ngth	-3622
tell	-3623
▁din	-3624
▁etc	-3625
▁oce	-3626
annel	-3627
pitch	-3628
sound	-3629
▁gall	-3630
▁issu	-3631
▁kong	-3632
▁seth	-3633
▁soci	-3634
▁thin	-3635
▁trad	-3636
▁accom	-3637
▁conce	-3638
▁crash	-3639
▁frost	-3640
▁grate	-3641
▁grave	-3642
▁judge	-3643
▁lease	-3644
▁memor	-3645
▁scott	-3646
▁settl	-3647
▁swift	-3648
▁thick	-3649
▁academ	-3650
▁colour	-3651
▁fought	-3652
▁mutter	-3653
▁portug	-3654
▁purple	-3655
▁shadow	-3656
▁troubl	-3657
▁feather	-3658
▁theatre	-3659
▁adventur	-3660
▁appropri	-3661
▁secretar	-3662
▁tricycle	-3663
▁companion	-3664
▁scientist	-3665
.2	-3666
yn	-3667
cor	-3668
cut	-3669
ini	-3670
ira	-3671
uat	-3672
▁gn	-3673
iger	-3674
inct	-3675
just	-3676
lymp	-3677
▁bil	-3678
▁coo	-3679
▁gri	-3680
▁nav	-3681
▁nom	-3682
▁pea	-3683
▁tax	-3684
▁voc	-3685
ledge	-3686
▁2007	-3687
▁alph	-3688
▁bend	-3689
▁bunn	-3690
▁crim	-3691
▁ryan	-3692
▁tour	-3693
▁babaa	-3694
▁knife	-3695
▁mommy	-3696
▁ocean	-3697
▁olymp	-3698
▁plane	-3699
▁separ	-3700
▁birdie	-3701
▁narrow	-3702
▁ninete	-3703
▁proces	-3704
▁servic	-3705
▁stream	-3706
▁strike	-3707
▁struck	-3708
▁victim	-3709
▁propert	-3710
▁science	-3711
▁bathroom	-3712
▁vironment	-3713
,2	-3714
af	-3715
har	-3716
nam	-3717
urg	-3718
▁km	-3719
▁mc	-3720
eeze	-3721
elle	-3722
like	-3723
runs	-3724
seng	-3725
sych	-3726
vert	-3727
▁186	-3728
▁190	-3729
▁han	-3730
▁spl	-3731
▁tok	-3732
adian	-3733
ardon	-3734
erson	-3735
▁1986	-3736
▁[1.4	-3737
▁[1.7	-3738
▁appl	-3739
▁bump	-3740
▁choo	-3741
▁cult	-3742
▁ease	-3743
▁elev	-3744
▁grac	-3745
▁hong	-3746
▁mile	-3747
▁nico	-3748
▁pile	-3749
▁rang	-3750
▁tack	-3751
▁worm	-3752
softly	-3753
▁berta	-3754
▁emplo	-3755
▁fairi	-3756
▁joint	-3757
▁loose	-3758
▁minor	-3759
▁mouse	-3760
▁psych	-3761
▁shawn	-3762
▁ssert	-3763
▁tryin	-3764
▁value	-3765
removes	-3766
▁horror	-3767
▁spring	-3768
▁threat	-3769
▁truman	-3770
▁message	-3771
▁villars	-3772
▁children	-3773
▁necessar	-3774
▁tinkerto	-3775
ek	-3776
mi	-3777
nn	-3778
bed	-3779
icl	-3780
jim	-3781
pet	-3782
sen	-3783
ses	-3784
abet	-3785
back	-3786
iece	-3787
ieve	-3788
ling	-3789
olic	-3790
ooge	-3791
▁[5.	-3792
▁bee	-3793
▁buy	-3794
▁lay	-3795
▁mas	-3796
▁ole	-3797
▁rlf	-3798
▁roy	-3799
▁sac	-3800
▁ses	-3801
alect	-3802
iness	-3803
nesda	-3804
while	-3805
▁2002	-3806
▁2006	-3807
▁[1.6	-3808
▁alex	-3809
▁bent	-3810
▁cher	-3811
▁dart	-3812
▁mumm	-3813
▁patt	-3814
▁pend	-3815
▁pole	-3816
▁shak	-3817
▁sugg	-3818
▁woof	-3819
▁wore	-3820
▁comin	-3821
▁louis	-3822
▁onion	-3823
▁safet	-3824
▁sence	-3825
▁shook	-3826
▁journe	-3827
▁otherw	-3828
▁societ	-3829
▁tickle	-3830
▁buffalo	-3831
▁channel	-3832
▁consump	-3833
▁dialect	-3834
▁traffic	-3835
▁canadian	-3836
▁japanese	-3837
▁practice	-3838
▁downstair	-3839
▁laborator	-3840
fa	-3841
ado	-3842
ani	-3843
bac	-3844
cup	-3845
iar	-3846
iat	-3847
irl	-3848
rid	-3849
sel	-3850
acon	-3851
chan	-3852
note	-3853
orth	-3854
sigh	-3855
▁188	-3856
▁ang	-3857
▁ita	-3858
▁kev	-3859
▁kne	-3860
▁pag	-3861
▁ron	-3862
▁roo	-3863
▁vio	-3864
light	-3865
shire	-3866
▁bold	-3867
▁cide	-3868
▁gord	-3869
▁hamb	-3870
▁jose	-3871
▁knee	-3872
▁marr	-3873
▁pier	-3874
▁scot	-3875
▁smok	-3876
▁tipp	-3877
▁trod	-3878
connor	-3879
▁aware	-3880
▁cheap	-3881
▁cloud	-3882
▁drunk	-3883
▁faith	-3884
▁hasta	-3885
▁mumbl	-3886
▁quack	-3887
▁rapid	-3888
▁scene	-3889
▁sourc	-3890
▁stair	-3891
▁techn	-3892
▁worst	-3893
putting	-3894
▁banana	-3895
▁consci	-3896
▁escape	-3897
▁grandm	-3898
▁horsie	-3899
▁imposs	-3900
▁lesson	-3901
▁modern	-3902
▁moment	-3903
▁murmur	-3904
▁settle	-3905
▁shovel	-3906
▁ticket	-3907
▁attract	-3908
▁balance	-3909
▁brownie	-3910
▁contact	-3911
▁carriage	-3912
▁assistant	-3913
appropriate	-3914
EX	-3915
po	-3916
zo	-3917
▁0	-3918
box	-3919
iev	-3920
pre	-3921
▁40	-3922
▁[7	-3923
▁ii	-3924
aroo	-3925
draw	-3926
enth	-3927
ugua	-3928
your	-3929
▁100	-3930
▁191	-3931
▁[.5	-3932
▁ant	-3933
▁cip	-3934
▁erg	-3935
▁fal	-3936
▁ire	-3937
▁obl	-3938
▁odd	-3939
▁pil	-3940
▁sum	-3941
▁wed	-3942
▁woo	-3943
abeth	-3944
esome	-3945
gress	-3946
horse	-3947
inion	-3948
ishop	-3949
uctor	-3950
▁1987	-3951
▁cage	-3952
▁capt	-3953
▁chew	-3954
▁ckon	-3955
▁clau	-3956
▁cock	-3957
▁fitz	-3958
▁fran	-3959
▁kang	-3960
▁lick	-3961
▁magn	-3962
▁math	-3963
▁pian	-3964
▁rout	-3965
▁sens	-3966
▁spok	-3967
▁stan	-3968
▁ston	-3969
▁tent	-3970
brings	-3971
▁comed	-3972
▁dicat	-3973
▁flash	-3974
▁hurri	-3975
▁issue	-3976
▁monda	-3977
▁pause	-3978
▁shake	-3979
▁sheep	-3980
▁soldi	-3981
▁tribe	-3982
▁bertha	-3983
▁breast	-3984
▁candid	-3985
▁conven	-3986
▁elliot	-3987
▁legend	-3988
▁marble	-3989
▁marion	-3990
▁myster	-3991
▁oblast	-3992
▁propos	-3993
▁russia	-3994
▁urugua	-3995
▁bedroom	-3996
▁mexican	-3997
▁olympic	-3998
▁securit	-3999
▁senator	-4000
▁spector	-4001
▁whittak	-4002
▁alphabet	-4003
▁business	-4004
▁platform	-4005
▁somewhat	-4006
▁strength	-4007
▁struggle	-4008
▁vegetabl	-4009
▁wednesda	-4010
▁telephone	-4011
.1	-4012
ex	-4013
ko	-4014
uf	-4015
add	-4016
ago	-4017
cho	-4018
cra	-4019
iel	-4020
ota	-4021
sch	-4022
▁50	-4023
▁av	-4024
issa	-4025
lton	-4026
mitt	-4027
yard	-4028
▁apt	-4029
▁bos	-4030
▁bou	-4031
▁cot	-4032
▁edi	-4033
▁fox	-4034
▁hmm	-4035
▁kel	-4036
▁pac	-4037
▁sew	-4038
▁van	-4039
▁veh	-4040
▁zoo	-4041
ption	-4042
turns	-4043
▁1930	-4044
▁2008	-4045
▁bomb	-4046
▁bree	-4047
▁core	-4048
▁eliz	-4049
▁fasc	-4050
▁gasp	-4051
▁gust	-4052
▁harm	-4053
▁holl	-4054
▁joke	-4055
▁poll	-4056
▁root	-4057
▁stom	-4058
▁thou	-4059
ologic	-4060
▁blame	-4061
▁borah	-4062
▁charm	-4063
▁cough	-4064
▁emerg	-4065
▁exist	-4066
▁feast	-4067
▁marku	-4068
▁range	-4069
▁staff	-4070
▁staur	-4071
▁sword	-4072
▁tough	-4073
▁vious	-4074
▁whisp	-4075
whisper	-4076
▁borrow	-4077
▁corpor	-4078
▁joseph	-4079
▁nurser	-4080
▁picnic	-4081
▁provid	-4082
▁target	-4083
atherine	-4084
▁address	-4085
▁charlie	-4086
▁hamburg	-4087
▁mention	-4088
▁newspap	-4089
▁ourselv	-4090
▁philipp	-4091
▁scrooge	-4092
▁spanish	-4093
▁kangaroo	-4094
▁opposite	-4095
▁adventure	-4096
▁knowledge	-4097
▁everywhere	-4098
▁illustration	-4099
:00	-4100
ano	-4101
awa	-4102
bec	-4103
bra	-4104
cri	-4105
imp	-4106
oll	-4107
ram	-4108
rod	-4109
rot	-4110
thi	-4111
▁(,	-4112
ateg	-4113
bert	-4114
itat	-4115
mbre	-4116
road	-4117
star	-4118
urse	-4119
▁189	-4120
▁ara	-4121
▁bat	-4122
▁bin	-4123
▁git	-4124
▁jok	-4125
▁lee	-4126
▁neb	-4127
▁upp	-4128
▁web	-4129
▁yup	-4130
oudon	-4131
reach	-4132
round	-4133
sighs	-4134
▁1968	-4135
▁1970	-4136
▁1992	-4137
▁2003	-4138
▁2009	-4139
▁[1.8	-4140
▁anno	-4141
▁bean	-4142
▁dash	-4143
▁josh	-4144
▁leaf	-4145
▁mock	-4146
▁nerv	-4147
▁nyon	-4148
▁pray	-4149
▁roar	-4150
▁rupt	-4151
▁woke	-4152
basket	-4153
▁broom	-4154
▁chatt	-4155
▁choke	-4156
▁dutch	-4157
▁fredd	-4158
▁jewel	-4159
▁marsh	-4160
▁shape	-4161
▁umbre	-4162
chuckle	-4163
continu	-4164
ulation	-4165
▁action	-4166
▁attend	-4167
▁favour	-4168
▁imagin	-4169
▁laught	-4170
▁mexico	-4171
▁basical	-4172
▁congrat	-4173
▁surface	-4174
▁suspect	-4175
▁creature	-4176
▁daughter	-4177
▁umbrella	-4178
▁conductor	-4179
▁elizabeth	-4180
▁fireplace	-4181
▁opportunit	-4182
]?	-4183
hu	-4184
pa	-4185
eas	-4186
lah	-4187
low	-4188
ona	-4189
▁ic	-4190
aign	-4191
bble	-4192
ette	-4193
icul	-4194
loud	-4195
rapp	-4196
uten	-4197
▁1.5	-4198
▁dum	-4199
▁gle	-4200
▁mah	-4201
▁mos	-4202
▁sam	-4203
▁tai	-4204
▁why	-4205
found	-4206
ifica	-4207
illar	-4208
inian	-4209
ossom	-4210
truck	-4211
▁asse	-4212
▁baby	-4213
▁chas	-4214
▁clev	-4215
▁dull	-4216
▁heel	-4217
▁kenn	-4218
▁merc	-4219
▁nest	-4220
▁orch	-4221
▁peel	-4222
▁pope	-4223
▁ruin	-4224
▁sert	-4225
▁task	-4226
▁titl	-4227
▁trib	-4228
▁vagn	-4229
giggle	-4230
▁bunch	-4231
▁cater	-4232
▁chase	-4233
▁creas	-4234
▁crown	-4235
▁diana	-4236
▁dustr	-4237
▁exerc	-4238
▁flect	-4239
▁franc	-4240
▁ident	-4241
▁ignor	-4242
▁journ	-4243
▁negat	-4244
▁prote	-4245
▁steph	-4246
▁tense	-4247
▁whipp	-4248
giggles	-4249
▁arrang	-4250
▁boston	-4251
▁client	-4252
▁employ	-4253
▁garage	-4254
▁master	-4255
▁motorc	-4256
▁parlor	-4257
▁severe	-4258
▁bicycle	-4259
▁compani	-4260
▁percent	-4261
▁practic	-4262
▁sponsib	-4263
▁struggl	-4264
▁sharston	-4265
▁staurant	-4266
▁buckingham	-4267
ax	-4268
ij	-4269
tt	-4270
wo	-4271
bre	-4272
see	-4273
▁nk	-4274
▁ol	-4275
amer	-4276
down	-4277
erat	-4278
erce	-4279
etic	-4280
gets	-4281
inkl	-4282
long	-4283
rade	-4284
year	-4285
▁ben	-4286
▁boo	-4287
▁bul	-4288
▁dim	-4289
▁duc	-4290
▁ion	-4291
▁key	-4292
▁kit	-4293
▁rod	-4294
▁sel	-4295
cture	-4296
iliti	-4297
ument	-4298
worth	-4299
▁boom	-4300
▁chri	-4301
▁citi	-4302
▁clin	-4303
▁fern	-4304
▁genu	-4305
▁jimm	-4306
▁risk	-4307
▁slip	-4308
▁sper	-4309
▁tomm	-4310
▁torn	-4311
▁alarm	-4312
▁carol	-4313
▁coast	-4314
▁drove	-4315
▁elton	-4316
▁error	-4317
▁farth	-4318
▁funer	-4319
▁glanc	-4320
▁maria	-4321
▁novel	-4322
▁parti	-4323
▁scrap	-4324
▁sheet	-4325
▁sixte	-4326
▁strip	-4327
▁wrapp	-4328
▁dougla	-4329
▁expens	-4330
▁finite	-4331
▁friger	-4332
▁justin	-4333
▁manner	-4334
▁marvel	-4335
▁matter	-4336
▁parade	-4337
▁poison	-4338
▁sprang	-4339
▁wander	-4340
▁blossom	-4341
▁chicken	-4342
▁countri	-4343
▁passeng	-4344
▁ridicul	-4345
▁stomach	-4346
continues	-4347
▁campaign	-4348
▁catholic	-4349
▁compound	-4350
▁telegram	-4351
▁territor	-4352
▁advantage	-4353
▁christian	-4354
▁louisiana	-4355
▁frigerator	-4356
▁photograph	-4357
▁wastebasket	-4358
30	-4359
ey	-4360
che	-4361
giv	-4362
mbl	-4363
unc	-4364
▁32	-4365
▁bb	-4366
▁ec	-4367
▁lt	-4368
book	-4369
orce	-4370
▁185	-4371
▁dai	-4372
▁hay	-4373
▁ify	-4374
▁kap	-4375
▁kin	-4376
▁plu	-4377
▁ros	-4378
amond	-4379
block	-4380
comes	-4381
cries	-4382
inese	-4383
means	-4384
▁1960	-4385
▁1967	-4386
▁1972	-4387
▁1996	-4388
▁adop	-4389
▁aliz	-4390
▁alli	-4391
▁babi	-4392
▁cash	-4393
▁fere	-4394
▁hind	-4395
▁loui	-4396
▁okay	-4397
▁paus	-4398
▁sect	-4399
▁site	-4400
▁tool	-4401
▁uhoh	-4402
friend	-4403
iction	-4404
▁admir	-4405
▁awful	-4406
▁blast	-4407
▁butch	-4408
▁clown	-4409
▁colon	-4410
▁compl	-4411
▁drawn	-4412
▁erase	-4413
▁georg	-4414
▁impat	-4415
▁micro	-4416
▁model	-4417
▁prove	-4418
▁russo	-4419
▁total	-4420
▁abilit	-4421
▁andrew	-4422
▁barrel	-4423
▁bishop	-4424
▁bundle	-4425
▁choose	-4426
▁edward	-4427
▁farmer	-4428
▁flight	-4429
▁launch	-4430
▁mechan	-4431
▁player	-4432
▁sleigh	-4433
▁velope	-4434
▁holiday	-4435
▁soldier	-4436
▁surance	-4437
▁contract	-4438
▁fascinat	-4439
▁specific	-4440
▁standard	-4441
▁windmill	-4442
▁fortunate	-4443
▁organisation	-4444
-1	-4445
ali	-4446
iez	-4447
irm	-4448
jac	-4449
lar	-4450
lfr	-4451
oto	-4452
owl	-4453
rom	-4454
rov	-4455
usa	-4456
ador	-4457
berr	-4458
gins	-4459
ldow	-4460
serv	-4461
ship	-4462
tape	-4463
whin	-4464
with	-4465
▁***	-4466
▁aid	-4467
▁gor	-4468
▁jel	-4469
▁mam	-4470
▁stu	-4471
▁vac	-4472
▁vil	-4473
actor	-4474
color	-4475
iment	-4476
looks	-4477
stard	-4478
▁2023	-4479
▁aust	-4480
▁aver	-4481
▁clim	-4482
▁fend	-4483
▁flew	-4484
▁furb	-4485
▁lief	-4486
▁limb	-4487
▁meth	-4488
▁mort	-4489
▁ohio	-4490
▁pail	-4491
▁shap	-4492
▁thor	-4493
▁tort	-4494
▁tran	-4495
▁ween	-4496
begins	-4497
▁asham	-4498
▁chamb	-4499
▁chart	-4500
▁crush	-4501
▁escap	-4502
▁japan	-4503
▁kitty	-4504
▁nurse	-4505
▁perch	-4506
▁prior	-4507
▁shawl	-4508
▁tenni	-4509
▁widow	-4510
reaches	-4511
western	-4512
▁columb	-4513
▁cotton	-4514
▁factor	-4515
▁fantas	-4516
▁featur	-4517
▁horrid	-4518
▁polite	-4519
▁rattle	-4520
▁sorrow	-4521
▁stance	-4522
▁volume	-4523
chuckles	-4524
▁bastard	-4525
▁chinese	-4526
▁didldow	-4527
▁fireman	-4528
▁forgott	-4529
▁ireland	-4530
▁ordinar	-4531
▁purpose	-4532
▁electric	-4533
▁historic	-4534
▁firetruck	-4535
▁household	-4536
▁impatient	-4537
▁neighbour	-4538
▁performance	-4539
dp	-4540
ão	-4541
aff	-4542
ins	-4543
ito	-4544
lad	-4545
oir	-4546
oli	-4547
osa	-4548
sec	-4549
two	-4550
ylm	-4551
▁90	-4552
▁iv	-4553
▁ni	-4554
Adam	-4555
ania	-4556
bank	-4557
bile	-4558
blue	-4559
illa	-4560
made	-4561
ocia	-4562
oniz	-4563
ware	-4564
ylum	-4565
zhou	-4566
▁ali	-4567
▁bid	-4568
▁cad	-4569
▁dig	-4570
▁dry	-4571
▁ide	-4572
▁lax	-4573
▁laz	-4574
▁lob	-4575
▁map	-4576
▁naz	-4577
▁owl	-4578
▁pok	-4579
▁raz	-4580
▁wig	-4581
▁wit	-4582
brown	-4583
clear	-4584
imper	-4585
piece	-4586
▁1985	-4587
▁1993	-4588
▁2000	-4589
▁aylm	-4590
▁bozo	-4591
▁clef	-4592
▁cube	-4593
▁dott	-4594
▁focu	-4595
▁gott	-4596
▁maid	-4597
▁melt	-4598
▁merr	-4599
▁mild	-4600
▁ouch	-4601
▁poem	-4602
▁pork	-4603
▁rode	-4604
▁sele	-4605
▁sixt	-4606
▁snap	-4607
▁stem	-4608
▁symb	-4609
▁tank	-4610
▁wick	-4611
ablish	-4612
ilence	-4613
lahoma	-4614
morrow	-4615
moudon	-4616
nworth	-4617
stands	-4618
ultane	-4619
▁autom	-4620
▁bacon	-4621
▁basin	-4622
▁citiz	-4623
▁comic	-4624
▁katie	-4625
▁latin	-4626
▁opera	-4627
▁shock	-4628
▁style	-4629
▁sweat	-4630
▁title	-4631
▁upset	-4632
reading	-4633
▁behave	-4634
▁chuckl	-4635
▁closet	-4636
▁donald	-4637
▁fuzhou	-4638
▁method	-4639
▁proper	-4640
▁thirst	-4641
▁vestig	-4642
▁activit	-4643
▁arrange	-4644
▁associa	-4645
▁conduct	-4646
▁diamond	-4647
▁extreme	-4648
▁goddard	-4649
▁serious	-4650
▁sevente	-4651
▁oklahoma	-4652
▁brazilian	-4653
▁establish	-4654
▁leavenworth	-4655
▁presentativ	-4656
7.	-4657
OB	-4658
aps	-4659
cee	-4660
ess	-4661
hol	-4662
kel	-4663
les	-4664
rob	-4665
▁45	-4666
▁[8	-4667
▁oc	-4668
ambl	-4669
bird	-4670
chee	-4671
erem	-4672
ethe	-4673
gnos	-4674
hole	-4675
izza	-4676
lash	-4677
male	-4678
walk	-4679
▁aph	-4680
▁bri	-4681
▁cub	-4682
▁doc	-4683
▁gut	-4684
▁orm	-4685
▁pee	-4686
▁vot	-4687
▁yes	-4688
eriff	-4689
laint	-4690
ogeth	-4691
stein	-4692
touch	-4693
▁1981	-4694
▁[2.2	-4695
▁coco	-4696
▁coon	-4697
▁fare	-4698
▁grav	-4699
▁hawk	-4700
▁pudd	-4701
▁purs	-4702
▁scor	-4703
▁taiw	-4704
▁tona	-4705
pillar	-4706
▁annoy	-4707
▁beach	-4708
▁bench	-4709
▁conte	-4710
▁drama	-4711
▁emcee	-4712
▁graph	-4713
▁immig	-4714
▁ketch	-4715
▁kevin	-4716
▁manuf	-4717
▁media	-4718
▁minle	-4719
▁pizza	-4720
▁starr	-4721
▁susan	-4722
▁tokyo	-4723
▁tooth	-4724
holding	-4725
iversar	-4726
lfriend	-4727
plastic	-4728
utenant	-4729
▁cellar	-4730
▁female	-4731
▁gineer	-4732
▁honest	-4733
▁leland	-4734
▁observ	-4735
▁pardon	-4736
▁parrot	-4737
▁philip	-4738
▁qualit	-4739
▁source	-4740
▁symbol	-4741
▁whistl	-4742
critique	-4743
▁awesome	-4744
▁consist	-4745
▁cracker	-4746
▁failure	-4747
▁feeling	-4748
▁fortune	-4749
▁majesty	-4750
▁melissa	-4751
▁opinion	-4752
▁package	-4753
▁sheriff	-4754
▁stitute	-4755
▁tertain	-4756
▁altogeth	-4757
▁emergenc	-4758
▁complaint	-4759
▁utterance	-4760
▁anniversar	-4761
▁lieutenant	-4762
▁literature	-4763
▁occasional	-4764
▁caterpillar	-4765
DI	-4766
ry	-4767
▁é	-4768
ami	-4769
bbl	-4770
cke	-4771
cod	-4772
dro	-4773
eat	-4774
lyn	-4775
pos	-4776
pot	-4777
ski	-4778
tic	-4779
utu	-4780
▁kh	-4781
ampl	-4782
anne	-4783
here	-4784
sman	-4785
umer	-4786
void	-4787
▁gab	-4788
▁gaz	-4789
▁gee	-4790
▁gou	-4791
▁kaz	-4792
▁nov	-4793
▁ske	-4794
▁ugh	-4795
▁utt	-4796
▁vic	-4797
▁wis	-4798
▁yam	-4799
build	-4800
drusa	-4801
stone	-4802
▁1964	-4803
▁1988	-4804
▁1991	-4805
▁alle	-4806
▁alma	-4807
▁bidd	-4808
▁buri	-4809
▁chop	-4810
▁cuse	-4811
▁divi	-4812
▁drum	-4813
▁ejac	-4814
▁forb	-4815
▁fund	-4816
▁grab	-4817
▁hast	-4818
▁jail	-4819
▁jell	-4820
▁josé	-4821
▁kyle	-4822
▁lamp	-4823
▁late	-4824
▁leap	-4825
▁loaf	-4826
▁mask	-4827
▁skat	-4828
▁slam	-4829
▁slid	-4830
▁spin	-4831
▁stev	-4832
▁swan	-4833
▁tast	-4834
▁turb	-4835
▁vain	-4836
▁wine	-4837
roduck	-4838
washer	-4839
writes	-4840
▁avoid	-4841
▁condi	-4842
▁edith	-4843
▁giant	-4844
▁guess	-4845
▁horiz	-4846
▁mater	-4847
▁oblig	-4848
▁poetr	-4849
▁pride	-4850
▁razor	-4851
▁scare	-4852
▁slept	-4853
▁twist	-4854
icultur	-4855
silence	-4856
writing	-4857
▁afford	-4858
▁allerg	-4859
▁asylum	-4860
▁castel	-4861
▁cident	-4862
▁festiv	-4863
▁gettin	-4864
▁monkey	-4865
▁parlia	-4866
▁pigeon	-4867
▁protec	-4868
▁punish	-4869
▁sponge	-4870
▁studio	-4871
▁thatch	-4872
▁transf	-4873
american	-4874
singsong	-4875
▁concent	-4876
▁episode	-4877
▁foolish	-4878
▁malenda	-4879
▁pattern	-4880
▁swingsw	-4881
▁travell	-4882
horseshoe	-4883
▁mahdrusa	-4884
▁transcri	-4885
▁aphroduck	-4886
▁boyfriend	-4887
▁christoph	-4888
▁communist	-4889
▁northeast	-4890
▁appearance	-4891
▁journalist	-4892
▁sponsibilit	-4893
]!	-4894
mt	-4895
si	-4896
DIA	-4897
ROB	-4898
dle	-4899
eve	-4900
ila	-4901
ker	-4902
non	-4903
oka	-4904
tra	-4905
vet	-4906
xim	-4907
▁36	-4908
▁ax	-4909
▁wi	-4910
acks	-4911
each	-4912
eror	-4913
etle	-4914
heim	-4915
iant	-4916
ingu	-4917
ippi	-4918
onom	-4919
phre	-4920
thew	-4921
ulic	-4922
▁ast	-4923
▁clo	-4924
▁gat	-4925
▁heh	-4926
▁hoo	-4927
▁ior	-4928
▁jac	-4929
▁jun	-4930
▁lab	-4931
▁lak	-4932
▁mmm	-4933
▁pel	-4934
▁pup	-4935
▁ski	-4936
▁tad	-4937
▁thu	-4938
▁viv	-4939
▁wak	-4940
bacco	-4941
icago	-4942
illip	-4943
iture	-4944
moise	-4945
quent	-4946
raska	-4947
talks	-4948
ursda	-4949
▁1950	-4950
▁1979	-4951
▁1989	-4952
▁2004	-4953
▁[3.5	-4954
▁actu	-4955
▁ceas	-4956
▁chok	-4957
▁clop	-4958
▁cunn	-4959
▁dign	-4960
▁grat	-4961
▁hidd	-4962
▁hopp	-4963
▁jeff	-4964
▁jerr	-4965
▁juri	-4966
▁kite	-4967
▁lack	-4968
▁mend	-4969
▁ntuu	-4970
▁powd	-4971
▁rope	-4972
▁sake	-4973
▁stac	-4974
▁swed	-4975
codile	-4976
struct	-4977
▁blind	-4978
▁bloom	-4979
▁camel	-4980
▁conse	-4981
▁creep	-4982
▁dragg	-4983
▁drift	-4984
▁float	-4985
▁hesit	-4986
▁hydra	-4987
▁iform	-4988
▁julia	-4989
▁photo	-4990
▁skiff	-4991
▁swear	-4992
▁tinct	-4993
▁argent	-4994
▁balcon	-4995
▁bitter	-4996
▁circus	-4997
▁cultur	-4998
▁damage	-4999
▁gordon	-5000
▁grande	-5001
▁jacket	-5002
▁nobody	-5003
▁strang	-5004
▁succes	-5005
▁thirte	-5006
▁volunt	-5007
moiselle	-5008
▁african	-5009
▁arroniz	-5010
▁breathe	-5011
▁britain	-5012
▁chicago	-5013
▁comment	-5014
▁contain	-5015
▁humphre	-5016
▁pacific	-5017
▁phillip	-5018
▁proceed	-5019
▁servant	-5020
▁special	-5021
▁teacher	-5022
▁thursda	-5023
▁tobacco	-5024
▁vestiga	-5025
▁whistle	-5026
ultaneous	-5027
▁ejaculat	-5028
▁magician	-5029
▁sissippi	-5030
▁surround	-5031
▁thankyou	-5032
▁australia	-5033
▁crocodile	-5034
▁dependent	-5035
▁grandmoth	-5036
▁hydraulic	-5037
▁statistic	-5038
▁terrorist	-5039
▁ukrainian	-5040
▁girlfriend	-5041
SI	-5042
▁;	-5043
EXP	-5044
cat	-5045
ied	-5046
lic	-5047
mel	-5048
mis	-5049
ole	-5050
ora	-5051
rup	-5052
ugg	-5053
urd	-5054
▁60	-5055
ague	-5056
amin	-5057
itan	-5058
oman	-5059
orat	-5060
tail	-5061
vard	-5062
will	-5063
▁180	-5064
▁cak	-5065
▁gal	-5066
▁hyp	-5067
▁iii	-5068
▁isa	-5069
▁jra	-5070
▁kil	-5071
▁mol	-5072
▁mul	-5073
▁mum	-5074
▁oak	-5075
▁rub	-5076
▁sin	-5077
▁yum	-5078
aking	-5079
chest	-5080
chief	-5081
cient	-5082
illon	-5083
porat	-5084
rence	-5085
throw	-5086
▁1975	-5087
▁[2.5	-5088
▁[2.7	-5089
▁bart	-5090
▁belt	-5091
▁brun	-5092
▁clam	-5093
▁copp	-5094
▁cycl	-5095
▁drip	-5096
▁excl	-5097
▁gest	-5098
▁heap	-5099
▁hugo	-5100
▁jeal	-5101
▁jerk	-5102
▁ladd	-5103
▁lone	-5104
▁nodd	-5105
▁pott	-5106
▁rank	-5107
▁sore	-5108
▁tect	-5109
▁toss	-5110
▁valu	-5111
▁walt	-5112
bourne	-5113
icient	-5114
inence	-5115
noises	-5116
object	-5117
sounds	-5118
stacks	-5119
▁admit	-5120
▁adult	-5121
▁canal	-5122
▁celer	-5123
▁chall	-5124
▁cheat	-5125
▁daint	-5126
▁flesh	-5127
▁grann	-5128
▁green	-5129
▁heavi	-5130
▁horne	-5131
▁incor	-5132
▁jerem	-5133
▁liber	-5134
▁norma	-5135
▁queen	-5136
▁scrip	-5137
▁skill	-5138
▁spare	-5139
▁tempt	-5140
strange	-5141
▁addres	-5142
▁anxiet	-5143
▁breeze	-5144
▁collar	-5145
▁crimea	-5146
▁expert	-5147
▁extend	-5148
▁hollow	-5149
▁naught	-5150
▁needle	-5151
▁nothin	-5152
▁transp	-5153
▁twenty	-5154
▁vanish	-5155
▁walnut	-5156
▁wherev	-5157
▁advance	-5158
▁ancient	-5159
▁article	-5160
▁congres	-5161
▁country	-5162
▁emperor	-5163
▁grandma	-5164
▁hundred	-5165
▁matthew	-5166
▁princes	-5167
▁pumpkin	-5168
▁simpson	-5169
▁snowman	-5170
▁succeed	-5171
▁technic	-5172
▁activist	-5173
▁activiti	-5174
▁backward	-5175
▁biograph	-5176
▁bouillon	-5177
▁eventual	-5178
▁mechanic	-5179
▁musician	-5180
▁particip	-5181
▁conscious	-5182
▁policeman	-5183
▁something	-5184
▁dependence	-5185
▁incorporat	-5186
▁motorcycle	-5187
▁throughout	-5188
----------------	-5189
,9	-5190
7/	-5191
ji	-5192
ni	-5193
yd	-5194
▁&	-5195
akh	-5196
hui	-5197
ika	-5198
ily	-5199
lat	-5200
now	-5201
oor	-5202
rad	-5203
ris	-5204
riz	-5205
ule	-5206
▁wo	-5207
aine	-5208
amid	-5209
aret	-5210
attl	-5211
cell	-5212
drop	-5213
eter	-5214
fall	-5215
high	-5216
igan	-5217
iggl	-5218
otic	-5219
rupt	-5220
sgiv	-5221
▁agr	-5222
▁ald	-5223
▁blu	-5224
▁cer	-5225
▁lam	-5226
▁loy	-5227
▁nan	-5228
▁pyr	-5229
▁sul	-5230
▁toe	-5231
▁tol	-5232
achus	-5233
adium	-5234
aliza	-5235
clunk	-5236
itori	-5237
spect	-5238
still	-5239
ushes	-5240
video	-5241
▁1974	-5242
▁1980	-5243
▁1982	-5244
▁2001	-5245
▁[2.3	-5246
▁begg	-5247
▁blew	-5248
▁bore	-5249
▁chin	-5250
▁chos	-5251
▁cott	-5252
▁crow	-5253
▁dros	-5254
▁elsa	-5255
▁gath	-5256
▁guar	-5257
▁hugh	-5258
▁leon	-5259
▁meal	-5260
▁neur	-5261
▁occa	-5262
▁pist	-5263
▁pron	-5264
▁ruth	-5265
▁seiz	-5266
▁sink	-5267
▁solu	-5268
▁sque	-5269
▁stol	-5270
▁surv	-5271
▁symp	-5272
▁tuck	-5273
▁whit	-5274
▁wolf	-5275
▁yosh	-5276
▁zone	-5277
abilit	-5278
▁accus	-5279
▁agenc	-5280
▁aloud	-5281
▁bulld	-5282
▁categ	-5283
▁conqu	-5284
▁dangl	-5285
▁flush	-5286
▁groan	-5287
▁ivers	-5288
▁ofthe	-5289
▁perro	-5290
▁piano	-5291
▁route	-5292
▁steel	-5293
▁stiff	-5294
▁stole	-5295
▁surve	-5296
▁theor	-5297
▁treas	-5298
▁whoev	-5299
etheart	-5300
ologist	-5301
▁admitt	-5302
▁aileen	-5303
▁cogniz	-5304
▁ferent	-5305
▁mobile	-5306
▁rocket	-5307
▁strain	-5308
▁tonsil	-5309
▁trance	-5310
▁troduc	-5311
achusett	-5312
▁fractur	-5313
▁impeach	-5314
▁impress	-5315
▁passion	-5316
▁servoir	-5317
▁sweetie	-5318
▁chairman	-5319
▁complain	-5320
▁multiple	-5321
▁railroad	-5322
▁programme	-5323
▁thanksgiv	-5324
▁basketball	-5325
▁manufactur	-5326
▁businessman	-5327
▁massachusett	-5328
▁southwestern	-5329
▁congratulation	-5330
,3	-5331
,7	-5332
fi	-5333
wi	-5334
LIS	-5335
arf	-5336
aux	-5337
den	-5338
des	-5339
dor	-5340
dur	-5341
elt	-5342
eta	-5343
fth	-5344
irk	-5345
iso	-5346
sim	-5347
tur	-5348
▁80	-5349
▁[9	-5350
▁ew	-5351
▁oo	-5352
▁ts	-5353
▁yy	-5354
adam	-5355
cend	-5356
coma	-5357
dale	-5358
full	-5359
lift	-5360
ness	-5361
nest	-5362
nick	-5363
page	-5364
skin	-5365
taps	-5366
ught	-5367
umor	-5368
vers	-5369
▁184	-5370
▁abc	-5371
▁cig	-5372
▁cox	-5373
▁doo	-5374
▁fbi	-5375
▁hea	-5376
▁hev	-5377
▁hir	-5378
▁jar	-5379
▁jet	-5380
▁sig	-5381
▁sob	-5382
▁swa	-5383
▁syl	-5384
▁wre	-5385
allel	-5386
astic	-5387
bedee	-5388
▁1933	-5389
▁1939	-5390
▁1941	-5391
▁1955	-5392
▁1959	-5393
▁adol	-5394
▁arab	-5395
▁astr	-5396
▁beep	-5397
▁chih	-5398
▁corp	-5399
▁crap	-5400
▁cris	-5401
▁curl	-5402
▁ding	-5403
▁drag	-5404
▁eric	-5405
▁hoot	-5406
▁jing	-5407
▁judg	-5408
▁kore	-5409
▁latt	-5410
▁mary	-5411
▁meek	-5412
▁mole	-5413
▁mori	-5414
▁nanc	-5415
▁puff	-5416
▁sauc	-5417
▁tale	-5418
▁tube	-5419
▁vite	-5420
▁zero	-5421
blocks	-5422
ission	-5423
sarras	-5424
▁amuse	-5425
▁assur	-5426
▁bitch	-5427
▁brick	-5428
▁chant	-5429
▁concl	-5430
▁elbow	-5431
▁fanci	-5432
▁fella	-5433
▁fifth	-5434
▁glove	-5435
▁gnant	-5436
▁goumo	-5437
▁greek	-5438
▁guest	-5439
▁guide	-5440
▁irish	-5441
▁makin	-5442
▁mosqu	-5443
▁numer	-5444
▁pantr	-5445
▁penni	-5446
▁polic	-5447
▁proof	-5448
▁puppi	-5449
▁roost	-5450
▁sauce	-5451
▁shade	-5452
▁shark	-5453
▁shown	-5454
▁sniff	-5455
▁spank	-5456
▁split	-5457
▁ssure	-5458
▁steak	-5459
▁towel	-5460
▁troll	-5461
▁walru	-5462
▁women	-5463
ensburg	-5464
indicat	-5465
talking	-5466
washers	-5467
▁batter	-5468
▁bother	-5469
▁cherri	-5470
▁column	-5471
▁compas	-5472
▁confus	-5473
▁daniel	-5474
▁eighte	-5475
▁leetle	-5476
▁marine	-5477
▁mocrat	-5478
▁occupi	-5479
▁occurr	-5480
▁option	-5481
▁palace	-5482
▁parcel	-5483
▁splash	-5484
▁steadi	-5485
▁thrill	-5486
▁tribut	-5487
▁bulldoz	-5488
▁chemist	-5489
▁commend	-5490
▁curtain	-5491
▁edgewat	-5492
▁furnace	-5493
▁georgia	-5494
▁jackson	-5495
▁milkman	-5496
▁paddock	-5497
▁sarcoma	-5498
▁sentenc	-5499
▁acquaint	-5500
▁behavior	-5501
▁communic	-5502
▁eminence	-5503
▁nebraska	-5504
▁parallel	-5505
▁romantic	-5506
▁threaten	-5507
▁alongside	-5508
▁appreciat	-5509
▁complicat	-5510
▁experienc	-5511
▁fantastic	-5512
▁furniture	-5513
▁meanwhile	-5514
▁melbourne	-5515
▁necessari	-5516
▁castelsarras	-5517
-2	-5518
21	-5519
ER	-5520
ns	-5521
ér	-5522
(19	-5523
2,2	-5524
kov	-5525
lov	-5526
mat	-5527
sie	-5528
sin	-5529
tro	-5530
una	-5531
▁34	-5532
▁37	-5533
▁sr	-5534
acle	-5535
avor	-5536
burn	-5537
call	-5538
folk	-5539
head	-5540
isco	-5541
lean	-5542
liad	-5543
play	-5544
rase	-5545
rect	-5546
sylv	-5547
word	-5548
▁187	-5549
▁400	-5550
▁amb	-5551
▁atl	-5552
▁ces	-5553
▁fli	-5554
▁hey	-5555
▁iri	-5556
▁lem	-5557
▁nad	-5558
▁tid	-5559
gives	-5560
iller	-5561
osaur	-5562
retch	-5563
▁1963	-5564
▁1973	-5565
▁1984	-5566
▁1997	-5567
▁[2.4	-5568
▁[3.4	-5569
▁alit	-5570
▁bach	-5571
▁bagg	-5572
▁buzz	-5573
▁chim	-5574
▁crop	-5575
▁cutt	-5576
▁dung	-5577
▁extr	-5578
▁fect	-5579
▁jake	-5580
▁nich	-5581
▁oper	-5582
▁peep	-5583
▁qual	-5584
▁rowd	-5585
▁rude	-5586
▁sang	-5587
▁scen	-5588
▁seal	-5589
▁seek	-5590
▁snak	-5591
▁syll	-5592
▁tame	-5593
▁tock	-5594
▁vari	-5595
▁vote	-5596
▁wave	-5597
(192,2	-5598
culiar	-5599
▁anhui	-5600
▁anish	-5601
▁aston	-5602
▁avail	-5603
▁awake	-5604
▁beast	-5605
▁chill	-5606
▁chopp	-5607
▁clust	-5608
▁dingh	-5609
▁embar	-5610
▁flute	-5611
▁herit	-5612
▁illeg	-5613
▁label	-5614
▁leath	-5615
▁lodge	-5616
▁nobel	-5617
▁noble	-5618
▁plung	-5619
▁sched	-5620
▁skirt	-5621
▁skull	-5622
▁solid	-5623
▁solve	-5624
▁spite	-5625
▁stern	-5626
▁wharf	-5627
eastern	-5628
touches	-5629
whining	-5630
▁autumn	-5631
▁border	-5632
▁cherry	-5633
▁franci	-5634
▁giraff	-5635
▁kapoor	-5636
▁ligion	-5637
▁moreno	-5638
▁packet	-5639
▁pistol	-5640
▁suppli	-5641
▁talent	-5642
▁tellig	-5643
▁thrown	-5644
▁virgin	-5645
▁wealth	-5646
▁willie	-5647
▁wretch	-5648
sylvania	-5649
▁beneath	-5650
▁consign	-5651
▁guarant	-5652
▁harvard	-5653
▁languag	-5654
▁network	-5655
▁orchard	-5656
▁princip	-5657
▁pyramid	-5658
▁speaker	-5659
▁sympath	-5660
▁zebedee	-5661
▁familiar	-5662
▁geograph	-5663
▁marriage	-5664
▁mosquito	-5665
▁peculiar	-5666
▁voluntar	-5667
▁direction	-5668
▁immigrant	-5669
▁everything	-5670
▁successful	-5671
▁sweetheart	-5672
simultaneous	-5673
▁temperature	-5674
▁pennsylvania	-5675
$=	-5676
fo	-5677
rh	-5678
ès	-5679
▁¶	-5680
aco	-5681
aul	-5682
chi	-5683
elm	-5684
eno	-5685
rac	-5686
saw	-5687
spe	-5688
sso	-5689
tre	-5690
ulu	-5691
ums	-5692
uro	-5693
ypt	-5694
zzl	-5695
▁35	-5696
▁az	-5697
▁bw	-5698
▁rd	-5699
▁ub	-5700
alog	-5701
anue	-5702
baby	-5703
born	-5704
llor	-5705
mont	-5706
mple	-5707
pent	-5708
rast	-5709
sham	-5710
sous	-5711
uese	-5712
ylor	-5713
yres	-5714
▁(),	-5715
▁[$=	-5716
▁aim	-5717
▁awk	-5718
▁dal	-5719
▁kam	-5720
▁nag	-5721
▁obe	-5722
▁ore	-5723
▁ram	-5724
▁tox	-5725
▁wip	-5726
about	-5727
anian	-5728
blows	-5729
cream	-5730
heart	-5731
icide	-5732
igail	-5733
ignat	-5734
inton	-5735
ounce	-5736
ropic	-5737
▁1925	-5738
▁1940	-5739
▁1962	-5740
▁1971	-5741
▁1977	-5742
▁1978	-5743
▁[2.8	-5744
▁bein	-5745
▁bern	-5746
▁chan	-5747
▁crea	-5748
▁dana	-5749
▁diar	-5750
▁evan	-5751
▁font	-5752
▁ford	-5753
▁hahn	-5754
▁herd	-5755
▁knot	-5756
▁liar	-5757
▁lyon	-5758
▁mush	-5759
▁noon	-5760
▁peer	-5761
▁pers	-5762
▁phon	-5763
▁pure	-5764
▁quar	-5765
▁raid	-5766
▁rare	-5767
▁scue	-5768
▁seed	-5769
▁shel	-5770
▁sire	-5771
▁soap	-5772
▁solv	-5773
▁soph	-5774
▁uhuh	-5775
▁vers	-5776
anueva	-5777
erring	-5778
office	-5779
scream	-5780
throws	-5781
▁alice	-5782
▁becca	-5783
▁bless	-5784
▁clatt	-5785
▁creak	-5786
▁drank	-5787
▁eagle	-5788
▁flung	-5789
▁gorge	-5790
▁harri	-5791
▁haver	-5792
▁lobst	-5793
▁marie	-5794
▁mustn	-5795
▁needn	-5796
▁pharm	-5797
▁purch	-5798
▁score	-5799
▁scout	-5800
▁snack	-5801
▁sneez	-5802
▁spair	-5803
▁spear	-5804
▁strok	-5805
▁trium	-5806
▁advanc	-5807
▁agenda	-5808
▁approv	-5809
▁athlet	-5810
▁berlin	-5811
▁chemic	-5812
▁collec	-5813
▁connie	-5814
▁crimin	-5815
▁dividu	-5816
▁dragon	-5817
▁financ	-5818
▁founda	-5819
▁gabbar	-5820
▁honour	-5821
▁meadow	-5822
▁normal	-5823
▁oregon	-5824
▁phrase	-5825
▁potent	-5826
▁sneeze	-5827
▁somers	-5828
▁stinct	-5829
▁taiwan	-5830
▁taylor	-5831
kerchief	-5832
▁abigail	-5833
▁accompl	-5834
▁corpora	-5835
▁giraffe	-5836
▁poacher	-5837
▁provinc	-5838
▁squeeze	-5839
▁stadium	-5840
construct	-5841
referring	-5842
▁addition	-5843
▁astonish	-5844
▁chemistr	-5845
▁marshall	-5846
▁philippa	-5847
▁signific	-5848
▁vocaliza	-5849
▁broadcast	-5850
▁technolog	-5851
▁tradition	-5852
▁microphone	-5853
▁portuguese	-5854
▁villanueva	-5855
construction	-5856
▁administrat	-5857
▁handkerchief	-5858
▁castelsarrasin	-5859
)}	-5860
,5	-5861
/0	-5862
18	-5863
ez	-5864
sl	-5865
zi	-5866
ée	-5867
alf	-5868
avi	-5869
bba	-5870
ele	-5871
had	-5872
ija	-5873
isa	-5874
log	-5875
nec	-5876
ode	-5877
oen	-5878
oul	-5879
ray	-5880
sic	-5881
sle	-5882
vag	-5883
war	-5884
▁92	-5885
▁ak	-5886
▁by	-5887
▁mp	-5888
▁nd	-5889
▁ny	-5890
alla	-5891
amic	-5892
aree	-5893
arse	-5894
ella	-5895
endo	-5896
fire	-5897
flat	-5898
from	-5899
gres	-5900
ienc	-5901
iful	-5902
ilet	-5903
ique	-5904
jane	-5905
name	-5906
tree	-5907
unte	-5908
wide	-5909
▁bap	-5910
▁bew	-5911
▁bwv	-5912
▁cep	-5913
▁cul	-5914
▁dic	-5915
▁dun	-5916
▁fab	-5917
▁glo	-5918
▁goo	-5919
▁gow	-5920
▁hip	-5921
▁hub	-5922
▁jug	-5923
▁kok	-5924
▁sed	-5925
▁tib	-5926
▁url	-5927
grand	-5928
ideot	-5929
isoft	-5930
ister	-5931
ndaid	-5932
osoph	-5933
ouser	-5934
▁1966	-5935
▁1998	-5936
▁amus	-5937
▁bamb	-5938
▁brak	-5939
▁cmon	-5940
▁cute	-5941
▁dawn	-5942
▁dick	-5943
▁echo	-5944
▁glob	-5945
▁glow	-5946
▁groc	-5947
▁grub	-5948
▁lamb	-5949
▁lend	-5950
▁libr	-5951
▁mato	-5952
▁nint	-5953
▁pent	-5954
▁pete	-5955
▁plum	-5956
▁prof	-5957
▁riot	-5958
▁ripp	-5959
▁sane	-5960
▁silk	-5961
▁soda	-5962
▁stag	-5963
▁tomá	-5964
▁trap	-5965
▁tumm	-5966
▁wail	-5967
▁wast	-5968
▁whee	-5969
▁wilk	-5970
▁worn	-5971
▁adopt	-5972
▁annie	-5973
▁brutu	-5974
▁bubba	-5975
▁burnt	-5976
▁carlo	-5977
▁corat	-5978
▁diane	-5979
▁gloom	-5980
▁grade	-5981
▁greet	-5982
▁hasti	-5983
▁juliu	-5984
▁nearb	-5985
▁panda	-5986
▁peach	-5987
▁purse	-5988
▁quant	-5989
▁quire	-5990
▁scent	-5991
▁shelf	-5992
▁shell	-5993
▁stain	-5994
▁steal	-5995
▁sweep	-5996
▁swell	-5997
▁swept	-5998
▁vague	-5999
▁walli	-6000
fashion	-6001
inguish	-6002
▁cardin	-6003
▁castle	-6004
▁combin	-6005
▁connec	-6006
▁doorwa	-6007
▁escort	-6008
▁evelyn	-6009
▁examin	-6010
▁leader	-6011
▁montre	-6012
▁nocent	-6013
▁online	-6014
▁perpet	-6015
▁posses	-6016
▁sander	-6017
▁select	-6018
▁social	-6019
▁suspic	-6020
whispers	-6021
▁achieve	-6022
▁alexand	-6023
▁andrade	-6024
▁automob	-6025
▁bandaid	-6026
▁ceramic	-6027
▁clatter	-6028
▁compete	-6029
▁convinc	-6030
▁cottage	-6031
▁evident	-6032
▁express	-6033
▁morning	-6034
▁treason	-6035
▁ubisoft	-6036
▁vehicle	-6037
▁volunte	-6038
▁customer	-6039
▁lawrence	-6040
▁michigan	-6041
▁nintendo	-6042
▁organiza	-6043
▁satisfac	-6044
▁catherine	-6045
▁continent	-6046
▁francisco	-6047
▁haversham	-6048
▁philosoph	-6049
▁principle	-6050
▁territori	-6051
▁transport	-6052
▁australian	-6053
▁competitor	-6054
,1	-6055
88	-6056
FR	-6057
OR	-6058
_1	-6059
—_	-6060
Bro	-6061
abb	-6062
asm	-6063
eau	-6064
ena	-6065
esh	-6066
got	-6067
gre	-6068
iek	-6069
nel	-6070
oci	-6071
ria	-6072
sna	-6073
von	-6074
win	-6075
éaz	-6076
▁88	-6077
▁eg	-6078
▁ll	-6079
▁og	-6080
anza	-6081
aska	-6082
atur	-6083
buzz	-6084
corn	-6085
driv	-6086
erit	-6087
find	-6088
foot	-6089
gian	-6090
hous	-6091
idae	-6092
ivit	-6093
mann	-6094
nast	-6095
peck	-6096
pict	-6097
sits	-6098
spir	-6099
step	-6100
wall	-6101
▁aux	-6102
▁axe	-6103
▁fro	-6104
▁gum	-6105
▁moo	-6106
▁nak	-6107
▁oar	-6108
▁oda	-6109
▁owe	-6110
▁pir	-6111
▁sox	-6112
▁xvi	-6113
oenix	-6114
reech	-6115
speak	-6116
venth	-6117
waves	-6118
▁1952	-6119
▁1954	-6120
▁1957	-6121
▁1999	-6122
▁addi	-6123
▁annu	-6124
▁boss	-6125
▁brid	-6126
▁bunk	-6127
▁bust	-6128
▁cabb	-6129
▁calf	-6130
▁chir	-6131
▁coal	-6132
▁code	-6133
▁cone	-6134
▁cuss	-6135
▁duti	-6136
▁evol	-6137
▁fame	-6138
▁flam	-6139
▁flec	-6140
▁fowl	-6141
▁func	-6142
▁ginn	-6143
▁glid	-6144
▁gosh	-6145
▁greg	-6146
▁kath	-6147
▁link	-6148
▁lumb	-6149
▁mood	-6150
▁muff	-6151
▁nazi	-6152
▁neph	-6153
▁peak	-6154
▁puss	-6155
▁rack	-6156
▁sche	-6157
▁spit	-6158
▁stok	-6159
▁this	-6160
▁tiss	-6161
▁turk	-6162
▁wasp	-6163
▁whip	-6164
▁yumm	-6165
▁zack	-6166
antern	-6167
pushes	-6168
▁addam	-6169
▁affix	-6170
▁alike	-6171
▁bambi	-6172
▁begun	-6173
▁chalk	-6174
▁cloak	-6175
▁creek	-6176
▁cryst	-6177
▁donke	-6178
▁drain	-6179
▁elder	-6180
▁false	-6181
▁flame	-6182
▁flupp	-6183
▁fount	-6184
▁frock	-6185
▁giggl	-6186
▁grinn	-6187
▁haunt	-6188
▁idiot	-6189
▁jelly	-6190
▁jerse	-6191
▁legis	-6192
▁miami	-6193
▁neath	-6194
▁party	-6195
▁punch	-6196
▁sayin	-6197
▁scend	-6198
▁slave	-6199
▁snapp	-6200
▁spoil	-6201
▁straw	-6202
▁tadah	-6203
▁taunt	-6204
▁trace	-6205
▁urban	-6206
▁useta	-6207
▁whirl	-6208
committ	-6209
objects	-6210
picture	-6211
pretend	-6212
▁africa	-6213
▁alaska	-6214
▁appeal	-6215
▁articl	-6216
▁assemb	-6217
▁associ	-6218
▁assure	-6219
▁attorn	-6220
▁byebye	-6221
▁census	-6222
▁charit	-6223
▁circum	-6224
▁compli	-6225
▁corner	-6226
▁coward	-6227
▁crease	-6228
▁dynast	-6229
▁educat	-6230
▁facult	-6231
▁feeble	-6232
▁gallop	-6233
▁goddam	-6234
▁heaven	-6235
▁humble	-6236
▁improv	-6237
▁juliet	-6238
▁kazakh	-6239
▁monstr	-6240
▁mornin	-6241
▁primar	-6242
▁railwa	-6243
▁senior	-6244
▁sensit	-6245
▁surviv	-6246
▁talkin	-6247
▁temple	-6248
▁termin	-6249
▁toilet	-6250
▁tropic	-6251
▁tuesda	-6252
designat	-6253
▁anxious	-6254
▁archite	-6255
▁awkward	-6256
▁classic	-6257
▁commenc	-6258
▁compare	-6259
▁competi	-6260
▁complet	-6261
▁confirm	-6262
▁earnest	-6263
▁feature	-6264
▁graduat	-6265
▁montana	-6266
▁phoenix	-6267
▁propell	-6268
▁pursuit	-6269
▁screech	-6270
▁seventy	-6271
▁suicide	-6272
▁trouser	-6273
▁upright	-6274
▁dungaree	-6275
▁farewell	-6276
▁fountain	-6277
▁movement	-6278
▁sailboat	-6279
▁stocking	-6280
▁tinguish	-6281
▁treasure	-6282
▁woodpeck	-6283
▁confident	-6284
▁accomplish	-6285
▁wheelchair	-6286
▁mademoiselle	-6287
-4	-6288
CE	-6289
DO	-6290
aw	-6291
tu	-6292
uz	-6293
▁—	-6294
/01	-6295
;.9	-6296
CEC	-6297
FRE	-6298
ati	-6299
cak	-6300
cla	-6301
die	-6302
dum	-6303
eli	-6304
fin	-6305
fir	-6306
ged	-6307
hen	-6308
ilk	-6309
iza	-6310
jec	-6311
lli	-6312
ola	-6313
oln	-6314
opa	-6315
osi	-6316
owk	-6317
pan	-6318
rer	-6319
smo	-6320
tri	-6321
tub	-6322
uls	-6323
vul	-6324
▁74	-6325
▁ko	-6326
▁xt	-6327
DOOR	-6328
ally	-6329
amar	-6330
ated	-6331
echo	-6332
enna	-6333
ione	-6334
lemn	-6335
osit	-6336
roph	-6337
rose	-6338
uxur	-6339
vant	-6340
want	-6341
zech	-6342
▁182	-6343
▁300	-6344
▁ack	-6345
▁alc	-6346
▁cab	-6347
▁dot	-6348
▁emo	-6349
▁feb	-6350
▁lon	-6351
▁mig	-6352
▁nuu	-6353
▁ost	-6354
▁rov	-6355
▁sem	-6356
alism	-6357
andon	-6358
craft	-6359
drops	-6360
ettle	-6361
finds	-6362
front	-6363
graph	-6364
hands	-6365
leton	-6366
minar	-6367
oodle	-6368
otion	-6369
rator	-6370
reads	-6371
▁1927	-6372
▁1936	-6373
▁1942	-6374
▁1945	-6375
▁1956	-6376
▁agon	-6377
▁anth	-6378
▁asia	-6379
▁bann	-6380
▁bron	-6381
▁burd	-6382
▁bure	-6383
▁cert	-6384
▁cole	-6385
▁eeat	-6386
▁ella	-6387
▁evac	-6388
▁exch	-6389
▁fuel	-6390
▁haul	-6391
▁howl	-6392
▁huck	-6393
▁juan	-6394
▁laur	-6395
▁leak	-6396
▁lewi	-6397
▁limp	-6398
▁linc	-6399
▁ling	-6400
▁lith	-6401
▁mare	-6402
▁mitt	-6403
▁neil	-6404
▁nora	-6405
▁obsc	-6406
▁ooaa	-6407
▁panc	-6408
▁para	-6409
▁pric	-6410
▁robe	-6411
▁rugb	-6412
▁shad	-6413
▁sole	-6414
▁taxi	-6415
▁teen	-6416
▁thar	-6417
▁thee	-6418
▁toil	-6419
▁utah	-6420
▁whoo	-6421
acture	-6422
umbles	-6423
▁anton	-6424
▁arbut	-6425
▁audre	-6426
▁bounc	-6427
▁brill	-6428
▁broye	-6429
▁clasp	-6430
▁cocoa	-6431
▁czech	-6432
▁dalla	-6433
▁danny	-6434
▁egypt	-6435
▁equal	-6436
▁equip	-6437
▁ficul	-6438
▁florr	-6439
▁growl	-6440
▁harve	-6441
▁luxur	-6442
▁maint	-6443
▁measl	-6444
▁minim	-6445
▁never	-6446
▁objec	-6447
▁odawa	-6448
▁param	-6449
▁paula	-6450
▁peopl	-6451
▁roast	-6452
▁savag	-6453
▁scrub	-6454
▁shine	-6455
▁slice	-6456
▁sorce	-6457
▁stirr	-6458
▁stroy	-6459
▁swung	-6460
▁tenor	-6461
▁troit	-6462
▁verse	-6463
▁wrest	-6464
echoing	-6465
magnets	-6466
trochee	-6467
▁amanda	-6468
▁anyhow	-6469
▁biddle	-6470
▁brenda	-6471
▁candle	-6472
▁cathed	-6473
▁chimne	-6474
▁consum	-6475
▁crinkl	-6476
▁ethnic	-6477
▁expand	-6478
▁family	-6479
▁knight	-6480
▁kokowk	-6481
▁materi	-6482
▁messag	-6483
▁nickel	-6484
▁obtain	-6485
▁opposi	-6486
▁orlean	-6487
▁parish	-6488
▁permis	-6489
▁ronald	-6490
▁scheme	-6491
▁shriek	-6492
▁sidenc	-6493
▁sittin	-6494
▁solemn	-6495
▁survey	-6496
▁teapot	-6497
▁tumble	-6498
▁writer	-6499
building	-6500
▁billion	-6501
▁blackie	-6502
▁concert	-6503
▁conserv	-6504
▁consult	-6505
▁element	-6506
▁emotion	-6507
▁justice	-6508
▁kenneth	-6509
▁lantern	-6510
▁lincoln	-6511
▁quarter	-6512
▁rainbow	-6513
▁scrambl	-6514
▁selfish	-6515
▁sharpen	-6516
▁warrant	-6517
▁alliance	-6518
▁athletic	-6519
▁attitude	-6520
▁columbia	-6521
▁contrast	-6522
▁controll	-6523
▁dreadful	-6524
▁grandson	-6525
▁robinson	-6526
▁salesman	-6527
▁sometime	-6528
▁sorcerer	-6529
▁virginia	-6530
▁beautiful	-6531
▁brilliant	-6532
▁estimator	-6533
▁everybody	-6534
▁fortnight	-6535
▁jellyfish	-6536
▁katherine	-6537
▁passenger	-6538
▁commission	-6539
▁greensburg	-6540
,6	-6541
.0	-6542
37	-6543
50	-6544
51	-6545
90	-6546
ay	-6547
by	-6548
gt	-6549
hr	-6550
iè	-6551
rd	-6552
är	-6553
CON	-6554
ING	-6555
cam	-6556
far	-6557
lit	-6558
lly	-6559
nah	-6560
ndo	-6561
nez	-6562
nod	-6563
olo	-6564
owa	-6565
swe	-6566
too	-6567
zig	-6568
▁82	-6569
▁94	-6570
▁ez	-6571
▁oy	-6572
▁pg	-6573
adel	-6574
coon	-6575
erer	-6576
hara	-6577
icia	-6578
iner	-6579
inks	-6580
kota	-6581
lear	-6582
leyn	-6583
omet	-6584
otte	-6585
ourn	-6586
sick	-6587
thur	-6588
ubon	-6589
wait	-6590
worm	-6591
yman	-6592
▁1.3	-6593
▁1.6	-6594
▁adi	-6595
▁alk	-6596
▁asp	-6597
▁awe	-6598
▁dov	-6599
▁ela	-6600
▁esp	-6601
▁ess	-6602
▁eug	-6603
▁fad	-6604
▁fol	-6605
▁hal	-6606
▁hic	-6607
▁hou	-6608
▁kun	-6609
▁lac	-6610
▁lal	-6611
▁mck	-6612
▁mit	-6613
▁oui	-6614
▁paw	-6615
▁qua	-6616
▁rio	-6617
▁rip	-6618
▁ult	-6619
▁vig	-6620
▁xen	-6621
aland	-6622
amoto	-6623
arian	-6624
attoo	-6625
beija	-6626
ffert	-6627
ilder	-6628
inter	-6629
lause	-6630
makes	-6631
mount	-6632
opard	-6633
plays	-6634
quart	-6635
quenc	-6636
ravag	-6637
start	-6638
unnel	-6639
▁1953	-6640
▁1976	-6641
▁1983	-6642
▁alfr	-6643
▁anal	-6644
▁ance	-6645
▁ange	-6646
▁awak	-6647
▁bade	-6648
▁bras	-6649
▁brew	-6650
▁calv	-6651
▁coke	-6652
▁curs	-6653
▁dair	-6654
▁davi	-6655
▁duce	-6656
▁fake	-6657
▁file	-6658
▁gage	-6659
▁gang	-6660
▁goat	-6661
▁gret	-6662
▁haha	-6663
▁hiro	-6664
▁idol	-6665
▁irre	-6666
▁kato	-6667
▁laig	-6668
▁lari	-6669
▁lent	-6670
▁live	-6671
▁luct	-6672
▁magg	-6673
▁maze	-6674
▁meme	-6675
▁mice	-6676
▁muse	-6677
▁nipp	-6678
▁nuuw	-6679
▁pear	-6680
▁poke	-6681
▁pond	-6682
▁pres	-6683
▁pros	-6684
▁punk	-6685
▁rage	-6686
▁robb	-6687
▁sack	-6688
▁semi	-6689
▁shav	-6690
▁shri	-6691
▁sway	-6692
▁tain	-6693
▁tang	-6694
▁tide	-6695
▁toad	-6696
▁vaca	-6697
▁virt	-6698
▁west	-6699
▁yoma	-6700
▁zach	-6701
imitat	-6702
olitan	-6703
riding	-6704
shakes	-6705
umming	-6706
ushion	-6707
▁advis	-6708
▁alcoh	-6709
▁apost	-6710
▁appet	-6711
▁arose	-6712
▁auxon	-6713
▁basic	-6714
▁brook	-6715
▁carne	-6716
▁chose	-6717
▁diver	-6718
▁drown	-6719
▁fense	-6720
▁flour	-6721
▁hurst	-6722
▁iliad	-6723
▁josie	-6724
▁judic	-6725
▁kidne	-6726
▁kinda	-6727
▁lemme	-6728
▁nanna	-6729
▁needl	-6730
▁ninja	-6731
▁pupil	-6732
▁shaft	-6733
▁signa	-6734
▁sneak	-6735
▁squad	-6736
▁tease	-6737
▁thier	-6738
▁tibet	-6739
▁tribu	-6740
▁trish	-6741
▁whale	-6742
▁wrath	-6743
buzzing	-6744
mumbles	-6745
screams	-6746
unclear	-6747
▁abrupt	-6748
▁accent	-6749
▁arthur	-6750
▁balanc	-6751
▁bureau	-6752
▁coffin	-6753
▁combat	-6754
▁contri	-6755
▁dakota	-6756
▁hallow	-6757
▁highwa	-6758
▁korean	-6759
▁librar	-6760
▁matron	-6761
▁permit	-6762
▁scribe	-6763
▁shiver	-6764
▁sleeve	-6765
▁sought	-6766
▁southw	-6767
▁squash	-6768
▁squeal	-6769
▁summit	-6770
▁tattoo	-6771
▁throne	-6772
▁traged	-6773
▁tunnel	-6774
▁velvet	-6775
▁wrestl	-6776
(192,220	-6777
▁abandon	-6778
▁audubon	-6779
▁cathedr	-6780
▁ceremon	-6781
▁counter	-6782
▁creamer	-6783
▁diagnos	-6784
▁ference	-6785
▁grammar	-6786
▁graphic	-6787
▁hesitat	-6788
▁labeija	-6789
▁laffert	-6790
▁ninight	-6791
▁partner	-6792
▁practis	-6793
▁satisfi	-6794
▁shallow	-6795
▁slipper	-6796
▁supreme	-6797
▁suspend	-6798
▁triumph	-6799
▁whimper	-6800
▁xtravag	-6801
▁aircraft	-6802
▁allergic	-6803
▁anderson	-6804
▁announce	-6805
▁bewilder	-6806
▁building	-6807
▁celebrat	-6808
▁circumst	-6809
▁election	-6810
▁homesick	-6811
▁magnific	-6812
▁maintain	-6813
▁organisa	-6814
▁original	-6815
▁position	-6816
▁progress	-6817
▁schedule	-6818
▁somebody	-6819
whispering	-6820
▁affection	-6821
▁criticism	-6822
▁gentleman	-6823
▁screwdriv	-6824
▁participat	-6825
▁sufficient	-6826
▁significant	-6827
▁xtravaganza	-6828
▁constitution	-6829
,8	-6830
17	-6831
70	-6832
:1	-6833
UM	-6834
sd	-6835
;.8	-6836
ats	-6837
ava	-6838
bot	-6839
caa	-6840
cop	-6841
did	-6842
eva	-6843
lot	-6844
mad	-6845
mer	-6846
ohy	-6847
ovi	-6848
pin	-6849
pro	-6850
shi	-6851
uda	-6852
urr	-6853
xon	-6854
▁42	-6855
▁63	-6856
▁70	-6857
▁79	-6858
▁bt	-6859
▁oi	-6860
▁ot	-6861
▁oz	-6862
▁rt	-6863
▁sf	-6864
▁ud	-6865
Note	-6866
acht	-6867
bart	-6868
cake	-6869
care	-6870
dadd	-6871
enne	-6872
etti	-6873
gnen	-6874
hums	-6875
mare	-6876
mark	-6877
moor	-6878
nnan	-6879
onel	-6880
otto	-6881
pick	-6882
pres	-6883
rait	-6884
repe	-6885
rera	-6886
they	-6887
uses	-6888
vian	-6889
zzag	-6890
▁1.2	-6891
▁1.8	-6892
▁[11	-6893
▁alf	-6894
▁ama	-6895
▁dup	-6896
▁emi	-6897
▁era	-6898
▁fed	-6899
▁gan	-6900
▁gib	-6901
▁hes	-6902
▁jay	-6903
▁kix	-6904
▁lia	-6905
▁mut	-6906
▁nuc	-6907
▁peg	-6908
▁pul	-6909
▁spa	-6910
▁tam	-6911
▁vog	-6912
▁wir	-6913
▁wiz	-6914
▁yah	-6915
break	-6916
champ	-6917
count	-6918
ction	-6919
fully	-6920
guish	-6921
iator	-6922
ision	-6923
known	-6924
ohyla	-6925
omilk	-6926
ophil	-6927
pping	-6928
short	-6929
shout	-6930
uncia	-6931
zheim	-6932
▁1928	-6933
▁1929	-6934
▁1951	-6935
▁1961	-6936
▁[2.1	-6937
▁[2.6	-6938
▁[4.5	-6939
▁agin	-6940
▁alto	-6941
▁batt	-6942
▁beef	-6943
▁burp	-6944
▁carl	-6945
▁darn	-6946
▁digg	-6947
▁frag	-6948
▁guin	-6949
▁hart	-6950
▁kilo	-6951
▁laus	-6952
▁lenn	-6953
▁lodg	-6954
▁moba	-6955
▁ncaa	-6956
▁obst	-6957
▁pare	-6958
▁porr	-6959
▁pret	-6960
▁prim	-6961
▁prix	-6962
▁priz	-6963
▁prun	-6964
▁rick	-6965
▁roan	-6966
▁sank	-6967
▁skip	-6968
▁slav	-6969
▁sofa	-6970
▁stim	-6971
▁sunn	-6972
▁swam	-6973
▁tant	-6974
▁teas	-6975
▁trin	-6976
▁vinc	-6977
▁vita	-6978
▁wale	-6979
▁wich	-6980
bridge	-6981
ghetti	-6982
shield	-6983
▁accur	-6984
▁brake	-6985
▁bubbl	-6986
▁candl	-6987
▁chirp	-6988
▁chowd	-6989
▁crist	-6990
▁dwell	-6991
▁ethan	-6992
▁exper	-6993
▁firem	-6994
▁flock	-6995
▁flood	-6996
▁fraud	-6997
▁geese	-6998
▁gleam	-6999
▁grabb	-7000
▁hadta	-7001
▁hamst	-7002
▁hocke	-7003
▁jacob	-7004
▁kfish	-7005
▁lemon	-7006
▁mabel	-7007
▁maine	-7008
▁mamma	-7009
▁monte	-7010
▁nkeep	-7011
▁parad	-7012
▁perse	-7013
▁peter	-7014
▁rattl	-7015
▁rogue	-7016
▁rumor	-7017
▁sampl	-7018
▁sherr	-7019
▁shopp	-7020
▁stake	-7021
▁stink	-7022
▁stoop	-7023
▁stout	-7024
▁sylum	-7025
▁table	-7026
▁tiger	-7027
▁timor	-7028
▁tumbl	-7029
▁weigh	-7030
▁whelm	-7031
quarter	-7032
▁adrian	-7033
▁animat	-7034
▁arbutu	-7035
▁awhile	-7036
▁behalf	-7037
▁belief	-7038
▁boleyn	-7039
▁bucket	-7040
▁bullet	-7041
▁calcul	-7042
▁cancel	-7043
▁carrie	-7044
▁cattle	-7045
▁dining	-7046
▁essent	-7047
▁essert	-7048
▁fierce	-7049
▁forgiv	-7050
▁former	-7051
▁fridge	-7052
▁hobart	-7053
▁honeys	-7054
▁jewell	-7055
▁labour	-7056
▁madrid	-7057
▁maggie	-7058
▁marker	-7059
▁measur	-7060
▁microw	-7061
▁motion	-7062
▁packag	-7063
▁pazzag	-7064
▁pickle	-7065
▁prayer	-7066
▁profit	-7067
▁prompt	-7068
▁rafael	-7069
▁sample	-7070
▁savage	-7071
▁startl	-7072
▁stokke	-7073
▁strict	-7074
▁summer	-7075
▁surger	-7076
▁thirty	-7077
▁toyama	-7078
▁villag	-7079
▁welcom	-7080
▁wiggle	-7081
▁winter	-7082
▁worker	-7083
▁airplan	-7084
▁attorne	-7085
▁autonom	-7086
▁average	-7087
▁cartoon	-7088
▁citizen	-7089
▁combina	-7090
▁consent	-7091
▁curious	-7092
▁estimat	-7093
▁fiction	-7094
▁fluence	-7095
▁hallowe	-7096
▁horizon	-7097
▁ketchup	-7098
▁mailman	-7099
▁marvell	-7100
▁mattres	-7101
▁minorit	-7102
▁moomilk	-7103
▁norfolk	-7104
▁produce	-7105
▁progres	-7106
▁provide	-7107
▁quarrel	-7108
▁separat	-7109
▁station	-7110
▁tremend	-7111
▁wichita	-7112
▁zealand	-7113
▁cheerful	-7114
▁colorado	-7115
▁concentr	-7116
▁congress	-7117
▁liabilit	-7118
▁lightspe	-7119
▁material	-7120
▁michelle	-7121
▁mustache	-7122
▁porridge	-7123
▁radiator	-7124
▁scotland	-7125
▁sidewalk	-7126
▁terrific	-7127
▁xenohyla	-7128
▁architect	-7129
▁fairmount	-7130
▁guitarist	-7131
▁nightmare	-7132
▁pronuncia	-7133
▁struction	-7134
▁worldwide	-7135
▁experiment	-7136
▁somersault	-7137
▁thoughtful	-7138
▁windshield	-7139
▁convenience	-7140
▁multicultur	-7141
▁oxfordshire	-7142
12	-7143
63	-7144
bs	-7145
iy	-7146
ía	-7147
▁q	-7148
The	-7149
agg	-7150
aho	-7151
alr	-7152
boy	-7153
cia	-7154
dog	-7155
elp	-7156
iac	-7157
ifl	-7158
igg	-7159
iro	-7160
isk	-7161
kar	-7162
lan	-7163
ley	-7164
ooh	-7165
tor	-7166
ycl	-7167
–19	-7168
▁48	-7169
▁53	-7170
▁73	-7171
▁76	-7172
▁85	-7173
▁96	-7174
▁gb	-7175
▁oj	-7176
▁os	-7177
▁ry	-7178
/010	-7179
ando	-7180
asel	-7181
atia	-7182
bian	-7183
boro	-7184
clei	-7185
cutt	-7186
ered	-7187
eton	-7188
ikki	-7189
illo	-7190
inae	-7191
iscu	-7192
legg	-7193
lord	-7194
maid	-7195
mail	-7196
olin	-7197
onia	-7198
phia	-7199
phon	-7200
pton	-7201
rang	-7202
renc	-7203
rend	-7204
ring	-7205
rior	-7206
robe	-7207
rove	-7208
scow	-7209
shap	-7210
utor	-7211
viet	-7212
were	-7213
yruz	-7214
▁1.7	-7215
▁abd	-7216
▁ahh	-7217
▁bib	-7218
▁bog	-7219
▁cav	-7220
▁cdp	-7221
▁chr	-7222
▁dit	-7223
▁gin	-7224
▁gul	-7225
▁hee	-7226
▁lib	-7227
▁liz	-7228
▁nez	-7229
▁obv	-7230
▁ral	-7231
▁ray	-7232
▁rim	-7233
▁rud	-7234
▁shi	-7235
▁tel	-7236
▁tub	-7237
▁tun	-7238
▁twe	-7239
▁urg	-7240
▁vow	-7241
▁was	-7242
bling	-7243
cierg	-7244
could	-7245
eezes	-7246
ensit	-7247
erald	-7248
etter	-7249
ilton	-7250
ipzig	-7251
isite	-7252
isure	-7253
lying	-7254
rance	-7255
storm	-7256
three	-7257
throp	-7258
ventr	-7259
would	-7260
▁1931	-7261
▁1932	-7262
▁1935	-7263
▁1946	-7264
▁[$=2	-7265
▁ache	-7266
▁arap	-7267
▁ariz	-7268
▁bead	-7269
▁blam	-7270
▁bond	-7271
▁bonn	-7272
▁burg	-7273
▁cass	-7274
▁ceil	-7275
▁chat	-7276
▁chor	-7277
▁cine	-7278
▁clov	-7279
▁dica	-7280
▁dome	-7281
▁flip	-7282
▁fuge	-7283
▁fuse	-7284
▁glue	-7285
▁hint	-7286
▁hipp	-7287
▁hugg	-7288
▁hull	-7289
▁jett	-7290
▁kerr	-7291
▁lame	-7292
▁lapp	-7293
▁liqu	-7294
▁loca	-7295
▁minn	-7296
▁monu	-7297
▁pang	-7298
▁piss	-7299
▁plot	-7300
▁rome	-7301
▁rott	-7302
▁sacr	-7303
▁sfwa	-7304
▁sham	-7305
▁slim	-7306
▁stru	-7307
▁swis	-7308
▁veal	-7309
▁verd	-7310
▁vert	-7311
▁wagg	-7312
▁wedd	-7313
father	-7314
govern	-7315
lature	-7316
mother	-7317
orange	-7318
possen	-7319
refers	-7320
resome	-7321
sticks	-7322
taking	-7323
trying	-7324
▁andre	-7325
▁angri	-7326
▁aster	-7327
▁await	-7328
▁blake	-7329
▁blunt	-7330
▁boast	-7331
▁circl	-7332
▁clack	-7333
▁clara	-7334
▁costa	-7335
▁edgar	-7336
▁forty	-7337
▁galax	-7338
▁gatta	-7339
▁givin	-7340
▁globe	-7341
▁gramm	-7342
▁grasp	-7343
▁grove	-7344
▁hitch	-7345
▁hollo	-7346
▁hurry	-7347
▁irrit	-7348
▁knowl	-7349
▁metal	-7350
▁nestl	-7351
▁nikki	-7352
▁norwa	-7353
▁persu	-7354
▁pilot	-7355
▁pinch	-7356
▁pione	-7357
▁pollu	-7358
▁porch	-7359
▁prosp	-7360
▁punct	-7361
▁salar	-7362
▁shill	-7363
▁simpl	-7364
▁sixth	-7365
▁solar	-7366
▁spenc	-7367
▁statu	-7368
▁sworn	-7369
▁syrup	-7370
▁troop	-7371
▁varia	-7372
▁yacht	-7373
drawing	-7374
pulling	-7375
sterdam	-7376
thereng	-7377
whimper	-7378
▁aldith	-7379
▁altern	-7380
▁austin	-7381
▁behold	-7382
▁collab	-7383
▁comrad	-7384
▁editor	-7385
▁garden	-7386
▁genera	-7387
▁granni	-7388
▁height	-7389
▁huckle	-7390
▁impres	-7391
▁iverse	-7392
▁jingle	-7393
▁julian	-7394
▁lawyer	-7395
▁metrop	-7396
▁moscow	-7397
▁nadine	-7398
▁nagata	-7399
▁neyruz	-7400
▁nicola	-7401
▁nipple	-7402
▁peyres	-7403
▁plough	-7404
▁promot	-7405
▁runnin	-7406
▁sailor	-7407
▁scotch	-7408
▁screen	-7409
▁seduct	-7410
▁semple	-7411
▁singer	-7412
▁sovere	-7413
▁sultan	-7414
▁therap	-7415
▁turkey	-7416
▁urgent	-7417
▁vehicl	-7418
▁vertic	-7419
▁weasel	-7420
adelphia	-7421
ideotape	-7422
▁alzheim	-7423
▁arapaho	-7424
▁arizona	-7425
▁banglad	-7426
▁bedtime	-7427
▁borough	-7428
▁butcher	-7429
▁cabbage	-7430
▁cabinet	-7431
▁chanéaz	-7432
▁clinton	-7433
▁comrade	-7434
▁coventr	-7435
▁cumming	-7436
▁cushion	-7437
▁diction	-7438
▁exclama	-7439
▁gallant	-7440
▁grandpa	-7441
▁hayward	-7442
▁hopeful	-7443
▁hostage	-7444
▁immense	-7445
▁leipzig	-7446
▁leisure	-7447
▁literar	-7448
▁measure	-7449
▁natural	-7450
▁nominat	-7451
▁nuclear	-7452
▁perfume	-7453
▁playsta	-7454
▁popcorn	-7455
▁rubbish	-7456
▁sarcast	-7457
▁violent	-7458
▁vitamin	-7459
▁warrior	-7460
▁witness	-7461
▁ancestor	-7462
▁atlantic	-7463
▁carolina	-7464
▁caroline	-7465
▁challeng	-7466
▁chapelle	-7467
▁contempt	-7468
▁correvon	-7469
▁dartmoor	-7470
▁dividual	-7471
▁document	-7472
▁goumoens	-7473
▁hamilton	-7474
▁iversiti	-7475
▁lausanne	-7476
▁legendar	-7477
▁meantime	-7478
▁peruvian	-7479
▁printing	-7480
▁thierren	-7481
▁tiresome	-7482
(192,220)}	-7483
▁amsterdam	-7484
▁authoriti	-7485
▁favourite	-7486
▁jefferson	-7487
▁operation	-7488
▁princeton	-7489
▁signature	-7490
▁suspicion	-7491
▁confidence	-7492
▁marthereng	-7493
▁montanaire	-7494
▁personalit	-7495
▁possibilit	-7496
▁honeysuckle	-7497
▁magnificent	-7498
▁philadelphia	-7499
,4	-7500
._	-7501
26	-7502
34	-7503
AP	-7504
ES	-7505
GH	-7506
du	-7507
ín	-7508
▁$	-7509
-19	-7510
;.7	-7511
Eve	-7512
TER	-7513
aub	-7514
ces	-7515
ede	-7516
eed	-7517
fil	-7518
ges	-7519
god	-7520
gri	-7521
kab	-7522
kee	-7523
law	-7524
mak	-7525
ndr	-7526
obu	-7527
oux	-7528
sho	-7529
ulk	-7530
vin	-7531
wam	-7532
ysi	-7533
ysm	-7534
zar	-7535
▁""	-7536
▁44	-7537
▁75	-7538
▁95	-7539
▁97	-7540
▁cd	-7541
▁dw	-7542
▁ki	-7543
****	-7544
ansk	-7545
apoo	-7546
atsu	-7547
bear	-7548
chet	-7549
chor	-7550
ello	-7551
font	-7552
four	-7553
goon	-7554
hila	-7555
ible	-7556
ichi	-7557
ingl	-7558
inth	-7559
know	-7560
lict	-7561
load	-7562
mble	-7563
nods	-7564
onda	-7565
onym	-7566
osem	-7567
pack	-7568
près	-7569
rape	-7570
rass	-7571
rhin	-7572
runn	-7573
stan	-7574
uene	-7575
umin	-7576
uous	-7577
yell	-7578
ärvi	-7579
▁1.4	-7580
▁[14	-7581
▁[16	-7582
▁aah	-7583
▁amp	-7584
▁bic	-7585
▁bio	-7586
▁elo	-7587
▁fri	-7588
▁haw	-7589
▁ker	-7590
▁len	-7591
▁lif	-7592
▁mem	-7593
▁mim	-7594
▁nel	-7595
▁osc	-7596
▁ott	-7597
▁rot	-7598
▁sie	-7599
▁são	-7600
▁tab	-7601
▁tul	-7602
▁udp	-7603
▁wob	-7604
aloon	-7605
athan	-7606
becue	-7607
catch	-7608
check	-7609
click	-7610
climb	-7611
cloth	-7612
erina	-7613
fruit	-7614
glass	-7615
grabs	-7616
icker	-7617
ierre	-7618
impse	-7619
lifts	-7620
nando	-7621
natur	-7622
rison	-7623
shine	-7624
shirt	-7625
smith	-7626
snake	-7627
train	-7628
udent	-7629
wants	-7630
wheel	-7631
woman	-7632
▁1943	-7633
▁1947	-7634
▁1949	-7635
▁1958	-7636
▁[4.8	-7637
▁[5.3	-7638
▁abra	-7639
▁amar	-7640
▁anna	-7641
▁beam	-7642
▁birk	-7643
▁brav	-7644
▁cinc	-7645
▁copi	-7646
▁dime	-7647
▁exit	-7648
▁exqu	-7649
▁fist	-7650
▁fitt	-7651
▁froz	-7652
▁ging	-7653
▁glov	-7654
▁goal	-7655
▁guid	-7656
▁halt	-7657
▁hamp	-7658
▁haut	-7659
▁hitt	-7660
▁honk	-7661
▁hooe	-7662
▁illu	-7663
▁kane	-7664
▁kirk	-7665
▁lawn	-7666
▁liev	-7667
▁lisa	-7668
▁mick	-7669
▁mote	-7670
▁nder	-7671
▁nsic	-7672
▁pace	-7673
▁peck	-7674
▁pint	-7675
▁plug	-7676
▁rand	-7677
▁sequ	-7678
▁ster	-7679
▁stin	-7680
▁sylv	-7681
▁tabl	-7682
▁taka	-7683
▁thus	-7684
▁tinc	-7685
▁tore	-7686
▁trud	-7687
▁vall	-7688
▁vant	-7689
▁vase	-7690
▁whol	-7691
▁wist	-7692
▁womb	-7693
▁yawn	-7694
ablack	-7695
atical	-7696
innati	-7697
return	-7698
starts	-7699
verdon	-7700
wegian	-7701
▁atoll	-7702
▁being	-7703
▁blade	-7704
▁bottl	-7705
▁bravo	-7706
▁celia	-7707
▁chanc	-7708
▁chimp	-7709
▁chung	-7710
▁clapp	-7711
▁crept	-7712
▁crisi	-7713
▁crypt	-7714
▁donna	-7715
▁fetch	-7716
▁frame	-7717
▁freez	-7718
▁geniu	-7719
▁goose	-7720
▁gover	-7721
▁grunt	-7722
▁hatch	-7723
▁havin	-7724
▁honey	-7725
▁hypoc	-7726
▁jammi	-7727
▁knitt	-7728
▁lance	-7729
▁mango	-7730
▁marcu	-7731
▁maxim	-7732
▁milan	-7733
▁money	-7734
▁negro	-7735
▁pedro	-7736
▁prune	-7737
▁puzzl	-7738
▁sabot	-7739
▁scand	-7740
▁scoot	-7741
▁shone	-7742
▁slend	-7743
▁sooth	-7744
▁sorry	-7745
▁today	-7746
▁toxin	-7747
▁tramp	-7748
▁trash	-7749
▁vigor	-7750
▁wreck	-7751
correct	-7752
someone	-7753
▁achiev	-7754
▁admire	-7755
▁adolph	-7756
▁advert	-7757
▁alkali	-7758
▁ashore	-7759
▁assass	-7760
▁assume	-7761
▁buckle	-7762
▁carrot	-7763
▁casino	-7764
▁commit	-7765
▁dignit	-7766
▁dinner	-7767
▁fasten	-7768
▁garlic	-7769
▁gobble	-7770
▁hiccup	-7771
▁intell	-7772
▁kettle	-7773
▁lookin	-7774
▁marino	-7775
▁medium	-7776
▁muzzle	-7777
▁nomina	-7778
▁peated	-7779
▁quiver	-7780
▁runawa	-7781
▁rustle	-7782
▁sector	-7783
▁sentai	-7784
▁speedi	-7785
▁squeez	-7786
▁tissue	-7787
▁treble	-7788
▁trembl	-7789
▁upward	-7790
▁variet	-7791
▁vernon	-7792
▁warmth	-7793
▁whiske	-7794
pretends	-7795
▁aggress	-7796
▁aldithe	-7797
▁anguish	-7798
▁annette	-7799
▁antonio	-7800
▁baggage	-7801
▁bartlem	-7802
▁bathtub	-7803
▁brennan	-7804
▁categor	-7805
▁clothes	-7806
▁columbu	-7807
▁comprom	-7808
▁context	-7809
▁culture	-7810
▁divorce	-7811
▁excited	-7812
▁explana	-7813
▁flatter	-7814
▁flossie	-7815
▁forbidd	-7816
▁glimpse	-7817
▁gradual	-7818
▁liaison	-7819
▁meaning	-7820
▁nowhere	-7821
▁packard	-7822
▁raccoon	-7823
▁scatter	-7824
▁sperate	-7825
▁toluene	-7826
▁troduce	-7827
▁vincent	-7828
▁walenda	-7829
▁willing	-7830
committee	-7831
imitating	-7832
▁approxim	-7833
▁associat	-7834
▁barbecue	-7835
▁candyman	-7836
▁circular	-7837
▁dinosaur	-7838
▁fernando	-7839
▁fracture	-7840
▁frequent	-7841
▁horizont	-7842
▁ignorant	-7843
▁kickapoo	-7844
▁maryjane	-7845
▁minister	-7846
▁mushroom	-7847
▁pathetic	-7848
▁portrait	-7849
▁purchase	-7850
▁sistance	-7851
▁sunglass	-7852
▁sunshine	-7853
▁thorough	-7854
▁washburn	-7855
▁yourselv	-7856
▁argentina	-7857
▁argentine	-7858
▁ballerina	-7859
▁charlotte	-7860
▁communiti	-7861
▁drosophil	-7862
▁economist	-7863
▁embarrass	-7864
▁exquisite	-7865
▁guarantee	-7866
▁norwegian	-7867
▁pantaloon	-7868
▁practical	-7869
▁someplace	-7870
▁southeast	-7871
▁telegraph	-7872
▁telligent	-7873
▁variation	-7874
▁agricultur	-7875
▁cincinnati	-7876
▁controvers	-7877
▁importance	-7878
▁temperance	-7879
▁vantablack	-7880
▁legislature	-7881
▁metropolitan	-7882
,0	-7883
."	-7884
22	-7885
41	-7886
46	-7887
Ch	-7888
]:	-7889
dl	-7890
–2	-7891
;.5	-7892
;.6	-7893
amu	-7894
bag	-7895
cus	-7896
dri	-7897
fal	-7898
fam	-7899
fla	-7900
his	-7901
iki	-7902
iov	-7903
ked	-7904
leg	-7905
len	-7906
lyb	-7907
new	-7908
nex	-7909
nia	-7910
oun	-7911
oye	-7912
pap	-7913
pit	-7914
pox	-7915
rah	-7916
rio	-7917
roe	-7918
six	-7919
sla	-7920
suc	-7921
uch	-7922
uge	-7923
uis	-7924
uri	-7925
usk	-7926
uti	-7927
van	-7928
▁--	-7929
▁38	-7930
▁55	-7931
▁77	-7932
▁["	-7933
▁bc	-7934
▁gw	-7935
▁sá	-7936
▁wy	-7937
aday	-7938
anic	-7939
ario	-7940
ashi	-7941
cour	-7942
dess	-7943
door	-7944
esia	-7945
gium	-7946
goin	-7947
good	-7948
guin	-7949
halt	-7950
hibi	-7951
idad	-7952
igot	-7953
indo	-7954
ingo	-7955
irns	-7956
ista	-7957
ière	-7958
jake	-7959
kagu	-7960
lant	-7961
larg	-7962
life	-7963
loft	-7964
mast	-7965
mond	-7966
omez	-7967
oole	-7968
pani	-7969
part	-7970
pile	-7971
plom	-7972
quet	-7973
rasp	-7974
scri	-7975
sess	-7976
shaw	-7977
shit	-7978
shop	-7979
ssip	-7980
stop	-7981
tele	-7982
term	-7983
this	-7984
venn	-7985
▁500	-7986
▁[13	-7987
▁aer	-7988
▁aga	-7989
▁ala	-7990
▁alv	-7991
▁arc	-7992
▁bef	-7993
▁cag	-7994
▁ced	-7995
▁dip	-7996
▁dor	-7997
▁dow	-7998
▁edg	-7999
▁gur	-8000
▁hap	-8001
▁kim	-8002
▁kur	-8003
▁nos	-8004
▁raw	-8005
▁rhy	-8006
▁rin	-8007
▁tan	-8008
▁wik	-8009
▁xii	-8010
bilit	-8011
brian	-8012
denum	-8013
expla	-8014
garet	-8015
going	-8016
grunt	-8017
isten	-8018
itter	-8019
jamin	-8020
metal	-8021
mouth	-8022
nette	-8023
print	-8024
relat	-8025
shows	-8026
▁1948	-8027
▁[1.9	-8028
▁abou	-8029
▁amid	-8030
▁argu	-8031
▁bald	-8032
▁basi	-8033
▁berg	-8034
▁best	-8035
▁buss	-8036
▁caut	-8037
▁corr	-8038
▁crot	-8039
▁curi	-8040
▁dent	-8041
▁ditn	-8042
▁doom	-8043
▁emil	-8044
▁esqu	-8045
▁hail	-8046
▁hulk	-8047
▁hump	-8048
▁hunh	-8049
▁iamb	-8050
▁imit	-8051
▁isra	-8052
▁jogg	-8053
▁lucy	-8054
▁lump	-8055
▁meow	-8056
▁mump	-8057
▁nova	-8058
▁nutt	-8059
▁ojib	-8060
▁onna	-8061
▁pene	-8062
▁poly	-8063
▁quid	-8064
▁rapp	-8065
▁ripe	-8066
▁sask	-8067
▁skau	-8068
▁soak	-8069
▁soil	-8070
▁stam	-8071
▁styl	-8072
▁tact	-8073
▁tegr	-8074
▁thad	-8075
▁thei	-8076
▁viet	-8077
▁wolv	-8078
▁wrap	-8079
agraph	-8080
arette	-8081
celles	-8082
critic	-8083
enough	-8084
erella	-8085
gnosia	-8086
nament	-8087
neloye	-8088
ophila	-8089
perhap	-8090
peters	-8091
▁abuse	-8092
▁adver	-8093
▁amaze	-8094
▁appli	-8095
▁awoke	-8096
▁banjo	-8097
▁baron	-8098
▁blink	-8099
▁choir	-8100
▁clipp	-8101
▁craft	-8102
▁damag	-8103
▁doyou	-8104
▁dripp	-8105
▁drumm	-8106
▁dyson	-8107
▁etern	-8108
▁eugen	-8109
▁exede	-8110
▁explo	-8111
▁feree	-8112
▁gomez	-8113
▁handl	-8114
▁heath	-8115
▁hound	-8116
▁image	-8117
▁juven	-8118
▁knuck	-8119
▁lalal	-8120
▁lativ	-8121
▁lower	-8122
▁molyb	-8123
▁morse	-8124
▁multi	-8125
▁murra	-8126
▁ozaki	-8127
▁paral	-8128
▁perce	-8129
▁pluck	-8130
▁rhine	-8131
▁scoop	-8132
▁silva	-8133
▁simon	-8134
▁slack	-8135
▁smash	-8136
▁stine	-8137
▁stump	-8138
▁surre	-8139
▁troph	-8140
▁upcom	-8141
▁vance	-8142
▁viola	-8143
▁wolse	-8144
▁yahoo	-8145
calling	-8146
clearly	-8147
dropped	-8148
kaguchi	-8149
ordinar	-8150
returns	-8151
sneezes	-8152
▁absurd	-8153
▁alfred	-8154
▁anchor	-8155
▁anyway	-8156
▁bairns	-8157
▁bandag	-8158
▁barrow	-8159
▁bellow	-8160
▁billie	-8161
▁browni	-8162
▁commis	-8163
▁compre	-8164
▁conclu	-8165
▁counti	-8166
▁courag	-8167
▁diplom	-8168
▁driver	-8169
▁eighty	-8170
▁explor	-8171
▁fisher	-8172
▁fluenc	-8173
▁gibson	-8174
▁gossip	-8175
▁harmon	-8176
▁hearti	-8177
▁hector	-8178
▁joshua	-8179
▁lagoon	-8180
▁leonor	-8181
▁libert	-8182
▁mature	-8183
▁memori	-8184
▁morrow	-8185
▁museum	-8186
▁offens	-8187
▁pierce	-8188
▁planet	-8189
▁playin	-8190
▁proach	-8191
▁rhonda	-8192
▁saddle	-8193
▁salmon	-8194
▁shindo	-8195
▁shower	-8196
▁slaver	-8197
▁sophie	-8198
▁soviet	-8199
▁spigot	-8200
▁statue	-8201
▁streak	-8202
▁tender	-8203
▁terrib	-8204
▁thread	-8205
▁ventur	-8206
▁wigwam	-8207
▁wright	-8208
▁zetter	-8209
▁alcohol	-8210
▁asshole	-8211
▁bernard	-8212
▁breaker	-8213
▁carpent	-8214
▁checker	-8215
▁cipline	-8216
▁colonel	-8217
▁commerc	-8218
▁conceiv	-8219
▁consort	-8220
▁corduro	-8221
▁darling	-8222
▁diandro	-8223
▁gingham	-8224
▁groceri	-8225
▁leopard	-8226
▁manager	-8227
▁montaub	-8228
▁nichola	-8229
▁nowaday	-8230
▁permitt	-8231
▁persian	-8232
▁privile	-8233
▁prosopa	-8234
▁seventh	-8235
▁sibling	-8236
▁strateg	-8237
▁tractor	-8238
▁trochee	-8239
▁turkish	-8240
▁wallace	-8241
▁wistful	-8242
champvent	-8243
criticism	-8244
▁advantag	-8245
▁appetite	-8246
▁benjamin	-8247
▁bookworm	-8248
▁candidac	-8249
▁categori	-8250
▁civilian	-8251
▁confront	-8252
▁exchange	-8253
▁guardian	-8254
▁headache	-8255
▁intellig	-8256
▁margaret	-8257
▁patience	-8258
▁personal	-8259
▁psychiat	-8260
▁ronnette	-8261
▁scribble	-8262
▁splendor	-8263
▁thankful	-8264
▁victoria	-8265
indicating	-8266
▁accompani	-8267
▁cambridge	-8268
▁construct	-8269
▁corcelles	-8270
▁gratitude	-8271
▁microwave	-8272
▁propensit	-8273
▁sakaguchi	-8274
▁spectator	-8275
▁stonewall	-8276
▁swordfish	-8277
▁vanceboro	-8278
▁zetterstr	-8279
▁automobile	-8280
▁bairnsdale	-8281
▁collection	-8282
▁convenient	-8283
▁difficulti	-8284
▁drosophila	-8285
▁grapefruit	-8286
▁molybdenum	-8287
▁screenwrit	-8288
▁approximate	-8289
▁grandmother	-8290
▁professional	-8291
▁prosopagnosia	-8292
95	-8293
LO	-8294
bc	-8295
ef	-8296
–0	-8297
ake	-8298
anu	-8299
asi	-8300
asp	-8301
atu	-8302
bee	-8303
cre	-8304
cía	-8305
dic	-8306
eka	-8307
enh	-8308
fle	-8309
fli	-8310
gen	-8311
ige	-8312
iko	-8313
jar	-8314
lay	-8315
lia	-8316
may	-8317
mov	-8318
net	-8319
raz	-8320
rin	-8321
sca	-8322
siz	-8323
tim	-8324
vol	-8325
who	-8326
yev	-8327
yuk	-8328
▁33	-8329
▁61	-8330
▁62	-8331
▁68	-8332
▁69	-8333
▁78	-8334
▁83	-8335
▁98	-8336
▁au	-8337
▁pm	-8338
▁rn	-8339
CHAP	-8340
ably	-8341
achi	-8342
alan	-8343
ancy	-8344
arag	-8345
asmo	-8346
bacc	-8347
carr	-8348
char	-8349
club	-8350
coin	-8351
cope	-8352
dure	-8353
eaux	-8354
elop	-8355
enge	-8356
erie	-8357
erra	-8358
ewan	-8359
girl	-8360
hair	-8361
have	-8362
ides	-8363
igen	-8364
igue	-8365
iliz	-8366
inax	-8367
isle	-8368
itim	-8369
ivar	-8370
jack	-8371
jima	-8372
john	-8373
keem	-8374
loat	-8375
lots	-8376
mart	-8377
nine	-8378
nold	-8379
onto	-8380
ople	-8381
oria	-8382
prit	-8383
real	-8384
rush	-8385
seud	-8386
shot	-8387
site	-8388
ssil	-8389
tech	-8390
temp	-8391
vest	-8392
wart	-8393
▁3.5	-8394
▁ana	-8395
▁ano	-8396
▁anu	-8397
▁bay	-8398
▁bbc	-8399
▁bun	-8400
▁coc	-8401
▁cun	-8402
▁dna	-8403
▁dud	-8404
▁exe	-8405
▁fev	-8406
▁fra	-8407
▁hog	-8408
▁lev	-8409
▁lid	-8410
▁mcc	-8411
▁mop	-8412
▁mun	-8413
▁nie	-8414
▁nyx	-8415
▁pom	-8416
▁rig	-8417
▁rog	-8418
▁rur	-8419
▁scu	-8420
▁sod	-8421
▁sso	-8422
▁tos	-8423
▁vau	-8424
▁viz	-8425
▁vod	-8426
▁vul	-8427
▁wag	-8428
▁yas	-8429
▁yue	-8430
▁zim	-8431
Colin	-8432
aceut	-8433
aliti	-8434
andra	-8435
arrow	-8436
ateur	-8437
carra	-8438
crack	-8439
cular	-8440
draws	-8441
erenc	-8442
essee	-8443
lence	-8444
llock	-8445
onaut	-8446
resso	-8447
ridge	-8448
setto	-8449
shkov	-8450
spond	-8451
style	-8452
sweet	-8453
tells	-8454
▁1861	-8455
▁1896	-8456
▁1905	-8457
▁1934	-8458
▁1944	-8459
▁1965	-8460
▁abus	-8461
▁agco	-8462
▁babe	-8463
▁barg	-8464
▁belf	-8465
▁blaz	-8466
▁blis	-8467
▁brem	-8468
▁burt	-8469
▁cant	-8470
▁cara	-8471
▁chil	-8472
▁claw	-8473
▁coax	-8474
▁cran	-8475
▁data	-8476
▁dict	-8477
▁dram	-8478
▁earl	-8479
▁fidd	-8480
▁garb	-8481
▁gaze	-8482
▁gran	-8483
▁graz	-8484
▁grim	-8485
▁hash	-8486
▁hass	-8487
▁hath	-8488
▁hire	-8489
▁huhu	-8490
▁iran	-8491
▁jeez	-8492
▁kent	-8493
▁kern	-8494
▁lama	-8495
▁leve	-8496
▁loll	-8497
▁miss	-8498
▁moor	-8499
▁mule	-8500
▁pawn	-8501
▁pett	-8502
▁piet	-8503
▁prob	-8504
▁raki	-8505
▁ramp	-8506
▁rash	-8507
▁rhym	-8508
▁sald	-8509
▁salv	-8510
▁sexu	-8511
▁shan	-8512
▁slat	-8513
▁spei	-8514
▁spra	-8515
▁sull	-8516
▁then	-8517
▁thre	-8518
▁tilt	-8519
▁timb	-8520
▁toll	-8521
▁toot	-8522
▁tyum	-8523
▁volt	-8524
▁warr	-8525
▁weep	-8526
▁zoom	-8527
ailant	-8528
barrel	-8529
comple	-8530
daddle	-8531
derick	-8532
drinks	-8533
during	-8534
inator	-8535
lendar	-8536
school	-8537
string	-8538
veland	-8539
watomi	-8540
▁ahhah	-8541
▁ambul	-8542
▁amend	-8543
▁angle	-8544
▁apply	-8545
▁archa	-8546
▁argue	-8547
▁assum	-8548
▁beard	-8549
▁becky	-8550
▁borne	-8551
▁brisk	-8552
▁bruce	-8553
▁cairo	-8554
▁chile	-8555
▁consc	-8556
▁conso	-8557
▁contr	-8558
▁coord	-8559
▁crank	-8560
▁crisp	-8561
▁crook	-8562
▁crust	-8563
▁dozen	-8564
▁draft	-8565
▁drape	-8566
▁droop	-8567
▁dynam	-8568
▁estat	-8569
▁ethel	-8570
▁excep	-8571
▁feath	-8572
▁fifty	-8573
▁gator	-8574
▁greas	-8575
▁grief	-8576
▁griff	-8577
▁harsh	-8578
▁imita	-8579
▁jacqu	-8580
▁jesse	-8581
▁longe	-8582
▁lucen	-8583
▁lynch	-8584
▁marsd	-8585
▁merch	-8586
▁mette	-8587
▁moore	-8588
▁neand	-8589
▁ninth	-8590
▁nomin	-8591
▁orang	-8592
▁owner	-8593
▁papho	-8594
▁press	-8595
▁prost	-8596
▁pseud	-8597
▁pursu	-8598
▁quilt	-8599
▁ridge	-8600
▁rrick	-8601
▁scale	-8602
▁scann	-8603
▁serva	-8604
▁sixty	-8605
▁skinn	-8606
▁stabl	-8607
▁steep	-8608
▁steve	-8609
▁strik	-8610
▁surpl	-8611
▁timid	-8612
▁trost	-8613
▁twine	-8614
▁venge	-8615
▁vivid	-8616
▁witch	-8617
▁wondr	-8618
▁wrist	-8619
▁yield	-8620
CHAPTER	-8621
carries	-8622
handing	-8623
igenobu	-8624
inghame	-8625
▁abroad	-8626
▁acquir	-8627
▁adjust	-8628
▁admira	-8629
▁afloat	-8630
▁awaken	-8631
▁bentle	-8632
▁brewer	-8633
▁bubble	-8634
▁buddha	-8635
▁bulgar	-8636
▁bumble	-8637
▁carbon	-8638
▁cision	-8639
▁clancy	-8640
▁clinic	-8641
▁concep	-8642
▁divide	-8643
▁emphas	-8644
▁forbid	-8645
▁freeze	-8646
▁garcía	-8647
▁garret	-8648
▁gaspar	-8649
▁gister	-8650
▁hakeem	-8651
▁harold	-8652
▁hubert	-8653
▁imitat	-8654
▁kojima	-8655
▁madame	-8656
▁margin	-8657
▁multip	-8658
▁nebula	-8659
▁ojibwe	-8660
▁poliez	-8661
▁racket	-8662
▁riddle	-8663
▁scienc	-8664
▁scinax	-8665
▁script	-8666
▁shiomi	-8667
▁shrimp	-8668
▁someda	-8669
▁squeak	-8670
▁string	-8671
▁sylvia	-8672
▁topeka	-8673
▁tourna	-8674
▁verend	-8675
▁wizard	-8676
asmoclei	-8677
atchewan	-8678
fontaine	-8679
▁adolphu	-8680
▁advisor	-8681
▁alberta	-8682
▁amongst	-8683
▁antelop	-8684
▁approve	-8685
▁assault	-8686
▁assembl	-8687
▁banquet	-8688
▁batteri	-8689
▁bollock	-8690
▁capture	-8691
▁chuckle	-8692
▁collegi	-8693
▁conspir	-8694
▁consume	-8695
▁costume	-8696
▁croatia	-8697
▁culprit	-8698
▁elector	-8699
▁examina	-8700
▁exercis	-8701
▁favorit	-8702
▁fecture	-8703
▁folcutt	-8704
▁gesture	-8705
▁goddamn	-8706
▁hurried	-8707
▁improve	-8708
▁luctant	-8709
▁majorit	-8710
▁meshkov	-8711
▁ministr	-8712
▁miracle	-8713
▁nothing	-8714
▁partial	-8715
▁pharmac	-8716
▁settler	-8717
▁surgeon	-8718
▁swedish	-8719
▁terrifi	-8720
▁thinkin	-8721
▁tornado	-8722
▁toronto	-8723
▁torture	-8724
▁vietnam	-8725
foundland	-8726
indicates	-8727
▁academic	-8728
▁applause	-8729
▁calendar	-8730
▁campbell	-8731
▁coachman	-8732
▁conflict	-8733
▁crotchet	-8734
▁curiosit	-8735
▁domestic	-8736
▁drunkard	-8737
▁espresso	-8738
▁flycatch	-8739
▁franklin	-8740
▁goldberg	-8741
▁goldrush	-8742
▁imaginar	-8743
▁landlord	-8744
▁latitude	-8745
▁machiner	-8746
▁maryland	-8747
▁neverthe	-8748
▁organism	-8749
▁organist	-8750
▁ornament	-8751
▁saldivar	-8752
▁structur	-8753
▁strument	-8754
▁translat	-8755
▁vizcarra	-8756
▁assailant	-8757
▁challenge	-8758
▁cigarette	-8759
▁cleveland	-8760
▁condition	-8761
▁dictionar	-8762
▁existence	-8763
▁frederick	-8764
▁hampshire	-8765
▁ignorance	-8766
▁lalalight	-8767
▁membrance	-8768
▁paperwork	-8769
▁paragraph	-8770
▁procedure	-8771
▁scription	-8772
▁shigenobu	-8773
▁skedaddle	-8774
▁socialist	-8775
▁spaghetti	-8776
▁steamboat	-8777
▁stitution	-8778
▁structure	-8779
▁tennessee	-8780
▁transferr	-8781
▁volunteer	-8782
▁wholesome	-8783
▁bangladesh	-8784
▁chancellor	-8785
▁consistent	-8786
▁cuninghame	-8787
▁government	-8788
▁historical	-8789
▁pharmaceut	-8790
▁technician	-8791
▁chiasmoclei	-8792
▁circumstanc	-8793
▁grandfather	-8794
▁extraordinar	-8795
▁jeffersonian	-8796
▁newfoundland	-8797
▁saskatchewan	-8798
27	-8799
40	-8800
48	-8801
52	-8802
62	-8803
69	-8804
75	-8805
LL	-8806
_2	-8807
hl	-8808
ju	-8809
oa	-8810
ox	-8811
ón	-8812
—"	-8813
GHS	-8814
LOU	-8815
agu	-8816
apt	-8817
asa	-8818
aus	-8819
bad	-8820
big	-8821
ced	-8822
dad	-8823
eek	-8824
erd	-8825
erk	-8826
ery	-8827
fac	-8828
iah	-8829
ike	-8830
iri	-8831
luc	-8832
mod	-8833
nan	-8834
onk	-8835
orb	-8836
pad	-8837
pat	-8838
ppl	-8839
psi	-8840
rem	-8841
rol	-8842
say	-8843
sex	-8844
som	-8845
til	-8846
uma	-8847
uni	-8848
utt	-8849
vis	-8850
vić	-8851
▁(*	-8852
▁..	-8853
▁56	-8854
▁87	-8855
▁eu	-8856
▁fc	-8857
▁né	-8858
▁ps	-8859
▁zi	-8860
."—_	-8861
Fras	-8862
adds	-8863
ardo	-8864
atoo	-8865
bang	-8866
bass	-8867
bott	-8868
bury	-8869
cane	-8870
cese	-8871
diat	-8872
emic	-8873
ever	-8874
face	-8875
feld	-8876
fill	-8877
gard	-8878
grow	-8879
hawk	-8880
hran	-8881
icut	-8882
iest	-8883
iffe	-8884
imed	-8885
ipop	-8886
isha	-8887
kaiy	-8888
mind	-8889
neum	-8890
nton	-8891
oard	-8892
omon	-8893
only	-8894
ooch	-8895
orar	-8896
pool	-8897
risk	-8898
roll	-8899
seem	-8900
them	-8901
ther	-8902
uelt	-8903
west	-8904
▁1.1	-8905
▁183	-8906
▁2.5	-8907
▁[12	-8908
▁aii	-8909
▁arg	-8910
▁ark	-8911
▁aur	-8912
▁bah	-8913
▁dil	-8914
▁dul	-8915
▁fec	-8916
▁gai	-8917
▁gap	-8918
▁ian	-8919
▁ich	-8920
▁jaw	-8921
▁jec	-8922
▁joh	-8923
▁kak	-8924
▁kir	-8925
▁kra	-8926
▁lil	-8927
▁nod	-8928
▁pis	-8929
▁rop	-8930
▁rup	-8931
▁sis	-8932
▁sne	-8933
▁vad	-8934
▁yan	-8935
▁zip	-8936
SIGHS	-8937
abata	-8938
ances	-8939
babwe	-8940
berri	-8941
brush	-8942
chaux	-8943
dress	-8944
eight	-8945
ellig	-8946
ement	-8947
enhag	-8948
enian	-8949
ering	-8950
ernia	-8951
esota	-8952
etime	-8953
every	-8954
glect	-8955
hibit	-8956
illor	-8957
inkle	-8958
itiqu	-8959
jorat	-8960
journ	-8961
knock	-8962
menth	-8963
nberg	-8964
orese	-8965
otten	-8966
pause	-8967
pence	-8968
prano	-8969
raspy	-8970
robat	-8971
scope	-8972
sence	-8973
stant	-8974
strat	-8975
tebra	-8976
their	-8977
udder	-8978
under	-8979
unint	-8980
usage	-8981
voice	-8982
water	-8983
which	-8984
wlish	-8985
yells	-8986
yenne	-8987
▁1801	-8988
▁1924	-8989
▁1937	-8990
▁1938	-8991
▁[2.9	-8992
▁[3.2	-8993
▁[3.8	-8994
▁[4.4	-8995
▁ader	-8996
▁aris	-8997
▁arro	-8998
▁bail	-8999
▁bait	-9000
▁bash	-9001
▁beak	-9002
▁beet	-9003
▁boob	-9004
▁bret	-9005
▁butl	-9006
▁calc	-9007
▁cann	-9008
▁carb	-9009
▁cept	-9010
▁cind	-9011
▁city	-9012
▁curv	-9013
▁diet	-9014
▁dock	-9015
▁docu	-9016
▁domp	-9017
▁dorm	-9018
▁dusk	-9019
▁edit	-9020
▁euro	-9021
▁feld	-9022
▁five	-9023
▁geth	-9024
▁gill	-9025
▁gilt	-9026
▁gink	-9027
▁giov	-9028
▁guis	-9029
▁gung	-9030
▁hack	-9031
▁heck	-9032
▁herb	-9033
▁hobb	-9034
▁holt	-9035
▁idle	-9036
▁impl	-9037
▁iowa	-9038
▁jill	-9039
▁joic	-9040
▁junk	-9041
▁labr	-9042
▁larr	-9043
▁mall	-9044
▁mini	-9045
▁nana	-9046
▁nash	-9047
▁pand	-9048
▁pará	-9049
▁peac	-9050
▁pitt	-9051
▁plea	-9052
▁pota	-9053
▁pter	-9054
▁puti	-9055
▁raft	-9056
▁rice	-9057
▁ruff	-9058
▁scan	-9059
▁slay	-9060
▁sobb	-9061
▁spid	-9062
▁spur	-9063
▁tann	-9064
▁tart	-9065
▁tens	-9066
▁thaw	-9067
▁thom	-9068
▁tint	-9069
▁tony	-9070
▁twig	-9071
▁warf	-9072
▁wend	-9073
▁wink	-9074
▁wire	-9075
Fraser	-9076
amarsh	-9077
celine	-9078
celona	-9079
chance	-9080
cliffe	-9081
climbs	-9082
ellite	-9083
filler	-9084
imeter	-9085
iscuit	-9086
kinson	-9087
lander	-9088
making	-9089
martin	-9090
please	-9091
tierce	-9092
wealth	-9093
ysmith	-9094
▁alert	-9095
▁apron	-9096
▁asian	-9097
▁babbl	-9098
▁battl	-9099
▁belov	-9100
▁betra	-9101
▁bever	-9102
▁blabb	-9103
▁blaze	-9104
▁blown	-9105
▁bolte	-9106
▁bowel	-9107
▁bride	-9108
▁canva	-9109
▁cemet	-9110
▁choic	-9111
▁choru	-9112
▁cliff	-9113
▁clung	-9114
▁cogni	-9115
▁conwa	-9116
▁cosmo	-9117
▁craig	-9118
▁cruit	-9119
▁crumb	-9120
▁digen	-9121
▁domin	-9122
▁doubl	-9123
▁eddie	-9124
▁execu	-9125
▁expos	-9126
▁flask	-9127
▁freak	-9128
▁frown	-9129
▁galle	-9130
▁genie	-9131
▁genre	-9132
▁gould	-9133
▁griev	-9134
▁grill	-9135
▁gruff	-9136
▁guerr	-9137
▁haiti	-9138
▁hibit	-9139
▁holly	-9140
▁hover	-9141
▁hurle	-9142
▁itial	-9143
▁jorat	-9144
▁leagu	-9145
▁manor	-9146
▁melod	-9147
▁merit	-9148
▁mingl	-9149
▁muscl	-9150
▁oxfam	-9151
▁peney	-9152
▁pneum	-9153
▁rownt	-9154
▁saxon	-9155
▁scorn	-9156
▁senta	-9157
▁shelt	-9158
▁shutt	-9159
▁slapp	-9160
▁snail	-9161
▁snout	-9162
▁spinn	-9163
▁spott	-9164
▁stent	-9165
▁sterl	-9166
▁stres	-9167
▁theme	-9168
▁thiev	-9169
▁thumb	-9170
▁tickl	-9171
▁topic	-9172
▁tower	-9173
▁tract	-9174
▁trimm	-9175
▁trott	-9176
▁trunc	-9177
▁ultim	-9178
▁valid	-9179
▁venez	-9180
▁vogue	-9181
▁volve	-9182
▁weari	-9183
▁wolfe	-9184
anthrop	-9185
ardonne	-9186
because	-9187
believe	-9188
kaiyama	-9189
mendraz	-9190
menthue	-9191
repeats	-9192
starnah	-9193
▁aboard	-9194
▁absorb	-9195
▁ackack	-9196
▁ambass	-9197
▁angela	-9198
▁animil	-9199
▁barbar	-9200
▁blaine	-9201
▁bobbie	-9202
▁cannon	-9203
▁censor	-9204
▁coarse	-9205
▁cooper	-9206
▁correc	-9207
▁corrup	-9208
▁deavor	-9209
▁dustri	-9210
▁exampl	-9211
▁falcon	-9212
▁fluent	-9213
▁formal	-9214
▁fossil	-9215
▁franch	-9216
▁google	-9217
▁gracie	-9218
▁gravit	-9219
▁hernia	-9220
▁hoarse	-9221
▁hurrah	-9222
▁icicle	-9223
▁impuls	-9224
▁italia	-9225
▁jackie	-9226
▁jewish	-9227
▁joyful	-9228
▁kaneko	-9229
▁libera	-9230
▁liquid	-9231
▁manuel	-9232
▁massac	-9233
▁mentia	-9234
▁michel	-9235
▁micros	-9236
▁morsel	-9237
▁northw	-9238
▁obstin	-9239
▁offend	-9240
▁operat	-9241
▁parano	-9242
▁peoria	-9243
▁piggie	-9244
▁plague	-9245
▁polici	-9246
▁povert	-9247
▁prague	-9248
▁quaint	-9249
▁quebec	-9250
▁secure	-9251
▁shrink	-9252
▁silver	-9253
▁sotten	-9254
▁stevie	-9255
▁stripe	-9256
▁stroll	-9257
▁tavern	-9258
▁theori	-9259
▁thrust	-9260
▁transl	-9261
▁vastat	-9262
▁warsaw	-9263
▁workin	-9264
▁writin	-9265
counting	-9266
falsetto	-9267
iculture	-9268
ographic	-9269
shouting	-9270
songwrit	-9271
▁*******	-9272
▁absence	-9273
▁acrobat	-9274
▁alberto	-9275
▁anythin	-9276
▁applica	-9277
▁archaic	-9278
▁bargain	-9279
▁belgium	-9280
▁biscuit	-9281
▁calculu	-9282
▁circuit	-9283
▁company	-9284
▁convict	-9285
▁culvert	-9286
▁dawlish	-9287
▁esquire	-9288
▁exploit	-9289
▁fishing	-9290
▁furnish	-9291
▁genuine	-9292
▁giovann	-9293
▁godfath	-9294
▁gordian	-9295
▁hammock	-9296
▁hiroshi	-9297
▁imagina	-9298
▁jewelwe	-9299
▁johnnie	-9300
▁juvenil	-9301
▁killing	-9302
▁lecture	-9303
▁literal	-9304
▁magazin	-9305
▁meeting	-9306
▁neglect	-9307
▁offence	-9308
▁pancake	-9309
▁paramet	-9310
▁perceiv	-9311
▁priorit	-9312
▁prudent	-9313
▁punctua	-9314
▁qualifi	-9315
▁raffael	-9316
▁rocking	-9317
▁sausage	-9318
▁seminar	-9319
▁shudder	-9320
▁soprano	-9321
▁sponsor	-9322
▁stagger	-9323
▁standin	-9324
▁termina	-9325
▁verdict	-9326
▁website	-9327
chardonne	-9328
continent	-9329
elligible	-9330
telephone	-9331
tiercelin	-9332
▁bullshit	-9333
▁cautious	-9334
▁certific	-9335
▁cheyenne	-9336
▁childish	-9337
▁cockatoo	-9338
▁comedian	-9339
▁commerce	-9340
▁committe	-9341
▁contrera	-9342
▁daylight	-9343
▁dominion	-9344
▁electron	-9345
▁embarras	-9346
▁footstep	-9347
▁function	-9348
▁grateful	-9349
▁guarante	-9350
▁habitant	-9351
▁hanabata	-9352
▁heritage	-9353
▁hospital	-9354
▁identifi	-9355
▁jonathan	-9356
▁judiciar	-9357
▁labrador	-9358
▁lollipop	-9359
▁manchest	-9360
▁murderer	-9361
▁paration	-9362
▁perspect	-9363
▁properti	-9364
▁rosewood	-9365
▁scottish	-9366
▁skeleton	-9367
▁suppress	-9368
▁thornton	-9369
▁trinidad	-9370
▁vigorous	-9371
▁waysmith	-9372
▁withdraw	-9373
▁zimbabwe	-9374
chancellor	-9375
▁alstarnah	-9376
▁ambulance	-9377
▁barcelona	-9378
▁clavering	-9379
▁conservat	-9380
▁education	-9381
▁efficient	-9382
▁guerrilla	-9383
▁housekeep	-9384
▁josceline	-9385
▁minnesota	-9386
▁mukaiyama	-9387
▁newspaper	-9388
▁popularit	-9389
▁pterosaur	-9390
▁riverside	-9391
▁satellite	-9392
▁sugarcane	-9393
▁technique	-9394
▁toothache	-9395
▁traveller	-9396
▁wonderful	-9397
▁accidental	-9398
▁ambassador	-9399
▁cinderella	-9400
▁cocoamarsh	-9401
▁comparison	-9402
▁concentrat	-9403
▁conscience	-9404
▁consequenc	-9405
▁councillor	-9406
▁goodenough	-9407
▁huckleberr	-9408
▁montaubion	-9409
▁playground	-9410
▁pocketbook	-9411
▁potawatomi	-9412
▁richardson	-9413
▁scientific	-9414
▁springtime	-9415
▁agriculture	-9416
▁appropriate	-9417
▁arrangement	-9418
▁connecticut	-9419
▁philanthrop	-9420
▁zetterstrom	-9421
▁championship	-9422
▁commonwealth	-9423
▁northeastern	-9424
▁organization	-9425
▁southeastern	-9426
unintelligible	-9427
.]	-9428
73	-9429
82	-9430
93	-9431
MA	-9432
je	-9433
ku	-9434
lb	-9435
oy	-9436
èr	-9437
–1	-9438
"--	-9439
-17	-9440
ara	-9441
bbe	-9442
bef	-9443
bie	-9444
cap	-9445
cro	-9446
day	-9447
def	-9448
din	-9449
eab	-9450
edd	-9451
eor	-9452
fec	-9453
gas	-9454
hal	-9455
han	-9456
hea	-9457
hem	-9458
him	-9459
hmm	-9460
iji	-9461
ima	-9462
ioi	-9463
ipu	-9464
its	-9465
jon	-9466
kur	-9467
ler	-9468
lie	-9469
lès	-9470
mil	-9471
mos	-9472
ner	-9473
odd	-9474
oga	-9475
ppe	-9476
rum	-9477
sev	-9478
ssi	-9479
tes	-9480
top	-9481
tte	-9482
udg	-9483
uhu	-9484
unh	-9485
wip	-9486
ych	-9487
ype	-9488
zel	-9489
zen	-9490
zon	-9491
zou	-9492
ánd	-9493
áoz	-9494
”—_	-9495
▁),	-9496
▁39	-9497
▁46	-9498
▁51	-9499
▁52	-9500
▁64	-9501
▁72	-9502
▁86	-9503
▁93	-9504
▁99	-9505
▁ee	-9506
▁gy	-9507
▁il	-9508
▁lf	-9509
▁mt	-9510
Paul	-9511
acit	-9512
adze	-9513
ahas	-9514
alin	-9515
anji	-9516
aren	-9517
arin	-9518
asks	-9519
ater	-9520
bach	-9521
bast	-9522
beat	-9523
clue	-9524
crow	-9525
dgin	-9526
dong	-9527
eele	-9528
elec	-9529
elon	-9530
emon	-9531
erth	-9532
fect	-9533
ffod	-9534
firm	-9535
fron	-9536
grim	-9537
hard	-9538
icit	-9539
ieft	-9540
ifle	-9541
incl	-9542
inda	-9543
isse	-9544
lavi	-9545
lens	-9546
lock	-9547
nail	-9548
neur	-9549
ocat	-9550
omin	-9551
ompt	-9552
orge	-9553
ouri	-9554
past	-9555
prob	-9556
ptic	-9557
quin	-9558
rand	-9559
rell	-9560
rewd	-9561
rice	-9562
roof	-9563
same	-9564
shan	-9565
show	-9566
sson	-9567
tise	-9568
uddl	-9569
uela	-9570
usse	-9571
wife	-9572
zard	-9573
▁128	-9574
▁2.3	-9575
▁225	-9576
▁3.1	-9577
▁3.8	-9578
▁988	-9579
▁[17	-9580
▁	-9581
e	-9582
t	-9583
o	-9584
a	-9585
i	-9586
n	-9587
s	-9588
h	-9589
r	-9590
l	-9591
d	-9592
u	-9593
y	-9594
m	-9595
w	-9596
c	-9597
g	-9598
f	-9599
p	-9600
b	-9601
*	-9602
:	-9603
k	-9604
v	-9605
'	-9606
I	-9607
C	-9608
H	-9609
T	-9610
O	-9611
M	-9612
-	-9613
[	-9614
x	-9615
=	-9616
j	-9617
1	-9618
2	-9619
.	-9620
0	-9621
A	-9622
F	-9623
9	-9624
z	-9625
S	-9626
R	-9627
’	-9628
q	-9629
,	-9630
]	-9631
5	-9632
3	-9633
8	-9634
7	-9635
4	-9636
N	-9637
6	-9638
V	-9639
U	-9640
B	-9641
L	-9642
/	-9643
?	-9644
♪	-9645
!	-9646
—	-9647
_	-9648
é	-9649
–	-9650
;	-9651
"	-9652
(	-9653
D	-9654
á	-9655
)	-9656
E	-9657
#	-9658
P	-9659
W	-9660
è	-9661
í	-9662
|	-9663
&	-9664
X	-9665
G	-9666
$	-9667
ó	-9668
+	-9669
ã	-9670
ä	-9671
č	-9672
}	-9673
­	-9674
š	-9675
ü	-9676
ć	-9677
¶	-9678
à	-9679
ö	-9680
K	-9681
ú	-9682
ç	-9683
ñ	-9684
â	-9685
î	-9686
@	-9687
`	-9688
¡	-9689
æ	-9690
ê	-9691
ô	-9692
”	-9693
Y	-9694
ë	-9695
ś	-9696
ß	-9697
ğ	-9698
ø	-9699
°	-9700
ł	-9701
ū	-9702
ž	-9703
Q	-9704
å	-9705
ò	-9706
ė	-9707
ě	-9708
ʊ	-9709
{	-9710
~	-9711
×	-9712
ï	-9713
ù	-9714
œ	-9715
ŭ	-9716
ɐ	-9717
ˈ	-9718
J	-9719
Z	-9720
\	-9721
£	-9722
÷	-9723
û	-9724
ý	-9725
ā	-9726
ą	-9727
đ	-9728
ı	-9729
ň	-9730
ō	-9731
ř	-9732
ş	-9733
ș	-9734
ɫ	-9735
ʋ	-9736
†	-9737
∂	-9738
