[PAD]	0
[CLS]	0
[SEP]	0
[UNK]	0
[MASK]	0
<0x00>	0
<0x01>	0
<0x02>	0
<0x03>	0
<0x04>	0
<0x05>	0
<0x06>	0
<0x07>	0
<0x08>	0
<0x09>	0
<0x0A>	0
<0x0B>	0
<0x0C>	0
<0x0D>	0
<0x0E>	0
<0x0F>	0
<0x10>	0
<0x11>	0
<0x12>	0
<0x13>	0
<0x14>	0
<0x15>	0
<0x16>	0
<0x17>	0
<0x18>	0
<0x19>	0
<0x1A>	0
<0x1B>	0
<0x1C>	0
<0x1D>	0
<0x1E>	0
<0x1F>	0
<0x20>	0
<0x21>	0
<0x22>	0
<0x23>	0
<0x24>	0
<0x25>	0
<0x26>	0
<0x27>	0
<0x28>	0
<0x29>	0
<0x2A>	0
<0x2B>	0
<0x2C>	0
<0x2D>	0
<0x2E>	0
<0x2F>	0
<0x30>	0
<0x31>	0
<0x32>	0
<0x33>	0
<0x34>	0
<0x35>	0
<0x36>	0
<0x37>	0
<0x38>	0
<0x39>	0
<0x3A>	0
<0x3B>	0
<0x3C>	0
<0x3D>	0
<0x3E>	0
<0x3F>	0
<0x40>	0
<0x41>	0
<0x42>	0
<0x43>	0
<0x44>	0
<0x45>	0
<0x46>	0
<0x47>	0
<0x48>	0
<0x49>	0
<0x4A>	0
<0x4B>	0
<0x4C>	0
<0x4D>	0
<0x4E>	0
<0x4F>	0
<0x50>	0
<0x51>	0
<0x52>	0
<0x53>	0
<0x54>	0
<0x55>	0
<0x56>	0
<0x57>	0
<0x58>	0
<0x59>	0
<0x5A>	0
<0x5B>	0
<0x5C>	0
<0x5D>	0
<0x5E>	0
<0x5F>	0
<0x60>	0
<0x61>	0
<0x62>	0
<0x63>	0
<0x64>	0
<0x65>	0
<0x66>	0
<0x67>	0
<0x68>	0
<0x69>	0
<0x6A>	0
<0x6B>	0
<0x6C>	0
<0x6D>	0
<0x6E>	0
<0x6F>	0
<0x70>	0
<0x71>	0
<0x72>	0
<0x73>	0
<0x74>	0
<0x75>	0
<0x76>	0
<0x77>	0
<0x78>	0
<0x79>	0
<0x7A>	0
<0x7B>	0
<0x7C>	0
<0x7D>	0
<0x7E>	0
<0x7F>	0
<0x80>	0
<0x81>	0
<0x82>	0
<0x83>	0
<0x84>	0
<0x85>	0
<0x86>	0
<0x87>	0
<0x88>	0
<0x89>	0
<0x8A>	0
<0x8B>	0
<0x8C>	0
<0x8D>	0
<0x8E>	0
<0x8F>	0
<0x90>	0
<0x91>	0
<0x92>	0
<0x93>	0
<0x94>	0
<0x95>	0
<0x96>	0
<0x97>	0
<0x98>	0
<0x99>	0
<0x9A>	0
<0x9B>	0
<0x9C>	0
<0x9D>	0
<0x9E>	0
<0x9F>	0
<0xA0>	0
<0xA1>	0
<0xA2>	0
<0xA3>	0
<0xA4>	0
<0xA5>	0
<0xA6>	0
<0xA7>	0
<0xA8>	0
<0xA9>	0
<0xAA>	0
<0xAB>	0
<0xAC>	0
<0xAD>	0
<0xAE>	0
<0xAF>	0
<0xB0>	0
<0xB1>	0
<0xB2>	0
<0xB3>	0
<0xB4>	0
<0xB5>	0
<0xB6>	0
<0xB7>	0
<0xB8>	0
<0xB9>	0
<0xBA>	0
<0xBB>	0
<0xBC>	0
<0xBD>	0
<0xBE>	0
<0xBF>	0
<0xC0>	0
<0xC1>	0
<0xC2>	0
<0xC3>	0
<0xC4>	0
<0xC5>	0
<0xC6>	0
<0xC7>	0
<0xC8>	0
<0xC9>	0
<0xCA>	0
<0xCB>	0
<0xCC>	0
<0xCD>	0
<0xCE>	0
<0xCF>	0
<0xD0>	0
<0xD1>	0
<0xD2>	0
<0xD3>	0
<0xD4>	0
<0xD5>	0
<0xD6>	0
<0xD7>	0
<0xD8>	0
<0xD9>	0
<0xDA>	0
<0xDB>	0
<0xDC>	0
<0xDD>	0
<0xDE>	0
<0xDF>	0
<0xE0>	0
<0xE1>	0
<0xE2>	0
<0xE3>	0
<0xE4>	0
<0xE5>	0
<0xE6>	0
<0xE7>	0
<0xE8>	0
<0xE9>	0
<0xEA>	0
<0xEB>	0
<0xEC>	0
<0xED>	0
<0xEE>	0
<0xEF>	0
<0xF0>	0
<0xF1>	0
<0xF2>	0
<0xF3>	0
<0xF4>	0
<0xF5>	0
<0xF6>	0
<0xF7>	0
<0xF8>	0
<0xF9>	0
<0xFA>	0
<0xFB>	0
<0xFC>	0
<0xFD>	0
<0xFE>	0
<0xFF>	0
.	-3.17198
s	-3.31776
:	-3.64025
▁*	-3.72191
,	-3.7692
▁the	-3.99203
t	-4.00667
'	-4.15825
▁a	-4.29323
CHI	-4.44309
▁	-4.4519
▁I	-4.55579
▁to	-4.55624
?	-4.61967
▁you	-4.65876
y	-4.67375
▁and	-4.68296
n	-4.70516
e	-4.72266
ing	-4.7501
ed	-4.78377
▁of	-4.82094
MOT	-4.83995
a	-4.84247
d	-4.8834
▁in	-4.92261
m	-4.98145
▁it	-4.98177
r	-5.10615
re	-5.17247
er	-5.20809
▁that	-5.21474
o	-5.22368
p	-5.23503
▁s	-5.28251
▁[	-5.30275
▁=	-5.32151
]	-5.35961
▁is	-5.43108
▁was	-5.45571
h	-5.51735
l	-5.55834
in	-5.58855
g	-5.59913
ar	-5.60185
▁on	-5.60866
▁he	-5.6089
▁c	-5.66538
▁for	-5.67583
c	-5.67878
i	-5.70568
ll	-5.71126
or	-5.74727
▁A	-5.75457
al	-5.76872
▁f	-5.77164
u	-5.79612
▁be	-5.81929
ly	-5.83143
le	-5.86088
!	-5.86836
▁what	-5.8807
▁-	-5.89038
▁"	-5.89047
▁S	-5.89218
-	-5.89819
▁t	-5.92663
w	-5.94275
on	-5.94495
▁do	-5.96517
k	-5.97605
▁with	-5.98438
ra	-6.00498
▁me	-6.01594
en	-6.02213
▁p	-6.0433
b	-6.05087
ur	-6.06752
▁have	-6.08588
ri	-6.09039
▁B	-6.10477
▁no	-6.12214
▁not	-6.13088
ve	-6.13478
▁g	-6.1526
f	-6.17782
▁b	-6.18982
▁we	-6.1939
▁re	-6.2005
’	-6.21212
ch	-6.2432
▁so	-6.24939
an	-6.28955
▁de	-6.29003
it	-6.30544
▁can	-6.31001
th	-6.31397
▁his	-6.31597
▁this	-6.3171
▁they	-6.31757
▁up	-6.32044
▁one	-6.32497
▁know	-6.33768
▁T	-6.34725
ce	-6.36696
at	-6.36892
ir	-6.3817
ic	-6.38289
▁her	-6.38484
▁at	-6.38656
v	-6.39184
FAT	-6.39505
I	-6.39686
...	-6.40018
es	-6.40767
▁w	-6.40883
▁don	-6.40929
▁The	-6.41419
▁C	-6.41608
▁are	-6.41898
▁go	-6.43345
▁He	-6.43667
▁had	-6.43784
▁st	-6.43939
ro	-6.44207
il	-6.44656
▁she	-6.45302
▁d	-6.46488
▁like	-6.46953
▁all	-6.46964
▁your	-6.47806
▁G	-6.48834
▁there	-6.499
;	-6.5047
ent	-6.51162
ter	-6.51279
▁my	-6.51311
ut	-6.52559
la	-6.52618
▁but	-6.52995
ne	-6.53259
as	-6.54285
▁P	-6.54316
S	-6.54606
▁e	-6.55768
▁an	-6.56132
▁see	-6.5684
▁as	-6.57282
E	-6.5925
▁out	-6.60404
▁from	-6.60647
et	-6.64224
te	-6.64315
ng	-6.65341
se	-6.65881
▁You	-6.65985
un	-6.66006
▁W	-6.66694
▁F	-6.66881
el	-6.68736
ry	-6.69176
O	-6.6948
▁him	-6.6986
li	-6.69991
▁M	-6.70989
▁D	-6.71758
▁get	-6.72057
1	-6.72127
▁said	-6.72338
us	-6.72779
▁some	-6.72818
ad	-6.72875
A	-6.7382
▁'	-6.75826
▁It	-6.76251
▁sec	-6.76445
▁were	-6.7774
▁or	-6.79221
T	-6.83388
2	-6.83714
▁would	-6.8399
▁want	-6.84103
▁just	-6.84431
▁who	-6.84839
▁about	-6.85716
ig	-6.8623
is	-6.86919
▁them	-6.88063
um	-6.88868
z	-6.90143
▁here	-6.91391
▁by	-6.925
▁J	-6.94369
ow	-6.94769
▁xxx	-6.95201
▁E	-6.96328
vi	-6.96704
ct	-6.96995
▁put	-6.97694
ta	-6.98968
▁think	-7.00039
▁did	-7.00401
"	-7.00757
▁if	-7.01028
▁when	-7.01654
▁ch	-7.01755
lo	-7.02064
5	-7.02139
me	-7.02194
▁“	-7.02304
▁ho	-7.03883
ie	-7.0406
pe	-7.04127
▁look	-7.04648
ha	-7.0475
▁po	-7.04889
▁No	-7.04911
▁O	-7.05391
▁co	-7.05914
▁say	-7.05955
▁right	-7.06387
oo	-7.06785
▁little	-7.06942
H	-7.07102
ion	-7.07899
id	-7.07909
im	-7.08184
▁bo	-7.08305
▁got	-7.08393
am	-7.08584
ho	-7.08741
ation	-7.08854
ther	-7.10588
▁oh	-7.10955
▁L	-7.11303
ine	-7.11925
▁n	-7.11927
ol	-7.12401
▁now	-7.12593
▁man	-7.12977
▁back	-7.13102
)	-7.13662
▁time	-7.14588
▁could	-7.15184
▁how	-7.15441
x	-7.15493
▁(	-7.15723
▁where	-7.16072
▁good	-7.16459
7	-7.17332
▁very	-7.1741
N	-7.17486
and	-7.1751
▁over	-7.17707
est	-7.17797
4	-7.1784
▁And	-7.18859
ate	-7.19213
ver	-7.19253
0	-7.19394
▁19	-7.19514
he	-7.20288
▁ma	-7.20291
ive	-7.20426
ge	-7.20661
ul	-7.20876
▁down	-7.2102
ke	-7.21339
▁1	-7.21713
▁What	-7.22005
▁come	-7.22255
6	-7.23404
de	-7.23601
int	-7.23933
INV	-7.23945
▁will	-7.24637
ist	-7.25475
▁off	-7.25671
▁other	-7.26292
▁more	-7.26412
▁going	-7.26843
▁con	-7.27236
8	-7.27312
9	-7.27452
▁H	-7.28164
D	-7.28492
C	-7.28923
ru	-7.29384
▁o	-7.29979
ick	-7.30223
ment	-7.30969
▁mo	-7.31424
▁ex	-7.31569
▁N	-7.31739
hi	-7.32082
▁dis	-7.32128
▁pro	-7.32232
URS	-7.3247
▁lo	-7.32897
age	-7.33036
▁pa	-7.3337
▁us	-7.33651
▁take	-7.34264
▁make	-7.34339
3	-7.34735
,"	-7.34817
▁been	-7.35065
ck	-7.35242
▁mi	-7.35343
▁any	-7.35847
▁two	-7.35945
no	-7.36347
].	-7.36375
▁le	-7.37235
bo	-7.37693
▁K	-7.37797
▁yeah	-7.37943
▁which	-7.38255
."	-7.38298
▁their	-7.38822
▁R	-7.38828
▁r	-7.38871
op	-7.38966
▁ba	-7.40275
up	-7.40659
L	-7.42614
▁has	-7.42956
▁Ma	-7.43217
ff	-7.43783
one	-7.44829
ud	-7.44963
les	-7.45107
ma	-7.45251
▁So	-7.4585
▁i	-7.45895
▁m	-7.46024
▁She	-7.46041
▁yes	-7.46256
▁la	-7.46299
R	-7.46307
mo	-7.4764
▁well	-7.47761
ci	-7.48349
▁then	-7.4846
BRO	-7.48528
▁U	-7.48935
▁We	-7.48961
▁ha	-7.49329
▁gonna	-7.49483
▁car	-7.49734
▁sp	-7.49881
end	-7.50559
to	-7.50781
▁j	-7.51635
▁20	-7.51661
▁2	-7.51968
▁okay	-7.52319
ity	-7.53016
ies	-7.53439
M	-7.53528
▁%	-7.53659
▁into	-7.5416
per	-7.54293
ap	-7.54375
▁boy	-7.54445
▁base	-7.547
▁play	-7.55244
co	-7.55507
▁silver	-7.55519
row	-7.56005
▁people	-7.56541
▁Oh	-7.56613
ant	-7.56953
▁too	-7.57205
ard	-7.5746
▁way	-7.58265
▁But	-7.58614
▁ra	-7.58974
U	-7.59033
▁mean	-7.5932
P	-7.59408
▁th	-7.60627
W	-7.60996
ub	-7.61099
▁di	-7.62336
po	-7.62406
▁tell	-7.62662
▁Do	-7.63014
▁They	-7.63043
▁ro	-7.63043
uck	-7.63537
▁l	-7.63565
Y	-7.63601
B	-7.63812
ful	-7.65129
▁bu	-7.65288
▁un	-7.65712
low	-7.66297
▁k	-7.66321
”	-7.6649
ake	-7.66704
ish	-7.66845
▁work	-7.67012
▁com	-7.67038
ack	-7.67977
▁let	-7.68226
▁sh	-7.68478
▁Chi	-7.68725
▁why	-7.6966
em	-7.69883
▁That	-7.69977
COL	-7.70419
▁again	-7.70506
ca	-7.71048
▁after	-7.71056
j	-7.71111
▁Yeah	-7.71481
▁need	-7.71527
▁day	-7.71815
▁dat	-7.71888
▁ca	-7.72057
ook	-7.73302
▁Co	-7.73424
▁part	-7.73624
▁give	-7.74165
ance	-7.75218
▁black	-7.75254
▁li	-7.75259
ian	-7.75566
ally	-7.75839
▁talk	-7.75939
▁Mommy	-7.76393
▁Mo	-7.76513
--	-7.76888
ble	-7.77356
▁In	-7.78054
▁much	-7.78821
ence	-7.78848
▁hu	-7.8018
▁hear	-7.80313
▁pre	-7.80636
ue	-7.80968
old	-7.81206
▁something	-7.81919
▁hand	-7.82174
▁Eve	-7.82288
▁never	-7.8247
day	-7.82795
add	-7.83254
▁first	-7.83744
ug	-7.8417
side	-7.84274
▁Well	-7.84361
man	-7.84653
▁stick	-7.85143
▁long	-7.8533
▁ask	-7.85696
▁because	-7.86919
▁Mr	-7.87007
▁came	-7.87521
laughs	-7.88222
mi	-7.88261
der	-7.90391
▁turn	-7.90507
▁should	-7.90634
▁read	-7.90802
▁only	-7.9087
ated	-7.91096
▁write	-7.91565
▁made	-7.91717
ia	-7.91851
?"	-7.93627
▁uh	-7.93721
▁big	-7.94301
fe	-7.94363
▁girl	-7.94525
▁name	-7.94838
▁love	-7.9488
▁ball	-7.95441
▁didn	-7.95618
go	-7.95764
ous	-7.95964
▁away	-7.96458
▁even	-7.96476
▁old	-7.96693
▁another	-7.97022
▁great	-7.97447
ward	-7.97685
▁[1	-7.97914
▁home	-7.97971
▁ri	-7.98629
▁than	-7.99198
tion	-7.99367
▁hi	-7.99493
be	-7.99866
▁before	-8.00306
ach	-8.0041
ough	-8.01077
pa	-8.01312
ound	-8.01505
▁these	-8.01742
ton	-8.02214
▁boys	-8.02257
ip	-8.02415
▁help	-8.02682
▁V	-8.03412
▁men	-8.03468
ba	-8.03892
▁things	-8.03984
▁eat	-8.04201
▁There	-8.04381
▁house	-8.04834
for	-8.05133
▁really	-8.05497
▁dog	-8.05584
▁Adam	-8.05834
ture	-8.0628
▁try	-8.06288
F	-8.06394
▁thing	-8.06516
G	-8.06872
▁qu	-8.06912
ction	-8.07157
▁year	-8.07219
▁use	-8.07264
▁thought	-8.0753
▁wand	-8.08243
▁La	-8.08249
▁place	-8.08565
K	-8.08609
▁comp	-8.08748
▁kind	-8.08792
▁wanna	-8.09104
▁This	-8.09279
/	-8.09739
ever	-8.09827
▁new	-8.10241
▁those	-8.10705
able	-8.10852
▁Yes	-8.11499
ni	-8.1184
▁Le	-8.12314
ling	-8.13095
▁Bo	-8.13493
▁went	-8.13598
V	-8.14361
▁doing	-8.14437
▁Ha	-8.14466
▁Mar	-8.1512
ber	-8.1522
▁our	-8.15243
The	-8.15536
▁da	-8.15613
▁sha	-8.15974
light	-8.16512
if	-8.16596
▁sit	-8.17236
▁three	-8.17721
▁start	-8.18451
▁head	-8.18818
SIS	-8.18939
▁does	-8.18966
▁keep	-8.19836
▁must	-8.20701
▁wait	-8.20702
ious	-8.21631
▁every	-8.2171
▁feel	-8.21964
io	-8.22212
▁father	-8.2268
▁happen	-8.22854
▁through	-8.23037
▁paper	-8.24479
▁mother	-8.24719
▁water	-8.24892
▁sw	-8.25285
the	-8.25347
▁How	-8.25671
▁wi	-8.25946
▁always	-8.25997
▁many	-8.26088
▁under	-8.26266
▁most	-8.26922
▁tea	-8.27071
▁Ro	-8.27929
▁show	-8.28272
▁please	-8.28469
lock	-8.28494
!"	-8.29298
▁yellow	-8.2963
▁Pa	-8.29668
▁watch	-8.29827
▁bit	-8.3024
use	-8.30308
ries	-8.30416
com	-8.30433
▁anything	-8.3081
▁around	-8.31415
cu	-8.31855
▁last	-8.3196
du	-8.32167
▁THE	-8.32395
▁live	-8.33086
▁3	-8.33983
▁find	-8.3425
▁magnet	-8.34621
▁thank	-8.34624
▁Mi	-8.34853
▁move	-8.3553
▁night	-8.36057
▁also	-8.36488
amp	-8.37293
vo	-8.37447
▁Hi	-8.37559
land	-8.37954
▁won	-8.38124
▁Re	-8.3831
port	-8.38527
—	-8.39015
▁might	-8.39015
▁alright	-8.39021
huh	-8.39593
▁such	-8.40105
▁found	-8.40114
▁Paul	-8.40622
cause	-8.40831
▁run	-8.40993
▁end	-8.41576
▁high	-8.41618
▁own	-8.4167
▁still	-8.41847
▁nice	-8.42095
ank	-8.42171
_	-8.58821
–	-8.68391
X	-8.70713
Z	-8.93728
*	-8.95218
J	-9.07303
é	-9.10165
Q	-9.23176
$	-9.42858
á	-9.59234
#	-9.72944
=	-9.75132
%	-10.2565
è	-10.4024
í	-10.4349
&	-10.4858
|	-10.6156
(	-10.9852
ó	-11.0875
q	-11.144
+	-11.1876
[	-11.2875
É	-11.2988
ä	-11.2988
}	-11.3805
č	-11.424
­	-11.567
ü	-11.6197
ć	-11.6197
¶	-11.6752
š	-11.8632
°	-12.0116
ö	-12.0116
à	-12.0949
ú	-12.0949
ç	-12.1858
ñ	-12.1858
@	-12.2858
`	-12.2858
â	-12.2858
¡	-12.2858
æ	-12.5219
ô	-12.5219
Î	-12.6648
ś	-12.8314
ß	-12.8314
À	-13.2814
ł	-13.2814
‚	-13.2814
ū	-13.2814
“	-13.6035
ě	-13.6148
å	-13.6148
′	-13.6148
ė	-13.6148
ʊ	-13.6148
ï	-14.1148
ù	-14.1148
¤	-14.1148
Í	-14.1148
Ò	-14.1148
Ö	-14.1148
×	-14.1148
î	-14.1148
œ	-14.1148
ŭ	-14.1148
ˈ	-14.1148
∂	-14.1148
ɐ	-14.1148
ž	-15.1135
^	-15.1136
Š	-15.1137
ø	-15.1138
Á	-15.1139
~	-15.114
ğ	-15.1141
ë	-15.1142
ê	-15.1143
\	-15.1144
{	-15.1145
ã	-15.1146
♪	-15.1147
£	-15.1148
Û	-15.1148
ɫ	-15.1148
₤	-15.1148
ş	-15.1148
ò	-15.1148
÷	-15.1148
ý	-15.1148
ā	-15.1148
ą	-15.1148
Č	-15.1148
đ	-15.1148
ı	-15.1148
ň	-15.1148
ō	-15.1148
ř	-15.1148
Ś	-15.1148
ș	-15.1148
ʋ	-15.1148
†	-15.1148
€	-15.1148
Ú	-15.1148
‘	-15.1148
„	-15.1148
