[PAD]	0
[CLS]	0
[SEP]	0
[UNK]	0
[MASK]	0
<0x00>	0
<0x01>	0
<0x02>	0
<0x03>	0
<0x04>	0
<0x05>	0
<0x06>	0
<0x07>	0
<0x08>	0
<0x09>	0
<0x0A>	0
<0x0B>	0
<0x0C>	0
<0x0D>	0
<0x0E>	0
<0x0F>	0
<0x10>	0
<0x11>	0
<0x12>	0
<0x13>	0
<0x14>	0
<0x15>	0
<0x16>	0
<0x17>	0
<0x18>	0
<0x19>	0
<0x1A>	0
<0x1B>	0
<0x1C>	0
<0x1D>	0
<0x1E>	0
<0x1F>	0
<0x20>	0
<0x21>	0
<0x22>	0
<0x23>	0
<0x24>	0
<0x25>	0
<0x26>	0
<0x27>	0
<0x28>	0
<0x29>	0
<0x2A>	0
<0x2B>	0
<0x2C>	0
<0x2D>	0
<0x2E>	0
<0x2F>	0
<0x30>	0
<0x31>	0
<0x32>	0
<0x33>	0
<0x34>	0
<0x35>	0
<0x36>	0
<0x37>	0
<0x38>	0
<0x39>	0
<0x3A>	0
<0x3B>	0
<0x3C>	0
<0x3D>	0
<0x3E>	0
<0x3F>	0
<0x40>	0
<0x41>	0
<0x42>	0
<0x43>	0
<0x44>	0
<0x45>	0
<0x46>	0
<0x47>	0
<0x48>	0
<0x49>	0
<0x4A>	0
<0x4B>	0
<0x4C>	0
<0x4D>	0
<0x4E>	0
<0x4F>	0
<0x50>	0
<0x51>	0
<0x52>	0
<0x53>	0
<0x54>	0
<0x55>	0
<0x56>	0
<0x57>	0
<0x58>	0
<0x59>	0
<0x5A>	0
<0x5B>	0
<0x5C>	0
<0x5D>	0
<0x5E>	0
<0x5F>	0
<0x60>	0
<0x61>	0
<0x62>	0
<0x63>	0
<0x64>	0
<0x65>	0
<0x66>	0
<0x67>	0
<0x68>	0
<0x69>	0
<0x6A>	0
<0x6B>	0
<0x6C>	0
<0x6D>	0
<0x6E>	0
<0x6F>	0
<0x70>	0
<0x71>	0
<0x72>	0
<0x73>	0
<0x74>	0
<0x75>	0
<0x76>	0
<0x77>	0
<0x78>	0
<0x79>	0
<0x7A>	0
<0x7B>	0
<0x7C>	0
<0x7D>	0
<0x7E>	0
<0x7F>	0
<0x80>	0
<0x81>	0
<0x82>	0
<0x83>	0
<0x84>	0
<0x85>	0
<0x86>	0
<0x87>	0
<0x88>	0
<0x89>	0
<0x8A>	0
<0x8B>	0
<0x8C>	0
<0x8D>	0
<0x8E>	0
<0x8F>	0
<0x90>	0
<0x91>	0
<0x92>	0
<0x93>	0
<0x94>	0
<0x95>	0
<0x96>	0
<0x97>	0
<0x98>	0
<0x99>	0
<0x9A>	0
<0x9B>	0
<0x9C>	0
<0x9D>	0
<0x9E>	0
<0x9F>	0
<0xA0>	0
<0xA1>	0
<0xA2>	0
<0xA3>	0
<0xA4>	0
<0xA5>	0
<0xA6>	0
<0xA7>	0
<0xA8>	0
<0xA9>	0
<0xAA>	0
<0xAB>	0
<0xAC>	0
<0xAD>	0
<0xAE>	0
<0xAF>	0
<0xB0>	0
<0xB1>	0
<0xB2>	0
<0xB3>	0
<0xB4>	0
<0xB5>	0
<0xB6>	0
<0xB7>	0
<0xB8>	0
<0xB9>	0
<0xBA>	0
<0xBB>	0
<0xBC>	0
<0xBD>	0
<0xBE>	0
<0xBF>	0
<0xC0>	0
<0xC1>	0
<0xC2>	0
<0xC3>	0
<0xC4>	0
<0xC5>	0
<0xC6>	0
<0xC7>	0
<0xC8>	0
<0xC9>	0
<0xCA>	0
<0xCB>	0
<0xCC>	0
<0xCD>	0
<0xCE>	0
<0xCF>	0
<0xD0>	0
<0xD1>	0
<0xD2>	0
<0xD3>	0
<0xD4>	0
<0xD5>	0
<0xD6>	0
<0xD7>	0
<0xD8>	0
<0xD9>	0
<0xDA>	0
<0xDB>	0
<0xDC>	0
<0xDD>	0
<0xDE>	0
<0xDF>	0
<0xE0>	0
<0xE1>	0
<0xE2>	0
<0xE3>	0
<0xE4>	0
<0xE5>	0
<0xE6>	0
<0xE7>	0
<0xE8>	0
<0xE9>	0
<0xEA>	0
<0xEB>	0
<0xEC>	0
<0xED>	0
<0xEE>	0
<0xEF>	0
<0xF0>	0
<0xF1>	0
<0xF2>	0
<0xF3>	0
<0xF4>	0
<0xF5>	0
<0xF6>	0
<0xF7>	0
<0xF8>	0
<0xF9>	0
<0xFA>	0
<0xFB>	0
<0xFC>	0
<0xFD>	0
<0xFE>	0
<0xFF>	0
.	-2.84804
:	-3.31104
▁*	-3.37878
,	-3.45271
▁the	-3.67703
'	-3.82283
s	-3.85501
CHI	-4.10008
▁a	-4.23905
▁I	-4.27699
?	-4.29883
▁to	-4.31722
▁and	-4.33766
▁you	-4.3386
▁of	-4.49394
MOT	-4.49676
▁it	-4.64331
▁in	-4.71357
▁that	-4.87111
t	-4.93578
▁=	-4.9779
▁[	-4.97822
]	-5.00048
▁is	-5.12691
▁was	-5.17942
▁on	-5.32373
▁he	-5.42881
▁for	-5.49805
▁-	-5.53901
▁"	-5.54406
▁what	-5.5566
-	-5.56876
!	-5.61479
▁with	-5.65961
▁	-5.69673
▁have	-5.77793
▁not	-5.82311
▁do	-5.87734
ing	-5.89114
▁they	-5.89468
▁be	-5.90213
▁me	-5.91301
ed	-5.93029
▁this	-5.9733
m	-5.97564
▁one	-5.97869
▁his	-5.99636
re	-6.01246
▁we	-6.01327
▁no	-6.02682
▁can	-6.03179
’	-6.03503
▁at	-6.04307
▁her	-6.04746
FAT	-6.05242
▁know	-6.10537
▁had	-6.10823
▁up	-6.11006
▁there	-6.12347
▁she	-6.127
▁your	-6.13019
▁are	-6.1316
▁don	-6.14782
▁as	-6.15289
d	-6.15488
▁all	-6.15711
;	-6.1612
...	-6.16431
▁like	-6.17187
▁my	-6.17439
▁The	-6.18813
▁so	-6.26142
▁from	-6.26298
▁but	-6.2741
▁an	-6.3088
▁'	-6.31614
▁out	-6.3471
▁him	-6.35336
▁It	-6.3625
▁He	-6.37935
▁said	-6.37986
ll	-6.39
▁You	-6.41634
▁get	-6.42342
▁were	-6.45262
▁them	-6.46279
▁go	-6.46419
▁A	-6.48343
▁sec	-6.49565
▁just	-6.50469
▁about	-6.51416
▁some	-6.54361
▁here	-6.54406
▁see	-6.55836
▁by	-6.59685
▁would	-6.59855
▁or	-6.60608
▁xxx	-6.60851
▁put	-6.63341
▁if	-6.66187
▁did	-6.67901
▁when	-6.69551
▁want	-6.70928
▁right	-6.72017
▁little	-6.72583
▁think	-6.72594
▁who	-6.75483
▁oh	-6.76256
▁now	-6.78065
▁where	-6.82733
▁very	-6.8306
▁got	-6.83203
▁how	-6.85152
I	-6.85754
▁back	-6.86072
▁over	-6.86278
▁good	-6.86588
y	-6.87524
▁“	-6.87651
▁What	-6.89571
▁down	-6.896
ve	-6.89605
▁And	-6.8997
▁time	-6.90447
▁then	-6.90872
▁going	-6.90917
▁could	-6.91009
▁more	-6.91527
INV	-6.91581
▁man	-6.92006
▁will	-6.92417
ly	-6.94111
URS	-6.98365
▁come	-6.98944
▁been	-6.99618
▁their	-6.99912
,"	-7.00369
▁B	-7.00665
"	-7.00684
▁two	-7.01596
▁other	-7.01635
n	-7.01755
▁yeah	-7.03594
▁which	-7.0391
."	-7.04197
▁off	-7.05459
▁(	-7.06689
▁No	-7.07017
▁say	-7.07327
▁has	-7.11248
e	-7.12266
▁well	-7.12728
▁make	-7.14393
].	-7.14801
▁gonna	-7.15133
▁too	-7.16048
▁She	-7.16758
▁take	-7.16942
▁okay	-7.17973
▁%	-7.19255
▁yes	-7.19581
▁look	-7.20696
▁We	-7.20724
▁into	-7.20799
▁silver	-7.20905
▁people	-7.22194
▁S	-7.22312
BRO	-7.22418
er	-7.22933
▁boy	-7.23119
▁way	-7.23924
▁Oh	-7.24729
▁But	-7.25069
a	-7.25653
▁They	-7.25949
S	-7.27238
▁base	-7.27289
▁let	-7.31726
▁any	-7.34494
▁why	-7.35308
▁Yeah	-7.37135
▁tell	-7.37309
▁That	-7.37724
COL	-7.39213
▁black	-7.41151
▁Mommy	-7.42041
▁much	-7.44471
▁dat	-7.44947
▁us	-7.47416
▁something	-7.47572
▁de	-7.47887
▁never	-7.48427
▁first	-7.49396
▁Well	-7.49571
)	-7.50694
▁because	-7.52467
▁only	-7.54432
laughs	-7.55272
▁i	-7.56398
▁after	-7.56671
▁made	-7.58151
▁didn	-7.59164
?"	-7.59217
▁In	-7.59342
▁these	-7.60013
▁Chi	-7.61454
▁t	-7.62091
▁away	-7.62278
▁give	-7.62595
▁another	-7.62753
▁So	-7.63061
▁need	-7.63285
▁than	-7.64788
▁mean	-7.64837
▁again	-7.65133
▁boys	-7.65267
▁day	-7.65642
▁came	-7.65882
▁before	-7.65958
in	-7.66498
▁write	-7.67572
▁old	-7.67963
▁things	-7.68099
▁long	-7.68396
--	-7.69434
▁d	-7.70049
▁really	-7.70908
▁There	-7.71417
▁Adam	-7.71501
al	-7.71751
▁home	-7.71986
▁thing	-7.72377
▁men	-7.72428
▁dis	-7.73246
▁big	-7.73655
▁doing	-7.74484
▁wanna	-7.74758
▁should	-7.74892
▁This	-7.74931
r	-7.75344
▁thought	-7.756
int	-7.75972
▁great	-7.76078
▁those	-7.76356
▁Yes	-7.77641
▁went	-7.7831
▁wand	-7.78771
▁stick	-7.79296
▁work	-7.81823
▁uh	-7.82509
▁Eve	-7.83094
▁play	-7.83182
▁three	-7.8337
▁does	-7.83914
add	-7.84385
es	-7.84433
▁house	-7.85066
▁name	-7.85777
▁our	-7.85838
▁help	-7.86872
▁father	-7.8833
▁s	-7.88365
o	-7.88544
SIS	-7.88897
▁many	-7.89142
▁top	-7.89418
▁kind	-7.89903
”	-7.90468
▁water	-7.91286
▁always	-7.9165
▁head	-7.91706
▁must	-7.91975
▁through	-7.92207
▁girl	-7.93938
▁keep	-7.94004
▁o	-7.94692
/	-7.94874
!"	-7.94885
▁love	-7.95092
▁eat	-7.95392
▁mother	-7.95925
▁yellow	-7.96311
▁anything	-7.96505
▁paper	-7.96961
▁around	-7.97137
▁new	-7.97331
▁even	-7.9749
▁place	-7.98171
▁dog	-7.99751
▁last	-7.99836
▁How	-8.00915
▁am	-8.01114
▁please	-8.013
▁also	-8.02146
▁won	-8.02763
▁ball	-8.03419
▁most	-8.03557
▁find	-8.04609
▁alright	-8.04665
▁might	-8.04667
▁Mr	-8.04742
▁such	-8.05744
▁night	-8.05778
▁hand	-8.05928
▁D	-8.06236
▁♪	-8.06391
▁still	-8.07504
▁part	-8.08959
▁THE	-8.09013
▁Paul	-8.09422
▁turn	-8.10001
▁r	-8.104
▁better	-8.11084
▁talk	-8.11106
▁use	-8.11108
▁under	-8.11303
▁else	-8.11984
▁silence	-8.12004
▁If	-8.1216
▁e	-8.12444
▁C	-8.12646
▁doesn	-8.13496
▁nice	-8.13703
▁table	-8.13881
▁wait	-8.14022
▁while	-8.14314
▁’	-8.14489
—	-8.14531
▁school	-8.1477
▁try	-8.16636
▁found	-8.17145
▁done	-8.17171
▁sure	-8.17597
▁own	-8.17981
▁saw	-8.18904
▁!	-8.19603
▁children	-8.19638
▁told	-8.20141
▁read	-8.20495
p	-8.20791
▁hard	-8.213
▁Do	-8.22183
▁thank	-8.22363
▁ever	-8.22592
▁enough	-8.2267
▁called	-8.22879
▁baby	-8.22943
th	-8.23382
▁same	-8.23696
▁together	-8.23722
▁being	-8.23953
▁Fraser	-8.23961
▁next	-8.23962
▁watch	-8.2441
▁feel	-8.24692
▁years	-8.24859
le	-8.25076
▁Mom	-8.25112
1:	-8.25657
▁every	-8.25881
▁family	-8.2605
▁Why	-8.26095
▁Now	-8.26104
the	-8.26754
▁dear	-8.26875
▁E	-8.27658
▁used	-8.27688
se	-8.27932
▁life	-8.28467
The	-8.28791
▁side	-8.28833
▁ask	-8.29078
▁book	-8.29093
▁re	-8.29563
A	-8.29628
▁may	-8.30102
▁magnet	-8.30218
▁Come	-8.30424
▁car	-8.30429
g	-8.30529
▁asked	-8.30659
▁end	-8.31117
D	-8.3123
▁Okay	-8.31508
▁?	-8.31635
▁face	-8.31679
▁sit	-8.3175
▁best	-8.31965
silver	-8.31998
an	-8.32212
▁took	-8.33099
c	-8.33758
▁money	-8.34042
▁My	-8.34472
▁hear	-8.34894
it	-8.35573
l	-8.35621
▁four	-8.35764
▁heard	-8.35793
▁l	-8.35853
▁f	-8.36017
▁morning	-8.36364
▁bit	-8.36393
▁letter	-8.36627
▁course	-8.37253
–	-8.37542
▁bed	-8.38106
▁lot	-8.38294
▁T	-8.38323
▁Mrs	-8.38401
▁Unit	-8.3848
▁P	-8.38666
▁guess	-8.38755
▁known	-8.39025
▁left	-8.39042
▁though	-8.39542
▁1	-8.3996
▁“‘	-8.40256
en	-8.40692
▁world	-8.40871
▁Guy	-8.415
▁show	-8.41974
▁room	-8.42217
i	-8.42309
▁Cromer	-8.42419
▁American	-8.42466
▁talking	-8.4282
▁game	-8.43454
b	-8.43657
▁Jane	-8.43683
▁Then	-8.43956
▁few	-8.43991
▁quite	-8.44006
▁nothing	-8.44012
Possum	-8.44307
▁knew	-8.44625
▁until	-8.44627
▁sorry	-8.45278
▁door	-8.45321
▁open	-8.4538
▁Daddy	-8.45587
▁child	-8.45591
ton	-8.45803
▁leave	-8.46061
▁call	-8.46288
▁n	-8.46473
▁coming	-8.466
▁hm	-8.46697
▁Don	-8.47155
▁huh	-8.47442
▁each	-8.47874
and	-8.48194
em	-8.48287
▁stay	-8.48326
Tilda	-8.49193
▁pretty	-8.49194
▁pencil	-8.49195
▁everything	-8.49198
▁c	-8.4958
▁getting	-8.49704
▁isn	-8.49761
▁seen	-8.49811
T	-8.49861
▁un	-8.49875
▁When	-8.49907
▁young	-8.50072
▁small	-8.50809
▁stop	-8.50891
▁soon	-8.50983
▁died	-8.51019
▁round	-8.51254
▁between	-8.51558
ting	-8.51733
▁wanted	-8.52156
▁‘	-8.52244
▁city	-8.52261
▁All	-8.52334
▁mind	-8.52659
▁without	-8.52666
▁States	-8.52844
You	-8.52898
▁himself	-8.5295
▁M	-8.53131
▁O	-8.53495
▁God	-8.54479
▁high	-8.54868
▁upon	-8.54908
▁age	-8.55308
▁eyes	-8.55367
▁Uh	-8.55757
▁red	-8.56421
▁story	-8.56466
▁fish	-8.56521
▁light	-8.5654
▁looking	-8.56565
▁once	-8.56722
▁question	-8.56886
▁far	-8.56974
▁drink	-8.57305
▁hafta	-8.57546
on	-8.57988
▁tape	-8.58393
la	-8.58404
▁care	-8.5844
▁erm	-8.58482
▁Right	-8.59017
.”	-8.59496
▁half	-8.59749
▁today	-8.59881
▁born	-8.59978
▁says	-8.60126
put	-8.6023
▁start	-8.60373
▁municipality	-8.60493
▁having	-8.60494
▁October	-8.60502
or	-8.60551
he	-8.60642
no	-8.60693
▁different	-8.60767
▁Kitty	-8.61244
▁On	-8.61543
▁mhm	-8.61621
▁maybe	-8.61638
▁fine	-8.62449
▁believe	-8.62559
▁yet	-8.62622
▁coffee	-8.62761
▁minute	-8.62953
▁Thank	-8.63376
▁year	-8.63383
▁F	-8.63513
▁goes	-8.63563
▁piece	-8.64159
▁[1	-8.64237
▁hot	-8.6455
▁run	-8.64611
▁gave	-8.64726
C	-8.64731
▁happened	-8.64827
▁second	-8.64897
▁um	-8.64943
▁real	-8.65098
_	-8.65125
▁gone	-8.65573
▁almost	-8.6593
RIC	-8.66207
▁New	-8.66269
▁ready	-8.66428
▁Tom	-8.66467
u	-8.66623
est	-8.66751
▁move	-8.67059
▁voice	-8.672
▁word	-8.67783
▁brother	-8.68167
▁Are	-8.68322
▁saying	-8.68434
▁set	-8.68436
▁looked	-8.68619
▁bad	-8.68642
▁actually	-8.69095
▁blue	-8.69111
▁remember	-8.69224
▁near	-8.6929
▁Just	-8.69461
▁woman	-8.695
▁making	-8.69513
▁hope	-8.69619
▁yep	-8.69902
▁Can	-8.70177
ers	-8.70178
▁heart	-8.7031
▁fire	-8.70468
▁both	-8.70638
▁Hey	-8.70951
▁chair	-8.71152
▁five	-8.7118
▁milk	-8.71954
M	-8.72105
▁Bro	-8.72221
▁whole	-8.72578
▁along	-8.7263
▁For	-8.72638
▁Let	-8.73217
▁dere	-8.74544
▁against	-8.74561
▁box	-8.74939
▁line	-8.7507
▁b	-8.75155
ir	-8.75247
▁began	-8.75382
▁Ursula	-8.75385
▁white	-8.7539
▁tree	-8.75465
▁France	-8.75587
▁J	-8.75605
k	-8.76036
▁truck	-8.76258
lo	-8.7644
h	-8.76513
▁Your	-8.76801
to	-8.76838
ion	-8.77079
▁hi	-8.77089
is	-8.77527
▁understand	-8.77608
▁Where	-8.77615
you	-8.77849
▁John	-8.7846
▁live	-8.7879
▁means	-8.78861
▁His	-8.78905
▁air	-8.79054
▁town	-8.79103
▁2019	-8.79242
▁goin	-8.79378
▁feet	-8.794
▁G	-8.79609
▁days	-8.79615
▁cut	-8.79835
▁Mot	-8.79932
▁hey	-8.80087
us	-8.80598
▁floor	-8.80726
▁er	-8.80893
▁ten	-8.80944
▁bring	-8.80966
▁later	-8.81222
Oh	-8.81782
ra	-8.82009
▁already	-8.82109
▁lady	-8.82134
And	-8.82276
▁objects	-8.82559
▁Look	-8.82804
▁wouldn	-8.82932
▁hands	-8.82956
▁Switzerland	-8.83511
▁shall	-8.8353
▁playing	-8.83863
▁hold	-8.83967
▁district	-8.83982
▁juice	-8.84456
▁felt	-8.84933
P	-8.85055
ur	-8.85088
▁sometimes	-8.85091
▁party	-8.85167
E	-8.85268
▁Aileen	-8.85417
▁often	-8.85429
▁m	-8.85526
▁spell	-8.85609
2	-8.85853
▁Sarah	-8.85892
▁trying	-8.85985
▁...	-8.86154
▁wrong	-8.86376
▁food	-8.86382
▁YOU	-8.86853
de	-8.86877
▁sound	-8.86963
cause	-8.87208
▁close	-8.87295
▁fall	-8.87388
▁son	-8.87555
▁pick	-8.87628
▁p	-8.88315
▁circle	-8.88832
▁break	-8.89023
▁friend	-8.89105
▁idea	-8.8913
▁Not	-8.8942
▁sort	-8.89706
▁fun	-8.899
▁turned	-8.89931
▁person	-8.90091
▁cup	-8.90224
▁happy	-8.90332
▁mom	-8.90387
▁color	-8.90457
▁fact	-8.9051
▁till	-8.90845
▁September	-8.90847
▁wan	-8.91227
▁mine	-8.91259
ic	-8.9132
▁death	-8.91343
▁Did	-8.91492
▁Go	-8.91734
▁stand	-8.91965
▁since	-8.92892
▁Vaud	-8.92976
▁lived	-8.9313
▁probably	-8.93408
▁point	-8.93635
ar	-8.93658
2:	-8.93674
▁fell	-8.93848
▁dey	-8.93863
▁herself	-8.94471
▁seemed	-8.94614
".	-8.94835
▁kitchen	-8.94966
▁lunch	-8.94966
▁hurt	-8.95186
man	-8.95256
f	-8.955
▁ice	-8.95538
picks	-8.95687
▁W	-8.95786
▁moment	-8.9603
▁cold	-8.96041
▁Good	-8.96094
▁number	-8.96587
▁outside	-8.96604
▁girls	-8.97083
▁department	-8.97099
▁mouth	-8.97115
▁someone	-8.97216
▁front	-8.9764
▁behind	-8.97648
Well	-8.97964
▁ain	-8.98065
▁brought	-8.98183
▁Who	-8.98229
▁To	-8.98822
▁hit	-8.99616
▁job	-8.99914
But	-9.00053
▁commune	-9.00387
▁daddy	-9.00389
▁rest	-9.00571
▁full	-9.00857
▁George	-9.00946
▁pull	-9.01093
▁sleep	-9.01127
▁One	-9.01139
▁beautiful	-9.01414
▁large	-9.01497
▁yourself	-9.01538
▁July	-9.0154
▁Mother	-9.01619
It	-9.01965
▁six	-9.02046
▁lost	-9.02079
▁noise	-9.02315
▁toward	-9.02393
8	-9.02438
▁movie	-9.02814
▁boat	-9.02842
▁Ma	-9.03052
▁gotta	-9.03325
able	-9.03513
ta	-9.03556
▁poor	-9.03694
▁country	-9.0379
▁At	-9.0387
▁makes	-9.04101
▁looks	-9.04269
▁hair	-9.04375
hi	-9.04464
▁wasn	-9.04529
▁guy	-9.04608
born	-9.0461
ness	-9.04636
▁speak	-9.0466
▁R	-9.04801
▁across	-9.05029
▁bear	-9.05131
▁U	-9.05224
ri	-9.05505
▁sir	-9.0602
▁y	-9.06544
B	-9.06742
▁construction	-9.06755
▁matter	-9.06941
▁state	-9.06976
▁walk	-9.07024
▁throw	-9.07083
▁toy	-9.07899
w	-9.08333
R	-9.08373
▁haven	-9.08515
ies	-9.08677
▁words	-9.09267
▁Mm	-9.09303
9	-9.09618
▁short	-9.09657
▁true	-9.09736
▁[2	-9.09749
▁train	-9.09821
4	-9.10043
▁funny	-9.10343
▁L	-9.10434
▁friends	-9.10487
▁As	-9.10731
▁week	-9.10749
▁County	-9.1096
1	-9.11243
▁H	-9.11321
▁started	-9.114
el	-9.1152
▁2	-9.11966
▁member	-9.11982
▁tried	-9.12232
▁cool	-9.12246
",	-9.1235
▁dur	-9.12411
▁guys	-9.13231
▁Garth	-9.13465
▁airplane	-9.1347
▁foot	-9.13492
▁ran	-9.13577
▁pay	-9.13605
▁4	-9.13767
▁times	-9.13923
Chi	-9.14038
▁nut	-9.14153
▁May	-9.14241
▁couldn	-9.14288
▁12	-9.14445
▁buy	-9.14471
▁comes	-9.14959
▁perhaps	-9.15406
▁7	-9.15552
ro	-9.15898
▁deal	-9.15991
▁became	-9.16035
▁Get	-9.162
▁change	-9.16292
▁become	-9.16457
▁ago	-9.16561
▁afraid	-9.16688
▁kept	-9.16705
▁able	-9.16735
ry	-9.17053
▁sugar	-9.17346
▁stuck	-9.17347
▁2019)	-9.17455
What	-9.17672
▁3	-9.17677
▁played	-9.17705
▁war	-9.17739
▁given	-9.17765
▁AND	-9.18013
▁dead	-9.18052
but	-9.18351
▁meet	-9.18663
NA	-9.18939
▁sounds	-9.18949
.7	-9.19173
▁eight	-9.19249
ING	-9.19367
cha	-9.19407
▁Of	-9.19539
takes	-9.19668
ie	-9.19745
▁case	-9.19906
▁page	-9.19949
▁daughter	-9.20022
huh	-9.20234
▁running	-9.20719
▁January	-9.20724
▁nine	-9.20734
▁among	-9.20797
▁Or	-9.21194
▁h	-9.21195
▁green	-9.214
▁myself	-9.21423
ation	-9.21813
5	-9.21856
▁kill	-9.22005
SS	-9.22046
▁alone	-9.2208
▁area	-9.22192
ne	-9.22602
ive	-9.22604
▁ride	-9.22738
▁snow	-9.22772
▁somebody	-9.22787
▁After	-9.22805
Yes	-9.23168
il	-9.23425
ce	-9.23462
▁trunk	-9.23473
▁Papa	-9.23478
▁taking	-9.2351
▁King	-9.23709
▁inside	-9.23753
▁minutes	-9.2383
▁wish	-9.23869
N	-9.2408
▁business	-9.24129
li	-9.24141
▁glad	-9.2419
▁sitting	-9.24233
▁music	-9.24343
O	-9.24759
▁ahead	-9.25182
▁10	-9.25337
▁2020	-9.25375
▁lay	-9.25388
▁April	-9.25626
▁broken	-9.25682
▁clear	-9.26108
▁east	-9.26172
▁careful	-9.26233
z	-9.26309
▁Doubs	-9.26318
▁either	-9.26329
▁writing	-9.26386
▁Hi	-9.26459
6	-9.26693
ist	-9.26772
▁sticks	-9.26853
▁taken	-9.27042
▁politician	-9.27042
▁wife	-9.27059
▁Boy	-9.2709
▁picture	-9.27138
▁trouble	-9.27647
▁V	-9.27687
▁stuff	-9.27773
▁body	-9.27813
▁soft	-9.28414
▁5	-9.28559
▁Ah	-9.28769
▁straight	-9.29055
▁Her	-9.2914
▁rather	-9.29249
▁early	-9.29315
▁wagon	-9.29358
▁draw	-9.29366
tries	-9.29718
▁twenty	-9.29994
▁spoon	-9.29995
▁river	-9.29996
▁send	-9.30475
▁Because	-9.30783
▁ring	-9.30892
▁knock	-9.30991
▁worked	-9.31173
▁bag	-9.31216
ian	-9.31485
▁Maybe	-9.31533
▁finished	-9.31729
▁stood	-9.32267
▁Florence	-9.32267
▁population	-9.32268
▁balls	-9.32282
▁past	-9.3232
▁th	-9.32479
▁nose	-9.32599
▁happen	-9.32687
▁working	-9.32779
▁Have	-9.32878
▁Christmas	-9.33053
▁sent	-9.33075
▁street	-9.33218
mo	-9.33264
ch	-9.33269
um	-9.33276
▁tomorrow	-9.33388
▁die	-9.33452
▁easy	-9.33811
▁Harwood	-9.33812
▁sing	-9.33856
▁Kansas	-9.33908
▁wants	-9.34029
▁hour	-9.34043
We	-9.34153
▁8	-9.34511
▁tired	-9.34649
▁butter	-9.34709
▁strong	-9.35287
▁wind	-9.35317
He	-9.35412
▁reason	-9.35589
▁Here	-9.35632
▁eating	-9.35721
▁touch	-9.35946
G	-9.36048
LL	-9.36079
▁doctor	-9.36229
▁sun	-9.36479
▁thinking	-9.36848
▁several	-9.36974
▁themselves	-9.36974
▁Bourg	-9.36974
▁duck	-9.37143
▁TO	-9.37349
Franc	-9.37391
▁20	-9.3744
▁miss	-9.37589
one	-9.37726
ogne	-9.3778
▁living	-9.3778
▁stool	-9.3778
▁whether	-9.37781
▁With	-9.37827
No	-9.37917
▁ah	-9.37987
3	-9.38323
▁road	-9.38334
▁arm	-9.38568
up	-9.38585
▁President	-9.38598
▁OF	-9.38604
as	-9.38632
,’	-9.3865
▁passed	-9.38772
▁wear	-9.39128
▁K	-9.39287
▁push	-9.39372
Comté	-9.39413
▁cheese	-9.39413
▁hat	-9.39414
▁#	-9.39415
▁jump	-9.39539
▁seems	-9.39951
▁tonight	-9.40019
▁wood	-9.4009
▁blow	-9.40214
▁University	-9.4024
▁Peter	-9.40259
▁Please	-9.40264
na	-9.40568
▁pieces	-9.40612
▁window	-9.40617
▁feeling	-9.40623
▁aren	-9.40752
less	-9.40977
▁trees	-9.41012
▁company	-9.41073
▁listen	-9.4114
▁seem	-9.41516
we	-9.41754
▁An	-9.41889
▁dinner	-9.41913
▁least	-9.41914
Y	-9.41915
▁sick	-9.41924
▁held	-9.4194
▁tail	-9.41977
▁St	-9.42001
▁nuts	-9.42179
▁evening	-9.42244
F	-9.42285
▁fellow	-9.42355
ent	-9.42775
ous	-9.42789
▁uhhuh	-9.42811
▁named	-9.42951
▁By	-9.43044
▁group	-9.43203
▁horse	-9.43212
▁bird	-9.43233
▁See	-9.43585
▁clothes	-9.43629
▁ground	-9.43637
▁gun	-9.43981
▁drop	-9.44029
▁N	-9.44158
ad	-9.44324
▁late	-9.44365
▁Laura	-9.44479
▁usually	-9.44522
▁bite	-9.44706
▁seat	-9.44806
▁standing	-9.44982
▁le	-9.45039
▁Ha	-9.45104
▁summer	-9.45348
L	-9.45377
▁teacher	-9.45419
▁broke	-9.46137
co	-9.462
▁English	-9.46211
▁caught	-9.46227
▁OK	-9.46235
▁tower	-9.46246
▁breakfast	-9.46252
▁fast	-9.46257
▁March	-9.46278
▁song	-9.46683
v	-9.46809
▁seven	-9.47084
▁Some	-9.47202
▁Be	-9.47254
▁co	-9.47361
holds	-9.47384
▁birds	-9.47569
that	-9.47705
▁catch	-9.47783
▁million	-9.47958
▁bottom	-9.48016
▁French	-9.48019
ling	-9.48032
▁busy	-9.48047
▁Jack	-9.48139
▁w	-9.48396
▁finish	-9.48592
),	-9.4862
▁hole	-9.48642
▁fix	-9.48661
▁Jean	-9.48903
▁phone	-9.48981
▁fit	-9.49035
▁former	-9.49127
at	-9.49147
▁sign	-9.49188
▁answer	-9.49222
▁killed	-9.49253
▁capital	-9.49812
▁giving	-9.49841
▁whatever	-9.49934
ant	-9.49992
age	-9.50051
ity	-9.50361
▁order	-9.5055
am	-9.50707
▁television	-9.5073
LDES	-9.50731
▁November	-9.50756
▁forward	-9.50889
▁wonder	-9.51002
▁others	-9.51137
▁lovely	-9.5119
▁spring	-9.51651
▁Town	-9.51657
▁chance	-9.5166
▁Aggie	-9.51661
▁important	-9.51671
▁sweet	-9.51675
▁cream	-9.51706
im	-9.51742
▁tea	-9.51955
▁dogs	-9.52008
te	-9.52306
▁unclear	-9.52652
▁dress	-9.52796
▁warm	-9.53069
et	-9.53187
▁clip	-9.53238
▁land	-9.53282
▁da	-9.53546
▁turtle	-9.53554
▁washer	-9.53651
▁19	-9.53732
▁sat	-9.53888
▁above	-9.54487
▁clock	-9.54782
▁longer	-9.54953
▁g	-9.54962
▁ha	-9.55133
▁problem	-9.55258
▁dark	-9.55439
▁team	-9.55494
▁fly	-9.55528
▁plastic	-9.55531
▁corner	-9.55534
referent	-9.56163
▁hundred	-9.56199
▁health	-9.56313
▁quiet	-9.56321
▁circus	-9.56374
▁middle	-9.56419
▁Hello	-9.56489
▁record	-9.56768
▁laughing	-9.56784
▁mm	-9.57127
▁fair	-9.57186
day	-9.57245
me	-9.57389
▁village	-9.57399
▁supper	-9.57399
▁anybody	-9.57409
▁dad	-9.57618
▁falls	-9.57717
▁less	-9.57835
▁Thanks	-9.57886
▁moved	-9.57926
7	-9.58093
ey	-9.58103
▁wrote	-9.58389
▁Illinois	-9.58394
▁forgot	-9.58463
ate	-9.58609
▁Miss	-9.58697
vi	-9.58848
ley	-9.58867
That	-9.59052
what	-9.59093
▁carry	-9.59147
ish	-9.59191
▁fear	-9.59255
▁sister	-9.59261
ment	-9.5935
▁Urs	-9.594
▁IT	-9.59489
▁forget	-9.59592
▁bath	-9.59711
.6	-9.59768
▁18	-9.59917
0	-9.60024
▁shoot	-9.60039
ful	-9.60182
▁police	-9.60386
▁afternoon	-9.60404
▁fight	-9.60587
▁following	-9.60643
▁whom	-9.60754
▁pen	-9.61283
▁August	-9.61466
▁clean	-9.61471
ma	-9.61545
▁loved	-9.61553
▁Dad	-9.61629
▁anyway	-9.61684
▁form	-9.6177
▁pie	-9.61939
▁report	-9.62016
for	-9.62023
▁star	-9.62049
red	-9.62207
▁k	-9.62242
ha	-9.62288
not	-9.62331
▁series	-9.62451
▁exactly	-9.62466
▁Tripp	-9.62469
▁wonderful	-9.62579
moves	-9.62581
▁meeting	-9.62905
▁date	-9.63276
▁strange	-9.6334
be	-9.63402
▁bar	-9.63454
▁finger	-9.6346
▁birthday	-9.63494
▁everybody	-9.63496
▁bread	-9.63513
▁eggs	-9.63587
▁Sir	-9.63672
▁low	-9.63706
▁building	-9.63815
▁king	-9.63951
▁fellows	-9.64012
▁cat	-9.64277
▁opened	-9.64367
▁places	-9.64369
▁certain	-9.64447
▁IN	-9.64449
▁apple	-9.64503
▁power	-9.64529
▁cried	-9.64545
▁James	-9.64548
▁grew	-9.64557
▁plate	-9.64559
▁December	-9.64575
▁certainly	-9.64651
▁gets	-9.64808
ck	-9.64826
▁kids	-9.65261
▁block	-9.65371
▁service	-9.65595
▁main	-9.65714
▁onto	-9.65731
▁check	-9.65947
▁weeks	-9.66065
ol	-9.66134
ge	-9.66433
places	-9.66437
▁Nick	-9.66582
▁dem	-9.66582
▁ear	-9.66671
▁figure	-9.66708
▁store	-9.66828
▁win	-9.67383
▁cry	-9.67531
▁save	-9.67601
▁basket	-9.67774
▁People	-9.67791
▁Nothing	-9.67811
▁shot	-9.67832
▁self	-9.67856
▁v	-9.6787
▁eye	-9.679
▁flowers	-9.67994
▁crying	-9.68081
do	-9.68117
▁act	-9.68253
▁woods	-9.6838
clock	-9.68534
▁free	-9.68544
▁happens	-9.68593
▁build	-9.68605
▁questions	-9.68684
▁current	-9.68869
▁Sorry	-9.68913
▁June	-9.6893
▁instead	-9.68965
▁lots	-9.68979
▁waiting	-9.69069
▁15	-9.6912
▁cannot	-9.69133
x	-9.69416
▁Indians	-9.69454
▁Me	-9.69469
▁War	-9.69638
U	-9.69654
ia	-9.69731
ul	-9.69744
▁hate	-9.69758
▁magic	-9.69971
▁enjoy	-9.69973
▁winter	-9.69986
▁Really	-9.69993
▁coat	-9.70002
▁reading	-9.70223
▁liked	-9.70524
▁leaves	-9.70595
son	-9.70776
▁6	-9.70862
▁_	-9.70948
▁gold	-9.71086
▁bought	-9.71104
▁decided	-9.71176
po	-9.713
).	-9.71327
▁force	-9.71357
▁hell	-9.71503
H	-9.71613
▁Even	-9.71698
▁legs	-9.71891
house	-9.71892
▁North	-9.71923
▁Man	-9.71955
looking	-9.71964
▁shut	-9.72218
▁sense	-9.72231
▁census	-9.7224
▁stopped	-9.72251
▁written	-9.72254
▁City	-9.72278
▁suddenly	-9.72279
▁recorder	-9.72327
▁shoe	-9.72419
▁pop	-9.7261
▁wash	-9.72726
▁follow	-9.72969
▁cover	-9.72991
▁California	-9.7339
▁worry	-9.7339
▁Jura	-9.73395
▁office	-9.73409
points	-9.73427
▁whispered	-9.73512
ere	-9.73659
▁telling	-9.74052
Nord	-9.74056
▁ma	-9.74126
▁suppose	-9.74339
▁wild	-9.74454
▁pleasure	-9.74553
▁yesterday	-9.74553
▁Sure	-9.74606
▁language	-9.7475
▁cake	-9.74754
▁letters	-9.74759
▁dese	-9.74795
▁works	-9.74935
all	-9.75584
▁football	-9.75656
▁grape	-9.75729
▁honey	-9.75731
▁Grace	-9.75732
▁heavy	-9.75735
▁background	-9.75737
▁support	-9.75739
▁third	-9.75751
▁Great	-9.75751
▁election	-9.75783
▁position	-9.75783
▁sight	-9.75998
▁yours	-9.7614
1.5	-9.76158
▁Re	-9.76336
▁interest	-9.76378
▁cook	-9.76431
tic	-9.76681
▁River	-9.76919
▁church	-9.7692
▁2011	-9.76921
▁sentence	-9.76925
▁climb	-9.76978
▁slowly	-9.76982
▁special	-9.7722
▁using	-9.77283
▁[3	-9.77323
?”	-9.77364
▁23	-9.77626
▁16	-9.77655
▁lives	-9.77766
▁hang	-9.77834
▁thirty	-9.78124
▁bottle	-9.78125
▁human	-9.7813
▁simply	-9.78131
by	-9.78176
▁released	-9.78204
▁appeared	-9.78298
▁Sis	-9.78326
▁month	-9.7844
way	-9.78443
▁State	-9.78482
▁washers	-9.78508
▁within	-9.78563
W	-9.78751
▁pass	-9.78755
▁starts	-9.7898
▁blood	-9.79239
▁except	-9.79327
▁York	-9.79345
▁moving	-9.79378
▁Lord	-9.7939
▁dry	-9.79393
▁blocks	-9.79408
▁metal	-9.79437
▁problems	-9.79585
▁interesting	-9.79634
▁balloon	-9.79654
ens	-9.79725
1.2	-9.79791
▁games	-9.8021
▁hours	-9.80226
▁crack	-9.80254
▁puzzle	-9.80355
▁Minister	-9.80579
▁pocket	-9.80579
▁accident	-9.80581
▁Little	-9.80666
▁quickly	-9.80679
ya	-9.8088
▁actor	-9.81097
▁[.8	-9.81125
▁ye	-9.81127
▁camp	-9.81201
There	-9.81373
▁holding	-9.81418
▁promise	-9.81614
un	-9.81629
of	-9.8167
▁bright	-9.81744
ty	-9.81757
▁Robin	-9.81825
▁vaudois	-9.81828
▁stories	-9.8183
▁Keith	-9.81836
▁Diandra	-9.81839
▁government	-9.8184
▁From	-9.81848
▁video	-9.81914
▁dose	-9.81952
▁asking	-9.82
▁leg	-9.82025
HS	-9.82077
▁character	-9.82226
▁kid	-9.82243
*	-9.82273
▁()	-9.82308
rs	-9.82518
▁cross	-9.82531
▁books	-9.82757
yellow	-9.82758
▁drive	-9.8294
▁oatmeal	-9.83094
▁history	-9.83095
▁David	-9.83097
▁Canada	-9.83097
▁indeed	-9.83101
▁House	-9.8311
▁De	-9.83192
▁nearly	-9.83398
▁itself	-9.83403
▁softly	-9.83416
.9	-9.83607
▁truth	-9.84139
▁Se	-9.84216
▁present	-9.84269
▁stove	-9.84377
▁garden	-9.84396
▁Tell	-9.84522
▁sell	-9.8463
▁turning	-9.84672
men	-9.85233
▁ya	-9.85249
▁magnets	-9.85279
▁couple	-9.85675
▁silly	-9.85675
▁Visit	-9.85675
▁Robert	-9.85676
▁earth	-9.85718
▁supposed	-9.85915
▁followed	-9.85979
▁anyone	-9.8599
▁thousand	-9.86129
time	-9.86372
▁9	-9.86437
▁news	-9.86471
ine	-9.86614
▁25	-9.86642
Home	-9.86648
ho	-9.86701
▁Bill	-9.86807
▁brown	-9.86865
▁general	-9.86895
▁worth	-9.86904
▁button	-9.86933
HV	-9.86996
▁Wait	-9.87002
lthough	-9.87067
▁flat	-9.8708
▁FOR	-9.87097
▁14	-9.87124
▁visit	-9.87165
▁sea	-9.87366
▁region	-9.87494
▁members	-9.87501
▁animal	-9.87532
▁walking	-9.87609
▁stone	-9.87622
id	-9.877
▁arms	-9.87853
sur	-9.88011
▁shoes	-9.8816
▁stupid	-9.88324
▁tapioca	-9.88324
▁common	-9.88325
▁Party	-9.88343
▁reach	-9.88346
▁Take	-9.88368
▁nobody	-9.88375
▁meat	-9.88761
▁30	-9.88791
▁BRO	-9.89075
ard	-9.89322
▁dream	-9.89597
▁Would	-9.89615
▁fruit	-9.89676
▁medicine	-9.89676
▁napkin	-9.89676
▁women	-9.89677
▁joy	-9.89693
▁laugh	-9.89707
▁Very	-9.8972
▁created	-9.89788
ga	-9.89825
▁28	-9.89837
▁joined	-9.89861
▁camera	-9.89867
ach	-9.89932
▁ve	-9.89958
▁brave	-9.89991
▁none	-9.90202
▁president	-9.90204
▁lo	-9.90328
▁San	-9.90446
▁ones	-9.90625
▁north	-9.90959
▁hungry	-9.91051
▁Like	-9.91066
▁takes	-9.91073
▁February	-9.91085
▁orange	-9.91105
▁dropped	-9.91141
▁Joe	-9.91226
They	-9.91233
▁test	-9.91323
▁Stop	-9.9143
▁answered	-9.91452
▁band	-9.91672
▁Indian	-9.9168
ig	-9.91726
▁belong	-9.91825
▁post	-9.91854
clear	-9.91963
V	-9.91967
=	-9.92096
▁spend	-9.92155
▁School	-9.92434
▁attention	-9.92435
▁public	-9.92435
▁South	-9.92437
▁husband	-9.92446
▁Hank	-9.92474
▁return	-9.92532
▁rock	-9.92557
▁soup	-9.92765
▁parents	-9.92814
▁miles	-9.92858
▁happening	-9.9294
if	-9.92945
▁La	-9.93106
▁season	-9.93111
▁u	-9.9313
▁moves	-9.93314
▁months	-9.9348
▁dance	-9.93583
ary	-9.93591
ter	-9.93653
▁quick	-9.93673
▁safe	-9.93691
é	-9.93708
▁Majesty	-9.93843
▁William	-9.93843
▁World	-9.93843
▁crazy	-9.93843
▁hospital	-9.93843
▁possible	-9.93843
▁leaving	-9.93845
▁difference	-9.9385
▁space	-9.93857
▁built	-9.9386
BR	-9.93916
▁type	-9.94
▁talked	-9.94085
ud	-9.94135
")	-9.94164
▁attack	-9.94249
▁la	-9.9449
▁race	-9.94575
▁beside	-9.94729
▁farm	-9.94783
▁17	-9.94824
▁step	-9.94913
paper	-9.94933
Now	-9.94964
▁list	-9.95
▁surprise	-9.95073
▁court	-9.95271
▁Which	-9.95271
▁teeth	-9.95271
▁local	-9.95272
▁Italian	-9.95281
▁trust	-9.95298
▁Two	-9.95303
She	-9.95704
▁expect	-9.96167
▁Er	-9.96408
▁smile	-9.96631
▁cap	-9.96717
▁Clavering	-9.96721
▁example	-9.96721
▁paid	-9.96727
▁replied	-9.96729
▁stage	-9.96753
▁Nation	-9.96772
▁tv	-9.96806
▁Will	-9.96808
▁Mama	-9.96861
▁rate	-9.96901
ARY	-9.97003
bout	-9.97075
▁walked	-9.97378
▁period	-9.97392
land	-9.97446
▁simple	-9.97459
▁horses	-9.97461
pa	-9.97464
▁Mo	-9.97627
so	-9.97627
▁plan	-9.97719
▁ate	-9.97874
song	-9.97877
▁hurry	-9.97903
▁deep	-9.98029
ted	-9.98039
▁proud	-9.98096
▁toys	-9.98164
▁afterwards	-9.98192
▁ought	-9.98193
▁rose	-9.98202
▁doggie	-9.98211
▁carried	-9.98211
ial	-9.98213
▁finally	-9.98231
Then	-9.9834
▁grow	-9.98365
▁meant	-9.98673
▁animals	-9.99073
▁cookie	-9.99076
▁lion	-9.99125
▁24	-9.99265
▁seeing	-9.9928
▁glance	-9.99349
▁WE	-9.99473
▁per	-9.99484
▁ME	-9.99636
▁wide	-9.99645
ow	-9.99657
▁briefcase	-9.99684
▁community	-9.99684
▁swimming	-9.99684
▁beginning	-9.99685
▁Danny	-9.99693
▁grass	-9.99697
▁lake	-9.99701
▁Johnson	-9.99706
▁park	-9.99737
▁lying	-9.99781
▁considered	-9.99787
▁Mark	-9.99825
▁Le	-10.0002
les	-10.003
led	-10.0037
▁[4	-10.0061
▁learn	-10.0065
▁EXP	-10.007
ng	-10.0087
▁doubt	-10.0096
▁include	-10.0101
▁luck	-10.0111
▁mark	-10.0113
▁glass	-10.0119
▁Michael	-10.012
▁throat	-10.012
▁Graham	-10.012
▁market	-10.0121
K	-10.0122
▁baseball	-10.0123
▁cha	-10.013
▁13	-10.0134
os	-10.0139
▁met	-10.0145
▁experience	-10.0161
▁led	-10.018
▁ga	-10.0186
bo	-10.0194
▁term	-10.0221
ca	-10.0223
▁den	-10.0224
%	-10.0239
vo	-10.0243
she	-10.0255
▁lap	-10.0274
▁neither	-10.0274
▁neck	-10.0274
▁level	-10.0274
▁pink	-10.0274
▁station	-10.0275
▁Father	-10.0276
▁loud	-10.0276
▁national	-10.0282
▁received	-10.0284
▁string	-10.0286
▁Dr	-10.0287
xcuse	-10.0353
▁singing	-10.0356
▁lie	-10.0358
▁ng	-10.0362
▁31	-10.0373
▁Bo	-10.0373
▁lead	-10.0384
ure	-10.0389
ED	-10.0395
go	-10.0401
▁needs	-10.0409
▁rough	-10.0428
▁smell	-10.043
▁drew	-10.043
▁Harry	-10.0431
▁British	-10.0431
▁www	-10.0432
▁bigger	-10.0432
▁mo	-10.0434
▁Colin	-10.0436
▁chain	-10.0436
▁Fuck	-10.0436
▁county	-10.0439
▁slide	-10.0442
io	-10.0465
▁card	-10.0465
▁26	-10.0484
▁Gus	-10.0503
▁cos	-10.0507
ba	-10.0512
pull	-10.0531
▁fat	-10.0542
ke	-10.0544
▁wheel	-10.0546
room	-10.0548
▁rich	-10.0553
▁spoke	-10.058
▁Republic	-10.0585
▁system	-10.0589
▁terrible	-10.0589
▁England	-10.0589
▁tongue	-10.0589
▁fresh	-10.0589
▁especially	-10.0589
▁married	-10.059
▁Henry	-10.0591
▁edge	-10.0592
▁Russian	-10.0593
▁everyone	-10.0596
▁perfectly	-10.0599
▁watching	-10.0599
▁tall	-10.0603
ct	-10.0603
▁sad	-10.0636
▁missed	-10.0642
1.3	-10.065
▁pet	-10.0655
▁pro	-10.0665
▁con	-10.0669
Do	-10.0681
per	-10.0689
▁monkey	-10.0695
▁law	-10.0696
ner	-10.0701
▁breath	-10.0702
▁beat	-10.0714
So	-10.0724
▁notice	-10.0729
▁mistake	-10.0745
▁twelve	-10.075
▁2013	-10.075
▁fallen	-10.0757
▁Day	-10.0761
▁spread	-10.0761
▁horseshoe	-10.0763
RE	-10.0771
▁laughed	-10.0782
▁career	-10.0782
ance	-10.0785
▁changed	-10.0803
▁nor	-10.0817
ci	-10.0835
▁2022	-10.0851
▁27	-10.0869
▁spot	-10.0869
▁showed	-10.0891
▁imagine	-10.0892
ny	-10.0896
▁perfect	-10.0903
▁Saturday	-10.0914
▁Lucas	-10.0914
▁smart	-10.0914
▁2016	-10.0914
▁Santa	-10.0916
▁elected	-10.0918
▁shirt	-10.092
▁grown	-10.0926
▁Texas	-10.0927
▁stack	-10.0931
▁flag	-10.0937
▁returned	-10.0946
▁US	-10.0989
RA	-10.0992
▁East	-10.0995
▁picked	-10.1005
▁lift	-10.1036
out	-10.1046
▁pretend	-10.1063
▁lose	-10.1071
▁America	-10.1072
Illustration	-10.108
▁suit	-10.1081
▁chocolate	-10.1081
▁empty	-10.1081
▁situation	-10.1081
▁twice	-10.1081
▁threw	-10.1081
▁political	-10.1081
▁pipe	-10.1081
▁pair	-10.1081
▁spirit	-10.1085
ug	-10.1086
My	-10.1088
▁weren	-10.1091
▁hide	-10.1091
▁gay	-10.1092
very	-10.112
▁share	-10.1128
▁offer	-10.1134
ez	-10.1136
ac	-10.1136
▁board	-10.114
▁pad	-10.1159
ab	-10.116
▁deer	-10.1182
nd	-10.1188
5.	-10.1194
▁handle	-10.1211
black	-10.1216
va	-10.1246
▁[5	-10.1248
▁protect	-10.1249
▁Richard	-10.1249
WOM	-10.125
▁Thomas	-10.125
▁bike	-10.1251
▁treat	-10.1251
▁Gros	-10.1251
▁center	-10.1252
▁grandfather	-10.1252
▁MY	-10.1254
▁First	-10.1254
▁Perhaps	-10.1255
▁committee	-10.1259
ick	-10.1262
▁continued	-10.1268
▁art	-10.1274
▁wipe	-10.1276
▁dare	-10.1279
ally	-10.1281
ka	-10.1285
▁gas	-10.1304
▁wheels	-10.1307
ince	-10.1334
▁charge	-10.1357
▁control	-10.137
attempt	-10.1389
▁arrow	-10.1393
▁key	-10.1397
▁agree	-10.1398
ated	-10.1412
▁Smith	-10.1423
▁beyond	-10.1423
▁prize	-10.1423
▁darling	-10.1423
▁wow	-10.1423
▁Patch	-10.1423
▁fence	-10.1425
▁Listen	-10.1427
▁moon	-10.1428
▁however	-10.1429
▁mud	-10.1429
▁single	-10.1431
▁Aye	-10.1434
▁boots	-10.1435
▁yard	-10.1436
▁allowed	-10.1448
▁higher	-10.1458
ring	-10.1482
▁Z	-10.1498
▁Ta	-10.1506
▁secret	-10.1557
Vaud	-10.1564
▁flower	-10.1572
▁pre	-10.1574
▁paint	-10.1577
▁needed	-10.1579
▁Mar	-10.1581
▁difficult	-10.1586
▁serious	-10.1588
▁Governor	-10.1598
▁THAT	-10.1598
▁diaper	-10.1598
▁worse	-10.1598
▁square	-10.1598
▁Roman	-10.1599
▁shit	-10.16
pe	-10.1605
▁expected	-10.1631
▁points	-10.1662
Don	-10.168
da	-10.1704
▁add	-10.1721
▁West	-10.1743
Mother	-10.1743
▁holds	-10.1751
IL	-10.1755
▁explain	-10.1755
▁begin	-10.1756
sings	-10.1758
▁couch	-10.1773
▁fool	-10.1776
▁Friday	-10.1777
▁choice	-10.1777
▁highchair	-10.1777
▁Queen	-10.1778
▁exclaimed	-10.178
▁excuse	-10.178
▁attempt	-10.1784
▁Jesus	-10.1786
▁master	-10.1786
▁frightened	-10.1787
▁upstairs	-10.1787
▁swing	-10.1795
▁Every	-10.1798
▁whoa	-10.1815
▁mad	-10.1831
▁burn	-10.1835
▁j	-10.1851
▁hall	-10.1853
▁ex	-10.1855
▁mostly	-10.186
▁groups	-10.1864
que	-10.1874
night	-10.1902
▁movies	-10.1906
▁count	-10.1913
!’	-10.1924
▁shop	-10.1925
▁extra	-10.1931
▁Leo	-10.1932
▁jus	-10.1956
▁houses	-10.1957
▁dozen	-10.1958
▁sub	-10.1959
▁cherry	-10.1961
▁ri	-10.1965
▁wake	-10.1966
▁Give	-10.1971
▁Pa	-10.1981
▁bother	-10.1998
▁mess	-10.2008
▁thanks	-10.201
▁cookies	-10.2038
▁believed	-10.2062
▁po	-10.207
ai	-10.2074
overlapp	-10.2085
▁fill	-10.2091
▁appear	-10.2116
▁hadn	-10.2123
▁bang	-10.2124
▁Y	-10.2129
▁wha	-10.213
▁likely	-10.2135
▁natural	-10.2137
▁Empire	-10.2144
▁Gippie	-10.2144
▁pillow	-10.2144
▁Brazil	-10.2144
▁burst	-10.2144
▁teddy	-10.2144
▁director	-10.2145
▁size	-10.2145
▁Poacher	-10.2145
▁album	-10.2145
▁Chief	-10.2146
▁amount	-10.2147
▁taste	-10.2148
▁Sometimes	-10.2149
▁served	-10.2156
▁press	-10.2158
▁About	-10.2163
this	-10.2172
▁Erm	-10.2177
ee	-10.2178
DAN	-10.2181
▁player	-10.2193
▁roll	-10.2237
kay	-10.2243
▁bell	-10.2282
▁drinking	-10.2288
▁noises	-10.2296
▁cow	-10.2302
▁shows	-10.2303
has	-10.2304
▁crayon	-10.231
▁Ba	-10.231
▁German	-10.2322
▁chief	-10.2322
▁Washington	-10.2332
▁regard	-10.2332
▁study	-10.2332
▁2010	-10.2332
▁White	-10.2334
▁Run	-10.2337
▁watched	-10.2338
▁Germany	-10.2343
▁entered	-10.2348
▁fucking	-10.2355
▁hanging	-10.2376
▁cooking	-10.2377
▁south	-10.2397
▁added	-10.2402
ki	-10.2417
▁cause	-10.2417
▁class	-10.243
▁falling	-10.2441
board	-10.245
nce	-10.2455
▁bye	-10.2469
.5	-10.2471
▁wall	-10.2474
ver	-10.2474
Why	-10.2491
my	-10.2498
▁crowd	-10.2504
▁professional	-10.2515
▁awful	-10.2515
▁Lassie	-10.2525
▁THIS	-10.2525
▁monster	-10.2525
▁distance	-10.2525
▁switch	-10.2525
▁spent	-10.2525
▁trip	-10.2525
▁Ukraine	-10.2526
▁quit	-10.2527
▁anywhere	-10.2528
▁Army	-10.253
▁Sue	-10.2532
▁somehow	-10.2533
▁soul	-10.2536
Prime	-10.2536
▁arrested	-10.2538
▁greatest	-10.2546
▁leader	-10.2548
▁apart	-10.2559
ence	-10.2559
▁reached	-10.2563
▁clips	-10.2573
▁te	-10.2573
▁Ed	-10.2595
ET	-10.26
▁join	-10.2615
▁guns	-10.2617
▁helped	-10.2621
.8	-10.2624
ran	-10.2631
▁Bu	-10.2632
▁ch	-10.2633
▁ho	-10.2669
▁starting	-10.2674
IN	-10.2676
▁cost	-10.2679
J	-10.2682
laughing	-10.2687
▁lines	-10.2703
▁chicken	-10.2704
▁pig	-10.2705
▁role	-10.2706
▁bill	-10.2719
▁Dillson	-10.2721
▁cruel	-10.2721
▁Alright	-10.2721
▁information	-10.2721
▁subject	-10.2721
▁favorite	-10.2721
▁ears	-10.2721
▁field	-10.2721
▁shame	-10.2722
▁governor	-10.2722
▁Johnny	-10.2722
▁club	-10.2723
▁Lady	-10.2724
▁CHAPTER	-10.2726
▁tiny	-10.2728
5/	-10.273
▁boot	-10.2732
▁Bye	-10.2747
▁nope	-10.2748
00	-10.2757
▁di	-10.2762
overlap	-10.2777
▁Los	-10.2786
▁terms	-10.2796
au	-10.2803
▁29	-10.2818
▁personal	-10.2819
ical	-10.2831
pi	-10.2866
jo	-10.2873
can	-10.2881
▁nature	-10.2899
▁bark	-10.2909
▁ended	-10.2913
▁Albert	-10.2913
▁sandwich	-10.2916
▁London	-10.2921
▁Oxford	-10.2921
▁conversation	-10.2921
▁dancing	-10.2921
▁prairie	-10.2921
▁response	-10.2921
▁municipalities	-10.2921
▁Humm	-10.2921
▁decision	-10.2921
▁weird	-10.2921
▁Ciscasset	-10.2922
▁queen	-10.2922
▁rubber	-10.2922
▁bank	-10.2924
▁Old	-10.2924
▁hello	-10.2929
▁raised	-10.2933
singing	-10.2935
ung	-10.2938
▁Mary	-10.2939
ti	-10.2939
ip	-10.2959
▁Sun	-10.297
▁dressed	-10.2982
ru	-10.2985
▁Any	-10.2986
▁pain	-10.3008
▁11	-10.3015
▁pulled	-10.3018
▁sleeping	-10.3021
vocalization	-10.309
▁continue	-10.3096
▁honor	-10.3096
pointing	-10.3099
▁kick	-10.3103
In	-10.3107
▁frog	-10.3117
▁pale	-10.312
▁fifty	-10.3125
▁future	-10.3125
▁pleasant	-10.3125
▁lawyer	-10.3125
▁Agent	-10.3125
▁cancer	-10.3125
▁struggle	-10.3125
▁Democratic	-10.3125
▁Jess	-10.3126
▁taught	-10.3126
▁somewhere	-10.3134
▁stars	-10.3135
▁Fine	-10.3137
▁teach	-10.3137
1.1	-10.3139
ged	-10.3141
▁upside	-10.3145
▁caused	-10.3157
▁shape	-10.3161
▁learned	-10.3161
uff	-10.3164
king	-10.3175
▁22	-10.3189
ang	-10.3192
▁action	-10.3197
▁cards	-10.3199
laid	-10.3206
LE	-10.321
▁drawing	-10.3211
▁closed	-10.3216
▁older	-10.3227
▁sharp	-10.3256
ah	-10.3283
▁bus	-10.3298
appropriate	-10.3299
▁film	-10.3308
▁bowl	-10.3309
▁rain	-10.3309
▁brain	-10.3327
▁District	-10.3333
▁Raymond	-10.3333
▁snake	-10.3333
▁fancy	-10.3334
▁Year	-10.3335
▁Could	-10.3336
▁allow	-10.3337
▁hotel	-10.3339
▁fingers	-10.334
▁retired	-10.334
▁Saint	-10.334
▁announced	-10.3341
▁Award	-10.3347
▁skin	-10.3353
▁21	-10.3357
▁sp	-10.3359
▁bowling	-10.3362
▁X	-10.3364
ins	-10.3369
▁Only	-10.3388
uring	-10.3391
▁IS	-10.3394
▁Paris	-10.3415
▁event	-10.3416
▁shoulder	-10.3427
All	-10.3429
▁Was	-10.3476
▁plants	-10.3491
▁peace	-10.3495
▁murder	-10.3496
▁Che	-10.3496
aft	-10.3507
ier	-10.3507
Adam	-10.3512
How	-10.3513
▁wagons	-10.3517
▁pounds	-10.3521
▁respect	-10.3521
op	-10.3521
▁grace	-10.3526
▁egg	-10.3526
▁wh	-10.354
▁fifteen	-10.3543
▁machine	-10.3545
▁scene	-10.3546
▁gift	-10.3546
▁actress	-10.3546
▁cowboy	-10.3546
goes	-10.3548
▁damn	-10.3548
▁queer	-10.3548
▁However	-10.3548
▁Pence	-10.3549
▁partner	-10.3549
▁anymore	-10.3551
▁published	-10.3552
▁officer	-10.3555
▁directed	-10.3557
▁picks	-10.3558
▁Ro	-10.3561
▁fourth	-10.3566
▁pile	-10.3566
▁tone	-10.3593
▁2017	-10.36
▁ill	-10.3606
▁doll	-10.3703
▁owner	-10.3709
wood	-10.3729
▁account	-10.3729
▁Um	-10.3742
▁corn	-10.3746
,--	-10.3752
▁sex	-10.3756
gaa	-10.3759
con	-10.376
▁popular	-10.3763
▁tu	-10.3763
▁History	-10.3763
▁Illustrated	-10.3763
▁dunno	-10.3763
▁evidence	-10.3763
▁province	-10.3763
▁suitcase	-10.3763
▁Missouri	-10.3763
▁Whig	-10.3763
▁roof	-10.3763
▁species	-10.3764
▁2015	-10.3764
▁swim	-10.3764
▁sky	-10.3766
well	-10.3766
▁European	-10.3766
▁tray	-10.3767
▁iron	-10.3767
▁unless	-10.3769
▁Li	-10.3774
▁screaming	-10.3776
▁rug	-10.3776
▁quarter	-10.3778
▁eh	-10.3778
▁lucky	-10.3778
▁storm	-10.378
▁remind	-10.379
▁filled	-10.3795
mon	-10.3804
▁interested	-10.3813
der	-10.3819
▁Aha	-10.3821
▁Al	-10.383
▁wished	-10.3847
ened	-10.3852
▁dreams	-10.3888
X	-10.3947
▁Ben	-10.3957
▁god	-10.3966
▁travel	-10.3983
▁Natalie	-10.3985
▁Trump	-10.3985
▁sposta	-10.3985
▁college	-10.3985
▁tiger	-10.3985
▁joke	-10.3986
▁crime	-10.3986
▁Charles	-10.3986
▁Lucy	-10.3986
▁Larita	-10.3986
▁WHAT	-10.3987
▁major	-10.3987
▁horn	-10.3987
▁Black	-10.3989
▁Tony	-10.3989
line	-10.3991
▁heaven	-10.3991
▁completely	-10.3991
▁asleep	-10.3992
▁names	-10.3995
cu	-10.3999
▁remained	-10.4
sh	-10.4001
▁bow	-10.4001
low	-10.4002
▁lips	-10.4007
▁Does	-10.4013
▁hunting	-10.4013
▁tripp	-10.4015
side	-10.4047
▁fighting	-10.4047
▁Con	-10.4078
▁speaking	-10.4103
▁windows	-10.411
▁oil	-10.4111
▁notes	-10.4117
▁writer	-10.415
▁fishing	-10.4161
ship	-10.4163
▁hunt	-10.4182
ff	-10.419
▁Cos	-10.4194
▁pictures	-10.4194
▁usual	-10.4203
▁hook	-10.4206
▁radio	-10.4213
▁Cooper	-10.4213
▁League	-10.4213
▁Naomi	-10.4213
▁excitement	-10.4213
▁exciting	-10.4213
▁plenty	-10.4213
▁balance	-10.4213
▁professor	-10.4213
▁battle	-10.4213
▁further	-10.4213
▁military	-10.4213
▁ladies	-10.4213
ap	-10.4214
▁alive	-10.4214
▁neat	-10.4214
▁mommy	-10.4214
▁including	-10.4215
▁cast	-10.4215
▁|	-10.4218
▁mate	-10.4219
▁involved	-10.4222
▁Martin	-10.4227
▁arrived	-10.4228
▁magnetic	-10.4229
▁movement	-10.4229
▁official	-10.423
▁needta	-10.4233
▁Time	-10.4234
▁object	-10.4234
▁Co	-10.4236
▁bone	-10.4236
▁lean	-10.4239
▁pour	-10.4241
▁continues	-10.4243
▁sand	-10.4248
▁singer	-10.4256
▁motor	-10.4262
▁smaller	-10.4262
▁double	-10.4264
▁critique	-10.4267
▁begins	-10.4277
▁signed	-10.4281
▁whoops	-10.4286
▁holes	-10.4296
ism	-10.4299
▁Sha	-10.4304
are	-10.4311
▁al	-10.4353
playing	-10.4356
ped	-10.4366
▁fuck	-10.4369
▁[6	-10.4377
▁kiss	-10.4389
▁pitch	-10.4404
▁tears	-10.4404
▁1,	-10.4408
▁calling	-10.4421
▁Vi	-10.4432
▁comma	-10.4445
▁majesty	-10.4445
▁mirror	-10.4445
▁splendid	-10.4445
▁value	-10.4445
▁fault	-10.4445
▁truly	-10.4445
▁Mhm	-10.4445
▁trade	-10.4445
▁text	-10.4445
▁Spain	-10.4446
▁Ooh	-10.4447
▁danger	-10.4448
▁Fairy	-10.4448
▁taperecorder	-10.4449
ni	-10.4452
▁view	-10.4455
▁tickle	-10.4456
▁en	-10.4464
▁Bird	-10.4466
▁Ka	-10.447
▁agreed	-10.4474
▁tied	-10.4479
▁cracker	-10.448
▁covered	-10.45
▁badly	-10.4502
LW	-10.4505
▁brothers	-10.4505
▁carrying	-10.4511
▁flying	-10.4518
▁listening	-10.4524
▁dollars	-10.4525
▁wearing	-10.4526
ward	-10.4532
▁smoke	-10.4532
ized	-10.4552
dy	-10.4563
ye	-10.4576
ster	-10.4576
▁shower	-10.4581
▁creatures	-10.4582
▁cons	-10.4585
▁west	-10.4585
II	-10.4588
▁tie	-10.4617
▁suggest	-10.4625
tor	-10.4652
▁wet	-10.4653
▁concern	-10.4656
min	-10.4661
▁welcome	-10.4661
▁realize	-10.4664
▁India	-10.4673
!”	-10.468
▁comfort	-10.4682
▁uncle	-10.4682
▁pound	-10.4683
▁regular	-10.4683
▁Senate	-10.4683
▁Street	-10.4683
▁minister	-10.4683
▁kidding	-10.4683
▁pony	-10.4684
▁blanket	-10.4684
▁Major	-10.4685
▁2005	-10.4685
▁immediately	-10.4685
▁Think	-10.4685
▁shore	-10.469
▁scared	-10.4694
If	-10.4697
▁China	-10.4698
▁Once	-10.4699
▁counter	-10.47
▁fairy	-10.4709
▁direction	-10.4709
▁placed	-10.4711
▁smiled	-10.4719
mer	-10.472
▁fl	-10.4722
▁offered	-10.4723
▁checked	-10.4744
they	-10.4751
di	-10.4771
don	-10.4772
▁forth	-10.4819
▁remembered	-10.4843
▁wa	-10.4856
▁Ra	-10.487
▁Lu	-10.4884
ON	-10.4887
▁meaning	-10.4912
ise	-10.4914
▁particular	-10.4918
CE	-10.492
▁slight	-10.4921
▁council	-10.4922
ors	-10.4925
▁Patrick	-10.4927
▁fourteen	-10.4927
▁magazine	-10.4927
▁private	-10.4927
▁blame	-10.4927
▁locate	-10.4928
▁Brian	-10.4928
▁somethin	-10.4929
▁Polly	-10.493
▁Watch	-10.4931
▁handsome	-10.4931
▁mi	-10.4932
▁dirty	-10.4936
▁whenever	-10.4938
▁Julie	-10.4939
▁Alan	-10.4941
▁prepared	-10.4942
ER	-10.4943
▁hasn	-10.4944
▁shoulders	-10.4957
▁track	-10.4959
▁drug	-10.4961
▁scissors	-10.4962
▁promised	-10.497
▁More	-10.4976
▁saved	-10.4976
long	-10.4996
▁fashion	-10.5003
ub	-10.5019
▁FE	-10.502
coughs	-10.5024
▁rule	-10.5031
tion	-10.5037
lw	-10.5045
▁thin	-10.506
▁ship	-10.5061
▁shouldn	-10.5068
▁Ca	-10.5082
▁3,	-10.5084
▁sticking	-10.5096
▁nap	-10.5107
▁staying	-10.5137
▁2,	-10.5143
ut	-10.5151
hose	-10.5169
there	-10.517
ay	-10.5176
▁Europe	-10.5176
▁fond	-10.5176
▁Court	-10.5177
▁macaroni	-10.5177
▁scarce	-10.5177
▁similar	-10.5177
▁scratch	-10.5177
▁angry	-10.5177
▁MAY	-10.5177
▁1990	-10.5178
▁title	-10.5178
▁Something	-10.5178
▁education	-10.5178
▁huge	-10.518
▁triangle	-10.518
▁penny	-10.5183
▁replaced	-10.5191
▁roles	-10.5197
▁tha	-10.5199
▁weight	-10.5205
▁("	-10.5212
▁Over	-10.5213
nut	-10.5233
▁Po	-10.5235
like	-10.5245
▁sh	-10.5272
ans	-10.5274
▁marbles	-10.528
was	-10.5294
nother	-10.53
ily	-10.5309
▁kindly	-10.5312
ious	-10.5321
▁non	-10.5341
▁Red	-10.5343
▁2012	-10.535
bel	-10.5361
port	-10.5365
▁Cha	-10.539
ko	-10.5399
When	-10.54
▁doin	-10.5406
▁screw	-10.5408
▁hung	-10.5427
▁El	-10.5432
▁Angeles	-10.5434
▁Macleod	-10.5434
▁beauty	-10.5434
▁driving	-10.5434
▁smooth	-10.5434
▁Julián	-10.5434
▁credit	-10.5434
▁social	-10.5434
▁1995	-10.5434
▁bridge	-10.5434
▁chug	-10.5434
▁newspaper	-10.5435
▁positive	-10.5436
▁Most	-10.5436
▁famous	-10.5437
▁potatoes	-10.5438
▁revolutionary	-10.5438
▁host	-10.5438
▁YOUR	-10.544
▁cage	-10.544
magnet	-10.5442
▁quietly	-10.546
,000	-10.546
▁weak	-10.5462
▁crayons	-10.5465
▁below	-10.5465
▁gate	-10.5467
▁Ho	-10.5467
▁noticed	-10.5469
▁cloth	-10.547
▁burning	-10.5474
▁carefully	-10.5474
old	-10.5477
▁income	-10.5481
▁Dur	-10.5501
lin	-10.5514
▁practice	-10.5523
▁pole	-10.5524
▁copy	-10.5526
Villars	-10.5532
▁tear	-10.5535
▁turns	-10.5554
▁steps	-10.556
chi	-10.5579
lf	-10.5588
▁Ri	-10.5594
Go	-10.561
▁aside	-10.5615
▁gal	-10.5637
▁tip	-10.5642
▁stepp	-10.5643
▁stayed	-10.5647
▁ON	-10.5657
Good	-10.5665
▁plane	-10.5669
▁(19	-10.567
▁feed	-10.5676
ES	-10.5683
▁tight	-10.5687
▁anxious	-10.5687
▁potato	-10.5693
▁slow	-10.5693
▁1994	-10.5697
▁Actually	-10.5697
▁Florida	-10.5697
▁Valentine	-10.5697
▁courage	-10.5697
▁tricycle	-10.5697
▁fought	-10.5697
▁gently	-10.5697
▁planning	-10.5697
▁Tracy	-10.5697
▁choke	-10.5697
▁coach	-10.5697
▁Kong	-10.5697
▁desk	-10.5698
▁bound	-10.5698
▁purple	-10.5699
▁absolutely	-10.5699
▁Life	-10.57
▁obviously	-10.57
▁knife	-10.5702
▁eagerly	-10.5702
▁Seth	-10.5702
▁goodbye	-10.5704
▁centre	-10.5705
bi	-10.5708
AL	-10.5711
uh	-10.5711
▁&	-10.5715
more	-10.5717
▁row	-10.573
▁vi	-10.5735
▁waited	-10.5735
gi	-10.5736
▁surprised	-10.5737
▁bare	-10.5741
▁clearly	-10.5742
her	-10.5745
▁border	-10.5746
▁affair	-10.5748
▁soldier	-10.5748
▁erase	-10.5754
let	-10.5759
▁manner	-10.5765
▁coin	-10.577
▁Christ	-10.5776
▁jumped	-10.5784
lia	-10.5785
▁log	-10.5801
▁cats	-10.5814
▁mass	-10.583
ack	-10.584
ja	-10.5841
ern	-10.5857
▁trick	-10.587
off	-10.5904
▁2018	-10.5915
▁note	-10.5926
pitched	-10.5933
Come	-10.5934
just	-10.5935
bring	-10.5937
▁hero	-10.595
▁original	-10.5959
▁speech	-10.5962
▁ca	-10.5962
ese	-10.5966
▁cheer	-10.5966
▁High	-10.5967
▁advice	-10.5967
▁babaa	-10.5967
▁computer	-10.5967
▁excellent	-10.5967
▁victim	-10.5967
▁RAF	-10.5967
▁weather	-10.5967
▁Duke	-10.5967
▁hammer	-10.5967
▁slipped	-10.5967
▁Cherry	-10.5967
▁formula	-10.5967
▁authority	-10.5968
▁struck	-10.5968
▁Sunday	-10.5968
▁narrow	-10.5968
▁birdie	-10.597
▁length	-10.5971
▁weekend	-10.5973
▁Park	-10.5973
▁statement	-10.5975
▁discovered	-10.5984
▁lower	-10.5986
▁brownie	-10.5996
1.4	-10.5999
▁protest	-10.6001
▁strike	-10.6009
▁breathing	-10.6014
▁message	-10.6025
▁price	-10.6026
chuckles	-10.6026
ak	-10.6042
▁formed	-10.6049
ging	-10.6051
▁ow	-10.6063
loud	-10.6064
pr	-10.6075
▁killing	-10.6078
▁parts	-10.6085
runs	-10.6089
▁remove	-10.6091
▁waste	-10.6096
OR	-10.6096
ake	-10.6109
▁mountain	-10.6109
cat	-10.6127
cr	-10.6133
▁bringing	-10.6135
▁uses	-10.6146
▁sa	-10.6172
▁2014	-10.6203
▁rush	-10.6209
▁search	-10.6215
▁represent	-10.6218
▁wound	-10.6218
softly	-10.6219
▁BE	-10.6232
▁silent	-10.6234
▁normal	-10.6237
▁prove	-10.6241
▁LOVE	-10.6245
▁Scholarship	-10.6245
▁nineteen	-10.6245
▁tinkertoy	-10.6245
▁Palmer	-10.6245
▁relationship	-10.6245
▁Hong	-10.6245
▁shh	-10.6247
▁medal	-10.6247
▁ninety	-10.6247
▁calm	-10.6248
aw	-10.625
▁demand	-10.6251
▁Republican	-10.6253
▁pleased	-10.6256
▁gathered	-10.6259
▁coal	-10.6259
▁related	-10.6261
▁super	-10.6267
▁feeding	-10.6275
▁Jim	-10.6275
▁pan	-10.6294
▁dish	-10.6297
▁rocking	-10.6301
shook	-10.6309
▁project	-10.6309
sighs	-10.631
▁elephant	-10.631
▁plays	-10.6313
gets	-10.6318
▁voices	-10.6326
▁Di	-10.6326
▁fixed	-10.6329
▁21,	-10.6333
▁ba	-10.6348
art	-10.6348
▁Hero	-10.6354
▁lies	-10.6372
▁Ya	-10.6375
▁throwing	-10.6378
bb	-10.6389
▁tin	-10.64
▁wings	-10.6403
hu	-10.6408
pos	-10.6423
▁Car	-10.6427
ex	-10.6429
ron	-10.6431
ever	-10.6432
▁bet	-10.6444
▁chase	-10.6445
note	-10.6455
wa	-10.6466
▁appreciate	-10.6468
▁judge	-10.6477
▁rings	-10.6488
▁delight	-10.6492
▁engine	-10.6496
▁content	-10.6503
hy	-10.6506
▁excited	-10.652
▁sudden	-10.6521
▁stream	-10.6529
▁Phil	-10.653
▁Canadian	-10.6531
▁RLF	-10.6531
▁Uncle	-10.6531
▁dessert	-10.6531
▁dialect	-10.6531
▁bundle	-10.6531
▁Shawn	-10.6531
▁1969	-10.6531
▁broad	-10.6531
▁Clare	-10.6531
▁bathroom	-10.6532
▁surface	-10.6532
▁Death	-10.6532
▁Berta	-10.6532
▁Other	-10.6532
▁Becky	-10.6533
▁guilty	-10.6533
▁loose	-10.6533
▁bump	-10.6535
▁shake	-10.6536
▁glasses	-10.6538
▁wore	-10.6545
turns	-10.6547
▁Another	-10.6548
lic	-10.6558
▁delighted	-10.6558
ler	-10.656
▁design	-10.6562
▁Many	-10.6567
▁plant	-10.6568
Let	-10.6568
Ah	-10.6571
▁lifted	-10.6577
▁growing	-10.6585
▁spending	-10.659
Here	-10.6591
▁colors	-10.6593
▁Bar	-10.6595
▁checking	-10.6606
ger	-10.6622
▁farmer	-10.6625
▁ne	-10.6649
car	-10.6655
▁RE	-10.6656
▁mountains	-10.6672
▁Su	-10.6676
▁Six	-10.6682
light	-10.6684
morrow	-10.6689
▁Dog	-10.6698
▁picking	-10.6702
je	-10.6703
▁greatly	-10.6708
ev	-10.6709
▁Call	-10.671
▁Da	-10.6712
fi	-10.6714
oc	-10.6714
ST	-10.6723
▁Pe	-10.6736
▁UN	-10.677
▁rag	-10.6788
some	-10.6791
▁crawl	-10.6802
▁Stan	-10.6813
▁dirt	-10.6815
▁Jo	-10.6817
ping	-10.6819
▁correct	-10.6824
▁toast	-10.6824
Connor	-10.6825
▁banana	-10.6825
▁century	-10.6825
▁destroy	-10.6825
▁horsie	-10.6825
▁worst	-10.6825
▁journey	-10.6825
▁Prize	-10.6825
▁earlier	-10.6825
▁gimme	-10.6825
▁HAVE	-10.6825
▁2006	-10.6825
▁comin	-10.6825
▁dumb	-10.6826
▁gives	-10.6827
▁buggy	-10.6827
▁biggest	-10.6827
▁match	-10.6828
▁worm	-10.6828
18	-10.6829
▁Before	-10.6829
▁Hold	-10.6831
▁lock	-10.6832
▁mail	-10.6838
▁gain	-10.6839
ix	-10.6844
▁attached	-10.6845
▁heat	-10.6847
▁closer	-10.6852
▁section	-10.6856
▁cr	-10.6856
▁BY	-10.6857
your	-10.687
▁Ann	-10.6871
▁HE	-10.6874
▁tryin	-10.6881
▁pants	-10.6889
amp	-10.689
uch	-10.6898
due	-10.6906
▁Ar	-10.6909
VE	-10.691
▁50	-10.6911
ble	-10.6912
most	-10.6914
ssed	-10.692
▁fork	-10.693
ating	-10.6949
rk	-10.6978
ther	-10.6991
▁heads	-10.6994
▁coo	-10.7005
▁tops	-10.7006
▁Val	-10.702
LY	-10.7023
han	-10.7025
▁Up	-10.7026
▁)	-10.7033
▁LI	-10.7042
reading	-10.7045
▁$	-10.7048
Not	-10.7052
▁bl	-10.7056
▁Grand	-10.7056
▁wi	-10.706
ns	-10.7079
▁Lo	-10.708
ot	-10.7084
▁yo	-10.7085
az	-10.7085
▁knees	-10.7088
This	-10.7096
▁discuss	-10.7098
▁Centr	-10.7101
1.7	-10.7106
▁escape	-10.7106
qui	-10.711
ov	-10.7112
▁pause	-10.7115
▁hurried	-10.7117
▁tire	-10.7118
▁faint	-10.712
▁thick	-10.7125
ANU	-10.7126
▁perform	-10.7127
▁officers	-10.7127
▁Church	-10.7128
▁Department	-10.7128
▁Treaty	-10.7128
▁Uruguay	-10.7128
▁advantage	-10.7128
▁captain	-10.7128
▁condition	-10.7128
▁evil	-10.7128
▁families	-10.7128
▁jolly	-10.7128
▁prevent	-10.7128
▁purpose	-10.7128
▁reckon	-10.7128
▁worried	-10.7128
▁cereal	-10.7128
▁picnic	-10.7128
▁Mexican	-10.7128
▁Green	-10.7128
▁consumption	-10.7128
▁quack	-10.7128
▁Bertha	-10.7128
▁Japanese	-10.7128
▁focus	-10.7128
▁manage	-10.7129
▁drunk	-10.7129
▁2007	-10.713
▁Doctor	-10.713
▁birth	-10.7131
▁downstairs	-10.7131
▁breast	-10.7131
▁bedroom	-10.7132
▁meal	-10.7136
▁Anne	-10.7139
▁particularly	-10.714
▁rise	-10.7143
▁Hu	-10.7156
▁Say	-10.7156
▁barn	-10.7157
▁ARE	-10.7158
play	-10.7158
▁Although	-10.7164
▁army	-10.7167
▁founded	-10.7168
▁included	-10.7171
▁package	-10.7173
▁bend	-10.7182
j	-10.7202
▁km	-10.7205
▁5,	-10.7209
▁cents	-10.7212
▁sw	-10.7218
▁cousin	-10.7222
▁effort	-10.7222
▁missing	-10.7235
▁touching	-10.7237
▁DON	-10.7238
▁st	-10.724
▁imp	-10.7251
▁areas	-10.7253
ite	-10.7256
▁NOT	-10.7257
ably	-10.7262
▁rocks	-10.7291
▁adventures	-10.7301
▁helping	-10.7302
▁faces	-10.7302
17	-10.7333
1.6	-10.7347
ber	-10.7347
▁pe	-10.7359
iz	-10.7368
oh	-10.7374
ass	-10.7385
▁Act	-10.7386
▁Th	-10.7394
▁4,	-10.7405
▁suck	-10.7413
▁Work	-10.7414
▁range	-10.7416
▁serve	-10.7419
▁entire	-10.743
▁Russia	-10.7431
▁Louis	-10.7432
▁grand	-10.7434
▁Council	-10.7437
▁Sam	-10.744
▁Constitution	-10.744
▁Deborah	-10.744
▁Goblin	-10.744
▁Hilda	-10.744
▁Truman	-10.744
▁Wednesday	-10.744
▁bicycle	-10.744
▁glorious	-10.744
▁inspector	-10.744
▁shovel	-10.744
▁university	-10.744
▁International	-10.744
▁ourselves	-10.744
▁merged	-10.744
▁Dream	-10.744
▁delicious	-10.744
▁necessary	-10.744
▁Claus	-10.744
▁opposite	-10.744
▁Monday	-10.7441
▁duty	-10.7441
▁Raff	-10.7441
▁bunny	-10.7441
▁1930	-10.7441
▁2002	-10.7441
▁crutches	-10.7442
▁Hall	-10.7442
▁Cousin	-10.7443
▁chest	-10.7443
▁broom	-10.7443
▁Mike	-10.7445
▁dishes	-10.7446
▁choo	-10.7447
▁disappointed	-10.7448
▁Momma	-10.7448
▁Never	-10.7449
▁manager	-10.7451
▁Earl	-10.7451
▁TV	-10.7451
▁pity	-10.7451
▁repeated	-10.7453
▁disappeared	-10.7457
▁spoken	-10.7458
▁mixed	-10.746
▁generally	-10.7464
▁presently	-10.7464
▁Nat	-10.7465
▁larger	-10.7465
▁NO	-10.7467
▁salt	-10.7468
▁kite	-10.7472
▁sisters	-10.7481
ame	-10.7482
▁whisper	-10.7488
▁goodness	-10.7498
▁learning	-10.7499
▁washed	-10.7518
▁score	-10.752
▁issue	-10.7524
▁patient	-10.7533
▁program	-10.7538
▁result	-10.7545
▁knocked	-10.7554
round	-10.7568
AU	-10.7569
▁Isn	-10.7578
▁training	-10.7586
ARCH	-10.7596
pose	-10.765
▁mid	-10.7655
--"	-10.7671
▁lad	-10.7693
▁utter	-10.7706
▁enter	-10.7708
▁songs	-10.7727
Z	-10.7728
▁Cor	-10.7729
soft	-10.773
ham	-10.7737
▁release	-10.7741
▁ALL	-10.7749
over	-10.7752
▁honest	-10.7753
▁APR	-10.776
▁terror	-10.7762
▁1986	-10.7763
▁1987	-10.7763
▁contact	-10.7763
▁leaf	-10.7763
▁opportunity	-10.7763
Moudon	-10.7763
▁Nyon	-10.7763
▁shining	-10.7763
▁platform	-10.7763
▁carriage	-10.7763
▁2009	-10.7763
▁ugly	-10.7764
BRU	-10.7764
▁production	-10.7764
▁nursery	-10.7764
▁woof	-10.7764
▁Brother	-10.7765
▁grandmother	-10.7765
▁grampa	-10.7765
▁Damn	-10.7765
▁General	-10.7766
▁source	-10.7766
▁Bones	-10.7766
▁tough	-10.7767
▁sold	-10.7769
▁fusses	-10.7769
▁Vice	-10.7769
▁style	-10.7772
mi	-10.7774
▁frogs	-10.7775
▁MAN	-10.7776
▁AN	-10.7777
▁Poor	-10.7784
▁becoming	-10.7785
▁driver	-10.779
▁rushed	-10.7794
▁fairly	-10.7796
▁knee	-10.7806
▁24,	-10.7808
▁Put	-10.7822
▁rustles	-10.7846
▁feathers	-10.7853
gain	-10.7855
▁wondering	-10.7863
An	-10.7872
▁chip	-10.7874
▁plain	-10.7875
▁rabbit	-10.7877
ium	-10.7884
rate	-10.7908
▁paying	-10.7909
▁aw	-10.7925
ze	-10.7966
fe	-10.7968
▁Pro	-10.7975
▁sigh	-10.7987
lan	-10.7988
▁na	-10.8
▁Big	-10.8007
comes	-10.8007
▁doors	-10.8008
bra	-10.802
AN	-10.802
ray	-10.8023
▁prison	-10.8056
field	-10.806
giggles	-10.806
Just	-10.8063
American	-10.8063
where	-10.8065
ator	-10.8067
▁stretch	-10.8069
▁decide	-10.8075
cy	-10.808
▁slip	-10.8082
2.2	-10.8083
▁numbers	-10.8087
▁occasion	-10.8091
▁bless	-10.8092
▁Vagn	-10.8096
▁clever	-10.8096
▁fortune	-10.8096
▁individual	-10.8096
▁laboratory	-10.8096
▁umbrella	-10.8096
▁Booth	-10.8096
▁presence	-10.8096
▁Mexico	-10.8096
▁Freddy	-10.8096
various	-10.8096
▁failure	-10.8096
▁garage	-10.8096
▁2008	-10.8097
▁sleigh	-10.8097
▁odd	-10.8097
▁vast	-10.8097
30	-10.8098
▁airport	-10.8098
▁Lake	-10.8098
▁Whil	-10.8099
▁nu	-10.8099
▁Three	-10.8099
▁Markus	-10.81
▁Italy	-10.8101
▁Laugh	-10.8102
▁alphabet	-10.8104
▁apparently	-10.8106
▁dull	-10.8108
▁Try	-10.8108
▁Book	-10.8111
▁ble	-10.8113
▁hoping	-10.812
▁yelling	-10.8121
▁feels	-10.8132
▁concerned	-10.8134
▁earn	-10.8134
▁appropriate	-10.8141
▁grave	-10.8145
▁burned	-10.8147
▁Love	-10.8147
▁nearer	-10.8157
▁leading	-10.8162
▁easter	-10.8166
ain	-10.8173
ville	-10.8175
▁useful	-10.8177
▁pitched	-10.8178
▁Move	-10.8178
▁bi	-10.8186
▁item	-10.8192
▁total	-10.8192
▁em	-10.8197
▁writes	-10.8202
▁referr	-10.8202
▁Les	-10.8209
mor	-10.8211
▁pushing	-10.8212
how	-10.8214
▁vote	-10.8219
▁benefit	-10.8222
shed	-10.8225
ations	-10.8234
head	-10.8235
qua	-10.8247
▁gu	-10.8253
▁mill	-10.8257
ime	-10.8274
1.8	-10.8283
▁40	-10.8302
▁su	-10.8312
gue	-10.8332
reache	-10.8353
cuse	-10.8356
▁sides	-10.8366
Are	-10.8372
Of	-10.8376
▁hill	-10.839
Thank	-10.8407
means	-10.8409
continues	-10.8409
boat	-10.8409
▁budget	-10.8412
▁swallow	-10.8413
▁spill	-10.8414
▁address	-10.8414
▁dump	-10.842
▁INV	-10.842
rely	-10.8423
with	-10.8426
▁raise	-10.8429
▁instant	-10.8431
▁nurse	-10.8432
▁revolution	-10.844
▁favor	-10.8441
▁Catholic	-10.8441
▁Government	-10.8441
▁Louisiana	-10.8441
▁Picture	-10.8441
▁Sharston	-10.8441
▁Spanish	-10.8441
▁WITH	-10.8441
▁bodies	-10.8441
▁colour	-10.8441
▁disease	-10.8441
▁impossible	-10.8441
▁miserable	-10.8441
▁negative	-10.8441
▁puppy	-10.8441
▁ridiculous	-10.8441
▁sprang	-10.8441
▁stomach	-10.8441
▁suburb	-10.8441
▁turkey	-10.8441
▁vehicle	-10.8441
▁Crimea	-10.8441
▁Douglas	-10.8441
▁butterfly	-10.8441
▁wastebasket	-10.8441
▁Ryan	-10.8441
▁jelly	-10.8441
▁Besides	-10.8441
▁drove	-10.8441
▁planned	-10.8441
▁Elizabeth	-10.8441
▁performance	-10.8441
▁dude	-10.8442
▁session	-10.8442
▁expression	-10.8442
▁conductor	-10.8443
▁traffic	-10.8443
▁understood	-10.8443
▁gentlemen	-10.8443
▁Charlie	-10.8444
▁BUT	-10.8445
▁Last	-10.8445
▁Wow	-10.8445
▁reward	-10.8445
▁Make	-10.8446
▁winning	-10.8446
▁alarm	-10.8447
▁smiling	-10.8448
▁Shut	-10.8448
▁Jones	-10.8448
▁central	-10.845
▁telephone	-10.845
▁MR	-10.8453
▁dust	-10.8453
▁rod	-10.8453
▁affected	-10.8454
▁pine	-10.8456
▁produced	-10.8457
▁DO	-10.8462
▁Mor	-10.8462
▁mentioned	-10.8462
▁whining	-10.8463
▁assistant	-10.8465
▁path	-10.8466
▁managed	-10.847
▁suffering	-10.8471
▁events	-10.8472
▁2019.	-10.8477
▁loss	-10.8477
▁candy	-10.8479
▁onion	-10.8481
▁eaten	-10.8482
▁bug	-10.8484
▁drawn	-10.8484
▁mus	-10.8502
▁apt	-10.8518
▁tomato	-10.8521
Be	-10.8544
▁recognize	-10.8551
▁sl	-10.8556
▁Jan	-10.8561
▁talks	-10.8565
▁forty	-10.8572
lt	-10.8585
ju	-10.8593
▁Tri	-10.8593
ana	-10.8598
▁Bob	-10.8598
uck	-10.86
▁refer	-10.8602
▁sta	-10.8603
▁16,	-10.8633
▁pa	-10.8635
▁2003	-10.8662
▁SO	-10.8663
▁cars	-10.8673
▁Fort	-10.868
12	-10.8684
▁6,	-10.8689
▁Chris	-10.8691
▁Fe	-10.8693
▁Sh	-10.8694
▁sum	-10.8705
▁unit	-10.8707
▁mothers	-10.8715
▁suffer	-10.8743
two	-10.8753
▁fuss	-10.8754
begins	-10.8764
writing	-10.8764
Where	-10.8765
baby	-10.8766
throw	-10.8766
cries	-10.8766
▁x	-10.8767
▁limit	-10.8771
▁guard	-10.8775
▁respond	-10.8777
▁fur	-10.8778
▁Sa	-10.8783
▁hearing	-10.8788
year	-10.8789
▁figures	-10.879
IT	-10.8797
▁Madam	-10.8797
▁Scott	-10.8797
▁ski	-10.8797
▁specific	-10.8798
▁final	-10.8798
▁1968	-10.8798
▁Congress	-10.8798
▁Contreras	-10.8798
▁Keep	-10.8798
▁client	-10.8798
▁companies	-10.8798
▁enemy	-10.8798
▁mistress	-10.8798
▁motorcycle	-10.8798
▁amazing	-10.8798
▁daisy	-10.8798
▁funeral	-10.8798
▁error	-10.8798
▁fiction	-10.8798
▁powder	-10.8798
▁Jenny	-10.8798
▁Health	-10.8798
▁knowledge	-10.8798
▁rattle	-10.8798
▁intonation	-10.8798
▁Andrew	-10.8798
▁property	-10.8798
▁countries	-10.8798
▁Hmm	-10.8798
▁Bush	-10.8799
incorporated	-10.8799
▁blast	-10.8799
▁appearance	-10.8799
▁command	-10.8799
▁damage	-10.8799
▁peel	-10.8799
▁roar	-10.8799
▁compete	-10.88
▁theatre	-10.8801
▁Norma	-10.8801
even	-10.8802
▁recently	-10.8803
▁version	-10.8803
▁uhoh	-10.8803
▁cabin	-10.8803
▁Yep	-10.8803
▁ooh	-10.8803
26	-10.8804
▁Next	-10.8804
▁declared	-10.8805
▁Stay	-10.8805
▁Nobody	-10.8807
▁awarded	-10.881
▁risk	-10.8811
▁Whatever	-10.8811
▁firm	-10.8811
▁highest	-10.8816
▁parties	-10.8817
▁behave	-10.8819
▁wee	-10.8819
▁flash	-10.8819
▁sha	-10.882
▁sheet	-10.8822
▁western	-10.8832
▁boxes	-10.8833
21	-10.8836
lung	-10.8839
▁hay	-10.8839
▁kissed	-10.884
▁forever	-10.8851
▁rolling	-10.8852
▁forgive	-10.8854
▁eighty	-10.8855
▁ole	-10.8855
▁anti	-10.8856
ek	-10.8871
▁younger	-10.8878
gu	-10.8879
▁passing	-10.8882
hn	-10.8886
▁bin	-10.889
▁organisations	-10.889
▁11,	-10.8895
▁wondered	-10.8905
ati	-10.8913
▁2021	-10.8929
ash	-10.8933
▁sending	-10.8935
▁click	-10.8938
To	-10.8938
end	-10.8943
▁peanut	-10.895
▁effect	-10.8951
▁Island	-10.8953
▁creature	-10.8956
▁sport	-10.8957
▁chop	-10.8958
NE	-10.8959
▁Air	-10.8965
▁gri	-10.8972
uk	-10.8976
▁clunk	-10.8977
wi	-10.8981
▁comp	-10.8982
du	-10.8985
▁hated	-10.8994
US	-10.9006
▁clicks	-10.9012
▁papers	-10.9043
▁issues	-10.9045
▁1970	-10.9055
who	-10.906
▁mile	-10.906
zo	-10.9063
▁pot	-10.9067
▁equal	-10.9073
▁snap	-10.908
ying	-10.9092
blue	-10.9135
Jim	-10.9136
strange	-10.9136
tape	-10.9137
back	-10.9139
▁steal	-10.914
▁accept	-10.9141
▁Prince	-10.9141
▁repeat	-10.9151
▁willing	-10.916
boy	-10.9161
í	-10.9164
▁gentle	-10.9167
▁express	-10.9167
▁SCROOGE	-10.9168
▁strength	-10.9168
▁1992	-10.9168
▁Joseph	-10.9168
▁babies	-10.9168
▁campaign	-10.9168
▁didldow	-10.9168
▁exercise	-10.9168
▁female	-10.9168
▁horrid	-10.9168
▁kangaroo	-10.9168
▁possibly	-10.9168
▁shawl	-10.9168
▁Russo	-10.9168
▁Spring	-10.9168
▁deaf	-10.9168
▁clown	-10.9168
▁Weener	-10.9169
▁ashamed	-10.9169
▁Boston	-10.9169
▁firetruck	-10.9169
▁Everything	-10.9169
▁etc	-10.9169
▁kitty	-10.9169
▁1960	-10.9169
▁windmill	-10.9169
▁utterance	-10.9169
▁Long	-10.9169
▁thou	-10.9169
▁easier	-10.9169
▁laughter	-10.917
▁cities	-10.917
▁comfortable	-10.917
▁Peru	-10.917
▁farther	-10.9171
▁appointed	-10.9171
▁2000	-10.9171
▁stem	-10.9171
▁Japan	-10.9171
▁experiment	-10.9172
CLE	-10.9172
▁trial	-10.9172
▁accus	-10.9172
▁Nice	-10.9173
▁speed	-10.9173
▁DAY	-10.9174
▁decent	-10.9174
▁dying	-10.9174
▁OUT	-10.9175
▁therefore	-10.9175
▁dangerous	-10.9176
▁rope	-10.9177
▁desert	-10.9181
▁hiding	-10.9183
19	-10.9183
▁rising	-10.9183
▁mock	-10.9184
▁Am	-10.9184
▁Ohio	-10.9185
▁firmly	-10.9187
▁nk	-10.9187
▁fires	-10.9193
▁CO	-10.9195
▁Wha	-10.9196
▁forgotten	-10.9203
▁assure	-10.9208
tty	-10.9212
ines	-10.9222
▁cur	-10.9222
stack	-10.9223
▁git	-10.9228
run	-10.923
ons	-10.9248
stern	-10.9257
▁100	-10.926
▁acting	-10.9267
▁vegetables	-10.9272
▁Pi	-10.9285
looks	-10.9289
▁holidays	-10.9289
▁roads	-10.929
washer	-10.9301
ible	-10.9302
hoo	-10.9304
▁Star	-10.9317
▁joint	-10.9321
▁14,	-10.9325
ery	-10.933
▁ghost	-10.9332
▁weapon	-10.9333
▁pool	-10.9333
▁plans	-10.9335
▁ribbon	-10.9335
▁tribe	-10.9335
▁adventure	-10.9337
ball	-10.9339
TA	-10.9351
▁household	-10.9367
▁Maria	-10.9369
▁calls	-10.9378
▁breaking	-10.9384
15	-10.9391
▁canal	-10.9392
▁29,	-10.9399
▁cough	-10.9403
ou	-10.9404
▁fo	-10.9405
ros	-10.9421
rd	-10.9429
▁characters	-10.9435
▁sheep	-10.9437
vin	-10.9446
oo	-10.9468
50	-10.9468
ook	-10.9473
▁Cr	-10.9474
▁consider	-10.9495
▁lights	-10.9498
▁7,	-10.9499
▁inter	-10.9508
▁20,	-10.9509
▁wing	-10.9514
▁deliver	-10.9515
plastic	-10.9519
critique	-10.952
▁fed	-10.9523
▁arrest	-10.9526
holding	-10.953
star	-10.953
writes	-10.9533
▁complete	-10.9537
▁grateful	-10.9543
▁previous	-10.9543
▁cheap	-10.9545
▁Turn	-10.9545
▁Aylmer	-10.9553
▁Captain	-10.9553
▁Fuzhou	-10.9553
▁JUST	-10.9553
▁Leavenworth	-10.9553
▁Oklahoma	-10.9553
▁Special	-10.9553
▁activity	-10.9553
▁clef	-10.9553
▁energy	-10.9553
▁hamburger	-10.9553
▁increase	-10.9553
▁Deputy	-10.9553
▁crush	-10.9553
▁seventeen	-10.9553
▁volume	-10.9553
▁wicked	-10.9553
▁Chinese	-10.9553
▁Film	-10.9553
TTLE	-10.9553
▁bomb	-10.9553
▁compound	-10.9553
▁limb	-10.9553
▁Latin	-10.9553
▁Remember	-10.9553
▁sixteen	-10.9553
▁2023	-10.9553
▁Secretary	-10.9554
▁gray	-10.9554
▁Ireland	-10.9554
▁Cool	-10.9554
kin	-10.9554
▁Christian	-10.9554
▁vice	-10.9555
▁leap	-10.9555
▁flew	-10.9555
▁harm	-10.9556
▁properly	-10.9556
▁otherwise	-10.9557
▁Marion	-10.9557
▁development	-10.9558
Cause	-10.9558
▁drama	-10.9558
▁Snow	-10.9559
▁THERE	-10.9561
bye	-10.9561
▁tender	-10.9562
▁delivery	-10.9564
▁rode	-10.9564
▁Cup	-10.9564
▁male	-10.9565
▁fireplace	-10.9565
▁active	-10.9565
▁passes	-10.9567
▁shouted	-10.9569
▁comic	-10.9572
▁loudly	-10.9578
▁invited	-10.9579
▁Billy	-10.9584
remove	-10.9589
▁mayor	-10.9594
▁walls	-10.9597
Mr	-10.9607
tu	-10.9608
ky	-10.9611
▁pages	-10.9614
▁Shit	-10.9616
▁beds	-10.962
▁va	-10.962
stands	-10.9623
▁organis	-10.9628
ets	-10.9631
▁ok	-10.9631
▁folks	-10.9635
▁friendly	-10.964
▁gh	-10.9644
fully	-10.9655
▁cheeks	-10.9661
▁site	-10.9664
▁ro	-10.9666
▁ry	-10.9675
▁touched	-10.9688
▁author	-10.9701
▁AS	-10.9706
▁Kar	-10.9709
ok	-10.9721
▁bou	-10.9724
▁degree	-10.973
▁material	-10.973
self	-10.9732
▁doughnut	-10.9735
▁tool	-10.9742
▁comment	-10.9743
▁besides	-10.9751
▁pea	-10.9755
▁dive	-10.9756
ini	-10.9759
▁hop	-10.9762
▁23,	-10.9763
posed	-10.9767
▁ham	-10.9769
tally	-10.9776
▁op	-10.9778
OW	-10.9813
ef	-10.985
▁streets	-10.9858
going	-10.986
▁rid	-10.9864
rap	-10.987
work	-10.9882
▁ra	-10.9891
▁jobs	-10.9893
▁opening	-10.9902
lar	-10.9905
cient	-10.9911
coming	-10.9912
when	-10.9919
ROB	-10.992
▁fold	-10.9922
still	-10.9924
▁[7	-10.9928
phone	-10.993
▁advance	-10.9931
▁whistle	-10.9933
▁Gi	-10.9933
2.5	-10.9934
▁settle	-10.9935
▁32	-10.9941
▁process	-10.9942
▁interrupt	-10.9942
tter	-10.9944
Can	-10.9945
▁pray	-10.9946
▁eleven	-10.995
▁flow	-10.9951
▁conduct	-10.9951
▁attend	-10.9952
▁Dutch	-10.9952
+	-10.9953
▁1972	-10.9953
▁LOOK	-10.9953
▁Melissa	-10.9953
▁Minley	-10.9953
▁Taiwan	-10.9953
▁Tokyo	-10.9953
▁anniversary	-10.9953
▁conference	-10.9953
▁opinion	-10.9953
▁pizza	-10.9953
▁science	-10.9953
▁telegram	-10.9953
▁Kingdom	-10.9953
▁afford	-10.9953
▁Kelly	-10.9953
▁Square	-10.9953
▁international	-10.9953
▁organization	-10.9953
▁cotton	-10.9953
▁appeal	-10.9953
▁bench	-10.9953
▁basically	-10.9953
▁guide	-10.9953
mcee	-10.9953
▁staff	-10.9953
▁Wind	-10.9953
▁request	-10.9954
▁Bozo	-10.9954
▁Series	-10.9954
▁Police	-10.9954
▁woke	-10.9954
▁Southern	-10.9954
▁Dude	-10.9954
▁daily	-10.9954
▁Leland	-10.9954
▁unknown	-10.9954
▁Philip	-10.9955
▁According	-10.9955
▁pride	-10.9956
stein	-10.9956
▁flight	-10.9956
▁Still	-10.9958
▁producer	-10.9959
▁upset	-10.9959
▁attract	-10.9959
▁Everyone	-10.996
▁sake	-10.996
▁bass	-10.9962
▁stock	-10.9963
▁intended	-10.9966
▁seal	-10.9968
▁officially	-10.9971
▁model	-10.9972
▁CAN	-10.9972
▁Dear	-10.9976
talks	-10.9978
▁failed	-10.9979
▁banks	-10.9979
▁wildly	-10.9987
Ha	-11
3.4	-11.0006
▁Han	-11.0007
▁Mu	-11.0026
bell	-11.0029
▁laughs	-11.003
▁attacked	-11.0031
▁17,	-11.006
▁recording	-11.0071
▁plum	-11.0073
ments	-11.0073
ctor	-11.0075
▁ding	-11.0078
▁listened	-11.0087
act	-11.0089
▁remain	-11.0093
▁propose	-11.0096
▁chin	-11.0101
▁Georgia	-11.0104
DIA	-11.0111
▁closet	-11.0125
▁sin	-11.0146
27	-11.0146
▁nail	-11.015
▁squirrel	-11.015
3.5	-11.0154
▁clatter	-11.0155
▁artist	-11.0163
▁Easter	-11.0171
TH	-11.0175
▁tests	-11.0182
▁oops	-11.0192
ction	-11.0195
oop	-11.0196
▁map	-11.0198
▁homes	-11.0206
gged	-11.0213
▁tumble	-11.0218
▁keeper	-11.0245
▁Author	-11.025
▁forest	-11.0264
▁Tho	-11.0267
▁mis	-11.0282
PA	-11.0296
▁Ken	-11.0299
oon	-11.031
▁SIS	-11.0317
▁bo	-11.0318
END	-11.0319
▁ol	-11.0321
gen	-11.0326
too	-11.0329
singsong	-11.0335
Brown	-11.0335
horseshoe	-11.0336
silence	-11.0336
from	-11.0336
EXP	-11.0337
▁collect	-11.034
▁wine	-11.0341
▁refuse	-11.0342
▁crash	-11.0342
▁claim	-11.0342
▁fail	-11.0343
▁Ki	-11.0346
▁provide	-11.0348
▁Far	-11.0357
▁custom	-11.0361
▁stores	-11.0363
▁1993	-11.037
▁APHRODUCKY	-11.037
▁Edition	-11.037
▁Malenda	-11.037
▁STORY	-11.037
▁diamond	-11.037
▁easily	-11.037
▁nervous	-11.037
▁pattern	-11.037
▁principle	-11.037
▁sponge	-11.037
▁studies	-11.037
▁parrot	-11.037
▁resources	-11.037
▁swingswing	-11.037
▁altogether	-11.037
▁channel	-11.037
▁neighborhood	-11.037
▁Susan	-11.037
▁Pacific	-11.037
▁1981	-11.037
▁float	-11.037
▁pork	-11.037
▁midnight	-11.037
▁relief	-11.037
▁Hunt	-11.037
▁boyfriend	-11.0371
▁northern	-11.0371
▁Betty	-11.0371
▁Corey	-11.0371
▁gettin	-11.0371
▁insurance	-11.0371
cent	-11.0371
▁Chair	-11.0371
▁function	-11.0371
▁discover	-11.0371
▁foolish	-11.0371
▁Daniel	-11.0372
▁discussion	-11.0372
▁occasionally	-11.0372
▁Bobby	-11.0373
▁rapidly	-11.0373
▁Out	-11.0373
▁Children	-11.0373
▁José	-11.0373
▁Tommy	-11.0374
▁Someone	-11.0374
▁shade	-11.0375
AT	-11.0375
▁Today	-11.0375
▁yup	-11.0376
▁eraser	-11.0377
▁Seven	-11.0379
▁Loring	-11.0379
▁Club	-11.038
▁hurts	-11.0386
▁slightly	-11.0387
▁OH	-11.0387
▁ability	-11.0391
Your	-11.0391
▁awfully	-11.0392
▁Indiana	-11.0393
▁shy	-11.0394
▁spare	-11.0396
▁remarked	-11.0396
▁ideal	-11.0399
▁suffered	-11.0402
▁addressed	-11.0403
▁lack	-11.0406
▁bloody	-11.0406
▁crawling	-11.041
rac	-11.0414
▁melt	-11.0416
▁Justin	-11.0419
▁riding	-11.0421
▁compare	-11.0421
▁brush	-11.0422
▁Care	-11.0428
▁stairs	-11.0429
▁painted	-11.0437
right	-11.0437
▁Jer	-11.0445
▁sleepy	-11.045
▁closely	-11.0456
wait	-11.0457
▁squeeze	-11.0461
▁crossed	-11.0461
▁Frank	-11.0464
rry	-11.0478
van	-11.0485
▁fully	-11.0488
▁remark	-11.0504
▁sur	-11.0505
▁seated	-11.0506
▁visitors	-11.0507
▁Ze	-11.0512
Eve	-11.0515
▁28,	-11.0522
▁las	-11.0522
▁stir	-11.0526
und	-11.0528
ough	-11.0542
zi	-11.0545
▁Fu	-11.055
owl	-11.0551
▁En	-11.0562
rus	-11.0562
▁Eric	-11.0568
▁spit	-11.0569
get	-11.0578
▁orphan	-11.058
▁envelope	-11.0581
▁cube	-11.0585
▁sons	-11.0586
▁Cat	-11.0588
▁22,	-11.0592
▁yell	-11.06
▁Tip	-11.0608
▁sounded	-11.0609
▁ends	-11.061
▁fired	-11.0618
La	-11.0627
SE	-11.0634
▁bugs	-11.0634
▁buttons	-11.0644
▁wave	-11.0659
▁results	-11.0659
▁sock	-11.0662
ump	-11.0662
▁Cl	-11.0675
onald	-11.0689
▁emotion	-11.069
▁boats	-11.0693
▁farmers	-11.0693
▁owe	-11.0736
▁mix	-11.074
ji	-11.0744
down	-11.0764
▁showing	-11.0768
which	-11.0771
water	-11.0772
high	-11.0772
bank	-11.0773
▁186	-11.0775
▁boil	-11.0778
▁vain	-11.0779
talking	-11.0779
▁succeed	-11.0782
One	-11.0783
▁Ni	-11.0785
AR	-11.0786
▁mention	-11.0786
fall	-11.0787
will	-11.0793
▁swift	-11.0795
▁elder	-11.0795
▁cheerful	-11.0796
▁trail	-11.0797
▁bones	-11.08
ó	-11.0802
▁drum	-11.0804
▁photo	-11.0804
ão	-11.0805
▁1988	-11.0805
▁1996	-11.0805
▁Academy	-11.0805
▁Arroniz	-11.0805
▁Britain	-11.0805
▁Buckingham	-11.0805
▁College	-11.0805
▁Family	-11.0805
▁Frosty	-11.0805
▁Furber	-11.0805
▁Humphrey	-11.0805
▁Mississippi	-11.0805
▁Probably	-11.0805
▁Stephen	-11.0805
▁Thursday	-11.0805
▁candidate	-11.0805
▁citizen	-11.0805
▁crocodile	-11.0805
▁divide	-11.0805
▁ejaculated	-11.0805
▁expensive	-11.0805
▁invasion	-11.0805
▁parlor	-11.0805
▁responsibility	-11.0805
▁uniform	-11.0805
▁native	-11.0805
▁blind	-11.0805
▁avoid	-11.0805
▁razor	-11.0805
▁instance	-11.0805
▁clay	-11.0805
▁tennis	-11.0805
▁federal	-11.0805
▁parade	-11.0805
▁skiff	-11.0805
▁girlfriend	-11.0805
▁Jimmy	-11.0805
▁Group	-11.0805
▁slave	-11.0805
▁apologize	-11.0805
▁Valley	-11.0806
▁administration	-11.0806
▁cellar	-11.0806
▁drift	-11.0806
▁pail	-11.0806
▁estate	-11.0806
illon	-11.0806
▁winner	-11.0806
▁clop	-11.0806
▁Jerry	-11.0806
▁safety	-11.0806
▁powerful	-11.0807
▁programme	-11.0808
▁seventy	-11.0808
▁lamp	-11.0808
▁magician	-11.0808
▁branches	-11.0809
▁Fi	-11.0809
▁boss	-11.0809
▁SHE	-11.081
▁whipped	-11.081
▁African	-11.0811
▁knowing	-11.0811
▁fascinating	-11.0811
▁Gu	-11.0813
▁marry	-11.0817
▁Mayor	-11.0818
▁steamer	-11.0818
▁entirely	-11.0818
▁vision	-11.082
▁cock	-11.0821
▁Holy	-11.0821
wing	-11.0821
▁developed	-11.0825
▁setting	-11.0829
▁dolly	-11.083
▁messy	-11.0831
▁treaty	-11.0832
▁bored	-11.0834
▁coon	-11.0835
▁Ain	-11.084
eep	-11.0843
▁13,	-11.0843
▁media	-11.0846
flat	-11.0847
▁murderer	-11.0856
▁imagined	-11.0863
▁nest	-11.0863
▁[8	-11.0865
▁Per	-11.0878
▁sneeze	-11.0886
▁Representatives	-11.0898
▁bra	-11.09
ram	-11.0901
▁wise	-11.0904
▁arrows	-11.091
▁Ask	-11.0921
▁reported	-11.0922
▁changes	-11.0929
▁90	-11.0929
▁rap	-11.0931
▁ordered	-11.0936
▁1.5	-11.094
7.	-11.0941
▁weary	-11.0941
▁finding	-11.0946
▁catching	-11.0946
ties	-11.0952
▁pushed	-11.0974
▁pushe	-11.0983
▁kinds	-11.0992
▁legal	-11.0993
ome	-11.1
ities	-11.1001
place	-11.1007
ew	-11.1022
▁quart	-11.1022
PLA	-11.1033
use	-11.1034
▁feature	-11.104
▁goal	-11.104
▁Andy	-11.1045
▁sale	-11.1048
har	-11.1051
▁belongs	-11.1051
▁tro	-11.1055
gh	-11.1065
▁clunks	-11.1067
▁ta	-11.1078
rong	-11.1083
▁sticky	-11.1089
Both	-11.1091
gotten	-11.1097
▁Lee	-11.1098
▁KNOW	-11.1102
▁se	-11.1104
rri	-11.1113
▁45	-11.1129
▁sn	-11.1135
burg	-11.1147
ening	-11.1154
▁drip	-11.1158
▁protests	-11.1159
BE	-11.1181
▁Tre	-11.1185
▁tend	-11.1188
pin	-11.1208
tail	-11.1218
▁crackers	-11.1225
Look	-11.1226
▁arrive	-11.1228
▁Got	-11.1228
box	-11.1229
▁borrow	-11.123
also	-11.1242
▁Stu	-11.1245
▁2:	-11.1246
▁keeps	-11.1247
▁brief	-11.1249
▁actual	-11.125
▁stole	-11.125
made	-11.1251
▁chap	-11.1255
▁branch	-11.1256
Poss	-11.1258
▁novel	-11.1258
▁motion	-11.1259
▁1979	-11.1259
▁Hydraulic	-11.1259
▁Matthew	-11.1259
▁Shadow	-11.1259
▁Simpson	-11.1259
▁Whittaker	-11.1259
▁activist	-11.1259
▁bastard	-11.1259
▁executed	-11.1259
▁horrible	-11.1259
▁horror	-11.1259
▁incident	-11.1259
▁loaf	-11.1259
▁lobster	-11.1259
▁ntuu	-11.1259
▁ordinary	-11.1259
▁servant	-11.1259
▁slept	-11.1259
▁society	-11.1259
▁studied	-11.1259
▁symbol	-11.1259
▁thirteen	-11.1259
▁widow	-11.1259
▁{\	-11.1259
▁Maple	-11.1259
▁Teddy	-11.1259
▁contain	-11.1259
▁freedom	-11.1259
▁loving	-11.1259
▁illustrations	-11.1259
▁changing	-11.1259
▁memory	-11.1259
▁journalist	-11.1259
▁pumpkin	-11.1259
▁swear	-11.1259
▁Everybody	-11.1259
▁Honey	-11.1259
▁racing	-11.1259
▁bolt	-11.1259
▁Katie	-11.126
▁dining	-11.126
▁Hugo	-11.126
▁1950	-11.126
▁modern	-11.126
▁Northern	-11.126
▁vol	-11.126
▁NOW	-11.1261
▁Kevin	-11.1261
▁exist	-11.1261
▁Mahdrusa	-11.1262
▁fox	-11.1262
▁cash	-11.1263
▁UK	-11.1263
▁everywhere	-11.1263
▁sixty	-11.1264
▁matches	-11.1266
▁comb	-11.1266
▁yum	-11.1266
▁Bolt	-11.1266
▁Missus	-11.1266
▁launch	-11.1269
▁create	-11.127
▁previously	-11.1271
▁Jay	-11.1271
ina	-11.1273
2.3	-11.1275
▁lodge	-11.1275
had	-11.1277
▁helpless	-11.1281
▁jacket	-11.1281
▁settled	-11.1284
▁dresses	-11.1285
▁UP	-11.1286
▁delightful	-11.1286
▁file	-11.1288
▁shouting	-11.1291
▁route	-11.1291
▁uttered	-11.1298
▁spilled	-11.1303
▁roller	-11.1304
construction	-11.1313
▁Must	-11.1322
▁dolls	-11.1323
ound	-11.1324
▁barking	-11.1326
▁rolled	-11.1326
ik	-11.1327
▁shortly	-11.1334
2.4	-11.1336
ida	-11.134
▁du	-11.134
▁seiz	-11.1345
▁asylum	-11.1353
▁beach	-11.1354
▁heap	-11.1356
▁split	-11.1364
▁bu	-11.1372
our	-11.1374
▁Sea	-11.1376
▁stared	-11.1383
▁sorts	-11.1386
sounds	-11.1386
ney	-11.1395
row	-11.1405
ank	-11.1407
▁replace	-11.1415
mar	-11.1416
noises	-11.1417
▁jumping	-11.142
▁armed	-11.1426
▁students	-11.143
▁Julia	-11.1431
▁ringing	-11.1436
Who	-11.1439
▁Ye	-11.1447
ALL	-11.1454
▁Mmm	-11.1461
wept	-11.1468
▁quarts	-11.1482
▁Donal	-11.1485
▁par	-11.1495
▁Ge	-11.1508
▁ticket	-11.1515
▁drops	-11.1523
▁ribbons	-11.1524
▁twin	-11.1525
now	-11.1527
▁returns	-11.1531
▁Too	-11.1542
▁feelings	-11.1542
▁Mc	-11.1544
▁bat	-11.1559
▁Villa	-11.1561
▁blows	-11.1564
▁plains	-11.1566
ile	-11.1574
▁Aunt	-11.1579
▁dangl	-11.1591
ask	-11.1596
CON	-11.1599
raz	-11.1602
ama	-11.1611
gin	-11.1623
▁overlap	-11.1628
▁notion	-11.1629
ane	-11.1638
▁Ga	-11.1641
lves	-11.1643
▁Carl	-11.1669
▁drugs	-11.1672
fish	-11.1687
UM	-11.1696
▁hills	-11.1698
clunk	-11.1701
drops	-11.1701
video	-11.1701
Little	-11.1701
piece	-11.1701
Hello	-11.1702
▁target	-11.1708
▁li	-11.171
Did	-11.1711
▁island	-11.1715
▁frighten	-11.1716
dum	-11.172
▁1985	-11.1724
▁Australia	-11.1725
▁dreadful	-11.1725
▁curious	-11.1726
▁practical	-11.1726
▁Clip	-11.1727
▁indicate	-11.1728
▁Command	-11.1728
taps	-11.1728
table	-11.1729
▁buffalo	-11.1731
▁chick	-11.1734
▁invite	-11.1734
▁admit	-11.1735
simultaneous	-11.1735
▁Chicago	-11.1735
▁Economic	-11.1735
▁Exactly	-11.1735
▁Gordon	-11.1735
▁Jeremy	-11.1735
▁Massachusetts	-11.1735
▁Night	-11.1735
▁Northeast	-11.1735
▁Professor	-11.1735
▁Science	-11.1735
▁breeze	-11.1735
▁buried	-11.1735
▁communist	-11.1735
▁cottage	-11.1735
▁delicate	-11.1735
▁device	-11.1735
▁instrument	-11.1735
▁intense	-11.1735
▁investigation	-11.1735
▁league	-11.1735
▁multiple	-11.1735
▁seldom	-11.1735
▁collar	-11.1735
▁eighteen	-11.1735
▁jail	-11.1735
▁deserve	-11.1735
▁Horne	-11.1735
▁interview	-11.1735
▁climate	-11.1735
▁adult	-11.1735
▁pepper	-11.1735
▁25,	-11.1736
▁bunch	-11.1736
▁Mouse	-11.1736
▁ladder	-11.1736
▁ugh	-11.1736
▁Golden	-11.1736
▁hollow	-11.1736
▁lord	-11.1736
▁basketball	-11.1736
▁2004	-11.1736
▁tobacco	-11.1736
▁dotted	-11.1736
▁marvelous	-11.1736
▁poetry	-11.1736
▁rude	-11.1736
▁management	-11.1736
▁Perro	-11.1736
▁bacon	-11.1737
▁GOT	-11.1737
▁saving	-11.1737
▁Committee	-11.1738
▁Karen	-11.1738
▁chih	-11.1738
▁chart	-11.1739
▁Elton	-11.1739
▁extremely	-11.174
▁Welcome	-11.174
▁poet	-11.174
▁standard	-11.174
▁choose	-11.174
▁Pete	-11.1741
▁chosen	-11.1741
▁Fielding	-11.1741
▁musician	-11.1742
▁policeman	-11.1742
▁Edward	-11.1742
▁Master	-11.1742
▁operation	-11.1743
▁moments	-11.1743
▁rocket	-11.1743
▁businessman	-11.1744
▁snowman	-11.1745
▁briefly	-11.1746
▁pry	-11.1746
▁tube	-11.1746
▁oo	-11.1746
▁Show	-11.1747
▁historical	-11.1748
▁Hang	-11.1748
7/	-11.1753
▁crown	-11.1754
▁comedy	-11.1756
▁Land	-11.1757
eyres	-11.1757
▁Again	-11.1758
▁skill	-11.1758
▁8,	-11.176
▁pat	-11.1763
LIS	-11.1764
▁merry	-11.1766
▁engineer	-11.1769
blocks	-11.1772
▁limited	-11.1772
▁dumped	-11.1774
▁warn	-11.1776
▁noble	-11.1777
til	-11.1782
▁represented	-11.1783
▁schools	-11.1786
▁realized	-11.1789
▁Young	-11.1799
▁sleeve	-11.1805
stone	-11.181
▁dum	-11.1819
90	-11.1821
▁Sweets	-11.1827
▁aware	-11.1829
▁Mil	-11.184
▁mines	-11.184
▁(20	-11.184
▁wo	-11.1842
▁teams	-11.1848
▁hearts	-11.1852
▁tame	-11.1857
▁washing	-11.1858
▁stands	-11.1866
▁Men	-11.1866
▁2020.	-11.1889
THE	-11.1897
▁blowing	-11.1903
▁Home	-11.1922
have	-11.1934
▁camel	-11.1938
▁buying	-11.1953
far	-11.196
enne	-11.1966
ache	-11.197
▁kin	-11.1971
thing	-11.1978
▁Hal	-11.1992
▁rank	-11.1993
ttle	-11.1994
▁aloud	-11.1997
▁cop	-11.2011
▁glove	-11.2012
▁tribes	-11.2013
▁article	-11.2015
ox	-11.2029
did	-11.203
▁marker	-11.2038
▁rang	-11.2039
under	-11.204
his	-11.2041
▁III	-11.2044
▁aye	-11.2053
▁8:	-11.206
20	-11.2074
come	-11.2095
▁2017.	-11.2109
hot	-11.2131
ken	-11.2131
▁gaze	-11.2135
iff	-11.2151
eat	-11.2163
val	-11.2166
▁rules	-11.2169
▁tracks	-11.2169
pper	-11.2172
▁cakes	-11.2174
ries	-11.2176
▁approach	-11.2179
▁beer	-11.2183
▁grab	-11.2184
▁breathe	-11.2185
▁Guard	-11.2193
▁forces	-11.2193
Me	-11.2195
&	-11.2201
lift	-11.2202
▁tri	-11.2205
▁disappear	-11.2208
▁defend	-11.2213
▁Yo	-11.2224
▁brand	-11.2225
▁eager	-11.2225
▁successful	-11.2226
▁scare	-11.2227
▁Va	-11.2228
▁success	-11.2228
▁bold	-11.2228
RED	-11.223
▁drag	-11.2232
▁lick	-11.2233
▁Hawk	-11.2235
▁makin	-11.2235
▁percent	-11.2235
­	-11.2235
▁Darling	-11.2235
▁Edgewater	-11.2235
▁HOME	-11.2235
▁Hospital	-11.2235
▁Ocean	-11.2235
▁Parliament	-11.2235
▁Reservoir	-11.2235
▁activities	-11.2235
▁balcony	-11.2235
▁behavior	-11.2235
▁bulldozer	-11.2235
▁curtain	-11.2235
▁flesh	-11.2235
▁jealous	-11.2235
▁muttered	-11.2235
▁pudding	-11.2235
▁steak	-11.2235
▁victory	-11.2235
▁1959	-11.2235
▁Earth	-11.2235
▁Kyle	-11.2235
▁prune	-11.2235
▁parcel	-11.2235
▁Walrus	-11.2235
▁temperature	-11.2235
▁stiff	-11.2235
▁1997	-11.2236
▁Wild	-11.2236
▁Happy	-11.2236
▁polish	-11.2236
▁Wallis	-11.2236
▁RIGHT	-11.2236
▁pantry	-11.2236
▁latter	-11.2236
▁rescue	-11.2236
▁Middle	-11.2236
▁Marble	-11.2236
▁raising	-11.2236
▁zone	-11.2236
▁thirsty	-11.2237
▁Open	-11.2237
▁Check	-11.2237
▁Irish	-11.2237
▁HOW	-11.2237
▁papa	-11.2237
▁Timor	-11.2238
▁Without	-11.2238
▁phrase	-11.2238
▁religious	-11.2238
▁label	-11.2238
▁slice	-11.2239
▁stopping	-11.2239
▁puff	-11.2239
▁alongside	-11.2239
▁pressure	-11.2239
▁Nebraska	-11.224
▁serving	-11.224
▁Basin	-11.224
▁HIS	-11.224
▁fairies	-11.2241
▁services	-11.2241
▁OFF	-11.2242
▁detail	-11.2242
▁List	-11.2243
▁stable	-11.2245
onna	-11.2245
▁Ukrainian	-11.2245
▁Hurry	-11.2245
yard	-11.2246
▁dash	-11.2246
▁according	-11.2246
▁nothin	-11.2247
▁Moon	-11.2247
▁bitch	-11.2252
▁sword	-11.2252
▁estimate	-11.2252
▁criticize	-11.2255
▁Free	-11.2256
▁independent	-11.2256
▁inquir	-11.2259
▁bent	-11.2259
▁actions	-11.2259
▁Gar	-11.226
▁rear	-11.2262
▁approached	-11.2263
▁boom	-11.2264
▁arranged	-11.2264
▁warning	-11.2265
▁sadly	-11.2267
▁thankyou	-11.2267
train	-11.2271
▁dim	-11.2282
▁chickens	-11.2283
▁designed	-11.2283
▁doo	-11.2296
▁beans	-11.2303
▁cows	-11.2305
▁Mel	-11.2307
▁rider	-11.2323
▁Ex	-11.2336
arch	-11.2339
▁painful	-11.2349
▁secrets	-11.2351
37	-11.2357
$=2	-11.2358
▁bro	-11.236
▁cooked	-11.2361
▁Olympics	-11.2366
▁players	-11.2367
▁math	-11.2368
▁product	-11.2376
▁episodes	-11.2378
▁shooting	-11.238
▁highly	-11.238
▁shown	-11.2386
▁10,	-11.2392
▁laws	-11.2408
ku	-11.2416
▁referent	-11.242
▁winding	-11.2421
▁answers	-11.2426
▁signs	-11.2427
▁wrappe	-11.243
▁Pat	-11.2446
top	-11.2456
▁environmental	-11.2456
▁Pen	-11.2467
any	-11.2493
washers	-11.2494
look	-11.25
▁Ab	-11.2505
noise	-11.2514
▁doughnuts	-11.2517
▁souther	-11.2524
▁attach	-11.2527
▁1991	-11.2531
▁Na	-11.2533
▁habit	-11.2539
▁Looks	-11.2539
▁sports	-11.254
▁spelling	-11.2542
▁task	-11.2543
▁marble	-11.2546
▁cell	-11.2547
MP	-11.2548
▁customer	-11.255
▁ST	-11.257
▁woo	-11.2574
▁ducks	-11.2586
ERS	-11.2589
▁Com	-11.2591
▁boo	-11.26
hone	-11.2618
▁whispers	-11.2619
▁civil	-11.2635
arrow	-11.2644
▁grade	-11.2645
net	-11.2646
spec	-11.2651
▁temper	-11.2663
▁27,	-11.2678
▁beg	-11.2683
▁Ja	-11.2683
0,000	-11.2693
ferring	-11.2697
▁Wo	-11.2702
▁print	-11.2704
▁gather	-11.2706
▁el	-11.2714
▁types	-11.2715
LES	-11.2717
▁chew	-11.2721
whining	-11.2727
touches	-11.2729
▁crow	-11.2733
▁defeat	-11.2734
▁direct	-11.274
▁sew	-11.274
mother	-11.2743
▁Mi	-11.2745
▁addition	-11.2747
ide	-11.2748
▁awake	-11.2752
five	-11.2757
▁minor	-11.2761
cher	-11.2761
▁1982	-11.2762
▁ABOUT	-11.2762
▁Anhui	-11.2762
▁Football	-11.2762
▁Guitar	-11.2762
▁Harvard	-11.2762
▁LIKE	-11.2762
▁Oblast	-11.2762
▁Portugal	-11.2762
▁Second	-11.2762
▁WHO	-11.2762
▁Zebedee	-11.2762
▁beneath	-11.2762
▁caterpillar	-11.2762
▁celery	-11.2762
▁consignment	-11.2762
▁elbow	-11.2762
▁furniture	-11.2762
▁giraffe	-11.2762
▁injuries	-11.2762
▁microphone	-11.2762
▁necessarily	-11.2762
▁orchard	-11.2762
▁parallel	-11.2762
▁peculiar	-11.2762
▁physical	-11.2762
▁puppies	-11.2762
▁rustling	-11.2762
▁sarcoma	-11.2762
▁wharf	-11.2762
▁skull	-11.2762
▁WAS	-11.2762
▁generous	-11.2762
▁lazy	-11.2762
▁Lauren	-11.2762
▁Phillip	-11.2762
▁literature	-11.2762
▁studio	-11.2762
▁Kapoor	-11.2762
▁purse	-11.2762
▁yyy	-11.2762
▁Internet	-11.2762
▁confirm	-11.2762
▁romantic	-11.2762
▁grey	-11.2762
▁Should	-11.2762
▁Child	-11.2762
▁Pepper	-11.2762
▁insult	-11.2762
▁oven	-11.2762
▁vague	-11.2762
▁Elsa	-11.2762
▁dinghy	-11.2762
▁unhappy	-11.2762
▁influence	-11.2762
▁1980	-11.2762
ueva	-11.2762
▁Christopher	-11.2762
▁obliged	-11.2762
▁flute	-11.2762
▁Nancy	-11.2762
▁constable	-11.2762
▁giant	-11.2762
▁chill	-11.2762
▁Fitz	-11.2763
appen	-11.2763
▁2001	-11.2763
▁pump	-11.2763
▁Goodbye	-11.2763
▁Huck	-11.2764
▁Jake	-11.2765
▁maple	-11.2765
▁knot	-11.2765
▁Willie	-11.2765
▁Moreno	-11.2766
▁GET	-11.2766
▁UDP	-11.2766
▁shadow	-11.2768
▁Thatcher	-11.2768
▁constantly	-11.277
▁pregnant	-11.2772
▁gasped	-11.2773
▁sang	-11.2773
▁throughout	-11.2774
▁incredible	-11.2774
▁agent	-11.2774
▁Force	-11.2775
▁smoking	-11.2775
▁bore	-11.2776
▁fir	-11.2777
▁fireman	-11.2779
▁nodded	-11.2781
▁murmured	-11.2782
DOOR	-11.2786
▁whale	-11.2786
▁signal	-11.2789
▁youngest	-11.279
gives	-11.2791
ensity	-11.2794
▁fan	-11.2797
▁folded	-11.2798
▁paused	-11.2801
▁Brown	-11.2806
▁pigs	-11.2812
▁pure	-11.2813
By	-11.2814
▁sink	-11.2814
▁healthy	-11.282
▁clothing	-11.2821
▁suggested	-11.2823
▁lately	-11.2824
▁souls	-11.2824
▁touches	-11.2825
▁Marie	-11.2827
▁2014.	-11.2829
▁murdered	-11.2831
▁stranger	-11.2836
▁upper	-11.284
▁[9	-11.2842
▁unusual	-11.2843
▁dared	-11.2849
▁recall	-11.2852
▁Fa	-11.2853
▁vocalization	-11.2853
▁cal	-11.2864
▁aid	-11.2872
buzzing	-11.2878
▁rare	-11.2885
▁Son	-11.2888
▁heels	-11.2889
OUR	-11.2893
▁36	-11.2894
▁cups	-11.2904
▁18,	-11.2906
▁squeal	-11.2907
▁gi	-11.2911
▁cleaning	-11.2912
chair	-11.2918
▁multi	-11.2933
▁companions	-11.2936
win	-11.2937
▁Ve	-11.2951
tree	-11.2956
▁***	-11.2969
▁tales	-11.2974
com	-11.2985
▁Pop	-11.2998
pelle	-11.2998
▁prefer	-11.301
nick	-11.3026
▁bands	-11.3067
gna	-11.3072
aa	-11.3075
▁Arm	-11.3085
▁restaurant	-11.3094
ré	-11.3096
▁neighbor	-11.3097
trees	-11.3098
▁2021.	-11.3101
▁tale	-11.3102
▁regions	-11.3103
▁benefits	-11.3108
▁$10	-11.3108
ppe	-11.3111
▁rabbits	-11.312
den	-11.3123
od	-11.3126
▁sno	-11.3136
cut	-11.3139
▁cousins	-11.3145
▁pointing	-11.3153
lon	-11.3158
▁Law	-11.316
▁60	-11.3175
.’”	-11.3188
▁needle	-11.32
mato	-11.3203
▁manners	-11.3208
ture	-11.3208
▁Bra	-11.3216
nte	-11.3218
▁rooms	-11.3232
▁spark	-11.3243
▁11:	-11.3246
▁15,	-11.3249
▁directions	-11.3257
race	-11.3259
shaped	-11.3262
▁graduat	-11.3263
word	-11.3278
▁drinks	-11.3279
▁mos	-11.3281
aid	-11.3283
blows	-11.3283
▁sail	-11.3283
pretend	-11.3283
office	-11.3284
got	-11.3284
echo	-11.329
▁march	-11.329
Bro	-11.3294
▁desire	-11.3294
▁celebrate	-11.3295
▁research	-11.3295
▁sorrow	-11.3296
▁suspect	-11.3301
ria	-11.3307
▁desperate	-11.3307
For	-11.3307
▁sauce	-11.331
about	-11.3311
▁origin	-11.3312
▁environment	-11.3313
▁BOY	-11.3313
colored	-11.3314
▁compar	-11.3315
▁tick	-11.3317
¶	-11.3317
▁1940	-11.3317
▁1974	-11.3317
▁Abigail	-11.3317
▁Administration	-11.3317
▁Lucious	-11.3317
▁Portuguese	-11.3317
▁Security	-11.3317
▁Taylor	-11.3317
▁brick	-11.3317
▁dungaree	-11.3317
▁fifth	-11.3317
▁piano	-11.3317
▁pistol	-11.3317
▁religion	-11.3317
▁sissy	-11.3317
▁Tonsil	-11.3317
▁definitely	-11.3317
▁disaster	-11.3317
▁scheme	-11.3317
▁zero	-11.3317
Gabbar	-11.3317
▁1989	-11.3317
▁Berlin	-11.3317
▁agenda	-11.3317
▁Leave	-11.3317
▁ocean	-11.3317
▁Region	-11.3317
▁kilo	-11.3317
▁steel	-11.3317
▁humble	-11.3317
▁buddy	-11.3317
▁composed	-11.3317
▁broadcast	-11.3317
▁coast	-11.3317
▁sniff	-11.3317
▁Edith	-11.3317
▁Mummy	-11.3317
▁awesome	-11.3317
▁Polish	-11.3317
▁handkerchief	-11.3317
▁snack	-11.3317
▁marriage	-11.3318
▁railway	-11.3318
▁industry	-11.3318
▁Dolly	-11.3318
▁Institute	-11.3318
▁leetle	-11.3318
▁mount	-11.3318
▁1925	-11.3318
▁frank	-11.3318
▁Hope	-11.3318
▁connection	-11.3319
▁anxiety	-11.3319
▁Lyon	-11.3319
▁drank	-11.3319
▁apartment	-11.3319
▁HERE	-11.3319
▁carrier	-11.332
▁Helen	-11.332
▁Ruth	-11.332
▁shine	-11.3321
▁Jackson	-11.3321
▁electric	-11.3321
▁packet	-11.3322
▁torn	-11.3322
▁Melbourne	-11.3322
▁Steven	-11.3322
▁protection	-11.3322
▁Huh	-11.3322
▁Alice	-11.3323
▁ceased	-11.3323
▁passion	-11.3324
▁saucer	-11.3325
▁Plan	-11.3325
▁golden	-11.3329
▁reality	-11.333
▁uhuh	-11.333
▁method	-11.3332
▁2014)	-11.3333
▁flies	-11.3334
▁Brun	-11.3335
▁Music	-11.3335
▁ouch	-11.3337
▁apples	-11.3339
IVE	-11.3342
▁EX	-11.3342
▁Iris	-11.3345
▁printing	-11.3347
▁Dan	-11.3349
▁wherever	-11.3349
▁seriously	-11.3349
▁escaped	-11.3358
▁accepted	-11.3359
▁furious	-11.3359
▁robe	-11.336
▁rat	-11.336
▁tow	-11.3361
▁clicking	-11.3361
25	-11.3366
sses	-11.3369
▁gained	-11.337
▁belt	-11.337
loft	-11.3374
▁ju	-11.3389
▁Cal	-11.339
▁port	-11.3393
▁Lou	-11.3394
▁Sounds	-11.34
▁mar	-11.3401
▁painting	-11.3416
▁Ko	-11.3426
▁expecting	-11.3429
▁Pu	-11.343
ford	-11.3436
bert	-11.3442
▁Mon	-11.3451
▁Sal	-11.3475
▁options	-11.3477
ich	-11.3496
za	-11.3497
▁trans	-11.35
▁sharpen	-11.3502
▁shouts	-11.3512
▁beats	-11.3514
▁Hills	-11.3515
2.6	-11.352
▁pins	-11.3531
▁flu	-11.3532
▁drawer	-11.3545
EN	-11.3549
▁surely	-11.3553
ette	-11.3558
iti	-11.3559
▁COL	-11.3572
here	-11.3576
▁bon	-11.3583
▁receive	-11.3592
▁mustn	-11.3597
▁bearing	-11.36
tte	-11.3604
Ro	-11.3604
▁squ	-11.3611
ories	-11.3621
fer	-11.3627
▁seasons	-11.3628
▁qu	-11.3629
▁van	-11.364
ancy	-11.3646
SI	-11.3648
▁chat	-11.3648
▁Col	-11.3648
▁ti	-11.3655
▁peanuts	-11.3658
▁lab	-11.3659
▁runs	-11.3661
▁states	-11.3674
▁matters	-11.3675
▁stamp	-11.3687
▁student	-11.3687
▁prop	-11.3694
wan	-11.3701
13	-11.3701
▁Ju	-11.3701
anny	-11.3719
▁Mind	-11.3722
only	-11.3727
ied	-11.3731
▁reasons	-11.3737
ological	-11.3754
▁Wi	-11.3754
ching	-11.3757
▁balloons	-11.3758
24	-11.3772
Or	-11.3786
▁organ	-11.3788
▁soldiers	-11.379
▁Bad	-11.3791
▁coins	-11.3792
▁plac	-11.3795
▁Alex	-11.3803
ement	-11.3806
new	-11.3807
▁Close	-11.3812
▁whip	-11.3814
▁9:	-11.3831
▁covers	-11.3837
▁pin	-11.3844
▁disc	-11.3849
kar	-11.3849
rges	-11.3851
▁develop	-11.3851
cream	-11.386
▁faith	-11.3863
Q	-11.387
whispers	-11.3871
find	-11.3873
why	-11.3874
▁connect	-11.3876
building	-11.3878
▁steam	-11.3887
hole	-11.3891
▁aunt	-11.3892
▁enormous	-11.3895
▁impatient	-11.3895
▁Office	-11.3896
▁Democrat	-11.3904
▁employ	-11.3905
▁champion	-11.3905
▁1962	-11.3905
▁1966	-11.3905
▁1975	-11.3905
▁Animal	-11.3905
▁Association	-11.3905
▁Catherine	-11.3905
▁Chamber	-11.3905
▁GOOD	-11.3905
▁Haversham	-11.3905
▁Lawrence	-11.3905
▁Nintendo	-11.3905
▁Oregon	-11.3905
▁Sheriff	-11.3905
▁Ubisoft	-11.3905
▁Urler	-11.3905
▁Wilks	-11.3905
▁YEAH	-11.3905
▁arrival	-11.3905
▁cherries	-11.3905
▁cocoa	-11.3905
▁concentrate	-11.3905
▁despair	-11.3905
▁furnace	-11.3905
▁quarrel	-11.3905
▁relax	-11.3905
▁vanished	-11.3905
▁volunteer	-11.3905
▁Gowen	-11.3905
▁Greek	-11.3905
▁Montreal	-11.3905
▁column	-11.3905
▁pennies	-11.3905
▁Andrade	-11.3905
▁solemn	-11.3905
▁Tomás	-11.3905
▁Holly	-11.3905
▁average	-11.3905
▁feeble	-11.3906
▁hastily	-11.3906
▁silk	-11.3906
▁duties	-11.3906
▁Pennsylvania	-11.3906
▁housing	-11.3906
▁jerk	-11.3906
▁Diane	-11.3906
▁cluster	-11.3906
▁chemical	-11.3906
▁hidden	-11.3906
▁Castelsarrasin	-11.3907
▁Congratulations	-11.3907
▁genus	-11.3907
▁HIM	-11.3907
▁copper	-11.3907
▁Pre	-11.3907
▁Josh	-11.3907
▁priest	-11.3907
▁beast	-11.3907
▁liar	-11.3907
▁Zoo	-11.3907
▁Native	-11.3907
▁leak	-11.3907
▁Apple	-11.3908
▁neuro	-11.3908
▁losing	-11.3908
▁theater	-11.3908
▁jam	-11.3908
▁complicated	-11.3909
▁pyramid	-11.3909
▁bushes	-11.3909
▁Chatter	-11.3909
▁HER	-11.3909
▁Cook	-11.3909
▁glow	-11.391
▁settlement	-11.391
▁preparation	-11.391
▁elliot	-11.3911
▁cmon	-11.3911
door	-11.3911
▁scrub	-11.3911
▁Vol	-11.3914
▁steady	-11.3914
▁Mori	-11.3914
▁Post	-11.3914
▁trap	-11.3914
▁Baby	-11.3915
▁Officer	-11.3915
▁bitterly	-11.3915
▁doorway	-11.3916
▁folder	-11.3916
▁Pope	-11.3917
▁Stacy	-11.3917
▁user	-11.3919
▁Fig	-11.392
▁Had	-11.3921
▁insist	-11.3921
▁procession	-11.3922
▁gravely	-11.3923
▁taxi	-11.3924
▁normally	-11.3927
law	-11.393
▁Ok	-11.3933
▁Cold	-11.3935
▁sexy	-11.3935
Mar	-11.3935
▁cutting	-11.3936
▁Carry	-11.3937
▁deck	-11.3938
On	-11.394
▁succeeded	-11.3943
▁hip	-11.3947
▁beep	-11.3956
▁shelf	-11.3957
▁soap	-11.3957
▁tar	-11.396
▁locked	-11.3961
▁stain	-11.3963
▁fields	-11.3964
▁stretched	-11.3964
▁pigeons	-11.3966
▁removed	-11.397
▁jet	-11.3977
ridge	-11.3981
▁arrange	-11.3982
▁None	-11.3983
ntil	-11.3985
▁whispering	-11.3988
▁moo	-11.3996
▁1939	-11.4
hands	-11.4007
▁guests	-11.4007
OL	-11.4014
▁cases	-11.4016
▁Alexand	-11.4018
▁2018.	-11.4024
nything	-11.4024
sits	-11.4025
▁dreamed	-11.4028
▁1967	-11.4029
hal	-11.403
▁Boss	-11.4046
▁charges	-11.406
were	-11.406
tru	-11.4065
▁HA	-11.4069
ella	-11.407
▁lessons	-11.4076
▁harder	-11.4085
▁Hear	-11.4089
ient	-11.4093
tell	-11.4101
▁Za	-11.4101
▁tricks	-11.4105
á	-11.4111
ID	-11.4112
▁pri	-11.4115
▁z	-11.412
▁Aren	-11.412
GER	-11.4122
▁stamps	-11.413
cup	-11.4133
▁Has	-11.4137
▁curl	-11.4141
▁Tra	-11.4146
▁ofthe	-11.4147
▁burnt	-11.4156
▁swan	-11.4157
▁products	-11.4161
▁AM	-11.4167
▁dealing	-11.4174
▁Fo	-11.4178
▁cart	-11.4179
oops	-11.4183
▁twins	-11.4185
▁fella	-11.419
cking	-11.4195
▁pu	-11.4197
▁sales	-11.4201
▁artists	-11.4226
▁squirrels	-11.4226
▁sco	-11.4227
▁tap	-11.4239
met	-11.424
taking	-11.4248
At	-11.4248
▁hire	-11.4249
▁scream	-11.4254
▁Mac	-11.4265
▁34	-11.4267
▁effects	-11.4268
▁Ru	-11.4268
point	-11.4278
▁Ti	-11.4281
▁stones	-11.4283
gging	-11.4288
▁17:	-11.4295
▁needn	-11.4303
▁whee	-11.4305
▁blossom	-11.4306
▁contract	-11.4306
▁collection	-11.4308
▁cloud	-11.4314
▁bee	-11.4315
▁dollar	-11.4319
fashioned	-11.4321
▁patients	-11.4324
▁presents	-11.4325
▁Mont	-11.4333
designat	-11.4345
ENT	-11.4352
SH	-11.4358
Re	-11.4361
▁Bay	-11.4372
AM	-11.4372
refer	-11.4373
BW	-11.4375
mic	-11.4376
▁22:	-11.4388
ified	-11.4402
▁21:	-11.4404
▁affairs	-11.4408
skin	-11.4417
▁languages	-11.4432
▁Van	-11.4437
▁1941	-11.4441
body	-11.4441
▁bein	-11.4445
▁troubles	-11.4448
cept	-11.4452
▁Hill	-11.4464
▁mum	-11.4468
arms	-11.4472
▁26,	-11.449
IES	-11.4494
q	-11.4495
▁caus	-11.4495
Poor	-11.4496
committee	-11.4496
picture	-11.4497
short	-11.4497
(	-11.4497
waves	-11.4497
▁crap	-11.4498
three	-11.4498
▁threat	-11.4498
EX	-11.4499
ric	-11.4501
known	-11.4502
▁shock	-11.4503
▁zoo	-11.4503
mond	-11.4505
Some	-11.4509
▁1964	-11.4517
▁practise	-11.4518
▁severe	-11.452
▁constant	-11.452
▁Africa	-11.4521
▁produce	-11.4523
▁200	-11.4524
▁flip	-11.4525
▁Alfred	-11.453
occupied	-11.453
▁false	-11.453
▁Greg	-11.453
▁1952	-11.453
▁1984	-11.453
▁1998	-11.453
▁Absolutely	-11.453
▁Alaska	-11.453
▁Apparently	-11.453
▁Bambi	-11.453
▁Between	-11.453
▁Brutus	-11.453
▁Buddy	-11.453
▁DREAM	-11.453
▁Lieutenant	-11.453
▁Phoenix	-11.453
▁Tuesday	-11.453
▁awkward	-11.453
▁combination	-11.453
▁competition	-11.453
▁compliment	-11.453
▁entrance	-11.453
▁escort	-11.453
▁familiar	-11.453
▁feast	-11.453
▁heavily	-11.453
▁increasing	-11.453
▁satisfaction	-11.453
▁trousers	-11.453
▁tummy	-11.453
▁1977	-11.453
▁southeast	-11.453
▁FBI	-11.453
▁Goddard	-11.453
▁distress	-11.453
▁lonely	-11.453
▁Jersey	-11.453
▁dainty	-11.453
▁drain	-11.453
▁loyal	-11.453
▁COME	-11.453
▁idiot	-11.453
▁george	-11.453
▁Evans	-11.453
▁Thierr	-11.453
▁skirt	-11.453
▁quality	-11.453
▁Miami	-11.453
▁tadah	-11.453
▁Except	-11.453
nnual	-11.4531
▁Food	-11.4531
▁Manning	-11.4531
▁Municipality	-11.4531
▁Division	-11.4531
▁impeachment	-11.4531
▁opposition	-11.4531
▁sailboat	-11.4531
▁available	-11.4531
▁responsible	-11.4531
▁apply	-11.4531
▁hopping	-11.4531
▁wiggle	-11.4531
▁pardon	-11.4531
▁pursuit	-11.4531
▁COX	-11.4531
▁flame	-11.4531
▁byebye	-11.4531
▁Thanksgiving	-11.4531
▁forehead	-11.4531
▁possession	-11.4531
▁admitted	-11.4531
▁Rider	-11.4531
▁emergency	-11.4531
▁voluntary	-11.4531
▁Lock	-11.4532
▁Sanders	-11.4532
▁fuel	-11.4532
▁creation	-11.4532
▁Also	-11.4532
▁towel	-11.4532
▁potty	-11.4532
▁Union	-11.4532
▁peep	-11.4533
▁Therefore	-11.4533
▁insane	-11.4533
▁Instead	-11.4534
▁bitter	-11.4534
Jorat	-11.4534
▁friendship	-11.4534
10	-11.4535
▁objection	-11.4535
▁haha	-11.4535
▁agreement	-11.4535
▁Later	-11.4535
▁Bur	-11.4535
▁raid	-11.4535
▁confused	-11.4535
▁pau	-11.4536
▁imitate	-11.4536
▁Finally	-11.4536
▁lend	-11.4538
▁commenced	-11.4538
▁Women	-11.4539
▁Rocky	-11.4539
▁Want	-11.454
▁IV	-11.454
▁begun	-11.4541
▁directly	-11.4542
pushe	-11.4542
hawk	-11.4543
▁Australian	-11.4544
▁Nazi	-11.4544
▁cute	-11.4544
▁careless	-11.4546
▁Dana	-11.4546
▁plus	-11.4547
▁described	-11.4548
▁Such	-11.4548
▁affix	-11.4549
▁occurred	-11.4549
Le	-11.455
▁snakes	-11.455
▁patiently	-11.455
▁speakers	-11.4551
▁Rio	-11.4554
▁mood	-11.4554
OTHER	-11.4554
▁anxiously	-11.4554
▁useless	-11.4555
▁whoever	-11.4557
▁bay	-11.4559
▁MAKE	-11.4559
▁powers	-11.456
▁castle	-11.4561
▁sharply	-11.4561
▁Five	-11.4562
▁Around	-11.4562
▁cord	-11.4563
▁connected	-11.4563
▁upright	-11.4565
▁useta	-11.4566
sound	-11.4571
▁boiling	-11.4572
bal	-11.4573
▁deeply	-11.4574
▁Cry	-11.4575
fire	-11.4576
objects	-11.4576
▁prime	-11.4576
large	-11.4579
▁AH	-11.4579
▁proved	-11.4581
▁Francis	-11.4588
▁gon	-11.4592
▁Feb	-11.4594
▁solve	-11.4598
gar	-11.4599
▁soda	-11.4603
▁tearing	-11.4603
000	-11.4614
▁ly	-11.4615
▁ward	-11.4616
open	-11.4618
▁raining	-11.4618
▁Sr	-11.462
▁Grant	-11.4626
▁keys	-11.463
▁danced	-11.4631
▁cone	-11.4634
▁Yet	-11.4635
FRE	-11.4641
▁Head	-11.4661
▁talkin	-11.4664
▁80	-11.4666
▁scientists	-11.4668
11	-11.4671
eign	-11.4676
▁Gr	-11.468
▁Arch	-11.4683
▁Rose	-11.4684
fa	-11.4686
▁Tim	-11.4697
aseball	-11.4702
▁spin	-11.4703
▁straighten	-11.4706
▁staring	-11.471
▁6:	-11.4712
▁Bear	-11.472
▁troubled	-11.4725
▁Girls	-11.4726
RY	-11.4726
▁handed	-11.4727
FA	-11.4728
▁hev	-11.473
war	-11.4732
▁killer	-11.4735
TED	-11.4738
▁15:	-11.4738
▁ideas	-11.4739
▁2012.	-11.4743
▁dang	-11.4749
▁monkeys	-11.4753
▁neighbors	-11.4784
▁nurs	-11.4785
ua	-11.4786
▁seek	-11.4792
▁clam	-11.4808
hop	-11.4811
▁articles	-11.4814
▁dating	-11.4817
▁str	-11.482
▁rob	-11.4829
▁tent	-11.483
ani	-11.4834
ue	-11.4837
CH	-11.4839
▁seconds	-11.485
din	-11.4851
Lo	-11.4854
▁Bon	-11.4858
▁socks	-11.4859
▁races	-11.487
▁Ford	-11.4871
▁remains	-11.4875
hums	-11.4884
▁Du	-11.4886
▁AT	-11.4888
ade	-11.4892
▁waves	-11.4893
sous	-11.4898
ked	-11.4913
▁alike	-11.4915
▁sayin	-11.4915
▁coloring	-11.4916
ulu	-11.4921
▁shout	-11.4923
▁je	-11.493
▁fore	-11.4932
▁formal	-11.4933
▁sole	-11.494
▁ou	-11.4949
▁SEE	-11.4955
pulling	-11.4956
reak	-11.4967
Bo	-11.4974
▁companion	-11.4979
▁Ten	-11.498
▁clo	-11.498
▁noon	-11.4983
▁holiday	-11.4984
▁visitor	-11.4989
▁Par	-11.499
▁favour	-11.4995
▁GON	-11.5
34	-11.5001
▁Swi	-11.5021
▁tour	-11.5028
▁Mis	-11.5039
ANT	-11.5042
▁towns	-11.5045
▁Pass	-11.5048
roy	-11.5052
say	-11.5057
▁sometime	-11.506
oz	-11.5061
Ch	-11.5062
▁14:	-11.5064
dog	-11.5071
dded	-11.5084
▁bags	-11.5094
uses	-11.51
▁rd	-11.5103
▁Wel	-11.5107
▁Wonder	-11.511
ura	-11.5116
▁Play	-11.512
rance	-11.5121
▁Arab	-11.5131
▁hits	-11.514
▁lu	-11.5141
▁kit	-11.5146
▁ink	-11.5151
▁prepar	-11.5156
foot	-11.5156
▁hu	-11.5158
trochee	-11.5162
▁movements	-11.5162
bones	-11.5163
climb	-11.5163
After	-11.5163
Tell	-11.5163
shake	-11.5164
would	-11.5165
help	-11.5165
could	-11.5166
making	-11.5166
March	-11.5166
Okay	-11.5167
book	-11.5168
▁ruin	-11.5169
count	-11.5172
▁1933	-11.5181
stop	-11.5186
▁Royal	-11.5187
▁NEW	-11.5189
sticks	-11.5192
▁Nico	-11.5192
ology	-11.5193
▁mornin	-11.5195
riding	-11.5195
▁sittin	-11.5195
▁Asia	-11.5197
Champvent	-11.5197
kokowk	-11.5197
▁1936	-11.5197
▁1942	-11.5197
▁Audrey	-11.5197
▁Bishop	-11.5197
▁Detroit	-11.5197
▁Ginny	-11.5197
▁Katherine	-11.5197
▁Odawa	-11.5197
▁Plains	-11.5197
▁Poppy	-11.5197
▁VALENTINE	-11.5197
▁attorney	-11.5197
▁automobile	-11.5197
▁autumn	-11.5197
▁brilliant	-11.5197
▁burden	-11.5197
▁contrast	-11.5197
▁cultural	-11.5197
▁determined	-11.5197
▁disposable	-11.5197
▁ethnic	-11.5197
▁fancied	-11.5197
▁fierce	-11.5197
▁gesture	-11.5197
▁glory	-11.5197
▁gorgeous	-11.5197
▁illegal	-11.5197
▁obtain	-11.5197
▁perfume	-11.5197
▁regret	-11.5197
▁rooster	-11.5197
▁scramble	-11.5197
▁shriek	-11.5197
▁sorcerers	-11.5197
▁syllable	-11.5197
▁underneath	-11.5197
▁Amanda	-11.5197
▁Feast	-11.5197
▁Greensburg	-11.5197
▁location	-11.5197
▁technical	-11.5197
▁throne	-11.5197
▁valley	-11.5197
▁Lewis	-11.5197
▁clasp	-11.5197
▁devil	-11.5197
▁worn	-11.5197
▁Short	-11.5197
▁Utah	-11.5197
▁innocent	-11.5197
▁teapot	-11.5197
▁roast	-11.5197
▁Biography	-11.5197
▁survey	-11.5197
▁Story	-11.5197
▁gallop	-11.5197
▁warrant	-11.5197
▁nightmare	-11.5197
▁happiness	-11.5197
▁mild	-11.5197
▁Need	-11.5197
▁treason	-11.5197
ability	-11.5197
▁medical	-11.5197
▁advise	-11.5197
▁skate	-11.5197
▁straw	-11.5197
▁cunning	-11.5197
▁quiver	-11.5197
▁Under	-11.5197
▁constitution	-11.5197
▁numero	-11.5197
Vully	-11.5197
▁Evelyn	-11.5197
▁Blood	-11.5197
▁glue	-11.5197
▁Orleans	-11.5198
▁legend	-11.5198
▁yummy	-11.5198
▁1945	-11.5198
▁asshole	-11.5198
▁Clear	-11.5198
▁Francisco	-11.5198
▁fortnight	-11.5198
▁pack	-11.5198
▁salesman	-11.5199
▁Four	-11.5199
▁dragged	-11.5199
▁toilet	-11.5199
▁riot	-11.5199
▁pond	-11.5199
▁portion	-11.5199
▁groan	-11.5199
▁calf	-11.5199
▁refrigerator	-11.5199
▁mike	-11.52
▁Juan	-11.52
▁keen	-11.52
▁reign	-11.5201
▁punch	-11.5201
▁Michigan	-11.5201
▁earnestly	-11.5201
▁coward	-11.5201
▁eeat	-11.5201
▁agony	-11.5202
▁distinction	-11.5202
▁billion	-11.5203
▁theory	-11.5203
▁plunged	-11.5204
▁axe	-11.5204
▁sweetie	-11.5205
▁Province	-11.5205
▁Might	-11.5205
▁established	-11.5206
▁net	-11.5208
▁mule	-11.5208
▁senator	-11.5208
▁proof	-11.5208
02	-11.5208
▁treatment	-11.5209
▁bap	-11.5209
▁É	-11.521
▁stolen	-11.5211
▁Sky	-11.5211
▁dreadfully	-11.5211
▁attitude	-11.5213
▁scale	-11.5213
odle	-11.5214
▁starred	-11.5216
▁fussy	-11.5217
▁ONE	-11.5218
inancial	-11.5221
▁35	-11.5223
▁Mal	-11.5227
▁indicated	-11.5228
▁ache	-11.5228
MT	-11.5231
▁provided	-11.5233
▁Fire	-11.5234
▁Carly	-11.5236
▁difficulty	-11.5239
▁del	-11.5242
▁Page	-11.5247
▁37	-11.5253
▁Gun	-11.5255
▁faster	-11.5256
▁gum	-11.5256
ALLY	-11.5257
▁bandage	-11.5258
▁gar	-11.5267
▁ge	-11.5268
▁cries	-11.5269
▁costs	-11.5275
▁reject	-11.528
berg	-11.5282
▁Shi	-11.5282
▁$2	-11.5284
▁charged	-11.5285
▁Isa	-11.5286
▁complaints	-11.5297
eyed	-11.5301
▁mon	-11.5303
▁factor	-11.5313
▁Soon	-11.532
▁masks	-11.5323
CA	-11.5325
▁brakes	-11.5329
▁VI	-11.5329
▁ver	-11.5335
▁dreaming	-11.5343
▁presented	-11.5345
▁checker	-11.5346
▁com	-11.5348
ski	-11.5353
▁hundreds	-11.5354
ita	-11.5357
▁Commons	-11.536
▁passengers	-11.536
▁covering	-11.5369
▁semi	-11.5369
IE	-11.5372
▁acted	-11.5373
▁fractures	-11.5375
35	-11.5382
▁beating	-11.5383
▁Gran	-11.5403
HE	-11.5407
▁Paula	-11.5425
▁fa	-11.5434
▁30,	-11.5437
name	-11.544
ould	-11.5454
▁display	-11.5461
2022)	-11.5463
itter	-11.5466
▁Inter	-11.5475
▁EXPs	-11.5499
▁GO	-11.5513
▁Pra	-11.5514
unk	-11.5517
▁link	-11.5526
80	-11.5526
TER	-11.553
▁features	-11.5532
ami	-11.5545
▁cubes	-11.5549
▁Sub	-11.5552
▁Forge	-11.5555
ata	-11.5557
▁mu	-11.5561
▁attacks	-11.5566
▁creat	-11.5573
mill	-11.5588
▁Upp	-11.5592
▁weapons	-11.5596
▁Bri	-11.5606
cla	-11.5608
▁Sai	-11.5613
nyway	-11.5615
▁walks	-11.5618
47	-11.5622
▁Ink	-11.5624
▁murmur	-11.5628
▁aim	-11.5642
▁Wom	-11.5648
▁Vu	-11.5649
▁lt	-11.565
▁rul	-11.5656
▁thousands	-11.5658
▁gen	-11.5672
cour	-11.5687
non	-11.5689
▁savage	-11.569
▁Girl	-11.5692
▁candle	-11.5692
▁items	-11.5694
ural	-11.5698
▁trace	-11.5698
rid	-11.5708
▁barrel	-11.5712
▁stroke	-11.5713
rio	-11.572
60	-11.5721
▁184	-11.5724
rp	-11.5727
▁HI	-11.5728
▁lighted	-11.5736
▁elephants	-11.5741
▁mend	-11.5742
magnets	-11.5756
▁Ana	-11.5759
make	-11.5761
sylum	-11.5763
▁primar	-11.5767
lets	-11.5787
▁strip	-11.5798
▁critic	-11.5798
MO	-11.5799
ander	-11.5808
▁Sch	-11.5816
▁occur	-11.5838
boards	-11.5838
▁achieve	-11.5854
▁Bent	-11.5856
ously	-11.5866
town	-11.5868
lapping	-11.5869
position	-11.5872
▁officials	-11.5872
mumbles	-11.5876
whispering	-11.5877
Dear	-11.5877
▁92	-11.5877
OLD	-11.5877
August	-11.5878
fast	-11.5878
With	-11.5878
June	-11.5878
▁Grande	-11.5879
New	-11.5879
life	-11.588
unclear	-11.5881
screams	-11.5882
▁affect	-11.5883
▁disturb	-11.5883
▁spoil	-11.5883
▁grant	-11.5884
cord	-11.5885
Isn	-11.5899
aught	-11.5901
▁1955	-11.5901
▁polite	-11.5901
▁pi	-11.5902
95	-11.5902
▁embarrass	-11.5908
frigerator	-11.5909
▁chose	-11.5909
▁compass	-11.591
▁stro	-11.5911
▁permit	-11.5911
▁Auxon	-11.5911
(192,220)}	-11.5911
▁Nanna	-11.5911
▁Potato	-11.5911
▁joking	-11.5911
Chancellor	-11.5911
▁1971	-11.5911
▁Audubon	-11.5911
▁Brenda	-11.5911
▁Conference	-11.5911
▁Dakota	-11.5911
▁Debby	-11.5911
▁Elliot	-11.5911
▁Emperor	-11.5911
▁Environment	-11.5911
▁Federal	-11.5911
▁Hurst	-11.5911
▁Labeija	-11.5911
▁Navy	-11.5911
▁Ninja	-11.5911
▁Price	-11.5911
▁Records	-11.5911
▁Reficul	-11.5911
▁Summer	-11.5911
▁Virginia	-11.5911
▁bucket	-11.5911
▁chimney	-11.5911
▁coffin	-11.5911
▁description	-11.5911
▁equipment	-11.5911
▁eventually	-11.5911
▁exclamation	-11.5911
▁fantastic	-11.5911
▁fountain	-11.5911
▁investigate	-11.5911
▁lantern	-11.5911
▁matron	-11.5911
▁mattress	-11.5911
▁naughty	-11.5911
▁nuuw	-11.5911
▁recognise	-11.5911
▁screen	-11.5911
▁screwdriver	-11.5911
▁shudder	-11.5911
▁sneak	-11.5911
▁sufficient	-11.5911
▁summit	-11.5911
▁suspended	-11.5911
▁uncomfortable	-11.5911
▁valuable	-11.5911
▁WILL	-11.5911
▁admire	-11.5911
▁chalk	-11.5911
▁gradual	-11.5911
▁ninight	-11.5911
▁Czech	-11.5911
▁Goumo	-11.5911
▁Always	-11.5911
▁accent	-11.5911
▁Josie	-11.5911
▁estimator	-11.5911
▁meekly	-11.5911
▁sought	-11.5911
▁Executive	-11.5911
——"	-11.5911
▁oblast	-11.5911
▁propeller	-11.5911
▁steadily	-11.5911
▁farewell	-11.5911
▁graham	-11.5912
▁permission	-11.5912
▁Talk	-11.5912
▁favourite	-11.5912
▁blade	-11.5912
▁cigarette	-11.5912
▁Carrie	-11.5912
▁Columbia	-11.5912
▁Slam	-11.5912
▁Marshall	-11.5912
▁Country	-11.5912
▁signature	-11.5912
▁wheelchair	-11.5912
▁arose	-11.5912
▁manufacturer	-11.5912
▁criminal	-11.5912
▁distribution	-11.5912
▁visible	-11.5912
▁betray	-11.5912
▁shaft	-11.5912
nflict	-11.5912
▁solid	-11.5912
▁stockings	-11.5912
▁1927	-11.5913
▁punk	-11.5913
▁schedule	-11.5913
▁Shelly	-11.5913
jake	-11.5913
▁Zack	-11.5913
▁DOG	-11.5913
▁diary	-11.5913
▁Fester	-11.5913
▁drape	-11.5913
▁reflection	-11.5913
▁Chairman	-11.5914
▁laig	-11.5914
▁Grandma	-11.5914
▁consent	-11.5914
▁reaction	-11.5914
▁chasing	-11.5914
▁madam	-11.5915
▁Zach	-11.5915
▁Blackie	-11.5915
▁Marine	-11.5915
▁hesitated	-11.5915
▁Anderson	-11.5916
▁Julius	-11.5916
▁sweater	-11.5917
Get	-11.5917
▁angel	-11.5917
▁Kun	-11.5917
▁Rome	-11.5917
▁Ella	-11.5917
▁Anish	-11.5918
▁skating	-11.5918
▁leather	-11.5918
▁mobile	-11.5918
▁Kato	-11.5919
▁shallow	-11.5919
▁thankful	-11.592
▁Rowdy	-11.592
▁Tack	-11.592
▁wretched	-11.5921
▁organized	-11.5921
▁Yoma	-11.5922
▁linger	-11.5923
▁Char	-11.5924
▁flushed	-11.5925
▁Back	-11.5927
▁swiftly	-11.5928
▁hind	-11.5934
▁lemm	-11.5935
▁granted	-11.5939
▁tightly	-11.5939
▁butcher	-11.5939
▁nation	-11.594
▁sack	-11.5941
other	-11.5942
▁Ray	-11.5947
▁Crow	-11.5947
▁quicker	-11.595
▁sewing	-11.5951
▁Secrets	-11.5953
▁immigrants	-11.5953
▁tenor	-11.5957
xy	-11.5958
▁Princess	-11.5961
▁proudly	-11.5961
▁begged	-11.5962
▁statistic	-11.5968
▁stealing	-11.5968
▁Cop	-11.5971
▁worthy	-11.5971
▁Mad	-11.5976
▁debut	-11.5977
▁Working	-11.5978
▁seeds	-11.5984
stand	-11.5986
natured	-11.5991
▁Hard	-11.5997
▁Amy	-11.5998
arian	-11.6002
▁worker	-11.6009
▁74	-11.601
▁Bi	-11.6011
▁1.6	-11.6013
▁photographs	-11.602
▁explained	-11.6025
▁rolls	-11.6027
▁wire	-11.6027
▁causes	-11.6027
▁rail	-11.6027
▁Walt	-11.603
▁Mountains	-11.6036
▁pl	-11.6036
ashed	-11.6039
▁painter	-11.6041
▁inch	-11.6041
bur	-11.6045
▁Games	-11.6053
▁shops	-11.6054
iest	-11.6059
▁visited	-11.6066
ROM	-11.6068
▁Ke	-11.6076
fl	-11.6084
Mi	-11.6086
▁neighbours	-11.6087
▁peaceful	-11.609
NO	-11.6092
ize	-11.6094
29	-11.6095
makes	-11.6103
STON	-11.6106
▁feared	-11.6116
▁lands	-11.6119
ular	-11.6128
ware	-11.6131
toy	-11.6133
▁Tha	-11.6134
▁barrels	-11.6137
cho	-11.6137
▁Est	-11.6137
evel	-11.6139
EST	-11.6142
▁agin	-11.6143
lance	-11.6144
▁tooth	-11.6146
▁wards	-11.6171
ington	-11.6173
▁bush	-11.6176
▁whoop	-11.6177
MAS	-11.6177
▁gl	-11.6178
ari	-11.618
pen	-11.6196
ove	-11.6201
▁clearing	-11.621
▁kinda	-11.621
leas	-11.6215
BA	-11.6218
blo	-11.622
▁customers	-11.6225
▁nicely	-11.6232
▁hid	-11.6243
lter	-11.6247
▁trained	-11.6249
▁187	-11.6251
▁islands	-11.6256
▁tickets	-11.6256
▁lions	-11.6257
ius	-11.6257
iously	-11.6261
▁depends	-11.627
aged	-11.6279
▁MA	-11.6284
▁preferr	-11.6293
▁resting	-11.6299
▁Kr	-11.6301
▁nails	-11.6308
UR	-11.6317
umber	-11.6333
▁dig	-11.6339
▁42	-11.6342
▁pools	-11.6342
▁TOO	-11.6358
plays	-11.6372
ada	-11.6379
▁transfer	-11.638
band	-11.6398
▁Lar	-11.6399
▁rip	-11.6399
▁load	-11.6431
upp	-11.6441
turn	-11.6444
▁sample	-11.6458
▁root	-11.6459
Ville	-11.646
▁option	-11.6462
▁episode	-11.6462
▁cheek	-11.6463
▁vegetable	-11.6464
▁feather	-11.6464
▁82	-11.6465
▁economic	-11.6466
▁parent	-11.6467
▁poem	-11.6468
▁Tree	-11.6471
▁lesson	-11.6477
election	-11.648
▁Har	-11.6482
▁meals	-11.6483
▁backward	-11.6492
▁pans	-11.6498
▁plea	-11.651
ipping	-11.6512
▁cent	-11.6515
▁messages	-11.6516
owa	-11.6528
▁Del	-11.6532
▁triumph	-11.6545
▁southwest	-11.6553
▁300	-11.6557
▁Bach	-11.6565
ody	-11.6565
▁Cho	-11.6578
lew	-11.6581
▁Ver	-11.6583
▁prince	-11.6584
found	-11.6592
▁follows	-11.6593
▁weigh	-11.6594
▁bull	-11.6595
part	-11.6596
cap	-11.6611
reads	-11.6627
▁Elect	-11.6629
cakes	-11.6635
▁Mer	-11.6641
▁$1.	-11.6644
view	-11.6645
drawing	-11.6647
check	-11.6647
▁hug	-11.6647
Paul	-11.6648
▁Cay	-11.665
▁spank	-11.6651
▁twist	-11.6653
▁Kame	-11.6653
Every	-11.6655
July	-11.6656
force	-11.6657
▁guarantee	-11.6657
▁describe	-11.6659
Page	-11.6659
▁Ham	-11.6661
dopted	-11.6668
handed	-11.6669
▁Fair	-11.6671
▁Rock	-11.6671
ologist	-11.6673
▁THANK	-11.6673
▁LA	-11.6673
Note	-11.6675
▁dropp	-11.6675
▁engage	-11.6676
▁recent	-11.6676
▁witness	-11.6676
▁administrati	-11.6679
▁Harris	-11.6679
▁disagree	-11.6679
▁Euro	-11.668
▁expert	-11.668
maid	-11.668
▁vocal	-11.668
ö	-11.6681
°	-11.6681
imitating	-11.6681
▁1951	-11.6681
▁1973	-11.6681
▁ARROWS	-11.6681
▁Adrian	-11.6681
▁Arthur	-11.6681
▁Assembly	-11.6681
▁BACK	-11.6681
▁CHRIST	-11.6681
▁Colorado	-11.6681
▁Detective	-11.6681
▁Director	-11.6681
▁Fairmount	-11.6681
▁LIFE	-11.6681
▁Lincoln	-11.6681
▁Medicine	-11.6681
▁OVER	-11.6681
▁Oxfordshire	-11.6681
▁Premier	-11.6681
▁Rafael	-11.6681
▁SOME	-11.6681
▁Stokke	-11.6681
▁Territory	-11.6681
▁Toyama	-11.6681
▁Turkey	-11.6681
▁Wichita	-11.6681
▁Zealand	-11.6681
▁allergic	-11.6681
▁application	-11.6681
▁awhile	-11.6681
▁choking	-11.6681
▁chowder	-11.6681
▁commercial	-11.6681
▁culture	-11.6681
▁divorce	-11.6681
▁essential	-11.6681
▁fantasy	-11.6681
▁french	-11.6681
▁gleam	-11.6681
▁glimpse	-11.6681
▁gracious	-11.6681
▁happily	-11.6681
▁microwave	-11.6681
▁moomilk	-11.6681
▁porridge	-11.6681
▁procedure	-11.6681
▁representative	-11.6681
▁somersault	-11.6681
▁supply	-11.6681
▁suspicion	-11.6681
▁terrific	-11.6681
▁tragedy	-11.6681
▁tremendous	-11.6681
▁tunnel	-11.6681
▁vacation	-11.6681
▁valentine	-11.6681
songwriter	-11.6681
▁Chicken	-11.6681
▁Essert	-11.6681
▁Plus	-11.6681
▁Thirty	-11.6681
▁animated	-11.6681
▁behalf	-11.6681
▁dairy	-11.6681
▁grinned	-11.6681
▁intention	-11.6681
▁Member	-11.6681
▁Senator	-11.6681
▁security	-11.6681
▁Davis	-11.6681
▁Horse	-11.6681
▁Company	-11.6681
▁structure	-11.6681
▁innkeeper	-11.6681
▁pronunciation	-11.6681
▁bliss	-11.6681
▁interface	-11.6681
▁wrath	-11.6681
▁Madrid	-11.6681
▁potential	-11.6681
▁palace	-11.6681
▁executive	-11.6681
▁Brandy	-11.6681
▁burp	-11.6681
▁Flupper	-11.6681
▁cartoon	-11.6681
rilla	-11.6681
▁jingle	-11.6681
▁cloak	-11.6681
▁Radio	-11.6681
▁radiator	-11.6681
▁stress	-11.6681
utonom	-11.6681
▁wolf	-11.6681
▁Ready	-11.6681
Lightspeed	-11.6681
▁Theatre	-11.6681
▁robins	-11.6681
▁Knowles	-11.6681
▁appointment	-11.6681
▁cattle	-11.6681
▁Battle	-11.6681
▁hamster	-11.6681
▁belief	-11.6681
▁gobble	-11.6681
▁plug	-11.6681
▁Know	-11.6681
▁Atlanti	-11.6681
▁digging	-11.6681
▁ketchup	-11.6681
▁1928	-11.6681
▁shaking	-11.6681
▁chemistry	-11.6681
▁entertainment	-11.6681
▁1929	-11.6681
▁Unless	-11.6681
▁nickel	-11.6681
▁diagnos	-11.6681
▁Somebody	-11.6682
▁debt	-11.6682
▁Near	-11.6682
▁stout	-11.6682
▁childhood	-11.6682
▁combat	-11.6682
▁maze	-11.6682
▁grandson	-11.6682
▁runaway	-11.6682
▁Patty	-11.6682
▁stoop	-11.6682
▁Orange	-11.6682
▁cancel	-11.6683
▁saddle	-11.6683
▁?[	-11.6683
▁flock	-11.6683
▁[4.5	-11.6683
▁hostage	-11.6683
▁evidently	-11.6683
▁sidewalk	-11.6683
▁lumber	-11.6683
▁consist	-11.6683
▁undertake	-11.6683
▁alma	-11.6683
▁popped	-11.6684
▁fridge	-11.6684
▁troop	-11.6684
▁Kix	-11.6684
▁dismay	-11.6684
▁invitation	-11.6684
▁mailman	-11.6684
▁Mabel	-11.6684
▁Order	-11.6684
ruz	-11.6685
▁Cass	-11.6685
▁dragon	-11.6685
▁recommendation	-11.6685
▁plot	-11.6685
▁pancake	-11.6685
▁basic	-11.6685
▁Leader	-11.6686
▁crest	-11.6686
▁suggestion	-11.6686
▁coke	-11.6686
▁mustache	-11.6687
▁Lind	-11.6687
▁haul	-11.6687
▁referee	-11.6687
▁fever	-11.6687
▁frost	-11.6687
▁buffaloes	-11.6688
▁tanker	-11.6688
▁Ney	-11.6688
▁94	-11.6688
▁nonsense	-11.6688
▁tissue	-11.6688
▁Weather	-11.6688
▁Maine	-11.6688
▁fern	-11.6688
▁mouse	-11.6688
▁brass	-11.6689
▁tide	-11.669
odern	-11.6691
▁annoyed	-11.6691
▁Cross	-11.6691
▁oak	-11.6691
▁booth	-11.6691
rough	-11.6691
▁politely	-11.6691
▁wig	-11.6692
eux	-11.6692
▁nearby	-11.6692
▁factory	-11.6692
▁mumbled	-11.6693
▁bishop	-11.6693
▁Morning	-11.6693
▁educated	-11.6694
▁closing	-11.6694
rès	-11.6694
▁thoughtfully	-11.6694
▁induced	-11.6695
▁proceeded	-11.6695
▁tuck	-11.6695
▁Clock	-11.6696
atsu	-11.6697
▁curiously	-11.6697
▁reflected	-11.6702
▁Neil	-11.6703
Cie	-11.6703
▁Gay	-11.6703
working	-11.6703
▁honestly	-11.6705
▁sofa	-11.6705
venge	-11.6707
▁charming	-11.6707
▁verse	-11.6708
▁maid	-11.6711
▁Tick	-11.6711
indicating	-11.6711
poli	-11.6711
▁brains	-11.6712
Pretty	-11.6718
▁Name	-11.672
▁Marsh	-11.6721
▁secretly	-11.6726
▁Kid	-11.6728
▁Cole	-11.6729
▁wishes	-11.6729
ICE	-11.6732
▁claimed	-11.6733
▁Pine	-11.6734
▁anger	-11.6735
▁Whit	-11.6736
▁faithful	-11.6737
▁safely	-11.6737
▁responded	-11.6742
▁poke	-11.6744
▁Joey	-11.6745
▁Part	-11.6751
▁dime	-11.6752
-19	-11.6762
nia	-11.6767
▁Alma	-11.6773
▁1.8	-11.6774
▁Jon	-11.6775
▁188	-11.6778
▁hunted	-11.6778
▁princess	-11.6778
▁longest	-11.6778
▁Services	-11.678
ality	-11.6786
▁CAT	-11.6788
▁kicked	-11.6788
▁honored	-11.6789
▁Cam	-11.6791
▁fights	-11.6792
▁grabb	-11.6794
▁Fran	-11.6794
▁Age	-11.68
▁thar	-11.6801
lalight	-11.6805
▁thy	-11.6809
▁watches	-11.6812
aves	-11.6814
▁counting	-11.6831
▁terrorists	-11.6834
▁nicer	-11.6835
▁gaz	-11.6847
birds	-11.6855
▁1.3	-11.6857
bit	-11.6862
▁Dal	-11.6865
▁Arts	-11.6866
▁Oi	-11.6869
▁prayers	-11.6874
awa	-11.688
▁challenge	-11.6882
isa	-11.689
23	-11.6894
PE	-11.6902
▁DE	-11.6906
▁economics	-11.6907
▁poems	-11.6907
▁1978	-11.692
▁candles	-11.6925
▁traces	-11.6925
▁savages	-11.6925
▁dressing	-11.6927
▁rep	-11.6935
▁controll	-11.6939
avier	-11.6954
▁clouds	-11.6962
last	-11.6977
▁rats	-11.6991
▁knocking	-11.6993
ohyl	-11.6997
UL	-11.6998
▁Sara	-11.7
then	-11.7
28	-11.7009
▁Ross	-11.7012
▁180	-11.7015
away	-11.7019
▁Un	-11.7022
▁Spe	-11.7033
▁darn	-11.7034
▁markers	-11.7046
▁Monte	-11.7063
know	-11.707
▁era	-11.7071
uf	-11.7074
▁bid	-11.7077
▁nests	-11.7081
▁Bir	-11.7083
▁Nations	-11.7086
itch	-11.7087
▁Revolution	-11.7094
rug	-11.7097
chang	-11.7103
▁awe	-11.7125
▁ghosts	-11.7148
▁cared	-11.7168
ify	-11.7169
▁Use	-11.7171
peg	-11.7173
-2	-11.721
▁visits	-11.721
▁mids	-11.7234
eno	-11.7235
▁Victor	-11.7256
bird	-11.7259
ization	-11.7275
hua	-11.7279
▁relation	-11.7289
▁concept	-11.7292
▁fracture	-11.7294
▁Olympic	-11.7295
▁rustle	-11.7297
▁organisation	-11.7299
aki	-11.7319
ears	-11.7324
▁web	-11.7324
▁Ball	-11.7347
▁logs	-11.7353
bin	-11.7356
▁borders	-11.7356
lace	-11.7387
onne	-11.7392
▁Bor	-11.7392
fied	-11.7393
’”	-11.7397
▁charit	-11.74
GAR	-11.7407
▁ships	-11.7409
ei	-11.741
▁ob	-11.741
▁tons	-11.7421
▁fee	-11.7424
▁freeze	-11.7439
▁longing	-11.7443
▁horizon	-11.7444
keep	-11.7446
stairs	-11.7447
standing	-11.7465
oma	-11.7469
ARD	-11.7472
▁Dun	-11.7472
▁guessing	-11.7473
Indeed	-11.7479
▁publish	-11.7479
hearted	-11.7479
grab	-11.748
cloth	-11.748
father	-11.748
April	-11.748
Fraser	-11.748
school	-11.748
please	-11.7481
wise	-11.7481
click	-11.7481
Yeah	-11.7481
eller	-11.7481
leep	-11.7482
storm	-11.7482
camera	-11.7482
trying	-11.7483
▁require	-11.7483
orange	-11.7484
▁TI	-11.7487
walk	-11.7487
▁swor	-11.7488
▁intend	-11.7488
▁swam	-11.7489
▁recover	-11.7489
mail	-11.749
shows	-11.7492
speaking	-11.7494
▁introduce	-11.7495
▁charm	-11.7498
▁Pink	-11.7502
▁Poli	-11.7502
▁gloom	-11.7503
▁mysterious	-11.7503
▁Drop	-11.7504
▁Speak	-11.7504
▁consume	-11.7504
nine	-11.7505
▁joyful	-11.7508
woman	-11.7509
continu	-11.751
▁crutch	-11.751
starts	-11.7511
▁runnin	-11.7512
▁patch	-11.7512
▁hollo	-11.7513
▁document	-11.7513
▁Mist	-11.7514
▁refresh	-11.7514
▁1976	-11.7514
▁Alzheimer	-11.7514
▁Arapaho	-11.7514
▁Corporation	-11.7514
▁SOMETHING	-11.7514
▁Xtravaganza	-11.7514
▁execution	-11.7514
▁flood	-11.7514
▁grasp	-11.7514
▁shilling	-11.7514
▁tremble	-11.7514
SIGHS	-11.7514
pollution	-11.7514
ú	-11.7514
▁1932	-11.7514
▁1983	-11.7514
▁1999	-11.7514
▁Aldithely	-11.7514
▁Amsterdam	-11.7514
▁Argentine	-11.7514
▁Arizona	-11.7514
▁Austin	-11.7514
▁Bangladesh	-11.7514
▁Channel	-11.7514
▁Chanéaz	-11.7514
▁Correvon	-11.7514
▁Coventry	-11.7514
▁Cummings	-11.7514
▁Dartmoor	-11.7514
▁Denezy	-11.7514
▁Eminence	-11.7514
▁Facult	-11.7514
▁Festival	-11.7514
▁Florry	-11.7514
▁Gentlemen	-11.7514
▁Hamilton	-11.7514
▁Leipzig	-11.7514
▁MOBA	-11.7514
▁Martherenges	-11.7514
▁Montanaire	-11.7514
▁Moscow	-11.7514
▁Nikki	-11.7514
▁Norfolk	-11.7514
▁Peruvian	-11.7514
▁PlayStation	-11.7514
▁SFWA	-11.7514
▁Safety	-11.7514
▁Scientist	-11.7514
▁Scotland	-11.7514
▁Suddenly	-11.7514
▁Supreme	-11.7514
▁System	-11.7514
▁Twenty	-11.7514
▁Variation	-11.7514
▁ancestor	-11.7514
▁angrily	-11.7514
▁appetite	-11.7514
▁ceiling	-11.7514
▁concert	-11.7514
▁confidence	-11.7514
▁consciousness	-11.7514
▁defense	-11.7514
▁eagle	-11.7514
▁economy	-11.7514
▁fetch	-11.7514
▁fortunate	-11.7514
▁fraud	-11.7514
▁immense	-11.7514
▁inclined	-11.7514
▁leisure	-11.7514
▁magnificent	-11.7514
▁maintain	-11.7514
▁nipple	-11.7514
▁pathetic	-11.7514
▁popcorn	-11.7514
▁porch	-11.7514
▁precious	-11.7514
▁satisfied	-11.7514
▁sensible	-11.7514
▁superior	-11.7514
▁surgery	-11.7514
▁syrup	-11.7514
▁tattoo	-11.7514
▁territory	-11.7514
▁unkind	-11.7514
▁variety	-11.7514
▁Grannis	-11.7514
▁Harvey	-11.7514
▁collaborat	-11.7514
▁nomination	-11.7514
▁pupils	-11.7514
▁pussy	-11.7514
▁website	-11.7514
▁Center	-11.7514
▁costume	-11.7514
▁rumor	-11.7514
▁whiny	-11.7514
▁Norway	-11.7514
▁weasel	-11.7514
▁mercy	-11.7514
▁policy	-11.7514
▁rifle	-11.7514
▁Carolina	-11.7514
▁whirl	-11.7514
▁boast	-11.7514
▁yacht	-11.7514
▁bucks	-11.7514
▁Suppose	-11.7514
▁clack	-11.7514
▁honour	-11.7514
▁Spark	-11.7514
▁sarcastic	-11.7514
▁grammar	-11.7514
▁liability	-11.7514
▁Biden	-11.7514
▁scholarship	-11.7514
▁Caroline	-11.7514
▁Nadine	-11.7514
▁Chuck	-11.7514
▁internet	-11.7514
▁Semple	-11.7514
▁baked	-11.7514
▁provision	-11.7514
▁Nagata	-11.7514
▁salary	-11.7514
▁pills	-11.7514
▁1931	-11.7514
▁1946	-11.7514
▁committed	-11.7514
▁Edgar	-11.7514
▁punishment	-11.7514
▁shark	-11.7514
▁mummy	-11.7514
▁Roany	-11.7514
▁territories	-11.7514
▁limp	-11.7514
▁Clay	-11.7515
▁invention	-11.7515
▁legendary	-11.7515
▁Airport	-11.7515
▁muzzle	-11.7515
▁resignation	-11.7515
▁tiresome	-11.7515
▁crystal	-11.7515
▁dawn	-11.7515
anguish	-11.7515
▁denied	-11.7515
▁Step	-11.7515
▁gram	-11.7515
▁worldwide	-11.7515
▁shopping	-11.7515
▁Fairies	-11.7515
▁disagreeable	-11.7515
▁Cookie	-11.7515
Possens	-11.7516
▁geese	-11.7516
▁Especially	-11.7516
▁chatter	-11.7516
▁amusement	-11.7516
▁creamery	-11.7516
▁gross	-11.7516
▁DOWN	-11.7516
▁HEY	-11.7516
▁Mandy	-11.7516
▁Owl	-11.7516
FF	-11.7516
▁secretary	-11.7516
▁COULD	-11.7516
▁poach	-11.7516
▁Nicola	-11.7517
▁Board	-11.7517
▁Feel	-11.7517
▁Haut	-11.7517
▁gentleman	-11.7517
▁reference	-11.7518
▁tank	-11.7518
▁Southwestern	-11.7518
Vennes	-11.7518
▁Knight	-11.7518
▁litera	-11.7518
▁flee	-11.7518
▁Wood	-11.7518
▁Korean	-11.7518
▁cushion	-11.7519
▁occupation	-11.7519
▁illusion	-11.7519
▁personality	-11.7519
▁Costa	-11.7519
▁Princeton	-11.7519
▁sway	-11.7519
▁gang	-11.7519
rept	-11.752
▁danny	-11.7521
▁alto	-11.7521
▁Belize	-11.7522
▁Kenneth	-11.7522
▁Dallas	-11.7522
▁fake	-11.7522
▁THANKS	-11.7522
▁tropic	-11.7522
▁Heaven	-11.7522
▁reserved	-11.7523
▁examined	-11.7523
▁skip	-11.7524
▁squash	-11.7524
▁readily	-11.7524
▁convinced	-11.7524
▁Left	-11.7525
▁73	-11.7526
▁sickness	-11.7527
▁reasonable	-11.7527
▁pang	-11.7528
▁amused	-11.7529
▁code	-11.7529
▁Sherry	-11.7529
▁nominated	-11.753
▁Lausanne	-11.7531
41	-11.7531
▁pinch	-11.7531
▁anyhow	-11.7531
▁vow	-11.7532
▁Help	-11.7532
▁brandy	-11.7532
▁Dick	-11.7533
▁Down	-11.7534
▁Ron	-11.7535
▁JOHN	-11.7537
▁mini	-11.7537
▁runner	-11.7538
▁Tock	-11.7538
inal	-11.7538
▁Lovely	-11.754
▁introduced	-11.754
▁scraping	-11.754
ELL	-11.754
▁OOH	-11.7541
▁racer	-11.7541
▁milkman	-11.7543
▁calmly	-11.7545
▁overwhelm	-11.7545
▁WELL	-11.7546
col	-11.7547
▁meantime	-11.7548
▁reel	-11.7551
▁nearest	-11.7553
▁peak	-11.7554
▁louder	-11.7556
▁paw	-11.7556
▁sixth	-11.7556
▁Fall	-11.7556
▁fate	-11.7558
▁Juliet	-11.7559
▁printed	-11.7559
▁inquired	-11.7561
▁Bring	-11.7561
lp	-11.7562
▁Gil	-11.7562
▁Eh	-11.7565
range	-11.7567
▁dwell	-11.7569
▁Ow	-11.7569
▁completed	-11.7572
▁hint	-11.7574
▁95	-11.7575
▁hardest	-11.7577
▁basement	-11.7577
yo	-11.7579
CDP	-11.758
▁advanced	-11.7582
▁status	-11.7582
▁driven	-11.7582
pole	-11.7583
▁swallowed	-11.7583
LOCK	-11.7586
45	-11.7589
UE	-11.7589
▁Sex	-11.7589
▁owl	-11.759
▁entering	-11.7591
▁involve	-11.7595
▁designer	-11.7596
▁stronger	-11.7597
▁Corps	-11.7599
▁wounded	-11.76
Ju	-11.7601
▁competitors	-11.7602
▁Carlos	-11.7603
4.3	-11.7605
▁screwed	-11.7607
▁presenter	-11.7609
WARD	-11.7611
correct	-11.7616
▁mast	-11.7621
tas	-11.7622
▁Kim	-11.7629
tempo	-11.7642
▁Song	-11.7642
▁dresser	-11.7643
▁1.7	-11.7646
▁attempted	-11.7649
EAR	-11.7649
cast	-11.7657
▁paddocks	-11.7662
▁Kin	-11.7664
▁offering	-11.7667
▁buds	-11.767
▁beautifully	-11.767
▁[$=2	-11.7677
▁Nora	-11.7678
▁goat	-11.7681
▁bubbles	-11.7681
▁Chile	-11.7683
▁hurrying	-11.7685
▁testing	-11.7697
▁bade	-11.7703
▁hugg	-11.7713
▁online	-11.7714
▁comrades	-11.7721
▁stake	-11.7722
▁mare	-11.7726
▁Alle	-11.7733
LOU	-11.7742
▁awards	-11.7742
ike	-11.7748
▁Live	-11.7753
▁lightly	-11.7759
▁roots	-11.7761
▁samples	-11.7761
His	-11.7764
▁Victoria	-11.7767
▁meme	-11.7773
▁dart	-11.7798
▁Chan	-11.7804
▁Fat	-11.7814
▁award	-11.7815
ello	-11.7827
▁lasted	-11.7827
▁wagg	-11.7828
Gu	-11.7839
gni	-11.7841
▁Die	-11.7844
rov	-11.787
▁Bl	-11.7876
▁fans	-11.7887
▁76	-11.7889
▁needles	-11.7892
▁pace	-11.7909
▁SUN	-11.7912
OO	-11.7913
▁lover	-11.7919
▁spa	-11.7921
term	-11.7926
Un	-11.7932
▁Pan	-11.7944
UCK	-11.7955
▁Haven	-11.7969
▁scrape	-11.7985
▁comments	-11.7992
▁hurting	-11.7998
ille	-11.8005
▁select	-11.8007
▁wander	-11.801
70	-11.8012
lated	-11.802
apping	-11.8031
see	-11.8032
▁Warn	-11.8039
▁Dai	-11.8044
▁Hob	-11.8086
▁mills	-11.8087
lock	-11.8098
nyone	-11.8102
▁chips	-11.8107
▁Pr	-11.8117
▁Lot	-11.8126
▁programs	-11.8128
wn	-11.813
1.9	-11.8134
▁choppe	-11.8135
▁efforts	-11.8149
HEN	-11.8151
okay	-11.8152
▁promote	-11.8153
▁OR	-11.816
▁ec	-11.818
.'"	-11.8182
▁ce	-11.8184
ional	-11.8187
give	-11.8199
▁comrade	-11.8201
NT	-11.8201
▁announce	-11.8202
▁neighbour	-11.8202
▁Twin	-11.8203
▁passenger	-11.8203
▁Common	-11.8208
▁PR	-11.821
▁projects	-11.8211
▁prayer	-11.8219
▁pursue	-11.8231
1967)	-11.8232
▁prices	-11.8232
▁tel	-11.8245
struction	-11.8247
dden	-11.8266
osh	-11.8269
ature	-11.8279
▁75	-11.8281
bc	-11.8292
atch	-11.8302
oral	-11.8307
ntai	-11.8338
girl	-11.8342
calling	-11.8342
member	-11.836
▁purchase	-11.8365
▁Friend	-11.8366
imme	-11.8374
rising	-11.8376
celle	-11.8378
▁slid	-11.8381
eight	-11.8384
complete	-11.8389
shirt	-11.8389
Will	-11.8389
explain	-11.8389
horse	-11.8389
good	-11.839
▁tax	-11.839
direct	-11.8391
Bill	-11.8391
someone	-11.8392
wants	-11.8392
▁disgust	-11.8393
four	-11.8393
▁repair	-11.8394
string	-11.8398
▁assist	-11.84
burn	-11.8401
because	-11.8402
▁retire	-11.8403
load	-11.8404
War	-11.8406
oker	-11.8407
▁Ash	-11.8408
arin	-11.8409
▁distinct	-11.8411
▁1957	-11.8412
▁creep	-11.8412
▁prepare	-11.8413
bly	-11.8414
▁exact	-11.8414
related	-11.8416
▁mosquito	-11.8418
turned	-11.842
▁givin	-11.8421
▁lame	-11.8421
▁Liber	-11.8422
▁progress	-11.8422
▁ketch	-11.8422
▁contest	-11.8422
▁peach	-11.8422
▁havin	-11.8422
▁rival	-11.8423
ç	-11.8423
▁MaryJane	-11.8423
▁exquisite	-11.8423
▁global	-11.8423
▁sacred	-11.8423
▁sensitive	-11.8423
▁significant	-11.8423
▁uncertain	-11.8423
Kickapoo	-11.8423
Yverdon	-11.8423
järvi	-11.8423
pplause	-11.8423
▁1958	-11.8423
▁Already	-11.8423
▁Antonio	-11.8423
▁Bartlemy	-11.8423
▁Census	-11.8423
▁Episode	-11.8423
▁Express	-11.8423
▁Fernando	-11.8423
▁Flossie	-11.8423
▁Hooey	-11.8423
▁Hurley	-11.8423
▁JOEY	-11.8423
▁Murray	-11.8423
▁Packard	-11.8423
▁Railroad	-11.8423
▁Research	-11.8423
▁Spencer	-11.8423
▁Spirit	-11.8423
▁Stadium	-11.8423
▁TRIP	-11.8423
▁Vantablack	-11.8423
▁WHITTAKER	-11.8423
▁Walenda	-11.8423
▁Washburn	-11.8423
▁aggressive	-11.8423
▁alkali	-11.8423
▁arbutus	-11.8423
▁associate	-11.8423
▁association	-11.8423
▁barbecue	-11.8423
▁bubba	-11.8423
▁category	-11.8423
▁conceal	-11.8423
▁crisis	-11.8423
▁deceived	-11.8423
▁depression	-11.8423
▁dinosaur	-11.8423
▁economist	-11.8423
▁explanation	-11.8423
▁frame	-11.8423
▁hiccup	-11.8423
▁importance	-11.8423
▁independence	-11.8423
▁indication	-11.8423
▁intelligent	-11.8423
▁mushrooms	-11.8423
▁politics	-11.8423
▁possibility	-11.8423
▁presidency	-11.8423
▁regatta	-11.8423
▁relieved	-11.8423
▁sabotag	-11.8423
▁scientific	-11.8423
▁slender	-11.8423
▁splendor	-11.8423
▁suppress	-11.8423
▁surrounding	-11.8423
▁thorough	-11.8423
▁velvet	-11.8423
▁vitamin	-11.8423
▁wisdom	-11.8423
Rhin	-11.8423
fontaine	-11.8423
▁CHUNG	-11.8423
▁Celia	-11.8423
▁Jeff	-11.8423
▁Several	-11.8423
▁Sultan	-11.8423
▁Vincent	-11.8423
▁ballerina	-11.8423
▁Civi	-11.8423
▁Jewell	-11.8423
▁SAY	-11.8423
▁TAKE	-11.8423
▁bathtub	-11.8423
▁mamma	-11.8423
▁northeast	-11.8423
▁recess	-11.8423
▁1949	-11.8423
▁Coast	-11.8423
▁agency	-11.8423
▁Marcus	-11.8423
▁Perform	-11.8423
▁Water	-11.8423
▁treble	-11.8423
▁urgent	-11.8423
▁Winter	-11.8423
▁humming	-11.8423
▁Championship	-11.8423
▁Rebecca	-11.8423
▁Bremer	-11.8423
▁Pedro	-11.8423
▁torture	-11.8423
▁Blue	-11.8423
▁Vernon	-11.8423
▁deriv	-11.8423
▁disguis	-11.8423
▁idol	-11.8423
Candyman	-11.8423
▁CONNIE	-11.8423
▁Geography	-11.8423
LAND	-11.8423
▁deputy	-11.8423
▁AGAIN	-11.8423
▁ignorant	-11.8423
▁Hayward	-11.8423
▁trash	-11.8423
▁Gramm	-11.8423
▁Typ	-11.8423
▁abuse	-11.8423
▁network	-11.8423
journ	-11.8423
▁Prix	-11.8423
▁Through	-11.8423
▁pirate	-11.8423
▁wreck	-11.8423
▁baggage	-11.8423
▁streak	-11.8423
▁Maggie	-11.8423
▁Panda	-11.8423
▁Monster	-11.8423
▁scoot	-11.8424
▁noisy	-11.8424
▁yawn	-11.8424
▁guitarist	-11.8424
▁waving	-11.8424
▁employee	-11.8424
▁speedily	-11.8424
▁applie	-11.8424
▁1947	-11.8424
▁Philippa	-11.8424
▁kidney	-11.8424
▁adoption	-11.8424
▁angle	-11.8424
▁torment	-11.8424
keeper	-11.8424
▁Marcel	-11.8424
▁Village	-11.8424
▁Season	-11.8424
▁Gordi	-11.8424
▁retirement	-11.8424
▁Marino	-11.8425
▁Authority	-11.8425
▁disappointment	-11.8425
▁senior	-11.8425
▁instructions	-11.8425
▁Lisa	-11.8425
▁abruptly	-11.8425
▁Drink	-11.8426
▁Road	-11.8426
▁review	-11.8426
▁feat	-11.8426
▁wholly	-11.8426
▁SURE	-11.8427
thology	-11.8427
▁Tomorrow	-11.8427
▁Qui	-11.8427
▁transport	-11.8427
▁Gray	-11.8428
▁NCAA	-11.8428
▁context	-11.8428
▁crinkling	-11.8428
▁moral	-11.8428
▁tease	-11.8428
▁plough	-11.8428
▁Half	-11.8428
▁Biddle	-11.8429
▁LET	-11.8429
▁Writer	-11.8429
▁unsuccessfully	-11.843
▁Fern	-11.843
▁pierce	-11.843
▁sunny	-11.8431
▁founder	-11.8432
▁mama	-11.8432
▁sweetheart	-11.8432
▁Push	-11.8432
▁observed	-11.8432
▁toxin	-11.8432
▁Rick	-11.8433
▁faded	-11.8433
▁reply	-11.8435
▁STOP	-11.8435
▁Dart	-11.8435
nods	-11.8435
▁Station	-11.8435
▁startled	-11.8435
▁shone	-11.8435
▁annoying	-11.8435
▁Mick	-11.8436
▁wealth	-11.8438
▁Commander	-11.8438
▁severely	-11.8438
▁profit	-11.8438
▁Bowling	-11.8438
brows	-11.8439
▁highway	-11.8439
▁approved	-11.8439
▁trailer	-11.8439
▁knitt	-11.8439
▁Speaker	-11.8439
▁desperately	-11.844
▁rub	-11.844
▁extended	-11.8441
▁TIME	-11.8442
▁Keeper	-11.8443
▁hopeless	-11.8443
▁repel	-11.8444
▁elderly	-11.8445
▁cheerfully	-11.8445
▁thrilling	-11.8446
▁partial	-11.8447
▁required	-11.8447
See	-11.845
▁warmth	-11.8451
▁wandered	-11.8454
▁Inez	-11.8454
▁Donna	-11.8454
▁criticism	-11.8455
▁twisted	-11.8456
▁ashes	-11.8457
▁CD	-11.8457
▁packed	-11.8462
▁Indeed	-11.8462
▁Doesn	-11.8462
▁scan	-11.8463
▁Lion	-11.8463
▁Wasn	-11.8464
▁scrap	-11.8469
▁union	-11.8469
▁distan	-11.8471
▁defeated	-11.8472
▁Bal	-11.8472
▁naturally	-11.8475
▁ashore	-11.8475
▁Horrors	-11.8477
▁mistaken	-11.8477
WHI	-11.8479
▁pitcher	-11.8483
▁bounce	-11.8486
▁sector	-11.8488
▁remaining	-11.849
▁occurr	-11.849
▁[16	-11.849
▁lawn	-11.8491
▁1963	-11.8495
thin	-11.8495
▁jammies	-11.8499
▁horizontal	-11.85
erry	-11.851
▁welcomed	-11.8511
▁53	-11.8512
▁nowhere	-11.8515
▁sch	-11.8515
roup	-11.8516
▁upward	-11.8517
▁traditional	-11.8518
▁contented	-11.8524
▁stripe	-11.8525
▁rage	-11.8527
god	-11.8531
ully	-11.8532
▁Hand	-11.8534
▁Bless	-11.8535
▁jewels	-11.8541
neu	-11.8544
▁FIN	-11.8545
yes	-11.8556
▁Lie	-11.8562
▁spears	-11.8564
PL	-11.8567
▁tr	-11.858
▁pretended	-11.8582
▁banging	-11.8583
▁grubs	-11.8585
▁oppos	-11.8586
▁lifting	-11.8589
▁secure	-11.8594
14	-11.8598
▁crops	-11.8599
▁hoots	-11.8607
▁images	-11.8607
▁relatives	-11.8607
▁listed	-11.8609
▁howl	-11.8612
▁scribble	-11.8619
▁returning	-11.8621
▁trolls	-11.8629
▁sooner	-11.8637
erie	-11.8639
▁crossing	-11.8642
▁FI	-11.8655
▁ET	-11.8661
cal	-11.8677
▁Nova	-11.8679
▁differently	-11.8682
▁Woo	-11.869
▁riches	-11.8695
▁recorded	-11.8697
▁classic	-11.8701
▁Exe	-11.8708
▁Art	-11.8713
▁landing	-11.8718
▁pal	-11.8731
▁forming	-11.8731
▁lit	-11.8732
logical	-11.8735
▁kn	-11.8748
▁Silv	-11.8751
▁1.4	-11.8753
▁initial	-11.8757
rina	-11.8765
pur	-11.8783
▁outlet	-11.8789
omed	-11.8797
▁Sand	-11.8797
▁restaurants	-11.8806
▁workers	-11.8818
Man	-11.8819
▁habits	-11.8828
▁fighter	-11.8835
umbled	-11.8836
tz	-11.884
▁gloves	-11.8851
▁partly	-11.8861
lies	-11.8865
▁receiv	-11.8872
hand	-11.8876
iate	-11.8882
2.9	-11.8883
▁Gas	-11.8893
▁heel	-11.8897
acon	-11.8901
▁Inv	-11.891
▁attracti	-11.8912
▁Pal	-11.8916
▁envelopes	-11.8918
▁orphans	-11.8918
▁goals	-11.8919
▁cam	-11.8921
▁lookin	-11.893
▁clatters	-11.8932
hall	-11.8934
▁divers	-11.8937
bag	-11.8942
▁remov	-11.8943
▁96	-11.8948
ADE	-11.8949
dale	-11.8949
balls	-11.8956
▁degrees	-11.8964
▁materials	-11.8964
▁hap	-11.8979
▁dings	-11.8989
post	-11.8995
▁fro	-11.8999
lica	-11.9006
▁Islands	-11.9009
lash	-11.9021
pile	-11.9023
vision	-11.9044
▁Camp	-11.9044
▁85	-11.9047
▁nurses	-11.9047
▁votes	-11.9055
UP	-11.9062
ppl	-11.9062
▁cu	-11.9065
ope	-11.9068
▁feller	-11.9078
▁77	-11.9082
sneezes	-11.9086
è	-11.9099
▁fi	-11.9102
▁BIG	-11.9105
▁63	-11.9108
▁Wak	-11.9121
riz	-11.9122
hold	-11.9122
icious	-11.913
▁PO	-11.914
continental	-11.9162
DO	-11.9168
▁Te	-11.9192
TO	-11.9203
▁scientist	-11.9203
▁Representative	-11.9205
▁buzz	-11.9209
▁blaze	-11.9211
faced	-11.9223
eville	-11.9225
▁pant	-11.9226
▁folk	-11.9233
▁Qu	-11.924
▁troll	-11.9241
cross	-11.9244
lier	-11.9278
▁instruct	-11.9279
dry	-11.928
fo	-11.9285
▁Sit	-11.9288
ü	-11.9289
mong	-11.9289
stead	-11.9293
▁CA	-11.9293
▁sal	-11.9302
▁BU	-11.9315
▁fright	-11.9316
take	-11.9332
AK	-11.9334
IDE	-11.9336
▁Tar	-11.9341
▁elect	-11.9361
▁bor	-11.9363
▁poison	-11.9363
ography	-11.9373
step	-11.938
after	-11.938
sign	-11.9382
criticism	-11.9388
dropped	-11.9389
January	-11.9389
perhaps	-11.9389
September	-11.9389
drinks	-11.9389
snake	-11.939
loved	-11.939
power	-11.939
think	-11.9391
▁tempt	-11.9393
▁separate	-11.9393
master	-11.9393
▁bloom	-11.9394
Because	-11.9394
▁reflect	-11.9394
▁splash	-11.9394
▁distinguish	-11.9394
enough	-11.9395
thank	-11.9396
section	-11.9396
metal	-11.9398
▁assume	-11.94
▁Naz	-11.9409
Peters	-11.941
▁colon	-11.9412
▁70	-11.9413
▁hon	-11.9413
▁apparent	-11.9413
▁Simon	-11.9414
IRST	-11.9415
▁Personal	-11.9415
▁sweat	-11.9416
big	-11.9416
▁mechanic	-11.9418
raffic	-11.9418
▁Addams	-11.9418
▁commit	-11.9419
OULD	-11.942
goin	-11.942
▁blank	-11.9421
▁alcohol	-11.9421
▁Social	-11.9422
lots	-11.9422
¡	-11.9423
▁Martín	-11.9423
@	-11.9423
Drosophila	-11.9423
Fantasy	-11.9423
`	-11.9423
whimpering	-11.9423
▁1948	-11.9423
▁Argentina	-11.9423
▁Bairnsdale	-11.9423
▁Benjamin	-11.9423
▁Cambridge	-11.9423
▁Charlotte	-11.9423
▁Cincinnati	-11.9423
▁Colonel	-11.9423
▁Columbus	-11.9423
▁Diandros	-11.9423
▁Eagle	-11.9423
▁Education	-11.9423
▁Excellent	-11.9423
▁Gibson	-11.9423
▁Globe	-11.9423
▁Independence	-11.9423
▁Jewelweed	-11.9423
▁MONEY	-11.9423
▁Meanwhile	-11.9423
▁Norwegian	-11.9423
▁Ozaki	-11.9423
▁Ronnette	-11.9423
▁Sakaguchi	-11.9423
▁Shindo	-11.9423
▁Sophie	-11.9423
▁Stonewall	-11.9423
▁Sweden	-11.9423
▁THINK	-11.9423
▁Throat	-11.9423
▁Turkish	-11.9423
▁Vanceboro	-11.9423
▁Vietnam	-11.9423
▁Zetterstrom	-11.9423
▁academic	-11.9423
▁argument	-11.9423
▁arriving	-11.9423
▁banjo	-11.9423
▁bodily	-11.9423
▁calculat	-11.9423
▁candidac	-11.9423
▁categories	-11.9423
▁caution	-11.9423
▁ceramic	-11.9423
▁congratulate	-11.9423
▁consequence	-11.9423
▁convenience	-11.9423
▁decorative	-11.9423
▁england	-11.9423
▁examination	-11.9423
▁grapefruit	-11.9423
▁happier	-11.9423
▁imitation	-11.9423
▁inspection	-11.9423
▁instinct	-11.9423
▁luxur	-11.9423
▁nowadays	-11.9423
▁pantaloons	-11.9423
▁parameter	-11.9423
▁pioneer	-11.9423
▁preserve	-11.9423
▁privilege	-11.9423
▁raccoon	-11.9423
▁railroad	-11.9423
▁rubbish	-11.9423
▁screenwriter	-11.9423
▁solution	-11.9423
▁struggling	-11.9423
▁sunglasses	-11.9423
▁surrounded	-11.9423
▁technique	-11.9423
▁terribly	-11.9423
▁violent	-11.9423
▁wigwam	-11.9423
▁windshield	-11.9423
▁wistfully	-11.9423
▁BOOK	-11.9423
▁Craig	-11.9423
▁Leonor	-11.9423
▁Montaub	-11.9423
▁TALK	-11.9423
▁discipline	-11.9423
▁encounter	-11.9423
▁entitle	-11.9423
▁expense	-11.9423
▁monument	-11.9423
▁rotten	-11.9423
▁scandal	-11.9423
▁scotch	-11.9423
▁taunting	-11.9423
▁warrior	-11.9423
▁withdraw	-11.9423
raspy	-11.9423
trophy	-11.9423
▁Gomez	-11.9423
▁Israel	-11.9423
▁XXI	-11.9423
▁decline	-11.9423
▁gallant	-11.9423
▁goddard	-11.9423
▁injured	-11.9423
▁oyster	-11.9423
▁Patten	-11.9423
▁Skau	-11.9423
▁combined	-11.9423
▁Dyson	-11.9423
▁gossip	-11.9423
▁Baker	-11.9423
orduroy	-11.9423
▁Wallace	-11.9423
▁descend	-11.9423
▁retain	-11.9423
▁Trust	-11.9423
▁governess	-11.9423
▁compromise	-11.9423
▁TREE	-11.9423
agger	-11.9423
▁basis	-11.9423
▁$400	-11.9423
▁soxer	-11.9423
▁Nicholas	-11.9423
▁Joshua	-11.9423
▁awoke	-11.9423
▁conclusion	-11.9423
▁ribs	-11.9423
▁carrot	-11.9423
▁forbid	-11.9423
▁swordfish	-11.9423
▁naked	-11.9423
▁composition	-11.9423
▁Lenny	-11.9423
▁latitude	-11.9423
▁yourselves	-11.9423
creaky	-11.9423
▁Clover	-11.9423
▁Carney	-11.9424
▁championship	-11.9424
▁Design	-11.9424
▁astonishment	-11.9424
▁baker	-11.9424
▁scoop	-11.9424
dorff	-11.9424
▁Cathy	-11.9424
▁stump	-11.9424
▁Warren	-11.9424
▁affectionate	-11.9424
▁muttering	-11.9424
▁Foundation	-11.9424
▁Annette	-11.9424
▁chrom	-11.9424
▁permitted	-11.9424
▁leopard	-11.9424
▁meadow	-11.9424
sexual	-11.9424
▁Yue	-11.9424
▁79.	-11.9424
▁edition	-11.9424
▁PAGE	-11.9424
▁1935	-11.9424
▁praise	-11.9424
▁craft	-11.9424
▁reception	-11.9424
▁lagoon	-11.9424
▁MEAN	-11.9424
page	-11.9425
▁affection	-11.9425
▁percentage	-11.9425
▁breed	-11.9425
▁civilian	-11.9425
▁minority	-11.9425
▁Nail	-11.9425
▁Kerry	-11.9425
▁gaily	-11.9425
▁Flag	-11.9425
▁XII	-11.9425
▁underground	-11.9425
▁editor	-11.9425
▁cabinet	-11.9425
▁prior	-11.9425
▁Larry	-11.9426
▁spigot	-11.9426
▁bury	-11.9426
▁ceremony	-11.9426
▁canvas	-11.9426
▁Wright	-11.9426
▁france	-11.9426
▁DUCK	-11.9427
▁whiskey	-11.9427
nasty	-11.9427
▁mumbling	-11.9427
▁objective	-11.9428
▁hump	-11.9428
▁indent	-11.9428
▁Thus	-11.9429
▁DID	-11.9429
▁lump	-11.9429
▁Commissioner	-11.9429
▁warden	-11.9429
▁Touch	-11.9429
ssouri	-11.943
listen	-11.943
▁difficulties	-11.943
▁Stine	-11.943
▁Sister	-11.943
▁infected	-11.943
▁heartily	-11.943
▁vase	-11.9431
▁agreeable	-11.9431
▁Athletic	-11.9431
▁unfortunately	-11.9431
does	-11.9431
▁jar	-11.9431
▁Liz	-11.9432
▁Whoop	-11.9432
▁approximately	-11.9432
▁labor	-11.9432
▁blink	-11.9432
▁Rainbow	-11.9432
▁98	-11.9433
▁Nine	-11.9433
▁revealed	-11.9433
▁nutter	-11.9434
▁hail	-11.9434
▁honorable	-11.9435
▁Lari	-11.9435
▁spur	-11.9435
▁institution	-11.9436
▁Pinky	-11.9436
itted	-11.9436
▁abandoned	-11.9436
▁invented	-11.9436
▁BOYS	-11.9436
▁wailing	-11.9437
▁firemen	-11.9437
▁honk	-11.9437
▁illness	-11.9439
▁slavery	-11.9439
▁exception	-11.9439
▁talented	-11.9439
▁impressed	-11.9439
▁bellow	-11.9439
▁restless	-11.9439
▁iamb	-11.944
▁impos	-11.9441
▁quid	-11.9441
▁latest	-11.9442
Hi	-11.9443
▁Dead	-11.9443
▁boldly	-11.9444
▁practically	-11.9445
▁ensu	-11.9446
▁MAR	-11.9446
▁Find	-11.9446
▁Belle	-11.9447
▁perched	-11.9448
▁Bible	-11.945
gie	-11.945
▁Rial	-11.945
▁palm	-11.9452
▁splashing	-11.9452
▁behold	-11.9453
▁instantly	-11.9453
▁CH	-11.9454
Have	-11.9457
▁slam	-11.9457
▁faintly	-11.9458
▁someplace	-11.9458
▁wandering	-11.9458
▁fist	-11.9461
▁loading	-11.9462
▁breakers	-11.9463
clearly	-11.9466
▁ruined	-11.9466
▁dip	-11.9468
elle	-11.947
▁offence	-11.9472
▁rent	-11.9472
▁repeatedly	-11.9474
▁Dec	-11.9475
▁Nope	-11.9477
▁trochee	-11.9477
inspired	-11.9477
their	-11.948
▁gathering	-11.948
▁whistled	-11.9481
returns	-11.9483
crat	-11.9484
▁targeting	-11.9486
▁usage	-11.9492
▁crashed	-11.9493
▁kindness	-11.9494
nched	-11.9494
▁widely	-11.9494
▁brushing	-11.9495
▁jogg	-11.9495
▁Wouldn	-11.9495
▁Crem	-11.9503
AVE	-11.9504
▁Centre	-11.9516
▁ruler	-11.9524
▁Nicky	-11.9529
▁Eye	-11.953
5.4	-11.9531
▁Stand	-11.9531
▁Affairs	-11.9531
▁walnuts	-11.9531
▁residents	-11.9531
▁abou	-11.9531
state	-11.9532
▁Baron	-11.9532
orge	-11.9539
uba	-11.9539
▁thread	-11.9543
▁critical	-11.9545
▁prisoner	-11.9548
oni	-11.955
▁fishes	-11.955
▁Var	-11.9553
▁kissing	-11.9554
▁insects	-11.9555
may	-11.9558
presso	-11.9559
aunt	-11.9561
▁ducky	-11.9565
▁Whoa	-11.9568
Far	-11.9573
Ain	-11.9575
order	-11.9577
thod	-11.9578
▁mumbles	-11.9583
▁peers	-11.9585
▁Fin	-11.9597
▁gn	-11.9597
▁hitch	-11.9603
922	-11.9608
▁Paph	-11.9611
EVE	-11.9612
outed	-11.9613
▁bib	-11.9621
▁(2	-11.9631
duke	-11.9631
mpression	-11.9632
▁pol	-11.9635
▁graphic	-11.9638
01	-11.964
actor	-11.9646
▁breathed	-11.9653
bear	-11.9663
iel	-11.967
ila	-11.967
▁alley	-11.9675
▁Twins	-11.9677
4.4	-11.9682
▁BC	-11.9683
******	-11.9689
▁Base	-11.9693
▁define	-11.9694
▁relations	-11.9701
▁sca	-11.9704
▁Kay	-11.9708
lè	-11.9713
▁playin	-11.9721
▁cleaned	-11.9723
▁backwards	-11.9726
▁loads	-11.9727
action	-11.9734
aul	-11.9735
▁Trees	-11.9736
▁strokes	-11.975
▁Kat	-11.9771
▁Seem	-11.9775
▁Croatia	-11.9788
lex	-11.9795
▁blossoms	-11.98
▁contracts	-11.98
▁collections	-11.98
aga	-11.9826
▁Heh	-11.9831
▁Cara	-11.9836
path	-11.9849
▁screams	-11.9854
7.5	-11.9869
▁cells	-11.9874
▁tasks	-11.9874
▁layer	-11.9879
aux	-11.9891
ady	-11.9901
▁tense	-11.9908
▁62	-11.9917
▁Done	-11.9917
lmost	-11.9922
▁Ly	-11.9948
▁handy	-11.9961
▁bio	-11.9967
EEN	-11.9967
▁Ring	-11.9967
▁Theis	-11.9968
▁Gott	-11.9975
rine	-11.9979
▁rig	-11.9991
ago	-11.9993
▁sob	-11.9997
shan	-12.0002
uel	-12.0018
itz	-12.0032
wal	-12.004
eaux	-12.0049
▁pit	-12.0054
▁83	-12.0055
titude	-12.0075
▁33	-12.0082
▁Jun	-12.0088
▁Rad	-12.009
▁$=	-12.0103
▁44	-12.0108
▁Mari	-12.0109
▁ador	-12.0124
ester	-12.0126
curr	-12.0129
▁400	-12.0132
----	-12.014
▁Messi	-12.0151
▁Len	-12.0174
strained	-12.0183
▁tan	-12.0189
base	-12.0189
▁dar	-12.0193
▁cab	-12.0217
ichi	-12.0233
▁38	-12.0236
zzle	-12.024
TELL	-12.024
▁183	-12.0245
San	-12.0257
én	-12.0269
sigh	-12.0272
ATE	-12.0283
▁Tea	-12.0287
date	-12.0291
headed	-12.0295
▁additional	-12.0296
uth	-12.0308
▁relative	-12.0311
▁image	-12.0311
▁bubble	-12.0312
▁brake	-12.0313
▁Sweet	-12.0315
▁terrorist	-12.0316
magn	-12.0317
▁hoot	-12.0318
▁Game	-12.032
▁graph	-12.0322
bar	-12.0322
ith	-12.0325
Pin	-12.0326
9)	-12.0327
thic	-12.0336
▁bun	-12.0352
▁Revolutionar	-12.0374
aving	-12.0389
▁opera	-12.0393
chen	-12.0396
gether	-12.0402
oke	-12.0406
▁wag	-12.0406
_1	-12.0407
everend	-12.0412
▁Q	-12.0418
▁tradition	-12.0418
▁ripe	-12.043
ranger	-12.043
West	-12.0435
handing	-12.0439
▁raw	-12.0442
1963)	-12.0446
rbi	-12.0448
sec	-12.045
▁distribut	-12.045
▁huhu	-12.0456
▁[11	-12.0486
draws	-12.0487
▁Pap	-12.0489
▁ew	-12.0493
▁suppli	-12.0496
ount	-12.0497
[	-12.0497
barrel	-12.0499
giving	-12.0499
indicate	-12.05
WELL	-12.05
CHAPTER	-12.05
Sometimes	-12.05
Perhaps	-12.05
Colin	-12.05
February	-12.05
December	-12.05
November	-12.05
Please	-12.05
actually	-12.05
style	-12.0501
risk	-12.0501
OOH	-12.0501
Maybe	-12.0501
spread	-12.0501
slide	-12.0501
crying	-12.0501
Sorry	-12.0501
mouth	-12.0501
Jack	-12.0502
▁disappoint	-12.0505
▁sweep	-12.0505
▁thrill	-12.0505
person	-12.0505
▁haunt	-12.0507
▁expand	-12.0507
May	-12.0508
Once	-12.0508
class	-12.0508
cock	-12.0508
▁improve	-12.0512
lavi	-12.0513
▁relate	-12.0515
Terr	-12.0518
beat	-12.0518
full	-12.0519
▁1954	-12.0519
ivar	-12.0523
▁guilt	-12.0524
▁1956	-12.0524
pronounc	-12.0525
carrie	-12.0525
▁passionate	-12.0525
▁recommend	-12.0528
▁architect	-12.0528
▁glide	-12.053
▁Wal	-12.0531
uti	-12.0531
▁confront	-12.0531
OWN	-12.0532
▁destin	-12.0532
▁Final	-12.0532
▁BROWN	-12.0532
ère	-12.0533
▁punish	-12.0533
▁jack	-12.0533
Gar	-12.0534
▁Folcutt	-12.0534
▁Interpret	-12.0534
▁Shiomi	-12.0534
▁absurd	-12.0534
▁enthusias	-12.0534
▁flour	-12.0534
Chiasmocleis	-12.0534
IBLE	-12.0534
Scinax	-12.0534
philippa	-12.0534
secution	-12.0534
▁1896	-12.0534
▁1943	-12.0534
▁AGCO	-12.0534
▁Adolf	-12.0534
▁Adolphus	-12.0534
▁Boleyn	-12.0534
▁Bulgaria	-12.0534
▁COMPANY	-12.0534
▁Cairo	-12.0534
▁Cleveland	-12.0534
▁Cuninghame	-12.0534
▁Dynasty	-12.0534
▁GUYS	-12.0534
▁García	-12.0534
▁Goldrush	-12.0534
▁Hampshire	-12.0534
▁Kojima	-12.0534
▁Measles	-12.0534
▁Meshkov	-12.0534
▁Nebula	-12.0534
▁Newfoundland	-12.0534
▁OPENS	-12.0534
▁Ojibwe	-12.0534
▁PARTY	-12.0534
▁PEOPLE	-12.0534
▁Private	-12.0534
▁SHOW	-12.0534
▁Saskatchewan	-12.0534
▁Shigenobu	-12.0534
▁Society	-12.0534
▁Swedish	-12.0534
▁TREASURE	-12.0534
▁Technology	-12.0534
▁Tennessee	-12.0534
▁Topeka	-12.0534
▁Toronto	-12.0534
▁Vizcarra	-12.0534
▁abroad	-12.0534
▁access	-12.0534
▁accurate	-12.0534
▁acquit	-12.0534
▁admiration	-12.0534
▁afloat	-12.0534
▁ahhah	-12.0534
▁aircraft	-12.0534
▁antelopes	-12.0534
▁assassinat	-12.0534
▁assault	-12.0534
▁banquet	-12.0534
▁buckle	-12.0534
▁calendar	-12.0534
▁cathedral	-12.0534
▁celebration	-12.0534
▁chamber	-12.0534
▁communicate	-12.0534
▁composer	-12.0534
▁corporation	-12.0534
▁crisp	-12.0534
▁crotchet	-12.0534
▁culprit	-12.0534
▁dictionary	-12.0534
▁disgrace	-12.0534
▁enchant	-12.0534
▁envy	-12.0534
▁evacuate	-12.0534
▁imagination	-12.0534
▁kettle	-12.0534
▁knuckle	-12.0534
▁liaison	-12.0534
▁license	-12.0534
▁lieutenant	-12.0534
▁meanwhile	-12.0534
▁mischief	-12.0534
▁paragraph	-12.0534
▁patience	-12.0534
▁remembrance	-12.0534
▁routine	-12.0534
▁satisfy	-12.0534
▁shrimp	-12.0534
▁skedaddle	-12.0534
▁skeleton	-12.0534
▁slippery	-12.0534
▁squeak	-12.0534
▁sunshine	-12.0534
▁technician	-12.0534
▁terrified	-12.0534
▁treasure	-12.0534
▁universal	-12.0534
▁universities	-12.0534
▁unpleasant	-12.0534
▁urban	-12.0534
▁worries	-12.0534
imploded	-12.0534
▁NEED	-12.0534
▁Nyx	-12.0534
▁Rangy	-12.0534
▁Regan	-12.0534
▁assailant	-12.0534
▁elements	-12.0534
▁explore	-12.0534
▁gingham	-12.0534
▁offensive	-12.0534
▁teeter	-12.0534
▁vivid	-12.0534
▁wrist	-12.0534
▁Hiroshi	-12.0534
▁Ladies	-12.0534
▁Marsden	-12.0534
▁Micro	-12.0534
▁Sigh	-12.0534
▁choir	-12.0534
▁literally	-12.0534
▁shiny	-12.0534
▁Gwen	-12.0534
▁coax	-12.0534
▁entreat	-12.0534
▁injury	-12.0534
▁oxen	-12.0534
▁telegraph	-12.0534
▁Power	-12.0534
▁amazed	-12.0534
▁Flower	-12.0534
▁Room	-12.0534
▁motive	-12.0534
▁republic	-12.0534
▁forensic	-12.0534
▁spectators	-12.0534
▁wedding	-12.0534
hanabat	-12.0534
▁Contest	-12.0534
▁Goldberg	-12.0534
▁cursive	-12.0534
▁droop	-12.0534
▁Larsen	-12.0534
▁alliance	-12.0534
▁interfere	-12.0534
▁ninth	-12.0534
▁espresso	-12.0534
▁tractor	-12.0534
▁Kev	-12.0534
▁Moore	-12.0534
▁coarse	-12.0534
▁salute	-12.0534
▁womb	-12.0534
▁Afterwards	-12.0534
▁Front	-12.0534
▁genius	-12.0534
▁Trost	-12.0534
▁Molly	-12.0534
▁memories	-12.0534
▁quilt	-12.0534
▁Grove	-12.0534
▁reform	-12.0534
▁migrat	-12.0534
▁steer	-12.0534
▁recite	-12.0534
▁Honor	-12.0534
ondrous	-12.0534
▁exchange	-12.0534
▁Otherwise	-12.0534
▁pluck	-12.0534
▁quote	-12.0534
▁confidential	-12.0534
▁comedian	-12.0534
▁STAR	-12.0534
▁tramp	-12.0534
▁goose	-12.0534
▁Clement	-12.0534
▁steamboat	-12.0534
▁Bernard	-12.0534
▁Sylvia	-12.0534
▁Enough	-12.0535
▁Super	-12.0535
▁Hubert	-12.0535
▁piggie	-12.0535
▁robert	-12.0535
▁grief	-12.0535
▁1905	-12.0535
▁Standard	-12.0535
▁misery	-12.0535
▁dripping	-12.0535
▁WHY	-12.0535
▁conquest	-12.0535
▁racket	-12.0535
▁bitten	-12.0535
▁quaver	-12.0535
falsetto	-12.0535
▁Franklin	-12.0535
▁groceries	-12.0535
▁spaghetti	-12.0535
▁DOES	-12.0535
▁existence	-12.0535
▁lining	-12.0535
commun	-12.0535
▁earlies	-12.0535
▁calves	-12.0535
▁Bert	-12.0535
▁Susy	-12.0535
▁bandaid	-12.0535
▁spray	-12.0535
▁flake	-12.0535
▁repent	-12.0535
▁height	-12.0535
▁1934	-12.0535
▁Engine	-12.0535
▁Clinton	-12.0535
▁surgeon	-12.0535
▁HOO	-12.0536
▁Corner	-12.0536
▁console	-12.0536
▁jetty	-12.0536
▁cabbage	-12.0536
▁brisk	-12.0536
▁yahoo	-12.0536
▁Clothes	-12.0536
▁parish	-12.0536
▁CHAR	-12.0536
▁ledger	-12.0536
▁paddle	-12.0536
▁EVERY	-12.0536
▁LOS	-12.0536
▁seductive	-12.0537
▁Highway	-12.0537
▁grandma	-12.0537
▁Coach	-12.0537
▁Birk	-12.0537
▁screeches	-12.0537
▁Maryland	-12.0537
▁effective	-12.0537
▁promptly	-12.0537
▁Terry	-12.0537
▁Raki	-12.0538
▁Hughes	-12.0538
▁accidentally	-12.0538
▁Lif	-12.0538
▁replacement	-12.0538
▁Jacoby	-12.0539
▁exam	-12.0539
▁acquainted	-12.0539
▁suicide	-12.0539
▁Mette	-12.054
▁machinery	-12.054
▁undertaking	-12.054
▁coachman	-12.054
▁Nicole	-12.054
▁Gator	-12.054
▁breathless	-12.054
▁Disney	-12.054
▁Third	-12.054
▁Robinson	-12.0541
▁correction	-12.0541
▁wholesome	-12.0541
▁frozen	-12.0541
▁Making	-12.0541
▁demonstrate	-12.0542
▁proper	-12.0542
▁Fame	-12.0542
care	-12.0542
▁township	-12.0542
▁bullet	-12.0543
▁headache	-12.0543
▁Billie	-12.0544
▁Press	-12.0544
▁selfish	-12.0544
▁reviv	-12.0544
▁Cheers	-12.0544
▁Soviet	-12.0545
▁carbon	-12.0545
▁paperwork	-12.0545
ndigen	-12.0545
▁funds	-12.0545
▁Quite	-12.0546
▁64	-12.0546
▁scann	-12.0546
▁Train	-12.0547
▁68	-12.0547
▁scent	-12.0547
▁sailor	-12.0548
Military	-12.0548
▁ventured	-12.0549
▁Brennan	-12.0549
counting	-12.0549
▁joyfully	-12.0549
▁Solar	-12.0549
▁threatened	-12.055
▁progressive	-12.055
▁exit	-12.055
▁ramp	-12.055
ISH	-12.0551
▁beaten	-12.0552
▁Bran	-12.0552
▁perch	-12.0552
▁Ven	-12.0553
▁Lucens	-12.0553
▁swelling	-12.0553
▁stirring	-12.0553
▁fame	-12.0555
▁tub	-12.0555
▁twine	-12.0555
▁tackle	-12.0555
▁Certainly	-12.0555
telling	-12.0557
teria	-12.0557
▁78	-12.0557
▁improved	-12.0557
evge	-12.0557
▁Bank	-12.0559
▁resigned	-12.0559
▁cheating	-12.0559
slam	-12.056
▁supplier	-12.056
▁Fred	-12.0561
▁Key	-12.0562
▁Madame	-12.0562
▁oui	-12.0563
▁realise	-12.0564
▁growl	-12.0564
assembl	-12.0566
▁flutter	-12.0566
▁Rule	-12.0566
▁Parker	-12.0567
▁sap	-12.057
▁plainly	-12.057
▁Real	-12.0571
▁pear	-12.0572
▁recovered	-12.0572
▁Tour	-12.0572
▁shaken	-12.0573
▁hurriedly	-12.0573
▁authorities	-12.0575
▁practised	-12.0575
▁excitedly	-12.0576
▁genre	-12.0576
▁sorrowful	-12.0577
▁Deal	-12.0578
▁panting	-12.0578
▁Alberta	-12.0578
▁Thad	-12.0579
▁originally	-12.0579
liness	-12.0579
▁THEY	-12.0579
▁celebrated	-12.0581
▁Walk	-12.0582
▁97	-12.0584
▁curly	-12.0585
▁Hector	-12.0586
earn	-12.0586
▁screamed	-12.0587
▁Gla	-12.0588
▁Serb	-12.0588
TION	-12.059
▁FC	-12.0591
▁THEN	-12.0591
▁Lamb	-12.0592
▁wasps	-12.0592
▁sailing	-12.0594
itn	-12.0599
▁homeless	-12.0601
▁approaching	-12.0602
UNDER	-12.0602
▁brighter	-12.0606
▁borrowing	-12.0608
itude	-12.0609
ullen	-12.0609
▁footballer	-12.061
▁roughly	-12.0611
▁lid	-12.0612
▁mixing	-12.0612
▁[14	-12.0612
boo	-12.0614
▁[13	-12.0616
▁issued	-12.0617
▁Won	-12.062
ification	-12.0623
▁readers	-12.0624
▁pope	-12.0626
▁gosh	-12.0627
▁decades	-12.0629
▁circumstances	-12.0629
▁budgeting	-12.0633
▁slop	-12.0633
▁sighed	-12.0633
▁stern	-12.0635
touch	-12.0637
▁loser	-12.0638
▁Surely	-12.0638
▁Mum	-12.0639
▁excel	-12.0643
▁graceful	-12.0644
▁XVII	-12.0645
97	-12.0645
rink	-12.0646
ATCH	-12.0648
▁strangely	-12.0649
▁operat	-12.0654
▁Hart	-12.0655
▁rushing	-12.0657
▁surf	-12.0658
coin	-12.0662
▁warmly	-12.0662
▁Sale	-12.0663
shaw	-12.0663
▁Burt	-12.0674
▁fucked	-12.0677
▁pounding	-12.0677
▁suggesting	-12.0678
HILDA	-12.0687
▁amid	-12.0697
▁Kath	-12.0697
ONS	-12.0705
▁frocks	-12.071
▁oars	-12.071
03	-12.0714
▁Taka	-12.0719
filler	-12.072
uardians	-12.0727
▁lure	-12.0727
▁curv	-12.0732
▁Scouts	-12.0737
▁scholars	-12.0737
▁measures	-12.0737
▁poorly	-12.0744
arc	-12.0752
nard	-12.0756
▁Area	-12.0759
▁jumper	-12.0764
▁meow	-12.0767
▁rocked	-12.0773
▁(3	-12.0778
▁lied	-12.078
held	-12.0783
erial	-12.0784
otic	-12.079
ánd	-12.079
▁Emil	-12.0796
▁glanc	-12.0801
▁bob	-12.0815
▁crop	-12.0821
phin	-12.083
▁mop	-12.0839
▁blocked	-12.0848
ORD	-12.0874
▁soil	-12.0886
uthwestern	-12.0889
▁planet	-12.0899
anuel	-12.0907
▁Bog	-12.0913
▁bugg	-12.0921
Nor	-12.0939
moving	-12.095
Mend	-12.098
▁mental	-12.1014
▁Full	-12.1028
▁impact	-12.1036
▁Fun	-12.1047
lion	-12.1066
hl	-12.1068
3.8	-12.1095
▁MP	-12.1105
▁illustrat	-12.111
▁bud	-12.1111
▁boob	-12.1113
5.5	-12.1119
▁obscure	-12.1128
ube	-12.1132
▁fatal	-12.1133
bli	-12.1146
▁Rub	-12.1149
▁dri	-12.1174
▁Lama	-12.1176
▁Natur	-12.1181
▁dye	-12.1185
▁RU	-12.1214
▁Anna	-12.1225
dged	-12.1229
AH	-12.1253
▁que	-12.1254
pie	-12.1256
▁Salt	-12.1261
pending	-12.1267
▁Marian	-12.1277
later	-12.1284
▁Cro	-12.1286
verse	-12.1287
▁Creat	-12.1316
4.6	-12.1325
▁Select	-12.1348
▁Ang	-12.1357
RUN	-12.1367
▁caller	-12.1383
yells	-12.1385
▁SU	-12.1394
▁Kari	-12.1426
mph	-12.1434
ballo	-12.1454
▁Ton	-12.1457
▁Pene	-12.1465
owed	-12.1467
specially	-12.1476
Dad	-12.1478
▁wrap	-12.1481
▁48	-12.1487
▁MU	-12.1513
▁Butch	-12.1525
▁arrang	-12.1544
▁measure	-12.1553
▁mask	-12.1554
▁Glen	-12.1558
▁scholar	-12.1558
anner	-12.1559
▁Scout	-12.1559
▁grub	-12.1561
▁paddock	-12.1562
laden	-12.1562
ui	-12.1563
▁Mountain	-12.1563
▁Sav	-12.1566
▁guest	-12.1572
western	-12.1585
▁Kan	-12.1591
▁chuckle	-12.1594
called	-12.16
▁identif	-12.1602
▁hun	-12.1612
▁1953	-12.1617
▁stor	-12.1628
▁Tab	-12.1641
▁royal	-12.1641
Her	-12.1659
100	-12.166
▁Sá	-12.1666
opped	-12.1675
▁WAL	-12.1679
▁inform	-12.1687
sweets	-12.1696
▁oop	-12.171
▁Fla	-12.1713
6.5	-12.1715
▁react	-12.1719
uil	-12.1723
wai	-12.1726
ić	-12.1727
leans	-12.1727
face	-12.173
▁Though	-12.1734
▁Jam	-12.1744
▁Universal	-12.1746
▁resent	-12.1746
quarter	-12.1746
unintelligible	-12.1748
folk	-12.1749
wealth	-12.1749
JOHN	-12.1749
shouting	-12.175
repeat	-12.175
central	-12.175
shoes	-12.175
First	-12.175
probably	-12.175
October	-12.175
people	-12.175
something	-12.1751
spirit	-12.1751
▁industri	-12.1752
voice	-12.1752
Neil	-12.1752
temper	-12.1752
week	-12.1753
final	-12.1754
▁drown	-12.1754
Never	-12.1755
ademoiselle	-12.1755
▁greet	-12.1756
▁accord	-12.1756
▁resign	-12.1758
pause	-12.176
ekend	-12.176
dust	-12.1761
▁depend	-12.1762
▁approve	-12.1762
▁induce	-12.1762
▁capture	-12.1762
stock	-12.1762
▁ignore	-12.1764
minated	-12.1766
Guy	-12.1767
choo	-12.177
▁amuse	-12.1771
▁Burn	-12.1773
▁vertical	-12.1774
▁Gri	-12.1774
▁unfortunate	-12.1774
▁obvious	-12.1774
▁immediate	-12.1774
▁Italia	-12.1775
mple	-12.1775
telephone	-12.1776
▁rapid	-12.1776
▁Commission	-12.1777
▁Tibet	-12.1777
Yea	-12.1779
▁mechanical	-12.1779
▁govern	-12.178
nterior	-12.1781
▁writin	-12.1782
▁elevat	-12.1782
▁convict	-12.1782
hiladelphia	-12.1782
▁entertain	-12.1783
Bur	-12.1783
▁Egypt	-12.1783
▁astonish	-12.1783
▁Dark	-12.1784
NNIE	-12.1784
hausen	-12.1784
▁Kazakh	-12.1784
▁Saxon	-12.1784
▁domestic	-12.1784
▁frequent	-12.1784
▁halloween	-12.1784
▁hoarse	-12.1784
▁revolt	-12.1784
▁sentiment	-12.1784
▁unexpected	-12.1784
Chardonney	-12.1784
Menthue	-12.1784
SELF	-12.1784
Tiercelin	-12.1784
ñ	-12.1784
▁(2016)	-12.1784
▁(2017)	-12.1784
▁1938	-12.1784
▁BETTER	-12.1784
▁BUSINESS	-12.1784
▁Barcelona	-12.1784
▁Belgium	-12.1784
▁Birthday	-12.1784
▁Bobbie	-12.1784
▁Cardinal	-12.1784
▁Ché	-12.1784
▁Cocoamarsh	-12.1784
▁Connecticut	-12.1784
▁Dawlish	-12.1784
▁Deputies	-12.1784
▁Fellow	-12.1784
▁Frederick	-12.1784
▁Gracie	-12.1784
▁Hulk	-12.1784
▁Jonathan	-12.1784
▁Josceline	-12.1784
▁Judiciary	-12.1784
▁Kaneko	-12.1784
▁Labrador	-12.1784
▁Ministry	-12.1784
▁Minnesota	-12.1784
▁Mobile	-12.1784
▁Mukaiyama	-12.1784
▁Network	-12.1784
▁Nonnie	-12.1784
▁Obviously	-12.1784
▁Oxfam	-12.1784
▁Potawatomi	-12.1784
▁Psych	-12.1784
▁Quebec	-12.1784
▁RUNNING	-12.1784
▁Raffael	-12.1784
▁Rowntree	-12.1784
▁SARAH	-12.1784
▁Sottens	-12.1784
▁Stevie	-12.1784
▁TALES	-12.1784
▁THOSE	-12.1784
▁Thornton	-12.1784
▁Trinidad	-12.1784
▁Tyumen	-12.1784
▁Unfortunately	-12.1784
▁WOMAN	-12.1784
▁Waysmith	-12.1784
▁Wolsey	-12.1784
▁Woodpecker	-12.1784
▁Yankee	-12.1784
▁Zimbabwe	-12.1784
▁absence	-12.1784
▁absorb	-12.1784
▁acrobat	-12.1784
▁alternate	-12.1784
▁amazement	-12.1784
▁ambition	-12.1784
▁animiles	-12.1784
▁audience	-12.1784
▁biscuit	-12.1784
▁bronze	-12.1784
▁chorus	-12.1784
▁conceived	-12.1784
▁convenient	-12.1784
▁crooked	-12.1784
▁culvert	-12.1784
▁curiosity	-12.1784
▁derrick	-12.1784
▁detective	-12.1784
▁eminence	-12.1784
▁emperor	-12.1784
▁endeavor	-12.1784
▁esquire	-12.1784
▁evolve	-12.1784
▁explode	-12.1784
▁fabric	-12.1784
▁fatigue	-12.1784
▁fossil	-12.1784
▁fraction	-12.1784
▁fragran	-12.1784
▁franchise	-12.1784
▁inhabitants	-12.1784
▁inscription	-12.1784
▁intimate	-12.1784
▁landlord	-12.1784
▁library	-12.1784
▁liquid	-12.1784
▁microscop	-12.1784
▁miracle	-12.1784
▁morsel	-12.1784
▁muscles	-12.1784
▁neglect	-12.1784
▁perspective	-12.1784
▁physics	-12.1784
▁policies	-12.1784
▁portrait	-12.1784
▁preliminar	-12.1784
▁principal	-12.1784
▁proposal	-12.1784
▁pterosaur	-12.1784
▁recognition	-12.1784
▁recruit	-12.1784
▁reluctantly	-12.1784
▁remote	-12.1784
▁satellite	-12.1784
▁seminar	-12.1784
▁submitted	-12.1784
▁sympathy	-12.1784
▁thumb	-12.1784
▁tornado	-12.1784
▁ultimate	-12.1784
▁uneasy	-12.1784
▁unfair	-12.1784
▁yield	-12.1784
lving	-12.1784
▁Bandaid	-12.1784
▁Bruce	-12.1784
▁CUT	-12.1784
▁Calcul	-12.1784
▁Dinner	-12.1784
▁Eddie	-12.1784
▁GREAT	-12.1784
▁Jennings	-12.1784
▁Joux	-12.1784
▁Kazakhstan	-12.1784
▁SHARK	-12.1784
▁dementia	-12.1784
▁draft	-12.1784
▁harsh	-12.1784
▁mutters	-12.1784
▁scorn	-12.1784
▁tavern	-12.1784
▁tinker	-12.1784
▁twig	-12.1784
▁Amaral	-12.1784
▁Donkey	-12.1784
▁Fontain	-12.1784
▁RINGS	-12.1784
▁creek	-12.1784
▁hyper	-12.1784
▁inhibit	-12.1784
▁pilot	-12.1784
gestalt	-12.1784
▁Creek	-12.1784
▁adapt	-12.1784
▁gloss	-12.1784
▁Ethel	-12.1784
▁Rhine	-12.1784
▁random	-12.1784
spiration	-12.1784
stricken	-12.1784
▁ackack	-12.1784
▁thrust	-12.1784
▁Heather	-12.1784
▁Squad	-12.1784
▁Warsaw	-12.1784
▁quaint	-12.1784
▁facing	-12.1784
▁grunt	-12.1784
▁zeal	-12.1784
▁acquaintance	-12.1784
▁lemonade	-12.1784
▁Tower	-12.1784
▁Pierre	-12.1784
/010	-12.1784
▁Jill	-12.1784
▁goddamn	-12.1784
▁timid	-12.1784
▁perceiv	-12.1784
CHUCKLE	-12.1784
▁Development	-12.1784
▁mystery	-12.1784
▁ignorance	-12.1784
▁levey	-12.1784
▁tasting	-12.1784
▁vital	-12.1784
Peoria	-12.1784
▁properties	-12.1784
▁Paddy	-12.1784
▁55	-12.1784
▁Campbell	-12.1784
▁generation	-12.1784
▁medium	-12.1784
▁bloke	-12.1784
▁departure	-12.1784
▁molybdenum	-12.1784
▁conscience	-12.1784
▁dental	-12.1784
▁stagger	-12.1784
▁Often	-12.1784
▁argue	-12.1784
▁garret	-12.1784
▁labour	-12.1784
▁circula	-12.1784
▁gravity	-12.1784
▁Prague	-12.1784
▁Desk	-12.1784
▁Small	-12.1784
▁justice	-12.1784
▁Armenia	-12.1784
▁Garden	-12.1785
▁arrangements	-12.1785
▁borough	-12.1785
▁Fiction	-12.1785
▁Pará	-12.1785
▁Pardon	-12.1785
▁idle	-12.1785
ENCE	-12.1785
▁dragging	-12.1785
▁Jewish	-12.1785
▁junk	-12.1785
▁cardinal	-12.1785
▁debate	-12.1785
▁impressive	-12.1785
▁flask	-12.1785
Mildred	-12.1785
▁Feld	-12.1785
▁apron	-12.1785
▁descent	-12.1785
▁Space	-12.1785
▁therapy	-12.1785
▁View	-12.1785
▁surprising	-12.1785
▁tidy	-12.1785
▁priority	-12.1785
▁Diana	-12.1785
▁Naval	-12.1785
▁tournament	-12.1785
▁imaginary	-12.1785
▁announcement	-12.1785
▁pocketbook	-12.1785
kick	-12.1785
▁hedge	-12.1785
▁Denis	-12.1785
▁Holt	-12.1785
▁Rogue	-12.1785
▁Trish	-12.1785
▁pausing	-12.1785
▁invest	-12.1785
▁Wonderful	-12.1785
▁consistent	-12.1786
▁resistance	-12.1786
▁Buddha	-12.1786
▁tipped	-12.1786
▁stray	-12.1786
▁dusk	-12.1786
▁chapter	-12.1786
▁toluene	-12.1786
▁jaw	-12.1786
▁Haiti	-12.1786
▁GOING	-12.1786
upon	-12.1786
▁cautiously	-12.1786
▁graz	-12.1786
▁thunder	-12.1787
▁Mice	-12.1787
▁destination	-12.1787
▁Strong	-12.1787
▁Fireman	-12.1787
▁WANT	-12.1787
▁bargain	-12.1787
▁reverse	-12.1787
▁Money	-12.1787
▁Somehow	-12.1787
▁icing	-12.1787
▁kak	-12.1787
▁1861	-12.1787
▁awareness	-12.1788
▁vigorously	-12.1788
abella	-12.1788
▁playground	-12.1788
▁statue	-12.1788
▁Jew	-12.1788
▁indoors	-12.1789
▁hound	-12.1789
▁dismiss	-12.1789
▁Honestly	-12.1789
▁Annie	-12.1789
▁popularity	-12.1789
▁claw	-12.1789
▁Round	-12.1789
nchez	-12.1789
▁bunk	-12.1789
Say	-12.1789
▁hurl	-12.1789
▁tilt	-12.1789
▁Richardson	-12.1789
▁Fourth	-12.179
▁alert	-12.179
▁elton	-12.179
luc	-12.179
▁Guster	-12.179
▁registered	-12.179
▁housekeeper	-12.179
▁fiddle	-12.179
▁Rhy	-12.179
▁Human	-12.179
▁Alba	-12.179
▁Anti	-12.179
icles	-12.179
▁Poke	-12.179
▁patting	-12.1791
▁merit	-12.1791
guy	-12.1791
▁bowel	-12.1791
▁Devil	-12.1791
▁Indonesia	-12.1791
▁Wolfe	-12.1792
▁dignity	-12.1792
▁rice	-12.1792
▁Forever	-12.1792
▁hover	-12.1792
▁forgiven	-12.1792
▁Hugh	-12.1793
▁inches	-12.1793
▁enjoyment	-12.1793
▁Count	-12.1793
▁teasing	-12.1793
▁counties	-12.1793
▁ryan	-12.1793
▁Found	-12.1793
ritage	-12.1793
▁jug	-12.1793
▁Tonight	-12.1794
▁poker	-12.1794
▁ease	-12.1794
."—_	-12.1794
ausage	-12.1794
▁Silver	-12.1795
▁atoll	-12.1795
berries	-12.1795
▁unlike	-12.1795
▁garment	-12.1796
rank	-12.1796
▁Beautiful	-12.1796
▁Grampa	-12.1796
▁piers	-12.1797
▁perfection	-12.1797
▁scattered	-12.1797
▁61	-12.1798
▁colony	-12.1798
▁Wise	-12.1798
▁Duck	-12.1798
▁distinctly	-12.1798
▁invit	-12.1799
HAD	-12.1799
▁wealthy	-12.1799
▁efficient	-12.18
▁overtake	-12.18
▁Stone	-12.1801
▁brook	-12.1801
▁darkness	-12.1801
▁fitz	-12.1802
▁56	-12.1802
▁amend	-12.1802
▁rash	-12.1802
▁spru	-12.1803
▁momma	-12.1803
▁Late	-12.1803
▁adopt	-12.1804
▁forbidden	-12.1805
▁complained	-12.1805
enans	-12.1805
▁crumbs	-12.1806
▁shivering	-12.1806
▁heroes	-12.1807
▁impatiently	-12.1807
▁Milan	-12.1809
▁flattered	-12.1809
▁dislike	-12.1809
▁86	-12.1809
▁Pea	-12.181
▁proceeding	-12.181
▁Nu	-12.181
▁whimpers	-12.181
▁sweetest	-12.1811
----------------	-12.1811
1964)	-12.1811
▁fig	-12.1811
▁stead	-12.1811
▁Top	-12.1812
▁greeted	-12.1812
lée	-12.1813
▁informed	-12.1813
▁bobb	-12.1814
▁illustrated	-12.1814
▁WHERE	-12.1815
▁LAUGH	-12.1815
▁Box	-12.1816
▁admiral	-12.1816
▁pup	-12.1816
▁Team	-12.1817
▁Dover	-12.1817
▁Eng	-12.1817
▁Bund	-12.1818
▁Better	-12.1818
▁Guti	-12.1819
hood	-12.1819
▁gratefully	-12.1819
▁blooming	-12.1822
▁witch	-12.1823
▁hunger	-12.1824
▁PG	-12.1824
chu	-12.1824
▁offend	-12.1825
▁Kir	-12.1825
▁shelter	-12.1826
▁69	-12.1826
▁separated	-12.1826
▁hernia	-12.1826
▁seventh	-12.1826
▁Pull	-12.1827
ouncillor	-12.1827
▁safer	-12.1828
▁translate	-12.1829
▁Asian	-12.1829
▁Roll	-12.183
tinen	-12.183
▁crosses	-12.183
▁urge	-12.183
▁correctly	-12.183
▁siblings	-12.1832
▁peck	-12.1832
▁Joy	-12.1833
▁Paper	-12.1833
▁thaw	-12.1835
_2	-12.1835
▁fry	-12.1835
▁daytime	-12.1835
▁agricultural	-12.1836
▁desired	-12.1837
▁raci	-12.1837
▁helpful	-12.1838
▁Eat	-12.1838
▁Justic	-12.1839
west	-12.1839
▁zoom	-12.184
Harper	-12.1842
▁successfully	-12.1843
▁Action	-12.1844
berger	-12.1847
▁grill	-12.1848
▁finishes	-12.1849
▁OLD	-12.1849
▁gil	-12.1849
▁professionally	-12.1855
▁licked	-12.1858
▁billy	-12.1858
▁dashing	-12.1859
▁Thought	-12.1862
▁raft	-12.1863
▁prey	-12.1868
▁fare	-12.1869
Walsh	-12.1871
▁foreign	-12.1871
▁belly	-12.1873
▁collected	-12.1873
▁rating	-12.1874
▁striped	-12.1875
—_	-12.188
ession	-12.188
▁BED	-12.188
▁delivered	-12.1881
▁shooter	-12.1886
▁beef	-12.1887
▁THEM	-12.1888
▁Aah	-12.1891
▁dreamy	-12.1892
▁Buck	-12.1897
▁fussing	-12.19
▁probabilit	-12.1902
▁discussed	-12.1908
fore	-12.1908
▁3.5	-12.1908
▁foundation	-12.1909
▁[3.1	-12.191
▁2.5	-12.1912
reservation	-12.1912
▁Rai	-12.1913
elli	-12.1917
▁beak	-12.1919
▁loop	-12.1923
3.3	-12.1924
▁searching	-12.1925
▁protesting	-12.1927
▁Arr	-12.193
oces	-12.193
▁undo	-12.1933
▁blown	-12.1937
▁psycho	-12.1938
▁iP	-12.1938
OLUM	-12.194
llery	-12.194
isha	-12.1943
lippers	-12.1948
▁spinn	-12.195
▁cheat	-12.1951
▁Michel	-12.1953
▁respected	-12.1962
▁filmed	-12.1965
pro	-12.1977
Pitt	-12.198
▁crowded	-12.198
close	-12.1981
▁pressing	-12.1996
▁gung	-12.1998
Par	-12.2002
▁reporter	-12.2008
▁Amen	-12.2011
▁hum	-12.2015
▁1.1	-12.2021
▁1944	-12.2021
▁Allen	-12.2023
miss	-12.2031
crackling	-12.204
▁Heart	-12.2044
▁puzzled	-12.2044
rock	-12.2048
▁Sul	-12.2051
ige	-12.2056
▁freed	-12.2065
ARN	-12.2069
runk	-12.2071
▁deny	-12.2078
▁Hay	-12.2092
▁gene	-12.2094
prompting	-12.2105
▁snapp	-12.2117
▁Fly	-12.2143
▁siren	-12.2154
type	-12.2158
▁Hav	-12.217
atal	-12.2173
▁promot	-12.2176
▁Whoo	-12.2177
▁Mid	-12.2204
▁restrain	-12.2205
▁listener	-12.2217
4.2	-12.223
▁mode	-12.2239
▁envi	-12.2247
rá	-12.226
city	-12.2264
rthwest	-12.2265
▁starr	-12.2288
cci	-12.2292
NY	-12.2297
▁attache	-12.2297
▁Sat	-12.2298
raise	-12.2303
▁gasp	-12.2311
voiceless	-12.2314
untie	-12.2315
distributed	-12.2321
Oui	-12.2329
comp	-12.2341
▁delay	-12.2344
▁Ever	-12.2354
▁Saf	-12.2376
▁Matt	-12.2392
unny	-12.2398
aver	-12.2407
▁acquire	-12.2415
MADE	-12.2421
acious	-12.2423
▁qui	-12.2431
lick	-12.2454
late	-12.2454
▁Guin	-12.2456
▁slap	-12.2458
oval	-12.2498
▁convention	-12.2536
▁rot	-12.2545
▁Ski	-12.2561
ebbe	-12.2582
monia	-12.2586
rted	-12.2591
tsk	-12.262
mid	-12.2625
org	-12.2626
▁Lor	-12.2637
▁authoriz	-12.2649
dwin	-12.2659
▁Georgi	-12.2666
▁grease	-12.2676
euro	-12.2689
▁gap	-12.2708
Ka	-12.2709
oping	-12.2722
▁Kh	-12.2728
ica	-12.2738
▁faction	-12.2741
lude	-12.2757
▁recogniz	-12.2759
ono	-12.2771
laz	-12.2778
Ki	-12.2788
quin	-12.2795
▁Artist	-12.2798
▁Mill	-12.2801
▁pac	-12.2803
▁slate	-12.2827
▁challeng	-12.2836
▁barb	-12.2843
07	-12.2844
3.9	-12.2858
rcade	-12.2891
rsity	-12.2918
though	-12.2924
Magn	-12.2939
EO	-12.2945
apa	-12.2946
BER	-12.2953
▁App	-12.2966
block	-12.2966
▁whe	-12.2974
Jo	-12.2975
gate	-12.2977
31	-12.298
talk	-12.2983
▁photograph	-12.2984
brush	-12.2984
▁spear	-12.299
▁frock	-12.2991
▁scissor	-12.2997
▁haste	-12.2999
NK	-12.301
urg	-12.3014
gasps	-12.3017
▁Off	-12.3018
OY	-12.3021
▁peer	-12.3028
▁Sound	-12.3037
▁Nell	-12.3043
bef	-12.3048
▁complaint	-12.3058
istic	-12.3059
fix	-12.3062
▁doubl	-12.3066
armed	-12.3068
nsu	-12.307
tag	-12.3075
▁PER	-12.3078
▁XVI	-12.308
guer	-12.308
magnetic	-12.3081
active	-12.309
▁oar	-12.3096
oul	-12.3116
▁topic	-12.3126
hmm	-12.3131
7)	-12.3134
abilities	-12.3136
▁cou	-12.3139
4.7	-12.3147
ground	-12.3149
▁proceed	-12.3156
▁Sil	-12.3159
handle	-12.3169
elect	-12.3173
successfully	-12.3175
▁Yoshi	-12.3176
insistent	-12.3176
Word	-12.3176
fried	-12.3176
whine	-12.3177
WHERE	-12.3177
videotape	-12.3177
LAUGH	-12.3177
mission	-12.3177
Better	-12.3178
witch	-12.3178
Grand	-12.3178
suspect	-12.3178
launch	-12.3178
Club	-12.3178
wheel	-12.3179
|	-12.3179
Two	-12.3179
fight	-12.3179
whispered	-12.3179
turtle	-12.3179
Christmas	-12.3179
white	-12.3179
Right	-12.3179
meeting	-12.3179
running	-12.3179
first	-12.3179
wife	-12.318
maybe	-12.318
Music	-12.318
Would	-12.318
▁CARE	-12.318
cluele	-12.3181
Hank	-12.3181
watch	-12.3181
taste	-12.3182
flies	-12.3182
▁Salva	-12.3182
State	-12.3182
friendly	-12.3183
seems	-12.3183
▁extend	-12.3185
firmly	-12.3185
▁exclaim	-12.3186
▁Rac	-12.3187
▁encourage	-12.3189
OH	-12.3189
Pop	-12.3189
Take	-12.319
▁restore	-12.3192
Was	-12.3192
▁flatter	-12.3194
▁piss	-12.3195
▁flush	-12.3196
▁banne	-12.3196
Tick	-12.3198
Lord	-12.3199
6.3	-12.32
haired	-12.32
Many	-12.3201
▁blunt	-12.3202
▁grati	-12.3202
▁Steve	-12.3203
demonstrat	-12.3203
coloring	-12.3203
▁froze	-12.3204
▁Wolf	-12.3205
▁1961	-12.3206
▁Spa	-12.3207
ä	-12.3208
▁lecture	-12.3208
uicide	-12.3208
▁WON	-12.3209
▁virus	-12.3209
ternity	-12.321
abbage	-12.3211
▁takin	-12.3211
▁possess	-12.3211
rofessional	-12.3211
IGHT	-12.3211
▁MISS	-12.3212
▁guitar	-12.3212
▁influen	-12.3212
▁municipal	-12.3212
dialog	-12.3212
ecutive	-12.3212
▁subsid	-12.3212
▁confident	-12.3212
ová	-12.3212
▁philosoph	-12.3212
▁Historic	-12.3212
reliable	-12.3213
Î	-12.3213
dbury	-12.3213
relevant	-12.3213
▁manipulat	-12.3213
▁worship	-12.3213
BODY	-12.3213
LLOWS	-12.3213
Perfect	-12.3213
TRUMAN	-12.3213
tmospher	-12.3213
▁AWAY	-12.3213
▁Agency	-12.3213
▁Amazon	-12.3213
▁Anthony	-12.3213
▁Arkansas	-12.3213
▁Austria	-12.3213
▁Baxter	-12.3213
▁Beauty	-12.3213
▁Belfast	-12.3213
▁Blakeman	-12.3213
▁Canelones	-12.3213
▁Ceramic	-12.3213
▁Chuganji	-12.3213
▁Commerce	-12.3213
▁Consumer	-12.3213
▁DANNY	-12.3213
▁Discover	-12.3213
▁Dommartin	-12.3213
▁Doolittle	-12.3213
▁Drosophilidae	-12.3213
▁Dupree	-12.3213
▁Eight	-12.3213
▁Either	-12.3213
▁Emergency	-12.3213
▁Energy	-12.3213
▁Federation	-12.3213
▁Follow	-12.3213
▁GIRLS	-12.3213
▁Galaxy	-12.3213
▁Gambaccini	-12.3213
▁Gervassen	-12.3213
▁Giovanni	-12.3213
▁Hercules	-12.3213
▁Hirsch	-12.3213
▁Honeysuckle	-12.3213
▁JUVENILES	-12.3213
▁Kennedy	-12.3213
▁Kramatorsk	-12.3213
▁Lafferty	-12.3213
▁Lucifer	-12.3213
▁Lynch	-12.3213
▁MOVE	-12.3213
▁Magazine	-12.3213
▁Mercedes	-12.3213
▁Monroe	-12.3213
▁Montilliez	-12.3213
▁Nevada	-12.3213
▁Pawnee	-12.3213
▁Publish	-12.3213
▁Ralph	-12.3213
▁Ramsay	-12.3213
▁SANTA	-12.3213
▁SCHOOL	-12.3213
▁SPRING	-12.3213
▁Screw	-12.3213
▁Slayer	-12.3213
▁Statistic	-12.3213
▁Student	-12.3213
▁TEMPLE	-12.3213
▁TWO	-12.3213
▁Tallahassee	-12.3213
▁Trujillo	-12.3213
▁Tunisia	-12.3213
▁Vogel	-12.3213
▁Wayne	-12.3213
▁Whidb	-12.3213
▁XIV	-12.3213
▁Yamada	-12.3213
▁Yamazaki	-12.3213
▁acorn	-12.3213
▁administrator	-12.3213
▁admiring	-12.3213
▁advisor	-12.3213
▁ambulance	-12.3213
▁arithmetic	-12.3213
▁barricade	-12.3213
▁bewildered	-12.3213
▁bewilderment	-12.3213
▁blabber	-12.3213
▁buckingham	-12.3213
▁carpenter	-12.3213
▁casino	-12.3213
▁certificate	-12.3213
▁circuit	-12.3213
▁clump	-12.3213
▁cocaine	-12.3213
▁communities	-12.3213
▁comparison	-12.3213
▁contribute	-12.3213
▁controversy	-12.3213
▁crinkle	-12.3213
▁croak	-12.3213
▁crude	-12.3213
▁decorate	-12.3213
▁describing	-12.3213
▁devoted	-12.3213
▁dimension	-12.3213
▁discreet	-12.3213
▁endeavour	-12.3213
▁enemies	-12.3213
▁external	-12.3213
▁extraordinary	-12.3213
▁flicker	-12.3213
▁furnish	-12.3213
▁genuine	-12.3213
▁gruffly	-12.3213
▁hammock	-12.3213
▁hickory	-12.3213
▁hummocks	-12.3213
▁inkfishes	-12.3213
▁instinctively	-12.3213
▁juncture	-12.3213
▁lafferty	-12.3213
▁lesbian	-12.3213
▁marvellous	-12.3213
▁mutual	-12.3213
▁narrative	-12.3213
▁opportunities	-12.3213
▁parliament	-12.3213
▁participating	-12.3213
▁persuade	-12.3213
▁phonics	-12.3213
▁plague	-12.3213
▁prohibition	-12.3213
▁prudent	-12.3213
▁quantities	-12.3213
▁recollect	-12.3213
▁reindeer	-12.3213
▁saunter	-12.3213
▁serpent	-12.3213
▁shrewd	-12.3213
▁spectacle	-12.3213
▁stadium	-12.3213
▁strictly	-12.3213
▁substance	-12.3213
▁surplus	-12.3213
▁transcript	-12.3213
▁truncata	-12.3213
▁universe	-12.3213
▁untidy	-12.3213
▁veranda	-12.3213
▁verdict	-12.3213
▁villain	-12.3213
▁vodka	-12.3213
▁woodpecker	-12.3213
inclination	-12.3213
▁Alicia	-12.3213
▁Bureau	-12.3213
▁Connie	-12.3213
▁FACE	-12.3213
▁Fulton	-12.3213
▁Lynn	-12.3213
▁MICHELLE	-12.3213
▁MONKEY	-12.3213
▁Monique	-12.3213
▁Progress	-12.3213
▁SPELL	-12.3213
▁Solomon	-12.3213
▁Staff	-12.3213
▁Tucker	-12.3213
▁Wisconsin	-12.3213
▁acknowledge	-12.3213
▁battered	-12.3213
▁bride	-12.3213
▁bulb	-12.3213
▁bureau	-12.3213
▁changies	-12.3213
▁chieftain	-12.3213
▁cranberry	-12.3213
▁deprive	-12.3213
▁eldest	-12.3213
▁evaluation	-12.3213
▁exploit	-12.3213
▁intervals	-12.3213
▁opponent	-12.3213
▁oxygen	-12.3213
▁prevail	-12.3213
▁qualified	-12.3213
▁rubbed	-12.3213
▁snail	-12.3213
▁terrier	-12.3213
▁trauma	-12.3213
▁unwilling	-12.3213
▁warfare	-12.3213
▁Apollo	-12.3213
▁Appeal	-12.3213
▁Awesome	-12.3213
▁Bateman	-12.3213
▁Blaine	-12.3213
▁Chavannes	-12.3213
▁Lucky	-12.3213
▁Sierra	-12.3213
▁Sterling	-12.3213
▁Sugar	-12.3213
▁deliberately	-12.3213
▁ponies	-12.3213
▁rattling	-12.3213
▁suspens	-12.3213
▁tippet	-12.3213
stution	-12.3213
▁mitten	-12.3213
babbling	-12.3213
▁Engineering	-12.3213
▁BBC	-12.3213
▁Johnnie	-12.3213
▁voce	-12.3213
▁Origin	-12.3213
▁goblin	-12.3213
▁novice	-12.3213
▁sheriff	-12.3213
▁Syria	-12.3213
▁confess	-12.3213
▁ABC	-12.3213
▁lamb	-12.3213
▁mink	-12.3213
née	-12.3213
▁conquer	-12.3213
▁dentist	-12.3213
▁Algeria	-12.3213
▁Fibrian	-12.3213
▁depth	-12.3213
▁nickname	-12.3213
▁philanthropist	-12.3213
▁Iranian	-12.3213
▁eliminat	-12.3213
▁Tsada	-12.3213
▁commission	-12.3213
▁neutr	-12.3213
▁CLOSES	-12.3213
▁wrestler	-12.3213
uckleberry	-12.3213
▁MUCH	-12.3213
▁marten	-12.3213
▁Sign	-12.3213
▁Wendy	-12.3213
interpret	-12.3213
▁Ethan	-12.3213
▁smack	-12.3213
▁Beyon	-12.3213
hansk	-12.3213
▁icicle	-12.3213
gnens	-12.3213
▁Bando	-12.3213
▁laundr	-12.3213
▁Mumps	-12.3213
▁Pazzaglia	-12.3213
▁SIR	-12.3213
▁falter	-12.3213
▁complex	-12.3213
▁Jenni	-12.3213
▁bonfire	-12.3213
▁donkey	-12.3213
▁admission	-12.3213
▁beggar	-12.3213
▁shrink	-12.3213
▁corruption	-12.3213
▁shaving	-12.3213
▁slumber	-12.3213
▁despised	-12.3213
▁hunhunh	-12.3213
▁rapture	-12.3213
▁wolves	-12.3213
mateur	-12.3213
▁margin	-12.3213
MLB	-12.3213
▁division	-12.3213
▁hostess	-12.3213
▁romance	-12.3213
▁suture	-12.3213
▁barefoot	-12.3213
▁helmet	-12.3213
▁Protection	-12.3213
▁godfather	-12.3213
▁poppop	-12.3213
▁infection	-12.3213
▁prettie	-12.3213
▁Palace	-12.3213
Anhalt	-12.3213
▁FIRE	-12.3213
▁nerve	-12.3213
▁Cinderella	-12.3213
▁punctuation	-12.3213
▁assistance	-12.3213
▁Legislature	-12.3213
ebarre	-12.3213
▁resist	-12.3213
▁Gaskins	-12.3213
▁Neither	-12.3213
▁outfit	-12.3213
THAN	-12.3214
▁considerably	-12.3214
▁italian	-12.3214
▁educator	-12.3214
▁ankle	-12.3214
▁LONG	-12.3214
▁diplomatic	-12.3214
ockey	-12.3214
▁edit	-12.3214
▁festival	-12.3214
▁violat	-12.3214
▁lightning	-12.3214
▁greed	-12.3214
▁Peace	-12.3214
▁Store	-12.3214
▁slack	-12.3214
▁liking	-12.3214
▁weeping	-12.3214
▁Java	-12.3214
▁muslin	-12.3214
▁Beck	-12.3214
▁masterpiece	-12.3214
▁Bravo	-12.3214
▁salad	-12.3214
almost	-12.3214
▁Ruiz	-12.3214
▁chef	-12.3214
▁transferred	-12.3214
▁Socialist	-12.3214
AAA	-12.3214
▁password	-12.3214
▁Sharon	-12.3214
▁Multi	-12.3214
▁shady	-12.3214
▁Together	-12.3214
▁modest	-12.3214
ilkman	-12.3215
▁singular	-12.3215
▁Yoshino	-12.3215
▁1924	-12.3215
▁arf	-12.3215
▁Rockas	-12.3215
▁judgment	-12.3215
▁charities	-12.3215
▁mangos	-12.3215
▁waking	-12.3215
▁DAD	-12.3215
▁genie	-12.3215
▁1890	-12.3215
▁contemptuously	-12.3215
▁Estad	-12.3215
▁technology	-12.3215
ECT	-12.3215
▁1888	-12.3216
▁blend	-12.3216
▁sunfish	-12.3216
▁Tribe	-12.3216
▁Alstarnah	-12.3216
▁aspect	-12.3216
▁Venezuela	-12.3216
▁Eisen	-12.3216
▁Faction	-12.3216
▁touchdown	-12.3216
▁Perch	-12.3216
▁novelist	-12.3216
▁travelled	-12.3216
▁compassion	-12.3216
▁harmless	-12.3216
▁comprehension	-12.3216
▁Report	-12.3216
▁continuously	-12.3217
▁subconsciously	-12.3217
▁scold	-12.3217
▁Riverside	-12.3217
LARS	-12.3217
garet	-12.3217
▁exile	-12.3217
▁Tales	-12.3217
Russ	-12.3217
▁clapping	-12.3217
▁Guam	-12.3217
▁Trade	-12.3218
▁Yost	-12.3218
Gink	-12.3218
▁travelling	-12.3218
▁Jamal	-12.3218
▁Harun	-12.3218
▁lemon	-12.3218
▁freak	-12.3218
▁meaningless	-12.3218
▁glider	-12.3219
▁Gregg	-12.3219
▁Christie	-12.3219
▁garth	-12.3219
anilla	-12.3219
▁sawmill	-12.3219
▁julian	-12.3219
▁eastward	-12.3219
▁lago	-12.3219
▁hopefully	-12.322
▁Illustrations	-12.322
▁taxes	-12.322
▁Yup	-12.322
▁waitress	-12.3221
match	-12.3221
▁Burton	-12.3221
▁Jacques	-12.3221
▁Manchester	-12.3221
▁Paradise	-12.3221
▁trumpet	-12.3221
▁emphasis	-12.3221
▁Rover	-12.3221
▁Seriously	-12.3221
▁anythin	-12.3222
remember	-12.3222
▁Monkey	-12.3222
▁wowie	-12.3222
▁ditch	-12.3222
▁Luke	-12.3223
▁10%	-12.3223
▁assent	-12.3223
▁Ouch	-12.3223
▁moist	-12.3224
▁suitable	-12.3224
▁AUT	-12.3224
▁Apte	-12.3225
▁presentation	-12.3225
▁Mountie	-12.3225
▁Gosh	-12.3226
ulens	-12.3226
▁giggling	-12.3227
▁Donneloye	-12.3227
▁bait	-12.3227
zul	-12.3227
▁requirement	-12.3227
▁separately	-12.3228
▁transcribed	-12.3228
▁Personally	-12.3228
▁Sad	-12.3228
▁pow	-12.3228
▁Lance	-12.3228
▁tack	-12.3228
▁survived	-12.3229
▁168	-12.3229
icular	-12.323
▁dough	-12.323
▁preacher	-12.323
another	-12.323
▁Emer	-12.323
▁creepy	-12.3231
▁homework	-12.3231
▁moth	-12.3231
▁Poland	-12.3232
▁mingl	-12.3232
▁tomatoes	-12.3232
▁reduced	-12.3232
▁1954)	-12.3232
▁gloomy	-12.3232
uhu	-12.3232
▁bonk	-12.3233
▁maiden	-12.3233
▁sweetness	-12.3234
▁obey	-12.3235
▁restored	-12.3236
▁rendered	-12.3237
▁speeches	-12.3237
▁51	-12.3237
▁Archa	-12.3238
▁True	-12.3238
▁enormously	-12.3239
▁daylight	-12.3239
▁Tang	-12.3241
33	-12.3241
▁Mole	-12.3242
▁49	-12.3242
▁wobble	-12.3242
▁pissed	-12.3242
▁Turner	-12.3243
▁homeward	-12.3244
▁Dale	-12.3244
▁Guess	-12.3244
▁Kate	-12.3244
▁missus	-12.3244
▁mademoiselle	-12.3245
▁52	-12.3245
▁sandwiches	-12.3246
▁assumed	-12.3246
▁thus	-12.3247
▁overcome	-12.3247
▁forgetting	-12.3249
pop	-12.3249
▁ignored	-12.325
▁Inside	-12.3251
▁sweeping	-12.3252
▁Send	-12.3252
▁nighttime	-12.3253
▁toaster	-12.3253
▁endure	-12.3255
▁distinguished	-12.3255
▁poisoned	-12.3255
▁equally	-12.3255
▁hassy	-12.3255
▁unintelligible	-12.3257
▁rack	-12.3258
▁fury	-12.326
▁2021)	-12.3261
▁wider	-12.3262
▁perpe	-12.3262
fron	-12.3263
▁swayed	-12.3263
▁chairman	-12.3264
▁hooker	-12.3265
▁dug	-12.3265
▁87	-12.3267
wiping	-12.3267
▁tune	-12.3267
▁3.8	-12.3268
▁loaded	-12.3269
▁silently	-12.3269
▁spanking	-12.327
▁firearm	-12.327
▁Bern	-12.3272
▁disturbed	-12.3272
▁whine	-12.3272
▁spoiled	-12.3272
▁Fork	-12.3275
▁dread	-12.3275
▁tricky	-12.3275
▁achieved	-12.3276
▁Boh	-12.3277
myr	-12.3277
▁Bonn	-12.3278
▁Made	-12.3278
▁mission	-12.3281
▁shocked	-12.3281
▁cower	-12.3282
▁Bang	-12.3282
▁circuses	-12.3282
▁taping	-12.3286
▁shave	-12.3289
▁echo	-12.3289
▁deeds	-12.3289
▁Note	-12.329
▁suspected	-12.329
appy	-12.3291
▁marching	-12.3293
▁waved	-12.3293
▁bully	-12.3295
▁chiefly	-12.3297
▁chewing	-12.3298
▁biograph	-12.3299
▁Jen	-12.3303
gave	-12.3304
▁engineering	-12.3306
▁dancer	-12.3307
▁Dam	-12.3307
▁overnight	-12.3308
▁businesses	-12.3309
▁Sally	-12.3309
▁dryer	-12.331
past	-12.3314
▁brushed	-12.3316
▁sober	-12.3316
▁Brave	-12.3321
▁Capit	-12.3322
▁mixer	-12.3322
▁sealed	-12.3327
▁considering	-12.333
▁outward	-12.3335
Persian	-12.3336
▁$1	-12.3338
▁blessed	-12.3344
▁Hesse	-12.3346
France	-12.3347
ebra	-12.3348
▁singsong	-12.3355
▁freely	-12.3358
Memorial	-12.3359
▁Maid	-12.3359
▁standin	-12.336
▁overall	-12.3365
▁Avery	-12.3365
ben	-12.3366
▁fallin	-12.3368
▁sho	-12.3369
erasing	-12.3373
▁makeup	-12.3374
▁softer	-12.3376
Billboard	-12.3384
▁tele	-12.3386
▁Canal	-12.3393
▁Burg	-12.3394
vić	-12.3403
▁exp	-12.3407
fax	-12.3408
addies	-12.3411
really	-12.3412
avid	-12.3415
▁HU	-12.342
▁hearth	-12.3428
▁Galle	-12.3432
▁Noel	-12.3433
▁sneez	-12.3436
▁HEAR	-12.3442
ulticulturalism	-12.3443
▁outline	-12.3443
oil	-12.3449
andel	-12.3458
▁doubtful	-12.3461
KS	-12.3465
hang	-12.3469
▁giggles	-12.347
zzi	-12.3473
▁disco	-12.3489
65	-12.3492
semit	-12.3496
▁truthful	-12.3499
VERY	-12.3502
▁traveler	-12.3507
plant	-12.3509
neo	-12.3511
Quiet	-12.3515
igno	-12.352
▁2.3	-12.3525
*******	-12.3526
▁blaz	-12.3533
▁donut	-12.3534
ovsk	-12.354
rak	-12.3541
▁mover	-12.3552
▁continent	-12.3559
doves	-12.3564
▁39	-12.3567
▁civilize	-12.358
▁46	-12.3581
▁Communit	-12.3586
▁Kha	-12.3611
aro	-12.3612
▁carrie	-12.3615
sotto	-12.3617
▁emotional	-12.3617
▁Doc	-12.3623
▁Ker	-12.365
▁Mul	-12.365
▁1965	-12.3654
▁Thing	-12.3664
16	-12.3669
rard	-12.3676
ocket	-12.3678
nica	-12.3698
BO	-12.3704
▁Poo	-12.3716
COV	-12.3753
▁greas	-12.378
05	-12.3803
iddle	-12.3808
▁babe	-12.3843
▁cleaner	-12.3851
pay	-12.3854
▁supervis	-12.3857
▁videotape	-12.386
81	-12.3882
ieur	-12.3886
eval	-12.3911
ency	-12.3916
dane	-12.3921
plain	-12.3936
▁construct	-12.3939
▁urin	-12.3949
FL	-12.3961
▁Jad	-12.3968
5.8	-12.3982
▁Rou	-12.3986
▁Sau	-12.3993
▁LUC	-12.4011
berry	-12.4018
lice	-12.4019
▁Lap	-12.4033
▁campus	-12.4046
▁1937	-12.4046
true	-12.4064
▁unw	-12.4066
▁Juli	-12.4077
icy	-12.4125
ility	-12.4127
accompanied	-12.4152
▁puttin	-12.4177
ndex	-12.4196
▁Penn	-12.4229
residential	-12.423
▁gro	-12.4261
bois	-12.4286
1921	-12.4293
opyright	-12.4303
arable	-12.4312
minded	-12.4314
69	-12.4363
aggy	-12.4417
ussi	-12.4434
IAN	-12.4437
EEL	-12.4444
rcol	-12.4455
▁tad	-12.4459
▁Barr	-12.4469
splitting	-12.448
500	-12.449
dolph	-12.4498
▁impress	-12.4503
erases	-12.4541
▁stu	-12.4552
aval	-12.4572
ouch	-12.4595
incorrect	-12.4602
TON	-12.4608
rnal	-12.4609
▁65	-12.4613
▁multicultural	-12.4614
object	-12.4628
▁involv	-12.4646
ILDA	-12.4649
▁insect	-12.4657
▁Service	-12.4658
▁unreal	-12.4666
▁Lau	-12.4695
pence	-12.4707
morial	-12.4711
▁Kansa	-12.4721
ONE	-12.4725
OCK	-12.473
▁176	-12.4735
▁jewel	-12.4742
▁complain	-12.4743
▁unto	-12.4764
knocks	-12.4771
▁fulfil	-12.4781
▁mak	-12.4782
▁Rui	-12.4786
▁inspire	-12.4787
hash	-12.4791
▁[$=	-12.4794
color	-12.4796
▁dwel	-12.4806
▁(10	-12.481
presum	-12.4812
▁MAK	-12.4813
▁undergo	-12.4817
speak	-12.4817
▁shiver	-12.4821
graph	-12.4828
wha	-12.4828
▁reproach	-12.4829
▁Brea	-12.483
hind	-12.483
TIME	-12.483
heart	-12.4831
ajan	-12.4833
gun	-12.4842
Guess	-12.4843
whimpers	-12.4844
Though	-12.4844
Lausanne	-12.4844
É	-12.4845
Stacy	-12.4845
Hurry	-12.4845
Ukrainian	-12.4845
respond	-12.4845
crawl	-12.4845
apparently	-12.4845
Down	-12.4845
natural	-12.4845
knife	-12.4845
smiling	-12.4845
Black	-12.4845
include	-12.4845
Listen	-12.4845
Shut	-12.4845
Old	-12.4846
People	-12.4846
Tripp	-12.4846
French	-12.4846
Great	-12.4846
movie	-12.4846
sometimes	-12.4846
third	-12.4846
Star	-12.4846
green	-12.4846
national	-12.4846
glass	-12.4846
penny	-12.4846
flying	-12.4847
Keep	-12.4847
always	-12.4847
Nothing	-12.4849
▁stink	-12.485
Fuck	-12.485
lieve	-12.4851
▁render	-12.4851
▁fascinat	-12.4851
leaves	-12.4852
▁talent	-12.4852
flu	-12.4854
wide	-12.4855
▁reduce	-12.4856
▁venture	-12.4857
▁convince	-12.4857
▁commence	-12.4857
▁McC	-12.4858
▁organize	-12.4858
letter	-12.4863
Day	-12.4864
nicky	-12.4865
MENT	-12.4868
▁Serious	-12.4869
▁Certain	-12.4869
▁unsuccessful	-12.4869
▁Monke	-12.487
▁Korea	-12.487
▁CIRCU	-12.4871
lady	-12.4872
agent	-12.4872
▁XV	-12.4872
Stop	-12.4873
angular	-12.4874
Won	-12.4874
▁ornament	-12.4875
ritique	-12.4875
▁slim	-12.4875
▁screech	-12.4875
▁Port	-12.4876
pigot	-12.4876
▁utt	-12.4876
volution	-12.4876
nteresting	-12.4876
▁raisin	-12.4877
▁declare	-12.4877
▁Person	-12.4877
▁grocer	-12.4878
▁Nei	-12.4879
č	-12.4879
umpty	-12.4879
▁sovereign	-12.4879
▁Sylv	-12.4879
▁cinema	-12.4879
▁Pazzag	-12.4879
▁AGA	-12.4879
▁Flore	-12.4879
▁auction	-12.4879
▁FAIR	-12.4879
definite	-12.4879
ô	-12.4879
▁Arnex	-12.4879
▁excursion	-12.4879
ś	-12.4879
▁accelerat	-12.4879
▁indignant	-12.4879
▁merchant	-12.4879
▁variable	-12.4879
Bundesliga	-12.4879
COOPER	-12.4879
Chavornay	-12.4879
Chestnut	-12.4879
Dalbergia	-12.4879
Imagine	-12.4879
ambassador	-12.4879
cyclist	-12.4879
exasperat	-12.4879
gregation	-12.4879
satisfactory	-12.4879
sponsibilities	-12.4879
à	-12.4879
â	-12.4879
▁(1973)	-12.4879
▁(2014)	-12.4879
▁(2015)	-12.4879
▁1908	-12.4879
▁988)	-12.4879
▁AFTER	-12.4879
▁Abdel	-12.4879
▁Adventure	-12.4879
▁Alabama	-12.4879
▁Alejandro	-12.4879
▁Anoctah	-12.4879
▁Answer	-12.4879
▁Atlanta	-12.4879
▁BABY	-12.4879
▁Barbara	-12.4879
▁Beatrice	-12.4879
▁Beijing	-12.4879
▁Bubba	-12.4879
▁Building	-12.4879
▁Bunkie	-12.4879
▁CHILDREN	-12.4879
▁Castle	-12.4879
▁Claudi	-12.4879
▁Collegi	-12.4879
▁Cunningham	-12.4879
▁Cyprus	-12.4879
▁Definitely	-12.4879
▁Dennis	-12.4879
▁Dompierre	-12.4879
▁Duflo	-12.4879
▁EDITH	-12.4879
▁Eclagnens	-12.4879
▁Eduard	-12.4879
▁Fantastic	-12.4879
▁Fitzgerald	-12.4879
▁Flycatcher	-12.4879
▁Fontanezier	-12.4879
▁Fortunately	-12.4879
▁GLAD	-12.4879
▁Gasparovič	-12.4879
▁Gavà	-12.4879
▁Geneva	-12.4879
▁Gippsland	-12.4879
▁Goldsmith	-12.4879
▁Goumoëns	-12.4879
▁HELP	-12.4879
▁HORSE	-12.4879
▁Hakeem	-12.4879
▁Hampton	-12.4879
▁Holck	-12.4879
▁Hyacinth	-12.4879
▁JACK	-12.4879
▁JANE	-12.4879
▁JOB	-12.4879
▁Jellyfish	-12.4879
▁Kelantan	-12.4879
▁LAURA	-12.4879
▁Lanchester	-12.4879
▁Language	-12.4879
▁Leslie	-12.4879
▁MAGIC	-12.4879
▁MISTAKE	-12.4879
▁MUSIC	-12.4879
▁Masakuni	-12.4879
▁Massacre	-12.4879
▁Miyamoto	-12.4879
▁Morticia	-12.4879
▁Muslim	-12.4879
▁NEVER	-12.4879
▁Negro	-12.4879
▁Neptune	-12.4879
▁Nestlé	-12.4879
▁Nevertheless	-12.4879
▁Nicatoos	-12.4879
▁OFFERED	-12.4879
▁Oedipus	-12.4879
▁Ohoolee	-12.4879
▁Okinawa	-12.4879
▁PARTNER	-12.4879
▁Parlor	-12.4879
▁Peacocke	-12.4879
▁Piedmont	-12.4879
▁Porgie	-12.4879
▁Prefecture	-12.4879
▁Previously	-12.4879
▁Program	-12.4879
▁Ratcliffe	-12.4879
▁Relax	-12.4879
▁Rhodesia	-12.4879
▁Rhonda	-12.4879
▁Romairon	-12.4879
▁Roosky	-12.4879
▁Rovray	-12.4879
▁SWEET	-12.4879
▁Scissor	-12.4879
▁Scotia	-12.4879
▁Semenza	-12.4879
▁Snyder	-12.4879
▁Spaniard	-12.4879
▁Species	-12.4879
▁Stupid	-12.4879
▁Swahili	-12.4879
▁THOUGHT	-12.4879
▁Takahara	-12.4879
▁Tallula	-12.4879
▁Tehran	-12.4879
▁Tekirdağ	-12.4879
▁Television	-12.4879
▁Temperance	-12.4879
▁Teraoka	-12.4879
▁Tomatoes	-12.4879
▁Tévenon	-12.4879
▁Uegaki	-12.4879
▁Urgh	-12.4879
▁Vienna	-12.4879
▁Whistler	-12.4879
▁Wilson	-12.4879
▁YEARS	-12.4879
▁YOUNG	-12.4879
▁Yamamoto	-12.4879
▁Zhadan	-12.4879
▁accommodat	-12.4879
▁admirabl	-12.4879
▁astronaut	-12.4879
▁batteries	-12.4879
▁behaviour	-12.4879
▁brooch	-12.4879
▁burrow	-12.4879
▁centimeters	-12.4879
▁clarinet	-12.4879
▁cliff	-12.4879
▁cockatoo	-12.4879
▁collapse	-12.4879
▁colleague	-12.4879
▁communication	-12.4879
▁confusion	-12.4879
▁constellation	-12.4879
▁contemp	-12.4879
▁contrary	-12.4879
▁contribution	-12.4879
▁countenance	-12.4879
▁defensive	-12.4879
▁devotion	-12.4879
▁dissolve	-12.4879
▁eligible	-12.4879
▁eternal	-12.4879
▁eugenioi	-12.4879
▁fingernail	-12.4879
▁gratitude	-12.4879
▁immortal	-12.4879
▁implement	-12.4879
▁impulse	-12.4879
▁invisible	-12.4879
▁jellyfishes	-12.4879
▁juggling	-12.4879
▁jurisdiction	-12.4879
▁lollipop	-12.4879
▁manufacturing	-12.4879
▁messenger	-12.4879
▁misbehave	-12.4879
▁mischievous	-12.4879
▁monitor	-12.4879
▁nephew	-12.4879
▁officiate	-12.4879
▁persuasi	-12.4879
▁petition	-12.4879
▁physician	-12.4879
▁physicist	-12.4879
▁possibilities	-12.4879
▁poverty	-12.4879
▁precinct	-12.4879
▁prescribe	-12.4879
▁primitive	-12.4879
▁proportion	-12.4879
▁prosopagnosia	-12.4879
▁pseudonym	-12.4879
▁psychiatrist	-12.4879
▁quantity	-12.4879
▁remorse	-12.4879
▁retorted	-12.4879
▁scarecrow	-12.4879
▁script	-12.4879
▁sequel	-12.4879
▁shield	-12.4879
▁smelt	-12.4879
▁spider	-12.4879
▁stimulus	-12.4879
▁sturdy	-12.4879
▁survivors	-12.4879
▁theoretical	-12.4879
▁thief	-12.4879
▁thither	-12.4879
▁timber	-12.4879
▁uncommon	-12.4879
▁unique	-12.4879
▁vertebrae	-12.4879
▁violence	-12.4879
▁violets	-12.4879
▁virtue	-12.4879
▁wheelbarrow	-12.4879
▁whittle	-12.4879
HUMMING	-12.4879
abbreviat	-12.4879
izzy	-12.4879
rtuous	-12.4879
▁Alliance	-12.4879
▁BATH	-12.4879
▁EVEN	-12.4879
▁Ecuador	-12.4879
▁HAND	-12.4879
▁JULIA	-12.4879
▁Judge	-12.4879
▁MORE	-12.4879
▁Magic	-12.4879
▁Marcia	-12.4879
▁Pollard	-12.4879
▁Ridge	-12.4879
▁SEARCH	-12.4879
▁USSR	-12.4879
▁Vermont	-12.4879
▁absent	-12.4879
▁behaving	-12.4879
▁casual	-12.4879
▁corpse	-12.4879
▁decelerat	-12.4879
▁dedicate	-12.4879
▁defence	-12.4879
▁exaggerate	-12.4879
▁finance	-12.4879
▁grandeur	-12.4879
▁gullies	-12.4879
▁gurgle	-12.4879
▁knelt	-12.4879
▁navigat	-12.4879
▁particulates	-12.4879
▁prospect	-12.4879
▁protein	-12.4879
▁retrieve	-12.4879
▁sponsor	-12.4879
▁stabbed	-12.4879
▁unaware	-12.4879
▁vampire	-12.4879
djustment	-12.4879
▁Accept	-12.4879
▁Manager	-12.4879
▁René	-12.4879
▁WATER	-12.4879
▁bribe	-12.4879
▁chariot	-12.4879
▁cherish	-12.4879
▁creaking	-12.4879
▁historian	-12.4879
▁mbbm	-12.4879
▁mourn	-12.4879
▁rewind	-12.4879
▁robbed	-12.4879
▁descendants	-12.4879
▁filth	-12.4879
▁hijack	-12.4879
▁kingdom	-12.4879
▁mirth	-12.4879
▁vault	-12.4879
mpulsive	-12.4879
▁Angela	-12.4879
▁Angeli	-12.4879
▁clang	-12.4879
▁dominion	-12.4879
spress	-12.4879
▁Hitler	-12.4879
▁Slowly	-12.4879
▁endorsed	-12.4879
▁interven	-12.4879
▁urns	-12.4879
▁bashful	-12.4879
▁Complete	-12.4879
▁peasant	-12.4879
▁spelt	-12.4879
▁audio	-12.4879
▁engrav	-12.4879
ophile	-12.4879
▁apology	-12.4879
▁constitute	-12.4879
▁creaks	-12.4879
crete	-12.4879
▁zebra	-12.4879
▁stunt	-12.4879
▁Fight	-12.4879
▁Testa	-12.4879
▁jeffersonian	-12.4879
ecki	-12.4879
▁Enjoy	-12.4879
▁dingdong	-12.488
▁filter	-12.488
▁earnest	-12.488
▁untied	-12.488
▁humour	-12.488
▁shift	-12.488
▁wrench	-12.488
▁obstinate	-12.488
▁LETTER	-12.488
▁essay	-12.488
▁Crossfire	-12.488
▁Storm	-12.488
▁priorities	-12.488
▁civilization	-12.488
▁Cancer	-12.488
▁Colombia	-12.488
Johann	-12.488
▁bulk	-12.488
▁ABS	-12.488
▁advertisement	-12.488
▁extensive	-12.488
▁divine	-12.488
▁Hamburg	-12.488
▁radioactive	-12.488
▁spiritual	-12.488
▁wrestling	-12.488
▁Colbert	-12.488
▁captivity	-12.488
/020	-12.488
▁philosophical	-12.488
▁acro	-12.488
▁Hesston	-12.488
▁Daisy	-12.488
▁alleviat	-12.488
▁brood	-12.488
casion	-12.488
▁Museu	-12.488
▁bullshit	-12.488
▁Jordan	-12.488
▁temple	-12.488
▁yoyo	-12.488
▁Slim	-12.488
▁Steel	-12.488
▁detache	-12.488
▁facilities	-12.488
▁Donbas	-12.488
▁Saragi	-12.488
▁establishment	-12.488
▁$500	-12.488
▁soaked	-12.488
▁sovereignty	-12.488
▁Abbas	-12.488
▁Harold	-12.488
▁Magnu	-12.488
▁froggie	-12.488
▁brew	-12.488
▁offense	-12.488
▁Bomb	-12.488
▁Creature	-12.488
▁footsteps	-12.488
▁Shoot	-12.488
▁HAPPY	-12.488
▁molecul	-12.488
baldi	-12.488
ialogue	-12.488
▁Medal	-12.488
▁VIII	-12.488
▁Prepar	-12.488
emptie	-12.488
▁enterprise	-12.488
▁Singh	-12.488
▁Goddammit	-12.488
▁sulk	-12.488
Course	-12.488
▁rogue	-12.488
▁goshawk	-12.488
▁Landsberg	-12.488
▁Emir	-12.488
▁homesickness	-12.488
▁Salmon	-12.488
▁documentary	-12.488
▁cleanliness	-12.488
▁butterflies	-12.488
▁crew	-12.488
▁Shereen	-12.4881
▁expans	-12.4881
▁flashlight	-12.4881
▁Gilles	-12.4881
▁Gamble	-12.4881
▁mudhole	-12.4881
▁hockey	-12.4881
▁vicious	-12.4881
bosom	-12.4881
▁drummer	-12.4881
▁Egyptian	-12.4881
▁metropolitan	-12.4881
▁sugarcane	-12.4881
▁HBO	-12.4881
▁gnaw	-12.4881
▁unbelievable	-12.4881
SAID	-12.4881
▁spinach	-12.4881
▁dummy	-12.4881
▁Vaug	-12.4881
▁regiment	-12.4881
▁Kazu	-12.4881
▁Large	-12.4881
mademoiselle	-12.4881
▁quarterback	-12.4881
▁strengthened	-12.4881
▁Todd	-12.4881
▁padded	-12.4881
eadow	-12.4881
▁inventor	-12.4881
▁1923	-12.4881
▁Sweetie	-12.4881
▁bookworm	-12.4881
▁hypocrite	-12.4881
▁comfortably	-12.4881
▁observation	-12.4881
mimick	-12.4881
▁Philippe	-12.4881
▁temptation	-12.4881
▁Oslo	-12.4881
▁Fool	-12.4881
▁3.1	-12.4881
▁walnutting	-12.4881
▁apologies	-12.4881
▁blah	-12.4881
▁blueberry	-12.4881
▁Soft	-12.4881
▁panther	-12.4881
▁parap	-12.4881
collision	-12.4882
▁conviction	-12.4882
andmark	-12.4882
▁1913	-12.4882
▁profile	-12.4882
▁Donegal	-12.4882
▁tutor	-12.4882
▁Tsu	-12.4882
▁partnership	-12.4882
▁squad	-12.4882
HEAD	-12.4882
▁2024	-12.4882
▁1920	-12.4882
▁grandpa	-12.4882
purity	-12.4882
▁Stories	-12.4882
▁Grandpa	-12.4882
▁Production	-12.4882
▁Careful	-12.4882
▁Kirk	-12.4882
▁Funny	-12.4883
trust	-12.4883
▁Priso	-12.4883
▁Dumpty	-12.4883
▁awaken	-12.4883
▁motionless	-12.4883
▁jury	-12.4883
▁attendant	-12.4883
▁Michelle	-12.4883
▁Scottish	-12.4883
▁WiR	-12.4883
▁roam	-12.4883
▁riddle	-12.4883
▁VIP	-12.4883
▁genera	-12.4883
▁Jock	-12.4883
▁Porto	-12.4883
bite	-12.4883
▁rosewood	-12.4883
▁Dunno	-12.4883
▁glare	-12.4884
▁confrontation	-12.4884
▁PUP	-12.4884
ITY	-12.4884
▁mister	-12.4884
▁1918	-12.4884
arbor	-12.4884
▁Riley	-12.4884
▁blup	-12.4884
▁wax	-12.4884
AIDS	-12.4884
▁Pickle	-12.4884
▁tonic	-12.4884
▁finalist	-12.4885
▁Curr	-12.4885
▁LIVE	-12.4885
▁Harrison	-12.4885
▁headquarter	-12.4885
▁trapped	-12.4885
▁Stamp	-12.4885
▁EFF	-12.4885
▁$5	-12.4885
usbee	-12.4885
melia	-12.4886
poor	-12.4886
▁foul	-12.4886
Screaming	-12.4886
▁printers	-12.4886
▁yuck	-12.4886
▁Wales	-12.4886
▁eaves	-12.4886
▁remarkable	-12.4886
▁Dirt	-12.4887
ccomplishments	-12.4887
▁reactor	-12.4887
unit	-12.4887
▁waist	-12.4887
▁Cosmo	-12.4887
▁devastated	-12.4887
▁hoop	-12.4887
wich	-12.4887
▁interior	-12.4887
▁Shh	-12.4888
▁wring	-12.4888
▁Whoever	-12.4888
rchitectural	-12.4888
▁fondness	-12.4888
▁Gold	-12.4889
▁lobe	-12.4889
▁slime	-12.4889
▁photographer	-12.4889
mune	-12.4889
▁Tibetan	-12.4889
▁specialty	-12.4889
▁witnesses	-12.4889
▁Stick	-12.489
▁enable	-12.489
▁concluded	-12.489
▁participated	-12.489
ssums	-12.489
▁boyhood	-12.489
▁Bowl	-12.489
▁springtime	-12.489
▁swell	-12.4891
▁engagement	-12.4891
▁Alfredo	-12.4891
▁disposition	-12.4891
▁tits	-12.4892
▁Peng	-12.4892
▁soberly	-12.4892
ONG	-12.4892
▁93	-12.4892
▁Luis	-12.4892
▁4.5	-12.4892
▁maam	-12.4892
▁Fisher	-12.4893
▁tacky	-12.4893
▁Frei	-12.4893
▁copied	-12.4893
aven	-12.4893
▁Carol	-12.4893
ulous	-12.4893
▁Evette	-12.4894
▁vary	-12.4894
▁hub	-12.4894
▁1961)	-12.4894
april	-12.4894
▁Sheila	-12.4894
▁invaded	-12.4894
▁rejoiced	-12.4894
Temple	-12.4894
▁Simone	-12.4895
▁Hiya	-12.4895
hemical	-12.4895
▁Hour	-12.4895
▁1956)	-12.4895
rich	-12.4895
rift	-12.4895
▁Meet	-12.4895
▁woes	-12.4896
▁buff	-12.4896
▁lyin	-12.4896
obby	-12.4896
▁Sleep	-12.4896
▁smother	-12.4896
▁Ghost	-12.4896
▁99	-12.4896
▁holly	-12.4896
▁Finn	-12.4896
▁elsewhere	-12.4897
▁(14	-12.4897
▁COLD	-12.4897
▁henry	-12.4897
▁realistic	-12.4897
▁unlocked	-12.4898
▁accomplished	-12.4898
▁165	-12.4898
argh	-12.4899
ío	-12.4899
▁Walter	-12.4899
▁hace	-12.49
▁Sears	-12.49
▁Morn	-12.49
corder	-12.49
▁backhand	-12.49
▁Cover	-12.4901
AUGHT	-12.4902
▁lease	-12.4902
▁Fish	-12.4903
▁departed	-12.4903
▁resume	-12.4903
▁Victory	-12.4903
▁Swan	-12.4903
ERN	-12.4904
▁fifteenth	-12.4904
▁chirping	-12.4904
▁Chu	-12.4904
▁threatening	-12.4904
▁1955)	-12.4905
▁BEST	-12.4905
▁downtown	-12.4906
▁shaved	-12.4907
▁encouraged	-12.4907
▁84	-12.4907
▁89	-12.4907
named	-12.4907
cold	-12.4908
▁Pick	-12.4908
▁gee	-12.4908
▁awakened	-12.4908
▁Englishman	-12.4908
▁shivered	-12.4908
▁digni	-12.4909
ounty	-12.4909
▁stinking	-12.4909
▁complaining	-12.491
▁followers	-12.491
▁captured	-12.4911
nice	-12.4911
▁chuckled	-12.4911
founded	-12.4911
▁Cut	-12.4912
Castel	-12.4913
▁Mine	-12.4913
▁Due	-12.4913
▁echoed	-12.4914
▁Sort	-12.4914
▁damp	-12.4914
number	-12.4914
▁Desp	-12.4915
▁cheaper	-12.4916
▁Fra	-12.4917
▁chewy	-12.4917
▁shutting	-12.4917
▁clue	-12.4917
▁lifetime	-12.4917
▁DA	-12.4918
stride	-12.4918
ATHER	-12.4918
▁CAREER	-12.4918
▁thankfully	-12.4918
▁ballroom	-12.492
▁carby	-12.492
▁drowning	-12.492
▁snapping	-12.4921
▁Word	-12.4921
▁Bright	-12.4921
_3	-12.4921
Lor	-12.4922
▁cupboard	-12.4922
▁fried	-12.4923
▁strongest	-12.4923
▁slash	-12.4923
▁expanded	-12.4924
▁haunted	-12.4924
▁couches	-12.4924
▁eighth	-12.4924
▁insistent	-12.4925
sière	-12.4926
▁uprising	-12.4926
rico	-12.4927
stasy	-12.4929
▁Howard	-12.4929
▁tempted	-12.4929
▁Louise	-12.4931
▁guaranteed	-12.4932
▁(17	-12.4933
▁Bela	-12.4934
▁Clav	-12.4935
▁repaired	-12.4935
▁assisted	-12.4935
▁teased	-12.4936
▁appropriately	-12.4936
▁growling	-12.4936
▁disgusting	-12.4937
▁willingly	-12.4938
▁Site	-12.494
▁handful	-12.4941
nasal	-12.4942
▁poisoning	-12.4942
ylan	-12.4942
▁Case	-12.4943
▁hood	-12.4945
▁Loy	-12.4945
sill	-12.4946
▁researcher	-12.4949
▁outcome	-12.4949
OBB	-12.495
aka	-12.4951
▁fitting	-12.4951
▁ached	-12.4952
▁hangin	-12.4953
▁Berg	-12.4953
cular	-12.4953
▁thoughtful	-12.4953
▁mary	-12.4953
Mercy	-12.4956
▁defender	-12.4957
▁unde	-12.4959
angled	-12.4964
▁bustl	-12.4964
zack	-12.4968
▁beater	-12.4969
▁Hale	-12.4969
▁deeper	-12.4976
▁satin	-12.4977
▁misses	-12.4981
▁dna	-12.4988
joy	-12.4989
spike	-12.4989
appea	-12.4992
orac	-12.4993
▁verb	-12.4998
atica	-12.5001
▁subfamil	-12.5004
▁Guer	-12.5004
carpet	-12.5015
▁wale	-12.5017
▁smi	-12.5019
▁repute	-12.5022
▁amiabl	-12.5026
Had	-12.5029
▁squatt	-12.5039
▁formation	-12.504
▁grin	-12.5043
▁fucker	-12.5047
▁frightful	-12.5048
▁freez	-12.5058
▁hatch	-12.5059
iva	-12.5094
orex	-12.5097
TV	-12.5098
probable	-12.5108
1953)	-12.5111
▁sucker	-12.5115
▁wool	-12.5115
rawi	-12.512
▁flor	-12.5125
▁Uni	-12.5125
Angel	-12.5127
▁sparkle	-12.5131
Bonnie	-12.5139
▁identifie	-12.5146
mushy	-12.5152
▁hou	-12.5163
▁expose	-12.5164
▁pew	-12.5177
▁grumble	-12.5186
rope	-12.5188
ARRY	-12.5189
athed	-12.5191
▁Total	-12.5196
crier	-12.5199
Ge	-12.52
▁Mesk	-12.5208
▁Enri	-12.521
▁announc	-12.5243
▁primari	-12.5246
zan	-12.5255
flop	-12.526
▁gambl	-12.5267
▁Medi	-12.5269
agged	-12.5271
growly	-12.5277
▁adv	-12.5283
▁Masa	-12.5284
▁Hiro	-12.5284
Tail	-12.5285
▁Comp	-12.5296
▁halt	-12.5301
cumbe	-12.5304
▁Ald	-12.5318
achel	-12.532
▁fearful	-12.5357
▁91	-12.5357
Eye	-12.5392
▁Universi	-12.5393
▁Torr	-12.5409
lá	-12.5412
FK	-12.5422
▁Luk	-12.5432
▁stirr	-12.545
dong	-12.5461
iccolo	-12.5468
▁wink	-12.5472
tirrup	-12.5475
apped	-12.5479
thful	-12.5517
▁Nur	-12.5523
ickle	-12.5524
ERT	-12.5546
▁humili	-12.5552
▁Dominic	-12.5597
onia	-12.5624
amie	-12.563
Thou	-12.5631
mola	-12.564
ATION	-12.5653
▁Ples	-12.5665
mature	-12.5684
▁Clin	-12.5703
▁nestle	-12.571
cio	-12.5718
▁Mir	-12.5719
OUT	-12.5723
▁McD	-12.5751
▁maxim	-12.5761
▁ph	-12.5762
ripped	-12.5804
links	-12.5806
▁simpl	-12.5812
ATO	-12.5819
▁Shan	-12.582
▁speci	-12.5843
gone	-12.5883
pox	-12.5888
oui	-12.5903
▁enc	-12.5918
▁Francesc	-12.5926
********	-12.5929
ggy	-12.5938
▁Rob	-12.5953
▁bagg	-12.5959
environmentalist	-12.5994
chian	-12.5999
▁Lai	-12.6001
▁Grab	-12.6009
delayed	-12.6014
oopsie	-12.6049
▁WAY	-12.605
fined	-12.6093
earless	-12.6102
nior	-12.6106
Croatian	-12.6153
▁Lac	-12.6191
▁1,5	-12.6201
BEL	-12.6233
Dess	-12.6251
tripp	-12.6279
▁54	-12.628
ONCE	-12.6321
dressed	-12.6333
▁Div	-12.6335
▁Que	-12.6363
▁71	-12.6374
ammad	-12.6385
▁Viv	-12.6398
uther	-12.6421
▁squeez	-12.6428
▁Emili	-12.6438
scribbles	-12.644
FAR	-12.6444
▁prob	-12.6454
▁realiz	-12.6458
rabi	-12.6483
▁exhibit	-12.6486
rushes	-12.6489
HAR	-12.649
pock	-12.65
Jackie	-12.6608
▁resident	-12.6616
▁psych	-12.6629
▁mumble	-12.6636
▁Cap	-12.6646
▁walnut	-12.6653
▁Affair	-12.6656
▁competitor	-12.6657
▁pigeon	-12.666
rified	-12.6664
án	-12.6666
▁stair	-12.6673
▁Kara	-12.6683
▁tangle	-12.6689
▁Carlo	-12.6689
▁produc	-12.6698
▁lip	-12.6705
▁57	-12.6711
fastened	-12.6714
▁Harr	-12.6714
▁66	-12.6724
ounced	-12.6726
▁SAV	-12.6728
tumble	-12.673
oggle	-12.6732
▁Persia	-12.6732
ssistant	-12.6735
rcel	-12.6735
▁refuge	-12.6747
ficial	-12.6762
phali	-12.6774
ickel	-12.6794
▁170	-12.6803
▁blub	-12.682
uble	-12.6823
▁annoy	-12.6824
UNE	-12.6829
▁nex	-12.6831
truck	-12.6842
True	-12.6843
crumbs	-12.6844
Lucens	-12.6844
repeatedly	-12.6844
iamb	-12.6844
profit	-12.6844
closing	-12.6844
either	-12.6844
bishop	-12.6844
Carry	-12.6845
stretched	-12.6845
shouts	-12.6845
senator	-12.6845
cooked	-12.6845
spilled	-12.6845
smoking	-12.6845
Next	-12.6845
www	-12.6845
winning	-12.6845
drama	-12.6845
length	-12.6845
revolutionary	-12.6845
taperecorder	-12.6845
Jones	-12.6845
control	-12.6845
grown	-12.6846
language	-12.6846
follow	-12.6846
bottom	-12.6846
equal	-12.6846
worth	-12.6846
Before	-12.6846
broken	-12.6846
business	-12.6846
brother	-12.6846
carefully	-12.6846
child	-12.6846
answer	-12.6846
Stay	-12.6846
great	-12.6846
official	-12.6846
John	-12.6846
film	-12.6846
sucker	-12.6846
garden	-12.6846
believe	-12.6847
From	-12.6847
lived	-12.6847
picking	-12.6847
important	-12.6847
jump	-12.6847
runner	-12.6847
respect	-12.6848
slowly	-12.6848
comment	-12.6848
amount	-12.6848
▁electro	-12.6848
Tock	-12.6848
▁invent	-12.6849
Very	-12.6849
Clock	-12.6849
yeah	-12.6849
▁chirp	-12.6849
▁Born	-12.6849
little	-12.685
legs	-12.685
Hold	-12.6851
▁Field	-12.6851
▁establish	-12.6851
▁abandon	-12.6852
▁wretch	-12.6852
bark	-12.6852
Laugh	-12.6852
Bob	-12.6853
nothing	-12.6855
▁survive	-12.6856
▁reserve	-12.6857
▁plunge	-12.6857
▁cease	-12.6857
▁examine	-12.6858
▁Polan	-12.6858
Char	-12.6859
Mot	-12.686
course	-12.686
▁wail	-12.6861
thletic	-12.6863
small	-12.6865
▁Mount	-12.6866
▁depart	-12.6866
music	-12.6867
▁kee	-12.6869
ABLE	-12.687
stay	-12.687
▁Clark	-12.687
▁julia	-12.6871
▁fade	-12.6872
pierc	-12.6873
▁Giv	-12.6873
nsurance	-12.6874
eductive	-12.6875
chedule	-12.6875
truggle	-12.6875
Give	-12.6875
rtification	-12.6876
wyer	-12.6876
▁civi	-12.6876
flection	-12.6877
▁BIR	-12.6877
issou	-12.6877
hemistry	-12.6877
▁darlin	-12.6877
etropolitan	-12.6878
▁JESS	-12.6878
▁televis	-12.6878
Young	-12.6878
▁Lead	-12.6878
▁differ	-12.6878
▁punctu	-12.6878
▁prosper	-12.6879
▁Produce	-12.6879
▁steep	-12.6879
CHOO	-12.6879
tensive	-12.6879
▁inherit	-12.6879
▁celeb	-12.6879
colleg	-12.6879
▁cigar	-12.6879
schlegel	-12.6879
Mézery	-12.6879
onnières	-12.6879
deliberate	-12.6879
▁choco	-12.6879
}	-12.6879
▁(1986	-12.6879
▁landscape	-12.6879
Christophe	-12.6879
▁Leicester	-12.6879
▁calico	-12.6879
▁escalat	-12.6879
▁ultra	-12.6879
Administrati	-12.6879
Anishinaabe	-12.6879
Bitterfeld	-12.6879
CUSE	-12.6879
GASPS	-12.6879
Jambuda	-12.6879
Piankeshaw	-12.6879
SICK	-12.6879
Timothy	-12.6879
Wikimedia	-12.6879
Wilhelm	-12.6879
Zamenhof	-12.6879
arpsichord	-12.6879
coliosis	-12.6879
egitimate	-12.6879
fidelity	-12.6879
ggregate	-12.6879
ndistinct	-12.6879
ndoubtedly	-12.6879
ntellectual	-12.6879
paralysis	-12.6879
prefecture	-12.6879
sculpture	-12.6879
sympathetic	-12.6879
therapeutic	-12.6879
vocative	-12.6879
ylidae	-12.6879
▁(1969)	-12.6879
▁(1999)	-12.6879
▁(2005)	-12.6879
▁(2013)	-12.6879
▁1854	-12.6879
▁1858	-12.6879
▁1904	-12.6879
▁ADVENTURE	-12.6879
▁AUTHOR	-12.6879
▁Aircraft	-12.6879
▁Alvarez	-12.6879
▁Anchorage	-12.6879
▁Arnold	-12.6879
▁Basically	-12.6879
▁Bastards	-12.6879
▁Bisset	-12.6879
▁Brunswick	-12.6879
▁Buchanan	-12.6879
▁Business	-12.6879
▁Bærum	-12.6879
▁CHOOSE	-12.6879
▁COMING	-12.6879
▁CONFEREN	-12.6879
▁CUPID	-12.6879
▁Canterbury	-12.6879
▁Caterpillar	-12.6879
▁Cathedral	-12.6879
▁Chelsea	-12.6879
▁Chimbote	-12.6879
▁Conservative	-12.6879
▁Conservatory	-12.6879
▁Coulter	-12.6879
▁Cypress	-12.6879
▁Delaware	-12.6879
▁Durazno	-12.6879
▁ELEPHANT	-12.6879
▁EWING	-12.6879
▁Entrance	-12.6879
▁Envelope	-12.6879
▁Eventually	-12.6879
▁Exchange	-12.6879
▁Fleek	-12.6879
▁Folk	-12.6879
▁Fusako	-12.6879
▁GODDESS	-12.6879
▁Giorno	-12.6879
▁Glasgow	-12.6879
▁Global	-12.6879
▁Google	-12.6879
▁Greece	-12.6879
▁Gressy	-12.6879
▁Griffin	-12.6879
▁HAPPENED	-12.6879
▁HONEY	-12.6879
▁Hadewych	-12.6879
▁Hegarty	-12.6879
▁Henniez	-12.6879
▁Honour	-12.6879
▁Icicle	-12.6879
▁Information	-12.6879
▁Investigation	-12.6879
▁Iroquois	-12.6879
▁KEEP	-12.6879
▁KIMMY	-12.6879
▁Kabua	-12.6879
▁Kathikas	-12.6879
▁LADY	-12.6879
▁LARITA	-12.6879
▁LGBT	-12.6879
▁Labour	-12.6879
▁Leather	-12.6879
▁Lloyd	-12.6879
▁Logan	-12.6879
▁MARION	-12.6879
▁MOON	-12.6879
▁Mabaleka	-12.6879
▁Malaysia	-12.6879
▁Management	-12.6879
▁Marvellous	-12.6879
▁Melinda	-12.6879
▁Meridian	-12.6879
▁Methodist	-12.6879
▁Monument	-12.6879
▁Munich	-12.6879
▁Murder	-12.6879
▁Murphy	-12.6879
▁Namekata	-12.6879
▁Nicaragua	-12.6879
▁Nobility	-12.6879
▁Ogdensburg	-12.6879
▁Ogletree	-12.6879
▁Ontario	-12.6879
▁Ordinary	-12.6879
▁Ostrobothnia	-12.6879
▁Otsuki	-12.6879
▁PLAYING	-12.6879
▁Pakistan	-12.6879
▁Patricia	-12.6879
▁Peebles	-12.6879
▁Pelodryadi	-12.6879
▁Pharmaceuticals	-12.6879
▁Philippines	-12.6879
▁Pilgrims	-12.6879
▁Pittsburgh	-12.6879
▁Project	-12.6879
▁Pulaski	-12.6879
▁Quincy	-12.6879
▁ROBINSON	-12.6879
▁Renault	-12.6879
▁Ribeira	-12.6879
▁Rimini	-12.6879
▁Rodríguez	-12.6879
▁Rooster	-12.6879
▁Rosemary	-12.6879
▁Shattuck	-12.6879
▁Shibano	-12.6879
▁Simple	-12.6879
▁Singapore	-12.6879
▁Somerset	-12.6879
▁Soprano	-12.6879
▁Swallows	-12.6879
▁Swimming	-12.6879
▁TROUBLE	-12.6879
▁TURN	-12.6879
▁Thailand	-12.6879
▁Trudeau	-12.6879
▁Tsvetaeva	-12.6879
▁Twelve	-12.6879
▁UNESCO	-12.6879
▁Usually	-12.6879
▁VULCAN	-12.6879
▁Vegetables	-12.6879
▁Vogue	-12.6879
▁Voice	-12.6879
▁WHITE	-12.6879
▁WORLD	-12.6879
▁Watson	-12.6879
▁Wizard	-12.6879
▁Wokey	-12.6879
▁Wyoming	-12.6879
▁Yasuda	-12.6879
▁Zavorotnyu	-12.6879
▁Zelensky	-12.6879
▁abounded	-12.6879
▁agriculture	-12.6879
▁asphalt	-12.6879
▁avenue	-12.6879
▁bathrobe	-12.6879
▁benevolent	-12.6879
▁binoculars	-12.6879
▁bollocks	-12.6879
▁boomerang	-12.6879
▁bouncing	-12.6879
▁bracelet	-12.6879
▁bridle	-12.6879
▁bruise	-12.6879
▁brusque	-12.6879
▁buckeye	-12.6879
▁cauldron	-12.6879
▁celebrating	-12.6879
▁celebrity	-12.6879
▁cemetery	-12.6879
▁clutch	-12.6879
▁conceited	-12.6879
▁consultation	-12.6879
▁contemporary	-12.6879
▁cranky	-12.6879
▁crippled	-12.6879
▁currency	-12.6879
▁cycle	-12.6879
▁deportment	-12.6879
▁disadvantage	-12.6879
▁disobedience	-12.6879
▁distorted	-12.6879
▁elastic	-12.6879
▁emblem	-12.6879
▁energetic	-12.6879
▁entrepreneur	-12.6879
▁exertion	-12.6879
▁extension	-12.6879
▁fancies	-12.6879
▁fervently	-12.6879
▁floozy	-12.6879
▁frowning	-12.6879
▁ghastly	-12.6879
▁grater	-12.6879
▁grumpy	-12.6879
▁hippopotamus	-12.6879
▁hollyhocks	-12.6879
▁honeysuckle	-12.6879
▁identical	-12.6879
▁implications	-12.6879
▁indifferent	-12.6879
▁inhabited	-12.6879
▁integrity	-12.6879
▁intelligence	-12.6879
▁kiawe	-12.6879
▁kildees	-12.6879
▁kindergarten	-12.6879
▁lilac	-12.6879
▁lovable	-12.6879
▁martyr	-12.6879
▁miserably	-12.6879
▁molasses	-12.6879
▁murderweapon	-12.6879
▁nimbly	-12.6879
▁nostrils	-12.6879
▁obligation	-12.6879
▁obstacle	-12.6879
▁pandemic	-12.6879
▁paranoi	-12.6879
▁peekaboo	-12.6879
▁pineapple	-12.6879
▁precipice	-12.6879
▁prejudice	-12.6879
▁privacy	-12.6879
▁prototype	-12.6879
▁qualities	-12.6879
▁reappeared	-12.6879
▁reconciled	-12.6879
▁rehearsal	-12.6879
▁reluctance	-12.6879
▁resolution	-12.6879
▁resolved	-12.6879
▁scenario	-12.6879
▁scruples	-12.6879
▁sequence	-12.6879
▁shepherd	-12.6879
▁simulator	-12.6879
▁skeptic	-12.6879
▁soothingly	-12.6879
▁staircase	-12.6879
▁stolid	-12.6879
▁strategy	-12.6879
▁substantial	-12.6879
▁supermarket	-12.6879
▁supplement	-12.6879
▁swollen	-12.6879
▁thieves	-12.6879
▁tragic	-12.6879
▁trampoline	-12.6879
▁transgender	-12.6879
▁translator	-12.6879
▁trapeze	-12.6879
▁trembling	-12.6879
▁tumbling	-12.6879
▁twelfth	-12.6879
▁twirl	-12.6879
▁uneasily	-12.6879
▁unkempt	-12.6879
▁unnecessar	-12.6879
▁virtually	-12.6879
▁voyage	-12.6879
▁yellowhammer	-12.6879
▁zombies	-12.6879
▁zzz	-12.6879
▁Étalans	-12.6879
explosion	-12.6879
oronezh	-12.6879
rchestra	-12.6879
▁1855	-12.6879
▁Alissa	-12.6879
▁Aurigae	-12.6879
▁Concern	-12.6879
▁Cristo	-12.6879
▁Dolgan	-12.6879
▁Elaine	-12.6879
▁Fairbanks	-12.6879
▁Gheelee	-12.6879
▁Inditex	-12.6879
▁Malachi	-12.6879
▁NBC	-12.6879
▁Nixon	-12.6879
▁ORPHAN	-12.6879
▁Okudaira	-12.6879
▁Pepsi	-12.6879
▁Puritan	-12.6879
▁Salazar	-12.6879
▁Strait	-12.6879
▁Valentina	-12.6879
▁Woodroof	-12.6879
▁badminton	-12.6879
▁cheque	-12.6879
▁commotion	-12.6879
▁demonstration	-12.6879
▁discriminat	-12.6879
▁disrupt	-12.6879
▁esteem	-12.6879
▁extracted	-12.6879
▁flavor	-12.6879
▁forefathers	-12.6879
▁guidance	-12.6879
▁huddl	-12.6879
▁jungle	-12.6879
▁luxuriant	-12.6879
▁nominee	-12.6879
▁oppress	-12.6879
▁pinafore	-12.6879
▁scarf	-12.6879
▁shrugg	-12.6879
▁sketch	-12.6879
▁slaughter	-12.6879
▁splutter	-12.6879
▁trading	-12.6879
▁underwear	-12.6879
▁unemploy	-12.6879
▁vibrant	-12.6879
▁withdrew	-12.6879
▁wriggl	-12.6879
(192,200)}	-12.6879
UNCH	-12.6879
▁Bridish	-12.6879
▁Bunch	-12.6879
▁Crazy	-12.6879
▁DEAD	-12.6879
▁Dolores	-12.6879
▁GBM	-12.6879
▁Houston	-12.6879
▁Jeez	-12.6879
▁LOUIS	-12.6879
▁Levy	-12.6879
▁Lower	-12.6879
▁Marilyn	-12.6879
▁Norwich	-12.6879
▁Remind	-12.6879
▁Stretch	-12.6879
▁Viola	-12.6879
▁Widow	-12.6879
▁assurance	-12.6879
▁brim	-12.6879
▁churn	-12.6879
▁exhaust	-12.6879
▁fishermen	-12.6879
▁inaugura	-12.6879
▁intently	-12.6879
▁interpretation	-12.6879
▁irrelevant	-12.6879
▁pulse	-12.6879
▁puppet	-12.6879
▁rascal	-12.6879
▁reputation	-12.6879
▁resort	-12.6879
▁respectively	-12.6879
▁sledge	-12.6879
▁vessel	-12.6879
▁yawl	-12.6879
Blamont	-12.6879
▁Easy	-12.6879
▁blister	-12.6879
▁regulate	-12.6879
▁scrubbed	-12.6879
▁talkative	-12.6879
▁trotted	-12.6879
▁void	-12.6879
Lisbon	-12.6879
▁PERSON	-12.6879
▁Tampa	-12.6879
▁grain	-12.6879
▁harness	-12.6879
▁inevitabl	-12.6879
▁relent	-12.6879
errières	-12.6879
▁Apex	-12.6879
▁Bronx	-12.6879
▁Copenhagen	-12.6879
▁KISS	-12.6879
▁Literature	-12.6879
▁Marvel	-12.6879
▁Tallis	-12.6879
▁Titani	-12.6879
[...]
