[PAD]	0
[CLS]	0
[SEP]	0
[UNK]	0
[MASK]	0
<0x00>	0
<0x01>	0
<0x02>	0
<0x03>	0
<0x04>	0
<0x05>	0
<0x06>	0
<0x07>	0
<0x08>	0
<0x09>	0
<0x0A>	0
<0x0B>	0
<0x0C>	0
<0x0D>	0
<0x0E>	0
<0x0F>	0
<0x10>	0
<0x11>	0
<0x12>	0
<0x13>	0
<0x14>	0
<0x15>	0
<0x16>	0
<0x17>	0
<0x18>	0
<0x19>	0
<0x1A>	0
<0x1B>	0
<0x1C>	0
<0x1D>	0
<0x1E>	0
<0x1F>	0
<0x20>	0
<0x21>	0
<0x22>	0
<0x23>	0
<0x24>	0
<0x25>	0
<0x26>	0
<0x27>	0
<0x28>	0
<0x29>	0
<0x2A>	0
<0x2B>	0
<0x2C>	0
<0x2D>	0
<0x2E>	0
<0x2F>	0
<0x30>	0
<0x31>	0
<0x32>	0
<0x33>	0
<0x34>	0
<0x35>	0
<0x36>	0
<0x37>	0
<0x38>	0
<0x39>	0
<0x3A>	0
<0x3B>	0
<0x3C>	0
<0x3D>	0
<0x3E>	0
<0x3F>	0
<0x40>	0
<0x41>	0
<0x42>	0
<0x43>	0
<0x44>	0
<0x45>	0
<0x46>	0
<0x47>	0
<0x48>	0
<0x49>	0
<0x4A>	0
<0x4B>	0
<0x4C>	0
<0x4D>	0
<0x4E>	0
<0x4F>	0
<0x50>	0
<0x51>	0
<0x52>	0
<0x53>	0
<0x54>	0
<0x55>	0
<0x56>	0
<0x57>	0
<0x58>	0
<0x59>	0
<0x5A>	0
<0x5B>	0
<0x5C>	0
<0x5D>	0
<0x5E>	0
<0x5F>	0
<0x60>	0
<0x61>	0
<0x62>	0
<0x63>	0
<0x64>	0
<0x65>	0
<0x66>	0
<0x67>	0
<0x68>	0
<0x69>	0
<0x6A>	0
<0x6B>	0
<0x6C>	0
<0x6D>	0
<0x6E>	0
<0x6F>	0
<0x70>	0
<0x71>	0
<0x72>	0
<0x73>	0
<0x74>	0
<0x75>	0
<0x76>	0
<0x77>	0
<0x78>	0
<0x79>	0
<0x7A>	0
<0x7B>	0
<0x7C>	0
<0x7D>	0
<0x7E>	0
<0x7F>	0
<0x80>	0
<0x81>	0
<0x82>	0
<0x83>	0
<0x84>	0
<0x85>	0
<0x86>	0
<0x87>	0
<0x88>	0
<0x89>	0
<0x8A>	0
<0x8B>	0
<0x8C>	0
<0x8D>	0
<0x8E>	0
<0x8F>	0
<0x90>	0
<0x91>	0
<0x92>	0
<0x93>	0
<0x94>	0
<0x95>	0
<0x96>	0
<0x97>	0
<0x98>	0
<0x99>	0
<0x9A>	0
<0x9B>	0
<0x9C>	0
<0x9D>	0
<0x9E>	0
<0x9F>	0
<0xA0>	0
<0xA1>	0
<0xA2>	0
<0xA3>	0
<0xA4>	0
<0xA5>	0
<0xA6>	0
<0xA7>	0
<0xA8>	0
<0xA9>	0
<0xAA>	0
<0xAB>	0
<0xAC>	0
<0xAD>	0
<0xAE>	0
<0xAF>	0
<0xB0>	0
<0xB1>	0
<0xB2>	0
<0xB3>	0
<0xB4>	0
<0xB5>	0
<0xB6>	0
<0xB7>	0
<0xB8>	0
<0xB9>	0
<0xBA>	0
<0xBB>	0
<0xBC>	0
<0xBD>	0
<0xBE>	0
<0xBF>	0
<0xC0>	0
<0xC1>	0
<0xC2>	0
<0xC3>	0
<0xC4>	0
<0xC5>	0
<0xC6>	0
<0xC7>	0
<0xC8>	0
<0xC9>	0
<0xCA>	0
<0xCB>	0
<0xCC>	0
<0xCD>	0
<0xCE>	0
<0xCF>	0
<0xD0>	0
<0xD1>	0
<0xD2>	0
<0xD3>	0
<0xD4>	0
<0xD5>	0
<0xD6>	0
<0xD7>	0
<0xD8>	0
<0xD9>	0
<0xDA>	0
<0xDB>	0
<0xDC>	0
<0xDD>	0
<0xDE>	0
<0xDF>	0
<0xE0>	0
<0xE1>	0
<0xE2>	0
<0xE3>	0
<0xE4>	0
<0xE5>	0
<0xE6>	0
<0xE7>	0
<0xE8>	0
<0xE9>	0
<0xEA>	0
<0xEB>	0
<0xEC>	0
<0xED>	0
<0xEE>	0
<0xEF>	0
<0xF0>	0
<0xF1>	0
<0xF2>	0
<0xF3>	0
<0xF4>	0
<0xF5>	0
<0xF6>	0
<0xF7>	0
<0xF8>	0
<0xF9>	0
<0xFA>	0
<0xFB>	0
<0xFC>	0
<0xFD>	0
<0xFE>	0
<0xFF>	0
▁s	-0
▁t	-1
▁i	-2
▁a	-3
▁e	-4
▁th	-5
▁y	-6
▁w	-7
▁the	-8
▁h	-9
▁o	-10
▁*	-11
ou	-12
re	-13
▁b	-14
▁in	-15
▁m	-16
▁c	-17
▁d	-18
nd	-19
at	-20
▁l	-21
▁f	-22
▁er	-23
▁p	-24
▁to	-25
▁you	-26
on	-27
▁g	-28
an	-29
CH	-30
CHI	-31
▁n	-32
▁ing	-33
ll	-34
▁ed	-35
or	-36
▁and	-37
in	-38
it	-39
er	-40
ar	-41
▁of	-42
▁wh	-43
▁it	-44
om	-45
OT	-46
MOT	-47
▁es	-48
ow	-49
▁he	-50
le	-51
st	-52
▁en	-53
ot	-54
ve	-55
▁ha	-56
▁on	-57
et	-58
ut	-59
▁wa	-60
▁that	-61
ic	-62
se	-63
▁we	-64
▁u	-65
▁[	-66
gh	-67
▁be	-68
id	-69
▁=	-70
ld	-71
▁st	-72
▁r	-73
▁ly	-74
▁k	-75
en	-76
▁sh	-77
ac	-78
oo	-79
▁hi	-80
▁do	-81
▁se	-82
▁al	-83
ir	-84
▁re	-85
▁for	-86
▁what	-87
▁j	-88
ke	-89
am	-90
ght	-91
▁me	-92
▁an	-93
ch	-94
▁ti	-95
ith	-96
▁at	-97
ur	-98
ad	-99
▁li	-100
is	-101
▁sa	-102
ome	-103
▁no	-104
▁with	-105
▁ch	-106
▁-	-107
th	-108
▁go	-109
▁de	-110
▁not	-111
▁v	-112
al	-113
la	-114
ight	-115
▁fr	-116
▁have	-117
il	-118
ould	-119
▁ne	-120
ce	-121
▁ma	-122
▁so	-123
▁she	-124
▁thi	-125
▁kn	-126
▁but	-127
ro	-128
ea	-129
ent	-130
▁can	-131
▁there	-132
un	-133
▁don	-134
ra	-135
xx	-136
ust	-137
▁are	-138
▁one	-139
▁mo	-140
ill	-141
▁ab	-142
▁up	-143
ie	-144
ant	-145
▁your	-146
▁know	-147
ack	-148
▁all	-149
ss	-150
ing	-151
▁1	-152
pp	-153
AT	-154
FAT	-155
all	-156
ct	-157
▁tr	-158
▁had	-159
▁bo	-160
op	-161
▁su	-162
au	-163
ook	-164
▁like	-165
ck	-166
ge	-167
▁tion	-168
ver	-169
nt	-170
▁oh	-171
ell	-172
▁get	-173
▁ad	-174
▁2	-175
ood	-176
out	-177
▁from	-178
ere	-179
ion	-180
▁him	-181
▁sp	-182
▁out	-183
▁did	-184
itt	-185
art	-186
ap	-187
▁or	-188
▁sec	-189
▁some	-190
▁see	-191
oth	-192
ick	-193
ink	-194
ft	-195
ol	-196
um	-197
ard	-198
ee	-199
▁just	-200
▁them	-201
▁said	-202
ul	-203
qu	-204
as	-205
▁man	-206
▁if	-207
▁di	-208
ame	-209
▁un	-210
▁were	-211
ound	-212
▁here	-213
ri	-214
na	-215
▁com	-216
▁would	-217
es	-218
▁wor	-219
me	-220
▁who	-221
▁yea	-222
▁about	-223
ind	-224
▁yeah	-225
▁want	-226
▁how	-227
ong	-228
ain	-229
▁well	-230
ig	-231
▁ta	-232
▁now	-233
▁ba	-234
▁ar	-235
▁ive	-236
▁look	-237
▁right	-238
▁put	-239
▁bl	-240
us	-241
own	-242
▁co	-243
▁xx	-244
▁xxx	-245
▁con	-246
▁think	-247
one	-248
ittle	-249
▁little	-250
ff	-251
▁where	-252
wa	-253
▁good	-254
▁ex	-255
▁got	-256
▁la	-257
▁ver	-258
ine	-259
▁cl	-260
▁20	-261
▁tw	-262
our	-263
▁come	-264
ite	-265
▁lo	-266
▁po	-267
▁le	-268
im	-269
ice	-270
ich	-271
▁off	-272
eth	-273
ish	-274
▁qu	-275
▁est	-276
ka	-277
▁let	-278
▁pe	-279
ath	-280
▁back	-281
▁could	-282
▁19	-283
▁ag	-284
▁will	-285
▁than	-286
▁br	-287
▁ro	-288
▁ate	-289
▁chi	-290
▁mom	-291
and	-292
ide	-293
▁down	-294
▁pre	-295
▁too	-296
ile	-297
▁more	-298
▁ov	-299
ore	-300
▁oth	-301
▁oka	-302
▁pro	-303
▁time	-304
IN	-305
ace	-306
▁da	-307
▁pl	-308
INV	-309
▁am	-310
▁fe	-311
lf	-312
▁te	-313
▁gu	-314
▁their	-315
ip	-316
▁two	-317
▁wr	-318
sh	-319
▁which	-320
RS	-321
URS	-322
▁pla	-323
ree	-324
ort	-325
ough	-326
▁jo	-327
▁ment	-328
▁bec	-329
mb	-330
ause	-331
▁take	-332
uck	-333
▁som	-334
urn	-335
▁as	-336
▁part	-337
orn	-338
ugh	-339
▁cr	-340
▁gre	-341
ist	-342
▁pa	-343
▁sil	-344
ect	-345
▁gon	-346
▁ca	-347
▁make	-348
].	-349
▁fl	-350
▁peop	-351
▁dis	-352
▁gonna	-353
▁sc	-354
▁ye	-355
▁people	-356
▁ev	-357
▁mar	-358
ach	-359
▁wat	-360
▁per	-361
ue	-362
▁tell	-363
▁gr	-364
BR	-365
ter	-366
ose	-367
pt	-368
▁aft	-369
▁silv	-370
ous	-371
ade	-372
▁pr	-373
iv	-374
▁able	-375
BRO	-376
▁base	-377
▁mu	-378
▁sw	-379
▁uh	-380
▁fir	-381
▁ever	-382
▁bu	-383
▁work	-384
ool	-385
▁201	-386
alk	-387
▁mean	-388
ang	-389
gn	-390
ought	-391
ance	-392
ure	-393
▁boy	-394
ble	-395
▁turn	-396
▁any	-397
▁momm	-398
▁again	-399
▁black	-400
wn	-401
air	-402
▁because	-403
int	-404
▁thank	-405
▁lea	-406
▁someth	-407
▁ho	-408
ase	-409
ord	-410
▁ful	-411
▁new	-412
be	-413
ian	-414
CO	-415
fe	-416
self	-417
▁car	-418
▁cou	-419
▁.	-420
▁talk	-421
bl	-422
od	-423
COL	-424
ond	-425
ia	-426
▁bet	-427
▁ple	-428
▁first	-429
▁dat	-430
ast	-431
▁nev	-432
▁much	-433
▁mr	-434
▁happ	-435
▁sm	-436
▁eve	-437
▁call	-438
▁hand	-439
da	-440
▁app	-441
ock	-442
▁wan	-443
▁ask	-444
▁thr	-445
▁long	-446
ag	-447
ak	-448
ellow	-449
▁these	-450
▁dr	-451
el	-452
▁stick	-453
ouse	-454
act	-455
laugh	-456
▁awa	-457
▁great	-458
ud	-459
▁gir	-460
nce	-461
age	-462
eel	-463
orr	-464
▁old	-465
fore	-466
▁big	-467
▁should	-468
--	-469
▁add	-470
▁child	-471
ert	-472
▁made	-473
▁us	-474
▁didn	-475
▁act	-476
laughs	-477
▁anoth	-478
▁they	-479
▁fo	-480
▁ac	-481
mp	-482
▁ball	-483
▁girl	-484
▁hel	-485
▁comm	-486
▁bre	-487
▁moth	-488
▁pap	-489
▁pu	-490
▁before	-491
▁comp	-492
▁fi	-493
▁[1	-494
▁dad	-495
▁came	-496
▁mis	-497
▁side	-498
▁thing	-499
ane	-500
ph	-501
ation	-502
▁dog	-503
▁home	-504
▁year	-505
▁help	-506
ict	-507
▁min	-508
▁eat	-509
so	-510
▁gra	-511
ab	-512
▁house	-513
uh	-514
▁sch	-515
▁those	-516
eep	-517
son	-518
lt	-519
▁write	-520
uc	-521
▁thought	-522
▁bro	-523
▁love	-524
▁our	-525
▁adam	-526
ed	-527
▁wait	-528
▁kind	-529
▁cle	-530
▁wand	-531
up	-532
▁wanna	-533
▁exp	-534
▁head	-535
mo	-536
▁fath	-537
▁el	-538
way	-539
sn	-540
▁please	-541
▁keep	-542
▁went	-543
te	-544
ward	-545
▁top	-546
os	-547
▁sion	-548
▁stand	-549
▁ise	-550
▁three	-551
ep	-552
▁ser	-553
▁count	-554
ug	-555
▁gl	-556
▁sta	-557
▁must	-558
▁say	-559
▁every	-560
▁start	-561
▁op	-562
▁memb	-563
ern	-564
▁str	-565
▁most	-566
▁feel	-567
▁name	-568
▁care	-569
right	-570
IS	-571
ence	-572
▁watch	-573
land	-574
▁through	-575
ne	-576
▁play	-577
gnet	-578
▁mov	-579
xt	-580
▁ve	-581
▁bel	-582
▁pol	-583
▁cre	-584
▁alway	-585
▁tri	-586
▁sure	-587
ng	-588
▁dre	-589
ush	-590
SIS	-591
▁3	-592
▁last	-593
▁night	-594
▁ness	-595
▁anyth	-596
ma	-597
ild	-598
unn	-599
▁show	-600
▁around	-601
▁school	-602
▁sl	-603
▁par	-604
▁mon	-605
▁yellow	-606
▁alright	-607
▁place	-608
man	-609
▁ah	-610
▁ear	-611
▁also	-612
ton	-613
enc	-614
ta	-615
▁fam	-616
we	-617
▁ju	-618
ird	-619
▁col	-620
▁pau	-621
▁tra	-622
▁find	-623
▁stor	-624
ze	-625
▁high	-626
bod	-627
▁si	-628
▁mak	-629
▁cont	-630
▁dadd	-631
av	-632
ye	-633
ump	-634
▁won	-635
▁book	-636
▁bab	-637
▁fin	-638
▁em	-639
▁use	-640
iz	-641
pe	-642
err	-643
ual	-644
▁sile	-645
▁magnet	-646
amp	-647
▁still	-648
iend	-649
▁tom	-650
▁bett	-651
▁might	-652
▁such	-653
▁found	-654
og	-655
att	-656
▁ph	-657
▁ur	-658
ew	-659
▁may	-660
▁far	-661
▁cour	-662
▁inter	-663
▁noth	-664
▁air	-665
ange	-666
▁ob	-667
▁war	-668
▁pie	-669
▁beg	-670
▁ra	-671
ican	-672
▁nice	-673
▁ga	-674
▁nor	-675
ev	-676
▁own	-677
▁♪	-678
ci	-679
ope	-680
▁seem	-681
esn	-682
▁tre	-683
▁four	-684
▁while	-685
▁light	-686
▁diff	-687
ank	-688
▁cit	-689
▁ial	-690
▁paul	-691
▁fall	-692
▁doesn	-693
ula	-694
▁tak	-695
▁sit	-696
wh	-697
▁else	-698
nder	-699
▁ious	-700
▁hard	-701
▁poss	-702
ute	-703
itch	-704
▁sorr	-705
dd	-706
▁lot	-707
▁silence	-708
▁liv	-709
ign	-710
▁friend	-711
▁stat	-712
outh	-713
▁happen	-714
ott	-715
▁word	-716
▁born	-717
▁done	-718
▁mil	-719
ob	-720
▁?	-721
▁supp	-722
sp	-723
▁hur	-724
▁next	-725
▁,	-726
▁sent	-727
▁!	-728
▁tap	-729
▁life	-730
est	-731
oon	-732
▁ous	-733
▁saw	-734
▁world	-735
alit	-736
▁[1.	-737
▁maybe	-738
▁sound	-739
hn	-740
pr	-741
erent	-742
▁wal	-743
▁told	-744
▁2019	-745
pl	-746
▁her	-747
▁mot	-748
▁hear	-749
▁ough	-750
▁wash	-751
▁childr	-752
▁spe	-753
▁lad	-754
▁ste	-755
▁amer	-756
ah	-757
▁tog	-758
▁same	-759
cle	-760
▁fami	-761
▁togeth	-762
are	-763
▁che	-764
▁near	-765
io	-766
▁hold	-767
▁wind	-768
1:	-769
▁sn	-770
▁vo	-771
▁fras	-772
▁stop	-773
atch	-774
▁har	-775
▁char	-776
▁cla	-777
umb	-778
00	-779
gr	-780
ident	-781
▁morn	-782
gg	-783
▁lau	-784
▁form	-785
anc	-786
sil	-787
▁lat	-788
▁imp	-789
▁door	-790
▁young	-791
if	-792
▁wom	-793
▁list	-794
▁break	-795
▁took	-796
unic	-797
▁move	-798
▁mind	-799
▁pick	-800
▁under	-801
ince	-802
▁sle	-803
▁john	-804
ull	-805
ros	-806
▁mone	-807
▁known	-808
▁fire	-809
▁lett	-810
ub	-811
▁ke	-812
read	-813
inn	-814
▁exc	-815
▁drink	-816
▁town	-817
sa	-818
▁face	-819
▁fish	-820
▁4	-821
▁bar	-822
ject	-823
..	-824
▁cir	-825
▁isn	-826
▁sho	-827
▁room	-828
▁stre	-829
aud	-830
▁set	-831
silver	-832
▁bit	-833
per	-834
▁cent	-835
une	-836
▁sk	-837
lda	-838
▁heard	-839
▁leave	-840
ont	-841
▁god	-842
▁belie	-843
▁small	-844
aught	-845
▁left	-846
unicip	-847
▁municip	-848
eak	-849
▁til	-850
str	-851
llow	-852
▁bra	-853
▁course	-854
▁though	-855
▁dra	-856
▁hm	-857
▁arm	-858
▁wee	-859
▁run	-860
▁huh	-861
▁cra	-862
▁gues	-863
▁walk	-864
▁municipalit	-865
vi	-866
sit	-867
▁ele	-868
▁giv	-869
▁hor	-870
▁each	-871
▁once	-872
▁broth	-873
▁everyth	-874
hm	-875
▁urs	-876
▁gett	-877
▁mark	-878
▁id	-879
▁american	-880
the	-881
▁att	-882
▁sign	-883
▁round	-884
▁erm	-885
▁202	-886
▁fre	-887
▁crom	-888
▁quite	-889
▁ce	-890
▁tt	-891
▁lar	-892
▁both	-893
▁ible	-894
rop	-895
▁18	-896
unk	-897
ho	-898
▁bad	-899
▁game	-900
▁bus	-901
▁dou	-902
▁cons	-903
▁soon	-904
▁jane	-905
▁few	-906
▁sur	-907
▁knew	-908
oud	-909
▁[.	-910
▁pop	-911
▁clear	-912
hi	-913
▁bird	-914
▁without	-915
▁kill	-916
▁laugh	-917
br	-918
ann	-919
▁possum	-920
rist	-921
▁hot	-922
▁bas	-923
▁cook	-924
▁betwe	-925
ctor	-926
uar	-927
▁acc	-928
ult	-929
▁mhm	-930
▁200	-931
get	-932
▁ey	-933
▁im	-934
▁tilda	-935
▁kitt	-936
cl	-937
encil	-938
▁hell	-939
▁wond	-940
▁um	-941
▁fair	-942
▁pencil	-943
irt	-944
▁less	-945
▁day	-946
▁toda	-947
▁ill	-948
ount	-949
▁heart	-950
▁person	-951
itic	-952
▁hav	-953
▁fine	-954
▁somet	-955
▁second	-956
▁5	-957
most	-958
▁sir	-959
▁serv	-960
ate	-961
▁mm	-962
▁nut	-963
▁199	-964
▁sar	-965
▁follow	-966
unch	-967
▁cap	-968
▁gen	-969
▁himself	-970
▁7	-971
▁chair	-972
oup	-973
▁different	-974
▁z	-975
unt	-976
▁[2	-977
▁foot	-978
▁ge	-979
▁coff	-980
▁upon	-981
▁cause	-982
▁white	-983
▁oct	-984
▁cord	-985
go	-986
▁actual	-987
▁beh	-988
▁yet	-989
▁half	-990
bo	-991
fr	-992
ens	-993
▁age	-994
▁gar	-995
▁vol	-996
▁sometim	-997
fta	-998
ipp	-999
▁octob	-1000
▁hafta	-1001
▁yep	-1002
▁tim	-1003
▁vaud	-1004
ator	-1005
▁object	-1006
li	-1007
▁ter	-1008
▁vis	-1009
bab	-1010
▁box	-1011
sw	-1012
ief	-1013
res	-1014
ouch	-1015
▁color	-1016
▁point	-1017
▁sim	-1018
no	-1019
▁swe	-1020
▁east	-1021
▁wood	-1022
aut	-1023
huh	-1024
▁almost	-1025
▁–	-1026
▁ath	-1027
▁gone	-1028
▁coffee	-1029
▁gave	-1030
▁milk	-1031
▁speak	-1032
ina	-1033
▁appe	-1034
▁sleep	-1035
▁flo	-1036
▁along	-1037
▁cur	-1038
▁dar	-1039
▁son	-1040
▁publ	-1041
▁trict	-1042
riv	-1043
ball	-1044
▁cup	-1045
▁tape	-1046
▁week	-1047
▁8	-1048
itz	-1049
▁cut	-1050
▁six	-1051
▁minute	-1052
ple	-1053
▁ize	-1054
▁shall	-1055
▁'	-1056
▁meet	-1057
▁woman	-1058
▁finish	-1059
▁believe	-1060
ful	-1061
▁writ	-1062
▁beaut	-1063
▁piece	-1064
▁christ	-1065
em	-1066
▁hum	-1067
▁kid	-1068
▁blue	-1069
▁ru	-1070
▁nat	-1071
put	-1072
uth	-1073
▁try	-1074
▁hope	-1075
IC	-1076
▁need	-1077
▁star	-1078
ertain	-1079
▁north	-1080
▁whole	-1081
ca	-1082
RIC	-1083
ash	-1084
▁voice	-1085
use	-1086
▁fun	-1087
▁pet	-1088
▁squ	-1089
oint	-1090
vern	-1091
▁tree	-1092
▁sing	-1093
▁france	-1094
▁sat	-1095
▁198	-1096
lv	-1097
vel	-1098
▁pull	-1099
▁ques	-1100
ly	-1101
ular	-1102
▁ton	-1103
com	-1104
ient	-1105
▁poor	-1106
▁grand	-1107
▁since	-1108
ib	-1109
ura	-1110
▁sub	-1111
▁spell	-1112
▁rob	-1113
▁geor	-1114
▁soft	-1115
enn	-1116
▁pass	-1117
▁against	-1118
gon	-1119
hap	-1120
ustr	-1121
▁med	-1122
▁fact	-1123
▁sort	-1124
▁truck	-1125
▁6	-1126
▁sto	-1127
▁9	-1128
iti	-1129
▁port	-1130
▁ursula	-1131
▁ain	-1132
▁alread	-1133
oc	-1134
▁196	-1135
▁numb	-1136
▁stra	-1137
iet	-1138
▁met	-1139
▁began	-1140
▁wouldn	-1141
lo	-1142
gar	-1143
ote	-1144
▁ass	-1145
▁doub	-1146
▁hurt	-1147
▁visit	-1148
▁perf	-1149
▁close	-1150
▁south	-1151
▁sy	-1152
▁mus	-1153
▁goin	-1154
▁govern	-1155
▁cri	-1156
▁leg	-1157
▁food	-1158
▁appear	-1159
▁fellow	-1160
▁probab	-1161
▁dire	-1162
▁feet	-1163
▁idea	-1164
erland	-1165
▁touch	-1166
ail	-1167
ire	-1168
▁mi	-1169
▁jan	-1170
▁oft	-1171
▁fell	-1172
▁perhap	-1173
▁arr	-1174
▁plac	-1175
▁ship	-1176
▁floor	-1177
▁sident	-1178
▁cal	-1179
▁dur	-1180
▁sen	-1181
▁line	-1182
▁certain	-1183
mm	-1184
▁train	-1185
ster	-1186
▁job	-1187
▁sarah	-1188
iss	-1189
▁maj	-1190
▁cold	-1191
▁politic	-1192
aint	-1193
▁hour	-1194
▁pict	-1195
gie	-1196
▁juice	-1197
pte	-1198
▁my	-1199
▁197	-1200
▁eas	-1201
▁tur	-1202
▁felt	-1203
▁push	-1204
▁tele	-1205
▁switz	-1206
▁switzerland	-1207
stor	-1208
▁aile	-1209
▁answ	-1210
▁coll	-1211
▁someone	-1212
to	-1213
icks	-1214
▁riv	-1215
▁dream	-1216
▁guy	-1217
orrow	-1218
▁eight	-1219
▁compan	-1220
▁(	-1221
▁pat	-1222
ptemb	-1223
▁wrong	-1224
▁nation	-1225
▁septemb	-1226
▁mid	-1227
▁rock	-1228
nc	-1229
ment	-1230
▁sun	-1231
▁wish	-1232
▁iver	-1233
2:	-1234
oi	-1235
zz	-1236
puts	-1237
▁ach	-1238
▁pos	-1239
▁check	-1240
cr	-1241
▁af	-1242
▁boat	-1243
▁bott	-1244
▁draw	-1245
▁short	-1246
you	-1247
▁bur	-1248
▁cat	-1249
▁tir	-1250
▁bear	-1251
ork	-1252
▁wear	-1253
▁offic	-1254
oke	-1255
ret	-1256
▁10	-1257
rent	-1258
▁mine	-1259
▁till	-1260
▁george	-1261
▁ice	-1262
▁dian	-1263
▁snow	-1264
nch	-1265
▁ok	-1266
anch	-1267
▁...	-1268
▁jump	-1269
▁contin	-1270
▁street	-1271
cu	-1272
ife	-1273
oop	-1274
▁apr	-1275
▁spr	-1276
▁anim	-1277
▁build	-1278
▁group	-1279
▁throw	-1280
az	-1281
▁carr	-1282
▁main	-1283
▁horse	-1284
▁lunch	-1285
▁canton	-1286
de	-1287
ida	-1288
uct	-1289
ude	-1290
blem	-1291
▁cor	-1292
▁land	-1293
▁wasn	-1294
▁circle	-1295
con	-1296
uff	-1297
▁ord	-1298
▁kitch	-1299
▁music	-1300
▁pleas	-1301
▁beauti	-1302
era	-1303
▁hit	-1304
▁herself	-1305
▁problem	-1306
wood	-1307
▁nam	-1308
▁front	-1309
ung	-1310
▁area	-1311
▁vill	-1312
▁countr	-1313
▁januar	-1314
oh	-1315
ale	-1316
▁full	-1317
▁lost	-1318
▁runn	-1319
▁cloth	-1320
▁constr	-1321
▁brought	-1322
und	-1323
▁cool	-1324
▁other	-1325
▁behind	-1326
erg	-1327
▁aff	-1328
▁bod	-1329
▁flow	-1330
▁fort	-1331
▁sist	-1332
▁mouth	-1333
ama	-1334
eri	-1335
▁pow	-1336
picks	-1337
▁scre	-1338
▁april	-1339
▁block	-1340
ti	-1341
ans	-1342
▁je	-1343
hold	-1344
▁art	-1345
▁jack	-1346
▁gotta	-1347
▁forg	-1348
▁true	-1349
alth	-1350
▁mag	-1351
▁march	-1352
▁wonder	-1353
ato	-1354
▁knock	-1355
ica	-1356
mpt	-1357
▁gun	-1358
▁que	-1359
▁fuck	-1360
▁matt	-1361
▁trou	-1362
▁haven	-1363
▁sweet	-1364
ead	-1365
not	-1366
▁les	-1367
▁lov	-1368
▁wagon	-1369
▁yourself	-1370
igh	-1371
▁aw	-1372
sing	-1373
▁ann	-1374
▁terr	-1375
▁toward	-1376
kes	-1377
▁pri	-1378
▁chee	-1379
▁exce	-1380
▁leav	-1381
▁acros	-1382
▁creat	-1383
▁movie	-1384
▁adm	-1385
▁law	-1386
▁clip	-1387
▁stud	-1388
▁whis	-1389
▁construc	-1390
ield	-1391
▁send	-1392
▁hello	-1393
.5	-1394
nda	-1395
▁over	-1396
▁prod	-1397
▁gener	-1398
vent	-1399
▁bow	-1400
▁duck	-1401
▁funn	-1402
▁bill	-1403
▁fight	-1404
▁quick	-1405
▁histor	-1406
▁hair	-1407
▁mill	-1408
▁sugar	-1409
▁window	-1410
▁commune	-1411
▁non	-1412
orm	-1413
ves	-1414
selv	-1415
▁bir	-1416
▁page	-1417
▁prom	-1418
▁iversit	-1419
vid	-1420
ress	-1421
side	-1422
▁corn	-1423
▁hang	-1424
▁shar	-1425
▁garth	-1426
▁teach	-1427
▁couldn	-1428
gan	-1429
▁blow	-1430
▁12	-1431
▁road	-1432
▁song	-1433
arn	-1434
▁ap	-1435
▁195	-1436
▁tow	-1437
inc	-1438
tle	-1439
▁jul	-1440
▁rid	-1441
▁papa	-1442
▁pur	-1443
where	-1444
▁2020	-1445
▁gold	-1446
▁lead	-1447
▁doctor	-1448
▁somebod	-1449
▁[3	-1450
▁luc	-1451
▁fing	-1452
▁cover	-1453
▁"	-1454
▁ep	-1455
▁mur	-1456
▁bath	-1457
▁clos	-1458
▁fore	-1459
▁airpl	-1460
▁stood	-1461
cc	-1462
tr	-1463
ilt	-1464
olog	-1465
raid	-1466
stic	-1467
▁ason	-1468
▁sitt	-1469
▁month	-1470
▁afraid	-1471
▁hat	-1472
▁busi	-1473
▁nine	-1474
▁roll	-1475
kin	-1476
▁hon	-1477
▁tea	-1478
▁conf	-1479
▁among	-1480
▁straight	-1481
ste	-1482
▁pot	-1483
▁free	-1484
▁open	-1485
▁crack	-1486
▁stuck	-1487
▁change	-1488
▁expect	-1489
▁jam	-1490
▁stead	-1491
▁became	-1492
room	-1493
▁ran	-1494
▁brok	-1495
▁tend	-1496
▁strong	-1497
▁adv	-1498
▁ago	-1499
▁bag	-1500
▁heav	-1501
▁hone	-1502
▁summ	-1503
▁brown	-1504
▁large	-1505
▁picture	-1506
ua	-1507
▁ty	-1508
▁drop	-1509
▁kept	-1510
▁prot	-1511
▁health	-1512
▁secret	-1513
ref	-1514
ical	-1515
▁193	-1516
▁cow	-1517
▁fix	-1518
point	-1519
▁eith	-1520
▁twent	-1521
▁daught	-1522
ket	-1523
▁case	-1524
▁gard	-1525
▁glad	-1526
▁minut	-1527
▁quiet	-1528
▁wheel	-1529
que	-1530
sent	-1531
▁lik	-1532
▁low	-1533
▁mat	-1534
▁alone	-1535
▁learn	-1536
co	-1537
▁dom	-1538
▁egg	-1539
▁fig	-1540
▁rich	-1541
▁seri	-1542
▁trunk	-1543
▁myself	-1544
▁bi	-1545
▁mad	-1546
takes	-1547
▁aren	-1548
▁clean	-1549
▁treat	-1550
▁airplane	-1551
ather	-1552
▁birth	-1553
Chi	-1554
▁hol	-1555
▁police	-1556
▁christma	-1557
bb	-1558
ov	-1559
▁fast	-1560
▁seat	-1561
▁catch	-1562
▁grace	-1563
▁quest	-1564
ove	-1565
▁doll	-1566
▁breath	-1567
▁tomorrow	-1568
▁17	-1569
ansa	-1570
▁fla	-1571
▁rath	-1572
▁sick	-1573
▁ahead	-1574
▁stuff	-1575
▁tripp	-1576
▁politician	-1577
▁vi	-1578
▁[2.	-1579
tempt	-1580
▁	-1581
e	-1582
t	-1583
o	-1584
a	-1585
i	-1586
n	-1587
s	-1588
h	-1589
r	-1590
l	-1591
d	-1592
u	-1593
y	-1594
m	-1595
w	-1596
c	-1597
g	-1598
f	-1599
p	-1600
b	-1601
*	-1602
:	-1603
k	-1604
v	-1605
'	-1606
I	-1607
C	-1608
H	-1609
T	-1610
O	-1611
M	-1612
-	-1613
[	-1614
x	-1615
=	-1616
j	-1617
1	-1618
2	-1619
.	-1620
0	-1621
A	-1622
F	-1623
9	-1624
z	-1625
S	-1626
R	-1627
’	-1628
q	-1629
,	-1630
]	-1631
5	-1632
3	-1633
8	-1634
7	-1635
4	-1636
N	-1637
6	-1638
V	-1639
U	-1640
B	-1641
L	-1642
/	-1643
?	-1644
♪	-1645
!	-1646
—	-1647
_	-1648
é	-1649
–	-1650
;	-1651
"	-1652
(	-1653
D	-1654
á	-1655
)	-1656
E	-1657
#	-1658
P	-1659
W	-1660
è	-1661
í	-1662
|	-1663
&	-1664
X	-1665
G	-1666
$	-1667
ó	-1668
+	-1669
ã	-1670
ä	-1671
č	-1672
}	-1673
­	-1674
š	-1675
ü	-1676
ć	-1677
¶	-1678
à	-1679
ö	-1680
K	-1681
ú	-1682
ç	-1683
ñ	-1684
â	-1685
î	-1686
@	-1687
`	-1688
¡	-1689
æ	-1690
ê	-1691
ô	-1692
”	-1693
Y	-1694
ë	-1695
ś	-1696
ß	-1697
ğ	-1698
ø	-1699
°	-1700
ł	-1701
ū	-1702
ž	-1703
Q	-1704
å	-1705
ò	-1706
ė	-1707
ě	-1708
ʊ	-1709
{	-1710
~	-1711
×	-1712
ï	-1713
ù	-1714
œ	-1715
ŭ	-1716
ɐ	-1717
ˈ	-1718
J	-1719
Z	-1720
\	-1721
£	-1722
÷	-1723
û	-1724
ý	-1725
ā	-1726
ą	-1727
đ	-1728
ı	-1729
ň	-1730
ō	-1731
ř	-1732
ş	-1733
ș	-1734
ɫ	-1735
ʋ	-1736
†	-1737
∂	-1738
