[PAD]	0
[CLS]	0
[SEP]	0
[UNK]	0
[MASK]	0
<0x00>	0
<0x01>	0
<0x02>	0
<0x03>	0
<0x04>	0
<0x05>	0
<0x06>	0
<0x07>	0
<0x08>	0
<0x09>	0
<0x0A>	0
<0x0B>	0
<0x0C>	0
<0x0D>	0
<0x0E>	0
<0x0F>	0
<0x10>	0
<0x11>	0
<0x12>	0
<0x13>	0
<0x14>	0
<0x15>	0
<0x16>	0
<0x17>	0
<0x18>	0
<0x19>	0
<0x1A>	0
<0x1B>	0
<0x1C>	0
<0x1D>	0
<0x1E>	0
<0x1F>	0
<0x20>	0
<0x21>	0
<0x22>	0
<0x23>	0
<0x24>	0
<0x25>	0
<0x26>	0
<0x27>	0
<0x28>	0
<0x29>	0
<0x2A>	0
<0x2B>	0
<0x2C>	0
<0x2D>	0
<0x2E>	0
<0x2F>	0
<0x30>	0
<0x31>	0
<0x32>	0
<0x33>	0
<0x34>	0
<0x35>	0
<0x36>	0
<0x37>	0
<0x38>	0
<0x39>	0
<0x3A>	0
<0x3B>	0
<0x3C>	0
<0x3D>	0
<0x3E>	0
<0x3F>	0
<0x40>	0
<0x41>	0
<0x42>	0
<0x43>	0
<0x44>	0
<0x45>	0
<0x46>	0
<0x47>	0
<0x48>	0
<0x49>	0
<0x4A>	0
<0x4B>	0
<0x4C>	0
<0x4D>	0
<0x4E>	0
<0x4F>	0
<0x50>	0
<0x51>	0
<0x52>	0
<0x53>	0
<0x54>	0
<0x55>	0
<0x56>	0
<0x57>	0
<0x58>	0
<0x59>	0
<0x5A>	0
<0x5B>	0
<0x5C>	0
<0x5D>	0
<0x5E>	0
<0x5F>	0
<0x60>	0
<0x61>	0
<0x62>	0
<0x63>	0
<0x64>	0
<0x65>	0
<0x66>	0
<0x67>	0
<0x68>	0
<0x69>	0
<0x6A>	0
<0x6B>	0
<0x6C>	0
<0x6D>	0
<0x6E>	0
<0x6F>	0
<0x70>	0
<0x71>	0
<0x72>	0
<0x73>	0
<0x74>	0
<0x75>	0
<0x76>	0
<0x77>	0
<0x78>	0
<0x79>	0
<0x7A>	0
<0x7B>	0
<0x7C>	0
<0x7D>	0
<0x7E>	0
<0x7F>	0
<0x80>	0
<0x81>	0
<0x82>	0
<0x83>	0
<0x84>	0
<0x85>	0
<0x86>	0
<0x87>	0
<0x88>	0
<0x89>	0
<0x8A>	0
<0x8B>	0
<0x8C>	0
<0x8D>	0
<0x8E>	0
<0x8F>	0
<0x90>	0
<0x91>	0
<0x92>	0
<0x93>	0
<0x94>	0
<0x95>	0
<0x96>	0
<0x97>	0
<0x98>	0
<0x99>	0
<0x9A>	0
<0x9B>	0
<0x9C>	0
<0x9D>	0
<0x9E>	0
<0x9F>	0
<0xA0>	0
<0xA1>	0
<0xA2>	0
<0xA3>	0
<0xA4>	0
<0xA5>	0
<0xA6>	0
<0xA7>	0
<0xA8>	0
<0xA9>	0
<0xAA>	0
<0xAB>	0
<0xAC>	0
<0xAD>	0
<0xAE>	0
<0xAF>	0
<0xB0>	0
<0xB1>	0
<0xB2>	0
<0xB3>	0
<0xB4>	0
<0xB5>	0
<0xB6>	0
<0xB7>	0
<0xB8>	0
<0xB9>	0
<0xBA>	0
<0xBB>	0
<0xBC>	0
<0xBD>	0
<0xBE>	0
<0xBF>	0
<0xC0>	0
<0xC1>	0
<0xC2>	0
<0xC3>	0
<0xC4>	0
<0xC5>	0
<0xC6>	0
<0xC7>	0
<0xC8>	0
<0xC9>	0
<0xCA>	0
<0xCB>	0
<0xCC>	0
<0xCD>	0
<0xCE>	0
<0xCF>	0
<0xD0>	0
<0xD1>	0
<0xD2>	0
<0xD3>	0
<0xD4>	0
<0xD5>	0
<0xD6>	0
<0xD7>	0
<0xD8>	0
<0xD9>	0
<0xDA>	0
<0xDB>	0
<0xDC>	0
<0xDD>	0
<0xDE>	0
<0xDF>	0
<0xE0>	0
<0xE1>	0
<0xE2>	0
<0xE3>	0
<0xE4>	0
<0xE5>	0
<0xE6>	0
<0xE7>	0
<0xE8>	0
<0xE9>	0
<0xEA>	0
<0xEB>	0
<0xEC>	0
<0xED>	0
<0xEE>	0
<0xEF>	0
<0xF0>	0
<0xF1>	0
<0xF2>	0
<0xF3>	0
<0xF4>	0
<0xF5>	0
<0xF6>	0
<0xF7>	0
<0xF8>	0
<0xF9>	0
<0xFA>	0
<0xFB>	0
<0xFC>	0
<0xFD>	0
<0xFE>	0
<0xFF>	0
▁s	-0
▁t	-1
▁i	-2
▁a	-3
▁e	-4
▁th	-5
▁y	-6
▁w	-7
▁the	-8
▁h	-9
▁o	-10
▁*	-11
ou	-12
re	-13
▁b	-14
▁in	-15
▁m	-16
▁c	-17
▁d	-18
nd	-19
at	-20
▁l	-21
▁f	-22
▁er	-23
▁p	-24
▁to	-25
▁you	-26
on	-27
▁g	-28
an	-29
CH	-30
CHI	-31
▁n	-32
▁ing	-33
ll	-34
▁ed	-35
or	-36
▁and	-37
in	-38
it	-39
er	-40
ar	-41
▁of	-42
▁wh	-43
▁it	-44
om	-45
OT	-46
MOT	-47
▁es	-48
ow	-49
▁he	-50
le	-51
st	-52
▁en	-53
ot	-54
ve	-55
▁ha	-56
▁on	-57
et	-58
ut	-59
▁wa	-60
▁that	-61
ic	-62
se	-63
▁we	-64
▁u	-65
▁[	-66
gh	-67
▁be	-68
id	-69
▁=	-70
ld	-71
▁st	-72
▁r	-73
▁ly	-74
▁k	-75
en	-76
▁sh	-77
ac	-78
oo	-79
▁hi	-80
▁do	-81
▁se	-82
▁al	-83
ir	-84
▁re	-85
▁for	-86
▁what	-87
▁j	-88
ke	-89
am	-90
ght	-91
▁me	-92
▁an	-93
ch	-94
▁ti	-95
ith	-96
▁at	-97
ur	-98
ad	-99
▁li	-100
is	-101
▁sa	-102
ome	-103
▁no	-104
▁with	-105
▁ch	-106
▁-	-107
th	-108
▁go	-109
▁de	-110
▁not	-111
▁v	-112
al	-113
la	-114
ight	-115
▁fr	-116
▁have	-117
il	-118
ould	-119
▁ne	-120
ce	-121
▁ma	-122
▁so	-123
▁she	-124
▁thi	-125
▁kn	-126
▁but	-127
ro	-128
ea	-129
ent	-130
▁can	-131
▁there	-132
un	-133
▁don	-134
ra	-135
xx	-136
ust	-137
▁are	-138
▁one	-139
▁mo	-140
ill	-141
▁ab	-142
▁up	-143
ie	-144
ant	-145
▁your	-146
▁know	-147
ack	-148
▁all	-149
ss	-150
ing	-151
▁1	-152
pp	-153
AT	-154
FAT	-155
all	-156
ct	-157
▁tr	-158
▁had	-159
▁bo	-160
op	-161
▁su	-162
au	-163
ook	-164
▁like	-165
ck	-166
ge	-167
▁tion	-168
ver	-169
nt	-170
▁oh	-171
ell	-172
▁get	-173
▁ad	-174
▁2	-175
ood	-176
out	-177
▁from	-178
ere	-179
ion	-180
▁him	-181
▁sp	-182
▁out	-183
▁did	-184
itt	-185
art	-186
ap	-187
▁or	-188
▁sec	-189
▁some	-190
▁see	-191
oth	-192
ick	-193
ink	-194
ft	-195
ol	-196
um	-197
ard	-198
ee	-199
▁just	-200
▁them	-201
▁said	-202
ul	-203
qu	-204
as	-205
▁man	-206
▁if	-207
▁di	-208
ame	-209
▁un	-210
▁were	-211
ound	-212
▁here	-213
ri	-214
na	-215
▁com	-216
▁would	-217
es	-218
▁wor	-219
me	-220
▁who	-221
▁yea	-222
▁about	-223
ind	-224
▁yeah	-225
▁want	-226
▁how	-227
ong	-228
ain	-229
▁well	-230
ig	-231
▁ta	-232
▁now	-233
▁ba	-234
▁ar	-235
▁ive	-236
▁look	-237
▁right	-238
▁put	-239
▁bl	-240
us	-241
own	-242
▁co	-243
▁xx	-244
▁xxx	-245
▁con	-246
▁think	-247
one	-248
ittle	-249
▁little	-250
ff	-251
▁where	-252
wa	-253
▁good	-254
▁ex	-255
▁got	-256
▁la	-257
▁ver	-258
ine	-259
▁cl	-260
▁20	-261
▁tw	-262
our	-263
▁come	-264
ite	-265
▁lo	-266
▁po	-267
▁le	-268
im	-269
ice	-270
ich	-271
▁off	-272
eth	-273
ish	-274
▁qu	-275
▁est	-276
ka	-277
▁let	-278
▁pe	-279
ath	-280
▁back	-281
▁could	-282
▁19	-283
▁ag	-284
▁will	-285
▁than	-286
▁br	-287
▁ro	-288
▁ate	-289
▁chi	-290
▁mom	-291
and	-292
ide	-293
▁down	-294
▁pre	-295
▁too	-296
ile	-297
▁more	-298
▁ov	-299
ore	-300
▁oth	-301
▁oka	-302
▁pro	-303
▁time	-304
IN	-305
ace	-306
▁da	-307
▁pl	-308
INV	-309
▁am	-310
▁fe	-311
lf	-312
▁te	-313
▁gu	-314
▁their	-315
ip	-316
▁two	-317
▁wr	-318
sh	-319
▁which	-320
RS	-321
URS	-322
▁pla	-323
ree	-324
ort	-325
ough	-326
▁jo	-327
▁ment	-328
▁bec	-329
mb	-330
ause	-331
▁take	-332
uck	-333
▁som	-334
urn	-335
▁as	-336
▁part	-337
orn	-338
ugh	-339
▁cr	-340
▁gre	-341
ist	-342
▁pa	-343
▁sil	-344
ect	-345
▁gon	-346
▁ca	-347
▁make	-348
].	-349
▁fl	-350
▁peop	-351
▁dis	-352
▁gonna	-353
▁sc	-354
▁ye	-355
▁people	-356
▁ev	-357
▁mar	-358
ach	-359
▁wat	-360
▁per	-361
ue	-362
▁tell	-363
▁gr	-364
BR	-365
ter	-366
ose	-367
pt	-368
▁aft	-369
▁silv	-370
ous	-371
ade	-372
▁pr	-373
iv	-374
▁able	-375
BRO	-376
▁base	-377
▁mu	-378
▁sw	-379
▁uh	-380
▁fir	-381
▁ever	-382
▁bu	-383
▁work	-384
ool	-385
▁201	-386
alk	-387
▁mean	-388
ang	-389
gn	-390
ought	-391
ance	-392
ure	-393
▁boy	-394
ble	-395
▁turn	-396
▁any	-397
▁momm	-398
▁again	-399
▁black	-400
wn	-401
air	-402
▁because	-403
int	-404
▁thank	-405
▁lea	-406
▁someth	-407
▁ho	-408
ase	-409
ord	-410
▁ful	-411
▁new	-412
be	-413
ian	-414
CO	-415
fe	-416
self	-417
▁car	-418
▁cou	-419
▁.	-420
▁talk	-421
bl	-422
od	-423
COL	-424
ond	-425
ia	-426
▁bet	-427
▁ple	-428
▁first	-429
▁dat	-430
ast	-431
▁nev	-432
▁much	-433
▁mr	-434
▁happ	-435
▁sm	-436
▁eve	-437
▁call	-438
▁hand	-439
da	-440
▁app	-441
ock	-442
▁wan	-443
▁ask	-444
▁thr	-445
▁long	-446
ag	-447
ak	-448
ellow	-449
▁these	-450
▁dr	-451
el	-452
▁stick	-453
ouse	-454
act	-455
laugh	-456
▁awa	-457
▁great	-458
ud	-459
▁gir	-460
nce	-461
age	-462
eel	-463
orr	-464
▁old	-465
fore	-466
▁big	-467
▁should	-468
--	-469
▁add	-470
▁child	-471
ert	-472
▁made	-473
▁us	-474
▁didn	-475
▁act	-476
laughs	-477
▁anoth	-478
▁they	-479
▁fo	-480
▁ac	-481
mp	-482
▁ball	-483
▁girl	-484
▁hel	-485
▁comm	-486
▁bre	-487
▁moth	-488
▁pap	-489
▁pu	-490
▁before	-491
▁comp	-492
▁fi	-493
▁[1	-494
▁dad	-495
▁came	-496
▁mis	-497
▁side	-498
▁thing	-499
ane	-500
ph	-501
ation	-502
▁dog	-503
▁home	-504
▁year	-505
▁help	-506
ict	-507
▁min	-508
▁eat	-509
so	-510
▁gra	-511
ab	-512
▁house	-513
uh	-514
▁sch	-515
▁those	-516
eep	-517
son	-518
lt	-519
▁write	-520
uc	-521
▁thought	-522
▁bro	-523
▁love	-524
▁our	-525
▁adam	-526
ed	-527
▁wait	-528
▁kind	-529
▁cle	-530
▁wand	-531
up	-532
▁wanna	-533
▁exp	-534
▁head	-535
mo	-536
▁fath	-537
▁el	-538
way	-539
sn	-540
▁please	-541
▁keep	-542
▁went	-543
te	-544
ward	-545
▁top	-546
os	-547
▁sion	-548
▁stand	-549
▁ise	-550
▁three	-551
ep	-552
▁ser	-553
▁count	-554
ug	-555
▁gl	-556
▁sta	-557
▁must	-558
▁say	-559
▁every	-560
▁start	-561
▁op	-562
▁memb	-563
ern	-564
▁str	-565
▁most	-566
▁feel	-567
▁name	-568
▁care	-569
right	-570
IS	-571
ence	-572
▁watch	-573
land	-574
▁through	-575
ne	-576
▁play	-577
gnet	-578
▁mov	-579
xt	-580
▁ve	-581
▁bel	-582
▁pol	-583
▁cre	-584
▁alway	-585
▁tri	-586
▁sure	-587
ng	-588
▁dre	-589
ush	-590
SIS	-591
▁3	-592
▁last	-593
▁night	-594
▁ness	-595
▁anyth	-596
ma	-597
ild	-598
unn	-599
▁show	-600
▁around	-601
▁school	-602
▁sl	-603
▁par	-604
▁mon	-605
▁yellow	-606
▁alright	-607
▁place	-608
man	-609
▁ah	-610
▁ear	-611
▁also	-612
ton	-613
enc	-614
ta	-615
▁fam	-616
we	-617
▁ju	-618
ird	-619
▁col	-620
▁pau	-621
▁tra	-622
▁find	-623
▁stor	-624
ze	-625
▁high	-626
bod	-627
▁si	-628
▁mak	-629
▁cont	-630
▁dadd	-631
av	-632
ye	-633
ump	-634
▁won	-635
▁book	-636
▁bab	-637
▁fin	-638
▁em	-639
▁use	-640
iz	-641
pe	-642
err	-643
ual	-644
▁sile	-645
▁magnet	-646
amp	-647
▁still	-648
iend	-649
▁tom	-650
▁bett	-651
▁might	-652
▁such	-653
▁found	-654
og	-655
att	-656
▁ph	-657
▁ur	-658
ew	-659
▁may	-660
▁far	-661
▁cour	-662
▁inter	-663
▁noth	-664
▁air	-665
ange	-666
▁ob	-667
▁war	-668
▁pie	-669
▁beg	-670
▁ra	-671
ican	-672
▁nice	-673
▁ga	-674
▁nor	-675
ev	-676
▁own	-677
▁♪	-678
ci	-679
ope	-680
▁seem	-681
esn	-682
▁tre	-683
▁four	-684
▁while	-685
▁light	-686
▁diff	-687
ank	-688
▁cit	-689
▁ial	-690
▁paul	-691
▁fall	-692
▁doesn	-693
ula	-694
▁tak	-695
▁sit	-696
wh	-697
▁else	-698
nder	-699
▁ious	-700
▁hard	-701
▁poss	-702
ute	-703
itch	-704
▁sorr	-705
dd	-706
▁lot	-707
▁silence	-708
▁liv	-709
ign	-710
▁friend	-711
▁stat	-712
outh	-713
▁happen	-714
ott	-715
▁word	-716
▁born	-717
▁done	-718
▁mil	-719
ob	-720
▁?	-721
▁supp	-722
sp	-723
▁hur	-724
▁next	-725
▁,	-726
▁sent	-727
▁!	-728
▁tap	-729
▁life	-730
est	-731
oon	-732
▁ous	-733
▁saw	-734
▁world	-735
alit	-736
▁[1.	-737
▁maybe	-738
▁sound	-739
hn	-740
pr	-741
erent	-742
▁wal	-743
▁told	-744
▁2019	-745
pl	-746
▁her	-747
▁mot	-748
▁hear	-749
▁ough	-750
▁wash	-751
▁childr	-752
▁spe	-753
▁lad	-754
▁ste	-755
▁amer	-756
ah	-757
▁tog	-758
▁same	-759
cle	-760
▁fami	-761
▁togeth	-762
are	-763
▁che	-764
▁near	-765
io	-766
▁hold	-767
▁wind	-768
1:	-769
▁sn	-770
▁vo	-771
▁fras	-772
▁stop	-773
atch	-774
▁har	-775
▁char	-776
▁cla	-777
umb	-778
00	-779
gr	-780
ident	-781
▁morn	-782
gg	-783
▁lau	-784
▁form	-785
anc	-786
sil	-787
▁lat	-788
▁imp	-789
▁door	-790
▁young	-791
if	-792
▁wom	-793
▁list	-794
▁break	-795
▁took	-796
unic	-797
▁move	-798
▁mind	-799
▁pick	-800
▁under	-801
ince	-802
▁sle	-803
▁john	-804
ull	-805
ros	-806
▁mone	-807
▁known	-808
▁fire	-809
▁lett	-810
ub	-811
▁ke	-812
read	-813
inn	-814
▁exc	-815
▁drink	-816
▁town	-817
sa	-818
▁face	-819
▁fish	-820
▁4	-821
▁bar	-822
ject	-823
..	-824
▁cir	-825
▁isn	-826
▁sho	-827
▁room	-828
▁stre	-829
aud	-830
▁set	-831
silver	-832
▁bit	-833
per	-834
▁cent	-835
une	-836
▁sk	-837
lda	-838
▁heard	-839
▁leave	-840
ont	-841
▁god	-842
▁belie	-843
▁small	-844
aught	-845
▁left	-846
unicip	-847
▁municip	-848
eak	-849
▁til	-850
str	-851
llow	-852
▁bra	-853
▁course	-854
▁though	-855
▁dra	-856
▁hm	-857
▁arm	-858
▁wee	-859
▁run	-860
▁huh	-861
▁cra	-862
▁gues	-863
▁walk	-864
▁municipalit	-865
vi	-866
sit	-867
▁ele	-868
▁giv	-869
▁hor	-870
▁each	-871
▁once	-872
▁broth	-873
▁everyth	-874
hm	-875
▁urs	-876
▁gett	-877
▁mark	-878
▁id	-879
▁american	-880
the	-881
▁att	-882
▁sign	-883
▁round	-884
▁erm	-885
▁202	-886
▁fre	-887
▁crom	-888
▁quite	-889
▁ce	-890
▁tt	-891
▁lar	-892
▁both	-893
▁ible	-894
rop	-895
▁18	-896
unk	-897
ho	-898
▁bad	-899
▁game	-900
▁bus	-901
▁dou	-902
▁cons	-903
▁soon	-904
▁jane	-905
▁few	-906
▁sur	-907
▁knew	-908
oud	-909
▁[.	-910
▁pop	-911
▁clear	-912
hi	-913
▁bird	-914
▁without	-915
▁kill	-916
▁laugh	-917
br	-918
ann	-919
▁possum	-920
rist	-921
▁hot	-922
▁bas	-923
▁cook	-924
▁betwe	-925
ctor	-926
uar	-927
▁acc	-928
ult	-929
▁mhm	-930
▁200	-931
get	-932
▁ey	-933
▁im	-934
▁tilda	-935
▁kitt	-936
cl	-937
encil	-938
▁hell	-939
▁wond	-940
▁um	-941
▁fair	-942
▁pencil	-943
irt	-944
▁less	-945
▁day	-946
▁toda	-947
▁ill	-948
ount	-949
▁heart	-950
▁person	-951
itic	-952
▁hav	-953
▁fine	-954
▁somet	-955
▁second	-956
▁5	-957
most	-958
▁sir	-959
▁serv	-960
ate	-961
▁mm	-962
▁nut	-963
▁199	-964
▁sar	-965
▁follow	-966
unch	-967
▁cap	-968
▁gen	-969
▁himself	-970
▁7	-971
▁chair	-972
oup	-973
▁different	-974
▁z	-975
unt	-976
▁[2	-977
▁foot	-978
▁ge	-979
▁coff	-980
▁upon	-981
▁cause	-982
▁white	-983
▁oct	-984
▁cord	-985
go	-986
▁actual	-987
▁beh	-988
▁yet	-989
▁half	-990
bo	-991
fr	-992
ens	-993
▁age	-994
▁gar	-995
▁vol	-996
▁sometim	-997
fta	-998
ipp	-999
▁octob	-1000
▁hafta	-1001
▁yep	-1002
▁tim	-1003
▁vaud	-1004
ator	-1005
▁object	-1006
li	-1007
▁ter	-1008
▁vis	-1009
bab	-1010
▁box	-1011
sw	-1012
ief	-1013
res	-1014
ouch	-1015
▁color	-1016
▁point	-1017
▁sim	-1018
no	-1019
▁swe	-1020
▁east	-1021
▁wood	-1022
aut	-1023
huh	-1024
▁almost	-1025
▁–	-1026
▁ath	-1027
▁gone	-1028
▁coffee	-1029
▁gave	-1030
▁milk	-1031
▁speak	-1032
ina	-1033
▁appe	-1034
▁sleep	-1035
▁flo	-1036
▁along	-1037
▁cur	-1038
▁dar	-1039
▁son	-1040
▁publ	-1041
▁trict	-1042
riv	-1043
ball	-1044
▁cup	-1045
▁tape	-1046
▁week	-1047
▁8	-1048
itz	-1049
▁cut	-1050
▁six	-1051
▁minute	-1052
ple	-1053
▁ize	-1054
▁shall	-1055
▁'	-1056
▁meet	-1057
▁woman	-1058
▁finish	-1059
▁believe	-1060
ful	-1061
▁writ	-1062
▁beaut	-1063
▁piece	-1064
▁christ	-1065
em	-1066
▁hum	-1067
▁kid	-1068
▁blue	-1069
▁ru	-1070
▁nat	-1071
put	-1072
uth	-1073
▁try	-1074
▁hope	-1075
IC	-1076
▁need	-1077
▁star	-1078
ertain	-1079
▁north	-1080
▁whole	-1081
ca	-1082
RIC	-1083
ash	-1084
▁voice	-1085
use	-1086
▁fun	-1087
▁pet	-1088
▁squ	-1089
oint	-1090
vern	-1091
▁tree	-1092
▁sing	-1093
▁france	-1094
▁sat	-1095
▁198	-1096
lv	-1097
vel	-1098
▁pull	-1099
▁ques	-1100
ly	-1101
ular	-1102
▁ton	-1103
com	-1104
ient	-1105
▁poor	-1106
▁grand	-1107
▁since	-1108
ib	-1109
ura	-1110
▁sub	-1111
▁spell	-1112
▁rob	-1113
▁geor	-1114
▁soft	-1115
enn	-1116
▁pass	-1117
▁against	-1118
gon	-1119
hap	-1120
ustr	-1121
▁med	-1122
▁fact	-1123
▁sort	-1124
▁truck	-1125
▁6	-1126
▁sto	-1127
▁9	-1128
iti	-1129
▁port	-1130
▁ursula	-1131
▁ain	-1132
▁alread	-1133
oc	-1134
▁196	-1135
▁numb	-1136
▁stra	-1137
iet	-1138
▁met	-1139
▁began	-1140
▁wouldn	-1141
lo	-1142
gar	-1143
ote	-1144
▁ass	-1145
▁doub	-1146
▁hurt	-1147
▁visit	-1148
▁perf	-1149
▁close	-1150
▁south	-1151
▁sy	-1152
▁mus	-1153
▁goin	-1154
▁govern	-1155
▁cri	-1156
▁leg	-1157
▁food	-1158
▁appear	-1159
▁fellow	-1160
▁probab	-1161
▁dire	-1162
▁feet	-1163
▁idea	-1164
erland	-1165
▁touch	-1166
ail	-1167
ire	-1168
▁mi	-1169
▁jan	-1170
▁oft	-1171
▁fell	-1172
▁perhap	-1173
▁arr	-1174
▁plac	-1175
▁ship	-1176
▁floor	-1177
▁sident	-1178
▁cal	-1179
▁dur	-1180
▁sen	-1181
▁line	-1182
▁certain	-1183
mm	-1184
▁train	-1185
ster	-1186
▁job	-1187
▁sarah	-1188
iss	-1189
▁maj	-1190
▁cold	-1191
▁politic	-1192
aint	-1193
▁hour	-1194
▁pict	-1195
gie	-1196
▁juice	-1197
pte	-1198
▁my	-1199
▁197	-1200
▁eas	-1201
▁tur	-1202
▁felt	-1203
▁push	-1204
▁tele	-1205
▁switz	-1206
▁switzerland	-1207
stor	-1208
▁aile	-1209
▁answ	-1210
▁coll	-1211
▁someone	-1212
to	-1213
icks	-1214
▁riv	-1215
▁dream	-1216
▁guy	-1217
orrow	-1218
▁eight	-1219
▁compan	-1220
▁(	-1221
▁pat	-1222
ptemb	-1223
▁wrong	-1224
▁nation	-1225
▁septemb	-1226
▁mid	-1227
▁rock	-1228
nc	-1229
ment	-1230
▁sun	-1231
▁wish	-1232
▁iver	-1233
2:	-1234
oi	-1235
zz	-1236
puts	-1237
▁ach	-1238
▁pos	-1239
▁check	-1240
cr	-1241
▁af	-1242
▁boat	-1243
▁bott	-1244
▁draw	-1245
▁short	-1246
you	-1247
▁bur	-1248
▁cat	-1249
▁tir	-1250
▁bear	-1251
ork	-1252
▁wear	-1253
▁offic	-1254
oke	-1255
ret	-1256
▁10	-1257
rent	-1258
▁mine	-1259
▁till	-1260
▁george	-1261
▁ice	-1262
▁dian	-1263
▁snow	-1264
nch	-1265
▁ok	-1266
anch	-1267
▁...	-1268
▁jump	-1269
▁contin	-1270
▁street	-1271
cu	-1272
ife	-1273
oop	-1274
▁apr	-1275
▁spr	-1276
▁anim	-1277
▁build	-1278
▁group	-1279
▁throw	-1280
az	-1281
▁carr	-1282
▁main	-1283
▁horse	-1284
▁lunch	-1285
▁canton	-1286
de	-1287
ida	-1288
uct	-1289
ude	-1290
blem	-1291
▁cor	-1292
▁land	-1293
▁wasn	-1294
▁circle	-1295
con	-1296
uff	-1297
▁ord	-1298
▁kitch	-1299
▁music	-1300
▁pleas	-1301
▁beauti	-1302
era	-1303
▁hit	-1304
▁herself	-1305
▁problem	-1306
wood	-1307
▁nam	-1308
▁front	-1309
ung	-1310
▁area	-1311
▁vill	-1312
▁countr	-1313
▁januar	-1314
oh	-1315
ale	-1316
▁full	-1317
▁lost	-1318
▁runn	-1319
▁cloth	-1320
▁constr	-1321
▁brought	-1322
und	-1323
▁cool	-1324
▁other	-1325
▁behind	-1326
erg	-1327
▁aff	-1328
▁bod	-1329
▁flow	-1330
▁fort	-1331
▁sist	-1332
▁mouth	-1333
ama	-1334
eri	-1335
▁pow	-1336
picks	-1337
▁scre	-1338
▁april	-1339
▁block	-1340
ti	-1341
ans	-1342
▁je	-1343
hold	-1344
▁art	-1345
▁jack	-1346
▁gotta	-1347
▁forg	-1348
▁true	-1349
alth	-1350
▁mag	-1351
▁march	-1352
▁wonder	-1353
ato	-1354
▁knock	-1355
ica	-1356
mpt	-1357
▁gun	-1358
▁que	-1359
▁fuck	-1360
▁matt	-1361
▁trou	-1362
▁haven	-1363
▁sweet	-1364
ead	-1365
not	-1366
▁les	-1367
▁lov	-1368
▁wagon	-1369
▁yourself	-1370
igh	-1371
▁aw	-1372
sing	-1373
▁ann	-1374
▁terr	-1375
▁toward	-1376
kes	-1377
▁pri	-1378
▁chee	-1379
▁exce	-1380
▁leav	-1381
▁acros	-1382
▁creat	-1383
▁movie	-1384
▁adm	-1385
▁law	-1386
▁clip	-1387
▁stud	-1388
▁whis	-1389
▁construc	-1390
ield	-1391
▁send	-1392
▁hello	-1393
.5	-1394
nda	-1395
▁over	-1396
▁prod	-1397
▁gener	-1398
vent	-1399
▁bow	-1400
▁duck	-1401
▁funn	-1402
▁bill	-1403
▁fight	-1404
▁quick	-1405
▁histor	-1406
▁hair	-1407
▁mill	-1408
▁sugar	-1409
▁window	-1410
▁commune	-1411
▁non	-1412
orm	-1413
ves	-1414
selv	-1415
▁bir	-1416
▁page	-1417
▁prom	-1418
▁iversit	-1419
vid	-1420
ress	-1421
side	-1422
▁corn	-1423
▁hang	-1424
▁shar	-1425
▁garth	-1426
▁teach	-1427
▁couldn	-1428
gan	-1429
▁blow	-1430
▁12	-1431
▁road	-1432
▁song	-1433
arn	-1434
▁ap	-1435
▁195	-1436
▁tow	-1437
inc	-1438
tle	-1439
▁jul	-1440
▁rid	-1441
▁papa	-1442
▁pur	-1443
where	-1444
▁2020	-1445
▁gold	-1446
▁lead	-1447
▁doctor	-1448
▁somebod	-1449
▁[3	-1450
▁luc	-1451
▁fing	-1452
▁cover	-1453
▁"	-1454
▁ep	-1455
▁mur	-1456
▁bath	-1457
▁clos	-1458
▁fore	-1459
▁airpl	-1460
▁stood	-1461
cc	-1462
tr	-1463
ilt	-1464
olog	-1465
raid	-1466
stic	-1467
▁ason	-1468
▁sitt	-1469
▁month	-1470
▁afraid	-1471
▁hat	-1472
▁busi	-1473
▁nine	-1474
▁roll	-1475
kin	-1476
▁hon	-1477
▁tea	-1478
▁conf	-1479
▁among	-1480
▁straight	-1481
ste	-1482
▁pot	-1483
▁free	-1484
▁open	-1485
▁crack	-1486
▁stuck	-1487
▁change	-1488
▁expect	-1489
▁jam	-1490
▁stead	-1491
▁became	-1492
room	-1493
▁ran	-1494
▁brok	-1495
▁tend	-1496
▁strong	-1497
▁adv	-1498
▁ago	-1499
▁bag	-1500
▁heav	-1501
▁hone	-1502
▁summ	-1503
▁brown	-1504
▁large	-1505
▁picture	-1506
ua	-1507
▁ty	-1508
▁drop	-1509
▁kept	-1510
▁prot	-1511
▁health	-1512
▁secret	-1513
ref	-1514
ical	-1515
▁193	-1516
▁cow	-1517
▁fix	-1518
point	-1519
▁eith	-1520
▁twent	-1521
▁daught	-1522
ket	-1523
▁case	-1524
▁gard	-1525
▁glad	-1526
▁minut	-1527
▁quiet	-1528
▁wheel	-1529
que	-1530
sent	-1531
▁lik	-1532
▁low	-1533
▁mat	-1534
▁alone	-1535
▁learn	-1536
co	-1537
▁dom	-1538
▁egg	-1539
▁fig	-1540
▁rich	-1541
▁seri	-1542
▁trunk	-1543
▁myself	-1544
▁bi	-1545
▁mad	-1546
takes	-1547
▁aren	-1548
▁clean	-1549
▁treat	-1550
▁airplane	-1551
ather	-1552
▁birth	-1553
Chi	-1554
▁hol	-1555
▁police	-1556
▁christma	-1557
bb	-1558
ov	-1559
▁fast	-1560
▁seat	-1561
▁catch	-1562
▁grace	-1563
▁quest	-1564
ove	-1565
▁doll	-1566
▁breath	-1567
▁tomorrow	-1568
▁17	-1569
ansa	-1570
▁fla	-1571
▁rath	-1572
▁sick	-1573
▁ahead	-1574
▁stuff	-1575
▁tripp	-1576
▁politician	-1577
▁vi	-1578
▁[2.	-1579
tempt	-1580
▁farm	-1581
▁tail	-1582
▁wife	-1583
▁member	-1584
▁public	-1585
▁camp	-1586
▁card	-1587
▁team	-1588
▁trouble	-1589
wl	-1590
cess	-1591
▁fur	-1592
▁conc	-1593
▁sudd	-1594
▁wild	-1595
▁sever	-1596
he	-1597
ys	-1598
bit	-1599
bor	-1600
yon	-1601
▁15	-1602
▁ou	-1603
▁cro	-1604
▁sev	-1605
▁vel	-1606
▁flore	-1607
▁whatev	-1608
▁perfect	-1609
sta	-1610
▁ri	-1611
▁ut	-1612
▁pra	-1613
▁bour	-1614
▁butt	-1615
▁phil	-1616
ies	-1617
▁is	-1618
fess	-1619
▁emp	-1620
▁term	-1621
▁shoot	-1622
cha	-1623
▁194	-1624
▁cry	-1625
▁ger	-1626
▁kansa	-1627
▁spoon	-1628
▁become	-1629
▁cheese	-1630
▁florence	-1631
ok	-1632
▁16	-1633
fast	-1634
▁dam	-1635
▁gam	-1636
▁burn	-1637
▁exact	-1638
▁organ	-1639
▁gent	-1640
▁ride	-1641
▁slow	-1642
▁french	-1643
aa	-1644
gne	-1645
▁ir	-1646
raph	-1647
▁putt	-1648
▁import	-1649
▁profess	-1650
sk	-1651
▁x	-1652
▁fle	-1653
▁even	-1654
▁join	-1655
▁luck	-1656
▁shut	-1657
▁spect	-1658
▁ground	-1659
▁tonight	-1660
ada	-1661
ason	-1662
▁die	-1663
▁scr	-1664
▁fear	-1665
▁nose	-1666
▁spon	-1667
▁warm	-1668
▁chang	-1669
▁harwood	-1670
▁question	-1671
imm	-1672
oof	-1673
ison	-1674
▁alb	-1675
▁dinn	-1676
▁imag	-1677
▁commun	-1678
ita	-1679
▁14	-1680
▁aug	-1681
▁past	-1682
▁piec	-1683
▁carri	-1684
▁const	-1685
▁elect	-1686
▁mount	-1687
▁usual	-1688
▁popula	-1689
sc	-1690
look	-1691
▁bye	-1692
▁loc	-1693
▁sha	-1694
▁beat	-1695
▁grow	-1696
▁sand	-1697
▁court	-1698
▁cream	-1699
▁whisper	-1700
der	-1701
let	-1702
▁lie	-1703
▁prop	-1704
▁themselv	-1705
▁fu	-1706
ston	-1707
▁occ	-1708
anche	-1709
▁dark	-1710
▁prov	-1711
▁russ	-1712
▁glish	-1713
▁magic	-1714
▁stool	-1715
▁majest	-1716
▁continu	-1717
case	-1718
cial	-1719
ilit	-1720
▁eff	-1721
▁nap	-1722
▁sou	-1723
erence	-1724
▁chief	-1725
▁laura	-1726
▁wheth	-1727
▁minist	-1728
SS	-1729
té	-1730
rel	-1731
▁dle	-1732
▁dro	-1733
comté	-1734
gogne	-1735
uthor	-1736
▁band	-1737
▁nove	-1738
franche	-1739
▁author	-1740
▁forget	-1741
▁bourgogne	-1742
ana	-1743
ipe	-1744
urch	-1745
▁pas	-1746
moves	-1747
▁hunt	-1748
▁blood	-1749
▁clock	-1750
▁least	-1751
di	-1752
child	-1753
▁hund	-1754
▁hurr	-1755
▁spec	-1756
▁excuse	-1757
angu	-1758
▁fit	-1759
▁jes	-1760
▁dang	-1761
▁capit	-1762
▁surpr	-1763
▁everybod	-1764
▁#	-1765
pla	-1766
▁uhhuh	-1767
▁caught	-1768
▁novemb	-1769
▁important	-1770
ers	-1771
gle	-1772
ism	-1773
uit	-1774
▁nin	-1775
▁suc	-1776
▁held	-1777
▁lift	-1778
▁paint	-1779
▁church	-1780
▁million	-1781
▁breakfast	-1782
ape	-1783
▁gla	-1784
▁nick	-1785
▁consid	-1786
▁televi	-1787
yl	-1788
oma	-1789
ven	-1790
▁11	-1791
▁gi	-1792
▁tro	-1793
▁win	-1794
icult	-1795
▁robin	-1796
▁football	-1797
▁fav	-1798
▁mac	-1799
▁opp	-1800
▁sol	-1801
▁step	-1802
▁suit	-1803
▁wall	-1804
▁august	-1805
▁bottom	-1806
▁23	-1807
▁ext	-1808
▁bowl	-1809
▁jean	-1810
▁medic	-1811
▁basket	-1812
but	-1813
ham	-1814
imb	-1815
rew	-1816
row	-1817
umm	-1818
▁[4	-1819
▁sav	-1820
▁tin	-1821
bruar	-1822
holds	-1823
▁gion	-1824
▁park	-1825
▁allow	-1826
▁chick	-1827
▁langu	-1828
▁phone	-1829
▁spend	-1830
▁attack	-1831
▁mother	-1832
▁februar	-1833
▁21	-1834
▁bon	-1835
▁fil	-1836
▁rom	-1837
▁boot	-1838
▁hole	-1839
▁tick	-1840
▁stopp	-1841
▁strange	-1842
gue	-1843
▁cam	-1844
▁eur	-1845
▁self	-1846
▁apple	-1847
▁brief	-1848
▁broke	-1849
▁forward	-1850
nut	-1851
▁24	-1852
atic	-1853
▁pad	-1854
▁fift	-1855
▁loud	-1856
▁mich	-1857
▁plan	-1858
though	-1859
▁aggie	-1860
▁button	-1861
▁chance	-1862
▁direct	-1863
▁birthda	-1864
ec	-1865
oe	-1866
come	-1867
lain	-1868
▁cand	-1869
▁dres	-1870
▁june	-1871
▁simp	-1872
▁store	-1873
childes	-1874
▁partic	-1875
▁childes	-1876
▁governor	-1877
ii	-1878
ym	-1879
▁ya	-1880
▁sad	-1881
▁bite	-1882
▁cens	-1883
▁fill	-1884
▁ward	-1885
▁above	-1886
▁dress	-1887
▁nobod	-1888
▁common	-1889
▁flower	-1890
▁german	-1891
▁although	-1892
ori	-1893
----	-1894
over	-1895
▁hun	-1896
▁lord	-1897
▁tire	-1898
▁answer	-1899
▁produc	-1900
▁plastic	-1901
lin	-1902
gram	-1903
song	-1904
▁fac	-1905
▁wel	-1906
stair	-1907
▁bigg	-1908
▁cemb	-1909
▁clud	-1910
▁stay	-1911
▁agree	-1912
itar	-1913
▁cov	-1914
▁cond	-1915
▁hors	-1916
▁mess	-1917
▁scar	-1918
ograph	-1919
▁event	-1920
▁howev	-1921
▁pract	-1922
▁except	-1923
▁father	-1924
▁letter	-1925
▁season	-1926
▁turtle	-1927
▁25	-1928
▁28	-1929
inoi	-1930
▁hop	-1931
ernoon	-1932
overla	-1933
▁quart	-1934
▁trans	-1935
▁anybod	-1936
▁present	-1937
▁]	-1938
owd	-1939
▁22	-1940
▁ss	-1941
▁tv	-1942
▁uk	-1943
ideo	-1944
▁vie	-1945
▁scri	-1946
▁suff	-1947
▁tear	-1948
▁anywa	-1949
▁earth	-1950
▁sudden	-1951
referent	-1952
▁_	-1953
ari	-1954
ars	-1955
bye	-1956
▁[?	-1957
▁cau	-1958
stern	-1959
▁spir	-1960
ground	-1961
▁award	-1962
▁sense	-1963
▁illinoi	-1964
▁suppose	-1965
▁village	-1966
▁afternoon	-1967
ha	-1968
arch	-1969
zzle	-1970
▁val	-1971
▁whom	-1972
▁bread	-1973
▁daddy	-1974
▁third	-1975
▁thirt	-1976
▁wrote	-1977
▁bright	-1978
▁forgot	-1979
cket	-1980
▁192	-1981
▁rad	-1982
▁cast	-1983
▁pack	-1984
▁post	-1985
▁charl	-1986
▁balloon	-1987
rit	-1988
▁13	-1989
▁joe	-1990
other	-1991
ution	-1992
▁comf	-1993
▁hosp	-1994
▁arrow	-1995
▁begin	-1996
▁hundr	-1997
▁monke	-1998
▁pound	-1999
▁whose	-2000
▁office	-2001
▁committ	-2002
▁service	-2003
lld	-2004
mon	-2005
ubb	-2006
icat	-2007
▁bed	-2008
▁cid	-2009
▁lin	-2010
▁wow	-2011
alian	-2012
▁onto	-2013
▁cherr	-2014
▁field	-2015
urs	-2016
aces	-2017
ingh	-2018
tain	-2019
ycle	-2020
▁fat	-2021
▁chap	-2022
▁grew	-2023
▁shot	-2024
▁view	-2025
▁wint	-2026
▁worth	-2027
▁appoint	-2028
▁illustr	-2029
gl	-2030
ix	-2031
▁sna	-2032
ature	-2033
clock	-2034
▁flat	-2035
▁pink	-2036
ousand	-2037
▁circu	-2038
▁belong	-2039
▁hospit	-2040
▁current	-2041
▁thousand	-2042
▁30	-2043
▁ox	-2044
▁toy	-2045
attle	-2046
▁coat	-2047
▁save	-2048
▁sold	-2049
▁vict	-2050
▁potato	-2051
▁accident	-2052
arm	-2053
mit	-2054
▁1.	-2055
▁mer	-2056
▁rose	-2057
▁worr	-2058
places	-2059
▁after	-2060
▁fright	-2061
▁mountain	-2062
5.	-2063
ya	-2064
bur	-2065
ford	-2066
▁ooh	-2067
▁ceiv	-2068
▁leas	-2069
▁york	-2070
▁human	-2071
▁writt	-2072
▁cannot	-2073
▁crayon	-2074
▁listen	-2075
▁everyone	-2076
000	-2077
abl	-2078
ael	-2079
iff	-2080
▁cho	-2081
▁eye	-2082
▁hen	-2083
▁lap	-2084
▁pig	-2085
▁hall	-2086
▁pant	-2087
▁stri	-2088
▁grape	-2089
▁anyone	-2090
▁pocket	-2091
▁within	-2092
ico	-2093
aliz	-2094
▁tor	-2095
▁vir	-2096
chair	-2097
▁bank	-2098
▁lion	-2099
▁sult	-2100
sterda	-2101
▁actor	-2102
▁calif	-2103
▁diand	-2104
▁dropp	-2105
▁final	-2106
▁plant	-2107
▁velop	-2108
▁parent	-2109
▁comfort	-2110
▁consider	-2111
▁yesterda	-2112
ise	-2113
▁ign	-2114
▁joy	-2115
▁bell	-2116
▁brit	-2117
▁major	-2118
▁speci	-2119
▁truth	-2120
▁bought	-2121
▁experi	-2122
▁search	-2123
▁californ	-2124
▁language	-2125
▁background	-2126
how	-2127
ier	-2128
idge	-2129
oose	-2130
shoe	-2131
▁ere	-2132
▁pal	-2133
▁hero	-2134
▁appro	-2135
▁marri	-2136
▁neigh	-2137
▁sharp	-2138
▁europe	-2139
▁scream	-2140
▁washer	-2141
bon	-2142
erv	-2143
▁27	-2144
▁na	-2145
▁cop	-2146
▁lou	-2147
▁sla	-2148
▁ten	-2149
ousin	-2150
▁2011	-2151
▁bang	-2152
▁fool	-2153
▁horr	-2154
▁jura	-2155
▁moon	-2156
▁penn	-2157
▁tall	-2158
▁pitch	-2159
▁sight	-2160
▁stori	-2161
▁comple	-2162
▁contro	-2163
▁robert	-2164
▁support	-2165
▁california	-2166
amb	-2167
rat	-2168
band	-2169
ounc	-2170
▁oat	-2171
▁sid	-2172
▁dann	-2173
▁frog	-2174
▁harr	-2175
▁mart	-2176
▁shit	-2177
points	-2178
▁stone	-2179
▁cousin	-2180
gu	-2181
nic	-2182
time	-2183
utch	-2184
▁[.7	-2185
▁bal	-2186
▁bor	-2187
ropri	-2188
▁cake	-2189
▁hill	-2190
▁ring	-2191
▁safe	-2192
▁sant	-2193
▁climb	-2194
▁meant	-2195
▁pleasure	-2196
▁:	-2197
ene	-2198
▁26	-2199
ific	-2200
roat	-2201
upid	-2202
▁esc	-2203
▁hus	-2204
▁mel	-2205
▁rac	-2206
▁san	-2207
▁[1.5	-2208
▁hous	-2209
▁lake	-2210
▁mann	-2211
▁posi	-2212
▁shoe	-2213
▁temp	-2214
▁vale	-2215
▁brother	-2216
▁medicine	-2217
lem	-2218
oph	-2219
stem	-2220
▁sex	-2221
▁bene	-2222
▁danc	-2223
▁film	-2224
▁rain	-2225
▁smil	-2226
▁censu	-2227
▁favor	-2228
▁honor	-2229
▁keith	-2230
▁trust	-2231
▁animal	-2232
▁figure	-2233
▁puzzle	-2234
▁stupid	-2235
▁difficult	-2236
vo	-2237
▁29	-2238
▁du	-2239
▁abs	-2240
▁bla	-2241
▁eag	-2242
▁equ	-2243
house	-2244
▁cost	-2245
▁driv	-2246
▁hank	-2247
▁colle	-2248
▁proce	-2249
▁proud	-2250
▁square	-2251
▁afterward	-2252
▁()	-2253
▁ka	-2254
▁tu	-2255
nord	-2256
▁[.8	-2257
▁aye	-2258
▁jud	-2259
▁2014	-2260
▁dirt	-2261
▁dose	-2262
▁lock	-2263
▁sell	-2264
▁counc	-2265
▁natur	-2266
▁shout	-2267
▁video	-2268
▁orange	-2269
▁baseball	-2270
iam	-2271
idd	-2272
mar	-2273
rap	-2274
uel	-2275
ault	-2276
some	-2277
▁ber	-2278
▁mod	-2279
▁sea	-2280
inist	-2281
▁caus	-2282
▁craz	-2283
▁darl	-2284
▁rais	-2285
▁vent	-2286
▁doubt	-2287
▁excit	-2288
▁plain	-2289
▁graham	-2290
▁itself	-2291
▁market	-2292
▁vaudoi	-2293
▁diandra	-2294
hs	-2295
ium	-2296
ren	-2297
lend	-2298
more	-2299
▁var	-2300
phone	-2301
uckle	-2302
▁espe	-2303
▁fail	-2304
▁pill	-2305
▁rush	-2306
▁force	-2307
▁motor	-2308
▁oatme	-2309
▁canada	-2310
▁cookie	-2311
▁suppos	-2312
▁throat	-2313
▁concern	-2314
▁italian	-2315
bel	-2316
ili	-2317
itor	-2318
rest	-2319
▁anx	-2320
▁mix	-2321
conom	-2322
▁bark	-2323
▁club	-2324
▁damn	-2325
▁kick	-2326
▁mama	-2327
▁meat	-2328
▁mocr	-2329
▁pair	-2330
▁ukra	-2331
▁activ	-2332
▁david	-2333
▁fruit	-2334
▁rough	-2335
▁couple	-2336
hv	-2337
▁hy	-2338
well	-2339
work	-2340
▁dri	-2341
ample	-2342
▁mont	-2343
▁soup	-2344
▁tedd	-2345
ington	-2346
yellow	-2347
▁fresh	-2348
▁ninet	-2349
▁space	-2350
▁stove	-2351
▁swimm	-2352
▁believ	-2353
▁bottle	-2354
▁spirit	-2355
▁husband	-2356
▁complete	-2357
▁especial	-2358
dge	-2359
ost	-2360
▁dy	-2361
pull	-2362
writ	-2363
▁ban	-2364
hslld	-2365
ition	-2366
▁cong	-2367
▁edge	-2368
▁gain	-2369
▁stro	-2370
▁corre	-2371
▁hungr	-2372
▁patch	-2373
▁plann	-2374
ik	-2375
ww	-2376
gel	-2377
iod	-2378
ror	-2379
ioca	-2380
ulat	-2381
what	-2382
▁sal	-2383
▁2017	-2384
▁2022	-2385
▁priv	-2386
▁board	-2387
▁built	-2388
▁cross	-2389
▁dance	-2390
▁manag	-2391
▁neith	-2392
▁system	-2393
▁publish	-2394
▁tapioca	-2395
▁william	-2396
▁committee	-2397
▁particular	-2398
**	-2399
ial	-2400
ime	-2401
igin	-2402
rian	-2403
that	-2404
umbl	-2405
▁fee	-2406
▁tit	-2407
▁wha	-2408
▁educ	-2409
▁pain	-2410
▁rubb	-2411
▁arriv	-2412
▁atten	-2413
▁cheer	-2414
▁offer	-2415
▁napkin	-2416
▁period	-2417
▁explain	-2418
▁communit	-2419
lw	-2420
va	-2421
...	-2422
ino	-2423
ume	-2424
▁ze	-2425
aper	-2426
▁men	-2427
▁henr	-2428
▁shop	-2429
▁apart	-2430
▁click	-2431
▁gland	-2432
▁screw	-2433
▁camera	-2434
▁council	-2435
▁program	-2436
oss	-2437
▁fa	-2438
▁iss	-2439
▁pli	-2440
▁wet	-2441
▁humm	-2442
▁king	-2443
▁peat	-2444
▁beginn	-2445
▁beside	-2446
▁island	-2447
▁origin	-2448
▁welcome	-2449
dr	-2450
yr	-2451
sur	-2452
yle	-2453
▁ja	-2454
,000	-2455
Home	-2456
tend	-2457
wich	-2458
▁aut	-2459
▁lic	-2460
tries	-2461
▁paid	-2462
▁soul	-2463
▁wide	-2464
itique	-2465
▁brave	-2466
▁advent	-2467
▁econom	-2468
▁valent	-2469
▁charact	-2470
▁richard	-2471
bu	-2472
xa	-2473
ber	-2474
▁31	-2475
fish	-2476
laim	-2477
soft	-2478
ssie	-2479
▁fly	-2480
ience	-2481
night	-2482
▁2016	-2483
▁[1.2	-2484
▁gros	-2485
▁ject	-2486
▁jour	-2487
▁nois	-2488
▁whoa	-2489
▁agent	-2490
▁poach	-2491
▁teeth	-2492
▁compet	-2493
▁attempt	-2494
▁perform	-2495
cel	-2496
eng	-2497
ive	-2498
ras	-2499
red	-2500
ric	-2501
▁ng	-2502
ying	-2503
▁mex	-2504
▁mor	-2505
▁net	-2506
▁oop	-2507
atter	-2508
board	-2509
▁flag	-2510
▁gine	-2511
▁race	-2512
▁rust	-2513
icycle	-2514
▁peace	-2515
▁claver	-2516
▁director	-2517
ave	-2518
sid	-2519
bour	-2520
east	-2521
elve	-2522
fath	-2523
ille	-2524
olar	-2525
pend	-2526
▁cis	-2527
▁ris	-2528
arent	-2529
▁bout	-2530
▁cros	-2531
▁mast	-2532
▁neck	-2533
▁sour	-2534
▁trip	-2535
▁type	-2536
ashion	-2537
▁grown	-2538
▁super	-2539
▁whoop	-2540
▁simple	-2541
▁twelve	-2542
▁johnson	-2543
▁administ	-2544
ba	-2545
ja	-2546
su	-2547
min	-2548
uce	-2549
cent	-2550
cept	-2551
inat	-2552
less	-2553
▁mir	-2554
▁2013	-2555
▁choc	-2556
▁elec	-2557
▁glas	-2558
▁horn	-2559
▁spee	-2560
▁level	-2561
▁ought	-2562
▁stage	-2563
looking	-2564
▁affair	-2565
▁doggie	-2566
▁patient	-2567
▁briefcase	-2568
bi	-2569
bin	-2570
gin	-2571
oni	-2572
▁[3.	-2573
▁rat	-2574
▁spo	-2575
▁vit	-2576
▁clar	-2577
▁conn	-2578
▁feat	-2579
▁larg	-2580
▁mult	-2581
▁vice	-2582
▁centr	-2583
▁chain	-2584
▁santa	-2585
▁utter	-2586
▁weren	-2587
▁exclaim	-2588
▁imagine	-2589
▁scholar	-2590
▁difference	-2591
ux	-2592
fit	-2593
omi	-2594
ious	-2595
▁bud	-2596
▁los	-2597
▁tha	-2598
▁tot	-2599
ustom	-2600
▁cred	-2601
▁drug	-2602
▁empt	-2603
▁mach	-2604
▁monst	-2605
▁posit	-2606
▁smell	-2607
▁theat	-2608
▁track	-2609
▁trick	-2610
▁slight	-2611
▁protect	-2612
▁sentence	-2613
▁professor	-2614
▁profession	-2615
lla	-2616
par	-2617
▁(;	-2618
yond	-2619
▁[.6	-2620
▁ash	-2621
▁www	-2622
▁bush	-2623
▁drew	-2624
▁easi	-2625
▁fold	-2626
▁colin	-2627
▁crowd	-2628
▁radio	-2629
▁smart	-2630
▁smile	-2631
▁spoke	-2632
▁stack	-2633
▁beyond	-2634
▁cromer	-2635
▁finger	-2636
▁spread	-2637
▁america	-2638
▁british	-2639
▁example	-2640
▁michael	-2641
,--	-2642
bar	-2643
dra	-2644
ger	-2645
tch	-2646
▁va	-2647
ract	-2648
▁flu	-2649
▁ham	-2650
▁pan	-2651
▁rib	-2652
phant	-2653
pulls	-2654
▁fuss	-2655
▁tong	-2656
▁coura	-2657
▁match	-2658
▁strug	-2659
▁succe	-2660
▁twice	-2661
▁water	-2662
▁critic	-2663
▁fortun	-2664
▁oxford	-2665
▁prince	-2666
▁russian	-2667
19	-2668
sy	-2669
hand	-2670
urda	-2671
▁jap	-2672
▁mud	-2673
▁cogn	-2674
▁forc	-2675
▁nope	-2676
▁nurs	-2677
▁sett	-2678
▁brain	-2679
▁couch	-2680
▁roman	-2681
▁waste	-2682
▁college	-2683
▁saturda	-2684
▁frighten	-2685
olk	-2686
pped	-2687
▁jew	-2688
▁lit	-2689
olute	-2690
▁[1.3	-2691
▁buck	-2692
▁dare	-2693
▁gipp	-2694
▁hood	-2695
▁jesu	-2696
▁movi	-2697
▁plat	-2698
▁texa	-2699
▁coach	-2700
▁extra	-2701
▁fence	-2702
▁shirt	-2703
▁threw	-2704
▁willn	-2705
▁assist	-2706
▁attach	-2707
▁chocol	-2708
▁custom	-2709
▁pictur	-2710
▁popular	-2711
▁somehow	-2712
ustration	-2713
▁valentine	-2714
Ill	-2715
iot	-2716
▁eh	-2717
port	-2718
▁pin	-2719
paper	-2720
utter	-2721
▁bord	-2722
▁cell	-2723
▁gras	-2724
▁mand	-2725
▁spot	-2726
▁vest	-2727
idence	-2728
▁johnn	-2729
▁sport	-2730
▁thoma	-2731
▁arrest	-2732
▁conver	-2733
▁announc	-2734
▁captain	-2735
▁command	-2736
▁goodbye	-2737
▁horseshoe	-2738
Illustration	-2739
OM	-2740
iu	-2741
don	-2742
adow	-2743
▁jur	-2744
▁rab	-2745
black	-2746
▁firm	-2747
▁hadn	-2748
▁host	-2749
▁lose	-2750
▁norm	-2751
▁sail	-2752
▁warn	-2753
magnet	-2754
▁becom	-2755
▁chapt	-2756
▁crawl	-2757
▁forma	-2758
▁guard	-2759
▁partn	-2760
▁slipp	-2761
▁smith	-2762
utionar	-2763
▁albert	-2764
▁charge	-2765
▁dollar	-2766
▁manage	-2767
▁necess	-2768
▁splend	-2769
▁constit	-2770
▁control	-2771
▁upstair	-2772
▁absolute	-2773
▁illustrat	-2774
WOM	-2775
ald	-2776
has	-2777
por	-2778
wat	-2779
yan	-2780
▁civ	-2781
▁dia	-2782
▁gro	-2783
▁lip	-2784
▁rap	-2785
▁usu	-2786
alist	-2787
place	-2788
▁2012	-2789
▁2018	-2790
▁hide	-2791
▁parl	-2792
▁pupp	-2793
▁yard	-2794
▁bring	-2795
▁frida	-2796
▁oppos	-2797
▁prime	-2798
▁spons	-2799
attempt	-2800
▁affect	-2801
▁notice	-2802
▁single	-2803
▁suffer	-2804
▁tongue	-2805
▁elephant	-2806
▁neighbor	-2807
▁pleasant	-2808
eez	-2809
▁cu	-2810
alle	-2811
ampa	-2812
ndon	-2813
sset	-2814
vaud	-2815
▁bug	-2816
▁doz	-2817
▁gag	-2818
uture	-2819
▁2010	-2820
▁bike	-2821
▁braz	-2822
▁coin	-2823
▁luca	-2824
▁pipe	-2825
▁quir	-2826
▁tech	-2827
▁volv	-2828
▁album	-2829
▁besid	-2830
▁broad	-2831
▁cooki	-2832
▁viron	-2833
▁worse	-2834
▁fourth	-2835
▁league	-2836
▁nature	-2837
▁travel	-2838
▁sandwich	-2839
za	-2840
ifi	-2841
▁yo	-2842
gest	-2843
rant	-2844
tern	-2845
▁dan	-2846
▁nar	-2847
▁rul	-2848
issor	-2849
▁agre	-2850
▁cath	-2851
▁diap	-2852
▁item	-2853
▁sigh	-2854
▁wake	-2855
▁winn	-2856
▁yell	-2857
clears	-2858
ingham	-2859
▁accord	-2860
▁effect	-2861
▁empire	-2862
▁rabbit	-2863
▁sevent	-2864
attempts	-2865
▁militar	-2866
▁scissor	-2867
▁stretch	-2868
▁surpris	-2869
▁anywhere	-2870
▁apparent	-2871
▁highchair	-2872
▁[6	-2873
▁ck	-2874
▁ow	-2875
rick	-2876
very	-2877
▁[.9	-2878
▁cas	-2879
▁pen	-2880
anish	-2881
sings	-2882
▁2021	-2883
▁canc	-2884
▁coop	-2885
▁exec	-2886
▁ladi	-2887
▁phot	-2888
▁quit	-2889
▁susp	-2890
▁test	-2891
▁trac	-2892
▁angel	-2893
▁fifte	-2894
▁paper	-2895
▁princ	-2896
▁print	-2897
▁brazil	-2898
▁famili	-2899
▁gippie	-2900
▁handle	-2901
▁london	-2902
AN	-2903
jo	-2904
fic	-2905
off	-2906
▁nt	-2907
boat	-2908
cord	-2909
▁hom	-2910
▁pay	-2911
▁sue	-2912
▁tru	-2913
umble	-2914
▁calm	-2915
▁dill	-2916
▁dunn	-2917
▁fanc	-2918
▁fant	-2919
▁gift	-2920
▁gree	-2921
▁pean	-2922
▁rail	-2923
▁twin	-2924
▁burst	-2925
▁frank	-2926
▁limit	-2927
▁serve	-2928
▁situa	-2929
▁weird	-2930
▁amount	-2931
▁excite	-2932
▁lassie	-2933
▁pillow	-2934
▁switch	-2935
▁terror	-2936
▁grandfath	-2937
▁experience	-2938
5/	-2939
gi	-2940
app	-2941
for	-2942
▁hu	-2943
ense	-2944
iver	-2945
▁emb	-2946
▁gas	-2947
▁imm	-2948
▁log	-2949
▁mic	-2950
▁rug	-2951
▁way	-2952
▁wol	-2953
angle	-2954
▁budd	-2955
▁cele	-2956
▁circ	-2957
▁imme	-2958
▁iron	-2959
▁shin	-2960
▁voic	-2961
▁when	-2962
▁appre	-2963
▁hotel	-2964
▁saint	-2965
▁slide	-2966
▁spent	-2967
▁storm	-2968
▁account	-2969
▁content	-2970
▁courage	-2971
▁product	-2972
▁success	-2973
▁western	-2974
▁washington	-2975
01	-2976
do	-2977
uk	-2978
án	-2979
met	-2980
voc	-2981
▁pi	-2982
mend	-2983
pose	-2984
▁aud	-2985
▁mes	-2986
▁pon	-2987
▁tar	-2988
allow	-2989
stand	-2990
▁2015	-2991
▁ferr	-2992
▁glor	-2993
casset	-2994
▁blank	-2995
▁civil	-2996
▁dough	-2997
▁dunno	-2998
▁shame	-2999
▁spill	-3000
▁trump	-3001
▁promis	-3002
▁victor	-3003
▁ukraine	-3004
▁mocratic	-3005
▁ciscasset	-3006
of	-3007
ark	-3008
ask	-3009
iga	-3010
sar	-3011
▁rh	-3012
esda	-3013
host	-3014
icle	-3015
keep	-3016
leep	-3017
▁alt	-3018
▁jon	-3019
▁sus	-3020
▁dump	-3021
▁note	-3022
▁role	-3023
Mother	-3024
▁carry	-3025
▁notic	-3026
▁power	-3027
▁prair	-3028
▁rustl	-3029
▁state	-3030
▁stock	-3031
▁tight	-3032
vocaliz	-3033
▁accept	-3034
▁artist	-3035
▁butter	-3036
▁fraser	-3037
▁immedi	-3038
▁larita	-3039
▁murder	-3040
▁speech	-3041
▁dillson	-3042
▁fashion	-3043
▁project	-3044
▁somewhere	-3045
▁municipaliti	-3046
.8	-3047
ata	-3048
mor	-3049
omb	-3050
set	-3051
anda	-3052
berg	-3053
inar	-3054
phan	-3055
wash	-3056
▁ale	-3057
▁jer	-3058
▁kar	-3059
▁leo	-3060
▁neg	-3061
▁raf	-3062
▁saf	-3063
▁sup	-3064
▁tip	-3065
itude	-3066
▁cere	-3067
▁hamm	-3068
▁lawy	-3069
▁male	-3070
▁mass	-3071
▁thir	-3072
▁clunk	-3073
▁habit	-3074
▁liver	-3075
▁price	-3076
▁steam	-3077
▁studi	-3078
▁veget	-3079
overlap	-3080
singing	-3081
▁battle	-3082
▁choice	-3083
▁excell	-3084
▁expres	-3085
▁future	-3086
▁holida	-3087
▁lation	-3088
▁peanut	-3089
▁scient	-3090
▁sister	-3091
--------	-3092
laughing	-3093
▁approach	-3094
▁continue	-3095
▁volutionar	-3096
oz	-3097
DAN	-3098
ior	-3099
oom	-3100
mill	-3101
reme	-3102
▁cus	-3103
▁dol	-3104
▁dut	-3105
▁fan	-3106
▁fic	-3107
▁fus	-3108
▁hid	-3109
▁jos	-3110
▁pit	-3111
▁sug	-3112
▁wid	-3113
vious	-3114
▁[1.1	-3115
▁anti	-3116
▁godd	-3117
▁hook	-3118
▁hung	-3119
▁mail	-3120
▁murd	-3121
▁nail	-3122
▁pale	-3123
▁palm	-3124
▁path	-3125
▁sale	-3126
▁skin	-3127
▁cowbo	-3128
▁magaz	-3129
▁mayor	-3130
▁plent	-3131
▁snake	-3132
▁souri	-3133
▁tance	-3134
▁wound	-3135
▁execut	-3136
▁ribbon	-3137
▁taught	-3138
▁upside	-3139
pointing	-3140
▁swallow	-3141
▁province	-3142
vocalization	-3143
col	-3144
isf	-3145
lle	-3146
old	-3147
she	-3148
▁cy	-3149
▁et	-3150
▁div	-3151
▁hug	-3152
▁nic	-3153
▁tal	-3154
irrel	-3155
ymond	-3156
▁aunt	-3157
▁bund	-3158
▁clas	-3159
▁dude	-3160
▁epis	-3161
▁furn	-3162
▁mike	-3163
▁stit	-3164
▁text	-3165
▁tink	-3166
▁brand	-3167
▁furth	-3168
▁liter	-3169
▁river	-3170
▁stant	-3171
▁whist	-3172
erecord	-3173
▁asleep	-3174
▁benefit	-3175
▁collect	-3176
▁connect	-3177
▁machine	-3178
▁organis	-3179
▁raymond	-3180
▁authorit	-3181
overlapped	-3182
.6	-3183
fl	-3184
ga	-3185
yo	-3186
aki	-3187
alt	-3188
can	-3189
ift	-3190
sha	-3191
blin	-3192
cont	-3193
talk	-3194
▁row	-3195
▁urb	-3196
acter	-3197
▁amaz	-3198
▁bitt	-3199
▁bull	-3200
▁laid	-3201
▁phys	-3202
▁poet	-3203
▁champ	-3204
▁crime	-3205
▁divid	-3206
▁marbl	-3207
▁pence	-3208
▁actres	-3209
▁gather	-3210
▁glance	-3211
▁possib	-3212
▁satisf	-3213
▁silent	-3214
▁sponse	-3215
▁anymore	-3216
▁correct	-3217
▁prairie	-3218
▁shouldn	-3219
▁visitor	-3220
▁northern	-3221
▁squirrel	-3222
▁excellent	-3223
bas	-3224
ett	-3225
gla	-3226
udd	-3227
▁ci	-3228
kend	-3229
reat	-3230
▁aha	-3231
▁eth	-3232
▁kis	-3233
▁oil	-3234
▁2005	-3235
▁chug	-3236
▁comb	-3237
▁feed	-3238
▁flor	-3239
▁fond	-3240
▁kiss	-3241
▁pour	-3242
▁pump	-3243
▁salt	-3244
▁china	-3245
▁earli	-3246
▁faint	-3247
▁fault	-3248
▁ghost	-3249
▁grant	-3250
▁happi	-3251
▁labor	-3252
▁weath	-3253
▁branch	-3254
ropriate	-3255
▁creatur	-3256
▁obvious	-3257
▁student	-3258
▁conversa	-3259
▁critique	-3260
▁european	-3261
▁favorite	-3262
▁southern	-3263
▁presentat	-3264
ru	-3265
wk	-3266
end	-3267
gra	-3268
ron	-3269
▁[5	-3270
alie	-3271
erto	-3272
vell	-3273
vere	-3274
▁ell	-3275
▁fer	-3276
▁gim	-3277
▁lig	-3278
▁mal	-3279
▁ven	-3280
iggle	-3281
▁acqu	-3282
▁beck	-3283
▁bert	-3284
▁bolt	-3285
▁conv	-3286
▁dust	-3287
▁grad	-3288
▁kidd	-3289
▁load	-3290
▁pool	-3291
▁stir	-3292
▁tone	-3293
▁whig	-3294
▁whin	-3295
▁charg	-3296
▁forth	-3297
▁gagaa	-3298
▁order	-3299
▁scrib	-3300
▁share	-3301
▁comput	-3302
▁depend	-3303
▁effort	-3304
▁sposta	-3305
▁tomato	-3306
▁whenev	-3307
▁natalie	-3308
▁patrick	-3309
▁protest	-3310
▁weekend	-3311
▁doughnut	-3312
▁evidence	-3313
▁splendid	-3314
▁suitcase	-3315
.3	-3316
.4	-3317
asc	-3318
erc	-3319
mur	-3320
burg	-3321
goes	-3322
ings	-3323
uman	-3324
▁due	-3325
▁shh	-3326
anese	-3327
▁1995	-3328
▁bone	-3329
▁buff	-3330
▁duke	-3331
▁heat	-3332
▁jenn	-3333
▁neat	-3334
▁padd	-3335
▁pari	-3336
▁swim	-3337
▁wing	-3338
▁clude	-3339
▁cruel	-3340
▁direc	-3341
▁guilt	-3342
▁maple	-3343
▁naomi	-3344
▁smoke	-3345
▁spain	-3346
▁spond	-3347
▁apolog	-3348
▁compos	-3349
▁crutch	-3350
▁double	-3351
▁episod	-3352
▁goblin	-3353
▁grampa	-3354
▁mirror	-3355
▁needta	-3356
▁orphan	-3357
▁appreci	-3358
▁magnetic	-3359
ai	-3360
kn	-3361
dam	-3362
eap	-3363
alia	-3364
apon	-3365
cast	-3366
gent	-3367
line	-3368
ream	-3369
ting	-3370
▁eld	-3371
▁por	-3372
▁rag	-3373
asion	-3374
there	-3375
ville	-3376
▁barn	-3377
▁bugg	-3378
▁cart	-3379
▁cree	-3380
▁hasn	-3381
▁lady	-3382
▁lean	-3383
▁mere	-3384
▁pepp	-3385
▁raff	-3386
▁roof	-3387
▁siss	-3388
▁below	-3389
▁booth	-3390
▁brian	-3391
▁class	-3392
▁comma	-3393
▁dread	-3394
▁gular	-3395
▁locat	-3396
▁madam	-3397
▁occup	-3398
▁stepp	-3399
▁taste	-3400
▁trade	-3401
▁turke	-3402
▁worri	-3403
playing	-3404
▁celebr	-3405
▁centre	-3406
▁prison	-3407
▁struct	-3408
▁weapon	-3409
▁organiz	-3410
▁scratch	-3411
▁economic	-3412
▁shoulder	-3413
▁immediate	-3414
▁therefore	-3415
▁taperecord	-3416
ps	-3417
▁|	-3418
cul	-3419
▁lu	-3420
form	-3421
ilar	-3422
ooth	-3423
turn	-3424
▁cha	-3425
▁jol	-3426
▁rol	-3427
▁tie	-3428
▁tig	-3429
actur	-3430
antic	-3431
field	-3432
▁1990	-3433
▁alan	-3434
▁angr	-3435
▁chem	-3436
▁fest	-3437
▁folk	-3438
▁fork	-3439
▁juli	-3440
▁popp	-3441
▁surf	-3442
▁tenn	-3443
▁wipe	-3444
▁austr	-3445
▁behav	-3446
▁claim	-3447
▁educa	-3448
▁stamp	-3449
▁whitt	-3450
▁credit	-3451
▁fourte	-3452
▁martin	-3453
▁airport	-3454
▁blanket	-3455
▁officer	-3456
▁official	-3457
▁somethin	-3458
20	-3459
umn	-3460
uns	-3461
ache	-3462
etch	-3463
last	-3464
lent	-3465
▁ble	-3466
▁bob	-3467
▁cel	-3468
▁shr	-3469
▁typ	-3470
aroni	-3471
ength	-3472
noise	-3473
▁1994	-3474
▁anne	-3475
▁bare	-3476
▁bobb	-3477
▁chip	-3478
▁doin	-3479
▁dumb	-3480
▁earn	-3481
▁expl	-3482
▁pine	-3483
▁tres	-3484
▁bound	-3485
▁brush	-3486
▁cabin	-3487
▁figur	-3488
▁glass	-3489
▁hilda	-3490
▁julie	-3491
▁macle	-3492
▁newsp	-3493
▁occur	-3494
▁secur	-3495
▁swing	-3496
▁terri	-3497
▁toast	-3498
▁valle	-3499
▁centur	-3500
▁danger	-3501
▁length	-3502
▁number	-3503
▁opport	-3504
▁scarce	-3505
▁temper	-3506
▁weight	-3507
▁butterf	-3508
▁gentlem	-3509
▁similar	-3510
▁suggest	-3511
▁handsome	-3512
▁magazine	-3513
▁triangle	-3514
.7	-3515
.9	-3516
ki	-3517
aft	-3518
▁gh	-3519
adem	-3520
ffic	-3521
iana	-3522
▁kat	-3523
▁lor	-3524
▁pun	-3525
▁soc	-3526
▁wav	-3527
▁wil	-3528
cough	-3529
▁1969	-3530
▁arch	-3531
▁boil	-3532
▁exam	-3533
▁huge	-3534
▁meas	-3535
▁peru	-3536
▁suck	-3537
▁volu	-3538
▁cheek	-3539
▁clare	-3540
▁estim	-3541
▁momma	-3542
▁shore	-3543
▁spark	-3544
▁sunda	-3545
▁trail	-3546
▁gentle	-3547
▁eastern	-3548
▁formula	-3549
▁champion	-3550
▁constant	-3551
▁constitu	-3552
▁macaroni	-3553
▁opportun	-3554
▁publican	-3555
▁administra	-3556
AU	-3557
dg	-3558
eg	-3559
zh	-3560
alo	-3561
ass	-3562
bow	-3563
car	-3564
ero	-3565
tha	-3566
▁jr	-3567
▁ug	-3568
gend	-3569
geon	-3570
orse	-3571
whis	-3572
▁afr	-3573
▁bak	-3574
▁jim	-3575
▁pic	-3576
istic	-3577
▁bodi	-3578
▁dais	-3579
▁eras	-3580
▁evil	-3581
▁gram	-3582
▁merg	-3583
▁rule	-3584
▁sock	-3585
▁vast	-3586
▁weak	-3587
contin	-3588
coughs	-3589
▁aside	-3590
▁chuck	-3591
▁eager	-3592
▁feder	-3593
▁gimme	-3594
▁youth	-3595
▁advant	-3596
▁advice	-3597
▁bridge	-3598
▁budget	-3599
▁compar	-3600
▁guitar	-3601
▁julián	-3602
▁physic	-3603
▁polish	-3604
▁smooth	-3605
▁careful	-3606
▁florida	-3607
▁general	-3608
▁macleod	-3609
▁occasion	-3610
▁character	-3611
▁conference	-3612
sm	-3613
uu	-3614
▁)	-3615
PAU	-3616
nor	-3617
oot	-3618
ows	-3619
bell	-3620
iple	-3621
ngth	-3622
tell	-3623
▁din	-3624
▁etc	-3625
▁oce	-3626
annel	-3627
pitch	-3628
sound	-3629
▁gall	-3630
▁issu	-3631
▁kong	-3632
▁seth	-3633
▁soci	-3634
▁thin	-3635
▁trad	-3636
▁accom	-3637
▁conce	-3638
▁crash	-3639
▁frost	-3640
▁grate	-3641
▁grave	-3642
▁judge	-3643
▁lease	-3644
▁memor	-3645
▁scott	-3646
▁settl	-3647
▁swift	-3648
▁thick	-3649
▁academ	-3650
▁colour	-3651
▁fought	-3652
▁mutter	-3653
▁portug	-3654
▁purple	-3655
▁shadow	-3656
▁troubl	-3657
▁feather	-3658
▁theatre	-3659
▁adventur	-3660
▁appropri	-3661
▁secretar	-3662
▁tricycle	-3663
▁companion	-3664
▁scientist	-3665
.2	-3666
yn	-3667
cor	-3668
cut	-3669
ini	-3670
ira	-3671
uat	-3672
▁gn	-3673
iger	-3674
inct	-3675
just	-3676
lymp	-3677
▁bil	-3678
▁coo	-3679
▁gri	-3680
▁nav	-3681
▁nom	-3682
▁pea	-3683
▁tax	-3684
▁voc	-3685
ledge	-3686
▁2007	-3687
▁alph	-3688
▁bend	-3689
▁bunn	-3690
▁crim	-3691
▁ryan	-3692
▁tour	-3693
▁babaa	-3694
▁knife	-3695
▁mommy	-3696
▁ocean	-3697
▁olymp	-3698
▁plane	-3699
▁separ	-3700
▁birdie	-3701
▁narrow	-3702
▁ninete	-3703
▁proces	-3704
▁servic	-3705
▁stream	-3706
▁strike	-3707
▁struck	-3708
▁victim	-3709
▁propert	-3710
▁science	-3711
▁bathroom	-3712
▁vironment	-3713
,2	-3714
af	-3715
har	-3716
nam	-3717
urg	-3718
▁km	-3719
▁mc	-3720
eeze	-3721
elle	-3722
like	-3723
runs	-3724
seng	-3725
sych	-3726
vert	-3727
▁186	-3728
▁190	-3729
▁han	-3730
▁spl	-3731
▁tok	-3732
adian	-3733
ardon	-3734
erson	-3735
▁1986	-3736
▁[1.4	-3737
▁[1.7	-3738
▁appl	-3739
▁bump	-3740
▁choo	-3741
▁cult	-3742
▁ease	-3743
▁elev	-3744
▁grac	-3745
▁hong	-3746
▁mile	-3747
▁nico	-3748
▁pile	-3749
▁rang	-3750
▁tack	-3751
▁worm	-3752
softly	-3753
▁berta	-3754
▁emplo	-3755
▁fairi	-3756
▁joint	-3757
▁loose	-3758
▁minor	-3759
▁mouse	-3760
▁psych	-3761
▁shawn	-3762
▁ssert	-3763
▁tryin	-3764
▁value	-3765
removes	-3766
▁horror	-3767
▁spring	-3768
▁threat	-3769
▁truman	-3770
▁message	-3771
▁villars	-3772
▁children	-3773
▁necessar	-3774
▁tinkerto	-3775
ek	-3776
mi	-3777
nn	-3778
bed	-3779
icl	-3780
jim	-3781
pet	-3782
sen	-3783
ses	-3784
abet	-3785
back	-3786
iece	-3787
ieve	-3788
ling	-3789
olic	-3790
ooge	-3791
▁[5.	-3792
▁bee	-3793
▁buy	-3794
▁lay	-3795
▁mas	-3796
▁ole	-3797
▁rlf	-3798
▁roy	-3799
▁sac	-3800
▁ses	-3801
alect	-3802
iness	-3803
nesda	-3804
while	-3805
▁2002	-3806
▁2006	-3807
▁[1.6	-3808
▁alex	-3809
▁bent	-3810
▁cher	-3811
▁dart	-3812
▁mumm	-3813
▁patt	-3814
▁pend	-3815
▁pole	-3816
▁shak	-3817
▁sugg	-3818
▁woof	-3819
▁wore	-3820
▁comin	-3821
▁louis	-3822
▁onion	-3823
▁safet	-3824
▁sence	-3825
▁shook	-3826
▁journe	-3827
▁otherw	-3828
▁societ	-3829
▁tickle	-3830
▁buffalo	-3831
▁channel	-3832
▁consump	-3833
▁dialect	-3834
▁traffic	-3835
▁canadian	-3836
▁japanese	-3837
▁practice	-3838
▁downstair	-3839
▁laborator	-3840
fa	-3841
ado	-3842
ani	-3843
bac	-3844
cup	-3845
iar	-3846
iat	-3847
irl	-3848
rid	-3849
sel	-3850
acon	-3851
chan	-3852
note	-3853
orth	-3854
sigh	-3855
▁188	-3856
▁ang	-3857
▁ita	-3858
▁kev	-3859
▁kne	-3860
▁pag	-3861
▁ron	-3862
▁roo	-3863
▁vio	-3864
light	-3865
shire	-3866
▁bold	-3867
▁cide	-3868
▁gord	-3869
▁hamb	-3870
▁jose	-3871
▁knee	-3872
▁marr	-3873
▁pier	-3874
▁scot	-3875
▁smok	-3876
▁tipp	-3877
▁trod	-3878
connor	-3879
▁aware	-3880
▁cheap	-3881
▁cloud	-3882
▁drunk	-3883
▁faith	-3884
▁hasta	-3885
▁mumbl	-3886
▁quack	-3887
▁rapid	-3888
▁scene	-3889
▁sourc	-3890
▁stair	-3891
▁techn	-3892
▁worst	-3893
putting	-3894
▁banana	-3895
▁consci	-3896
▁escape	-3897
▁grandm	-3898
▁horsie	-3899
▁imposs	-3900
▁lesson	-3901
▁modern	-3902
▁moment	-3903
▁murmur	-3904
▁settle	-3905
▁shovel	-3906
▁ticket	-3907
▁attract	-3908
▁balance	-3909
▁brownie	-3910
▁contact	-3911
▁carriage	-3912
▁assistant	-3913
appropriate	-3914
EX	-3915
po	-3916
zo	-3917
▁0	-3918
box	-3919
iev	-3920
pre	-3921
▁40	-3922
▁[7	-3923
▁ii	-3924
aroo	-3925
draw	-3926
enth	-3927
ugua	-3928
your	-3929
▁100	-3930
▁191	-3931
▁[.5	-3932
▁ant	-3933
▁cip	-3934
▁erg	-3935
▁fal	-3936
▁ire	-3937
▁obl	-3938
▁odd	-3939
▁pil	-3940
▁sum	-3941
▁wed	-3942
▁woo	-3943
abeth	-3944
esome	-3945
gress	-3946
horse	-3947
inion	-3948
ishop	-3949
uctor	-3950
▁1987	-3951
▁cage	-3952
▁capt	-3953
▁chew	-3954
▁ckon	-3955
▁clau	-3956
▁cock	-3957
▁fitz	-3958
▁fran	-3959
▁kang	-3960
▁lick	-3961
▁magn	-3962
▁math	-3963
▁pian	-3964
▁rout	-3965
▁sens	-3966
▁spok	-3967
▁stan	-3968
▁ston	-3969
▁tent	-3970
brings	-3971
▁comed	-3972
▁dicat	-3973
▁flash	-3974
▁hurri	-3975
▁issue	-3976
▁monda	-3977
▁pause	-3978
▁shake	-3979
▁sheep	-3980
▁soldi	-3981
▁tribe	-3982
▁bertha	-3983
▁breast	-3984
▁candid	-3985
▁conven	-3986
▁elliot	-3987
▁legend	-3988
▁marble	-3989
▁marion	-3990
▁myster	-3991
▁oblast	-3992
▁propos	-3993
▁russia	-3994
▁urugua	-3995
▁bedroom	-3996
▁mexican	-3997
▁olympic	-3998
▁securit	-3999
▁senator	-4000
▁spector	-4001
▁whittak	-4002
▁alphabet	-4003
▁business	-4004
▁platform	-4005
▁somewhat	-4006
▁strength	-4007
▁struggle	-4008
▁vegetabl	-4009
▁wednesda	-4010
▁telephone	-4011
.1	-4012
ex	-4013
ko	-4014
uf	-4015
add	-4016
ago	-4017
cho	-4018
cra	-4019
iel	-4020
ota	-4021
sch	-4022
▁50	-4023
▁av	-4024
issa	-4025
lton	-4026
mitt	-4027
yard	-4028
▁apt	-4029
▁bos	-4030
▁bou	-4031
▁cot	-4032
▁edi	-4033
▁fox	-4034
▁hmm	-4035
▁kel	-4036
▁pac	-4037
▁sew	-4038
▁van	-4039
▁veh	-4040
▁zoo	-4041
ption	-4042
turns	-4043
▁1930	-4044
▁2008	-4045
▁bomb	-4046
▁bree	-4047
▁core	-4048
▁eliz	-4049
▁fasc	-4050
▁gasp	-4051
▁gust	-4052
▁harm	-4053
▁holl	-4054
▁joke	-4055
▁poll	-4056
▁root	-4057
▁stom	-4058
▁thou	-4059
ologic	-4060
▁blame	-4061
▁borah	-4062
▁charm	-4063
▁cough	-4064
▁emerg	-4065
▁exist	-4066
▁feast	-4067
▁marku	-4068
▁range	-4069
▁staff	-4070
▁staur	-4071
▁sword	-4072
▁tough	-4073
▁vious	-4074
▁whisp	-4075
whisper	-4076
▁borrow	-4077
▁corpor	-4078
▁joseph	-4079
▁nurser	-4080
▁picnic	-4081
▁provid	-4082
▁target	-4083
atherine	-4084
▁address	-4085
▁charlie	-4086
▁hamburg	-4087
▁mention	-4088
▁newspap	-4089
▁ourselv	-4090
▁philipp	-4091
▁scrooge	-4092
▁spanish	-4093
▁kangaroo	-4094
▁opposite	-4095
▁adventure	-4096
▁knowledge	-4097
▁everywhere	-4098
▁illustration	-4099
:00	-4100
ano	-4101
awa	-4102
bec	-4103
bra	-4104
cri	-4105
imp	-4106
oll	-4107
ram	-4108
rod	-4109
rot	-4110
thi	-4111
▁(,	-4112
ateg	-4113
bert	-4114
itat	-4115
mbre	-4116
road	-4117
star	-4118
urse	-4119
▁189	-4120
▁ara	-4121
▁bat	-4122
▁bin	-4123
▁git	-4124
▁jok	-4125
▁lee	-4126
▁neb	-4127
▁upp	-4128
▁web	-4129
▁yup	-4130
oudon	-4131
reach	-4132
round	-4133
sighs	-4134
▁1968	-4135
▁1970	-4136
▁1992	-4137
▁2003	-4138
▁2009	-4139
▁[1.8	-4140
▁anno	-4141
▁bean	-4142
▁dash	-4143
▁josh	-4144
▁leaf	-4145
▁mock	-4146
▁nerv	-4147
▁nyon	-4148
▁pray	-4149
▁roar	-4150
▁rupt	-4151
▁woke	-4152
basket	-4153
▁broom	-4154
▁chatt	-4155
▁choke	-4156
▁dutch	-4157
▁fredd	-4158
▁jewel	-4159
▁marsh	-4160
▁shape	-4161
▁umbre	-4162
chuckle	-4163
continu	-4164
ulation	-4165
▁action	-4166
▁attend	-4167
▁favour	-4168
▁imagin	-4169
▁laught	-4170
▁mexico	-4171
▁basical	-4172
▁congrat	-4173
▁surface	-4174
▁suspect	-4175
▁creature	-4176
▁daughter	-4177
▁umbrella	-4178
▁conductor	-4179
▁elizabeth	-4180
▁fireplace	-4181
▁opportunit	-4182
]?	-4183
hu	-4184
pa	-4185
eas	-4186
lah	-4187
low	-4188
ona	-4189
▁ic	-4190
aign	-4191
bble	-4192
ette	-4193
icul	-4194
loud	-4195
rapp	-4196
uten	-4197
▁1.5	-4198
▁dum	-4199
▁gle	-4200
▁mah	-4201
▁mos	-4202
▁sam	-4203
▁tai	-4204
▁why	-4205
found	-4206
ifica	-4207
illar	-4208
inian	-4209
ossom	-4210
truck	-4211
▁asse	-4212
▁baby	-4213
▁chas	-4214
▁clev	-4215
▁dull	-4216
▁heel	-4217
▁kenn	-4218
▁merc	-4219
▁nest	-4220
▁orch	-4221
▁peel	-4222
▁pope	-4223
▁ruin	-4224
▁sert	-4225
▁task	-4226
▁titl	-4227
▁trib	-4228
▁vagn	-4229
giggle	-4230
▁bunch	-4231
▁cater	-4232
▁chase	-4233
▁creas	-4234
▁crown	-4235
▁diana	-4236
▁dustr	-4237
▁exerc	-4238
▁flect	-4239
▁franc	-4240
▁ident	-4241
▁ignor	-4242
▁journ	-4243
▁negat	-4244
▁prote	-4245
▁steph	-4246
▁tense	-4247
▁whipp	-4248
giggles	-4249
▁arrang	-4250
▁boston	-4251
▁client	-4252
▁employ	-4253
▁garage	-4254
▁master	-4255
▁motorc	-4256
▁parlor	-4257
▁severe	-4258
▁bicycle	-4259
▁compani	-4260
▁percent	-4261
▁practic	-4262
▁sponsib	-4263
▁struggl	-4264
▁sharston	-4265
▁staurant	-4266
▁buckingham	-4267
ax	-4268
ij	-4269
tt	-4270
wo	-4271
bre	-4272
see	-4273
▁nk	-4274
▁ol	-4275
amer	-4276
down	-4277
erat	-4278
erce	-4279
etic	-4280
gets	-4281
inkl	-4282
long	-4283
rade	-4284
year	-4285
▁ben	-4286
▁boo	-4287
▁bul	-4288
▁dim	-4289
▁duc	-4290
▁ion	-4291
▁key	-4292
▁kit	-4293
▁rod	-4294
▁sel	-4295
cture	-4296
iliti	-4297
ument	-4298
worth	-4299
▁boom	-4300
▁chri	-4301
▁citi	-4302
▁clin	-4303
▁fern	-4304
▁genu	-4305
▁jimm	-4306
▁risk	-4307
▁slip	-4308
▁sper	-4309
▁tomm	-4310
▁torn	-4311
▁alarm	-4312
▁carol	-4313
▁coast	-4314
▁drove	-4315
▁elton	-4316
▁error	-4317
▁farth	-4318
▁funer	-4319
▁glanc	-4320
▁maria	-4321
▁novel	-4322
▁parti	-4323
▁scrap	-4324
▁sheet	-4325
▁sixte	-4326
▁strip	-4327
▁wrapp	-4328
▁dougla	-4329
▁expens	-4330
▁finite	-4331
▁friger	-4332
▁justin	-4333
▁manner	-4334
▁marvel	-4335
▁matter	-4336
▁parade	-4337
▁poison	-4338
▁sprang	-4339
▁wander	-4340
▁blossom	-4341
▁chicken	-4342
▁countri	-4343
▁passeng	-4344
▁ridicul	-4345
▁stomach	-4346
continues	-4347
▁campaign	-4348
▁catholic	-4349
▁compound	-4350
▁telegram	-4351
▁territor	-4352
▁advantage	-4353
▁christian	-4354
▁louisiana	-4355
▁frigerator	-4356
▁photograph	-4357
▁wastebasket	-4358
30	-4359
ey	-4360
che	-4361
giv	-4362
mbl	-4363
unc	-4364
▁32	-4365
▁bb	-4366
▁ec	-4367
▁lt	-4368
book	-4369
orce	-4370
▁185	-4371
▁dai	-4372
▁hay	-4373
▁ify	-4374
▁kap	-4375
▁kin	-4376
▁plu	-4377
▁ros	-4378
amond	-4379
block	-4380
comes	-4381
cries	-4382
inese	-4383
means	-4384
▁1960	-4385
▁1967	-4386
▁1972	-4387
▁1996	-4388
▁adop	-4389
▁aliz	-4390
▁alli	-4391
▁babi	-4392
▁cash	-4393
▁fere	-4394
▁hind	-4395
▁loui	-4396
▁okay	-4397
▁paus	-4398
▁sect	-4399
▁site	-4400
▁tool	-4401
▁uhoh	-4402
friend	-4403
iction	-4404
▁admir	-4405
▁awful	-4406
▁blast	-4407
▁butch	-4408
▁clown	-4409
▁colon	-4410
▁compl	-4411
▁drawn	-4412
▁erase	-4413
▁georg	-4414
▁impat	-4415
▁micro	-4416
▁model	-4417
▁prove	-4418
▁russo	-4419
▁total	-4420
▁abilit	-4421
▁andrew	-4422
▁barrel	-4423
▁bishop	-4424
▁bundle	-4425
▁choose	-4426
▁edward	-4427
▁farmer	-4428
▁flight	-4429
▁launch	-4430
▁mechan	-4431
▁player	-4432
▁sleigh	-4433
▁velope	-4434
▁holiday	-4435
▁soldier	-4436
▁surance	-4437
▁contract	-4438
▁fascinat	-4439
▁specific	-4440
▁standard	-4441
▁windmill	-4442
▁fortunate	-4443
▁organisation	-4444
-1	-4445
ali	-4446
iez	-4447
irm	-4448
jac	-4449
lar	-4450
lfr	-4451
oto	-4452
owl	-4453
rom	-4454
rov	-4455
usa	-4456
ador	-4457
berr	-4458
gins	-4459
ldow	-4460
serv	-4461
ship	-4462
tape	-4463
whin	-4464
with	-4465
▁***	-4466
▁aid	-4467
▁gor	-4468
▁jel	-4469
▁mam	-4470
▁stu	-4471
▁vac	-4472
▁vil	-4473
actor	-4474
color	-4475
iment	-4476
looks	-4477
stard	-4478
▁2023	-4479
▁aust	-4480
▁aver	-4481
▁clim	-4482
▁fend	-4483
▁flew	-4484
▁furb	-4485
▁lief	-4486
▁limb	-4487
▁meth	-4488
▁mort	-4489
▁ohio	-4490
▁pail	-4491
▁shap	-4492
▁thor	-4493
▁tort	-4494
▁tran	-4495
▁ween	-4496
begins	-4497
▁asham	-4498
▁chamb	-4499
▁chart	-4500
▁crush	-4501
▁escap	-4502
▁japan	-4503
▁kitty	-4504
▁nurse	-4505
▁perch	-4506
▁prior	-4507
▁shawl	-4508
▁tenni	-4509
▁widow	-4510
reaches	-4511
western	-4512
▁columb	-4513
▁cotton	-4514
▁factor	-4515
▁fantas	-4516
▁featur	-4517
▁horrid	-4518
▁polite	-4519
▁rattle	-4520
▁sorrow	-4521
▁stance	-4522
▁volume	-4523
chuckles	-4524
▁bastard	-4525
▁chinese	-4526
▁didldow	-4527
▁fireman	-4528
▁forgott	-4529
▁ireland	-4530
▁ordinar	-4531
▁purpose	-4532
▁electric	-4533
▁historic	-4534
▁firetruck	-4535
▁household	-4536
▁impatient	-4537
▁neighbour	-4538
▁performance	-4539
dp	-4540
ão	-4541
aff	-4542
ins	-4543
ito	-4544
lad	-4545
oir	-4546
oli	-4547
osa	-4548
sec	-4549
two	-4550
ylm	-4551
▁90	-4552
▁iv	-4553
▁ni	-4554
Adam	-4555
ania	-4556
bank	-4557
bile	-4558
blue	-4559
illa	-4560
made	-4561
ocia	-4562
oniz	-4563
ware	-4564
ylum	-4565
zhou	-4566
▁ali	-4567
▁bid	-4568
▁cad	-4569
▁dig	-4570
▁dry	-4571
▁ide	-4572
▁lax	-4573
▁laz	-4574
▁lob	-4575
▁map	-4576
▁naz	-4577
▁owl	-4578
▁pok	-4579
▁raz	-4580
▁	-4581
e	-4582
t	-4583
o	-4584
a	-4585
i	-4586
n	-4587
s	-4588
h	-4589
r	-4590
l	-4591
d	-4592
u	-4593
y	-4594
m	-4595
w	-4596
c	-4597
g	-4598
f	-4599
p	-4600
b	-4601
*	-4602
:	-4603
k	-4604
v	-4605
'	-4606
I	-4607
C	-4608
H	-4609
T	-4610
O	-4611
M	-4612
-	-4613
[	-4614
x	-4615
=	-4616
j	-4617
1	-4618
2	-4619
.	-4620
0	-4621
A	-4622
F	-4623
9	-4624
z	-4625
S	-4626
R	-4627
’	-4628
q	-4629
,	-4630
]	-4631
5	-4632
3	-4633
8	-4634
7	-4635
4	-4636
N	-4637
6	-4638
V	-4639
U	-4640
B	-4641
L	-4642
/	-4643
?	-4644
♪	-4645
!	-4646
—	-4647
_	-4648
é	-4649
–	-4650
;	-4651
"	-4652
(	-4653
D	-4654
á	-4655
)	-4656
E	-4657
#	-4658
P	-4659
W	-4660
è	-4661
í	-4662
|	-4663
&	-4664
X	-4665
G	-4666
$	-4667
ó	-4668
+	-4669
ã	-4670
ä	-4671
č	-4672
}	-4673
­	-4674
š	-4675
ü	-4676
ć	-4677
¶	-4678
à	-4679
ö	-4680
K	-4681
ú	-4682
ç	-4683
ñ	-4684
â	-4685
î	-4686
@	-4687
`	-4688
¡	-4689
æ	-4690
ê	-4691
ô	-4692
”	-4693
Y	-4694
ë	-4695
ś	-4696
ß	-4697
ğ	-4698
ø	-4699
°	-4700
ł	-4701
ū	-4702
ž	-4703
Q	-4704
å	-4705
ò	-4706
ė	-4707
ě	-4708
ʊ	-4709
{	-4710
~	-4711
×	-4712
ï	-4713
ù	-4714
œ	-4715
ŭ	-4716
ɐ	-4717
ˈ	-4718
J	-4719
Z	-4720
\	-4721
£	-4722
÷	-4723
û	-4724
ý	-4725
ā	-4726
ą	-4727
đ	-4728
ı	-4729
ň	-4730
ō	-4731
ř	-4732
ş	-4733
ș	-4734
ɫ	-4735
ʋ	-4736
†	-4737
∂	-4738
