[PAD]	0
[CLS]	0
[SEP]	0
[UNK]	0
[MASK]	0
<0x00>	0
<0x01>	0
<0x02>	0
<0x03>	0
<0x04>	0
<0x05>	0
<0x06>	0
<0x07>	0
<0x08>	0
<0x09>	0
<0x0A>	0
<0x0B>	0
<0x0C>	0
<0x0D>	0
<0x0E>	0
<0x0F>	0
<0x10>	0
<0x11>	0
<0x12>	0
<0x13>	0
<0x14>	0
<0x15>	0
<0x16>	0
<0x17>	0
<0x18>	0
<0x19>	0
<0x1A>	0
<0x1B>	0
<0x1C>	0
<0x1D>	0
<0x1E>	0
<0x1F>	0
<0x20>	0
<0x21>	0
<0x22>	0
<0x23>	0
<0x24>	0
<0x25>	0
<0x26>	0
<0x27>	0
<0x28>	0
<0x29>	0
<0x2A>	0
<0x2B>	0
<0x2C>	0
<0x2D>	0
<0x2E>	0
<0x2F>	0
<0x30>	0
<0x31>	0
<0x32>	0
<0x33>	0
<0x34>	0
<0x35>	0
<0x36>	0
<0x37>	0
<0x38>	0
<0x39>	0
<0x3A>	0
<0x3B>	0
<0x3C>	0
<0x3D>	0
<0x3E>	0
<0x3F>	0
<0x40>	0
<0x41>	0
<0x42>	0
<0x43>	0
<0x44>	0
<0x45>	0
<0x46>	0
<0x47>	0
<0x48>	0
<0x49>	0
<0x4A>	0
<0x4B>	0
<0x4C>	0
<0x4D>	0
<0x4E>	0
<0x4F>	0
<0x50>	0
<0x51>	0
<0x52>	0
<0x53>	0
<0x54>	0
<0x55>	0
<0x56>	0
<0x57>	0
<0x58>	0
<0x59>	0
<0x5A>	0
<0x5B>	0
<0x5C>	0
<0x5D>	0
<0x5E>	0
<0x5F>	0
<0x60>	0
<0x61>	0
<0x62>	0
<0x63>	0
<0x64>	0
<0x65>	0
<0x66>	0
<0x67>	0
<0x68>	0
<0x69>	0
<0x6A>	0
<0x6B>	0
<0x6C>	0
<0x6D>	0
<0x6E>	0
<0x6F>	0
<0x70>	0
<0x71>	0
<0x72>	0
<0x73>	0
<0x74>	0
<0x75>	0
<0x76>	0
<0x77>	0
<0x78>	0
<0x79>	0
<0x7A>	0
<0x7B>	0
<0x7C>	0
<0x7D>	0
<0x7E>	0
<0x7F>	0
<0x80>	0
<0x81>	0
<0x82>	0
<0x83>	0
<0x84>	0
<0x85>	0
<0x86>	0
<0x87>	0
<0x88>	0
<0x89>	0
<0x8A>	0
<0x8B>	0
<0x8C>	0
<0x8D>	0
<0x8E>	0
<0x8F>	0
<0x90>	0
<0x91>	0
<0x92>	0
<0x93>	0
<0x94>	0
<0x95>	0
<0x96>	0
<0x97>	0
<0x98>	0
<0x99>	0
<0x9A>	0
<0x9B>	0
<0x9C>	0
<0x9D>	0
<0x9E>	0
<0x9F>	0
<0xA0>	0
<0xA1>	0
<0xA2>	0
<0xA3>	0
<0xA4>	0
<0xA5>	0
<0xA6>	0
<0xA7>	0
<0xA8>	0
<0xA9>	0
<0xAA>	0
<0xAB>	0
<0xAC>	0
<0xAD>	0
<0xAE>	0
<0xAF>	0
<0xB0>	0
<0xB1>	0
<0xB2>	0
<0xB3>	0
<0xB4>	0
<0xB5>	0
<0xB6>	0
<0xB7>	0
<0xB8>	0
<0xB9>	0
<0xBA>	0
<0xBB>	0
<0xBC>	0
<0xBD>	0
<0xBE>	0
<0xBF>	0
<0xC0>	0
<0xC1>	0
<0xC2>	0
<0xC3>	0
<0xC4>	0
<0xC5>	0
<0xC6>	0
<0xC7>	0
<0xC8>	0
<0xC9>	0
<0xCA>	0
<0xCB>	0
<0xCC>	0
<0xCD>	0
<0xCE>	0
<0xCF>	0
<0xD0>	0
<0xD1>	0
<0xD2>	0
<0xD3>	0
<0xD4>	0
<0xD5>	0
<0xD6>	0
<0xD7>	0
<0xD8>	0
<0xD9>	0
<0xDA>	0
<0xDB>	0
<0xDC>	0
<0xDD>	0
<0xDE>	0
<0xDF>	0
<0xE0>	0
<0xE1>	0
<0xE2>	0
<0xE3>	0
<0xE4>	0
<0xE5>	0
<0xE6>	0
<0xE7>	0
<0xE8>	0
<0xE9>	0
<0xEA>	0
<0xEB>	0
<0xEC>	0
<0xED>	0
<0xEE>	0
<0xEF>	0
<0xF0>	0
<0xF1>	0
<0xF2>	0
<0xF3>	0
<0xF4>	0
<0xF5>	0
<0xF6>	0
<0xF7>	0
<0xF8>	0
<0xF9>	0
<0xFA>	0
<0xFB>	0
<0xFC>	0
<0xFD>	0
<0xFE>	0
<0xFF>	0
.	-2.82957
:	-3.28939
▁*	-3.35558
,	-3.43123
▁the	-3.65535
'	-3.79966
s	-4.07514
CHI	-4.07685
▁a	-4.23416
▁I	-4.25715
?	-4.27532
▁to	-4.29814
▁and	-4.31433
▁you	-4.31659
▁of	-4.4705
MOT	-4.47352
▁it	-4.63689
▁in	-4.69835
▁that	-4.84788
▁=	-4.95467
▁[	-4.9549
]	-4.97931
t	-5.03022
▁is	-5.104
▁was	-5.15793
▁on	-5.30267
▁he	-5.41354
▁for	-5.47764
▁-	-5.51591
▁"	-5.52349
▁what	-5.53338
-	-5.55268
!	-5.59234
▁with	-5.63665
▁have	-5.75501
▁	-5.76449
▁not	-5.80467
▁do	-5.86708
▁they	-5.86866
▁be	-5.89828
▁me	-5.90504
▁this	-5.95008
▁one	-5.95973
▁his	-5.97284
▁we	-5.99423
▁no	-6.0087
▁can	-6.01263
’	-6.01355
▁at	-6.01697
FAT	-6.02919
▁her	-6.03057
▁had	-6.08528
re	-6.08684
▁up	-6.08779
▁know	-6.09802
▁there	-6.09914
▁as	-6.10361
▁are	-6.10862
▁your	-6.11038
m	-6.11278
▁she	-6.11468
▁don	-6.1244
ing	-6.12633
▁all	-6.13414
;	-6.13797
...	-6.14462
▁like	-6.15008
▁my	-6.15339
ed	-6.16251
▁The	-6.16847
▁from	-6.23975
▁but	-6.25092
▁so	-6.25109
▁an	-6.29683
▁'	-6.29734
▁out	-6.32712
▁him	-6.33011
▁It	-6.33715
▁said	-6.35662
▁He	-6.36803
▁You	-6.3961
▁get	-6.40482
d	-6.42
▁were	-6.42942
▁them	-6.43611
▁go	-6.44895
ll	-6.46131
▁sec	-6.47252
▁just	-6.48144
▁about	-6.4909
▁here	-6.52351
▁some	-6.52362
▁A	-6.52705
▁see	-6.54404
▁by	-6.57372
▁would	-6.57565
▁xxx	-6.58528
▁or	-6.58764
▁put	-6.61016
▁if	-6.63858
▁did	-6.65617
▁when	-6.67444
▁want	-6.69113
▁right	-6.70078
▁little	-6.7026
▁think	-6.72075
▁who	-6.73226
▁oh	-6.7393
▁now	-6.75726
▁where	-6.8041
▁very	-6.80735
▁got	-6.80807
▁how	-6.82998
▁back	-6.84399
▁good	-6.84782
▁“	-6.85328
▁over	-6.8561
▁What	-6.8725
▁down	-6.87477
▁then	-6.8773
▁And	-6.88349
▁going	-6.88489
▁could	-6.88718
▁time	-6.88777
INV	-6.8912
▁more	-6.89197
▁will	-6.90505
▁man	-6.91091
ve	-6.95738
URS	-6.96179
I	-6.96346
▁come	-6.97064
▁been	-6.9726
▁their	-6.9738
,"	-6.97901
▁two	-6.99273
▁other	-6.99762
▁yeah	-7.0127
▁which	-7.01587
."	-7.01876
▁off	-7.03205
"	-7.04918
▁say	-7.05537
▁B	-7.06425
▁(	-7.0722
▁No	-7.07437
▁has	-7.0891
▁well	-7.10366
].	-7.1104
▁gonna	-7.12809
▁make	-7.1317
▁too	-7.13518
▁She	-7.14428
▁take	-7.15272
▁okay	-7.1565
▁%	-7.16929
▁yes	-7.17219
▁into	-7.18441
▁silver	-7.18588
▁look	-7.18975
▁people	-7.1987
BRO	-7.20059
▁We	-7.21175
▁boy	-7.2123
▁Oh	-7.22409
y	-7.2311
▁But	-7.2331
▁way	-7.23387
▁They	-7.23537
▁base	-7.2497
▁let	-7.29696
ly	-7.30486
▁why	-7.32982
▁any	-7.3319
▁Yeah	-7.34812
▁tell	-7.35587
▁That	-7.35695
COL	-7.36727
▁Mommy	-7.39717
▁black	-7.39853
▁much	-7.42148
e	-7.43002
▁dat	-7.43618
▁something	-7.45246
▁us	-7.45341
▁never	-7.46093
▁first	-7.47073
▁S	-7.47182
▁Well	-7.4723
▁because	-7.50145
▁only	-7.51835
laughs	-7.52871
n	-7.53695
▁after	-7.54876
▁de	-7.55399
▁made	-7.55825
▁didn	-7.5676
?"	-7.56789
▁these	-7.57221
a	-7.57876
S	-7.59319
▁away	-7.59891
▁Chi	-7.60177
▁another	-7.60422
▁give	-7.60763
▁i	-7.61022
)	-7.61277
▁need	-7.61529
▁In	-7.61932
▁boys	-7.6228
▁than	-7.62475
▁again	-7.6279
▁So	-7.62911
▁mean	-7.63326
▁came	-7.63582
▁before	-7.63634
▁day	-7.63748
▁things	-7.65347
▁old	-7.65665
▁write	-7.65795
▁long	-7.66132
--	-7.67476
▁really	-7.68571
▁There	-7.69014
▁t	-7.69668
▁Adam	-7.70305
▁home	-7.70456
▁thing	-7.71016
▁men	-7.7128
▁big	-7.7133
▁doing	-7.71728
▁wanna	-7.72433
▁This	-7.72608
▁should	-7.72644
▁dis	-7.73476
▁great	-7.7379
▁those	-7.74033
▁d	-7.74468
▁Yes	-7.75291
▁thought	-7.75432
▁went	-7.7599
▁wand	-7.76647
int	-7.78507
▁stick	-7.79324
er	-7.79659
▁uh	-7.80181
▁Eve	-7.80635
▁three	-7.81047
▁work	-7.81324
▁does	-7.8151
▁play	-7.81898
add	-7.82589
▁house	-7.837
▁name	-7.83987
▁our	-7.85853
▁help	-7.85903
▁many	-7.86738
▁top	-7.87007
SIS	-7.87218
▁father	-7.87391
”	-7.88068
▁always	-7.89327
▁kind	-7.89609
▁through	-7.89885
▁water	-7.91376
▁must	-7.91528
▁keep	-7.92478
!"	-7.9252
▁head	-7.92848
▁girl	-7.92951
▁love	-7.93572
▁yellow	-7.9399
▁mother	-7.94063
▁anything	-7.94177
▁around	-7.94812
▁paper	-7.95105
▁o	-7.95261
▁new	-7.95456
▁even	-7.95873
▁eat	-7.96504
▁place	-7.96827
/	-7.9744
▁last	-7.97566
▁dog	-7.98586
▁How	-7.98597
▁please	-7.99027
▁also	-7.99823
▁won	-8.00439
▁am	-8.00936
▁most	-8.01255
▁ball	-8.01941
▁alright	-8.02342
▁might	-8.02344
▁find	-8.02353
▁Mr	-8.02841
▁such	-8.03425
▁♪	-8.04068
▁still	-8.0561
▁night	-8.06382
▁THE	-8.06702
▁hand	-8.06799
▁Paul	-8.07988
▁s	-8.08382
▁better	-8.08751
al	-8.0908
▁part	-8.09221
▁use	-8.09329
▁talk	-8.09396
▁If	-8.0942
▁turn	-8.09625
▁else	-8.09661
▁silence	-8.09681
▁under	-8.10532
▁doesn	-8.11131
▁nice	-8.11439
▁wait	-8.11821
▁while	-8.11992
▁table	-8.12003
▁’	-8.12349
▁D	-8.1251
▁try	-8.14398
▁done	-8.14651
▁found	-8.15111
▁sure	-8.15291
—	-8.15383
▁own	-8.15913
▁school	-8.16364
▁children	-8.17314
▁saw	-8.17328
▁told	-8.1783
▁!	-8.18201
▁ever	-8.20281
▁enough	-8.20348
▁thank	-8.20471
▁called	-8.20503
▁hard	-8.20541
▁being	-8.2093
▁read	-8.21016
▁same	-8.21376
▁together	-8.21399
▁Fraser	-8.21638
▁next	-8.21638
▁baby	-8.21644
▁years	-8.22237
1:	-8.22337
▁r	-8.22643
▁watch	-8.22729
▁Mom	-8.22754
▁family	-8.23727
▁Now	-8.23762
▁Why	-8.23774
▁feel	-8.23944
▁every	-8.24329
o	-8.24432
▁used	-8.25166
▁Do	-8.26496
The	-8.26525
▁e	-8.2687
▁dear	-8.26875
▁side	-8.26952
▁life	-8.27511
▁may	-8.27784
▁book	-8.28047
▁asked	-8.28263
▁magnet	-8.28556
▁Come	-8.28925
▁Okay	-8.29184
silver	-8.29657
▁best	-8.29662
▁face	-8.29799
▁ask	-8.30504
▁took	-8.30652
▁car	-8.30805
▁sit	-8.30852
▁money	-8.31721
es	-8.3193
▁hear	-8.32683
▁end	-8.32833
▁heard	-8.33355
▁four	-8.33449
▁morning	-8.34043
▁C	-8.34324
▁My	-8.34429
▁letter	-8.34738
▁course	-8.34933
▁Mrs	-8.35466
the	-8.35826
▁Unit	-8.36149
▁lot	-8.3635
▁known	-8.3637
▁?	-8.36457
▁left	-8.36722
▁though	-8.3728
▁“‘	-8.37933
▁guess	-8.38416
▁world	-8.38548
▁bed	-8.38619
▁Guy	-8.39172
▁Cromer	-8.40096
▁American	-8.40138
▁room	-8.40355
▁show	-8.40395
▁talking	-8.40405
▁Then	-8.41324
▁Jane	-8.41355
▁game	-8.4158
▁few	-8.41668
▁nothing	-8.4168
▁quite	-8.4168
Possum	-8.41984
▁knew	-8.42302
▁until	-8.42303
▁bit	-8.4242
▁1	-8.42898
–	-8.42932
▁sorry	-8.4295
▁open	-8.43176
▁Daddy	-8.43265
▁child	-8.43277
▁leave	-8.44181
▁coming	-8.44266
▁hm	-8.44361
▁Don	-8.44948
▁huh	-8.4512
▁each	-8.45547
▁door	-8.45626
▁call	-8.463
▁isn	-8.46501
Tilda	-8.4687
▁pretty	-8.46872
▁everything	-8.46874
▁seen	-8.47259
▁l	-8.47277
▁getting	-8.47336
▁young	-8.4803
▁small	-8.48518
▁When	-8.48598
▁died	-8.48648
▁soon	-8.48664
▁round	-8.4892
r	-8.49141
▁between	-8.49235
▁wanted	-8.49447
▁E	-8.49852
▁‘	-8.49921
▁city	-8.49928
▁without	-8.50331
▁States	-8.50396
You	-8.5058
▁himself	-8.5062
▁All	-8.51217
▁stay	-8.52007
▁God	-8.52116
▁pencil	-8.52453
▁stop	-8.52461
▁upon	-8.52555
▁eyes	-8.52873
▁n	-8.53122
▁Uh	-8.53431
▁looking	-8.53993
▁story	-8.54146
▁once	-8.54235
▁far	-8.54713
▁hafta	-8.55223
▁high	-8.5547
▁drink	-8.55513
▁red	-8.55605
▁says	-8.55788
▁erm	-8.56128
▁Right	-8.56694
▁fish	-8.56981
▁age	-8.572
in	-8.57213
.”	-8.57293
▁half	-8.57427
▁today	-8.57468
▁born	-8.5765
▁mind	-8.58152
▁municipality	-8.5817
▁having	-8.58171
▁October	-8.58179
▁M	-8.58377
▁different	-8.58474
▁tape	-8.58857
▁Kitty	-8.58922
and	-8.59225
▁mhm	-8.59298
▁maybe	-8.5931
▁T	-8.59521
▁On	-8.59939
▁yet	-8.60264
▁coffee	-8.60439
em	-8.60548
▁minute	-8.61063
▁goes	-8.61106
put	-8.61353
▁light	-8.61354
▁care	-8.61404
▁Thank	-8.61493
▁year	-8.615
▁start	-8.61877
▁believe	-8.62109
▁piece	-8.62265
▁gave	-8.62399
▁happened	-8.62472
▁um	-8.62893
▁question	-8.62992
▁un	-8.63021
▁second	-8.63046
▁fine	-8.63073
▁gone	-8.63193
▁[1	-8.63256
▁P	-8.63469
▁almost	-8.63607
▁hot	-8.63659
RIC	-8.63943
▁ready	-8.64056
▁move	-8.65251
▁real	-8.65398
▁run	-8.65614
▁Tom	-8.65705
▁saying	-8.65782
▁Just	-8.65867
▁word	-8.65896
▁Are	-8.65957
▁looked	-8.66023
▁f	-8.66029
▁brother	-8.66293
▁actually	-8.6677
▁blue	-8.6679
▁near	-8.67036
se	-8.6711
▁woman	-8.6717
▁making	-8.67187
▁yep	-8.67572
ton	-8.68119
▁Hey	-8.68313
▁both	-8.68353
▁heart	-8.69117
▁fire	-8.69484
▁bad	-8.69552
▁New	-8.69629
▁milk	-8.69639
▁remember	-8.69641
▁five	-8.69648
▁voice	-8.69896
▁whole	-8.70156
▁set	-8.70255
▁along	-8.70286
th	-8.71018
▁its	-8.71353
▁dere	-8.72084
▁against	-8.72248
▁Can	-8.72826
▁began	-8.7306
▁Ursula	-8.73062
▁France	-8.73394
▁tree	-8.73582
▁white	-8.7393
▁hope	-8.73959
▁Let	-8.74082
▁Your	-8.74227
▁chair	-8.74457
▁means	-8.75125
▁line	-8.75304
▁box	-8.75656
▁Bro	-8.75777
▁For	-8.75791
▁days	-8.7592
▁His	-8.76191
▁truck	-8.76714
▁goin	-8.76797
▁hey	-8.76885
▁2019	-8.77055
▁feet	-8.7706
▁Where	-8.77086
▁town	-8.77214
▁John	-8.77214
he	-8.77286
_	-8.77371
▁Mot	-8.78093
▁c	-8.78203
▁hi	-8.78234
▁bring	-8.78702
ting	-8.78804
▁later	-8.78891
▁er	-8.79221
Oh	-8.79434
▁hands	-8.79547
▁already	-8.79785
▁lady	-8.79802
it	-8.79936
▁air	-8.80081
▁objects	-8.80133
▁wouldn	-8.80305
▁floor	-8.80439
▁Look	-8.80946
▁Switzerland	-8.81187
▁shall	-8.81193
And	-8.81325
▁playing	-8.81361
▁b	-8.81516
▁district	-8.81659
▁cut	-8.81761
on	-8.82032
▁juice	-8.82147
you	-8.82378
▁re	-8.8245
▁live	-8.82489
▁felt	-8.82609
▁sometimes	-8.82737
▁party	-8.82775
▁Aileen	-8.83094
▁trying	-8.83531
▁Sarah	-8.83571
▁understand	-8.83587
▁wrong	-8.84056
▁food	-8.84058
A	-8.84188
▁...	-8.84516
cause	-8.84867
an	-8.84991
D	-8.85186
▁often	-8.8548
▁YOU	-8.85495
▁fall	-8.8558
▁son	-8.85672
▁Not	-8.85937
▁J	-8.86177
▁spell	-8.86432
▁ten	-8.86478
▁idea	-8.86709
▁turned	-8.87454
▁sort	-8.87834
▁pick	-8.87935
▁happy	-8.88009
▁mom	-8.88024
▁September	-8.88525
▁hold	-8.88569
▁wan	-8.88599
▁friend	-8.88787
▁color	-8.89372
▁mine	-8.89399
▁fun	-8.89403
2:	-8.89899
▁close	-8.89951
▁till	-8.89998
▁circle	-8.90408
▁O	-8.90456
▁Vaud	-8.90659
▁lived	-8.90739
▁sound	-8.90782
no	-8.90961
▁probably	-8.91086
▁stand	-8.91233
▁dey	-8.91372
▁cup	-8.91468
▁since	-8.91602
".	-8.91855
▁fell	-8.91875
▁death	-8.91994
▁herself	-8.92136
i	-8.92184
▁seemed	-8.92244
▁Did	-8.92475
▁lunch	-8.92643
▁kitchen	-8.92644
▁ain	-8.927
▁break	-8.9338
▁hurt	-8.93394
▁girls	-8.935
▁point	-8.93512
▁cold	-8.93719
picks	-8.93871
▁moment	-8.94171
▁ice	-8.94266
▁department	-8.94777
▁mouth	-8.94788
▁someone	-8.9487
▁behind	-8.95326
Well	-8.95614
▁outside	-8.957
▁brought	-8.95861
T	-8.9592
▁Who	-8.96177
▁Go	-8.9629
▁Good	-8.96458
▁number	-8.96693
▁person	-8.96716
est	-8.96787
le	-8.97416
▁fact	-8.97451
▁job	-8.98048
▁daddy	-8.98065
▁commune	-8.98074
▁m	-8.98233
▁full	-8.98567
▁front	-8.98602
▁George	-8.98624
But	-8.98827
▁beautiful	-8.99122
▁large	-8.99189
▁looks	-8.99194
▁July	-8.99211
▁makes	-8.99213
▁yourself	-8.99213
▁Mother	-8.99299
▁six	-8.99747
▁lost	-8.99758
▁toward	-8.99909
It	-9.00114
▁rest	-9.00135
▁F	-9.00145
▁wasn	-9.00681
▁movie	-9.00936
▁gotta	-9.0096
▁boat	-9.00961
▁One	-9.01036
▁poor	-9.014
▁sleep	-9.01739
▁hit	-9.02036
▁noise	-9.02164
▁pull	-9.02559
▁across	-9.02663
▁toy	-9.02667
▁guy	-9.02705
▁country	-9.03207
▁At	-9.03737
born	-9.04015
▁construction	-9.04425
▁matter	-9.05082
▁haven	-9.05314
▁p	-9.05398
▁sir	-9.06011
▁To	-9.06203
▁words	-9.06284
▁throw	-9.06605
▁y	-9.06673
▁Mm	-9.06918
▁true	-9.07412
▁times	-9.07488
▁friends	-9.07588
en	-9.07973
▁hair	-9.08012
▁funny	-9.08017
▁G	-9.08494
▁County	-9.08634
▁week	-9.08842
▁comes	-9.08849
▁started	-9.0896
▁[2	-9.09278
",	-9.09314
▁tried	-9.09889
▁member	-9.10104
▁As	-9.10304
▁guys	-9.10438
▁state	-9.1109
▁bear	-9.11128
▁Garth	-9.11146
▁walk	-9.11554
▁couldn	-9.11663
▁nut	-9.1223
▁ran	-9.12904
▁speak	-9.13033
▁perhaps	-9.13084
▁foot	-9.13086
▁May	-9.13091
▁U	-9.13535
▁became	-9.13718
▁Get	-9.1384
▁ago	-9.14145
▁able	-9.14165
▁become	-9.14218
▁afraid	-9.1437
▁kept	-9.14382
▁change	-9.14477
▁short	-9.14918
▁stuck	-9.15023
▁sugar	-9.15026
▁2	-9.15094
▁2019)	-9.15117
▁played	-9.15136
▁given	-9.15285
What	-9.15331
▁cool	-9.15574
▁AND	-9.15696
▁dead	-9.15706
▁sounds	-9.15895
▁train	-9.16234
▁meet	-9.16281
▁eight	-9.16965
takes	-9.17272
Chi	-9.17358
▁Of	-9.17575
huh	-9.17906
▁airplane	-9.18033
▁case	-9.18051
▁buy	-9.18086
▁running	-9.18396
▁January	-9.18402
▁nine	-9.18405
▁among	-9.18458
l	-9.18472
la	-9.18751
.7	-9.19022
▁myself	-9.19083
▁alone	-9.19759
▁3	-9.19785
▁area	-9.19919
▁page	-9.20168
▁green	-9.20461
▁somebody	-9.20462
▁After	-9.20484
▁minutes	-9.20715
Yes	-9.20805
▁R	-9.2084
▁deal	-9.20952
▁trunk	-9.21151
▁Papa	-9.21154
▁taking	-9.21193
▁inside	-9.21298
▁wish	-9.21622
▁sitting	-9.21899
▁music	-9.21943
▁dur	-9.21974
▁pay	-9.22268
▁war	-9.22273
▁sticks	-9.22482
▁ahead	-9.22724
▁snow	-9.23219
▁business	-9.2325
▁lay	-9.23277
▁April	-9.23304
▁broken	-9.23331
us	-9.23475
▁east	-9.23504
▁careful	-9.23936
▁either	-9.24001
▁Doubs	-9.24001
▁writing	-9.24055
▁taken	-9.24448
▁4	-9.24465
▁2020	-9.24571
▁politician	-9.24723
▁wife	-9.24736
▁King	-9.24825
▁h	-9.25268
▁body	-9.25476
▁wants	-9.2562
▁trouble	-9.25817
▁daughter	-9.25943
▁kill	-9.26101
▁straight	-9.26808
▁rather	-9.26929
▁early	-9.26971
NA	-9.27114
▁Ah	-9.2726
▁draw	-9.27288
▁ride	-9.27418
▁wagon	-9.27481
▁stuff	-9.27655
▁twenty	-9.27671
▁Or	-9.27822
tries	-9.27937
▁send	-9.28211
SS	-9.28305
▁glad	-9.28342
▁balls	-9.28343
▁Because	-9.28457
▁worked	-9.28558
▁ring	-9.28694
▁clear	-9.28865
ion	-9.28878
cha	-9.29189
▁Maybe	-9.29207
▁finished	-9.29358
▁soft	-9.29392
▁bag	-9.29495
▁picture	-9.29647
▁stood	-9.29944
▁Florence	-9.29944
▁working	-9.3015
▁Christmas	-9.30731
▁Have	-9.30758
,’	-9.30768
but	-9.30807
▁sent	-9.30818
▁happen	-9.30938
▁tomorrow	-9.31072
▁street	-9.31346
is	-9.31487
▁Harwood	-9.31489
▁easy	-9.31492
▁Kansas	-9.31566
▁river	-9.32112
▁hour	-9.32156
▁tired	-9.32308
We	-9.32637
de	-9.3268
▁Here	-9.32899
▁eating	-9.33119
▁thinking	-9.33564
▁nose	-9.33659
▁population	-9.33686
▁ah	-9.34424
▁H	-9.34523
▁themselves	-9.34651
▁several	-9.34658
▁butter	-9.34704
Franc	-9.34844
man	-9.35289
▁strong	-9.35323
▁Boy	-9.35349
▁spoon	-9.35358
C	-9.35416
▁stool	-9.35457
▁living	-9.35457
ogne	-9.35458
▁Bourg	-9.35458
▁whether	-9.35459
▁With	-9.3549
2	-9.35574
▁knock	-9.35692
▁touch	-9.35935
▁reason	-9.35939
▁Hi	-9.3601
▁TO	-9.36045
▁7	-9.36193
▁OF	-9.36272
▁President	-9.36275
▁passed	-9.36378
▁Her	-9.36387
▁road	-9.36573
able	-9.36812
▁L	-9.36889
Comté	-9.3709
▁cheese	-9.37091
▁seems	-9.3711
▁pieces	-9.37354
▁jump	-9.37419
▁push	-9.37547
▁tonight	-9.37659
or	-9.37736
▁trees	-9.37847
▁University	-9.37916
▁Peter	-9.3794
to	-9.37941
▁Please	-9.37941
▁past	-9.38006
▁Ma	-9.38154
▁miss	-9.3844
▁feeling	-9.3854
▁aren	-9.38546
▁wear	-9.38568
▁window	-9.3874
▁#	-9.38743
▁company	-9.38751
▁listen	-9.39048
▁nuts	-9.393
▁arm	-9.39319
▁wind	-9.39357
▁dinner	-9.3959
▁least	-9.39595
▁held	-9.39631
▁evening	-9.39641
ir	-9.39754
▁duck	-9.39858
▁W	-9.40004
▁blow	-9.40104
▁named	-9.40387
▁By	-9.4039
▁uhhuh	-9.40489
▁wood	-9.40778
▁die	-9.40883
▁sing	-9.41018
M	-9.41113
▁See	-9.41194
▁clothes	-9.41324
▁group	-9.41331
▁horse	-9.41352
▁bird	-9.41353
No	-9.41833
▁sun	-9.41921
▁late	-9.42058
▁Laura	-9.42157
▁usually	-9.42188
▁fellow	-9.42211
▁standing	-9.42538
▁drop	-9.42547
▁gun	-9.42697
▁seem	-9.43002
▁summer	-9.43025
▁others	-9.43501
▁English	-9.43894
▁caught	-9.43903
▁OK	-9.43904
▁tower	-9.43913
▁breakfast	-9.43928
▁March	-9.43948
▁20	-9.44026
▁5	-9.44217
▁fast	-9.44437
▁hat	-9.44584
▁birds	-9.44779
▁seven	-9.44786
▁doctor	-9.44855
holds	-9.44869
He	-9.44987
▁song	-9.45096
ies	-9.45281
that	-9.45431
▁sick	-9.45565
▁million	-9.45681
▁bottom	-9.45693
▁French	-9.45696
▁broke	-9.45702
▁busy	-9.45707
▁tail	-9.45772
h	-9.45894
▁finish	-9.46349
▁An	-9.46558
▁Jean	-9.4658
▁phone	-9.46644
▁former	-9.4666
▁hole	-9.4673
▁killed	-9.46831
▁Jack	-9.4726
▁answer	-9.4741
▁giving	-9.47511
▁whatever	-9.47545
▁dogs	-9.47623
▁th	-9.47893
▁bite	-9.48275
▁sign	-9.4832
▁television	-9.48408
LDES	-9.48425
▁November	-9.48434
▁lovely	-9.48725
▁catch	-9.49081
▁capital	-9.49328
▁Town	-9.49333
▁Aggie	-9.49336
▁important	-9.49348
▁cream	-9.49365
▁Some	-9.49386
▁ground	-9.49471
ta	-9.49891
▁unclear	-9.50326
▁dress	-9.50684
▁seat	-9.50808
▁fix	-9.51014
▁turtle	-9.51232
▁clip	-9.5139
▁gets	-9.51549
▁above	-9.52167
▁longer	-9.52426
▁clock	-9.52473
▁plastic	-9.53212
▁spring	-9.5327
▁le	-9.53533
▁tea	-9.53545
lo	-9.53707
▁8	-9.53714
▁health	-9.54021
▁quiet	-9.54029
▁circus	-9.54069
▁middle	-9.54095
▁Hello	-9.5417
▁hundred	-9.54337
▁teacher	-9.5435
▁forward	-9.54371
▁laughing	-9.54431
▁sat	-9.54435
▁Thanks	-9.54443
▁falls	-9.54501
▁dad	-9.54544
▁washer	-9.54612
▁mm	-9.54615
referent	-9.54676
▁fair	-9.54932
▁fly	-9.55009
▁supper	-9.55075
▁anybody	-9.55098
▁less	-9.55361
▁problem	-9.55366
▁moved	-9.55478
▁team	-9.55575
▁wrote	-9.56065
▁Illinois	-9.56071
▁forgot	-9.56115
▁12	-9.5616
▁chance	-9.56311
That	-9.56712
what	-9.56733
▁land	-9.5676
moves	-9.56821
▁carry	-9.5687
▁yours	-9.56909
▁dark	-9.57013
hi	-9.57258
ness	-9.57296
▁forget	-9.57306
▁sister	-9.57389
▁IT	-9.5759
▁shoot	-9.57815
▁whom	-9.57858
▁warm	-9.58008
▁fit	-9.58019
▁afternoon	-9.58081
▁following	-9.58262
ING	-9.5857
.6	-9.58604
▁sweet	-9.58761
▁record	-9.58881
▁loved	-9.58961
▁fight	-9.59178
▁Dad	-9.59211
▁10	-9.59672
▁places	-9.59719
▁wonder	-9.5992
▁series	-9.60129
▁exactly	-9.6014
▁Tripp	-9.60149
▁w	-9.60176
▁Urs	-9.60203
▁wonderful	-9.60205
▁Miss	-9.60286
we	-9.6063
▁Ha	-9.60772
▁fellows	-9.61109
▁everybody	-9.61171
▁birthday	-9.61173
▁bread	-9.61195
▁August	-9.61217
▁Sir	-9.61337
▁king	-9.6147
▁finger	-9.61584
▁opened	-9.61848
▁eggs	-9.61893
p	-9.61993
▁certain	-9.62156
▁police	-9.62209
▁cried	-9.6223
▁grew	-9.62234
▁James	-9.62244
▁December	-9.62253
▁certainly	-9.62298
▁kids	-9.62518
▁apple	-9.62638
▁power	-9.6265
▁onto	-9.6289
▁weeks	-9.62977
c	-9.63537
▁clean	-9.63571
▁service	-9.63726
places	-9.6397
▁IN	-9.64294
▁Nick	-9.64295
▁order	-9.64401
▁date	-9.64455
▁co	-9.64585
▁questions	-9.64659
▁corner	-9.64848
ers	-9.64889
▁figure	-9.64909
▁store	-9.64937
▁lots	-9.6503
▁win	-9.65053
▁save	-9.65318
▁flowers	-9.65394
▁woods	-9.65416
▁self	-9.65426
▁strange	-9.65439
▁People	-9.65469
▁Nothing	-9.65479
▁shot	-9.65514
▁low	-9.65531
▁happens	-9.65638
▁crying	-9.65683
▁block	-9.65778
▁g	-9.65873
▁village	-9.65911
▁ones	-9.65991
clock	-9.6619
▁da	-9.66304
▁build	-9.66349
▁act	-9.66404
one	-9.66415
▁waiting	-9.66455
▁liked	-9.66523
▁current	-9.66548
▁Sorry	-9.66585
▁June	-9.66605
▁instead	-9.66629
▁cat	-9.6665
▁leaves	-9.66748
▁Indians	-9.66778
▁cannot	-9.6679
▁bath	-9.67009
▁St	-9.67147
▁meeting	-9.6738
▁reading	-9.67594
▁k	-9.67608
▁magic	-9.67655
▁winter	-9.67665
▁main	-9.67669
▁Really	-9.67675
▁enjoy	-9.6814
▁pen	-9.68213
▁free	-9.68368
▁hell	-9.68389
▁anyway	-9.68421
▁_	-9.68536
▁bought	-9.68807
▁N	-9.69098
▁legs	-9.69113
mo	-9.69198
▁ear	-9.69419
looking	-9.69597
not	-9.69654
▁census	-9.69917
g	-9.69919
▁stopped	-9.69928
▁written	-9.69931
▁City	-9.69938
▁suddenly	-9.69944
▁recorder	-9.69969
▁gold	-9.70054
▁basket	-9.70415
▁letters	-9.70686
▁cry	-9.70853
points	-9.70895
▁telling	-9.71029
▁California	-9.71067
▁worry	-9.71067
▁Jura	-9.7107
▁check	-9.71072
▁office	-9.71122
▁whispered	-9.71167
ere	-9.71186
▁follow	-9.71237
▁fear	-9.71251
ic	-9.71266
▁eye	-9.7154
▁cover	-9.71676
▁works	-9.7176
▁hate	-9.71978
▁suppose	-9.72065
▁wild	-9.72163
▁yesterday	-9.72232
▁pleasure	-9.72233
▁Sure	-9.72243
▁dese	-9.72371
st	-9.72822
▁cake	-9.72885
▁language	-9.72886
▁Even	-9.7291
▁wash	-9.73068
▁form	-9.73192
▁force	-9.73338
▁football	-9.73365
▁grape	-9.73406
▁background	-9.73409
▁Grace	-9.73409
▁heavy	-9.73412
▁honey	-9.73422
▁third	-9.73429
▁Great	-9.73429
▁lives	-9.73441
1	-9.735
),	-9.73594
▁sight	-9.73624
E	-9.73953
▁shoe	-9.74091
▁using	-9.74335
▁building	-9.74358
▁V	-9.74544
▁shut	-9.74581
▁within	-9.74602
▁slowly	-9.74646
1.5	-9.7468
▁climb	-9.74737
▁star	-9.74769
▁starts	-9.7505
?”	-9.75242
▁[3	-9.75296
▁plate	-9.75301
▁ha	-9.75533
▁washers	-9.75552
▁decided	-9.75793
▁thirty	-9.75803
▁simply	-9.75806
▁released	-9.75871
▁dem	-9.75901
▁appeared	-9.75935
▁report	-9.75948
▁Sis	-9.76059
▁games	-9.76162
▁pop	-9.76204
▁blocks	-9.76543
▁month	-9.76557
▁State	-9.76584
▁problems	-9.76659
day	-9.7669
▁blood	-9.76953
▁York	-9.77021
▁except	-9.77026
▁moving	-9.77056
▁hours	-9.77204
▁interesting	-9.77235
▁War	-9.7766
▁balloon	-9.77792
H	-9.77966
▁puzzle	-9.7809
▁Minister	-9.78256
▁Man	-9.78259
▁accident	-9.7826
▁quickly	-9.7833
▁Little	-9.78346
▁books	-9.78346
1.2	-9.78524
▁camp	-9.78619
▁bar	-9.78637
▁[.8	-9.78738
▁holding	-9.78893
There	-9.78949
▁pie	-9.79018
Nord	-9.79021
▁dose	-9.7914
▁asking	-9.79289
u	-9.79379
).	-9.79445
▁vaudois	-9.79505
▁Robin	-9.79505
▁stories	-9.79506
▁Keith	-9.79513
▁Diandra	-9.79517
▁government	-9.79517
▁From	-9.79526
▁video	-9.79586
▁()	-9.79673
▁sense	-9.80282
▁coat	-9.80315
▁North	-9.8036
yellow	-9.80417
▁support	-9.80671
▁church	-9.8075
▁oatmeal	-9.80771
▁Canada	-9.80772
▁David	-9.80774
▁indeed	-9.80781
▁history	-9.80781
▁House	-9.80788
▁magnets	-9.80872
▁itself	-9.80931
▁nearly	-9.80981
▁softly	-9.81046
▁cook	-9.81338
less	-9.81532
▁truth	-9.81557
▁turning	-9.81955
▁stove	-9.82064
▁takes	-9.82115
▁Tell	-9.82198
▁sell	-9.82336
▁crack	-9.82497
▁present	-9.82592
as	-9.82728
▁Lord	-9.82883
▁position	-9.82909
▁character	-9.82967
▁silly	-9.83355
▁Robert	-9.8336
▁earth	-9.83383
▁couple	-9.83386
▁supposed	-9.83536
▁ye	-9.83573
▁followed	-9.83591
▁anyone	-9.83615
ie	-9.83661
▁news	-9.83823
.9	-9.83908
N	-9.8407
▁members	-9.84241
▁thousand	-9.84265
Home	-9.84301
▁kid	-9.84304
▁leg	-9.84429
▁worth	-9.84595
▁general	-9.84608
▁drive	-9.84625
HV	-9.8467
lthough	-9.8467
▁brown	-9.84673
▁Wait	-9.8468
▁arms	-9.84743
▁6	-9.84855
▁button	-9.84889
▁16	-9.84947
▁special	-9.85
▁walking	-9.85111
▁interest	-9.85152
▁shoes	-9.85256
▁visit	-9.85385
▁sentence	-9.8559
▁region	-9.85632
k	-9.85653
▁animal	-9.85653
▁tapioca	-9.86001
▁common	-9.86004
▁Party	-9.86011
▁nobody	-9.86034
▁Take	-9.86039
▁reach	-9.86198
▁meat	-9.86292
▁FOR	-9.86577
▁Be	-9.86603
▁promise	-9.86751
▁garden	-9.86886
▁hang	-9.8692
▁30	-9.86992
▁election	-9.87013
ar	-9.87172
▁Bill	-9.87199
▁bright	-9.87239
▁BRO	-9.8731
▁Would	-9.87316
▁flat	-9.87343
▁medicine	-9.87352
▁women	-9.8736
▁Very	-9.87387
▁created	-9.87437
▁9	-9.87461
▁joined	-9.87495
▁none	-9.87558
ey	-9.8824
up	-9.88334
▁bottle	-9.88352
ry	-9.88509
▁hungry	-9.88725
They	-9.88739
▁Like	-9.88741
▁February	-9.88764
▁dropped	-9.88809
▁Joe	-9.88856
▁ya	-9.88864
▁answered	-9.89033
▁Stop	-9.89204
ur	-9.89364
▁moves	-9.89505
▁cross	-9.89599
clear	-9.89663
▁v	-9.89726
=	-9.89755
▁Indian	-9.89798
▁metal	-9.8985
▁spend	-9.89896
▁actor	-9.89943
▁Visit	-9.90099
▁School	-9.90111
▁attention	-9.90123
▁husband	-9.90124
▁Hank	-9.90147
▁camera	-9.90191
▁soup	-9.90311
▁miles	-9.90358
P	-9.90363
▁parents	-9.90415
▁laugh	-9.90462
▁happening	-9.90496
▁months	-9.90646
▁sea	-9.90686
▁north	-9.90783
▁return	-9.90798
▁23	-9.90983
▁River	-9.91101
LL	-9.9115
*	-9.91161
▁pocket	-9.91186
▁2011	-9.91205
▁season	-9.91237
▁dry	-9.91269
▁band	-9.91329
▁dance	-9.91344
▁talked	-9.91367
▁quick	-9.91418
▁safe	-9.91424
▁stupid	-9.91446
▁Majesty	-9.91519
▁William	-9.91519
▁possible	-9.91519
▁leaving	-9.9152
▁World	-9.91522
▁crazy	-9.91525
▁space	-9.91533
▁built	-9.91552
▁dream	-9.91658
▁test	-9.91883
of	-9.91951
all	-9.91975
▁type	-9.92241
▁attack	-9.9245
Now	-9.92603
▁beside	-9.9277
▁race	-9.92825
▁ate	-9.92908
▁South	-9.92945
▁teeth	-9.92949
▁Which	-9.92951
▁Italian	-9.92962
▁Two	-9.92982
ya	-9.93239
ity	-9.93768
▁stone	-9.9403
▁napkin	-9.94041
▁Mama	-9.94181
She	-9.94206
▁horses	-9.94349
▁Clavering	-9.94397
▁replied	-9.94403
▁stage	-9.9441
▁paid	-9.94413
▁tv	-9.9442
▁human	-9.94551
▁toys	-9.94563
sur	-9.94634
▁San	-9.94648
▁simple	-9.94792
uring	-9.94831
▁walked	-9.94868
▁seeing	-9.94915
▁18	-9.95156
house	-9.95197
▁rock	-9.95253
▁Nation	-9.95328
▁meant	-9.95329
paper	-9.95507
song	-9.95586
▁hurry	-9.9565
▁u	-9.95736
▁proud	-9.95803
Then	-9.9582
▁doggie	-9.95879
▁carried	-9.95885
▁finally	-9.95903
▁afterwards	-9.95957
ous	-9.9624
▁animals	-9.96256
ian	-9.96459
▁28	-9.96645
▁needs	-9.96867
▁belong	-9.97075
▁joy	-9.97106
▁cookie	-9.97188
▁lion	-9.9724
▁Me	-9.97299
▁briefcase	-9.97361
▁community	-9.97361
▁swimming	-9.97361
▁Danny	-9.97363
▁beginning	-9.97364
▁court	-9.97372
▁Johnson	-9.97375
▁park	-9.97389
▁considered	-9.97429
▁lying	-9.97454
bout	-9.97509
▁president	-9.97641
▁step	-9.97996
▁K	-9.98179
▁list	-9.98429
time	-9.985
▁hospital	-9.98586
▁include	-9.98761
▁led	-9.98773
ARY	-9.98856
▁Michael	-9.98876
▁throat	-9.98876
▁Graham	-9.98876
▁glass	-9.9888
▁baseball	-9.98908
by	-9.98925
▁ma	-9.98992
BR	-9.99353
▁deep	-9.99787
▁15	-9.99812
Y	-9.99903
▁[4	-9.99933
▁WE	-9.99996
▁difference	-10.0018
▁EXP	-10.0027
▁orange	-10.0027
▁grass	-10.0039
▁neither	-10.0041
▁station	-10.0042
▁pink	-10.0043
▁Father	-10.0043
▁loud	-10.0045
▁received	-10.0048
▁national	-10.0048
▁level	-10.0052
▁ng	-10.009
▁singing	-10.0108
▁farm	-10.0111
▁term	-10.0127
▁pass	-10.0137
▁period	-10.0146
▁Er	-10.0151
▁lie	-10.0172
▁example	-10.0173
▁local	-10.0189
▁luck	-10.019
xcuse	-10.0194
▁rough	-10.0194
▁drew	-10.0198
▁bigger	-10.0199
▁British	-10.0199
▁chain	-10.02
▁Harry	-10.02
▁www	-10.02
▁Fuck	-10.0202
▁Colin	-10.0203
▁county	-10.0203
▁Gus	-10.0226
▁31	-10.0246
▁met	-10.026
for	-10.0266
▁25	-10.0289
▁sad	-10.0299
▁19	-10.0302
pull	-10.0308
▁learn	-10.0313
▁surprise	-10.0324
▁watching	-10.0326
▁fruit	-10.0341
▁ought	-10.0343
▁spoke	-10.0351
▁Republic	-10.0354
▁terrible	-10.0356
▁England	-10.0356
▁especially	-10.0357
▁married	-10.0358
▁Henry	-10.0358
▁Russian	-10.0361
▁everyone	-10.0362
▁perfectly	-10.0364
at	-10.0373
1.3	-10.0388
▁missed	-10.0396
▁nor	-10.0406
▁trust	-10.0446
4	-10.0448
▁post	-10.0449
3	-10.0471
▁cos	-10.0477
▁doubt	-10.0477
▁breath	-10.0492
▁notice	-10.0507
▁law	-10.0508
▁monkey	-10.0508
▁twelve	-10.0518
▁neck	-10.0518
▁lap	-10.052
▁beat	-10.0521
▁fallen	-10.0523
▁spread	-10.0523
▁horseshoe	-10.0532
▁career	-10.0535
▁laughed	-10.0542
▁changed	-10.056
▁wide	-10.0571
▁24	-10.0593
▁ME	-10.0606
▁showed	-10.0625
▁expect	-10.0638
▁rich	-10.0653
▁fat	-10.0665
▁imagine	-10.0666
▁perfect	-10.0674
▁public	-10.0674
▁Saturday	-10.0682
▁Santa	-10.0683
▁Will	-10.0687
▁elected	-10.0688
▁grown	-10.0689
▁Texas	-10.0692
▁returned	-10.0706
▁offer	-10.0711
▁flag	-10.0718
▁weren	-10.0742
▁picked	-10.0749
et	-10.079
▁lift	-10.0813
▁smile	-10.0824
▁rose	-10.0839
▁lake	-10.084
▁America	-10.0843
▁lose	-10.0848
Illustration	-10.0848
▁twice	-10.0848
▁chocolate	-10.0848
▁political	-10.0849
▁threw	-10.0849
▁empty	-10.0849
▁pipe	-10.085
um	-10.0853
▁gay	-10.0856
▁share	-10.0861
▁plan	-10.0887
▁De	-10.089
▁deer	-10.09
▁card	-10.0952
black	-10.0982
▁brave	-10.0989
▁market	-10.0996
My	-10.0997
▁glance	-10.1003
▁tongue	-10.1004
am	-10.1011
▁wheels	-10.1013
▁Richard	-10.1018
▁bike	-10.1018
▁Thomas	-10.1018
▁string	-10.1018
▁grandfather	-10.102
▁center	-10.102
▁pad	-10.1021
▁First	-10.1022
▁Perhaps	-10.1023
▁wipe	-10.1027
▁continued	-10.1031
▁tall	-10.1042
▁dare	-10.1042
▁treat	-10.1054
▁27	-10.1072
▁pretend	-10.1091
▁East	-10.1094
attempt	-10.1154
O	-10.116
▁boots	-10.1165
▁agree	-10.1172
WOM	-10.1184
▁charge	-10.1185
▁Smith	-10.119
▁Patch	-10.119
▁beyond	-10.1191
▁wow	-10.1193
▁however	-10.1193
▁single	-10.1194
▁Listen	-10.1194
▁Aye	-10.1199
▁allowed	-10.1209
▁higher	-10.121
▁14	-10.123
")	-10.1241
do	-10.1254
▁houses	-10.1264
▁points	-10.1265
▁needed	-10.1267
if	-10.1272
▁den	-10.1277
she	-10.13
▁holds	-10.132
▁wheel	-10.1326
Vaud	-10.133
▁lead	-10.1338
▁rate	-10.1353
▁difficult	-10.1357
▁fresh	-10.1364
▁Governor	-10.1366
▁THAT	-10.1366
▁worse	-10.1366
▁diaper	-10.1366
▁MY	-10.1368
▁shit	-10.137
▁Lucas	-10.1371
▁secret	-10.1373
▁Gros	-10.1378
▁flower	-10.1385
▁expected	-10.1388
very	-10.1442
▁thanks	-10.1462
▁ga	-10.1469
age	-10.1477
sings	-10.1481
b	-10.1483
So	-10.1502
Mother	-10.1509
▁whoa	-10.1527
▁movies	-10.1533
▁groups	-10.1538
▁situation	-10.154
▁moon	-10.1541
▁couch	-10.1542
▁Friday	-10.1544
▁highchair	-10.1545
▁handle	-10.1545
▁exclaimed	-10.1545
▁Queen	-10.1546
▁smell	-10.1548
▁edge	-10.1551
▁frightened	-10.1552
▁mark	-10.1552
▁Jesus	-10.1553
▁swing	-10.1553
▁upstairs	-10.1554
▁attempt	-10.156
ation	-10.157
5.	-10.1573
▁gas	-10.1585
▁mostly	-10.1602
.8	-10.161
▁26	-10.1619
▁burn	-10.162
▁protect	-10.1651
Don	-10.1677
▁jus	-10.1681
▁hadn	-10.1699
%	-10.1703
▁serious	-10.1718
▁pair	-10.1728
▁cherry	-10.1728
▁mud	-10.1728
▁Give	-10.1732
▁likely	-10.1734
▁shop	-10.174
▁arrow	-10.1747
▁bother	-10.1749
▁cookies	-10.175
f	-10.1751
▁13	-10.1771
▁key	-10.1772
▁shows	-10.18
▁believed	-10.1805
w	-10.1838
▁Dr	-10.1847
ary	-10.188
▁grow	-10.1884
▁West	-10.1888
▁appear	-10.1891
▁bang	-10.19
▁stack	-10.1902
▁natural	-10.1906
▁noises	-10.1908
▁pillow	-10.1911
▁Empire	-10.1911
▁Brazil	-10.1912
▁Gippie	-10.1912
▁size	-10.1912
▁teddy	-10.1912
▁director	-10.1913
▁Chief	-10.1913
▁Poacher	-10.1913
▁darling	-10.1913
▁amount	-10.1915
▁fence	-10.1915
▁Sometimes	-10.1917
▁served	-10.1921
▁About	-10.1931
▁wha	-10.1937
▁Erm	-10.1938
▁player	-10.1974
▁control	-10.1981
z	-10.1987
ce	-10.1995
▁drinking	-10.2021
▁watched	-10.2059
▁roll	-10.207
▁fill	-10.2078
▁smart	-10.2087
▁mad	-10.2089
▁square	-10.2093
▁chief	-10.2093
▁German	-10.2094
this	-10.2098
▁Roman	-10.2099
▁Washington	-10.21
▁regard	-10.21
▁White	-10.2103
▁Germany	-10.2107
▁entered	-10.2112
▁Every	-10.2114
▁fucking	-10.2117
▁slide	-10.2119
overlapp	-10.2121
▁crayon	-10.2122
▁begin	-10.2123
▁hanging	-10.213
▁Mark	-10.2131
▁cooking	-10.2132
▁added	-10.2152
▁per	-10.2158
5	-10.2159
el	-10.2169
▁bye	-10.2172
▁falling	-10.2184
▁cow	-10.2188
▁hide	-10.223
B	-10.2231
▁17	-10.2239
▁cause	-10.2248
▁clips	-10.2249
▁lines	-10.2257
Why	-10.2257
▁excuse	-10.2277
▁extra	-10.2279
.5	-10.2279
▁US	-10.2286
▁professional	-10.2287
!’	-10.2287
▁awful	-10.2288
▁Lassie	-10.2292
▁distance	-10.2292
▁THIS	-10.2293
▁monster	-10.2293
▁spent	-10.2293
▁Ukraine	-10.2293
▁experience	-10.2294
▁anywhere	-10.2295
▁quit	-10.2296
▁Sue	-10.2296
▁Army	-10.2296
Prime	-10.2299
▁somehow	-10.2299
▁arrested	-10.2301
▁apart	-10.2305
▁greatest	-10.2308
▁system	-10.2313
▁Day	-10.2315
▁committee	-10.2318
▁helped	-10.2319
▁reached	-10.2322
▁soul	-10.2323
ez	-10.2344
▁wall	-10.2345
ist	-10.2361
red	-10.2368
▁join	-10.2395
▁starting	-10.2403
F	-10.2409
kay	-10.2418
room	-10.2438
laughing	-10.2453
▁Mar	-10.246
▁cost	-10.2477
▁Dillson	-10.2488
▁information	-10.2488
▁Alright	-10.2488
▁Johnny	-10.2489
▁governor	-10.249
▁club	-10.2491
▁Lady	-10.2491
5/	-10.2492
▁tiny	-10.2492
▁CHAPTER	-10.2494
▁nope	-10.2494
▁board	-10.2495
night	-10.2499
▁terms	-10.2505
▁Run	-10.2506
▁mistake	-10.2507
▁suit	-10.251
▁Bye	-10.2511
▁shirt	-10.2515
▁chicken	-10.2516
▁role	-10.2518
▁ears	-10.2521
▁field	-10.2527
▁boot	-10.2538
▁2022	-10.2556
▁guns	-10.256
▁personal	-10.2561
overlap	-10.2581
way	-10.2592
im	-10.2597
▁lo	-10.2601
▁ended	-10.2633
ley	-10.2639
▁ve	-10.2647
▁cap	-10.2661
singing	-10.2674
▁count	-10.2679
me	-10.268
▁Albert	-10.2683
▁switch	-10.2685
▁sandwich	-10.2686
▁Oxford	-10.2688
▁prairie	-10.2688
▁London	-10.2688
▁municipalities	-10.2688
▁weird	-10.2689
▁response	-10.2689
▁conversation	-10.2689
▁Ciscasset	-10.2689
▁dancing	-10.2689
▁rubber	-10.269
▁hello	-10.2694
hose	-10.2696
▁Humm	-10.2696
has	-10.2697
▁Mary	-10.2699
▁add	-10.27
▁raised	-10.27
▁south	-10.2705
HS	-10.2708
son	-10.2712
▁paint	-10.2717
▁hall	-10.2721
▁dressed	-10.2736
▁spirit	-10.2745
▁pulled	-10.2758
▁sleeping	-10.2764
Do	-10.2771
▁stars	-10.2781
laid	-10.2847
▁explain	-10.2854
DAN	-10.2856
vocalization	-10.2856
pointing	-10.286
7	-10.2881
1.1	-10.2881
▁fifty	-10.2892
▁cancer	-10.2892
▁Democratic	-10.2892
▁future	-10.2892
▁cards	-10.2893
▁taught	-10.2893
▁Agent	-10.2893
▁Fine	-10.2895
▁Old	-10.2898
▁somewhere	-10.29
▁upside	-10.2903
▁choice	-10.2905
▁continue	-10.2913
▁caused	-10.2917
▁learned	-10.292
▁pig	-10.2926
▁frog	-10.2929
▁master	-10.2929
▁press	-10.2935
▁yard	-10.2936
▁action	-10.2937
▁bank	-10.2946
▁older	-10.295
ish	-10.2954
out	-10.2956
▁closed	-10.2961
▁nature	-10.2961
▁fingers	-10.3018
▁honor	-10.305
▁ri	-10.3069
▁study	-10.3077
▁bowl	-10.3081
▁Leo	-10.3095
▁District	-10.3101
▁Raymond	-10.3101
▁cruel	-10.3101
▁fancy	-10.3101
▁Could	-10.3104
▁retired	-10.3106
▁announced	-10.3106
▁Saint	-10.3112
▁wake	-10.3125
▁bowling	-10.3125
▁knows	-10.3125
na	-10.3128
▁brain	-10.3132
▁2016	-10.3134
▁prize	-10.3138
▁Only	-10.3141
▁snake	-10.3145
▁event	-10.3157
▁wagons	-10.3158
▁egg	-10.3168
▁mess	-10.3171
ince	-10.3191
▁shoulder	-10.3198
▁class	-10.3213
▁plants	-10.3217
▁pounds	-10.3249
▁IS	-10.3269
How	-10.328
▁burst	-10.3292
goes	-10.3299
▁grace	-10.33
▁fifteen	-10.3312
▁machine	-10.3313
▁peace	-10.3313
▁cowboy	-10.3314
▁queer	-10.3315
▁However	-10.3315
▁Pence	-10.3315
▁published	-10.3316
▁anymore	-10.3318
▁directed	-10.3324
▁fourth	-10.3326
9	-10.3333
▁pile	-10.3334
▁2013	-10.3338
co	-10.3346
▁dozen	-10.3354
▁bell	-10.3355
▁officer	-10.3363
▁2017	-10.3364
▁doll	-10.3404
6	-10.3404
,--	-10.3418
▁spot	-10.3438
▁sharp	-10.3446
men	-10.3476
go	-10.3485
▁rain	-10.3507
▁sex	-10.3522
▁Any	-10.3525
▁corn	-10.3527
▁account	-10.353
▁Illustrated	-10.3531
▁dunno	-10.3531
▁evidence	-10.3531
▁suitcase	-10.3531
▁popular	-10.3531
▁species	-10.3531
▁sky	-10.3531
▁Missouri	-10.3531
▁tray	-10.3531
▁roof	-10.3532
▁History	-10.3532
▁European	-10.3533
▁unless	-10.3535
▁eh	-10.3539
▁screaming	-10.3541
▁lucky	-10.3542
gaa	-10.3549
▁remind	-10.3551
▁filled	-10.3557
▁pale	-10.3559
RE	-10.3561
▁interested	-10.3565
All	-10.3565
▁teach	-10.3571
▁dreams	-10.3573
▁skin	-10.3581
▁Z	-10.3585
▁2010	-10.3586
8	-10.3589
▁wished	-10.3595
ra	-10.3622
ma	-10.364
ens	-10.3646
ful	-10.3669
▁Sun	-10.3676
▁Ed	-10.3676
▁Bo	-10.368
▁notes	-10.3686
▁la	-10.3709
▁Was	-10.3715
▁Um	-10.3715
▁shame	-10.3733
▁pleasant	-10.3744
▁Paris	-10.3752
▁Natalie	-10.3753
▁sposta	-10.3753
▁Trump	-10.3753
▁Lucy	-10.3753
▁tiger	-10.3754
▁Charles	-10.3754
▁Larita	-10.3754
▁WHAT	-10.3754
▁rug	-10.3755
▁major	-10.3755
▁Tony	-10.3756
▁heaven	-10.3756
▁windows	-10.3757
▁asleep	-10.3757
▁completely	-10.3758
▁remained	-10.3764
▁picks	-10.3766
▁hunting	-10.377
▁Does	-10.3771
▁lips	-10.3771
▁[5	-10.3776
▁art	-10.3793
▁favorite	-10.38
▁pictures	-10.3801
▁fighting	-10.3802
▁leader	-10.3808
▁trip	-10.3809
▁names	-10.3825
G	-10.3826
▁Cos	-10.3828
▁speaking	-10.3837
ED	-10.3864
▁pet	-10.3874
▁fishing	-10.3884
ha	-10.3892
▁holes	-10.3953
▁pain	-10.396
▁continues	-10.3963
▁usual	-10.3974
▁begins	-10.3977
▁Aha	-10.3978
▁Naomi	-10.398
▁excitement	-10.398
▁exciting	-10.398
▁League	-10.398
▁further	-10.398
▁plenty	-10.398
▁professor	-10.398
▁Cooper	-10.398
▁alive	-10.3981
▁radio	-10.3981
▁military	-10.3981
▁ladies	-10.3981
▁mommy	-10.3981
▁including	-10.3982
▁|	-10.3986
▁Jess	-10.3988
▁involved	-10.399
▁magnetic	-10.3991
▁arrived	-10.3991
▁needta	-10.3993
▁Martin	-10.3993
▁pour	-10.4004
▁sand	-10.4007
▁smaller	-10.4008
▁ill	-10.4011
▁brothers	-10.4014
▁double	-10.403
▁signed	-10.4032
▁critique	-10.4035
▁album	-10.4039
▁taste	-10.404
▁movement	-10.404
▁bone	-10.4045
▁official	-10.4048
ne	-10.4077
R	-10.4093
playing	-10.4097
▁drawing	-10.4106
▁whoops	-10.4122
▁tears	-10.4132
▁cha	-10.4133
▁calling	-10.4138
▁allow	-10.4142
▁fuck	-10.4159
▁Los	-10.4191
▁damn	-10.4193
▁actress	-10.421
▁comma	-10.4211
▁splendid	-10.4213
▁Spain	-10.4213
▁Mhm	-10.4213
▁truly	-10.4213
▁fault	-10.4213
▁majesty	-10.4213
▁Ooh	-10.4214
▁taperecorder	-10.4217
▁tied	-10.4235
▁agreed	-10.4235
LD	-10.4244
▁bus	-10.4247
▁badly	-10.4251
▁covered	-10.4255
can	-10.4262
▁carrying	-10.4264
▁flying	-10.4269
▁bill	-10.4274
▁dollars	-10.4276
▁storm	-10.4276
▁wearing	-10.4277
▁listening	-10.4277
▁cracker	-10.4286
▁god	-10.4291
LW	-10.4298
▁creatures	-10.4322
▁fool	-10.4355
x	-10.4356
▁tone	-10.4361
▁subject	-10.4363
▁tie	-10.4367
▁west	-10.4379
▁kick	-10.4414
▁placed	-10.4414
Adam	-10.4415
If	-10.4428
▁tripp	-10.4431
▁welcome	-10.4434
▁realize	-10.4436
▁29	-10.444
▁La	-10.4446
▁India	-10.4447
▁forth	-10.445
▁kidding	-10.4451
▁pony	-10.4451
▁swim	-10.4451
▁Senate	-10.4451
▁Street	-10.4452
▁Major	-10.4452
▁immediately	-10.4453
▁Think	-10.4453
▁cast	-10.4453
▁motor	-10.4454
▁China	-10.4456
!”	-10.4459
▁counter	-10.4459
▁scared	-10.446
▁Once	-10.4461
▁smiled	-10.4475
▁offered	-10.4481
they	-10.4492
▁wet	-10.4493
▁film	-10.4495
▁checked	-10.4495
▁crowd	-10.4501
▁pound	-10.4504
▁council	-10.4509
▁decision	-10.4517
▁queen	-10.4517
▁direction	-10.4523
IL	-10.4526
▁object	-10.4528
▁remembered	-10.457
▁thin	-10.4611
▁hasn	-10.4615
ach	-10.4631
▁kiss	-10.4648
▁shoulders	-10.4656
▁particular	-10.4689
▁slight	-10.4691
▁hook	-10.4694
▁trade	-10.4694
▁text	-10.4695
▁Patrick	-10.4695
▁somethin	-10.4695
▁Watch	-10.4698
▁Brian	-10.4698
▁Fairy	-10.4699
▁Polly	-10.4699
▁Alan	-10.4699
▁whenever	-10.47
▁dirty	-10.4701
▁Julie	-10.4702
▁locate	-10.4704
▁prepared	-10.4709
▁tha	-10.4722
▁scissors	-10.4723
▁promised	-10.4725
▁saved	-10.4734
▁sticking	-10.4758
▁gift	-10.4764
▁singer	-10.4764
▁partner	-10.4764
▁hotel	-10.4768
▁lawyer	-10.4768
▁track	-10.4773
ia	-10.4779
▁shouldn	-10.4783
V	-10.4784
▁owner	-10.4807
▁turns	-10.4811
▁rule	-10.4813
▁Black	-10.4823
▁nap	-10.4832
▁21	-10.4837
rs	-10.4844
▁staying	-10.4846
▁murder	-10.4878
there	-10.488
▁doin	-10.4895
▁roles	-10.4908
▁oil	-10.4922
led	-10.4926
▁Mo	-10.4937
▁Europe	-10.4944
▁fond	-10.4944
▁Court	-10.4945
▁macaroni	-10.4945
▁angry	-10.4945
▁similar	-10.4945
▁MAY	-10.4945
▁scarce	-10.4945
▁Something	-10.4946
▁education	-10.4947
▁huge	-10.4947
▁triangle	-10.4948
▁penny	-10.4951
▁replaced	-10.4956
▁("	-10.4958
▁fairy	-10.4964
ng	-10.4972
▁weight	-10.4976
▁respect	-10.4997
▁college	-10.5017
▁struggle	-10.5025
▁quarter	-10.5026
▁marbles	-10.5026
▁Award	-10.5031
▁kindly	-10.5036
ized	-10.504
▁meaning	-10.5066
▁Red	-10.5069
lw	-10.5077
▁al	-10.5089
well	-10.5107
In	-10.5117
coughs	-10.517
▁crayons	-10.5172
▁2,	-10.5177
▁smoke	-10.5184
▁tickle	-10.5185
ment	-10.5192
▁ship	-10.5198
▁Julián	-10.5201
▁beauty	-10.5201
▁smooth	-10.5201
▁driving	-10.5201
▁Angeles	-10.5201
▁bridge	-10.5204
▁potatoes	-10.5204
▁famous	-10.5205
▁credit	-10.5205
▁revolutionary	-10.5206
▁host	-10.5207
▁Most	-10.5215
▁quietly	-10.5219
▁below	-10.5223
▁carefully	-10.523
▁noticed	-10.5231
▁burning	-10.5232
▁steps	-10.5233
▁2012	-10.5237
▁income	-10.5241
land	-10.5247
Villars	-10.5247
▁te	-10.5247
▁parts	-10.5275
▁value	-10.5277
▁shore	-10.5277
▁crime	-10.5283
▁Whig	-10.5285
▁practice	-10.529
▁drug	-10.5293
▁aside	-10.5293
▁stepp	-10.5327
▁uses	-10.5342
▁plays	-10.5346
▁cats	-10.5351
▁stayed	-10.5355
▁tear	-10.5376
▁FE	-10.5384
When	-10.5429
▁waited	-10.5433
▁pitch	-10.5434
▁balance	-10.5449
▁feed	-10.5449
▁j	-10.5453
▁neat	-10.5457
▁regular	-10.5457
▁handsome	-10.5459
▁anxious	-10.546
▁slow	-10.5461
▁potato	-10.5462
▁Actually	-10.5464
▁Florida	-10.5464
▁Valentine	-10.5464
▁planning	-10.5465
▁Kong	-10.5465
▁fought	-10.5465
▁tricycle	-10.5465
▁Tracy	-10.5465
▁absolutely	-10.5467
▁purple	-10.5467
▁Seth	-10.5467
▁gently	-10.5467
▁obviously	-10.5467
▁eagerly	-10.5468
▁copy	-10.5469
▁3,	-10.5469
▁knife	-10.547
▁22	-10.547
▁goodbye	-10.5472
▁centre	-10.5472
was	-10.5481
▁bare	-10.5481
▁&	-10.5483
▁fashion	-10.5487
▁surprised	-10.5492
▁clearly	-10.5497
▁More	-10.5503
▁[6	-10.5507
▁choke	-10.5511
▁X	-10.5511
▁Christ	-10.5527
magnet	-10.5527
▁jumped	-10.5531
long	-10.5535
like	-10.5539
▁minister	-10.5547
▁battle	-10.5554
be	-10.556
▁border	-10.556
▁Year	-10.5561
▁soldier	-10.5561
▁affair	-10.5561
▁manner	-10.5567
▁coin	-10.5571
so	-10.5584
▁shower	-10.5587
▁High	-10.5649
▁gives	-10.5663
▁chug	-10.5667
▁bet	-10.5683
▁2018	-10.5683
▁sub	-10.5696
pitched	-10.5699
Come	-10.57
L	-10.5703
1.4	-10.5723
runs	-10.5727
▁original	-10.5729
▁hung	-10.5731
▁speech	-10.5731
▁fourteen	-10.5733
▁RAF	-10.5735
▁excellent	-10.5735
▁weather	-10.5735
▁advice	-10.5735
▁babaa	-10.5735
▁slipped	-10.5735
▁Duke	-10.5735
▁authority	-10.5735
▁struck	-10.5735
▁Cherry	-10.5735
▁hammer	-10.5735
▁voices	-10.5735
▁birdie	-10.5736
▁Life	-10.5737
▁Sunday	-10.5737
▁statement	-10.5739
▁length	-10.5739
▁weekend	-10.574
▁11	-10.5741
chuckles	-10.5741
▁cloth	-10.5742
▁discovered	-10.5745
▁non	-10.5757
aft	-10.5764
▁breathing	-10.5772
wood	-10.5776
▁formed	-10.5794
▁formula	-10.5807
▁danger	-10.583
▁remove	-10.5833
▁province	-10.5835
▁message	-10.5838
▁bringing	-10.5867
II	-10.5871
▁price	-10.5876
▁Re	-10.588
▁wh	-10.5919
▁ow	-10.5919
id	-10.5921
▁1,	-10.5951
▁pleased	-10.5956
▁2014	-10.5965
softly	-10.5982
▁search	-10.599
▁wound	-10.5992
▁ON	-10.6
▁private	-10.6006
▁silent	-10.6006
▁normal	-10.6008
▁Scholarship	-10.6012
▁relationship	-10.6013
▁Palmer	-10.6013
▁Hong	-10.6013
▁shh	-10.6013
▁ninety	-10.6014
▁Republican	-10.6018
▁gathered	-10.6023
▁related	-10.6028
▁di	-10.6029
▁row	-10.6033
▁feeding	-10.6037
▁Jim	-10.6039
▁21,	-10.6044
▁YOUR	-10.6047
▁lies	-10.6048
▁rocking	-10.6054
▁Le	-10.6058
don	-10.6059
▁suggest	-10.6072
▁fixed	-10.6074
▁colors	-10.6078
▁rings	-10.6082
▁screw	-10.6086
ant	-10.6091
▁chase	-10.6112
▁throwing	-10.6115
▁blame	-10.6116
▁mirror	-10.6118
▁waste	-10.6121
▁project	-10.6123
▁elephant	-10.6124
nother	-10.6133
▁note	-10.6137
▁wings	-10.6139
é	-10.6154
appropriate	-10.6155
shook	-10.619
▁ex	-10.6197
▁Over	-10.6232
J	-10.6236
▁rush	-10.6252
ty	-10.6263
▁delight	-10.6268
sighs	-10.6271
▁coach	-10.6276
gets	-10.6278
▁courage	-10.6281
▁scratch	-10.6286
▁excited	-10.6292
▁sudden	-10.6292
▁Phil	-10.6298
▁dessert	-10.6298
▁Canadian	-10.6298
▁Shawn	-10.6298
▁RLF	-10.6298
▁surface	-10.6299
▁bathroom	-10.6299
▁Berta	-10.63
▁Becky	-10.63
▁Death	-10.63
▁Uncle	-10.63
▁guilty	-10.63
▁loose	-10.6302
▁glasses	-10.6303
ate	-10.6307
▁wore	-10.6308
▁Clare	-10.6309
▁shake	-10.6309
due	-10.6314
Ah	-10.6317
▁Another	-10.6317
▁delighted	-10.6319
▁Many	-10.6324
▁growing	-10.6333
▁lifted	-10.6337
▁plane	-10.6338
Here	-10.6341
▁spending	-10.6344
▁checking	-10.6355
▁log	-10.6368
▁shape	-10.637
▁bark	-10.6376
▁mountains	-10.6391
▁positive	-10.6405
more	-10.6414
▁scene	-10.6415
▁greatly	-10.6421
▁picking	-10.6427
▁farmer	-10.6428
▁pro	-10.6432
▁pole	-10.6456
morrow	-10.6457
▁writer	-10.6459
ny	-10.6461
▁mountain	-10.6498
▁Se	-10.6499
▁heads	-10.6504
▁Six	-10.6528
Good	-10.6528
note	-10.6555
▁tight	-10.6556
▁hunt	-10.6559
Let	-10.6571
▁lower	-10.6573
▁faces	-10.6574
▁dirt	-10.6585
▁Park	-10.6589
Connor	-10.6592
▁horsie	-10.6592
▁Prize	-10.6592
▁worst	-10.6592
▁gimme	-10.6592
▁HAVE	-10.6593
▁toast	-10.6593
▁comin	-10.6593
▁destroy	-10.6593
▁earlier	-10.6593
▁buggy	-10.6593
▁century	-10.6594
▁journey	-10.6594
▁dumb	-10.6595
▁biggest	-10.6595
▁match	-10.6597
▁Before	-10.6597
▁closer	-10.6606
▁attached	-10.6609
▁LOVE	-10.6609
▁pants	-10.6611
▁UN	-10.6615
▁tryin	-10.6616
vo	-10.6634
▁gal	-10.6653
▁Call	-10.6668
▁desk	-10.6709
▁magazine	-10.6716
▁Bird	-10.6722
▁bow	-10.6722
▁Time	-10.6724
most	-10.6739
▁strike	-10.6757
▁meal	-10.6776
Not	-10.6782
▁knees	-10.6791
▁areas	-10.6791
1.7	-10.6798
ese	-10.6798
ho	-10.68
▁)	-10.6804
▁trick	-10.6815
reading	-10.6816
▁officers	-10.6831
bring	-10.6838
▁Ann	-10.6838
▁Sam	-10.6841
▁founded	-10.6854
This	-10.6861
▁dish	-10.6863
▁Hold	-10.6864
▁stream	-10.6865
▁NO	-10.6866
ud	-10.687
▁demand	-10.6875
▁horn	-10.6876
▁Centr	-10.6879
▁escape	-10.6879
ye	-10.6879
your	-10.6883
▁pause	-10.6888
▁hurried	-10.6889
▁narrow	-10.6891
▁manage	-10.6893
▁nineteen	-10.6893
▁Uruguay	-10.6895
▁captain	-10.6895
▁families	-10.6895
▁picnic	-10.6895
▁worried	-10.6895
▁Department	-10.6895
▁Mexican	-10.6895
▁Bertha	-10.6895
▁Treaty	-10.6895
▁reckon	-10.6896
▁prevent	-10.6896
▁Church	-10.6896
▁jolly	-10.6896
▁evil	-10.6896
▁consumption	-10.6896
▁Japanese	-10.6896
▁quack	-10.6897
▁2007	-10.6897
▁cereal	-10.6897
▁birth	-10.6898
▁Doctor	-10.6898
▁calm	-10.6898
▁bedroom	-10.6899
▁downstairs	-10.6902
▁Anne	-10.6903
▁particularly	-10.6904
▁Say	-10.6912
▁barn	-10.6912
▁2015	-10.6914
▁rise	-10.6915
▁army	-10.6922
ANU	-10.6926
▁included	-10.6929
▁Although	-10.693
▁rocks	-10.6942
▁plant	-10.6946
▁helping	-10.6951
▁writes	-10.6951
▁km	-10.6957
▁cents	-10.6962
▁Sha	-10.6969
▁missing	-10.6975
▁Ben	-10.6981
▁touching	-10.6989
▁50	-10.7003
▁tinkertoy	-10.7015
my	-10.7018
▁medal	-10.7019
▁mate	-10.7023
▁title	-10.7028
▁blanket	-10.703
▁adventures	-10.7032
▁cousin	-10.7035
▁effort	-10.7036
▁uncle	-10.7037
1.6	-10.7038
▁DON	-10.7041
▁gate	-10.7051
▁BY	-10.7056
▁Th	-10.7063
▁comfort	-10.7069
ive	-10.7082
▁Act	-10.7083
▁5,	-10.7088
▁bend	-10.7105
▁sisters	-10.7107
▁sh	-10.7122
▁view	-10.7127
▁Pa	-10.7158
▁range	-10.7159
turns	-10.7167
te	-10.7167
W	-10.717
▁Hero	-10.7173
ance	-10.7185
▁represent	-10.7187
▁serve	-10.7191
▁Stan	-10.7193
▁suck	-10.7194
▁lock	-10.7195
▁social	-10.72
▁entire	-10.7201
▁Louis	-10.7202
▁Russia	-10.7202
▁tops	-10.7204
▁Green	-10.7206
▁Council	-10.7207
▁Constitution	-10.7208
▁Deborah	-10.7208
▁International	-10.7208
▁opposite	-10.7208
▁ourselves	-10.7208
▁Truman	-10.7208
▁necessary	-10.7208
▁Raff	-10.7208
▁university	-10.7208
▁bunny	-10.7208
▁Monday	-10.7208
▁duty	-10.7208
▁Hilda	-10.7208
▁1930	-10.7208
▁chest	-10.7209
▁crutches	-10.7209
▁glorious	-10.7209
▁Wednesday	-10.721
▁merged	-10.721
▁broom	-10.721
▁dishes	-10.7211
▁disappointed	-10.7212
▁Momma	-10.7212
▁Mike	-10.7213
▁choo	-10.7215
▁gain	-10.7216
▁TV	-10.7216
▁Never	-10.7217
▁disappeared	-10.7217
▁bump	-10.7218
▁repeated	-10.7218
▁spoken	-10.722
▁larger	-10.722
▁mixed	-10.7223
▁mail	-10.7223
▁generally	-10.7224
▁presently	-10.7224
▁goodness	-10.7242
▁learning	-10.7251
v	-10.7254
▁doors	-10.7258
▁washed	-10.7265
▁Isn	-10.7285
▁knocked	-10.7289
▁feels	-10.73
▁training	-10.731
▁protest	-10.7314
▁whisper	-10.7314
▁concern	-10.7333
▁joke	-10.7334
▁issue	-10.7342
▁computer	-10.7347
▁patient	-10.735
▁Macleod	-10.7351
▁coal	-10.7352
▁program	-10.7353
▁cage	-10.7353
▁newspaper	-10.7354
▁result	-10.7361
▁focus	-10.7362
▁ARE	-10.7372
▁super	-10.7382
▁Up	-10.741
que	-10.7413
▁songs	-10.7424
▁frogs	-10.7473
low	-10.7475
ARCH	-10.7486
▁enter	-10.7488
▁con	-10.7492
ier	-10.7493
▁ALL	-10.7504
▁release	-10.7516
▁APR	-10.753
BRU	-10.753
▁terror	-10.753
▁opportunity	-10.753
▁shining	-10.753
▁platform	-10.7531
▁woof	-10.7531
▁24,	-10.7531
▁nursery	-10.7531
▁ugly	-10.7531
▁production	-10.7531
▁carriage	-10.7531
▁Brother	-10.7532
▁Bones	-10.7532
▁Damn	-10.7532
▁grampa	-10.7532
▁Nyon	-10.7532
▁NOT	-10.7532
▁General	-10.7533
▁fusses	-10.7535
▁Vice	-10.7536
▁sold	-10.7537
▁weak	-10.7546
▁tough	-10.7549
▁Poor	-10.7549
▁becoming	-10.755
▁fairly	-10.7553
▁numbers	-10.7554
▁rushed	-10.7554
▁utter	-10.7558
ch	-10.7562
▁sides	-10.7564
▁2005	-10.7581
▁feathers	-10.759
▁El	-10.7593
▁rustles	-10.7597
io	-10.7607
▁Nat	-10.7607
▁Jo	-10.7622
▁4,	-10.7625
▁AN	-10.763
▁paying	-10.763
▁talks	-10.7647
▁HE	-10.7649
▁mothers	-10.7664
round	-10.7665
▁lad	-10.7666
▁dialect	-10.7676
▁1990	-10.7677
les	-10.7686
▁plain	-10.7687
▁rabbit	-10.769
▁erase	-10.7715
▁lean	-10.7727
RA	-10.7728
ET	-10.7766
tic	-10.7789
U	-10.7805
giggles	-10.7825
Just	-10.7829
American	-10.7829
▁cars	-10.7829
▁Put	-10.7833
▁BE	-10.7834
▁judge	-10.7848
▁travel	-10.7848
▁decide	-10.7848
▁Claus	-10.7856
▁prison	-10.7859
▁delicious	-10.7863
▁laboratory	-10.7864
▁Vagn	-10.7864
▁clever	-10.7864
▁presence	-10.7864
▁Freddy	-10.7864
▁Booth	-10.7864
▁Mexico	-10.7864
▁sleigh	-10.7864
▁garage	-10.7864
▁Dream	-10.7864
▁vast	-10.7864
▁odd	-10.7864
▁fortune	-10.7864
▁airport	-10.7864
▁Lake	-10.7865
various	-10.7866
▁Three	-10.7867
▁Markus	-10.7868
▁Italy	-10.7868
old	-10.7869
▁Ca	-10.7871
▁apparently	-10.7873
▁item	-10.7873
▁referr	-10.7876
▁hoping	-10.7876
▁yelling	-10.7878
▁concerned	-10.7886
ee	-10.7886
▁nearer	-10.7898
▁appropriate	-10.7899
▁hero	-10.7901
▁burned	-10.7903
SL	-10.7904
▁Y	-10.7907
▁leading	-10.7908
uh	-10.7916
▁dull	-10.7919
▁useful	-10.792
bel	-10.7924
▁pitched	-10.7935
▁pushing	-10.7955
1.8	-10.7962
▁papers	-10.7972
comes	-10.7982
cuse	-10.8032
▁benefit	-10.8036
▁section	-10.8046
ern	-10.806
▁wa	-10.8061
ro	-10.8069
▁Whil	-10.8069
board	-10.8078
▁tu	-10.8089
▁easter	-10.8102
▁Dur	-10.8106
ally	-10.811
▁recognize	-10.8111
▁total	-10.8114
▁killing	-10.813
▁2019.	-10.8147
ship	-10.815
▁revolution	-10.8153
▁events	-10.8158
▁discuss	-10.8164
just	-10.8169
some	-10.8173
continues	-10.8173
Of	-10.8173
with	-10.8179
means	-10.8183
▁budget	-10.8186
▁spill	-10.819
▁address	-10.8191
ka	-10.8194
▁chip	-10.8201
▁salt	-10.8203
▁inspector	-10.8209
▁Douglas	-10.8209
▁Government	-10.8209
▁WITH	-10.8209
▁butterfly	-10.8209
▁miserable	-10.8209
▁puppy	-10.8209
▁ridiculous	-10.8209
▁sprang	-10.8209
▁stomach	-10.8209
▁vehicle	-10.8209
▁drove	-10.8209
▁Louisiana	-10.8209
▁bodies	-10.8209
▁wastebasket	-10.8209
▁Besides	-10.8209
▁impossible	-10.8209
▁Ryan	-10.8209
▁performance	-10.8209
▁session	-10.8209
▁Spanish	-10.8209
▁Sharston	-10.8209
▁Elizabeth	-10.8209
▁expression	-10.8209
▁conductor	-10.8209
▁raise	-10.8209
▁Wow	-10.8209
▁planned	-10.821
▁understood	-10.8211
▁gentlemen	-10.8211
▁Charlie	-10.8212
▁BUT	-10.8212
▁suburb	-10.8214
▁traffic	-10.8214
▁Make	-10.8214
▁winning	-10.8215
▁Jones	-10.8215
▁smiling	-10.8216
▁pine	-10.8218
▁central	-10.8218
▁telephone	-10.8219
▁affected	-10.8219
▁loss	-10.822
▁produced	-10.8221
▁mentioned	-10.8226
▁candy	-10.8228
▁eaten	-10.8228
▁Shut	-10.823
▁whining	-10.8232
▁assistant	-10.8232
▁suffering	-10.8232
▁managed	-10.8233
▁Last	-10.8235
▁drawn	-10.8235
▁nurse	-10.8242
ung	-10.8242
▁apt	-10.8244
reache	-10.8245
▁Crimea	-10.8245
▁Earl	-10.8253
▁Bob	-10.8255
▁correct	-10.8264
▁forty	-10.827
▁tomato	-10.828
▁pre	-10.8286
▁mid	-10.829
▁Al	-10.8295
▁6,	-10.8305
▁16,	-10.8317
os	-10.8326
--"	-10.8328
▁LI	-10.8337
▁Goblin	-10.8373
▁Cousin	-10.8376
nut	-10.8383
▁bundle	-10.8384
▁Other	-10.8384
▁brownie	-10.8388
▁wee	-10.8404
▁figures	-10.8408
▁design	-10.8409
▁favor	-10.8418
▁refer	-10.8423
ial	-10.8461
VE	-10.8471
▁Chris	-10.8495
▁40	-10.8497
CE	-10.8504
K	-10.8521
▁Laugh	-10.8527
cries	-10.8529
begins	-10.853
Where	-10.853
baby	-10.8531
▁MR	-10.8532
▁MAN	-10.8532
year	-10.8537
two	-10.8537
▁instant	-10.8547
▁alphabet	-10.8549
▁respond	-10.8549
▁fires	-10.8549
▁honest	-10.855
▁perform	-10.8552
▁knee	-10.8562
▁Madam	-10.8563
▁specific	-10.8566
▁jelly	-10.8566
▁Scott	-10.8566
▁Congress	-10.8566
▁Contreras	-10.8566
▁amazing	-10.8566
▁companies	-10.8566
▁enemy	-10.8566
▁powder	-10.8566
▁intonation	-10.8566
▁Andrew	-10.8566
▁Health	-10.8566
▁property	-10.8566
▁countries	-10.8566
▁final	-10.8566
▁daisy	-10.8566
▁fiction	-10.8566
▁mistress	-10.8567
▁Jenny	-10.8567
▁funeral	-10.8567
▁knowledge	-10.8567
▁Hmm	-10.8567
▁theatre	-10.8567
▁compete	-10.8568
▁peel	-10.8568
▁Keep	-10.8569
▁recently	-10.8569
▁Yep	-10.8569
▁uhoh	-10.857
▁cabin	-10.8571
▁declared	-10.8571
▁willing	-10.8571
▁Next	-10.8572
▁Whatever	-10.8572
▁ooh	-10.8572
▁mass	-10.8572
▁Stay	-10.8573
▁mo	-10.8573
▁Nobody	-10.8574
▁awarded	-10.8575
▁firm	-10.8576
▁Try	-10.8577
▁parties	-10.8579
▁highest	-10.8579
▁score	-10.858
▁calls	-10.8585
▁Cha	-10.8587
▁boxes	-10.8587
▁forever	-10.859
▁western	-10.8595
▁kissed	-10.8597
▁ole	-10.8601
▁eighty	-10.8606
▁rolling	-10.8607
▁passing	-10.8616
▁younger	-10.8616
▁Vi	-10.862
▁Grand	-10.8623
▁forgive	-10.8633
▁organisations	-10.8639
▁wondered	-10.8639
▁suffer	-10.8659
▁sending	-10.8671
art	-10.8689
▁2021	-10.869
▁lights	-10.8695
▁hated	-10.8704
▁Fort	-10.8722
ri	-10.873
▁clicks	-10.8734
loud	-10.8743
▁purpose	-10.8753
▁homes	-10.8753
▁banana	-10.8754
▁click	-10.8756
▁breast	-10.8757
▁victim	-10.8759
▁issues	-10.8761
▁effect	-10.8763
▁sport	-10.8764
▁creature	-10.8766
▁peanut	-10.8766
▁beds	-10.8767
▁roads	-10.8798
▁Val	-10.8816
▁mile	-10.8873
▁14,	-10.8885
off	-10.8891
▁7,	-10.8892
Moudon	-10.8895
▁stretch	-10.8895
tape	-10.89
blue	-10.8901
▁INV	-10.8911
▁contact	-10.8913
▁pity	-10.8916
▁bless	-10.8921
▁thick	-10.8921
▁aw	-10.8922
▁leaf	-10.8923
▁coo	-10.8924
▁Prince	-10.8926
▁repeat	-10.8926
nd	-10.8928
▁broad	-10.8928
▁Island	-10.8929
▁Love	-10.8934
▁grand	-10.8935
▁SCROOGE	-10.8936
▁Russo	-10.8936
▁campaign	-10.8936
▁didldow	-10.8936
▁female	-10.8936
▁kangaroo	-10.8936
▁horrid	-10.8936
▁clown	-10.8936
▁Weener	-10.8936
▁shawl	-10.8936
▁ashamed	-10.8936
▁Boston	-10.8936
▁etc	-10.8936
▁windmill	-10.8936
▁utterance	-10.8936
▁firetruck	-10.8936
▁gentle	-10.8936
▁Bush	-10.8936
▁easier	-10.8936
▁thou	-10.8937
▁Peru	-10.8937
▁1960	-10.8937
▁farther	-10.8937
▁cities	-10.8937
▁Joseph	-10.8937
▁babies	-10.8937
▁possibly	-10.8937
▁kitty	-10.8937
▁comfortable	-10.8937
▁Japan	-10.8938
▁appointed	-10.8938
▁Everything	-10.8938
▁laughter	-10.8939
▁dangerous	-10.8939
▁dying	-10.8939
▁Nice	-10.894
▁therefore	-10.894
▁speed	-10.8941
▁plans	-10.8941
▁rising	-10.8942
▁OUT	-10.8944
▁Ohio	-10.8944
▁2000	-10.8946
▁hiding	-10.8947
▁nk	-10.8949
▁experiment	-10.8951
▁firmly	-10.8952
▁hill	-10.8956
▁mi	-10.8958
▁canal	-10.8962
▁ca	-10.8963
▁git	-10.8964
▁forgotten	-10.8971
▁1970	-10.8989
looks	-10.899
CLE	-10.8993
▁nu	-10.8993
▁wondering	-10.9007
▁acting	-10.9013
▁vegetables	-10.9018
▁holidays	-10.9032
AU	-10.9036
▁characters	-10.9053
▁fork	-10.906
▁bug	-10.9069
▁29,	-10.9072
▁breaking	-10.909
▁2006	-10.9091
▁pages	-10.9103
▁100	-10.9103
▁vote	-10.9106
washer	-10.9112
▁Work	-10.9121
▁fed	-10.9132
▁bicycle	-10.9137
▁shovel	-10.9138
▁advantage	-10.9139
▁condition	-10.9139
▁engine	-10.9142
▁ghost	-10.9145
▁weapon	-10.9146
▁ribbon	-10.9148
▁tribe	-10.9149
▁pool	-10.9149
▁style	-10.9149
▁adventure	-10.915
▁Su	-10.9156
▁20,	-10.9158
▁iron	-10.9163
▁mill	-10.9163
▁sa	-10.9174
Go	-10.9175
king	-10.9183
X	-10.9183
▁household	-10.9186
ins	-10.9204
▁Maria	-10.9221
▁Big	-10.9243
▁wing	-10.9254
▁sheep	-10.9265
▁walls	-10.9271
soft	-10.9278
critique	-10.9285
plastic	-10.9285
2.2	-10.9289
writes	-10.929
▁deliver	-10.9292
holding	-10.9292
▁faint	-10.9295
▁Wha	-10.9296
bye	-10.9304
▁complete	-10.9311
▁previous	-10.9315
▁grateful	-10.9316
▁Turn	-10.9316
▁cheap	-10.9316
ah	-10.9318
▁Aylmer	-10.9321
▁Fuzhou	-10.9321
▁Leavenworth	-10.9321
▁Oklahoma	-10.9321
▁activity	-10.9321
▁increase	-10.9321
▁Deputy	-10.9321
▁seventeen	-10.9321
▁hamburger	-10.9321
▁JUST	-10.9321
▁compound	-10.9321
▁energy	-10.9321
▁leap	-10.9321
▁Ireland	-10.9321
▁vice	-10.9321
▁Captain	-10.9322
▁Secretary	-10.9322
▁Special	-10.9322
▁flew	-10.9322
▁Film	-10.9323
▁otherwise	-10.9323
▁drama	-10.9323
▁Chinese	-10.9323
▁Cool	-10.9323
▁Remember	-10.9323
▁properly	-10.9323
▁gray	-10.9323
▁Marion	-10.9323
▁Snow	-10.9325
▁harm	-10.9325
Cause	-10.9325
▁male	-10.9326
stands	-10.9326
▁Cup	-10.9326
▁THERE	-10.9327
▁rode	-10.9327
▁active	-10.9328
▁passes	-10.9328
▁delivery	-10.9329
▁Move	-10.9331
▁shouted	-10.9333
▁jobs	-10.9334
▁fireplace	-10.9336
oh	-10.9338
▁ne	-10.9341
▁invited	-10.9341
▁mayor	-10.9343
▁loudly	-10.9344
▁Shit	-10.9345
▁Billy	-10.9345
▁hay	-10.9346
▁ok	-10.9347
▁11,	-10.9355
▁prove	-10.9356
▁bin	-10.9362
▁assure	-10.9373
da	-10.9374
ON	-10.938
▁friendly	-10.9383
▁23,	-10.9384
▁folks	-10.9386
▁streets	-10.9393
rely	-10.9394
▁besides	-10.9395
pose	-10.9397
ow	-10.9405
▁cheeks	-10.9406
ise	-10.9407
▁touched	-10.9424
▁heat	-10.9428
▁1995	-10.943
,000	-10.9439
▁sigh	-10.9446
Are	-10.9467
▁1994	-10.9484
Thank	-10.9493
▁disease	-10.9528
▁crawl	-10.9528
▁colour	-10.9528
▁umbrella	-10.9533
▁failure	-10.9533
▁rod	-10.9536
▁grandmother	-10.9539
▁manager	-10.9543
▁degree	-10.9545
▁doughnut	-10.9548
▁worm	-10.955
are	-10.9552
▁yo	-10.9557
going	-10.956
▁opening	-10.9587
▁knowing	-10.9587
ine	-10.9595
▁package	-10.9607
▁kinds	-10.9615
▁SO	-10.9619
line	-10.9619
▁ends	-10.9624
car	-10.9633
tally	-10.9639
▁Dog	-10.9644
▁banks	-10.9649
▁deaf	-10.965
throw	-10.966
ter	-10.9666
▁dump	-10.9667
▁compare	-10.9685
Jim	-10.9685
strange	-10.9685
when	-10.9685
▁fuss	-10.9687
Can	-10.9693
▁behave	-10.9695
▁rid	-10.9696
▁blast	-10.9696
▁fold	-10.9699
▁ding	-10.9704
▁process	-10.9704
▁advance	-10.9704
▁whistle	-10.9706
talks	-10.9712
▁strength	-10.9719
▁eleven	-10.972
▁dust	-10.972
▁Dutch	-10.972
▁1972	-10.9721
▁Melissa	-10.9721
▁Taiwan	-10.9721
▁afford	-10.9721
▁anniversary	-10.9721
▁opinion	-10.9721
▁pizza	-10.9721
▁science	-10.9721
▁telegram	-10.9721
▁Tokyo	-10.9721
▁conference	-10.9721
▁LOOK	-10.9721
▁cotton	-10.9721
mcee	-10.9721
▁Minley	-10.9721
▁basically	-10.9721
▁Kingdom	-10.9721
▁woke	-10.9721
▁Leland	-10.9721
▁Dude	-10.9721
▁pride	-10.9721
▁Philip	-10.9721
▁bench	-10.9722
▁conduct	-10.9722
▁guide	-10.9722
▁Southern	-10.9722
▁daily	-10.9722
▁risk	-10.9722
▁Police	-10.9723
▁Bozo	-10.9723
▁Kelly	-10.9723
▁staff	-10.9723
▁producer	-10.9724
▁sake	-10.9724
▁unknown	-10.9724
▁Square	-10.9724
▁Series	-10.9724
▁flow	-10.9726
▁Still	-10.9726
▁Everyone	-10.9728
▁intended	-10.9729
Both	-10.9729
▁upset	-10.9732
▁seal	-10.9732
▁officially	-10.9733
▁failed	-10.9736
▁anti	-10.9737
▁Dear	-10.9742
▁wildly	-10.9745
▁material	-10.9749
ROB	-10.9757
▁pan	-10.9766
▁attacked	-10.978
▁x	-10.9784
ad	-10.9786
▁$	-10.979
▁hurts	-10.9793
▁Di	-10.9796
ca	-10.9797
▁tests	-10.9801
▁propose	-10.9807
▁recording	-10.9807
▁closet	-10.9811
▁listened	-10.9823
▁ho	-10.9831
▁ba	-10.9837
▁17,	-10.9845
▁en	-10.9854
▁keeps	-10.9868
ted	-10.9879
3.5	-10.9891
▁tip	-10.9892
▁keeper	-10.9894
▁tumble	-10.99
ged	-10.9916
▁remain	-10.992
▁[7	-10.9923
▁sons	-10.9933
▁appreciate	-10.9935
nce	-10.9936
▁content	-10.9936
ns	-10.9948
▁negative	-10.9951
▁tire	-10.9953
▁stores	-10.9955
who	-10.9959
▁Easter	-10.9959
▁na	-10.996
▁driver	-10.9963
▁squirrel	-10.9963
TTLE	-10.9964
▁attend	-10.9965
▁Bu	-10.9968
▁laughs	-10.9983
▁artist	-11.001
▁nail	-11.0011
▁se	-11.0013
▁chop	-11.0013
ssed	-11.0015
▁Jan	-11.0026
▁32	-11.0032
2.5	-11.0037
▁CAN	-11.0066
▁refuse	-11.007
ent	-11.0071
▁Author	-11.0078
▁oops	-11.0081
writing	-11.0098
singsong	-11.01
Brown	-11.0101
horseshoe	-11.0102
EXP	-11.0102
from	-11.0102
silence	-11.0113
▁reward	-11.0116
▁claim	-11.0117
▁wine	-11.0123
▁boats	-11.0127
▁pa	-11.0127
Your	-11.0129
▁flash	-11.0129
▁decent	-11.0132
DIA	-11.0135
▁DAY	-11.0137
▁APHRODUCKY	-11.0137
▁easily	-11.0137
▁parrot	-11.0137
▁sponge	-11.0137
▁swingswing	-11.0137
▁studies	-11.0137
▁altogether	-11.0137
▁pork	-11.0137
▁Chair	-11.0137
▁neighborhood	-11.0137
▁STORY	-11.0137
▁Edition	-11.0138
▁diamond	-11.0138
▁midnight	-11.0138
▁relief	-11.0138
▁northern	-11.0138
▁vain	-11.0138
▁gettin	-11.0138
▁channel	-11.0138
▁pattern	-11.0138
▁Susan	-11.0138
▁Pacific	-11.0138
▁boyfriend	-11.0138
▁insurance	-11.0138
▁Corey	-11.0139
▁Wind	-11.0139
▁Bobby	-11.0139
▁occasionally	-11.0139
▁rapidly	-11.014
▁Betty	-11.014
▁float	-11.014
▁eraser	-11.014
▁Tommy	-11.014
▁Someone	-11.014
▁Loring	-11.0141
▁yup	-11.0141
▁José	-11.0141
▁Children	-11.0141
▁Today	-11.0142
▁resources	-11.0142
▁express	-11.0144
cient	-11.0146
▁gh	-11.0147
▁Club	-11.0147
▁slightly	-11.0149
▁remarked	-11.015
▁foolish	-11.0153
▁lack	-11.0156
▁ability	-11.0158
▁Justin	-11.0159
▁crawling	-11.016
▁suffered	-11.0162
▁addressed	-11.0163
▁bloody	-11.0163
jo	-11.0167
let	-11.0168
▁awfully	-11.0168
▁Care	-11.0177
▁painted	-11.0182
▁riding	-11.0183
To	-11.0186
▁stairs	-11.0189
▁sleepy	-11.0192
▁closely	-11.0194
▁Hall	-11.0195
▁crossed	-11.0205
ai	-11.0211
▁fully	-11.0213
▁Lu	-11.0219
▁SIS	-11.022
▁28,	-11.0221
▁bi	-11.0228
▁seated	-11.0233
▁22,	-11.024
▁visitors	-11.0247
▁buttons	-11.0264
▁Hunt	-11.0276
▁consider	-11.0277
▁hearing	-11.0277
lung	-11.0309
▁sounded	-11.0309
ke	-11.0313
▁fired	-11.0325
▁bugs	-11.0332
▁rag	-11.0336
rd	-11.0356
▁accept	-11.0358
▁results	-11.0366
▁Ra	-11.0373
▁trial	-11.038
▁slip	-11.0381
▁stem	-11.0381
▁rattle	-11.0385
▁occasion	-11.0387
▁rope	-11.0387
▁Catholic	-11.0388
▁changes	-11.0389
▁version	-11.039
▁farmers	-11.0391
▁source	-11.0393
▁orphan	-11.0395
▁envelope	-11.0395
▁clunk	-11.0397
▁cube	-11.0398
▁sock	-11.0406
▁mus	-11.041
side	-11.0421
▁showing	-11.044
▁author	-11.0457
▁Long	-11.048
▁bones	-11.0481
▁schools	-11.0514
▁mix	-11.0522
▁bou	-11.0522
▁mock	-11.0525
which	-11.0537
One	-11.054
▁arrows	-11.0541
bank	-11.0548
ably	-11.0549
▁roar	-11.0551
▁desert	-11.0551
where	-11.0552
▁pushe	-11.0553
▁mention	-11.0555
An	-11.0563
▁trail	-11.0569
▁sixteen	-11.057
ão	-11.0572
▁Arroniz	-11.0572
▁Britain	-11.0572
▁Family	-11.0572
▁Frosty	-11.0572
▁Furber	-11.0572
▁Humphrey	-11.0572
▁Mississippi	-11.0572
▁Probably	-11.0572
▁Thursday	-11.0572
▁crocodile	-11.0572
▁uniform	-11.0572
▁razor	-11.0572
▁Buckingham	-11.0572
▁College	-11.0572
▁federal	-11.0572
▁instance	-11.0572
▁skiff	-11.0572
▁responsibility	-11.0572
▁pail	-11.0572
▁Academy	-11.0572
▁clop	-11.0572
▁Group	-11.0572
▁clay	-11.0572
▁cellar	-11.0573
▁ejaculated	-11.0573
▁Jerry	-11.0573
▁expensive	-11.0573
▁Stephen	-11.0573
▁administration	-11.0573
▁parlor	-11.0573
▁safety	-11.0573
▁tennis	-11.0573
▁Valley	-11.0574
▁girlfriend	-11.0574
▁seventy	-11.0574
▁magician	-11.0574
▁boss	-11.0574
▁powerful	-11.0574
▁winner	-11.0575
▁Jimmy	-11.0575
▁finding	-11.0575
▁invasion	-11.0575
▁programme	-11.0575
▁drift	-11.0575
▁branches	-11.0576
▁African	-11.0576
▁whipped	-11.0576
▁native	-11.0576
▁fascinating	-11.0578
▁steamer	-11.0578
▁Mayor	-11.0578
▁Holy	-11.0578
▁SHE	-11.0579
▁Latin	-11.0579
▁DO	-11.058
▁marry	-11.058
▁entirely	-11.0582
▁developed	-11.0583
▁vision	-11.0584
▁messy	-11.0588
▁bored	-11.0589
▁setting	-11.059
▁coon	-11.059
▁treaty	-11.0591
ily	-11.0598
▁sum	-11.0599
▁dolly	-11.06
how	-11.0602
▁13,	-11.0606
▁Andy	-11.0607
▁parade	-11.0609
7.	-11.0616
▁imagined	-11.0617
Be	-11.0619
▁apologize	-11.0621
▁spit	-11.0623
▁ham	-11.0625
illon	-11.0631
▁belongs	-11.0632
▁Representatives	-11.0646
stern	-11.0648
▁reported	-11.0649
▁ideal	-11.065
▁media	-11.0652
▁ordered	-11.0658
au	-11.0668
▁weary	-11.0672
lia	-11.0675
▁catching	-11.0677
▁pushed	-11.0702
▁goal	-11.0703
▁nest	-11.0704
▁1.5	-11.0713
▁legal	-11.072
▁sorts	-11.0732
▁Lee	-11.0738
▁clunks	-11.0759
▁sticky	-11.0767
lic	-11.0769
▁bound	-11.0771
ac	-11.0775
il	-11.0778
remove	-11.0806
▁protests	-11.0812
▁Georgia	-11.0818
▁Da	-11.0819
▁ch	-11.082
▁cheer	-11.0825
▁exercise	-11.0839
hoo	-11.084
▁motorcycle	-11.0843
▁appearance	-11.0843
▁dude	-11.0846
▁kite	-11.0854
▁sale	-11.0857
ical	-11.0858
▁1987	-11.0872
▁1986	-11.0872
▁crackers	-11.0905
▁90	-11.0916
▁site	-11.0924
▁KNOW	-11.094
▁drip	-11.097
still	-11.0971
▁Norma	-11.0975
▁dolls	-11.0979
▁gaze	-11.0983
incorporated	-11.0988
Look	-11.0991
also	-11.0998
▁arrive	-11.1004
▁damage	-11.1009
▁shade	-11.1009
high	-11.1013
▁spare	-11.1013
▁international	-11.102
▁brief	-11.102
▁wicked	-11.102
▁fur	-11.1024
▁branch	-11.1025
▁Aunt	-11.1026
Poss	-11.1026
▁Christian	-11.1027
▁motion	-11.1027
▁Hydraulic	-11.1027
▁Maple	-11.1027
▁Shadow	-11.1027
▁Teddy	-11.1027
▁Whittaker	-11.1027
▁bastard	-11.1027
▁servant	-11.1027
▁society	-11.1027
▁studied	-11.1027
▁{\	-11.1027
▁memory	-11.1027
▁widow	-11.1027
▁horror	-11.1027
▁freedom	-11.1027
▁pumpkin	-11.1027
▁thirteen	-11.1027
▁incident	-11.1027
▁Katie	-11.1027
▁horrible	-11.1027
▁Hugo	-11.1027
▁Honey	-11.1027
▁dining	-11.1027
▁executed	-11.1027
▁swear	-11.1027
▁NOW	-11.1027
▁cash	-11.1027
▁Northern	-11.1027
▁Kevin	-11.1028
▁Matthew	-11.1028
▁ntuu	-11.1028
▁Everybody	-11.1028
▁ordinary	-11.1028
▁slept	-11.1029
▁UK	-11.1029
▁sixty	-11.1029
▁Mahdrusa	-11.1029
▁loving	-11.1029
▁journalist	-11.1029
▁1950	-11.103
▁everywhere	-11.103
▁yum	-11.103
▁bass	-11.1031
▁matches	-11.1031
▁Missus	-11.1031
▁racing	-11.1032
▁changing	-11.1033
▁create	-11.1034
▁OH	-11.1036
▁Jay	-11.1037
▁previously	-11.1037
▁settled	-11.1039
▁drops	-11.1045
▁Indiana	-11.1045
▁delightful	-11.1045
▁dresses	-11.1046
▁roller	-11.1046
▁illustrations	-11.1047
▁feelings	-11.1051
▁heap	-11.1054
▁shouting	-11.1054
▁uttered	-11.1055
26	-11.106
▁blows	-11.106
▁hearts	-11.1061
▁barking	-11.1062
▁route	-11.1062
▁spilled	-11.1062
▁ol	-11.1066
play	-11.1073
▁shortly	-11.1075
amp	-11.1077
▁beach	-11.108
▁rolled	-11.1081
sounds	-11.1085
▁Ya	-11.1086
▁moments	-11.11
▁asylum	-11.1109
shaped	-11.1112
▁stared	-11.1114
ward	-11.1137
noises	-11.1143
▁replace	-11.1143
▁returns	-11.1145
▁onion	-11.1146
▁jumping	-11.1149
▁armed	-11.1154
▁students	-11.1162
▁vol	-11.1162
onald	-11.1167
▁mines	-11.1172
▁ringing	-11.1172
▁8,	-11.1173
▁quarts	-11.1178
▁Got	-11.1187
▁actual	-11.1192
▁stands	-11.1192
▁Mmm	-11.1202
▁Ain	-11.1231
▁brush	-11.1232
▁25,	-11.1235
▁ribbons	-11.1236
▁swallow	-11.1268
▁thinks	-11.1268
▁plains	-11.1269
▁notion	-11.128
coming	-11.1281
boat	-11.1287
▁command	-11.1293
Mr	-11.1293
▁arrest	-11.1294
gain	-11.1296
▁chap	-11.1301
ped	-11.1303
▁clef	-11.1315
▁development	-11.1321
▁client	-11.1321
▁turkey	-11.1323
▁ticket	-11.1328
▁beer	-11.1328
▁Book	-11.1329
▁drugs	-11.1335
▁Sh	-11.1344
▁model	-11.1352
▁AS	-11.1355
▁RE	-11.1367
▁teams	-11.1369
▁2002	-11.137
▁lodge	-11.1376
▁wave	-11.1385
▁Donal	-11.1392
ors	-11.1393
▁feature	-11.1401
▁inter	-11.1432
2.3	-11.1438
▁sw	-11.1447
▁2020.	-11.1453
▁Am	-11.1459
talking	-11.1467
Little	-11.1467
Hello	-11.1468
▁steal	-11.1475
▁path	-11.1476
▁provide	-11.1481
drops	-11.1481
▁frighten	-11.1487
▁1985	-11.1494
▁cheerful	-11.1495
▁modern	-11.1496
▁curious	-11.1496
▁dreadful	-11.1496
▁practical	-11.1496
▁Australia	-11.1497
▁nervous	-11.1498
▁According	-11.1498
▁joint	-11.1498
▁Clip	-11.1498
2.4	-11.1499
▁Command	-11.1499
▁buffalo	-11.15
▁Far	-11.1501
▁split	-11.1501
▁drunk	-11.1502
▁admit	-11.1503
simultaneous	-11.1503
▁Gordon	-11.1503
▁Jeremy	-11.1503
▁Massachusetts	-11.1503
▁Professor	-11.1503
▁cottage	-11.1503
▁delicate	-11.1503
▁seldom	-11.1503
sh	-11.1503
▁buried	-11.1503
▁communist	-11.1503
▁Perro	-11.1503
▁bunch	-11.1503
▁Night	-11.1503
▁ladder	-11.1503
▁Northeast	-11.1503
▁Mouse	-11.1503
▁hollow	-11.1503
▁2004	-11.1503
▁marvelous	-11.1503
▁management	-11.1503
▁poetry	-11.1503
▁dotted	-11.1503
▁basketball	-11.1503
▁multiple	-11.1504
▁indicate	-11.1504
▁Chicago	-11.1504
▁Exactly	-11.1504
▁breeze	-11.1504
▁investigation	-11.1504
▁eighteen	-11.1504
▁standard	-11.1504
▁bacon	-11.1504
▁Elton	-11.1505
▁jail	-11.1506
▁Committee	-11.1506
▁climate	-11.1506
▁tobacco	-11.1506
▁choose	-11.1506
▁Karen	-11.1506
▁chosen	-11.1507
▁extremely	-11.1507
▁policeman	-11.1507
▁pepper	-11.1507
▁Welcome	-11.1508
0	-11.1508
▁Fielding	-11.1508
▁Master	-11.1508
▁invite	-11.1508
▁Hang	-11.1509
▁rocket	-11.1509
▁businessman	-11.1509
▁snowman	-11.1509
▁Edward	-11.1509
▁pry	-11.151
▁ugh	-11.151
▁saving	-11.151
▁briefly	-11.151
▁UP	-11.151
▁Show	-11.151
7/	-11.1511
▁tube	-11.1513
▁comedy	-11.1514
▁historical	-11.1516
▁merry	-11.1516
▁limited	-11.1522
blocks	-11.1523
▁crown	-11.1526
▁noble	-11.1526
▁dumped	-11.1529
▁Horne	-11.1529
▁represented	-11.1535
▁Ho	-11.1537
will	-11.154
ans	-11.1544
▁realized	-11.1545
▁Young	-11.1552
▁tame	-11.1557
▁aware	-11.1564
▁Sweets	-11.1576
▁earn	-11.1583
▁washing	-11.1594
▁oo	-11.1597
▁45	-11.1603
18	-11.1605
▁8:	-11.1606
Who	-11.1617
▁unit	-11.1626
ga	-11.1627
▁warn	-11.1628
gotten	-11.1629
▁blowing	-11.1631
▁tin	-11.1634
her	-11.1643
▁Pete	-11.1646
▁buying	-11.166
▁rang	-11.1671
▁Eric	-11.1679
posed	-11.1685
ville	-11.1686
▁aloud	-11.17
▁Villa	-11.17
▁tribes	-11.1723
▁hills	-11.1729
pos	-11.173
▁forces	-11.1739
▁cakes	-11.1741
▁aye	-11.1742
ling	-11.1758
ism	-11.1768
▁III	-11.1769
lew	-11.1776
▁services	-11.1794
▁Looks	-11.1796
▁discussion	-11.1811
▁flight	-11.1819
▁Spring	-11.1821
▁error	-11.1823
▁Picture	-11.1824
dy	-11.1828
▁glove	-11.183
▁Too	-11.1838
▁marker	-11.1839
▁article	-11.184
▁Tip	-11.1844
▁tracks	-11.1845
▁rules	-11.185
▁2003	-11.1861
▁divide	-11.1871
▁2017.	-11.1885
▁las	-11.1888
▁2008	-11.1896
▁sheet	-11.19
▁actions	-11.1915
▁signs	-11.1926
▁chickens	-11.1934
▁answers	-11.194
▁cows	-11.1947
▁Stu	-11.1948
▁breathe	-11.1955
▁dum	-11.1958
▁succeed	-11.1963
taps	-11.1964
&	-11.1967
box	-11.1968
▁pray	-11.1976
▁stole	-11.1976
▁launch	-11.1978
▁players	-11.1979
3.4	-11.1981
▁stock	-11.1986
▁secrets	-11.1986
▁defend	-11.1992
▁1996	-11.1993
onna	-11.1994
▁swift	-11.1994
▁scare	-11.1995
▁successful	-11.1996
Eve	-11.1998
▁brand	-11.1999
phone	-11.1999
▁tender	-11.1999
▁drag	-11.2001
▁Bolt	-11.2001
▁fox	-11.2001
LIS	-11.2002
▁percent	-11.2003
­	-11.2003
▁Edgewater	-11.2003
▁Hospital	-11.2003
▁Ocean	-11.2003
▁Parliament	-11.2003
▁activities	-11.2003
▁bulldozer	-11.2003
▁steak	-11.2003
▁muttered	-11.2003
▁Walrus	-11.2003
▁behavior	-11.2003
▁pudding	-11.2003
▁Check	-11.2003
▁raising	-11.2003
▁HOME	-11.2003
▁makin	-11.2003
▁latter	-11.2003
▁pantry	-11.2003
▁loaf	-11.2003
▁temperature	-11.2003
▁chih	-11.2003
▁Kyle	-11.2003
▁Middle	-11.2003
▁balcony	-11.2004
▁Irish	-11.2004
▁flesh	-11.2004
▁polish	-11.2004
▁RIGHT	-11.2004
▁victory	-11.2004
▁stopping	-11.2004
▁label	-11.2005
▁slice	-11.2005
▁Timor	-11.2005
▁alongside	-11.2005
▁thirsty	-11.2005
▁phrase	-11.2006
▁religious	-11.2006
▁serving	-11.2006
▁pressure	-11.2006
▁zone	-11.2006
▁Earth	-11.2006
▁melt	-11.2006
▁nothin	-11.2006
▁HIS	-11.2006
▁fairies	-11.2007
▁Nebraska	-11.2008
▁Basin	-11.2008
▁Happy	-11.2008
▁Without	-11.2008
▁Wallis	-11.2008
▁Open	-11.2008
▁ducks	-11.2009
▁dangl	-11.201
▁bitch	-11.201
▁1997	-11.201
▁papa	-11.2013
▁Ukrainian	-11.2013
▁Hurry	-11.2013
▁criticize	-11.2015
▁shy	-11.2017
▁approached	-11.2021
▁estimate	-11.2023
▁arranged	-11.2023
▁sadly	-11.2025
▁List	-11.2026
▁bent	-11.2027
▁laws	-11.203
▁warning	-11.2033
▁designed	-11.2033
▁thankyou	-11.2033
▁grab	-11.2037
$=2	-11.2039
▁rider	-11.205
▁Frank	-11.2051
▁Moon	-11.2063
▁1969	-11.2066
ened	-11.2077
▁10,	-11.2083
stein	-11.2085
▁cooked	-11.2096
▁shown	-11.2097
▁highly	-11.21
▁beans	-11.2106
▁Olympics	-11.2107
▁shooting	-11.2113
▁episodes	-11.2116
▁18,	-11.2116
▁Ask	-11.2119
▁cups	-11.2129
▁Home	-11.2136
▁winding	-11.2136
▁Free	-11.2142
un	-11.2157
ki	-11.2169
PA	-11.217
▁fl	-11.2175
▁rooms	-11.2179
▁referent	-11.2197
washers	-11.2199
▁doughnuts	-11.2225
ball	-11.2226
▁spelling	-11.2227
▁bat	-11.2234
▁Cat	-11.2235
▁sports	-11.2243
▁beg	-11.2279
▁types	-11.2289
▁grave	-11.229
ko	-11.2309
▁whispers	-11.2313
▁accus	-11.2319
▁sneeze	-11.2321
▁guard	-11.2323
noise	-11.2324
▁product	-11.233
▁elder	-11.233
▁candidate	-11.2336
▁grade	-11.2337
▁vi	-11.2341
▁individual	-11.2342
▁Malenda	-11.2342
▁drinks	-11.2342
▁attach	-11.2345
▁volume	-11.2347
▁equal	-11.2348
▁quart	-11.2348
▁task	-11.2353
▁habit	-11.2353
colored	-11.2357
▁customer	-11.2357
▁marble	-11.2359
▁cell	-11.236
made	-11.2363
▁civil	-11.2371
▁Out	-11.2387
▁Ab	-11.2392
li	-11.2393
▁comic	-11.24
▁map	-11.2405
▁ski	-11.2406
▁27,	-11.2406
dum	-11.2408
▁souther	-11.242
▁environmental	-11.2426
ard	-11.2433
▁according	-11.2441
▁alarm	-11.2448
▁2009	-11.2453
▁souls	-11.2465
▁Ka	-11.2482
▁gather	-11.2486
water	-11.249
▁appeal	-11.2491
whining	-11.2493
touches	-11.2493
video	-11.2493
Did	-11.2495
gives	-11.2497
five	-11.2499
▁direct	-11.2499
▁ry	-11.2506
▁fir	-11.2507
aa	-11.2508
▁defeat	-11.2508
▁Co	-11.2513
▁squeeze	-11.2517
ble	-11.2519
▁addition	-11.2521
▁pot	-11.2527
▁discover	-11.2529
▁Harvard	-11.2529
▁Second	-11.2529
▁beneath	-11.2529
▁celery	-11.2529
▁consignment	-11.2529
▁injuries	-11.2529
▁orchard	-11.2529
▁physical	-11.2529
▁puppies	-11.2529
▁wharf	-11.2529
▁ABOUT	-11.2529
▁Oblast	-11.2529
▁Internet	-11.2529
▁studio	-11.2529
▁WAS	-11.2529
▁parallel	-11.2529
▁romantic	-11.2529
▁furniture	-11.2529
▁yyy	-11.2529
▁dinghy	-11.2529
▁Pepper	-11.2529
▁sarcoma	-11.2529
▁Anhui	-11.2529
▁Kapoor	-11.2529
▁grey	-11.2529
▁lord	-11.2529
▁lazy	-11.2529
▁Golden	-11.253
▁Fitz	-11.253
▁unhappy	-11.253
▁necessarily	-11.253
▁Nancy	-11.253
ueva	-11.253
▁obliged	-11.253
▁interview	-11.253
▁microphone	-11.253
▁Football	-11.253
▁Guitar	-11.253
▁LIKE	-11.253
▁Zebedee	-11.253
▁skull	-11.253
▁giraffe	-11.253
▁literature	-11.253
▁Should	-11.253
▁Portugal	-11.253
▁vague	-11.253
▁maple	-11.2531
▁1980	-11.2531
▁oven	-11.2531
▁flute	-11.2531
▁purse	-11.2531
▁Willie	-11.2531
▁Jake	-11.2531
▁Goodbye	-11.2531
▁sang	-11.2531
▁OFF	-11.2532
▁Moreno	-11.2532
▁Elsa	-11.2532
▁knot	-11.2532
▁rustling	-11.2532
▁HOW	-11.2532
▁1982	-11.2533
▁gasped	-11.2533
▁Child	-11.2534
▁UDP	-11.2534
▁awake	-11.2534
▁bore	-11.2534
▁giant	-11.2534
▁Christopher	-11.2535
▁Seven	-11.2535
▁constantly	-11.2535
▁math	-11.2535
▁GET	-11.2536
▁shadow	-11.2536
▁interrupt	-11.2537
▁murmured	-11.2537
▁incredible	-11.2538
▁pregnant	-11.2538
▁throughout	-11.254
▁fireman	-11.2541
▁smoking	-11.2541
▁nodded	-11.2545
▁upper	-11.2546
▁signal	-11.2548
▁youngest	-11.255
▁Must	-11.255
▁Force	-11.2554
▁folded	-11.2557
▁paused	-11.2559
▁agent	-11.2563
▁Marie	-11.2566
▁suggested	-11.2569
▁healthy	-11.2572
▁clothing	-11.2572
▁lately	-11.2572
▁Jer	-11.2574
▁murdered	-11.2574
▁Brown	-11.2576
▁rude	-11.2577
▁tow	-11.2582
▁wise	-11.2582
▁touches	-11.2583
▁15,	-11.2589
▁dared	-11.2593
▁recall	-11.26
▁2014.	-11.2609
▁overlap	-11.2609
ox	-11.2616
ological	-11.2617
▁heels	-11.2619
▁ra	-11.262
▁vocalization	-11.2626
▁kin	-11.2629
ler	-11.2635
▁unusual	-11.2637
▁cleaning	-11.2641
▁bands	-11.2642
▁rare	-11.2643
▁stir	-11.2644
▁companions	-11.2667
▁2023	-11.2678
▁pure	-11.268
"?	-11.268
▁regions	-11.2682
▁2001	-11.2692
▁tales	-11.2698
▁Ta	-11.2701
▁runs	-11.2708
▁ways	-11.2711
▁[9	-11.2712
Is	-11.2739
▁Pop	-11.275
▁1968	-11.2751
▁crash	-11.2784
▁1992	-11.2788
▁aid	-11.2802
▁benefits	-11.2803
▁wi	-11.2805
▁Mel	-11.2811
▁rabbits	-11.2812
▁influence	-11.2818
▁GOT	-11.2821
▁cousins	-11.2832
ferring	-11.2835
▁snap	-11.2844
▁Car	-11.2848
▁pointing	-11.2848
▁Li	-11.285
▁prefer	-11.2854
▁Sea	-11.2862
▁apples	-11.2867
▁noted	-11.287
▁manners	-11.2879
▁2021.	-11.2881
▁limit	-11.2883
ó	-11.2883
▁island	-11.2885
▁jacket	-11.2891
▁activist	-11.2892
▁clatter	-11.2892
▁lobster	-11.2892
▁function	-11.2902
▁organization	-11.2903
▁states	-11.2906
▁murderer	-11.2906
▁restaurant	-11.2908
▁neighbor	-11.291
▁cock	-11.2913
▁tale	-11.2914
▁limb	-11.2917
▁pin	-11.2918
▁directions	-11.2919
▁poet	-11.292
trees	-11.292
▁ta	-11.2954
ger	-11.2956
▁needle	-11.2959
.’”	-11.297
▁twin	-11.2975
▁matters	-11.2992
▁Has	-11.2993
▁dive	-11.3003
too	-11.3007
▁Law	-11.301
field	-11.3017
ul	-11.3031
▁blind	-11.3036
▁fail	-11.3041
wait	-11.3045
construction	-11.3048
blows	-11.3049
office	-11.3049
▁Per	-11.3057
lt	-11.3058
▁collect	-11.3059
▁celebrate	-11.3068
▁desire	-11.3069
▁sorrow	-11.3071
▁contain	-11.3073
▁research	-11.3073
▁lick	-11.3077
▁environment	-11.3077
his	-11.3077
▁desperate	-11.3078
▁eager	-11.3078
▁boom	-11.3079
▁success	-11.308
▁sauce	-11.3081
▁BOY	-11.3082
¶	-11.3085
▁Abigail	-11.3085
▁Lucious	-11.3085
▁Portuguese	-11.3085
▁Taylor	-11.3085
▁agenda	-11.3085
▁brick	-11.3085
▁religion	-11.3085
▁zero	-11.3085
▁Region	-11.3085
▁piano	-11.3085
▁scheme	-11.3085
▁Edith	-11.3085
▁dungaree	-11.3085
▁awesome	-11.3085
▁Security	-11.3085
▁marriage	-11.3085
▁handkerchief	-11.3085
▁1925	-11.3085
▁Administration	-11.3085
▁1940	-11.3085
▁railway	-11.3085
▁industry	-11.3085
▁Institute	-11.3085
▁Mummy	-11.3085
▁Lyon	-11.3085
▁Berlin	-11.3085
▁mount	-11.3085
▁sissy	-11.3085
▁composed	-11.3086
▁connection	-11.3086
▁Polish	-11.3086
▁carrier	-11.3086
▁drank	-11.3086
▁torn	-11.3086
▁leetle	-11.3086
▁Dolly	-11.3086
▁definitely	-11.3086
▁buddy	-11.3087
▁Hope	-11.3087
▁Jackson	-11.3087
▁Huh	-11.3087
▁anxiety	-11.3087
▁HERE	-11.3087
▁Iris	-11.3088
▁Steven	-11.3088
▁fifth	-11.3088
▁protection	-11.3088
▁spark	-11.3088
▁packet	-11.3089
▁Ruth	-11.3089
▁Leave	-11.3089
▁electric	-11.309
▁Alice	-11.309
▁saucer	-11.309
▁ceased	-11.309
▁Melbourne	-11.309
▁golden	-11.3092
▁reality	-11.3092
▁tool	-11.3093
▁wherever	-11.3093
▁flies	-11.3096
▁uhuh	-11.3096
▁ouch	-11.3097
echo	-11.3098
▁2014)	-11.3098
ja	-11.3102
▁printing	-11.3102
▁Again	-11.3104
▁seriously	-11.3106
▁apartment	-11.3106
▁accepted	-11.3112
down	-11.3113
▁beats	-11.3114
▁belt	-11.3115
▁escaped	-11.3117
▁Che	-11.3121
▁clicking	-11.3122
▁gained	-11.3123
pulling	-11.3128
▁reasons	-11.3137
eyres	-11.3141
▁Sounds	-11.315
▁painting	-11.315
right	-11.3155
▁expecting	-11.3161
▁CO	-11.3161
▁Con	-11.3178
▁hop	-11.3186
▁su	-11.3191
ES	-11.3201
▁drawer	-11.3206
▁seasons	-11.3206
▁options	-11.3211
had	-11.3219
▁Hear	-11.3222
▁forest	-11.3227
▁Ze	-11.3228
▁Hills	-11.3241
▁shouts	-11.3241
▁surely	-11.3248
▁mustn	-11.3258
▁pins	-11.3263
▁fan	-11.3291
▁bearing	-11.3295
▁Helen	-11.3305
▁balloons	-11.3308
▁Men	-11.3316
aid	-11.3317
▁peanuts	-11.3354
po	-11.3363
▁covers	-11.3363
▁cases	-11.3374
ank	-11.3375
ham	-11.3379
▁attract	-11.3396
tree	-11.3399
▁Yo	-11.3411
back	-11.3421
▁Les	-11.3425
▁En	-11.3444
▁soldiers	-11.3457
▁coins	-11.3465
▁Star	-11.3465
LY	-11.3468
▁collar	-11.348
▁Van	-11.3483
▁symbol	-11.3485
▁principle	-11.3491
▁9:	-11.3497
▁Daniel	-11.3499
▁student	-11.35
iest	-11.3502
IN	-11.3514
2022)	-11.3521
▁drum	-11.354
▁bein	-11.3551
▁60	-11.3563
ring	-11.3566
▁Alex	-11.3566
▁plac	-11.3568
▁pigs	-11.3571
ik	-11.3572
▁pe	-11.3576
50	-11.3577
use	-11.3582
▁fields	-11.3592
▁Pe	-11.3607
flat	-11.361
▁owe	-11.3615
▁whip	-11.3619
▁Upp	-11.3623
▁crush	-11.3626
▁sew	-11.3628
▁target	-11.363
▁tricks	-11.363
+	-11.3633
▁approach	-11.3633
find	-11.3638
why	-11.3639
now	-11.3639
building	-11.3642
whispers	-11.3643
▁faith	-11.3644
▁deserve	-11.3654
▁pump	-11.3655
Z	-11.3656
▁bold	-11.3664
▁avoid	-11.3665
▁intense	-11.3665
▁enormous	-11.3666
▁charges	-11.3667
▁impatient	-11.3668
▁Julia	-11.367
▁Office	-11.3672
▁minor	-11.3673
▁Andrade	-11.3673
▁Catherine	-11.3673
▁Gowen	-11.3673
▁Montreal	-11.3673
▁Nintendo	-11.3673
▁Ubisoft	-11.3673
▁YEAH	-11.3673
▁concentrate	-11.3673
▁Haversham	-11.3673
▁Lawrence	-11.3673
▁cherries	-11.3673
▁Tomás	-11.3673
▁Association	-11.3673
▁GOOD	-11.3673
▁Urler	-11.3673
▁arrival	-11.3673
▁feeble	-11.3673
▁furnace	-11.3673
▁1962	-11.3673
▁Diane	-11.3673
▁hastily	-11.3673
▁duties	-11.3673
▁Pennsylvania	-11.3673
▁housing	-11.3673
▁cluster	-11.3673
▁priest	-11.3673
▁copper	-11.3673
▁silk	-11.3673
▁***	-11.3673
▁pennies	-11.3673
▁HIM	-11.3674
▁Apple	-11.3674
▁HER	-11.3674
▁independent	-11.3674
▁Native	-11.3674
▁theater	-11.3674
▁hidden	-11.3674
▁bushes	-11.3674
▁losing	-11.3674
▁Mori	-11.3674
▁Congratulations	-11.3674
▁Oregon	-11.3674
▁Sheriff	-11.3674
▁cmon	-11.3674
▁jam	-11.3674
▁genus	-11.3675
▁Chamber	-11.3675
▁Castelsarrasin	-11.3675
▁neuro	-11.3675
bo	-11.3676
▁Greek	-11.3676
▁pyramid	-11.3676
▁Chatter	-11.3677
▁jerk	-11.3677
▁Cook	-11.3677
▁chemical	-11.3677
▁shelf	-11.3677
▁vanished	-11.3678
▁insist	-11.3678
▁complicated	-11.3678
LE	-11.3679
▁elliot	-11.3679
▁Josh	-11.3679
▁folder	-11.3679
▁Ok	-11.3679
▁steady	-11.3679
▁Post	-11.3679
▁bitterly	-11.368
▁doorway	-11.368
▁Pope	-11.368
▁glow	-11.368
▁Baby	-11.3682
▁gravely	-11.3682
▁Wilks	-11.3683
▁Cold	-11.3684
▁Stacy	-11.3685
▁soap	-11.3686
▁normally	-11.3688
▁Arm	-11.369
▁sexy	-11.3694
▁succeeded	-11.3698
▁procession	-11.3698
▁Carry	-11.3699
▁average	-11.3701
▁cutting	-11.3703
▁None	-11.3707
wept	-11.3711
▁locked	-11.3713
▁hire	-11.3714
▁stretched	-11.3717
▁Wild	-11.3719
▁pigeons	-11.3721
▁removed	-11.3723
▁beep	-11.3731
only	-11.3734
ge	-11.3737
hands	-11.3742
▁whispering	-11.3744
▁guests	-11.3753
▁rank	-11.3759
▁boo	-11.3762
▁dreamed	-11.3763
sous	-11.3772
▁harder	-11.3773
▁Air	-11.3773
were	-11.3775
▁Alexand	-11.3786
▁stones	-11.3791
▁curl	-11.3791
▁2018.	-11.3794
▁lessons	-11.3808
▁bits	-11.3817
▁stamps	-11.3819
▁troubles	-11.384
27	-11.3843
▁seconds	-11.3846
▁Holly	-11.3847
▁Zoo	-11.3857
▁twins	-11.386
At	-11.386
▁dealing	-11.3864
▁presents	-11.387
▁products	-11.3872
▁gon	-11.3884
▁1967	-11.3885
tty	-11.3889
ntil	-11.3893
▁burnt	-11.39
21	-11.39
▁sales	-11.3906
▁needn	-11.3923
▁du	-11.3923
▁ideas	-11.3925
▁artists	-11.3926
▁squirrels	-11.3927
▁languages	-11.3953
▁22:	-11.3956
come	-11.3957
▁effects	-11.3962
▁sta	-11.3971
▁Bay	-11.3979
▁1974	-11.3982
▁36	-11.3991
▁cop	-11.4
▁patients	-11.4003
▁21:	-11.4004
▁tend	-11.4007
▁IV	-11.403
Me	-11.4045
▁15:	-11.4048
▁powers	-11.4051
place	-11.4066
▁affairs	-11.4069
▁Ye	-11.4069
▁scream	-11.4079
▁cough	-11.4094
▁Reservoir	-11.4105
▁26,	-11.4109
▁comment	-11.411
head	-11.4112
▁Simpson	-11.4114
▁photo	-11.4116
▁collection	-11.4121
▁contract	-11.4122
▁cart	-11.4123
▁towns	-11.4125
▁Boss	-11.4126
▁flu	-11.4127
▁dollar	-11.413
oop	-11.4131
▁pencils	-11.4134
▁17:	-11.4137
even	-11.4153
shed	-11.4171
▁snakes	-11.4179
▁dating	-11.4188
ever	-11.4198
▁hev	-11.4198
▁seek	-11.4198
▁Tri	-11.42
▁Cor	-11.4213
va	-11.4217
az	-11.4218
▁temper	-11.4222
chi	-11.4224
▁trap	-11.4225
arms	-11.4226
For	-11.4234
▁6:	-11.4236
▁hits	-11.4244
▁chill	-11.4247
designat	-11.4249
▁Hill	-11.4251
▁borrow	-11.4254
▁keys	-11.4255
have	-11.4256
buzzing	-11.4259
▁200	-11.4261
Poor	-11.4262
picture	-11.4262
Bro	-11.4263
three	-11.4263
EX	-11.4265
bi	-11.4266
▁zoo	-11.4273
▁Hawk	-11.4274
▁prop	-11.4275
pushe	-11.4277
▁shock	-11.4278
▁1988	-11.4278
▁1979	-11.4279
By	-11.428
▁Ba	-11.4281
▁settle	-11.4281
▁shine	-11.4284
▁handed	-11.4285
stack	-11.4286
▁peculiar	-11.429
▁stiff	-11.429
waves	-11.429
▁constant	-11.4291
▁comb	-11.4292
▁Africa	-11.4292
▁severe	-11.4292
▁produce	-11.4294
▁multi	-11.4295
▁Close	-11.4296
▁humble	-11.4296
▁WHO	-11.4297
▁bitter	-11.4297
▁confirm	-11.4298
▁false	-11.4298
▁Absolutely	-11.4298
▁Apparently	-11.4298
▁Between	-11.4298
▁Goddard	-11.4298
▁Lieutenant	-11.4298
▁Phoenix	-11.4298
▁Tuesday	-11.4298
▁awkward	-11.4298
▁competition	-11.4298
▁feast	-11.4298
▁increasing	-11.4298
▁trousers	-11.4298
▁Bambi	-11.4298
▁Jersey	-11.4298
▁entrance	-11.4298
▁dainty	-11.4298
▁quality	-11.4298
▁Miami	-11.4298
▁Alaska	-11.4298
▁heavily	-11.4298
▁idiot	-11.4298
▁apply	-11.4298
▁tadah	-11.4298
▁Municipality	-11.4298
▁1952	-11.4298
▁Division	-11.4298
▁escort	-11.4298
▁Food	-11.4298
▁sailboat	-11.4298
▁pursuit	-11.4298
▁COX	-11.4298
▁impeachment	-11.4298
▁opposition	-11.4298
▁forehead	-11.4298
▁Thanksgiving	-11.4298
▁possession	-11.4298
▁potty	-11.4299
▁Manning	-11.4299
▁towel	-11.4299
▁admitted	-11.4299
▁Also	-11.4299
▁Alfred	-11.4299
▁byebye	-11.4299
▁Sanders	-11.4299
▁emergency	-11.4299
▁insane	-11.4299
▁Buddy	-11.4299
▁creation	-11.4299
▁tummy	-11.4299
▁FBI	-11.4299
▁drain	-11.4299
▁Brutus	-11.4299
▁satisfaction	-11.4299
▁Except	-11.4299
▁Therefore	-11.4299
▁available	-11.4299
▁hopping	-11.43
▁lonely	-11.43
▁responsible	-11.43
▁pardon	-11.43
▁haha	-11.43
▁Lock	-11.43
▁southeast	-11.43
▁Later	-11.4301
▁Union	-11.4301
▁Instead	-11.4301
▁friendship	-11.4301
▁objection	-11.4301
▁Rider	-11.4301
sits	-11.4301
▁familiar	-11.4302
▁voluntary	-11.4302
▁occurred	-11.4303
▁receive	-11.4303
▁raid	-11.4303
▁imitate	-11.4304
▁george	-11.4304
▁commenced	-11.4304
▁Rocky	-11.4304
▁Five	-11.4304
▁Women	-11.4305
▁COME	-11.4305
▁caus	-11.4305
▁Finally	-11.4306
▁peep	-11.4306
▁directly	-11.4306
▁Australian	-11.4307
Jorat	-11.4307
▁pau	-11.4307
▁agreement	-11.4308
▁plus	-11.4308
▁begun	-11.4308
▁Rio	-11.4308
▁boiling	-11.431
▁whoever	-11.431
▁described	-11.4312
▁bay	-11.4312
▁patiently	-11.4312
▁yell	-11.4312
▁mood	-11.4312
▁Want	-11.4312
▁Dana	-11.4312
▁useless	-11.4314
▁anxiously	-11.4315
▁castle	-11.4315
▁connected	-11.4315
▁Such	-11.4316
▁Evans	-11.4316
▁MAKE	-11.4317
▁sharply	-11.4319
▁useta	-11.432
▁affix	-11.4322
▁ward	-11.4323
▁upright	-11.4325
objects	-11.4325
▁proved	-11.4326
▁deeply	-11.4327
▁Around	-11.4327
▁solve	-11.4329
▁cord	-11.433
▁soda	-11.4332
▁dim	-11.4336
▁monkeys	-11.4336
▁COL	-11.434
yard	-11.4345
▁cone	-11.4346
▁fuel	-11.4346
▁tearing	-11.4352
▁Grant	-11.4353
▁talkin	-11.4354
▁speakers	-11.4356
▁wiggle	-11.4362
▁raining	-11.4362
▁$10	-11.4368
▁Yet	-11.4369
FRE	-11.4371
▁steel	-11.4373
▁danced	-11.4375
taking	-11.4378
ana	-11.438
▁cute	-11.4385
▁rescue	-11.4398
▁killer	-11.4399
▁AH	-11.4401
▁14:	-11.4405
▁scientists	-11.4407
▁straighten	-11.4407
▁op	-11.4423
skin	-11.4424
▁staring	-11.4424
▁races	-11.4433
ol	-11.4435
▁Had	-11.4438
▁troubled	-11.4447
▁bags	-11.4452
▁Girls	-11.4453
▁sayin	-11.4459
mato	-11.4474
▁po	-11.4476
▁2012.	-11.4481
▁DREAM	-11.4484
▁EX	-11.4486
▁formal	-11.4493
occupied	-11.4495
▁neighbors	-11.4499
▁ink	-11.4504
ti	-11.451
▁wrappe	-11.4511
▁articles	-11.4522
hn	-11.4522
▁prime	-11.4529
▁Ford	-11.4545
▁cal	-11.4547
ery	-11.4553
▁lab	-11.4553
▁tent	-11.4554
▁nurs	-11.456
▁socks	-11.4566
▁1975	-11.4567
▁remains	-11.4569
▁waves	-11.457
der	-11.457
▁Francis	-11.4571
▁Sr	-11.4574
▁coloring	-11.4587
▁1998	-11.4596
▁11:	-11.4597
did	-11.4599
▁ou	-11.461
cy	-11.4617
▁Brun	-11.462
▁1941	-11.4632
ries	-11.464
ping	-11.4642
▁ages	-11.4644
mother	-11.4647
▁1964	-11.4652
▁rd	-11.4658
▁wo	-11.4665
▁alike	-11.4669
▁emotion	-11.4683
▁doo	-11.4691
▁noon	-11.4694
▁net	-11.4695
far	-11.4695
SI	-11.4702
▁Aren	-11.4713
00	-11.4716
▁34	-11.4719
▁fo	-11.4738
▁walks	-11.4738
▁shout	-11.4748
▁bolt	-11.475
boy	-11.4751
tell	-11.4762
▁Rose	-11.4768
▁novel	-11.4777
▁Darling	-11.4777
▁curtain	-11.4777
▁parcel	-11.4777
▁custom	-11.4781
▁woo	-11.4782
▁youth	-11.4784
▁estate	-11.4785
▁companion	-11.4791
▁movements	-11.4792
▁hundreds	-11.4795
▁holiday	-11.4796
▁visitor	-11.4797
▁Pro	-11.4797
▁stays	-11.4803
▁Bur	-11.481
▁Nico	-11.4818
▁favour	-11.483
▁crap	-11.4854
▁sometime	-11.4863
▁dang	-11.488
▁costs	-11.4882
▁tour	-11.4885
enne	-11.4902
▁compar	-11.4906
▁del	-11.4908
ich	-11.4908
▁chew	-11.4912
▁Wonder	-11.4918
▁disappear	-11.4921
BW	-11.4922
DOOR	-11.4924
fashioned	-11.4926
trochee	-11.4927
▁Play	-11.4928
bones	-11.4929
After	-11.4929
would	-11.493
March	-11.493
Tell	-11.493
shake	-11.493
Okay	-11.4931
riding	-11.4937
▁prepar	-11.4938
▁tick	-11.4941
making	-11.4944
▁1933	-11.4951
▁1939	-11.4951
▁2:	-11.4953
▁whee	-11.4956
▁jealous	-11.4957
▁generous	-11.4957
▁chin	-11.4958
▁painful	-11.4958
▁Royal	-11.4958
▁NEW	-11.4961
▁Asia	-11.4962
▁arrange	-11.4962
▁Huck	-11.4964
▁mornin	-11.4964
▁sittin	-11.4964
ensity	-11.4964
▁scrub	-11.4965
kokowk	-11.4965
▁Amanda	-11.4965
▁Audrey	-11.4965
▁Detroit	-11.4965
▁Feast	-11.4965
▁Katherine	-11.4965
▁Odawa	-11.4965
▁VALENTINE	-11.4965
▁burden	-11.4965
▁clasp	-11.4965
▁contrast	-11.4965
▁cultural	-11.4965
▁disposable	-11.4965
▁fancied	-11.4965
▁gesture	-11.4965
▁gorgeous	-11.4965
▁perfume	-11.4965
▁sorcerers	-11.4965
▁throne	-11.4965
▁Utah	-11.4965
▁innocent	-11.4965
▁Biography	-11.4965
▁Bishop	-11.4965
▁Ginny	-11.4965
▁obtain	-11.4965
▁teapot	-11.4965
▁underneath	-11.4965
▁nightmare	-11.4965
▁warrant	-11.4965
▁Poppy	-11.4965
▁regret	-11.4965
▁Greensburg	-11.4965
▁glue	-11.4965
▁numero	-11.4965
▁straw	-11.4965
▁happiness	-11.4965
▁1942	-11.4965
▁glory	-11.4965
▁Clear	-11.4965
▁Evelyn	-11.4965
▁Lewis	-11.4965
Vully	-11.4965
▁illegal	-11.4965
▁cunning	-11.4965
▁devil	-11.4965
▁Blood	-11.4965
▁Francisco	-11.4965
▁Plains	-11.4965
▁kit	-11.4965
▁treason	-11.4965
▁yummy	-11.4965
▁worn	-11.4965
▁Juan	-11.4965
▁determined	-11.4965
▁Fig	-11.4966
▁mike	-11.4966
▁fortnight	-11.4966
▁1936	-11.4966
▁rooster	-11.4966
▁salesman	-11.4966
▁portion	-11.4966
▁ethnic	-11.4966
▁refrigerator	-11.4966
▁gallop	-11.4966
▁coward	-11.4966
▁dragged	-11.4966
▁punch	-11.4966
▁scramble	-11.4966
▁Orleans	-11.4967
▁calf	-11.4967
▁valley	-11.4967
▁eeat	-11.4967
▁medical	-11.4967
▁Sky	-11.4967
▁agony	-11.4967
▁toilet	-11.4967
▁earnestly	-11.4967
RED	-11.4968
▁sweetie	-11.4968
▁cocoa	-11.4968
▁billion	-11.4969
▁Michigan	-11.4969
▁advise	-11.4969
▁plunged	-11.497
▁keen	-11.497
▁attorney	-11.4971
▁autumn	-11.4971
▁Story	-11.4971
▁Province	-11.4971
▁established	-11.4971
▁axe	-11.4971
▁stolen	-11.4972
tion	-11.4974
▁dreadfully	-11.4975
▁Might	-11.4975
▁proof	-11.4975
▁semi	-11.4975
MT	-11.4975
▁Hu	-11.4976
▁Ja	-11.4977
▁attitude	-11.4977
▁fussy	-11.4977
nyway	-11.4978
▁helpless	-11.4978
▁starred	-11.4978
▁ONE	-11.498
▁Swi	-11.498
▁Carly	-11.498
nything	-11.4981
▁Ar	-11.4983
▁rear	-11.4985
IVE	-11.4985
▁indicated	-11.4989
▁provided	-11.4989
▁difficulty	-11.4994
▁faster	-11.4998
▁37	-11.5
▁ache	-11.5003
▁Page	-11.5008
▁facts	-11.501
▁Short	-11.5014
OUR	-11.5015
▁persons	-11.5026
ot	-11.5031
▁Pu	-11.5033
▁19,	-11.5035
▁cries	-11.5038
▁charged	-11.5041
▁EXPs	-11.5043
▁complaints	-11.5044
▁1981	-11.5049
▁Cal	-11.5055
gging	-11.5056
▁Soon	-11.5056
oops	-11.506
▁bee	-11.5066
▁masks	-11.5068
▁brakes	-11.5069
▁dreaming	-11.5072
▁beating	-11.5075
▁presented	-11.5077
▁user	-11.5078
▁checker	-11.5087
▁theory	-11.5091
▁Commons	-11.5093
▁passengers	-11.5093
▁acted	-11.5098
til	-11.5098
▁covering	-11.5099
▁fractures	-11.5105
ou	-11.511
tail	-11.5113
▁sharpen	-11.5113
▁attacks	-11.5123
▁puff	-11.5129
▁Paula	-11.5132
uch	-11.5157
▁AT	-11.5167
▁inch	-11.5173
▁thousands	-11.5177
Or	-11.5177
chair	-11.5196
▁Ou	-11.5202
▁Sa	-11.5203
▁remark	-11.5207
▁30,	-11.5207
den	-11.5211
▁features	-11.5217
▁clam	-11.5222
▁Forge	-11.5223
▁st	-11.5241
▁cubes	-11.5242
ju	-11.525
boards	-11.5258
uses	-11.5262
▁display	-11.5277
▁weapons	-11.5279
▁minds	-11.5306
oz	-11.5311
As	-11.5313
▁pack	-11.5323
▁bo	-11.5336
▁lighted	-11.5351
▁items	-11.5356
magnets	-11.5382
▁elephants	-11.5393
▁moo	-11.5399
▁lt	-11.5405
▁Bent	-11.541
▁10:	-11.5418
look	-11.5426
▁print	-11.5427
ick	-11.5443
top	-11.5447
clunk	-11.5462
▁lands	-11.5462
▁blossom	-11.5473
▁Officer	-11.5478
▁stamp	-11.548
▁suspect	-11.5481
ack	-11.5482
▁chart	-11.5484
▁ocean	-11.5486
▁snack	-11.5486
▁operation	-11.5488
▁chick	-11.5491
▁sniff	-11.5493
▁kilo	-11.5493
▁officials	-11.5494
▁Marble	-11.5495
▁Thatcher	-11.5496
▁whale	-11.5496
▁sleeve	-11.5497
▁league	-11.5497
▁adult	-11.5497
▁shed	-11.5498
▁robe	-11.5498
▁method	-11.5498
▁stable	-11.55
▁lamp	-11.55
▁citizen	-11.55
▁savage	-11.5505
▁Girl	-11.551
▁jet	-11.5513
get	-11.5513
▁barrel	-11.5516
▁bomb	-11.5533
▁Ex	-11.5538
▁Carl	-11.5541
▁spin	-11.5543
▁35	-11.5551
▁rul	-11.5565
our	-11.5566
▁12:	-11.5568
▁hopes	-11.5574
▁mum	-11.5578
hone	-11.558
▁occur	-11.5583
▁Ro	-11.5584
▁Kame	-11.559
▁Grande	-11.5591
lift	-11.5594
▁Warn	-11.5596
▁slave	-11.5598
▁Ri	-11.56
▁causes	-11.5604
▁Lauren	-11.5606
▁Pat	-11.5606
gged	-11.561
▁rolls	-11.5617
▁despair	-11.5621
pretend	-11.563
▁shops	-11.5635
hal	-11.5635
CON	-11.5637
▁AM	-11.5637
mumbles	-11.5642
short	-11.5642
Dear	-11.5643
foot	-11.5643
August	-11.5643
whispering	-11.5643
June	-11.5644
life	-11.5644
New	-11.5644
screams	-11.5644
known	-11.5644
unclear	-11.5644
▁practise	-11.5649
sticks	-11.565
▁achieve	-11.565
▁relax	-11.5655
▁lend	-11.5655
▁coast	-11.5655
▁affect	-11.5658
▁92	-11.5658
nnual	-11.566
▁strip	-11.566
▁sin	-11.5661
Isn	-11.5661
▁march	-11.5662
Get	-11.5663
▁Feb	-11.5664
15	-11.5666
▁Back	-11.5666
▁1955	-11.567
▁swan	-11.5672
▁confused	-11.5675
▁Four	-11.5675
frigerator	-11.5677
▁nation	-11.5678
▁column	-11.5679
▁Audubon	-11.5679
(192,220)}	-11.5679
▁Debby	-11.5679
▁Emperor	-11.5679
▁Environment	-11.5679
▁Hurst	-11.5679
▁Labeija	-11.5679
▁chimney	-11.5679
▁equipment	-11.5679
▁eventually	-11.5679
▁matron	-11.5679
▁nuuw	-11.5679
▁screwdriver	-11.5679
▁sufficient	-11.5679
▁uncomfortable	-11.5679
▁Josie	-11.5679
▁exclamation	-11.5679
▁fantastic	-11.5679
▁gradual	-11.5679
▁summit	-11.5679
▁Conference	-11.5679
▁Ninja	-11.5679
▁chalk	-11.5679
▁Elliot	-11.5679
▁Virginia	-11.5679
▁estimator	-11.5679
▁sought	-11.5679
▁favourite	-11.5679
▁Always	-11.5679
▁steadily	-11.5679
▁ninight	-11.5679
▁description	-11.5679
▁solid	-11.5679
▁Dakota	-11.5679
▁Slam	-11.5679
▁farewell	-11.5679
▁permission	-11.5679
▁graham	-11.5679
▁recognise	-11.5679
▁Country	-11.5679
▁Nanna	-11.5679
▁Price	-11.5679
▁laig	-11.5679
▁chose	-11.5679
▁distribution	-11.5679
▁naughty	-11.5679
▁manufacturer	-11.5679
▁Executive	-11.5679
▁wheelchair	-11.5679
▁signature	-11.5679
▁compass	-11.568
▁suspended	-11.568
▁Fester	-11.568
▁Grandma	-11.568
▁Federal	-11.568
▁Summer	-11.568
▁Zach	-11.568
▁schedule	-11.568
▁thankful	-11.568
▁chasing	-11.568
▁Blackie	-11.5681
▁Navy	-11.5681
▁Potato	-11.5681
▁Reficul	-11.5681
▁sneak	-11.5681
▁valuable	-11.5681
▁oblast	-11.5681
▁screen	-11.5681
▁Czech	-11.5681
▁Chairman	-11.5681
▁1927	-11.5681
——"	-11.5681
▁diary	-11.5681
▁Columbia	-11.5681
▁madam	-11.5681
▁Zack	-11.5681
▁Tack	-11.5681
▁visible	-11.5681
▁meekly	-11.5681
▁sweater	-11.5681
▁Kato	-11.5682
▁shallow	-11.5682
▁hesitated	-11.5682
▁Carrie	-11.5682
▁Anderson	-11.5683
▁Ella	-11.5683
▁WILL	-11.5683
▁mobile	-11.5683
▁Julius	-11.5684
▁Anish	-11.5684
▁Kun	-11.5684
▁Marshall	-11.5685
▁worker	-11.5685
▁wretched	-11.5685
▁Shelly	-11.5685
▁Music	-11.5685
▁Rome	-11.5686
▁leather	-11.5686
▁skating	-11.5686
▁criminal	-11.5686
▁organized	-11.5686
▁flushed	-11.5686
▁DOG	-11.5687
▁punk	-11.5687
▁Rowdy	-11.5689
▁Tha	-11.5689
▁swiftly	-11.5689
▁Yoma	-11.5689
▁granted	-11.5691
▁Crow	-11.5691
▁Cry	-11.5694
▁tightly	-11.5696
▁lemm	-11.5698
▁hind	-11.5698
▁Records	-11.5699
▁Secrets	-11.5699
▁Princess	-11.57
▁quicker	-11.5701
▁tenor	-11.5702
▁Vol	-11.5702
▁trace	-11.5704
▁sewing	-11.5706
▁arose	-11.5706
▁Brenda	-11.5706
▁begged	-11.5709
▁gar	-11.571
▁immigrants	-11.5712
▁stealing	-11.5713
▁proudly	-11.5714
▁worthy	-11.5721
▁Working	-11.5721
▁Amy	-11.5731
▁debut	-11.5731
▁stockings	-11.5738
▁ble	-11.5746
ford	-11.5755
▁explained	-11.5756
▁par	-11.5759
▁[8	-11.5762
▁photographs	-11.5765
▁mos	-11.5765
▁agin	-11.5776
▁Mountains	-11.5778
▁li	-11.5782
▁1.6	-11.5783
aseball	-11.5785
star	-11.5785
▁GON	-11.5786
▁Bad	-11.579
▁Games	-11.5791
▁lions	-11.5791
ching	-11.5792
▁visited	-11.5797
makes	-11.5798
▁seeds	-11.5803
name	-11.5812
▁feared	-11.5815
▁neighbours	-11.5818
ba	-11.5829
ran	-11.5838
other	-11.5841
ying	-11.5842
dded	-11.5851
peg	-11.5853
j	-11.5866
ROM	-11.5866
▁barrels	-11.5867
eign	-11.5872
▁depends	-11.5881
plays	-11.5882
▁wards	-11.5884
▁kinda	-11.5896
▁nicely	-11.59
▁Mis	-11.5908
▁islands	-11.5919
town	-11.592
▁hid	-11.5922
▁customers	-11.5925
▁trained	-11.5929
ties	-11.5941
per	-11.5944
▁tickets	-11.5951
toy	-11.5959
stone	-11.5968
▁resting	-11.597
▁preferr	-11.5985
▁nails	-11.599
▁pans	-11.5998
vi	-11.6001
▁pools	-11.6018
hums	-11.6019
pe	-11.6029
rges	-11.6031
▁follows	-11.6051
▁whoop	-11.6062
cat	-11.6076
▁7:	-11.6077
▁mere	-11.608
▁creat	-11.6086
ius	-11.6088
").	-11.6096
▁dropp	-11.6103
▁meals	-11.6129
over	-11.6138
ig	-11.6143
ancy	-11.6147
▁pea	-11.615
▁seiz	-11.6153
▁messages	-11.6154
▁1971	-11.6158
ni	-11.6161
self	-11.6168
▁ac	-11.6168
THE	-11.6179
▁Marine	-11.6179
▁80	-11.6186
work	-11.6187
▁fights	-11.6192
word	-11.6207
committee	-11.6209
▁disc	-11.621
▁Lo	-11.622
▁exist	-11.6224
dopted	-11.6227
BE	-11.6229
▁load	-11.6234
▁combination	-11.6245
eyed	-11.6249
▁rat	-11.6251
▁Han	-11.6254
▁engineer	-11.6254
▁liar	-11.6256
37	-11.626
▁constable	-11.6265
▁passion	-11.6265
▁elbow	-11.6266
▁device	-11.6268
▁SEE	-11.6268
▁candle	-11.6269
▁root	-11.6272
▁sample	-11.6272
▁option	-11.6274
▁episode	-11.6275
▁poem	-11.6275
▁musician	-11.6275
▁Tree	-11.6275
▁vegetable	-11.6276
▁cheek	-11.6276
▁economic	-11.6277
▁parent	-11.6278
pa	-11.6285
▁cent	-11.6285
tor	-11.6286
▁lesson	-11.6288
▁backward	-11.6288
▁em	-11.6303
residential	-11.6306
▁chairs	-11.6317
▁southwest	-11.6319
▁2016.	-11.6327
▁brains	-11.6338
▁quarrel	-11.6346
▁ours	-11.6357
min	-11.6359
refer	-11.6365
▁sole	-11.6368
lapping	-11.6371
▁sn	-11.6374
reads	-11.6377
▁$1.	-11.6377
▁300	-11.6379
▁weigh	-11.638
▁asks	-11.638
▁Lou	-11.6383
▁ofthe	-11.6387
table	-11.639
▁broadcast	-11.64
▁triumph	-11.6401
▁sail	-11.6402
▁2015.	-11.6402
could	-11.6406
Gabbar	-11.6409
drawing	-11.6412
▁Mac	-11.6413
Paul	-11.6413
Page	-11.6414
▁Fe	-11.6414
July	-11.6416
Some	-11.6418
▁primar	-11.6419
▁Greg	-11.6421
appen	-11.6421
▁distress	-11.6424
▁Wel	-11.6426
▁42	-11.6426
Note	-11.6428
▁sink	-11.6428
▁twist	-11.6429
handed	-11.6429
▁guarantee	-11.643
▁spank	-11.6431
▁describe	-11.6431
port	-11.6435
▁1984	-11.6435
working	-11.6435
count	-11.6438
▁brilliant	-11.6439
▁furious	-11.6441
▁recent	-11.6443
▁mild	-11.6443
▁THANK	-11.6443
large	-11.6443
▁consist	-11.6444
▁Cass	-11.6445
▁administrati	-11.6447
▁witness	-11.6447
▁expert	-11.6448
▁CHRIST	-11.6448
▁Arthur	-11.6448
▁Colorado	-11.6448
▁Detective	-11.6448
▁Essert	-11.6448
▁Fairmount	-11.6448
▁Horse	-11.6448
▁OVER	-11.6448
▁Oxfordshire	-11.6448
▁Rafael	-11.6448
▁Territory	-11.6448
▁Thirty	-11.6448
▁Wichita	-11.6448
▁Zealand	-11.6448
▁allergic	-11.6448
▁essential	-11.6448
▁french	-11.6448
▁gleam	-11.6448
▁glimpse	-11.6448
▁porridge	-11.6448
▁security	-11.6448
▁supply	-11.6448
▁suspicion	-11.6448
▁terrific	-11.6448
▁tremendous	-11.6448
▁animated	-11.6448
▁happily	-11.6448
▁Medicine	-11.6448
▁Stokke	-11.6448
▁innkeeper	-11.6448
▁cloak	-11.6448
▁grinned	-11.6448
▁moomilk	-11.6448
▁Company	-11.6448
▁Madrid	-11.6448
▁potential	-11.6448
▁pronunciation	-11.6448
▁Turkey	-11.6448
▁Brandy	-11.6448
▁1973	-11.6448
▁jingle	-11.6448
▁palace	-11.6448
▁Radio	-11.6448
▁executive	-11.6448
▁hamster	-11.6448
▁Chicken	-11.6448
▁Member	-11.6448
▁wolf	-11.6448
▁Toyama	-11.6448
▁debt	-11.6448
▁1928	-11.6448
▁Flupper	-11.6448
▁Adrian	-11.6448
▁Premier	-11.6448
▁radiator	-11.6448
▁cattle	-11.6448
▁Harris	-11.6448
▁Knowles	-11.6448
▁vacation	-11.6448
▁entertainment	-11.6448
▁Assembly	-11.6449
▁fantasy	-11.6449
▁cancel	-11.6449
▁BACK	-11.6449
Lightspeed	-11.6449
▁Ready	-11.6449
▁Kix	-11.6449
▁ketchup	-11.6449
▁belief	-11.6449
▁tragedy	-11.6449
▁maze	-11.6449
▁chemistry	-11.6449
▁combat	-11.6449
▁diagnos	-11.6449
▁ARROWS	-11.6449
▁?[	-11.6449
▁grandson	-11.6449
▁Theatre	-11.6449
▁alma	-11.6449
▁flock	-11.6449
▁dairy	-11.6449
▁hostage	-11.6449
▁mustache	-11.6449
▁haul	-11.645
▁childhood	-11.645
▁choking	-11.645
▁runaway	-11.645
▁coke	-11.645
rès	-11.645
▁SOME	-11.645
▁Lincoln	-11.645
▁microwave	-11.645
▁chowder	-11.645
▁Director	-11.645
▁evidently	-11.645
▁popped	-11.645
▁LIFE	-11.645
▁saddle	-11.645
▁recommendation	-11.645
▁Davis	-11.645
▁brass	-11.645
▁sidewalk	-11.645
▁Mabel	-11.645
▁[4.5	-11.645
▁Unless	-11.645
▁fridge	-11.645
▁Patty	-11.645
▁mailman	-11.645
▁Near	-11.6451
▁Somebody	-11.6451
▁Atlanti	-11.6451
▁94	-11.6451
▁bap	-11.6451
▁oak	-11.6451
▁Battle	-11.6451
▁Leader	-11.6451
▁engage	-11.6451
▁tanker	-11.6451
▁stoop	-11.6451
▁dragon	-11.6451
▁dismay	-11.6452
▁behalf	-11.6452
▁Maine	-11.6452
▁tide	-11.6452
▁Ney	-11.6452
▁buffaloes	-11.6453
▁tuck	-11.6453
▁Senator	-11.6453
▁shaking	-11.6453
▁factory	-11.6453
▁Know	-11.6453
▁Orange	-11.6453
Cie	-11.6453
▁mouse	-11.6454
▁Order	-11.6454
▁politely	-11.6454
▁Euro	-11.6454
▁referee	-11.6455
▁educated	-11.6455
▁Mu	-11.6455
▁thoughtfully	-11.6455
▁Gay	-11.6456
▁Weather	-11.6456
▁annoyed	-11.6456
▁nickel	-11.6456
▁dig	-11.6457
▁sofa	-11.6457
▁Cross	-11.6457
▁mumbled	-11.6457
▁nearby	-11.6458
▁induced	-11.6458
▁Morning	-11.6458
▁maid	-11.6458
▁burp	-11.6459
▁booth	-11.6459
▁nonsense	-11.6459
▁proceeded	-11.6459
▁curiously	-11.646
Pretty	-11.6461
▁bishop	-11.6462
▁closing	-11.6462
▁1929	-11.6463
▁honestly	-11.6464
▁reflected	-11.6464
▁Neil	-11.6465
pelle	-11.6465
▁awhile	-11.6467
▁Tick	-11.6468
▁charming	-11.6469
ruz	-11.6471
▁Bach	-11.6477
▁port	-11.6478
▁wishes	-11.6478
▁Pine	-11.6478
▁secretly	-11.648
▁Age	-11.648
▁Plus	-11.6484
▁faithful	-11.6487
ural	-11.6487
▁safely	-11.6488
▁anger	-11.6488
▁Head	-11.6488
▁claimed	-11.6488
ida	-11.649
fish	-11.6491
▁Joey	-11.6493
▁responded	-11.6495
▁fore	-11.6495
▁robins	-11.6498
▁dime	-11.6501
▁hunted	-11.6506
▁aim	-11.651
▁Alma	-11.6515
▁kicked	-11.6519
▁longest	-11.6519
▁thy	-11.6519
▁nicer	-11.6525
▁Services	-11.6527
▁honored	-11.6529
▁watches	-11.6529
ohyl	-11.653
▁princess	-11.6533
▁camel	-11.6536
▁reign	-11.6541
▁era	-11.6543
▁1.8	-11.6545
▁Cole	-11.6557
▁web	-11.656
▁counting	-11.6561
▁Dal	-11.6561
▁appointment	-11.6564
▁Nations	-11.657
▁terrorists	-11.657
lin	-11.6581
ied	-11.6581
La	-11.6584
▁poke	-11.6588
ER	-11.6588
▁cared	-11.659
▁Arts	-11.6592
▁Par	-11.6594
▁stroke	-11.6597
▁prayers	-11.6599
any	-11.6599
▁clouds	-11.6613
▁hug	-11.6614
▁5:	-11.6615
▁poems	-11.6627
▁economics	-11.6627
▁bu	-11.6628
▁2011.	-11.6628
▁rats	-11.6629
▁[5.	-11.6631
▁dressing	-11.6636
▁Ten	-11.6639
▁savages	-11.6642
arrow	-11.6643
▁challenge	-11.6644
▁traces	-11.6644
▁12,	-11.6654
ington	-11.6658
▁knocking	-11.6671
▁74	-11.6682
▁visits	-11.6687
then	-11.6692
han	-11.6705
▁1.3	-11.6707
lets	-11.6715
▁Revolution	-11.6731
▁markers	-11.6732
▁awe	-11.6733
light	-11.6739
raz	-11.6742
▁Cay	-11.6751
▁ly	-11.6755
▁4:	-11.6759
▁nests	-11.6763
▁pies	-11.6772
▁1978	-11.6775
▁Sub	-11.678
US	-11.6802
▁fever	-11.6813
▁ghosts	-11.6816
▁mon	-11.6835
▁1995.	-11.6839
▁chat	-11.6846
▁concept	-11.6853
piece	-11.6876
ile	-11.6895
▁1966	-11.6918
tu	-11.6937
▁logs	-11.6947
ified	-11.6958
2.6	-11.6962
▁borders	-11.6978
▁speaks	-11.6983
leaning	-11.6986
0,000	-11.6988
▁ships	-11.6996
▁Son	-11.7001
ew	-11.7004
nick	-11.7017
▁fits	-11.7018
’”	-11.7034
here	-11.7036
▁guessing	-11.7037
▁forms	-11.7043
▁Du	-11.7051
▁disagree	-11.7052
▁Wak	-11.7054
▁longing	-11.707
▁cloud	-11.7073
▁GO	-11.7074
▁location	-11.7079
▁teachers	-11.7079
▁request	-11.7079
▁constitution	-11.7081
▁file	-11.7082
about	-11.7084
▁compliment	-11.7088
▁CAT	-11.7089
yo	-11.709
▁Nazi	-11.7091
▁champion	-11.7094
▁settlement	-11.7094
▁Tonsil	-11.7097
▁Science	-11.7103
▁Economic	-11.7103
▁relation	-11.7104
ay	-11.7104
▁instrument	-11.7104
▁Olympic	-11.7108
▁organisation	-11.711
▁rustle	-11.711
sound	-11.7114
ody	-11.7115
▁stranger	-11.7118
eat	-11.7119
sylum	-11.7136
▁Mal	-11.714
▁skill	-11.7142
▁Bear	-11.7145
mar	-11.7147
▁Fat	-11.7149
▁fracture	-11.7161
▁mids	-11.7165
ria	-11.7169
▁Pass	-11.7175
▁horizon	-11.7187
make	-11.7188
▁1989	-11.72
▁pat	-11.7202
stairs	-11.7212
▁develop	-11.7224
hearted	-11.7226
MAS	-11.7239
OTHER	-11.7239
FA	-11.724
Indeed	-11.7244
fast	-11.7245
With	-11.7246
April	-11.7246
storm	-11.7246
Fraser	-11.7246
please	-11.7246
Yeah	-11.7246
orange	-11.7247
▁steam	-11.7248
speaking	-11.7249
▁employ	-11.7251
shows	-11.7252
end	-11.7253
▁Talk	-11.7256
trying	-11.7257
▁groan	-11.7258
▁swor	-11.7259
▁investigate	-11.726
▁Use	-11.7263
▁require	-11.7266
▁swam	-11.7266
▁introduce	-11.7267
▁charm	-11.727
▁1977	-11.7271
▁fate	-11.7271
▁sack	-11.7273
▁Pen	-11.7274
▁Drop	-11.7274
▁mysterious	-11.7274
▁joking	-11.7275
starts	-11.7275
▁Oi	-11.7276
▁Thierr	-11.7276
camera	-11.7277
▁joyful	-11.7278
▁mattress	-11.7278
▁Pink	-11.7279
▁crutch	-11.7279
▁Goumo	-11.728
▁transfer	-11.7281
▁drape	-11.7281
▁whirl	-11.7282
▁Arapaho	-11.7282
▁Dartmoor	-11.7282
▁SFWA	-11.7282
▁Xtravaganza	-11.7282
▁sensible	-11.7282
▁syrup	-11.7282
SIGHS	-11.7282
pollution	-11.7282
▁1983	-11.7282
▁Aldithely	-11.7282
▁Amsterdam	-11.7282
▁Argentine	-11.7282
▁Arizona	-11.7282
▁Bangladesh	-11.7282
▁Correvon	-11.7282
▁Coventry	-11.7282
▁Cummings	-11.7282
▁Denezy	-11.7282
▁Facult	-11.7282
▁Festival	-11.7282
▁Gentlemen	-11.7282
▁Hamilton	-11.7282
▁Harvey	-11.7282
▁Leipzig	-11.7282
▁Martherenges	-11.7282
▁Montanaire	-11.7282
▁Moscow	-11.7282
▁Nikki	-11.7282
▁Peruvian	-11.7282
▁PlayStation	-11.7282
▁Safety	-11.7282
▁Scientist	-11.7282
▁Suddenly	-11.7282
▁Twenty	-11.7282
▁angrily	-11.7282
▁ceiling	-11.7282
▁immense	-11.7282
▁leisure	-11.7282
▁magnificent	-11.7282
▁mercy	-11.7282
▁policy	-11.7282
▁porch	-11.7282
▁precious	-11.7282
▁territory	-11.7282
▁variety	-11.7282
▁weasel	-11.7282
▁Alzheimer	-11.7282
▁Chanéaz	-11.7282
▁SOMETHING	-11.7282
▁Channel	-11.7282
▁Eminence	-11.7282
▁fetch	-11.7282
▁flood	-11.7282
▁popcorn	-11.7282
▁Under	-11.7282
▁boast	-11.7282
▁yacht	-11.7282
▁Corporation	-11.7282
▁shark	-11.7282
▁honour	-11.7282
▁Chuck	-11.7282
▁confidence	-11.7282
▁1976	-11.7282
▁Nadine	-11.7282
▁Norway	-11.7282
▁surgery	-11.7282
▁punishment	-11.7282
▁scholarship	-11.7282
▁appetite	-11.7282
▁internet	-11.7282
▁Semple	-11.7282
▁consciousness	-11.7282
▁Edgar	-11.7282
▁Nagata	-11.7282
▁salary	-11.7282
▁maintain	-11.7282
▁1931	-11.7282
▁legendary	-11.7282
▁nipple	-11.7282
▁territories	-11.7282
▁invention	-11.7282
▁limp	-11.7282
▁resignation	-11.7282
▁tiresome	-11.7282
▁muzzle	-11.7282
▁denied	-11.7282
▁grammar	-11.7282
▁Speak	-11.7282
▁crystal	-11.7282
▁unkind	-11.7282
▁bucks	-11.7282
▁tattoo	-11.7282
▁Center	-11.7282
▁Biden	-11.7282
▁shopping	-11.7282
▁Austin	-11.7282
▁Fairies	-11.7282
▁Carolina	-11.7282
Possens	-11.7282
▁Especially	-11.7282
▁inclined	-11.7282
▁sarcastic	-11.7282
▁disagreeable	-11.7282
▁Caroline	-11.7282
▁pussy	-11.7283
▁Owl	-11.7283
▁Roany	-11.7283
▁Supreme	-11.7283
▁worldwide	-11.7283
▁HEY	-11.7283
▁Cookie	-11.7283
▁1946	-11.7283
▁mummy	-11.7283
▁runnin	-11.7283
▁DOWN	-11.7283
▁defense	-11.7283
▁satisfied	-11.7283
▁whiny	-11.7283
▁Florry	-11.7283
▁MOBA	-11.7283
▁Norfolk	-11.7283
▁Scotland	-11.7283
▁concert	-11.7283
▁costume	-11.7283
▁economy	-11.7283
▁liability	-11.7283
▁secretary	-11.7283
▁squash	-11.7283
▁grasp	-11.7283
▁COULD	-11.7284
▁gentleman	-11.7284
▁Knight	-11.7284
▁rumor	-11.7284
▁Feel	-11.7284
▁Haut	-11.7284
▁gross	-11.7284
▁Korean	-11.7284
▁geese	-11.7284
▁creamery	-11.7284
▁personality	-11.7284
▁document	-11.7285
▁fake	-11.7285
▁Costa	-11.7285
▁alto	-11.7285
▁litera	-11.7285
▁nomination	-11.7285
▁committed	-11.7285
▁Princeton	-11.7285
▁Mandy	-11.7285
▁baked	-11.7286
▁73	-11.7286
▁pang	-11.7286
▁Southwestern	-11.7286
▁Airport	-11.7287
▁careless	-11.7287
▁Board	-11.7287
▁illusion	-11.7287
▁readily	-11.7287
▁Heaven	-11.7288
▁wig	-11.7288
▁examined	-11.7288
▁reserved	-11.7288
▁Sherry	-11.7288
anguish	-11.7289
▁THANKS	-11.7289
▁danny	-11.7289
▁Help	-11.7289
▁sickness	-11.7289
▁Kenneth	-11.729
▁Belize	-11.729
▁Dallas	-11.729
▁pupils	-11.729
▁Suppose	-11.7291
▁reasonable	-11.7291
▁reference	-11.7291
▁convinced	-11.7292
ub	-11.7292
▁Left	-11.7293
▁nominated	-11.7294
▁thar	-11.7294
▁brandy	-11.7294
▁WELL	-11.7296
▁Wom	-11.7297
▁racer	-11.7297
▁Tock	-11.7297
▁runner	-11.7298
▁Lovely	-11.7298
▁Mind	-11.7299
▁Lausanne	-11.7299
▁inquired	-11.73
mon	-11.73
▁code	-11.73
▁milkman	-11.7301
▁calmly	-11.7301
▁introduced	-11.7301
▁scraping	-11.7303
▁Down	-11.7305
▁anyhow	-11.7305
▁louder	-11.7305
▁JOHN	-11.7306
▁printed	-11.7307
▁amused	-11.7307
▁Fire	-11.7308
▁basement	-11.7308
▁sixth	-11.7308
▁lasted	-11.7309
▁Eh	-11.7309
▁OOH	-11.7309
▁nearest	-11.731
▁meantime	-11.7311
▁Sal	-11.7314
▁Walt	-11.7315
▁designer	-11.7317
▁Nora	-11.7317
▁Grannis	-11.7319
▁swallowed	-11.732
▁pills	-11.732
▁driven	-11.7325
▁tropic	-11.7326
▁completed	-11.7326
▁hardest	-11.7326
▁stronger	-11.7327
got	-11.7328
▁presenter	-11.7332
▁Ron	-11.7334
▁status	-11.7335
▁Corps	-11.7336
gi	-11.7337
▁advanced	-11.7338
▁entering	-11.7341
▁Hob	-11.7344
fully	-11.7345
▁screwed	-11.7347
▁wounded	-11.7348
▁promote	-11.735
▁award	-11.7351
▁dresser	-11.7351
▁competitors	-11.7352
▁Carlos	-11.7352
LOU	-11.7355
▁involve	-11.7358
▁buds	-11.7369
▁charit	-11.7381
▁attempted	-11.7385
▁HI	-11.7386
▁beautifully	-11.739
houses	-11.7391
▁goat	-11.7391
▁Juliet	-11.7392
Mar	-11.7392
rept	-11.7396
▁online	-11.7397
▁paddocks	-11.7398
▁offering	-11.7404
▁2009.	-11.7406
▁tooth	-11.7412
▁hurrying	-11.7412
30	-11.7414
▁bubbles	-11.7414
▁meme	-11.7415
▁1.7	-11.7417
▁testing	-11.7417
▁mare	-11.7425
▁bade	-11.7428
ver	-11.743
▁[$=2	-11.7437
▁lightly	-11.7439
▁toil	-11.7439
cent	-11.744
▁technical	-11.7444
▁comrades	-11.7445
▁hugg	-11.7451
▁Victoria	-11.7456
ita	-11.7458
▁cares	-11.7461
▁Haven	-11.7461
▁awards	-11.7463
▁dart	-11.7467
▁Est	-11.7475
▁roots	-11.7477
▁samples	-11.7477
▁candles	-11.7482
17	-11.7493
uck	-11.7495
▁Cl	-11.7509
du	-11.751
▁rail	-11.7512
▁lover	-11.7515
OR	-11.7519
▁comments	-11.7524
▁1993	-11.7536
▁mis	-11.7542
▁fans	-11.7546
▁Nicola	-11.7556
▁needles	-11.757
▁daughters	-11.7571
yes	-11.7578
ked	-11.7591
ization	-11.7597
ons	-11.7597
▁choppe	-11.7605
inspired	-11.7619
29	-11.7622
EN	-11.7626
▁hurting	-11.7648
ze	-11.7656
▁reports	-11.7658
▁Kar	-11.7663
nyone	-11.7665
25	-11.7666
▁plates	-11.7668
ional	-11.7669
ina	-11.7675
▁buildings	-11.7682
▁skip	-11.7682
▁Tim	-11.7683
▁Bar	-11.7696
▁Live	-11.7704
lion	-11.7708
▁mills	-11.7708
°	-11.771
▁chips	-11.7721
▁Lot	-11.7723
▁Ver	-11.7731
-2	-11.7734
HEN	-11.7749
▁Mad	-11.7753
bra	-11.7763
▁programs	-11.7763
wa	-11.7766
▁tap	-11.7766
▁efforts	-11.778
▁gang	-11.7781
▁trains	-11.7781
ass	-11.7788
ious	-11.7801
▁corners	-11.7803
ening	-11.7803
▁projects	-11.7828
▁Bring	-11.783
▁Were	-11.7831
▁prices	-11.7844
▁mast	-11.7846
gt	-11.7851
▁Va	-11.7854
▁tel	-11.7858
▁Vu	-11.7863
1967)	-11.7869
ALLY	-11.7871
natured	-11.7873
berg	-11.788
(	-11.7886
▁$2	-11.7886
_,	-11.7887
▁SUN	-11.7899
.'"	-11.79
▁sno	-11.7904
aged	-11.7909
1.9	-11.7932
▁crow	-11.7946
▁stops	-11.7947
fire	-11.7947
mer	-11.7955
▁insult	-11.7964
▁pond	-11.7981
▁Guard	-11.7987
▁fountain	-11.7988
▁coffin	-11.7988
▁bucket	-11.7988
▁shaft	-11.7989
▁reflection	-11.7989
▁Phillip	-11.7991
▁feather	-11.7994
▁1991	-11.7997
▁treatment	-11.7999
▁distinction	-11.8004
▁Bal	-11.8009
▁prune	-11.8013
▁deck	-11.8014
▁Twin	-11.8014
▁comrade	-11.8014
▁spots	-11.8015
▁neighbour	-11.8015
▁passenger	-11.8016
▁Common	-11.8021
▁detail	-11.8022
▁prayer	-11.8023
▁TI	-11.803
▁sword	-11.8034
▁2005.	-11.8048
▁caps	-11.8054
▁Silv	-11.8056
▁rip	-11.8067
▁graduat	-11.8074
▁mistakes	-11.8077
▁pathetic	-11.8077
▁1963	-11.8089
new	-11.8091
▁systems	-11.8091
▁lame	-11.8108
▁sp	-11.8112
CH	-11.8112
▁flip	-11.812
calling	-11.8129
▁slides	-11.813
▁purchase	-11.8137
▁Ink	-11.8138
cream	-11.8139
▁bull	-11.814
und	-11.8142
▁Del	-11.8142
imitating	-11.8143
indicating	-11.8143
▁Kim	-11.8145
▁eats	-11.8145
gna	-11.8147
Q	-11.8149
grab	-11.8153
mi	-11.8154
Will	-11.8155
horse	-11.8155
good	-11.8156
four	-11.8156
someone	-11.8157
War	-11.8158
string	-11.8159
because	-11.8161
▁roast	-11.8167
ities	-11.8168
related	-11.8168
▁frost	-11.8168
▁divorce	-11.8169
▁assist	-11.817
okay	-11.817
▁repair	-11.817
▁1951	-11.8172
nine	-11.8175
▁1945	-11.8175
▁retire	-11.8181
▁1957	-11.8181
▁Ow	-11.8181
▁gracious	-11.8182
▁solemn	-11.8182
▁creep	-11.8183
▁polite	-11.8183
▁fierce	-11.8183
▁Fair	-11.8184
▁prepare	-11.8185
▁undertake	-11.8185
▁exact	-11.8186
▁Need	-11.8186
▁mosquito	-11.8188
▁tax	-11.8188
▁peach	-11.8189
avier	-11.819
▁contest	-11.819
▁Road	-11.819
Rhin	-11.8191
fontaine	-11.8191
▁CHUNG	-11.8191
▁Research	-11.8191
Kickapoo	-11.8191
▁1958	-11.8191
▁Celia	-11.8191
▁Census	-11.8191
▁Episode	-11.8191
▁Flossie	-11.8191
▁Hooey	-11.8191
▁Jeff	-11.8191
▁MaryJane	-11.8191
▁Murray	-11.8191
▁Railroad	-11.8191
▁Vantablack	-11.8191
▁WHITTAKER	-11.8191
▁alkali	-11.8191
▁ballerina	-11.8191
▁barbecue	-11.8191
▁bubba	-11.8191
▁category	-11.8191
▁crisis	-11.8191
▁dinosaur	-11.8191
▁economist	-11.8191
▁explanation	-11.8191
▁exquisite	-11.8191
▁intelligent	-11.8191
▁mushrooms	-11.8191
▁presidency	-11.8191
▁significant	-11.8191
▁slender	-11.8191
▁velvet	-11.8191
▁wisdom	-11.8191
▁Bartlemy	-11.8191
▁Coast	-11.8191
▁Washburn	-11.8191
▁conceal	-11.8191
▁global	-11.8191
▁Jewell	-11.8191
▁Stadium	-11.8191
▁trash	-11.8191
▁JOEY	-11.8191
▁importance	-11.8191
▁streak	-11.8191
▁Civi	-11.8191
▁Fernando	-11.8191
▁Packard	-11.8191
▁recess	-11.8191
▁Already	-11.8191
▁Monster	-11.8191
▁splendor	-11.8191
▁Winter	-11.8191
▁ignorant	-11.8191
▁AGAIN	-11.8191
▁frame	-11.8191
▁possibility	-11.8191
▁Antonio	-11.8191
▁CONNIE	-11.8191
▁bathtub	-11.8191
▁deputy	-11.8191
▁mamma	-11.8191
▁Hayward	-11.8191
▁Prix	-11.8191
▁indication	-11.8191
▁Hurley	-11.8191
▁Pedro	-11.8191
▁baggage	-11.8191
▁Philippa	-11.8191
▁havin	-11.8191
▁guitarist	-11.8191
▁noisy	-11.8191
▁Vernon	-11.8191
▁Village	-11.8191
▁depression	-11.8191
▁waving	-11.8191
▁Rebecca	-11.8191
▁treble	-11.8191
▁disappointment	-11.8191
▁speedily	-11.8191
▁network	-11.8191
▁aggressive	-11.8191
▁retirement	-11.8191
▁Several	-11.8191
▁sacred	-11.8191
▁pirate	-11.8191
▁Sultan	-11.8192
▁deceived	-11.8192
▁Bremer	-11.8192
▁tease	-11.8192
▁Authority	-11.8192
▁Drink	-11.8192
▁givin	-11.8192
▁senior	-11.8192
▁SURE	-11.8192
▁northeast	-11.8192
▁abruptly	-11.8192
▁Marcus	-11.8193
▁Spirit	-11.8193
▁sensitive	-11.8193
▁Geography	-11.8193
▁Marino	-11.8193
▁TRIP	-11.8193
▁Panda	-11.8193
▁Gordi	-11.8193
▁Gray	-11.8193
▁Half	-11.8193
▁Maggie	-11.8193
▁angle	-11.8193
▁Season	-11.8193
▁adoption	-11.8193
▁LET	-11.8193
▁reply	-11.8194
ned	-11.8194
▁sunny	-11.8194
▁Station	-11.8194
▁1949	-11.8194
▁Tra	-11.8195
▁Lisa	-11.8195
▁relieved	-11.8195
▁mama	-11.8195
▁Tomorrow	-11.8195
▁Isa	-11.8195
▁Water	-11.8195
▁unsuccessfully	-11.8195
▁Fern	-11.8195
▁transport	-11.8196
▁rival	-11.8196
▁1947	-11.8196
▁independence	-11.8196
▁suppress	-11.8196
nods	-11.8196
▁NCAA	-11.8196
▁Spencer	-11.8196
▁agency	-11.8196
▁context	-11.8196
▁crinkling	-11.8196
▁Hard	-11.8196
▁humming	-11.8196
▁Through	-11.8196
▁kidney	-11.8196
▁arbutus	-11.8197
▁knitt	-11.8197
▁shone	-11.8197
▁observed	-11.8198
▁faded	-11.8198
▁startled	-11.8198
▁TAKE	-11.8198
▁extended	-11.8198
▁Dart	-11.8199
▁Speaker	-11.8199
ntai	-11.82
▁Biddle	-11.82
▁stress	-11.82
▁toxin	-11.82
▁Push	-11.82
▁trailer	-11.82
▁sweetheart	-11.82
▁politics	-11.82
▁Commander	-11.8201
▁severely	-11.8201
▁Keeper	-11.8202
▁Sara	-11.8202
▁desperately	-11.8202
▁wholly	-11.8203
▁approved	-11.8203
▁STOP	-11.8203
▁hopeless	-11.8203
▁elderly	-11.8203
▁Bowling	-11.8204
▁cheerfully	-11.8204
▁Vincent	-11.8206
▁Donna	-11.8206
▁warmth	-11.8207
▁wandered	-11.8208
▁annoying	-11.8208
▁scan	-11.8209
▁wealth	-11.821
▁sector	-11.821
law	-11.821
▁required	-11.8211
▁ashes	-11.8214
▁thrilling	-11.8215
▁Inez	-11.8216
▁twisted	-11.8216
▁loyal	-11.8218
▁News	-11.8219
▁mistaken	-11.8219
▁pitcher	-11.8219
▁union	-11.822
▁packed	-11.822
▁highway	-11.8221
▁Doesn	-11.8221
▁Wasn	-11.8221
▁[16	-11.8224
▁criticism	-11.8224
▁secure	-11.8226
▁naturally	-11.8226
▁Land	-11.8228
▁Perform	-11.8228
▁defeated	-11.8228
god	-11.8229
▁Song	-11.8229
▁Lind	-11.823
▁Indeed	-11.8232
▁moral	-11.8232
▁Horrors	-11.8234
▁CD	-11.8235
▁lawn	-11.8236
▁remaining	-11.8241
▁ashore	-11.8243
▁instructions	-11.8251
▁jewels	-11.8251
▁jammies	-11.8253
▁welcomed	-11.8259
▁FIN	-11.826
▁nowhere	-11.8261
ek	-11.8262
▁herd	-11.8263
▁clearing	-11.8263
wants	-11.8267
▁hoots	-11.8268
▁53	-11.8272
▁Bless	-11.8277
▁Ti	-11.828
▁sch	-11.8282
zo	-11.8292
▁horizontal	-11.8295
▁spears	-11.8302
▁pretended	-11.8306
24	-11.831
▁sooner	-11.8311
bag	-11.8313
distributed	-11.8313
▁Boys	-11.8316
▁banging	-11.8317
ette	-11.8318
▁grubs	-11.8319
▁crops	-11.8324
▁ge	-11.8324
ated	-11.8325
▁lifting	-11.8326
ros	-11.833
▁listed	-11.8331
▁grabb	-11.8334
apping	-11.8334
▁images	-11.8336
▁relatives	-11.8336
▁torture	-11.8339
▁returning	-11.8341
▁crossing	-11.8343
UM	-11.8347
▁trolls	-11.8353
eux	-11.8354
▁scrap	-11.8355
80	-11.8362
▁Spe	-11.8364
▁Hand	-11.8366
▁differently	-11.8371
ets	-11.8371
▁breaks	-11.8376
▁gaz	-11.8385
ber	-11.8389
▁recorded	-11.8391
▁lit	-11.8396
▁Gramm	-11.84
▁riches	-11.8401
▁landing	-11.8402
▁lookin	-11.8403
▁forming	-11.8406
▁distan	-11.8417
▁stake	-11.8426
▁Ken	-11.8429
▁Gar	-11.8436
away	-11.8446
▁sings	-11.8449
▁Sand	-11.8452
▁2002.	-11.8457
▁fa	-11.8459
▁workers	-11.8461
▁elections	-11.8462
bird	-11.8485
▁Pr	-11.8488
▁partly	-11.8491
▁restaurants	-11.8493
▁clatters	-11.8493
▁habits	-11.8509
▁1.4	-11.8515
▁gloves	-11.8527
SE	-11.8529
▁feller	-11.8533
ane	-11.8534
▁Ko	-11.8547
▁coats	-11.8548
▁Fu	-11.8548
▁Mont	-11.8549
Man	-11.8552
▁Mick	-11.8558
▁envelopes	-11.858
▁orphans	-11.8582
▁goals	-11.8583
▁VI	-11.8588
▁bounce	-11.86
▁votes	-11.8601
▁oppos	-11.8604
▁materials	-11.8604
▁remov	-11.8605
▁pace	-11.8605
rk	-11.8612
▁degrees	-11.8616
fe	-11.8621
▁Simon	-11.8622
▁Var	-11.8642
▁Islands	-11.8646
▁dings	-11.8648
▁boil	-11.8649
▁fears	-11.8676
ories	-11.868
▁nurses	-11.8683
sen	-11.8688
▁BIG	-11.8689
▁75	-11.8695
▁howl	-11.8696
boiled	-11.8696
▁Ni	-11.8697
▁airplanes	-11.8698
tes	-11.8707
IRST	-11.8718
▁1994.	-11.8719
▁Part	-11.8722
▁concerns	-11.8723
▁jokes	-11.8723
▁tons	-11.8729
▁Cara	-11.8735
body	-11.8737
ook	-11.8756
▁villages	-11.8757
dog	-11.8759
▁Times	-11.8761
▁gu	-11.8771
▁Art	-11.8773
▁scenes	-11.8776
eno	-11.8786
▁orders	-11.8786
hand	-11.879
▁writers	-11.8796
▁Ga	-11.8804
▁controll	-11.8808
▁TIME	-11.8813
▁connect	-11.8816
2.9	-11.8829
▁tar	-11.8829
▁Years	-11.8839
ave	-11.884
▁com	-11.8849
▁1993.	-11.8872
▁Gu	-11.8876
▁crowds	-11.8903
▁heel	-11.8907
▁ro	-11.8935
▁tastes	-11.8937
▁albums	-11.8938
thing	-11.8939
▁organ	-11.8947
▁ending	-11.8954
mond	-11.8956
point	-11.8958
ame	-11.8966
book	-11.8968
▁Victor	-11.8976
ome	-11.8978
▁Rock	-11.898
▁stain	-11.8981
mpression	-11.8985
▁van	-11.8987
▁valentine	-11.8988
▁commercial	-11.8988
▁representative	-11.8988
▁culture	-11.8988
▁digging	-11.8988
▁tunnel	-11.8988
rry	-11.8992
▁Auxon	-11.8998
▁propeller	-11.8998
jake	-11.8998
▁automobile	-11.9003
▁legend	-11.9003
▁skirt	-11.9006
▁Clock	-11.9007
▁volunteer	-11.9009
▁flame	-11.9009
▁pistol	-11.9011
▁prizes	-11.9011
▁Animal	-11.9011
▁caterpillar	-11.9012
▁beast	-11.9012
▁disaster	-11.9012
▁butcher	-11.9015
▁scientist	-11.9016
▁Ray	-11.9017
ations	-11.9017
▁Representative	-11.9018
▁scale	-11.9019
▁painter	-11.902
▁troll	-11.9023
▁define	-11.9024
▁gum	-11.9032
found	-11.9034
▁88.	-11.9039
▁folk	-11.9041
▁spirits	-11.9041
▁76	-11.9055
▁profit	-11.9062
atsu	-11.9063
hr	-11.9077
▁shirts	-11.908
▁MA	-11.9082
ular	-11.9091
▁É	-11.9092
▁Bl	-11.9102
▁Gott	-11.9118
▁fella	-11.912
click	-11.9127
▁doctors	-11.913
page	-11.9138
▁marks	-11.9138
guer	-11.9138
tar	-11.9139
END	-11.9142
▁bliss	-11.9143
CDP	-11.9143
▁poison	-11.9145
Ville	-11.9146
▁hip	-11.9148
standing	-11.9149
sneezes	-11.9151
Champvent	-11.9151
loft	-11.9152
criticism	-11.9154
▁elect	-11.9154
cloth	-11.9155
school	-11.9155
hawk	-11.9155
January	-11.9155
perhaps	-11.9155
September	-11.9155
drinks	-11.9155
walk	-11.9156
metal	-11.9157
enough	-11.9159
Because	-11.9159
think	-11.9159
dropped	-11.916
▁patch	-11.9163
master	-11.9163
goin	-11.9164
▁mini	-11.9166
▁leak	-11.9167
▁pinch	-11.9167
On	-11.9167
▁quiver	-11.9167
▁consent	-11.9168
section	-11.9168
ashed	-11.9168
▁reflect	-11.9169
▁separate	-11.9169
▁distinguish	-11.9169
Far	-11.917
▁survey	-11.9171
rilla	-11.9173
▁dawn	-11.9178
may	-11.9179
▁peak	-11.9181
▁rates	-11.9182
▁assume	-11.9182
▁gloom	-11.9183
▁basic	-11.9184
▁apparent	-11.9184
▁fright	-11.9185
▁peaceful	-11.9185
▁organis	-11.9185
▁Personal	-11.9185
▁Poli	-11.9187
OULD	-11.9188
▁Dun	-11.9189
▁alcohol	-11.919
▁superior	-11.919
▁Addams	-11.919
▁Social	-11.919
▁Martín	-11.9191
Drosophila	-11.9191
¡	-11.9191
▁Bairnsdale	-11.9191
▁Benjamin	-11.9191
▁Cincinnati	-11.9191
▁Colonel	-11.9191
▁Diandros	-11.9191
▁Education	-11.9191
▁Gibson	-11.9191
▁Globe	-11.9191
▁Jewelweed	-11.9191
▁MONEY	-11.9191
▁Norwegian	-11.9191
▁Ronnette	-11.9191
▁Sakaguchi	-11.9191
▁Shindo	-11.9191
▁Skau	-11.9191
▁Sophie	-11.9191
▁Sweden	-11.9191
▁THINK	-11.9191
▁Vietnam	-11.9191
▁Zetterstrom	-11.9191
▁academic	-11.9191
▁bodily	-11.9191
▁candidac	-11.9191
▁ceramic	-11.9191
▁congratulate	-11.9191
▁decorative	-11.9191
▁england	-11.9191
▁entitle	-11.9191
▁goddard	-11.9191
▁monument	-11.9191
▁nowadays	-11.9191
▁oyster	-11.9191
▁parameter	-11.9191
▁railroad	-11.9191
▁rubbish	-11.9191
▁solution	-11.9191
▁struggling	-11.9191
▁sunglasses	-11.9191
▁technique	-11.9191
▁terribly	-11.9191
▁wigwam	-11.9191
▁Cambridge	-11.9191
▁Patten	-11.9191
▁TALK	-11.9191
▁Vanceboro	-11.9191
▁combined	-11.9191
▁decline	-11.9191
▁discipline	-11.9191
▁Stonewall	-11.9191
▁Wallace	-11.9191
▁imitation	-11.9191
▁scotch	-11.9191
▁screenwriter	-11.9191
▁violent	-11.9191
▁$400	-11.9191
▁Gomez	-11.9191
▁Trust	-11.9191
▁arriving	-11.9191
▁categories	-11.9191
▁governess	-11.9191
▁soxer	-11.9191
▁carrot	-11.9191
▁awoke	-11.9191
▁Columbus	-11.9191
▁Joshua	-11.9191
▁Baker	-11.9191
▁Ozaki	-11.9191
▁grapefruit	-11.9191
▁swordfish	-11.9191
▁Nicholas	-11.9191
▁warrior	-11.9191
▁Cathy	-11.9191
▁astonishment	-11.9191
▁examination	-11.9191
▁affectionate	-11.9191
▁basis	-11.9191
dorff	-11.9191
▁Nail	-11.9191
▁Design	-11.9191
▁latitude	-11.9191
▁naked	-11.9191
▁conclusion	-11.9191
▁ribs	-11.9191
▁chrom	-11.9191
▁Independence	-11.9191
▁instinct	-11.9191
▁Dyson	-11.9191
▁Leonor	-11.9191
▁happier	-11.9191
▁leopard	-11.9191
▁permitted	-11.9191
▁wistfully	-11.9191
▁Warren	-11.9191
▁PAGE	-11.9191
▁yourselves	-11.9191
▁muttering	-11.9191
▁BOOK	-11.9191
▁canvas	-11.9191
▁Larry	-11.9191
▁meadow	-11.9191
▁underground	-11.9192
▁instruct	-11.9192
▁Argentina	-11.9192
▁gaily	-11.9192
▁injured	-11.9192
▁Flag	-11.9192
▁Ki	-11.9192
▁lagoon	-11.9192
▁minority	-11.9192
▁Liz	-11.9192
▁surrounded	-11.9192
▁france	-11.9192
▁hump	-11.9192
▁vase	-11.9192
▁cabinet	-11.9192
▁scoop	-11.9192
▁Lenny	-11.9192
▁bury	-11.9192
▁1935	-11.9192
▁Wright	-11.9192
▁lump	-11.9192
▁edition	-11.9192
▁Stine	-11.9192
▁blank	-11.9192
▁1948	-11.9192
▁Kerry	-11.9193
▁ceremony	-11.9193
▁occupation	-11.9193
▁Carney	-11.9193
▁spigot	-11.9193
▁Charlotte	-11.9193
▁Israel	-11.9193
▁Meanwhile	-11.9193
▁Throat	-11.9193
▁rotten	-11.9193
▁convenience	-11.9193
▁Turkish	-11.9193
▁Clover	-11.9193
▁indent	-11.9193
▁Foundation	-11.9193
▁Annette	-11.9193
▁Touch	-11.9193
▁whiskey	-11.9193
▁jar	-11.9194
▁Bible	-11.9194
▁DID	-11.9194
▁Commissioner	-11.9194
▁warden	-11.9194
▁Clay	-11.9194
▁taunting	-11.9194
▁Lari	-11.9194
▁Thus	-11.9195
▁infected	-11.9195
▁Excellent	-11.9195
▁nutter	-11.9195
▁heartily	-11.9195
▁offence	-11.9195
▁difficulties	-11.9196
▁Ru	-11.9196
▁agreeable	-11.9196
▁unfortunately	-11.9196
▁labor	-11.9196
▁inspection	-11.9197
▁wailing	-11.9197
▁invented	-11.9198
▁editor	-11.9198
▁Athletic	-11.9198
▁Rial	-11.9198
▁revealed	-11.9199
Ain	-11.9199
▁firemen	-11.9199
▁approximately	-11.92
Have	-11.92
▁honk	-11.92
▁forbid	-11.92
▁Pinky	-11.92
▁BOYS	-11.92
▁Rainbow	-11.9201
▁craft	-11.9201
▁honorable	-11.9201
▁abandoned	-11.9201
▁pantaloons	-11.9201
▁restless	-11.9201
▁fist	-11.9201
▁Nope	-11.9202
▁impressed	-11.9202
their	-11.9202
Peters	-11.9202
▁boldly	-11.9203
▁talented	-11.9203
▁quid	-11.9204
▁illness	-11.9204
▁mumbling	-11.9204
▁pioneer	-11.9204
▁rage	-11.9205
▁Dick	-11.9205
▁slavery	-11.9205
▁breakers	-11.9206
▁Dead	-11.9206
▁Mor	-11.9206
▁practically	-11.9206
▁exception	-11.9206
▁Kay	-11.9207
clearly	-11.9208
▁ruined	-11.9208
▁splashing	-11.9208
▁Find	-11.9209
▁faintly	-11.921
▁perched	-11.921
▁cam	-11.9211
▁instantly	-11.9211
aw	-11.9213
▁wandering	-11.9213
▁latest	-11.9214
sexual	-11.9216
▁someplace	-11.9216
▁behold	-11.9217
lè	-11.9219
▁caution	-11.9227
▁loading	-11.9227
▁targeting	-11.923
▁kindness	-11.9232
lots	-11.9232
▁repeatedly	-11.9232
▁crashed	-11.9234
▁whistled	-11.9235
▁gathering	-11.9237
▁widely	-11.9237
▁brushing	-11.9241
▁Wouldn	-11.9242
▁ruler	-11.9247
▁trochee	-11.9248
▁MEAN	-11.925
outed	-11.9252
returns	-11.9263
▁Nicky	-11.9265
say	-11.9265
▁fishes	-11.9267
▁Centre	-11.9267
▁jogg	-11.9271
▁el	-11.9271
celle	-11.9275
▁Fa	-11.9276
▁Affairs	-11.9276
▁residents	-11.9276
▁walnuts	-11.9276
▁ducky	-11.9286
▁kissing	-11.9292
▁ET	-11.9294
▁insects	-11.9295
▁Whoa	-11.9297
▁Sit	-11.9298
▁rent	-11.9304
▁BC	-11.9307
▁peers	-11.9312
▁Sai	-11.9313
▁playin	-11.9315
▁rap	-11.9316
922	-11.9318
▁thread	-11.9325
ully	-11.9328
▁spoons	-11.933
▁mumbles	-11.9331
birds	-11.9338
4.4	-11.9344
hall	-11.9345
▁intend	-11.9355
STON	-11.9363
▁hitch	-11.9366
▁breathed	-11.9367
▁OR	-11.938
▁hail	-11.9381
His	-11.9388
▁Twins	-11.9391
ab	-11.9395
ov	-11.9397
cats	-11.94
▁relations	-11.941
▁linger	-11.9412
▁FI	-11.9413
▁cleaned	-11.9414
such	-11.9416
▁Heh	-11.9418
▁2008.	-11.9421
▁strokes	-11.9429
▁backwards	-11.943
▁Trees	-11.9432
▁Exe	-11.9438
▁pockets	-11.9439
▁loads	-11.944
uf	-11.9441
▁Bon	-11.9449
▁blossoms	-11.9452
▁Fran	-11.9452
▁waters	-11.9452
▁metals	-11.9457
▁sob	-11.9462
ap	-11.9467
balls	-11.9476
▁bottles	-11.9477
ck	-11.9482
▁Belle	-11.9483
▁contracts	-11.9487
▁collections	-11.9488
▁Done	-11.9491
dry	-11.9498
lmost	-11.9503
▁Seem	-11.9504
tacks	-11.9505
San	-11.9512
▁alley	-11.9513
▁Mi	-11.9519
▁Theis	-11.9521
ID	-11.9524
▁reject	-11.9524
▁Ring	-11.9527
▁bro	-11.9537
▁Yue	-11.9541
▁rides	-11.9542
din	-11.9543
▁screams	-11.9544
▁cells	-11.9546
▁tasks	-11.9549
▁cr	-11.9552
▁handy	-11.9556
lar	-11.9561
▁ketch	-11.9566
▁tense	-11.957
13	-11.9582
LES	-11.9587
▁79.	-11.9596
cap	-11.9599
TELL	-11.9599
▁Fo	-11.9607
▁kites	-11.9608
EEN	-11.9615
▁Jon	-11.9627
cking	-11.9632
ALL	-11.9644
ines	-11.9648
▁Gran	-11.9648
nuts	-11.9651
▁Dogs	-11.966
continental	-11.9664
▁Fin	-11.9684
▁understanding	-11.9689
▁closes	-11.9695
▁victims	-11.9703
▁praise	-11.9706
▁slid	-11.9706
see	-11.971
▁Pal	-11.9722
▁wagg	-11.9723
neu	-11.9735
ex	-11.9736
▁Te	-11.9759
▁Tre	-11.9759
▁financi	-11.9768
▁views	-11.979
▁questioning	-11.9802
▁uncles	-11.9802
▁blankets	-11.9802
▁mates	-11.9803
roy	-11.9808
▁horns	-11.9812
▁gi	-11.9818
ila	-11.9827
ut	-11.9828
▁Birds	-11.9829
▁Gr	-11.984
itn	-11.9865
▁Un	-11.9867
▁Wo	-11.9874
▁Base	-11.9877
▁DE	-11.988
▁provinces	-11.9882
oul	-11.9891
000	-11.9916
▁bears	-11.9916
▁origin	-11.9918
▁Las	-11.9936
▁struggles	-11.9942
▁Bra	-11.9945
▁dre	-11.9946
▁Nova	-11.9947
▁distinct	-11.9956
▁Pre	-11.9991
▁Mc	-12.0011
▁amen	-12.0013
▁bra	-12.0017
fied	-12.002
90	-12.0024
loved	-12.0024
▁pets	-12.0034
▁Bir	-12.0037
WARD	-12.0041
race	-12.0041
hold	-12.0045
▁graph	-12.0046
give	-12.0052
term	-12.0054
ci	-12.0055
▁$=	-12.0055
▁Ve	-12.0061
▁prince	-12.0076
lying	-12.0083
oon	-12.0086
▁Ge	-12.0087
▁2013.	-12.0089
▁96	-12.0093
▁shilling	-12.0099
▁vocal	-12.0099
▁tank	-12.0105
▁77	-12.0105
▁cushion	-12.0106
▁frank	-12.0107
70	-12.0108
▁structure	-12.0109
▁procedure	-12.0109
▁intention	-12.0109
▁amusement	-12.0109
▁invitation	-12.0111
▁cigarette	-12.0114
▁seats	-12.0116
▁blade	-12.0117
▁mule	-12.0118
▁taxi	-12.0119
▁Democrat	-12.0121
▁preparation	-12.0122
under	-12.0124
▁relative	-12.0125
▁image	-12.0125
▁yards	-12.0126
▁bubble	-12.0126
▁brake	-12.0126
laden	-12.0127
▁Sweet	-12.0128
▁terrorist	-12.013
▁Game	-12.0131
▁Kid	-12.0131
▁verse	-12.0133
▁comp	-12.0133
ang	-12.0135
▁Fall	-12.0137
▁aunt	-12.0137
▁senator	-12.0137
▁additional	-12.014
▁grounds	-12.014
handing	-12.0142
ADE	-12.0145
▁186	-12.0155
gether	-12.0164
▁ew	-12.0164
cher	-12.0172
▁[11	-12.018
non	-12.0186
▁experiences	-12.019
▁70	-12.0195
▁38	-12.02
▁Marks	-12.0205
West	-12.0207
▁spoil	-12.0207
▁huhu	-12.0211
▁33	-12.0212
▁parted	-12.0217
ks	-12.0218
oral	-12.0218
elle	-12.0221
▁wire	-12.0225
▁Nov	-12.0226
▁grows	-12.0232
TED	-12.0239
draws	-12.024
▁98	-12.024
member	-12.024
▁inquir	-12.025
▁receiv	-12.0251
Bill	-12.0257
complete	-12.0257
eaux	-12.0258
Vennes	-12.0259
view	-12.0263
election	-12.0264
full	-12.0265
OOH	-12.0265
indicate	-12.0266
CHAPTER	-12.0266
Sometimes	-12.0266
Perhaps	-12.0266
February	-12.0266
Colin	-12.0266
December	-12.0266
November	-12.0266
Please	-12.0266
crying	-12.0266
Jack	-12.0266
actually	-12.0266
Maybe	-12.0267
Sorry	-12.0267
gie	-12.0267
person	-12.0268
Once	-12.027
beat	-12.027
May	-12.0271
Ha	-12.0272
▁thrill	-12.0272
ST	-12.0272
Every	-12.0273
02	-12.0274
▁crest	-12.0276
▁consume	-12.0276
▁embarrass	-12.0278
▁shudder	-12.0279
▁betray	-12.0279
▁expand	-12.0281
war	-12.0281
▁sweep	-12.0282
▁abuse	-12.0282
carrie	-12.0283
band	-12.0284
▁Woo	-12.0288
▁darn	-12.0288
▁1954	-12.0289
ivar	-12.0293
▁operat	-12.0293
▁gobble	-12.0294
▁Croatia	-12.0294
▁guilt	-12.0294
▁stout	-12.0295
ography	-12.0295
▁torment	-12.0295
nflict	-12.0296
▁relate	-12.0296
▁passionate	-12.0297
counting	-12.0298
▁flour	-12.0298
▁recommend	-12.0299
▁Final	-12.0299
▁Kev	-12.03
▁progress	-12.03
▁confront	-12.0301
▁plea	-12.0301
▁wrath	-12.0301
presso	-12.0301
▁glide	-12.0301
▁uncertain	-12.0301
▁routine	-12.0302
▁satisfy	-12.0302
▁thorough	-12.0302
Chiasmocleis	-12.0302
IBLE	-12.0302
Scinax	-12.0302
▁Boleyn	-12.0302
▁Bulgaria	-12.0302
▁Cleveland	-12.0302
▁Cuninghame	-12.0302
▁García	-12.0302
▁Goldrush	-12.0302
▁Hampshire	-12.0302
▁Kojima	-12.0302
▁Measles	-12.0302
▁Meshkov	-12.0302
▁Nebula	-12.0302
▁PARTY	-12.0302
▁PEOPLE	-12.0302
▁Saskatchewan	-12.0302
▁Shigenobu	-12.0302
▁Swedish	-12.0302
▁TREASURE	-12.0302
▁Technology	-12.0302
▁Tennessee	-12.0302
▁Toronto	-12.0302
▁Vizcarra	-12.0302
▁abroad	-12.0302
▁accurate	-12.0302
▁admiration	-12.0302
▁afloat	-12.0302
▁ahhah	-12.0302
▁antelopes	-12.0302
▁assailant	-12.0302
▁assault	-12.0302
▁banquet	-12.0302
▁calendar	-12.0302
▁culprit	-12.0302
▁cursive	-12.0302
▁dictionary	-12.0302
▁envy	-12.0302
▁kettle	-12.0302
▁lieutenant	-12.0302
▁mischief	-12.0302
▁offensive	-12.0302
▁patience	-12.0302
▁remembrance	-12.0302
▁skedaddle	-12.0302
▁sunshine	-12.0302
▁technician	-12.0302
▁terrified	-12.0302
▁universal	-12.0302
▁universities	-12.0302
▁unpleasant	-12.0302
▁vivid	-12.0302
▁Front	-12.0302
▁Gwen	-12.0302
▁Hiroshi	-12.0302
▁Marsden	-12.0302
▁Micro	-12.0302
▁Shiomi	-12.0302
▁oxen	-12.0302
▁shiny	-12.0302
▁telegraph	-12.0302
▁Adolf	-12.0302
▁COMPANY	-12.0302
▁grief	-12.0302
▁ninth	-12.0302
▁worries	-12.0302
▁Topeka	-12.0302
▁Afterwards	-12.0302
▁espresso	-12.0302
▁genius	-12.0302
▁teeter	-12.0302
▁Goldberg	-12.0302
▁tractor	-12.0302
▁Clement	-12.0302
▁Regan	-12.0302
▁alliance	-12.0302
▁cathedral	-12.0302
▁droop	-12.0302
▁memories	-12.0302
▁quote	-12.0302
▁1943	-12.0302
▁Nyx	-12.0302
▁Cairo	-12.0302
▁confidential	-12.0302
▁literally	-12.0302
▁repent	-12.0302
▁existence	-12.0302
▁Newfoundland	-12.0302
▁Standard	-12.0302
▁entreat	-12.0302
▁gingham	-12.0302
▁Bernard	-12.0302
▁Otherwise	-12.0302
▁comedian	-12.0302
▁Contest	-12.0302
▁imagination	-12.0302
▁tramp	-12.0302
▁choir	-12.0302
▁misery	-12.0302
▁Adolphus	-12.0302
▁Franklin	-12.0302
▁communicate	-12.0302
▁steamboat	-12.0302
▁Hubert	-12.0302
▁spray	-12.0302
hanabat	-12.0302
▁Power	-12.0302
▁1934	-12.0302
▁dripping	-12.0302
▁forensic	-12.0302
▁liaison	-12.0302
falsetto	-12.0302
▁1905	-12.0302
▁OPENS	-12.0302
▁lining	-12.0302
▁piggie	-12.0302
▁lumber	-12.0302
▁racket	-12.0302
▁DOES	-12.0302
▁bitten	-12.0302
▁Ojibwe	-12.0302
▁WHY	-12.0302
▁Susy	-12.0302
▁calves	-12.0302
▁motive	-12.0302
▁aircraft	-12.0302
▁conquest	-12.0302
▁screeches	-12.0302
▁Society	-12.0302
▁groceries	-12.0302
▁Larsen	-12.0302
▁parish	-12.0302
▁Gator	-12.0302
▁spaghetti	-12.0302
▁jetty	-12.0302
▁SAY	-12.0302
▁effective	-12.0302
▁meanwhile	-12.0303
▁GUYS	-12.0303
▁proper	-12.0303
▁Raki	-12.0303
▁Sylvia	-12.0303
▁Clinton	-12.0303
▁grandma	-12.0303
▁Enough	-12.0303
▁Clothes	-12.0303
▁ledger	-12.0303
▁bandaid	-12.0303
▁yahoo	-12.0303
▁slippery	-12.0303
▁Maryland	-12.0303
▁seductive	-12.0304
▁headache	-12.0304
▁Corner	-12.0304
▁Fame	-12.0304
▁squeak	-12.0304
▁400	-12.0304
▁accidentally	-12.0304
▁promptly	-12.0304
▁buckle	-12.0304
▁Birk	-12.0304
▁Hughes	-12.0304
▁jack	-12.0304
▁skeleton	-12.0304
▁AGCO	-12.0304
▁Dynasty	-12.0304
▁Private	-12.0304
▁Rangy	-12.0304
▁license	-12.0304
▁paragraph	-12.0304
▁replacement	-12.0304
▁Room	-12.0304
▁injury	-12.0304
▁corporation	-12.0304
▁coarse	-12.0304
▁1896	-12.0304
▁Mette	-12.0305
▁Terry	-12.0305
▁Press	-12.0305
▁machinery	-12.0305
▁composer	-12.0305
▁Coach	-12.0305
▁Jacoby	-12.0305
▁Nicole	-12.0305
▁Highway	-12.0305
▁coachman	-12.0305
telling	-12.0306
▁acquainted	-12.0306
▁Making	-12.0306
▁suicide	-12.0306
▁breathless	-12.0306
▁correction	-12.0306
▁cab	-12.0306
▁Grove	-12.0306
▁frozen	-12.0306
▁Billie	-12.0306
▁demonstrate	-12.0306
▁amazed	-12.0307
▁scent	-12.0307
▁Moore	-12.0307
Military	-12.0307
▁township	-12.0307
▁Solar	-12.0307
▁paperwork	-12.0307
▁Robinson	-12.0308
▁wholesome	-12.0308
▁Super	-12.0308
▁announce	-12.0308
▁funds	-12.0308
▁Disney	-12.0308
▁Third	-12.0308
▁Real	-12.0309
▁cheating	-12.0309
▁robert	-12.0309
▁Ladies	-12.0309
▁abou	-12.0309
▁surgeon	-12.0309
▁Molly	-12.031
▁EVERY	-12.031
▁fame	-12.031
▁supplier	-12.031
▁beaten	-12.031
cakes	-12.0311
▁68	-12.0311
▁earlies	-12.0311
▁joyfully	-12.0312
▁absurd	-12.0312
▁Bert	-12.0312
▁STAR	-12.0312
▁[13	-12.0313
▁carbon	-12.0313
▁Soviet	-12.0313
▁ventured	-12.0313
▁Lif	-12.0313
▁excel	-12.0313
▁threatened	-12.0313
▁spectators	-12.0314
▁Rule	-12.0314
▁perch	-12.0315
▁Tour	-12.0315
▁Quite	-12.0315
▁[14	-12.0315
▁twine	-12.0316
▁tackle	-12.0316
▁Inv	-12.0316
▁swelling	-12.0316
▁improved	-12.0317
▁Brennan	-12.0317
▁stirring	-12.0317
▁Hector	-12.0318
▁progressive	-12.0318
▁Parker	-12.0319
▁flutter	-12.0319
▁Bank	-12.032
▁opera	-12.032
duke	-12.032
▁FC	-12.0321
▁resigned	-12.0321
▁Lucens	-12.0322
▁Certainly	-12.0322
▁panting	-12.0322
▁curly	-12.0322
▁goose	-12.0323
▁wedding	-12.0323
▁recovered	-12.0323
▁Madame	-12.0323
▁recover	-12.0324
▁Deal	-12.0324
▁oui	-12.0324
▁founder	-12.0325
▁Sex	-12.0326
▁shaken	-12.0326
▁plainly	-12.0327
▁exit	-12.0328
▁Ski	-12.033
▁excitedly	-12.0331
▁hurriedly	-12.0331
▁sorrowful	-12.0331
▁bob	-12.0332
▁practised	-12.0333
▁THEY	-12.0334
▁Thad	-12.0334
▁THEN	-12.0334
▁Alberta	-12.0334
▁originally	-12.0335
▁sailing	-12.0335
▁pluck	-12.0337
▁celebrated	-12.0337
▁brighter	-12.0339
▁Mon	-12.0339
▁lid	-12.034
én	-12.034
▁screamed	-12.0342
▁borrowing	-12.0343
▁homeless	-12.0346
▁Honor	-12.0346
▁authorities	-12.0346
Hi	-12.0346
▁footballer	-12.0347
▁Pene	-12.0348
▁gosh	-12.0353
▁hint	-12.0354
▁Wood	-12.0354
▁roughly	-12.0355
▁approaching	-12.0356
▁Cheers	-12.0357
▁glanc	-12.0359
▁HOO	-12.036
ature	-12.036
▁scann	-12.0361
▁mixing	-12.0362
45	-12.0362
▁elements	-12.0362
▁Kath	-12.0364
▁Dan	-12.0364
▁sighed	-12.0366
▁pope	-12.0367
▁issued	-12.0371
▁Surely	-12.0374
▁smiles	-12.0374
▁circumstances	-12.0377
▁decades	-12.0377
▁budgeting	-12.0377
▁strangely	-12.0378
▁sal	-12.0378
▁impact	-12.0379
phin	-12.0383
▁warmly	-12.0384
▁graceful	-12.0384
six	-12.0386
▁imp	-12.0388
▁meow	-12.039
philippa	-12.0391
▁amid	-12.0393
▁Sale	-12.0393
▁rushing	-12.0393
▁stern	-12.0394
▁wasps	-12.0394
▁suggesting	-12.0395
▁Sigh	-12.0396
▁height	-12.0402
▁reform	-12.041
▁fucked	-12.0411
▁Chile	-12.0411
▁fruits	-12.0417
▁pounding	-12.0418
HILDA	-12.0418
▁Burt	-12.042
ok	-12.0423
▁jumper	-12.0426
▁dashe	-12.0431
kar	-12.0436
di	-12.0438
▁frocks	-12.0441
▁oars	-12.0442
liness	-12.0445
▁poorly	-12.0447
▁Hals	-12.0453
▁wander	-12.0457
▁measures	-12.0458
▁1969.	-12.046
▁Scouts	-12.0462
▁scholars	-12.0462
▁Area	-12.0469
▁lied	-12.047
▁heading	-12.0471
tter	-12.0474
▁Camp	-12.0475
▁rocked	-12.0475
▁Gi	-12.0486
gu	-12.0487
▁Pan	-12.0491
▁readers	-12.0494
▁Mum	-12.0498
▁caterpillars	-12.0505
je	-12.0512
▁95	-12.0514
▁Gas	-12.0522
▁Alle	-12.0522
▁details	-12.0527
▁prunes	-12.0528
▁Guards	-12.0528
▁swords	-12.0528
▁tub	-12.0531
▁blocked	-12.0535
ini	-12.0539
▁Iran	-12.054
▁salute	-12.0542
▁skills	-12.0547
▁instruments	-12.0549
▁Economics	-12.0549
▁Sciences	-12.0549
hy	-12.0553
▁humans	-12.0554
▁hu	-12.0557
nched	-12.0564
▁peas	-12.0576
▁Paph	-12.0577
▁slaves	-12.059
▁citizens	-12.0592
crackling	-12.0593
▁planet	-12.0598
▁remarks	-12.0599
▁actors	-12.0611
eller	-12.0613
▁TOO	-12.0613
▁tan	-12.0614
▁customs	-12.0614
▁mend	-12.0616
▁(3	-12.0617
▁Dai	-12.062
▁ti	-12.0624
him	-12.0627
iff	-12.0634
arc	-12.0639
▁Tar	-12.064
▁partial	-12.0649
nt	-12.0652
▁bun	-12.066
▁sentences	-12.0672
▁interests	-12.0679
▁tools	-12.068
▁snaps	-12.0685
ner	-12.0695
▁braves	-12.0697
▁Ke	-12.07
▁individuals	-12.0702
▁1986.	-12.0703
▁1987.	-12.0703
▁sur	-12.0711
▁interfere	-12.0715
sley	-12.072
ster	-12.0721
▁Pictures	-12.0724
HAD	-12.0727
▁thinkin	-12.0734
▁Full	-12.0741
ski	-12.0747
OLD	-12.0748
ware	-12.0749
▁sheets	-12.0752
▁Marian	-12.0755
▁caller	-12.0757
▁senses	-12.0758
3.8	-12.0764
▁paddle	-12.0764
▁wasted	-12.0764
▁Salt	-12.0765
▁Ham	-12.0767
▁raw	-12.0772
▁ripe	-12.0777
ister	-12.0778
▁voiced	-12.0797
▁bars	-12.0805
wi	-12.0806
shot	-12.0809
▁contents	-12.0814
▁tires	-12.0815
▁fatal	-12.0815
▁reaction	-12.0816
47	-12.0821
▁1959.	-12.0825
ite	-12.0825
ipping	-12.0832
▁worms	-12.0834
▁crawls	-12.0835
▁thoughts	-12.0855
▁engines	-12.0857
ating	-12.0858
tte	-12.0859
1964)	-12.0859
▁83	-12.087
GER	-12.0871
▁Won	-12.0875
▁obscure	-12.0875
moving	-12.0882
later	-12.0887
▁brownies	-12.091
▁cons	-12.0911
lan	-12.0911
▁understands	-12.0929
▁bean	-12.0931
tz	-12.0931
▁Item	-12.0933
bin	-12.0934
▁/	-12.0938
isa	-12.0945
▁Lie	-12.0951
pi	-12.0954
▁exchange	-12.0956
▁questioned	-12.0964
ino	-12.0971
▁anyways	-12.0981
▁plot	-12.0986
▁shapes	-12.0987
▁62	-12.0987
oo	-12.0991
cut	-12.0992
▁Baron	-12.0993
AL	-12.0997
ak	-12.0998
▁crop	-12.1003
▁lighting	-12.1003
▁(2	-12.1011
▁bows	-12.1012
ichi	-12.1019
ander	-12.1034
Didn	-12.1035
▁Tho	-12.1037
▁barks	-12.1041
á	-12.1044
▁SU	-12.1055
TA	-12.1071
ahn	-12.1076
pending	-12.1077
ain	-12.1086
▁Anna	-12.1087
▁Bor	-12.109
fer	-12.1095
▁1991.	-12.1102
IE	-12.1103
5.5	-12.1107
▁mental	-12.1109
▁mot	-12.1116
▁MP	-12.1123
▁Butch	-12.1142
▁Ana	-12.1145
▁Awards	-12.1152
▁biting	-12.116
▁lawyers	-12.1174
▁doc	-12.1175
▁plough	-12.1175
▁Na	-12.1192
▁decisions	-12.1197
▁queens	-12.1197
▁NA	-12.1203
shan	-12.1208
35	-12.1215
▁Sch	-12.122
▁selfish	-12.1222
▁bills	-12.1225
▁Non	-12.123
▁Com	-12.1243
▁Arch	-12.1247
▁tri	-12.1263
▁console	-12.1263
ake	-12.1263
▁arts	-12.1265
▁feat	-12.1267
▁""	-12.127
od	-12.1279
▁Pi	-12.128
▁LOS	-12.1282
▁Ch	-12.1283
▁initial	-12.1285
▁realise	-12.1285
oni	-12.129
▁Wal	-12.1291
owed	-12.1292
▁Kat	-12.1293
dale	-12.1294
hole	-12.1296
mont	-12.1298
lance	-12.1307
▁z	-12.1317
force	-12.1318
▁dozens	-12.1326
▁identif	-12.1332
▁lure	-12.1335
▁bon	-12.1339
ru	-12.1345
▁grant	-12.1346
▁scribble	-12.1348
▁regatta	-12.1349
▁accent	-12.1349
▁threat	-12.135
▁ruin	-12.135
▁idol	-12.135
▁association	-12.1353
▁cartoon	-12.1357
▁execution	-12.1359
▁provision	-12.1359
▁eagle	-12.1359
▁sway	-12.1362
▁application	-12.1364
▁pancake	-12.1364
▁interface	-12.1365
isha	-12.1365
▁lantern	-12.1368
accompanied	-12.1369
▁syllable	-12.137
▁asshole	-12.137
ada	-12.1371
▁scholar	-12.1373
▁riot	-12.1373
▁Scout	-12.1373
▁grub	-12.1375
▁paddock	-12.1375
▁Mountain	-12.1377
▁tissue	-12.1377
▁skate	-12.1378
▁guest	-12.138
▁1981.	-12.1381
▁Whoo	-12.139
ium	-12.1391
▁Tab	-12.1393
▁mask	-12.1393
▁bellow	-12.1393
▁hum	-12.1403
ICE	-12.1409
▁outlet	-12.1411
called	-12.1414
stead	-12.1415
▁hats	-12.1415
▁fare	-12.1416
▁paw	-12.1416
▁48	-12.1429
mong	-12.1431
rus	-12.1437
▁pos	-12.1438
▁Pap	-12.1439
▁2022.	-12.144
▁Step	-12.1442
▁HA	-12.1455
▁dar	-12.1456
ctor	-12.1459
sk	-12.1462
▁oop	-12.1462
▁hun	-12.1472
▁squeal	-12.1479
interrupted	-12.1484
▁royal	-12.1488
explain	-12.1491
OW	-12.1494
▁heh	-12.1496
ade	-12.1499
▁invit	-12.1499
▁Though	-12.15
`	-12.1504
@	-12.1504
-19	-12.1505
filler	-12.1505
big	-12.1506
raspy	-12.1506
held	-12.1507
ount	-12.1508
songwriter	-12.1512
unintelligible	-12.1514
mail	-12.1514
▁arrang	-12.1514
yells	-12.1514
wealth	-12.1515
kick	-12.1515
JOHN	-12.1515
shouting	-12.1516
repeat	-12.1516
central	-12.1516
First	-12.1516
probably	-12.1516
October	-12.1516
people	-12.1516
voice	-12.1516
something	-12.1517
cock	-12.1517
Never	-12.1517
shoes	-12.1517
week	-12.1517
Guy	-12.1521
ingly	-12.1521
▁smells	-12.1523
▁gossip	-12.1524
ademoiselle	-12.1526
ekend	-12.1527
Say	-12.1527
sweets	-12.1527
▁bloom	-12.1527
pause	-12.1529
▁Roll	-12.1529
▁resign	-12.1531
▁clack	-12.1531
▁admire	-12.1533
▁industri	-12.1534
▁approve	-12.1535
▁Universal	-12.1536
▁ignore	-12.1536
▁capture	-12.1537
telephone	-12.1539
▁blaze	-12.1539
lalight	-12.154
▁reel	-12.1541
▁1932	-12.1541
Nor	-12.1541
▁Top	-12.1542
▁prior	-12.1542
▁fortunate	-12.1544
▁vertical	-12.1544
▁unfortunate	-12.1545
▁obvious	-12.1545
▁immediate	-12.1545
▁TREE	-12.1545
▁Naz	-12.1546
▁rapid	-12.1546
▁gallant	-12.1546
▁traditional	-12.1546
▁Sá	-12.1546
▁urgent	-12.1547
▁mechanical	-12.1547
▁55	-12.1547
▁Commission	-12.1547
▁amuse	-12.1549
hood	-12.1549
▁critical	-12.1549
▁Italia	-12.1549
▁Tibet	-12.155
▁Select	-12.155
▁Montaub	-12.155
▁Burn	-12.155
hiladelphia	-12.155
▁govern	-12.1551
▁writin	-12.1551
▁scandal	-12.1551
▁Egypt	-12.1551
▁Express	-12.1551
▁forgiven	-12.1551
mple	-12.1551
▁entertain	-12.1551
▁scientific	-12.1551
▁Craig	-12.1552
▁Saxon	-12.1552
▁Josceline	-12.1552
▁Kazakh	-12.1552
▁Quebec	-12.1552
▁acrobat	-12.1552
▁animiles	-12.1552
▁morsel	-12.1552
▁thumb	-12.1552
Chardonney	-12.1552
Menthue	-12.1552
Tiercelin	-12.1552
▁(2017)	-12.1552
▁BUSINESS	-12.1552
▁Barcelona	-12.1552
▁Belgium	-12.1552
▁Bobbie	-12.1552
▁Cardinal	-12.1552
▁Cocoamarsh	-12.1552
▁Dawlish	-12.1552
▁Hulk	-12.1552
▁Jonathan	-12.1552
▁Judiciary	-12.1552
▁Labrador	-12.1552
▁Ministry	-12.1552
▁Minnesota	-12.1552
▁Mobile	-12.1552
▁Mukaiyama	-12.1552
▁Network	-12.1552
▁Oxfam	-12.1552
▁Potawatomi	-12.1552
▁Raffael	-12.1552
▁Rowntree	-12.1552
▁Stevie	-12.1552
▁THOSE	-12.1552
▁Thornton	-12.1552
▁Trinidad	-12.1552
▁Unfortunately	-12.1552
▁WOMAN	-12.1552
▁Waysmith	-12.1552
▁Woodpecker	-12.1552
▁Zimbabwe	-12.1552
▁absence	-12.1552
▁absorb	-12.1552
▁ackack	-12.1552
▁adapt	-12.1552
▁audience	-12.1552
▁biscuit	-12.1552
▁convenient	-12.1552
▁creek	-12.1552
▁dementia	-12.1552
▁emperor	-12.1552
▁endeavor	-12.1552
▁fatigue	-12.1552
▁fossil	-12.1552
▁franchise	-12.1552
▁halloween	-12.1552
▁harsh	-12.1552
▁hoarse	-12.1552
▁inhabitants	-12.1552
▁inscription	-12.1552
▁intimate	-12.1552
▁library	-12.1552
▁liquid	-12.1552
▁muscles	-12.1552
▁neglect	-12.1552
▁perspective	-12.1552
▁physics	-12.1552
▁policies	-12.1552
▁preliminar	-12.1552
▁principal	-12.1552
▁pterosaur	-12.1552
▁recognition	-12.1552
▁remote	-12.1552
▁revolt	-12.1552
▁satellite	-12.1552
▁seminar	-12.1552
stricken	-12.1552
▁Amaral	-12.1552
▁Connecticut	-12.1552
▁Creek	-12.1552
▁Deputies	-12.1552
▁Ethel	-12.1552
▁Fiction	-12.1552
▁Frederick	-12.1552
▁Gracie	-12.1552
▁Kazakhstan	-12.1552
▁Psych	-12.1552
▁chorus	-12.1552
▁esquire	-12.1552
▁facing	-12.1552
▁fraction	-12.1552
▁inhibit	-12.1552
▁sympathy	-12.1552
▁thrust	-12.1552
▁Tower	-12.1552
▁pilot	-12.1552
▁zeal	-12.1552
Peoria	-12.1552
▁Jennings	-12.1552
▁mystery	-12.1552
▁BETTER	-12.1552
▁Kaneko	-12.1552
▁Rhine	-12.1552
▁departure	-12.1552
▁lemonade	-12.1552
▁Campbell	-12.1552
▁Development	-12.1552
▁stagger	-12.1552
▁vital	-12.1552
▁Wolsey	-12.1552
▁detective	-12.1552
▁Dinner	-12.1552
▁RUNNING	-12.1552
▁tasting	-12.1552
▁Rogue	-12.1552
▁amazement	-12.1552
▁bloke	-12.1552
▁portrait	-12.1552
▁proposal	-12.1552
▁generation	-12.1552
▁levey	-12.1552
▁goddamn	-12.1552
▁miracle	-12.1552
▁Bandaid	-12.1552
▁conscience	-12.1552
▁dragging	-12.1552
▁properties	-12.1552
▁Bruce	-12.1552
▁Calcul	-12.1552
▁Often	-12.1552
▁draft	-12.1552
▁impressive	-12.1552
▁Eddie	-12.1552
▁Paddy	-12.1552
▁landlord	-12.1552
▁timid	-12.1552
▁Small	-12.1552
▁Jewish	-12.1552
▁descent	-12.1552
▁idle	-12.1552
▁labour	-12.1552
▁GREAT	-12.1552
▁gravity	-12.1552
▁Birthday	-12.1552
▁reception	-12.1552
▁submitted	-12.1552
▁junk	-12.1552
▁garret	-12.1552
▁molybdenum	-12.1552
▁tidy	-12.1552
▁Pará	-12.1552
▁View	-12.1552
▁announcement	-12.1552
▁Ché	-12.1552
▁derrick	-12.1552
▁Holt	-12.1552
▁unfair	-12.1552
▁tornado	-12.1552
▁uneasy	-12.1552
▁RINGS	-12.1552
▁Haiti	-12.1552
▁priority	-12.1552
▁Desk	-12.1552
▁reluctantly	-12.1552
▁Joux	-12.1552
▁destination	-12.1552
▁curiosity	-12.1552
▁hedge	-12.1552
▁Warsaw	-12.1552
▁ambition	-12.1552
▁Nonnie	-12.1552
▁Trish	-12.1552
▁chapter	-12.1552
▁Naval	-12.1552
▁Pardon	-12.1552
journ	-12.1552
▁CUT	-12.1553
▁kak	-12.1553
▁jug	-12.1553
▁WANT	-12.1553
▁Heather	-12.1553
▁thunder	-12.1553
▁hyper	-12.1553
▁pausing	-12.1553
▁merit	-12.1553
▁Poke	-12.1553
▁tournament	-12.1553
▁Jill	-12.1553
▁icing	-12.1553
▁gloss	-12.1553
▁resistance	-12.1553
▁Sottens	-12.1553
▁tinker	-12.1553
▁GOING	-12.1553
▁Diana	-12.1553
▁(2016)	-12.1553
▁1938	-12.1553
▁Fireman	-12.1553
▁Space	-12.1553
▁cautiously	-12.1553
▁sets	-12.1553
▁conceived	-12.1553
▁bowel	-12.1553
▁bargain	-12.1553
▁toluene	-12.1553
▁Anti	-12.1554
▁stray	-12.1554
▁quaint	-12.1554
▁convict	-12.1554
▁Guster	-12.1554
▁dental	-12.1554
▁Money	-12.1554
▁Dark	-12.1554
▁claw	-12.1554
▁tipped	-12.1554
▁Obviously	-12.1554
▁vigorously	-12.1554
▁Mice	-12.1554
▁DUCK	-12.1554
▁patting	-12.1554
▁alert	-12.1555
▁Donkey	-12.1555
▁SARAH	-12.1555
▁Tyumen	-12.1555
▁eminence	-12.1555
▁ultimate	-12.1555
▁Richardson	-12.1555
▁Prague	-12.1555
▁borough	-12.1555
▁therapy	-12.1555
▁Armenia	-12.1555
▁Garden	-12.1555
▁mutters	-12.1555
▁hover	-12.1555
▁react	-12.1555
▁popularity	-12.1555
▁housekeeper	-12.1555
▁statue	-12.1555
▁cardinal	-12.1555
▁imaginary	-12.1555
▁enjoyment	-12.1555
▁Honestly	-12.1555
▁1861	-12.1555
▁Forever	-12.1555
▁Wonderful	-12.1555
▁sweat	-12.1555
▁flask	-12.1555
▁Round	-12.1555
▁Buddha	-12.1556
▁Nine	-12.1556
▁surprising	-12.1556
▁playground	-12.1556
▁poker	-12.1556
▁crooked	-12.1556
▁awareness	-12.1557
▁Wise	-12.1557
▁fiddle	-12.1557
▁pocketbook	-12.1557
▁56	-12.1557
▁Somehow	-12.1557
▁counties	-12.1557
▁ryan	-12.1558
▁Fourth	-12.1558
▁inches	-12.1558
▁atoll	-12.1558
▁61	-12.1558
▁fitz	-12.1558
▁yield	-12.1558
▁colony	-12.1559
berger	-12.1559
▁illustrated	-12.1559
▁registered	-12.1559
▁Action	-12.1559
▁Michel	-12.1559
▁perfection	-12.1559
▁Pierre	-12.1559
▁acquire	-12.156
▁dignity	-12.156
▁teasing	-12.156
▁Devil	-12.156
▁Strong	-12.156
▁Squad	-12.156
▁ignorance	-12.156
▁medium	-12.156
▁Tonight	-12.156
▁Wolfe	-12.156
▁TALES	-12.1561
NNIE	-12.1561
▁momma	-12.1561
lée	-12.1561
▁unlike	-12.1561
▁Inter	-12.1561
▁darkness	-12.1562
▁consistent	-12.1562
Mend	-12.1562
."—_	-12.1562
▁Dover	-12.1562
▁scorn	-12.1562
▁Hugh	-12.1562
▁scattered	-12.1562
▁wealthy	-12.1563
▁PG	-12.1563
▁Annie	-12.1563
▁distinctly	-12.1563
▁grill	-12.1563
▁rice	-12.1564
▁acquaintance	-12.1564
▁Stone	-12.1564
▁Beautiful	-12.1564
▁Grampa	-12.1564
ura	-12.1565
▁greeted	-12.1565
▁shelter	-12.1565
▁heroes	-12.1566
uardians	-12.1566
▁elton	-12.1567
EST	-12.1568
▁impatiently	-12.1568
▁complained	-12.1568
▁justice	-12.1568
enans	-12.1568
▁shivering	-12.1568
▁efficient	-12.1569
▁sweetest	-12.1569
ić	-12.1569
▁[3.1	-12.157
▁Pea	-12.157
▁Milan	-12.157
▁flattered	-12.1571
▁beef	-12.1571
▁proceeding	-12.1571
▁dashing	-12.1571
AT	-12.1572
choo	-12.1572
▁Found	-12.1572
▁Fred	-12.1572
▁forbidden	-12.1573
▁Denis	-12.1573
▁hunger	-12.1573
▁safer	-12.1573
▁Fellow	-12.1573
▁iamb	-12.1574
▁crumbs	-12.1574
▁blooming	-12.1575
▁hernia	-12.1575
▁dislike	-12.1575
▁je	-12.1575
▁separated	-12.1575
▁stead	-12.1576
▁gratefully	-12.1576
▁helpful	-12.1576
▁Asian	-12.1576
----------------	-12.1578
▁Box	-12.1578
▁Lion	-12.1578
▁seventh	-12.1578
▁correctly	-12.1579
▁ensu	-12.1579
4.3	-12.1579
ther	-12.158
▁Team	-12.158
climbs	-12.1582
▁Joy	-12.1583
▁admiral	-12.1583
▁Pull	-12.1584
▁Za	-12.1584
_2	-12.1584
▁WHERE	-12.1585
▁prey	-12.1585
▁crosses	-12.1585
▁Better	-12.1586
▁fry	-12.1586
▁beak	-12.1587
▁arrangements	-12.1589
▁siblings	-12.159
▁Kir	-12.1592
Walsh	-12.1593
▁billy	-12.1596
▁daytime	-12.1597
▁desired	-12.1597
▁thaw	-12.1597
▁indoors	-12.1598
▁Aah	-12.1599
▁successfully	-12.1599
▁iP	-12.1599
▁finishes	-12.16
▁zoom	-12.1601
▁professionally	-12.1601
▁chuckle	-12.1601
▁LAUGH	-12.1602
▁licked	-12.1603
▁collected	-12.1603
▁informed	-12.1603
helps	-12.1603
▁foundation	-12.1604
▁reader	-12.1604
▁glances	-12.1604
▁OLD	-12.1604
▁agricultural	-12.1604
▁THEM	-12.1604
▁Allen	-12.1605
upon	-12.1606
▁gung	-12.1608
▁shooter	-12.1609
▁BED	-12.1611
▁striped	-12.1612
▁rating	-12.1612
▁dusk	-12.1614
▁Mist	-12.1614
▁whimpers	-12.1617
▁probabilit	-12.1621
▁foreign	-12.1622
▁dreamy	-12.1624
▁delivered	-12.1626
▁Thought	-12.163
▁Stand	-12.163
—_	-12.1632
IT	-12.1634
▁fussing	-12.1634
▁discussed	-12.1635
MP	-12.1635
▁raft	-12.1636
▁fowls	-12.1637
▁belly	-12.1639
▁piers	-12.1641
dden	-12.1642
type	-12.1644
▁blown	-12.1646
▁tr	-12.1646
▁Hav	-12.1648
mills	-12.1649
▁spinn	-12.1649
▁protesting	-12.1653
▁reporter	-12.1655
▁inner	-12.1656
▁bobb	-12.1657
▁searching	-12.1659
bells	-12.166
ould	-12.1661
▁owl	-12.1663
▁respected	-12.1666
ö	-12.1667
▁measure	-12.1672
▁crowded	-12.1672
▁filmed	-12.1672
ip	-12.1675
ú	-12.1676
saw	-12.168
hu	-12.1681
▁pressing	-12.1682
▁permits	-12.1686
nterior	-12.1688
▁Cop	-12.1689
▁ease	-12.1696
▁starr	-12.1703
rá	-12.1705
▁Ash	-12.1707
▁Saf	-12.1713
▁witch	-12.1715
▁links	-12.1719
▁nights	-12.1719
5.4	-12.1721
▁3.5	-12.1724
rances	-12.1724
▁graduate	-12.1727
OLUM	-12.1732
▁squeals	-12.1733
▁threats	-12.1736
ologist	-12.1737
▁oranges	-12.1737
▁Nu	-12.1738
▁deny	-12.1742
▁snapp	-12.1747
▁puzzled	-12.1748
▁sour	-12.1752
same	-12.1754
▁aunts	-12.176
▁preparations	-12.176
▁Mid	-12.1761
▁freed	-12.1761
▁Democrats	-12.1763
▁Ang	-12.1763
▁Heart	-12.1765
▁rub	-12.1766
▁Lar	-12.177
▁listener	-12.178
▁tilt	-12.178
umber	-12.1781
▁Silver	-12.1783
▁Cr	-12.1784
▁disasters	-12.1785
▁pistols	-12.1785
prompting	-12.1788
con	-12.1795
▁dies	-12.1795
des	-12.1796
▁1.1	-12.1802
▁siren	-12.1805
▁Hay	-12.1818
▁requests	-12.1835
opped	-12.184
vision	-12.1841
▁Cam	-12.1849
▁camels	-12.1852
▁1953	-12.1855
▁musicians	-12.1859
▁devices	-12.1859
▁Pra	-12.1859
▁engineers	-12.1862
▁debate	-12.1863
llery	-12.1868
ith	-12.1871
▁grease	-12.1875
dor	-12.1878
nsu	-12.1878
date	-12.1893
lon	-12.19
▁cur	-12.1901
anuel	-12.1902
fled	-12.1903
▁estates	-12.1909
▁emotions	-12.1915
▁urban	-12.1918
aggy	-12.1924
▁Ton	-12.1927
▁gap	-12.1928
▁adopt	-12.1931
mor	-12.1933
ove	-12.1938
op	-12.1941
▁Ches	-12.1946
dad	-12.195
▁circles	-12.1954
▁attache	-12.1961
og	-12.1963
_1	-12.1964
uthwestern	-12.1968
▁limbs	-12.1983
▁limits	-12.1985
via	-12.1989
▁sha	-12.1994
▁hurl	-12.2003
▁64	-12.2008
tsk	-12.2009
▁equals	-12.201
▁pursue	-12.2022
MADE	-12.2023
boats	-12.2025
▁commit	-12.2028
ump	-12.203
▁Marcel	-12.2033
▁errors	-12.2035
▁Fly	-12.2036
uel	-12.204
▁units	-12.2043
▁qui	-12.2045
▁positions	-12.2047
▁Bund	-12.2051
▁Shi	-12.2054
▁spa	-12.2059
▁turkeys	-12.206
ker	-12.2061
▁Bi	-12.2064
gar	-12.2069
3.9	-12.2069
▁tins	-12.2071
▁Ross	-12.2073
—"	-12.2075
▁divers	-12.2076
▁fro	-12.2076
ERS	-12.2084
▁1944	-12.2089
assive	-12.211
▁fathers	-12.2111
▁sources	-12.2112
ide	-12.2115
monia	-12.2118
▁tapes	-12.2129
▁onions	-12.2139
▁coughs	-12.2149
▁ST	-12.2154
ulu	-12.2156
▁sounding	-12.2159
▁im	-12.216
▁packages	-12.216
▁aboard	-12.2164
arian	-12.2165
ney	-12.2205
eville	-12.2206
▁Ven	-12.2223
▁dash	-12.2231
▁data	-12.2231
▁qu	-12.2233
atch	-12.2235
dding	-12.2237
▁forks	-12.225
▁Rad	-12.2258
▁travels	-12.2259
▁killings	-12.2267
otic	-12.228
holy	-12.2288
▁1999	-12.2302
▁cages	-12.2317
▁Macleods	-12.2317
▁newspapers	-12.2318
▁pit	-12.2318
▁erases	-12.2321
▁1959	-12.2325
▁Kr	-12.2327
▁titles	-12.2343
ability	-12.2345
Persian	-12.2352
ct	-12.2358
▁magazines	-12.2369
▁bio	-12.2371
elli	-12.2374
oping	-12.2381
▁minded	-12.2383
▁fi	-12.24
hey	-12.2409
▁Jam	-12.2413
lock	-12.2415
▁2006.	-12.2415
▁mirrors	-12.2422
▁select	-12.2432
▁Mos	-12.2434
▁undo	-12.2436
▁DA	-12.2438
bas	-12.2447
Le	-12.2456
60	-12.2456
4.7	-12.2464
▁Revolutionar	-12.2466
▁evolve	-12.2466
▁Si	-12.2481
gasps	-12.2493
100	-12.2501
aro	-12.2501
▁Whigs	-12.2504
▁ver	-12.2506
ture	-12.2507
▁Maid	-12.2517
▁Adams	-12.2523
▁Ice	-12.2528
▁wonders	-12.2529
▁convention	-12.2535
▁Whit	-12.2543
▁grunt	-12.2552
▁hotels	-12.2554
strained	-12.2554
ike	-12.2565
▁Tea	-12.2579
▁gri	-12.2587
▁soil	-12.2589
neo	-12.2596
▁subjects	-12.2601
hot	-12.2605
▁2010.	-12.2607
▁str	-12.261
eating	-12.2611
▁chances	-12.2611
▁challeng	-12.2614
▁beard	-12.2619
ouncillor	-12.2625
era	-12.2627
▁que	-12.2646
▁ramp	-12.2653
▁leaders	-12.266
▁MAR	-12.2671
▁Duck	-12.2674
magnetic	-12.2677
▁slate	-12.2679
▁fee	-12.2718
keep	-12.273
ging	-12.2734
lves	-12.2734
ternity	-12.2738
▁murmur	-12.2742
nia	-12.2742
▁critic	-12.2745
gue	-12.275
▁shell	-12.2752
bly	-12.2756
▁doubl	-12.2761
▁Ever	-12.2768
climb	-12.2768
▁masters	-12.2768
▁spur	-12.2769
▁colon	-12.277
▁translate	-12.2771
▁topic	-12.2772
block	-12.2772
▁mechanic	-12.2774
cks	-12.2775
▁Hart	-12.2775
▁Georgi	-12.2776
▁banjo	-12.2778
ash	-12.2778
▁percentage	-12.2779
▁affection	-12.278
▁Col	-12.2784
▁statistic	-12.2787
▁Championship	-12.2788
ions	-12.2789
▁freeze	-12.279
▁applie	-12.2792
▁Spark	-12.2793
▁website	-12.2793
lly	-12.2797
met	-12.2799
▁PR	-12.2799
▁somersault	-12.2799
leans	-12.28
▁photograph	-12.2801
▁suggestion	-12.2801
▁Har	-12.2802
▁frock	-12.2803
▁spear	-12.2804
kin	-12.2807
▁scissor	-12.2809
▁factor	-12.2817
▁CA	-12.2817
bell	-12.2818
▁suits	-12.282
want	-12.282
ester	-12.2829
▁usage	-12.283
unk	-12.2832
▁Sound	-12.2834
33	-12.2834
▁Monte	-12.2836
hop	-12.2839
za	-12.2841
▁oar	-12.2846
▁Days	-12.2849
armed	-12.285
▁97	-12.286
care	-12.286
after	-12.2861
▁promot	-12.2861
▁committees	-12.2863
titude	-12.2865
▁complaint	-12.2865
them	-12.2867
ánd	-12.2868
bar	-12.2869
▁layer	-12.287
▁peer	-12.287
▁kn	-12.2872
▁Kari	-12.2872
▁Note	-12.2879
▁"_	-12.2879
▁choices	-12.2884
▁Name	-12.2884
stand	-12.2892
▁architect	-12.2892
hmm	-12.2893
▁haste	-12.2893
▁tails	-12.2897
▁Nell	-12.2899
▁wrap	-12.2901
▁NEED	-12.2903
SA	-12.2912
bear	-12.2913
▁Fun	-12.2921
ory	-12.2921
face	-12.2921
▁Bee	-12.2925
▁bells	-12.2926
▁Gun	-12.2929
▁BROWN	-12.2929
ize	-12.2932
cast	-12.2934
▁disturb	-12.2935
▁69	-12.2935
▁deriv	-12.2936
▁disgust	-12.2936
▁proceed	-12.2936
▁der	-12.2937
snake	-12.2938
handle	-12.2939
bef	-12.294
GAR	-12.294
risk	-12.294
Word	-12.2941
insistent	-12.2942
fried	-12.2942
WHERE	-12.2943
videotape	-12.2943
Better	-12.2943
See	-12.2943
whine	-12.2943
giving	-12.2943
suspect	-12.2944
Grand	-12.2944
Club	-12.2944
|	-12.2945
meeting	-12.2945
Christmas	-12.2945
white	-12.2945
wife	-12.2945
first	-12.2945
running	-12.2945
Right	-12.2945
maybe	-12.2945
Two	-12.2945
woman	-12.2945
watch	-12.2946
firmly	-12.2946
iously	-12.2946
Hank	-12.2947
whispered	-12.2947
seems	-12.2947
friendly	-12.2947
train	-12.2948
cluele	-12.2948
burn	-12.2948
eight	-12.2949
Take	-12.295
Dad	-12.2951
turtle	-12.2951
▁luxur	-12.2953
▁bites	-12.2954
▁brook	-12.2955
pile	-12.2955
▁splash	-12.2955
▁hollo	-12.2956
▁encounter	-12.2956
LAUGH	-12.2956
▁Sugar	-12.2957
▁overwhelm	-12.2958
▁edges	-12.2958
Many	-12.2959
▁compromise	-12.2961
▁privilege	-12.2961
▁tremble	-12.2962
▁encourage	-12.2962
coloring	-12.2963
▁restore	-12.2964
▁pierce	-12.2965
▁CARE	-12.2967
▁piss	-12.2967
haired	-12.2967
▁improve	-12.2969
match	-12.2969
almost	-12.2969
▁Salva	-12.297
▁flatter	-12.2971
▁Wolf	-12.2974
järvi	-12.2974
▁froze	-12.2974
▁scoot	-12.2976
▁bib	-12.2976
uicide	-12.2977
remember	-12.2977
gave	-12.2977
ä	-12.2978
▁lecture	-12.2978
▁XVI	-12.2978
reliable	-12.2978
another	-12.2979
ockey	-12.2979
▁municipal	-12.298
▁Interpret	-12.298
▁edit	-12.298
ssouri	-12.298
▁guitar	-12.298
dialog	-12.298
dbury	-12.298
▁endeavour	-12.298
stution	-12.298
Î	-12.298
▁AWAY	-12.298
▁Alicia	-12.298
▁Anthony	-12.298
▁Arkansas	-12.298
▁Baxter	-12.298
▁Beauty	-12.298
▁Blaine	-12.298
▁Canelones	-12.298
▁Ceramic	-12.298
▁Chavannes	-12.298
▁Chuganji	-12.298
▁Commerce	-12.298
▁DANNY	-12.298
▁Dommartin	-12.298
▁Doolittle	-12.298
▁Drosophilidae	-12.298
▁Dupree	-12.298
▁Either	-12.298
▁Emergency	-12.298
▁Energy	-12.298
▁Fulton	-12.298
▁Galaxy	-12.298
▁Gambaccini	-12.298
▁Hercules	-12.298
▁Hirsch	-12.298
▁JUVENILES	-12.298
▁Kramatorsk	-12.298
▁Lafferty	-12.298
▁Lucifer	-12.298
▁Lucky	-12.298
▁Lynch	-12.298
▁MICHELLE	-12.298
▁Magazine	-12.298
▁Mercedes	-12.298
▁Monique	-12.298
▁Monroe	-12.298
▁Montilliez	-12.298
▁Ralph	-12.298
▁Ramsay	-12.298
▁SCHOOL	-12.298
▁SPRING	-12.298
▁Screw	-12.298
▁Solomon	-12.298
▁TEMPLE	-12.298
▁Tallahassee	-12.298
▁Trujillo	-12.298
▁Tucker	-12.298
▁Vogel	-12.298
▁Wisconsin	-12.298
▁Yamazaki	-12.298
▁administrator	-12.298
▁arithmetic	-12.298
▁barricade	-12.298
▁bewildered	-12.298
▁bewilderment	-12.298
▁bureau	-12.298
▁casino	-12.298
▁certificate	-12.298
▁chieftain	-12.298
▁circuit	-12.298
▁cocaine	-12.298
▁dimension	-12.298
▁eldest	-12.298
▁evaluation	-12.298
▁goblin	-12.298
▁hammock	-12.298
▁hummocks	-12.298
▁inkfishes	-12.298
▁intervals	-12.298
▁lafferty	-12.298
▁lesbian	-12.298
▁mutual	-12.298
▁narrative	-12.298
▁novice	-12.298
▁opponent	-12.298
▁parliament	-12.298
▁participating	-12.298
▁phonics	-12.298
▁prohibition	-12.298
▁qualified	-12.298
▁reindeer	-12.298
▁serpent	-12.298
▁substance	-12.298
▁universe	-12.298
▁untidy	-12.298
▁veranda	-12.298
▁verdict	-12.298
▁warfare	-12.298
▁Connie	-12.298
▁Consumer	-12.298
▁Engineering	-12.298
▁Gervassen	-12.298
▁Kennedy	-12.298
▁Pawnee	-12.298
▁confess	-12.298
▁describing	-12.298
▁discreet	-12.298
▁external	-12.298
▁hickory	-12.298
▁instinctively	-12.298
▁ponies	-12.298
▁sheriff	-12.298
▁steer	-12.298
▁tippet	-12.298
▁trauma	-12.298
▁woodpecker	-12.298
née	-12.298
▁Agency	-12.298
▁Bateman	-12.298
▁Honeysuckle	-12.298
▁Lynn	-12.298
▁Staff	-12.298
▁Statistic	-12.298
▁communities	-12.298
▁opportunities	-12.298
▁quantities	-12.298
▁SPELL	-12.298
▁dentist	-12.298
▁lamb	-12.298
▁Discover	-12.298
▁Tsada	-12.298
▁Wendy	-12.298
▁philanthropist	-12.298
▁plague	-12.298
MLB	-12.298
▁Mumps	-12.298
▁SIR	-12.298
▁advisor	-12.298
▁commission	-12.298
▁laundr	-12.298
▁marvellous	-12.298
▁stadium	-12.298
▁Jenni	-12.298
▁eliminat	-12.298
▁Fibrian	-12.298
▁Yamada	-12.298
▁complex	-12.298
▁Bureau	-12.298
▁MOVE	-12.298
▁Palace	-12.298
▁Whidb	-12.298
▁MUCH	-12.298
▁TWO	-12.298
LLOWS	-12.298
▁Appeal	-12.298
▁Wayne	-12.298
▁battered	-12.298
▁chef	-12.298
▁saunter	-12.298
▁admission	-12.298
▁beggar	-12.298
▁Johnnie	-12.298
▁Pazzaglia	-12.298
▁chamber	-12.298
▁comparison	-12.298
▁controversy	-12.298
▁crude	-12.298
▁outfit	-12.298
▁shrink	-12.298
▁suture	-12.298
▁recollect	-12.298
▁Federation	-12.298
▁XIV	-12.2981
▁marten	-12.2981
▁wolves	-12.2981
▁Blakeman	-12.2981
▁blabber	-12.2981
▁aspect	-12.2981
▁nerve	-12.2981
▁enemies	-12.2981
▁punctuation	-12.2981
▁Nevada	-12.2981
▁despised	-12.2981
▁salad	-12.2981
▁hostess	-12.2981
▁godfather	-12.2981
▁arf	-12.2981
▁prudent	-12.2981
▁division	-12.2981
▁festival	-12.2981
▁muslin	-12.2981
▁italian	-12.2981
TRUMAN	-12.2981
▁helmet	-12.2981
▁surplus	-12.2981
▁Bravo	-12.2981
▁Ruiz	-12.2981
▁Protection	-12.2981
▁corruption	-12.2981
▁assistance	-12.2981
▁hunhunh	-12.2981
▁bride	-12.2981
▁genie	-12.2981
▁liking	-12.2981
▁transcript	-12.2981
Anhalt	-12.2981
▁Apollo	-12.2981
▁poppop	-12.2981
▁FIRE	-12.2981
▁truncata	-12.2981
▁Legislature	-12.2981
▁weeping	-12.2981
▁CLOSES	-12.2981
▁surf	-12.2981
▁ABC	-12.2981
▁Belfast	-12.2981
▁Report	-12.2981
▁Sterling	-12.2981
▁educator	-12.2981
gnens	-12.2981
▁Gaskins	-12.2981
▁judgment	-12.2981
▁barefoot	-12.2981
▁virus	-12.2981
▁Faction	-12.2981
▁infection	-12.2981
▁gruffly	-12.2981
▁Perch	-12.2981
▁Iranian	-12.2981
▁cranberry	-12.2981
▁Tribe	-12.2981
▁croak	-12.2981
▁extraordinary	-12.2981
▁Socialist	-12.2981
▁masterpiece	-12.2981
▁travelling	-12.2981
▁rubbed	-12.2981
▁1890	-12.2981
▁1924	-12.2981
▁MONKEY	-12.2981
▁Java	-12.2981
▁transferred	-12.2981
hansk	-12.2981
▁Trost	-12.2981
▁Yoshino	-12.2981
▁novelist	-12.2981
▁Ethan	-12.2981
▁carpenter	-12.2981
garet	-12.2981
▁Jun	-12.2981
▁flicker	-12.2981
▁(19	-12.2981
rcade	-12.2981
▁acknowledge	-12.2981
▁mink	-12.2982
▁lemon	-12.2982
▁Gregg	-12.2982
▁pow	-12.2982
▁travelled	-12.2982
▁charities	-12.2982
▁Sharon	-12.2982
▁Trade	-12.2982
▁wrestler	-12.2982
▁Together	-12.2982
▁sunfish	-12.2982
▁Slayer	-12.2982
▁contemptuously	-12.2982
▁modest	-12.2982
▁Eisen	-12.2982
zul	-12.2982
LARS	-12.2982
▁technology	-12.2982
▁Riverside	-12.2982
▁harmless	-12.2983
▁Rover	-12.2983
▁SANTA	-12.2983
▁password	-12.2983
▁lightning	-12.2983
▁1888	-12.2983
▁touchdown	-12.2983
▁DAD	-12.2983
▁sawmill	-12.2983
▁voce	-12.2983
▁Eight	-12.2983
▁continuously	-12.2983
▁strictly	-12.2983
▁rapture	-12.2983
▁subconsciously	-12.2983
▁Yup	-12.2983
▁Rick	-12.2983
▁glider	-12.2983
▁Christie	-12.2983
▁Alstarnah	-12.2984
▁Awesome	-12.2984
▁Venezuela	-12.2984
▁buckingham	-12.2984
▁eastward	-12.2984
▁juncture	-12.2984
▁oxygen	-12.2984
▁rattling	-12.2984
▁persuade	-12.2984
▁Student	-12.2984
▁slumber	-12.2984
▁smack	-12.2984
▁scold	-12.2984
▁clapping	-12.2984
▁Jamal	-12.2984
▁Cinderella	-12.2984
▁Ouch	-12.2984
▁meaningless	-12.2984
▁comprehension	-12.2984
▁GIRLS	-12.2984
▁changies	-12.2984
▁shady	-12.2984
▁considerably	-12.2984
▁deliberately	-12.2984
▁decorate	-12.2984
▁takin	-12.2984
▁Guam	-12.2984
▁fig	-12.2984
▁freak	-12.2984
▁julian	-12.2984
▁Rockas	-12.2985
▁taxes	-12.2985
▁requirement	-12.2985
▁devoted	-12.2985
▁wowie	-12.2985
▁presentation	-12.2985
▁hopefully	-12.2985
▁Yost	-12.2986
ulens	-12.2986
▁assent	-12.2986
▁worship	-12.2986
▁snail	-12.2986
▁Lance	-12.2986
▁Illustrations	-12.2986
▁10%	-12.2986
OWN	-12.2986
▁Seriously	-12.2986
▁Burton	-12.2987
▁Luke	-12.2987
▁FACE	-12.2987
▁bait	-12.2987
▁anythin	-12.2987
▁suitable	-12.2987
▁dug	-12.2987
▁Store	-12.2988
▁waking	-12.2988
▁nickname	-12.2988
▁endure	-12.2988
▁bonk	-12.2988
▁Giovanni	-12.2989
▁mingl	-12.2989
▁LONG	-12.2989
▁Paradise	-12.2989
▁BBC	-12.2989
▁Gosh	-12.2989
▁Manchester	-12.2989
▁Sierra	-12.2989
▁Archa	-12.2989
▁invest	-12.2989
▁Steve	-12.299
▁Neither	-12.299
▁homework	-12.299
▁daylight	-12.299
▁waitress	-12.299
▁Mountie	-12.2991
▁separately	-12.2991
▁Tales	-12.2991
▁Personally	-12.2991
▁Mole	-12.2991
▁Bando	-12.2991
▁blend	-12.2991
▁51	-12.2991
▁leads	-12.2991
▁sweetness	-12.2992
▁Kate	-12.2992
▁gloomy	-12.2992
▁tomatoes	-12.2992
▁Arr	-12.2992
▁obey	-12.2993
myr	-12.2993
▁creepy	-12.2993
wiping	-12.2993
▁transcribed	-12.2993
▁Poland	-12.2993
▁ambulance	-12.2994
▁Hell	-12.2994
▁survived	-12.2994
▁Follow	-12.2995
▁Donneloye	-12.2995
▁giggling	-12.2995
▁reduced	-12.2995
▁Sul	-12.2995
▁homeward	-12.2996
▁romance	-12.2996
▁speeches	-12.2996
▁lago	-12.2996
▁1954)	-12.2997
▁Turner	-12.2998
▁restored	-12.2998
▁enormously	-12.2999
▁garth	-12.2999
▁thus	-12.2999
▁rendered	-12.2999
eval	-12.2999
▁Fork	-12.3
▁missus	-12.3001
▁equally	-12.3001
▁Brave	-12.3001
▁sandwiches	-12.3001
▁Dale	-12.3001
▁dough	-12.3002
▁disturbed	-12.3002
▁pissed	-12.3003
▁bush	-12.3003
)"	-12.3003
▁wobble	-12.3004
gate	-12.3004
▁Syria	-12.3004
▁hassy	-12.3004
Lord	-12.3005
▁Jacques	-12.3005
▁wider	-12.3006
▁Bang	-12.3006
▁assumed	-12.3006
▁swayed	-12.3006
▁True	-12.3007
▁genuine	-12.3007
▁fury	-12.3007
▁hooker	-12.3008
▁overcome	-12.3008
▁ignored	-12.3009
▁spoiled	-12.3009
▁sweeping	-12.301
▁blunt	-12.3011
▁sober	-12.3011
▁Made	-12.3012
▁poisoned	-12.3013
▁Guess	-12.3013
▁chairman	-12.3013
▁distinguished	-12.3013
▁mademoiselle	-12.3014
▁nighttime	-12.3014
▁52	-12.3016
tmospher	-12.3018
▁87	-12.3018
▁rack	-12.3018
▁taping	-12.3019
▁tricky	-12.302
▁silently	-12.302
▁cower	-12.302
▁margin	-12.3021
▁Sally	-12.3022
▁mangos	-12.3023
▁2021)	-12.3023
▁deeds	-12.3023
▁circuses	-12.3024
▁spanking	-12.3024
▁Bern	-12.3024
▁compassion	-12.3025
▁engineering	-12.3025
▁whine	-12.3026
▁unintelligible	-12.3026
▁mission	-12.3027
▁suspected	-12.3027
▁donkey	-12.3027
▁dryer	-12.3028
▁marching	-12.3028
▁achieved	-12.3029
▁exile	-12.3031
▁forgetting	-12.3031
▁shocked	-12.3033
order	-12.3033
Pin	-12.3033
▁waved	-12.3037
▁mixer	-12.3037
▁Labs	-12.3037
▁dancer	-12.3038
▁3.8	-12.3038
▁chiefly	-12.3039
▁loaded	-12.3039
▁businesses	-12.3039
ebarre	-12.304
▁chewing	-12.304
▁bl	-12.3041
▁outward	-12.3041
▁standin	-12.3042
Her	-12.3043
▁fallin	-12.3046
▁preacher	-12.305
▁consequences	-12.3052
▁diplomatic	-12.3052
▁Noel	-12.3052
val	-12.3052
▁firearm	-12.3053
▁ditch	-12.3053
▁maiden	-12.3056
▁brushed	-12.3057
BA	-12.3057
▁dread	-12.3058
▁ju	-12.3058
▁considering	-12.3059
▁2.5	-12.3061
ice	-12.3062
bert	-12.3063
really	-12.3064
▁echo	-12.3064
imme	-12.3066
▁sealed	-12.3066
▁Lama	-12.3067
▁contented	-12.3069
▁overnight	-12.3069
▁tune	-12.307
upp	-12.307
▁blessed	-12.3071
▁lakes	-12.3071
Billboard	-12.3075
▁toaster	-12.3076
France	-12.3076
▁makeup	-12.3078
▁traveled	-12.3078
▁freely	-12.3079
▁passages	-12.308
▁caves	-12.308
▁Boh	-12.3081
▁Arabs	-12.3082
20	-12.3084
▁Creat	-12.3088
4.2	-12.3089
▁Shan	-12.3091
▁Amen	-12.3096
▁softer	-12.3096
▁Canal	-12.3097
▁barked	-12.3097
Red	-12.3102
uhu	-12.3108
▁rifles	-12.3108
▁Systems	-12.3108
▁Variations	-12.3108
▁ancestors	-12.3108
▁plugs	-12.3109
▁overall	-12.3111
▁Iowa	-12.3111
▁hearth	-12.3112
▁autonom	-12.3115
▁Avery	-12.3117
07	-12.3119
▁ec	-12.3121
▁fooled	-12.3122
▁kicking	-12.3127
▁gladly	-12.3128
▁singsong	-12.313
▁heating	-12.3131
▁boxer	-12.3133
▁link	-12.3134
▁Burg	-12.3136
▁troops	-12.3137
▁ferns	-12.314
▁hereby	-12.3143
▁bursting	-12.3145
▁Harun	-12.3146
HE	-12.3147
▁doubtful	-12.3148
▁surprises	-12.3156
ano	-12.3162
▁explaining	-12.3167
▁stacking	-12.3169
▁mover	-12.3172
COV	-12.3173
Memorial	-12.3177
▁workin	-12.3178
eep	-12.3179
▁factors	-12.3179
▁heated	-12.318
sotto	-12.3184
▁Send	-12.3185
▁Die	-12.3188
▁marketing	-12.3191
▁Galle	-12.3192
▁mu	-12.3193
▁trusted	-12.3193
▁skates	-12.3194
▁riots	-12.3194
▁syllables	-12.3194
▁assholes	-12.3195
▁ruins	-12.3195
▁82	-12.3196
shaw	-12.3202
erry	-12.3203
▁46	-12.3204
sta	-12.3207
▁emotional	-12.3208
▁Kha	-12.3214
▁cu	-12.3221
inal	-12.3221
▁Communit	-12.3225
▁classic	-12.3227
▁drying	-12.3231
▁giggles	-12.3231
tag	-12.3231
▁Elect	-12.3234
▁outline	-12.3236
hat	-12.3239
uk	-12.3249
▁beasts	-12.325
▁knocks	-12.3251
▁Animals	-12.3252
▁volunteers	-12.3252
▁39	-12.3255
▁dam	-12.3256
▁Beck	-12.3263
▁joys	-12.3264
▁bombs	-12.3268
ei	-12.327
▁fellas	-12.3271
▁dee	-12.3274
1921	-12.3285
ff	-12.3289
▁Dec	-12.3296
IS	-12.33
uba	-12.3301
▁bathing	-12.3301
▁187	-12.3311
bed	-12.3313
▁strangers	-12.3315
▁aft	-12.3316
▁Hal	-12.3317
know	-12.3317
▁landed	-12.332
clunks	-12.333
..."	-12.3335
path	-12.334
▁shave	-12.3342
correct	-12.3344
▁exploit	-12.335
shell	-12.3356
▁helper	-12.3358
UCK	-12.336
▁2003.	-12.3361
▁lamps	-12.3368
▁leagues	-12.3368
▁lighter	-12.3372
▁tart	-12.3375
▁Rivers	-12.3379
▁Fra	-12.3379
▁Band	-12.3381
▁Hid	-12.3381
▁sleeves	-12.3384
cal	-12.3397
▁adults	-12.3406
ement	-12.3407
▁carrie	-12.3408
post	-12.3417
Jackie	-12.342
▁2.3	-12.3423
take	-12.3425
▁photos	-12.3427
▁cleared	-12.3434
▁anus	-12.3436
▁Lis	-12.3441
▁recogniz	-12.3443
Tick	-12.3443
▁civilize	-12.3446
▁Jad	-12.3447
bs	-12.3454
-1	-12.3455
▁Daniels	-12.3456
▁principles	-12.3457
western	-12.3463
acon	-12.347
▁Late	-12.347
ONS	-12.347
▁Ball	-12.3475
00.	-12.3477
ue	-12.3486
▁organizations	-12.3486
Bur	-12.3492
▁toad	-12.3493
▁forests	-12.3496
ré	-12.3496
▁Chan	-12.35
▁Po	-12.3508
▁comics	-12.351
▁seed	-12.3513
▁volumes	-12.3516
▁Stre	-12.3517
▁pots	-12.3522
▁Lau	-12.3524
quin	-12.3544
▁Springs	-12.3545
▁kills	-12.3554
lines	-12.3563
folk	-12.3563
ality	-12.3569
▁clients	-12.3575
2,	-12.3576
ady	-12.3577
tas	-12.3585
▁truthful	-12.359
▁depend	-12.359
▁Mer	-12.359
▁associate	-12.3602
▁dudes	-12.3605
▁cheers	-12.3607
▁bounds	-12.3611
▁starter	-12.3616
▁videotape	-12.3621
▁rags	-12.3624
▁Us	-12.3626
ringing	-12.3626
ani	-12.3633
▁occasions	-12.3635
ELL	-12.3642
iness	-12.3643
▁attracti	-12.3646
▁Thing	-12.3668
lated	-12.3678
▁inform	-12.3678
▁ted	-12.3679
▁drivers	-12.3686
▁Kin	-12.3692
▁managers	-12.3697
▁babe	-12.3703
rine	-12.3709
▁owes	-12.371
31	-12.3711
CA	-12.3713
▁Ros	-12.3714
▁conditions	-12.3725
class	-12.3726
com	-12.3726
▁1965	-12.3728
▁ru	-12.3734
▁85	-12.3738
▁advantages	-12.374
6.5	-12.3747
▁bananas	-12.3756
▁supervis	-12.3758
lex	-12.3762
▁Beyon	-12.3763
uth	-12.3764
ron	-12.3768
run	-12.3771
▁banne	-12.3774
▁continent	-12.3778
ces	-12.3779
▁Others	-12.3786
▁bundles	-12.3786
anilla	-12.3787
inancial	-12.3793
eth	-12.3816
mad	-12.3828
▁checks	-12.3837
▁remembering	-12.3846
zi	-12.3854
▁scrape	-12.3858
5.8	-12.3866
▁pac	-12.3868
net	-12.388
aring	-12.3887
base	-12.3889
▁tad	-12.389
lier	-12.3896
ure	-12.3898
▁gates	-12.3906
▁1968,	-12.3926
▁fished	-12.3929
▁meetings	-12.3932
ua	-12.3934
iti	-12.394
▁gene	-12.3946
logical	-12.3952
yle	-12.3952
▁Matt	-12.3977
▁goo	-12.3985
▁1937	-12.3986
í	-12.3994
▁suggests	-12.4005
gs	-12.4007
▁Fl	-12.401
▁seize	-12.4012
omed	-12.4012
▁res	-12.4024
masses	-12.4026
UE	-12.4026
9)	-12.4026
▁dangers	-12.4034
▁unto	-12.4036
▁tint	-12.4041
stic	-12.4053
▁battles	-12.4059
7)	-12.4071
▁PO	-12.4074
fi	-12.4075
tempo	-12.4083
▁hon	-12.4085
▁plo	-12.4087
▁crimes	-12.4094
nte	-12.4095
▁ob	-12.4125
▁guessed	-12.4131
▁Hel	-12.4132
onne	-12.4143
▁(10	-12.4144
▁quarters	-12.4146
▁campus	-12.4151
headed	-12.4153
grunts	-12.4154
▁gifts	-12.4157
▁partners	-12.4157
anny	-12.4161
▁va	-12.4166
incorrect	-12.4172
▁wag	-12.4173
▁disguis	-12.4175
ough	-12.4178
uther	-12.4178
rio	-12.4178
▁trucks	-12.4183
▁Q	-12.4184
cu	-12.4184
ments	-12.4186
▁films	-12.4191
▁possess	-12.4202
semit	-12.4203
▁owners	-12.4204
tru	-12.421
thod	-12.4211
▁Inside	-12.4214
▁rig	-12.423
▁greas	-12.4232
ug	-12.4238
▁clo	-12.4244
1953)	-12.4248
hash	-12.4273
actor	-12.4273
95	-12.4274
▁liver	-12.4275
reach	-12.4278
ight	-12.4281
ü	-12.4282
▁Glen	-12.4282
▁favorites	-12.4283
IES	-12.4291
▁forwards	-12.4299
uti	-12.4316
▁bud	-12.4321
atal	-12.4327
▁Plan	-12.4333
▁WAL	-12.4334
yan	-12.4353
ell	-12.4363
▁[12	-12.4366
▁MU	-12.4393
TO	-12.4394
▁wel	-12.4394
▁puttin	-12.4394
▁Juli	-12.4397
ning	-12.4402
door	-12.4407
▁1990.	-12.4407
keeper	-12.4413
▁yawn	-12.4416
mine	-12.4419
thank	-12.4424
sec	-12.443
pole	-12.4433
▁involv	-12.4437
object	-12.4438
▁tradition	-12.4441
▁63	-12.4442
▁crisp	-12.4445
▁wrist	-12.4445
▁treasure	-12.4445
▁sailor	-12.4447
▁cabbage	-12.445
▁raccoon	-12.4454
▁championship	-12.4455
▁Qu	-12.4455
▁civilian	-12.4456
▁objective	-12.4456
successfully	-12.4457
▁argument	-12.4458
▁stripe	-12.4458
▁hiccup	-12.4459
minded	-12.446
▁employee	-12.446
▁Writer	-12.4461
▁Blue	-12.4461
▁fraud	-12.4463
▁Key	-12.4463
▁[17	-12.4466
▁troop	-12.4466
▁permit	-12.4467
▁stump	-12.4467
▁angel	-12.4467
▁palm	-12.4467
▁Sister	-12.4467
▁genre	-12.4468
▁insect	-12.447
▁loser	-12.447
▁Service	-12.4471
▁dip	-12.4472
ILDA	-12.4472
mill	-12.4472
▁mode	-12.4473
▁fern	-12.4475
▁stor	-12.4476
▁Wi	-12.4477
▁prisoner	-12.4478
▁medi	-12.4482
fa	-12.4484
▁Gla	-12.4486
▁Ald	-12.4487
▁Bran	-12.4489
utonom	-12.4491
▁Kansa	-12.4495
▁Rai	-12.4495
▁circula	-12.45
▁Lamb	-12.4503
▁rec	-12.4508
step	-12.4511
▁Fish	-12.4511
owa	-12.4523
odle	-12.4528
ppe	-12.4529
▁Dam	-12.453
▁complain	-12.4532
rug	-12.4534
wai	-12.4535
▁Hesse	-12.4536
▁fighter	-12.4537
rcol	-12.4542
▁65	-12.4543
NK	-12.4549
▁upward	-12.455
mic	-12.456
▁Fla	-12.4565
raffic	-12.4568
è	-12.457
▁contribute	-12.4571
color	-12.4574
▁Start	-12.4574
wise	-12.4576
▁slap	-12.4578
▁49	-12.4579
▁mar	-12.458
fall	-12.4582
stop	-12.4584
▁Yam	-12.4585
▁[$=	-12.4585
▁mak	-12.4586
hind	-12.4587
ando	-12.4587
mouth	-12.4588
gun	-12.4595
heart	-12.4598
Harper	-12.46
Pitt	-12.46
▁disappoint	-12.46
▁sap	-12.4601
▁Tr	-12.4602
▁shiver	-12.4602
leep	-12.4604
ère	-12.4604
imploded	-12.4605
[	-12.4605
▁wreck	-12.4606
DO	-12.4606
whimpering	-12.4607
Candyman	-12.4608
Yverdon	-12.4608
doves	-12.4609
Neil	-12.4609
Guess	-12.4609
whimpers	-12.4609
erases	-12.461
Lausanne	-12.461
knocks	-12.461
father	-12.461
Down	-12.461
Stacy	-12.4611
Hurry	-12.4611
Ukrainian	-12.4611
crawl	-12.4611
Shut	-12.4611
apparently	-12.4611
Pop	-12.4611
knife	-12.4611
Keep	-12.4611
Listen	-12.4611
Black	-12.4611
spread	-12.4611
penny	-12.4611
Great	-12.4611
People	-12.4611
Tripp	-12.4611
French	-12.4611
third	-12.4612
smiling	-12.4612
wide	-12.4612
sometimes	-12.4612
Old	-12.4612
movie	-12.4612
green	-12.4612
include	-12.4612
Fuck	-12.4612
flying	-12.4612
▁reproach	-12.4612
leaves	-12.4612
turned	-12.4613
Nothing	-12.4613
letter	-12.4615
always	-12.4615
Day	-12.4615
▁gen	-12.4616
poor	-12.4617
bite	-12.4618
true	-12.4618
past	-12.4619
▁recruit	-12.4619
▁Fi	-12.4619
▁peck	-12.4619
earn	-12.462
▁punish	-12.4623
cup	-12.4624
Stop	-12.4625
▁fascinat	-12.4625
▁render	-12.4625
▁86	-12.4626
▁argue	-12.4626
▁talent	-12.4626
cold	-12.4627
▁reverse	-12.4627
▁delay	-12.4627
minated	-12.4628
▁buzz	-12.4628
▁mop	-12.4629
MO	-12.4629
▁Bowl	-12.4629
▁reduce	-12.4629
▁venture	-12.463
▁convince	-12.463
▁commence	-12.463
▁Train	-12.463
toe	-12.4631
▁multicultural	-12.4632
ify	-12.4632
▁breed	-12.4633
OUT	-12.4634
does	-12.4634
odern	-12.4635
▁Marsh	-12.4638
▁XV	-12.4639
▁random	-12.4639
▁Monke	-12.464
▁Serious	-12.464
▁Certain	-12.464
final	-12.4641
▁CIRCU	-12.4641
▁rash	-12.4641
▁brisk	-12.4641
▁Korea	-12.4641
mademoiselle	-12.4642
bois	-12.4642
▁republic	-12.4642
everend	-12.4643
pigot	-12.4643
orduroy	-12.4644
umpty	-12.4644
▁earnest	-12.4645
ritique	-12.4645
ECT	-12.4645
▁Eagle	-12.4645
▁dwel	-12.4645
IGHT	-12.4645
▁declare	-12.4646
ky	-12.4646
▁Person	-12.4646
lving	-12.4646
▁grocer	-12.4646
eadow	-12.4646
▁slam	-12.4646
▁XII	-12.4646
▁Engine	-12.4647
ondrous	-12.4647
▁Nei	-12.4647
▁cinema	-12.4647
▁enthusias	-12.4647
▁sovereign	-12.4647
▁Pazzag	-12.4647
▁auction	-12.4647
▁AGA	-12.4647
▁brew	-12.4647
AAA	-12.4647
ś	-12.4647
▁Dompierre	-12.4647
▁Ecuador	-12.4647
▁Goldsmith	-12.4647
▁Spaniard	-12.4647
▁clarinet	-12.4647
▁excursion	-12.4647
▁nephew	-12.4647
▁prospect	-12.4647
▁sequel	-12.4647
COOPER	-12.4647
Chavornay	-12.4647
Chestnut	-12.4647
Dalbergia	-12.4647
Imagine	-12.4647
exasperat	-12.4647
sponsibilities	-12.4647
spress	-12.4647
à	-12.4647
▁(2015)	-12.4647
▁AFTER	-12.4647
▁Adventure	-12.4647
▁Alabama	-12.4647
▁Alejandro	-12.4647
▁Anoctah	-12.4647
▁Answer	-12.4647
▁Atlanta	-12.4647
▁BATH	-12.4647
▁Barbara	-12.4647
▁Beatrice	-12.4647
▁Beijing	-12.4647
▁Bubba	-12.4647
▁Bunkie	-12.4647
▁Cunningham	-12.4647
▁Duflo	-12.4647
▁EDITH	-12.4647
▁Eclagnens	-12.4647
▁Fantastic	-12.4647
▁Fitzgerald	-12.4647
▁Flycatcher	-12.4647
▁Fontanezier	-12.4647
▁Gavà	-12.4647
▁Gippsland	-12.4647
▁Goumoëns	-12.4647
▁Holck	-12.4647
▁JULIA	-12.4647
▁Jellyfish	-12.4647
▁Kelantan	-12.4647
▁Lanchester	-12.4647
▁Language	-12.4647
▁Leslie	-12.4647
▁MAGIC	-12.4647
▁MISTAKE	-12.4647
▁MUSIC	-12.4647
▁Manager	-12.4647
▁Masakuni	-12.4647
▁Massacre	-12.4647
▁Miyamoto	-12.4647
▁Morticia	-12.4647
▁Muslim	-12.4647
▁Neptune	-12.4647
▁Nestlé	-12.4647
▁Nevertheless	-12.4647
▁Nicatoos	-12.4647
▁Oedipus	-12.4647
▁Okinawa	-12.4647
▁Parlor	-12.4647
▁Peacocke	-12.4647
▁Porgie	-12.4647
▁Ratcliffe	-12.4647
▁Relax	-12.4647
▁Rhonda	-12.4647
▁Romairon	-12.4647
▁Rovray	-12.4647
▁SWEET	-12.4647
▁Scotia	-12.4647
▁Semenza	-12.4647
▁Snyder	-12.4647
▁Species	-12.4647
▁Stupid	-12.4647
▁Swahili	-12.4647
▁THOUGHT	-12.4647
▁Takahara	-12.4647
▁Tekirdağ	-12.4647
▁Temperance	-12.4647
▁Teraoka	-12.4647
▁Tévenon	-12.4647
▁Uegaki	-12.4647
▁YOUNG	-12.4647
▁Yamamoto	-12.4647
▁Zhadan	-12.4647
▁batteries	-12.4647
▁behaving	-12.4647
▁behaviour	-12.4647
▁constellation	-12.4647
▁countenance	-12.4647
▁decelerat	-12.4647
▁defensive	-12.4647
▁devotion	-12.4647
▁eternal	-12.4647
▁eugenioi	-12.4647
▁grandeur	-12.4647
▁gullies	-12.4647
▁historian	-12.4647
▁implement	-12.4647
▁juggling	-12.4647
▁jurisdiction	-12.4647
▁knelt	-12.4647
▁lollipop	-12.4647
▁manufacturing	-12.4647
▁mbbm	-12.4647
▁merchant	-12.4647
▁mischievous	-12.4647
▁monitor	-12.4647
▁physician	-12.4647
▁possibilities	-12.4647
▁prescribe	-12.4647
▁proportion	-12.4647
▁prosopagnosia	-12.4647
▁pseudonym	-12.4647
▁remorse	-12.4647
▁retrieve	-12.4647
▁scarecrow	-12.4647
▁shield	-12.4647
▁smelt	-12.4647
▁stimulus	-12.4647
▁sturdy	-12.4647
▁theoretical	-12.4647
▁unique	-12.4647
▁vault	-12.4647
▁violence	-12.4647
▁violets	-12.4647
▁wheelbarrow	-12.4647
â	-12.4647
▁CHILDREN	-12.4647
▁Dennis	-12.4647
▁PARTNER	-12.4647
▁Piedmont	-12.4647
▁Prefecture	-12.4647
▁René	-12.4647
▁Roosky	-12.4647
▁accelerat	-12.4647
▁bribe	-12.4647
▁creaks	-12.4647
▁mirth	-12.4647
▁particulates	-12.4647
▁urns	-12.4647
▁vampire	-12.4647
crete	-12.4647
▁988)	-12.4647
▁SHOW	-12.4647
▁Tehran	-12.4647
▁Urgh	-12.4647
▁admirabl	-12.4647
▁audio	-12.4647
▁brooch	-12.4647
▁centimeters	-12.4647
▁eligible	-12.4647
▁survivors	-12.4647
▁Geneva	-12.4647
▁Hitler	-12.4647
▁spelt	-12.4647
▁Definitely	-12.4647
▁Scissor	-12.4647
▁cliff	-12.4647
▁thither	-12.4647
▁wrestling	-12.4647
▁zebra	-12.4647
▁Cancer	-12.4647
▁OFFERED	-12.4647
▁Slim	-12.4647
▁clang	-12.4647
▁divine	-12.4647
▁spider	-12.4647
▁virtue	-12.4647
▁Accept	-12.4647
▁Alliance	-12.4647
▁BABY	-12.4647
▁Colbert	-12.4647
▁LETTER	-12.4647
▁confusion	-12.4647
▁finance	-12.4647
▁unaware	-12.4647
▁constitute	-12.4647
▁creaking	-12.4647
▁engrav	-12.4647
▁Hyacinth	-12.4647
▁Ridge	-12.4647
▁facilities	-12.4647
▁Enjoy	-12.4647
▁HORSE	-12.4647
▁brood	-12.4647
▁timber	-12.4647
▁Marcia	-12.4647
▁NEVER	-12.4647
▁SEARCH	-12.4647
▁cherish	-12.4647
▁priorities	-12.4647
▁Collegi	-12.4647
▁Vermont	-12.4647
▁stunt	-12.4647
▁Abdel	-12.4647
▁Pollard	-12.4647
▁bashful	-12.4647
▁precinct	-12.4647
april	-12.4647
▁Wilson	-12.4647
▁jeffersonian	-12.4647
▁quantity	-12.4647
▁casual	-12.4647
▁dingdong	-12.4647
▁psychiatrist	-12.4647
▁Arnex	-12.4647
▁LAURA	-12.4647
▁Saragi	-12.4647
▁cockatoo	-12.4647
▁Salmon	-12.4647
▁Crossfire	-12.4647
▁Hampton	-12.4647
▁Daisy	-12.4647
▁USSR	-12.4647
▁detache	-12.4647
▁uncommon	-12.4647
▁crew	-12.4647
▁Hesston	-12.4647
▁JANE	-12.4647
▁extensive	-12.4647
▁GLAD	-12.4647
▁establishment	-12.4647
HUMMING	-12.4647
▁HAND	-12.4647
▁MORE	-12.4647
▁captivity	-12.4647
▁drummer	-12.4647
▁jellyfishes	-12.4647
▁vicious	-12.4647
▁civilization	-12.4647
▁offense	-12.4647
▁$500	-12.4647
▁Cyprus	-12.4647
▁spiritual	-12.4647
▁sovereignty	-12.4647
▁kingdom	-12.4647
▁thief	-12.4647
ialogue	-12.4647
▁gnaw	-12.4647
▁temptation	-12.4647
nchez	-12.4647
▁poverty	-12.4647
▁slim	-12.4647
▁Colombia	-12.4647
▁EVEN	-12.4647
▁panther	-12.4647
▁temple	-12.4647
▁wrench	-12.4647
▁flashlight	-12.4647
▁whittle	-12.4647
▁expans	-12.4647
▁Grandpa	-12.4647
▁bullshit	-12.4647
▁Oslo	-12.4647
▁Whistler	-12.4647
▁yoyo	-12.4647
▁FAIR	-12.4647
▁goshawk	-12.4647
▁HBO	-12.4647
▁petition	-12.4647
▁Jordan	-12.4647
▁Rhodesia	-12.4647
▁blink	-12.4647
▁molecul	-12.4647
▁contribution	-12.4648
▁1920	-12.4648
▁radioactive	-12.4648
▁mudhole	-12.4648
▁froggie	-12.4648
▁1908	-12.4648
▁Abbas	-12.4648
▁Magic	-12.4648
▁Gamble	-12.4648
▁misbehave	-12.4648
▁filth	-12.4648
▁Medal	-12.4648
▁Fortunately	-12.4648
▁Landsberg	-12.4648
▁observation	-12.4648
▁Angeli	-12.4648
▁Kazu	-12.4648
▁homesickness	-12.4648
▁Tomatoes	-12.4648
▁unbelievable	-12.4648
▁butterflies	-12.4648
▁blup	-12.4648
▁contrary	-12.4648
▁enterprise	-12.4648
▁apologies	-12.4648
▁documentary	-12.4648
▁jury	-12.4648
▁Todd	-12.4648
▁Steel	-12.4648
▁Egyptian	-12.4648
▁Kirk	-12.4648
▁quarterback	-12.4648
▁Riley	-12.4648
▁apology	-12.4648
▁comfortably	-12.4648
▁(1973)	-12.4648
▁blah	-12.4648
▁defence	-12.4648
▁Castle	-12.4648
▁Goddammit	-12.4648
▁rewind	-12.4648
▁burrow	-12.4648
▁padded	-12.4648
▁Singh	-12.4648
▁cleanliness	-12.4648
▁spinach	-12.4648
▁metropolitan	-12.4648
▁blueberry	-12.4648
▁hockey	-12.4648
▁conviction	-12.4648
▁regiment	-12.4648
▁sugarcane	-12.4648
wich	-12.4648
▁Careful	-12.4648
▁walnutting	-12.4648
▁VIP	-12.4648
▁fingernail	-12.4648
▁YEARS	-12.4648
▁Tsu	-12.4649
▁eaves	-12.4649
▁Rhy	-12.4649
▁partnership	-12.4649
melia	-12.4649
▁2024	-12.4649
▁Gilles	-12.4649
▁Testa	-12.4649
▁bookworm	-12.4649
▁confrontation	-12.4649
ulous	-12.4649
usbee	-12.4649
▁Michelle	-12.4649
▁finalist	-12.4649
▁profile	-12.4649
▁Slowly	-12.4649
▁peasant	-12.4649
▁Fight	-12.4649
▁Vaug	-12.4649
▁squad	-12.4649
▁waist	-12.4649
▁hypocrite	-12.4649
▁retorted	-12.4649
▁Dirt	-12.4649
▁stabbed	-12.4649
▁motionless	-12.4649
▁unsuccessful	-12.4649
▁yuck	-12.4649
▁Donbas	-12.465
▁attendant	-12.465
▁Dunno	-12.465
▁Pickle	-12.465
▁Angela	-12.465
▁Peng	-12.465
▁enchant	-12.465
▁Stamp	-12.465
▁messenger	-12.465
▁(2014)	-12.465
▁Human	-12.465
▁reactor	-12.465
▁rosewood	-12.465
▁riddle	-12.465
▁Dumpty	-12.465
▁foul	-12.465
▁hoop	-12.465
▁LIVE	-12.465
▁disposition	-12.465
▁hub	-12.465
▁dummy	-12.4651
▁engagement	-12.4651
▁lobe	-12.4651
▁HELP	-12.4651
▁remarkable	-12.4651
▁Hakeem	-12.4651
▁bunk	-12.4651
▁collapse	-12.4651
▁Negro	-12.4651
▁Tallula	-12.4651
▁Vienna	-12.4651
▁WATER	-12.4651
▁dissolve	-12.4651
▁gratitude	-12.4651
▁physicist	-12.4651
▁primitive	-12.4651
▁184	-12.4651
▁Eduard	-12.4651
▁Judge	-12.4651
▁astronaut	-12.4651
▁script	-12.4651
▁lyin	-12.4651
▁Shh	-12.4651
▁enable	-12.4651
▁advertisement	-12.4651
▁filter	-12.4651
▁Television	-12.4651
▁Fool	-12.4651
▁humour	-12.4651
▁WON	-12.4651
▁footsteps	-12.4651
▁tonic	-12.4651
▁Harold	-12.4651
▁specialty	-12.4651
▁HAPPY	-12.4651
▁Jock	-12.4651
▁grandpa	-12.4651
▁Wales	-12.4651
▁Philippe	-12.4651
▁Harrison	-12.4651
▁Funny	-12.4652
▁vertebrae	-12.4652
▁Previously	-12.4652
▁glare	-12.4652
▁Sweetie	-12.4652
▁1913	-12.4652
▁Shereen	-12.4652
▁endorsed	-12.4652
▁untied	-12.4652
▁1961)	-12.4652
▁Sears	-12.4652
▁Cosmo	-12.4652
▁tits	-12.4652
▁Swan	-12.4652
▁fondness	-12.4652
▁maam	-12.4653
▁trapped	-12.4653
▁photographer	-12.4653
▁Scottish	-12.4653
▁swell	-12.4653
▁Porto	-12.4653
▁vary	-12.4653
ieur	-12.4653
▁hace	-12.4653
glass	-12.4653
icles	-12.4653
▁overtake	-12.4653
▁93	-12.4653
icular	-12.4653
▁Evette	-12.4653
▁witnesses	-12.4653
▁Building	-12.4653
▁tacky	-12.4653
▁Tibetan	-12.4653
▁mister	-12.4654
▁1918	-12.4654
▁devastated	-12.4654
▁Storm	-12.4654
▁strengthened	-12.4654
▁Cover	-12.4654
▁Meet	-12.4654
▁slime	-12.4654
▁acquit	-12.4654
▁(14	-12.4654
call	-12.4654
▁Hour	-12.4654
▁woes	-12.4654
▁Hiro	-12.4655
▁1956)	-12.4655
▁Pick	-12.4655
▁Whoever	-12.4655
named	-12.4655
ssums	-12.4655
▁concluded	-12.4655
▁participated	-12.4655
▁Alfredo	-12.4655
▁Luis	-12.4655
▁Guer	-12.4656
▁3.1	-12.4656
▁VIII	-12.4656
▁COLD	-12.4656
▁Flore	-12.4656
▁springtime	-12.4656
▁robbed	-12.4657
▁philosophical	-12.4657
▁inventor	-12.4657
3.3	-12.4657
▁Walter	-12.4657
▁invisible	-12.4657
▁4.5	-12.4657
▁Gold	-12.4657
▁copied	-12.4658
▁communication	-12.4658
SAID	-12.4658
▁shift	-12.4658
▁absent	-12.4658
▁boyhood	-12.4658
▁Large	-12.4658
▁resume	-12.4658
▁invaded	-12.4658
▁awaken	-12.4658
▁54	-12.4659
▁Stories	-12.4659
▁followers	-12.4659
▁Hiya	-12.4659
hoe	-12.4659
▁Sort	-12.4659
nasal	-12.466
▁BEST	-12.466
ounty	-12.466
▁rejoiced	-12.4661
▁Victory	-12.4661
▁elsewhere	-12.4661
▁Sheila	-12.4661
▁accomplished	-12.4661
▁unlocked	-12.4661
▁smother	-12.4661
▁soberly	-12.4661
▁Howard	-12.4661
▁gee	-12.4661
lice	-12.4662
rough	-12.4662
dwin	-12.4662
▁drowning	-12.4662
▁89	-12.4662
▁fifteenth	-12.4662
▁digni	-12.4663
▁chatt	-12.4663
▁Hamburg	-12.4663
▁repel	-12.4663
▁uprising	-12.4663
▁acro	-12.4664
▁Sleep	-12.4664
▁Sad	-12.4664
▁Walk	-12.4664
▁Ghost	-12.4665
▁alleviat	-12.4665
▁holly	-12.4665
▁henry	-12.4665
arin	-12.4665
▁departed	-12.4665
▁tempted	-12.4665
_3	-12.4666
▁haunted	-12.4666
▁realistic	-12.4666
erial	-12.4666
▁stink	-12.4666
▁Universi	-12.4666
▁chirping	-12.4666
▁descendants	-12.4666
mom	-12.4666
▁Englishman	-12.4666
▁Loy	-12.4667
▁fragrant	-12.4667
▁shaved	-12.4667
▁cheaper	-12.4668
▁JACK	-12.4668
▁chewy	-12.4668
▁backhand	-12.4668
▁encouraged	-12.4668
▁Site	-12.4668
▁Morn	-12.4668
▁1955)	-12.4668
▁CAREER	-12.4669
▁utt	-12.4669
▁shivered	-12.4669
▁faction	-12.467
▁stinking	-12.467
▁chuckled	-12.467
▁growling	-12.4671
▁thankfully	-12.4671
▁Eat	-12.4671
▁captured	-12.4671
▁soaked	-12.4672
▁pear	-12.4673
▁induce	-12.4673
▁echoed	-12.4673
▁eighth	-12.4673
▁downtown	-12.4674
▁shutting	-12.4674
▁complaining	-12.4674
▁disgusting	-12.4674
▁handful	-12.4675
UR	-12.4675
▁couches	-12.4675
▁hangin	-12.4675
▁mary	-12.4676
▁Bright	-12.4677
▁Due	-12.4677
aught	-12.4677
▁snapping	-12.4678
▁thoughtful	-12.4678
venge	-12.4678
▁strongest	-12.4678
▁Hale	-12.4679
▁carby	-12.4679
▁ballroom	-12.468
▁lifetime	-12.468
▁expanded	-12.4681
▁threatening	-12.4682
▁researcher	-12.4683
▁interior	-12.4684
▁clue	-12.4686
▁hideous	-12.4687
▁Louise	-12.4687
▁84	-12.4687
▁guaranteed	-12.4687
▁defender	-12.4687
▁womb	-12.4688
▁dna	-12.4688
▁teased	-12.4688
▁Case	-12.4689
addies	-12.469
▁repaired	-12.469
▁assisted	-12.469
▁smi	-12.469
▁EFF	-12.469
▁Landing	-12.4691
▁cupboard	-12.4691
▁cured	-12.4692
purity	-12.4692
ecutive	-12.4692
▁(9	-12.4693
▁insistent	-12.4693
▁rung	-12.4693
▁buff	-12.4694
▁appropriately	-12.4695
slides	-12.4695
IC	-12.4696
cyclist	-12.4696
▁ached	-12.4696
orex	-12.4696
▁beater	-12.4697
▁satin	-12.4697
▁poisoning	-12.4698
ajan	-12.4699
▁existed	-12.4699
▁Cher	-12.4699
▁deeper	-12.47
cular	-12.47
▁sinking	-12.47
▁printers	-12.47
▁hood	-12.4701
▁poachers	-12.4703
▁fitting	-12.4703
▁willingly	-12.4704
▁outcome	-12.4704
▁Word	-12.4704
▁Aires	-12.4706
▁immortal	-12.4707
▁walkin	-12.4707
▁misses	-12.4708
▁fried	-12.4709
▁damp	-12.4709
▁borrowed	-12.471
▁formation	-12.471
▁plumes	-12.471
▁awakened	-12.471
▁commented	-12.4711
▁avoided	-12.4714
▁hawk	-12.4714
▁END	-12.4714
▁loft	-12.4715
ballo	-12.4715
▁damaged	-12.4717
▁disk	-12.4717
▁tended	-12.4717
▁grumble	-12.472
▁headquarter	-12.4721
▁Rivera	-12.4721
▁squeezed	-12.4721
▁clattering	-12.4722
▁dan	-12.4724
▁bravely	-12.4725
Sir	-12.4727
▁lease	-12.4727
▁publicly	-12.4727
▁wring	-12.4728
AUGHT	-12.473
▁failing	-12.4732
▁knuckles	-12.4732
▁quilts	-12.4732
▁crotchets	-12.4732
▁settlers	-12.4733
▁poll	-12.4734
▁Miles	-12.4734
▁fucker	-12.4735
▁strings	-12.4735
▁Shoot	-12.4738
▁Creature	-12.4738
▁dearest	-12.4739
▁Heron	-12.474
▁appreciated	-12.4742
▁(5	-12.4742
▁fronto	-12.4744
abbage	-12.4745
ix	-12.4746
asks	-12.4747
aya	-12.4747
TV	-12.4748
▁2.6	-12.4753
rawi	-12.4755
▁brightly	-12.4756
nicky	-12.4756
▁decidedly	-12.4757
▁judged	-12.4757
Eye	-12.476
▁lest	-12.4763
rabi	-12.4764
▁+	-12.4764
▁windshields	-12.4766
▁Whoops	-12.4766
▁cooler	-12.477
▁roses	-12.477
▁hunters	-12.4771
▁balanced	-12.4771
▁fleet	-12.4773
▁appealing	-12.4775
chian	-12.4777
Hey	-12.4783
▁trot	-12.4785
▁sucker	-12.4786
oval	-12.4786
these	-12.4786
▁holders	-12.4792
▁Frei	-12.4793
cho	-12.4794
kus	-12.4794
ella	-12.4794
poles	-12.4796
▁Fisher	-12.4797
rich	-12.4799
▁vitamins	-12.48
11	-12.48
▁reviews	-12.48
▁surroundings	-12.48
▁Walendas	-12.48
▁Friends	-12.4801
▁bandages	-12.4801
▁incorporated	-12.4801
▁Chu	-12.4802
▁wale	-12.4805
▁beads	-12.4805
▁supporter	-12.4808
probable	-12.4808
▁Priso	-12.4808
orac	-12.4808
▁shriek	-12.4812
Johann	-12.4812
▁hou	-12.4813
▁Masa	-12.4832
▁frauds	-12.4835
▁Inc	-12.4836
▁1992.	-12.4837
▁Sp	-12.4839
▁eatin	-12.484
▁pew	-12.4843
▁angels	-12.4843
▁PS	-12.4844
many	-12.4848
▁growl	-12.4849
FF	-12.485
▁Emir	-12.485
▁onward	-12.4852
!'"	-12.4853
▁inappropriate	-12.4853
▁Count	-12.4862
pin	-12.4866
▁Names	-12.4867
dr	-12.4868
▁somersaults	-12.4869
▁suggestions	-12.4869
▁tir	-12.4871
▁messing	-12.4875
IST	-12.4876
▁genera	-12.4877
▁graphic	-12.4881
▁baker	-12.4884
▁ston	-12.4886
agent	-12.4891
▁Mass	-12.4892
▁stoned	-12.4893
▁Ser	-12.4895
▁posted	-12.49
▁1923	-12.4901
▁lanterns	-12.4903
▁grants	-12.4904
▁tal	-12.4904
▁cou	-12.4907
▁Natur	-12.4908
cept	-12.4919
▁farming	-12.4921
▁psycho	-12.4921
says	-12.4927
▁lively	-12.4927
dder	-12.493
win	-12.4932
▁differences	-12.4937
▁senators	-12.4938
▁dealer	-12.4938
▁mules	-12.4938
▁taxis	-12.494
▁hanged	-12.4949
▁rac	-12.495
▁Sat	-12.4955
▁Taka	-12.4955
faced	-12.4958
shy	-12.4959
▁fearful	-12.4962
baldi	-12.4966
▁identifie	-12.4968
▁Luk	-12.497
▁flames	-12.4973
hl	-12.4983
took	-12.4988
//	-12.499
▁Rac	-12.4998
▁skirts	-12.4999
▁Cut	-12.5002
abouts	-12.5004
abella	-12.5005
lies	-12.5009
▁decks	-12.501
▁crows	-12.501
▁Mesk	-12.5013
▁Finn	-12.5014
pay	-12.5015
environmentalist	-12.5027
▁rivers	-12.5035
boys	-12.5038
wing	-12.5039
▁ordering	-12.504
▁Tonsils	-12.5043
rina	-12.5044
works	-12.5045
▁cooker	-12.5045
▁plug	-12.5049
gone	-12.5053
▁una	-12.5054
▁files	-12.5056
▁McD	-12.5064
ux	-12.5072
uil	-12.5072
▁elbows	-12.5078
▁pictured	-12.5078
▁constables	-12.5078
▁bugg	-12.5084
▁afar	-12.5086
▁muster	-12.5092
▁rightly	-12.5092
▁deaths	-12.5095
▁pi	-12.5095
▁undergo	-12.5095
▁Emili	-12.5097
▁Mari	-12.5102
▁Francesc	-12.5105
pox	-12.5106
noted	-12.511
▁Ban	-12.5111
▁Poo	-12.5112
▁Mat	-12.5112
▁Marbles	-12.5113
▁stables	-12.5115
angular	-12.5117
▁Char	-12.5122
thology	-12.5136
▁Mill	-12.5136
rance	-12.5137
seven	-12.5139
▁Enri	-12.514
Dance	-12.5148
ranger	-12.515
▁Cy	-12.5152
▁Barr	-12.5153
St	-12.5154
ups	-12.5159
▁forge	-12.5161
▁taps	-12.5166
▁Ples	-12.5168
▁stated	-12.517
pping	-12.5171
▁Set	-12.5173
▁165	-12.518
ole	-12.518
▁Wing	-12.5181
▁Simpsons	-12.5184
ives	-12.5193
ís	-12.5201
▁impress	-12.5201
▁drums	-12.5215
▁Off	-12.5217
▁MAK	-12.5221
pop	-12.5226
rico	-12.5234
▁yells	-12.5236
ullen	-12.5241
▁promises	-12.525
bal	-12.5252
▁functions	-12.5255
▁Pet	-12.5255
try	-12.5262
zis	-12.5267
using	-12.5269
rank	-12.5271
ille	-12.5273
▁Hans	-12.5275
▁sunk	-12.5282
▁tips	-12.5286
oc	-12.529
ello	-12.5295
▁spells	-12.5298
É	-12.5299
ax	-12.5301
▁ants	-12.5301
▁ren	-12.5304
▁nestle	-12.5318
Ka	-12.5321
ebbe	-12.5323
nay	-12.5334
▁bid	-12.5335
▁tutor	-12.5356
▁joints	-12.536
▁Books	-12.5363
eka	-12.5369
"—	-12.5371
fastened	-12.538
▁sly	-12.5382
▁wit	-12.5384
rsity	-12.5391
▁82.	-12.5396
▁motorcycles	-12.5399
rap	-12.5401
▁Dem	-12.5402
apped	-12.541
▁creativ	-12.5411
ata	-12.5415
▁appearances	-12.5417
mu	-12.5417
TH	-12.5429
verse	-12.5432
agged	-12.5434
▁Catholics	-12.5436
ert	-12.5442
BER	-12.5443
kins	-12.5451
▁proven	-12.5457
ray	-12.5458
▁expose	-12.546
▁seeming	-12.546
ef	-12.5461
▁Que	-12.5463
▁stirr	-12.5463
ased	-12.5467
▁appreciates	-12.5474
ln	-12.5481
ilkman	-12.5486
cla	-12.5491
▁prob	-12.5495
▁grandmothers	-12.5508
YM	-12.551
▁pu	-12.5527
chu	-12.5541
▁Works	-12.5543
▁shovels	-12.5545
▁bicycles	-12.5545
▁pm	-12.5554
▁chi	-12.556
ssel	-12.5563
Screaming	-12.5568
▁preserve	-12.5572
ask	-12.5578
▁breasts	-12.5582
▁purposes	-12.5582
ient	-12.5582
RY	-12.5596
sit	-12.5611
ONE	-12.5619
▁calculat	-12.5628
▁reviv	-12.5635
ku	-12.5643
▁SM	-12.5644
ried	-12.5645
pretending	-12.565
▁wars	-12.5655
heated	-12.566
▁violat	-12.5664
Tail	-12.5664
NO	-12.5669
▁44	-12.567
▁northwest	-12.567
ONCE	-12.5677
ripped	-12.5683
7.5	-12.5704
▁tack	-12.5705
TON	-12.5707
▁Dominic	-12.5708
▁41	-12.5711
té	-12.5711
oil	-12.5713
osh	-12.5719
▁Simone	-12.5724
▁officiate	-12.5726
ica	-12.573
▁computers	-12.5731
▁lur	-12.5739
aval	-12.5745
▁Messi	-12.5749
▁Jen	-12.5752
aki	-12.5754
▁dedicate	-12.5754
mid	-12.5754
aka	-12.5762
ram	-12.5763
iate	-12.5764
bc	-12.5766
▁amiabl	-12.5774
▁strain	-12.579
▁psych	-12.5801
▁associat	-12.5813
▁sighs	-12.5817
wn	-12.5822
▁Qua	-12.5826
placement	-12.5834
▁Wee	-12.5835
▁furnish	-12.5853
▁Tac	-12.5859
▁blames	-12.5872
▁Sar	-12.5877
ati	-12.5892
▁Vall	-12.5894
▁explore	-12.5895
▁ador	-12.5905
tha	-12.5909
▁Liber	-12.5912
aul	-12.5919
ended	-12.592
▁Mul	-12.5928
▁1956	-12.5939
uff	-12.5947
▁Sc	-12.596
▁HU	-12.5964
▁Gil	-12.5966
▁Pl	-12.597
▁rot	-12.597
rak	-12.5977
rom	-12.5977
trained	-12.5982
lit	-12.5983
reservation	-12.5987
▁180	-12.5993
avid	-12.5993
▁Bus	-12.5993
tra	-12.5997
▁showers	-12.6002
col	-12.6011
umbled	-12.6011
▁dri	-12.6013
een	-12.6021
mune	-12.6023
▁und	-12.603
▁colleges	-12.6034
▁Bid	-12.6034
▁Kara	-12.6043
dur	-12.6043
rr	-12.6049
----	-12.6051
dings	-12.6054
▁bees	-12.6065
▁doyou	-12.6066
ois	-12.6078
▁Fan	-12.6087
thic	-12.6088
▁Elo	-12.6089
28	-12.6091
dar	-12.6094
last	-12.6102
Mi	-12.6103
▁Doc	-12.6118
ially	-12.6122
▁Ur	-12.6122
iz	-12.6123
ANT	-12.613
▁fools	-12.6131
riz	-12.6136
RS	-12.6145
anne	-12.6152
▁tones	-12.6153
eries	-12.6155
dane	-12.6159
nior	-12.6162
▁REAL	-12.6163
-17	-12.6172
CB	-12.6178
▁WAY	-12.6178
rek	-12.6181
▁Less	-12.6187
▁drawings	-12.6188
▁71	-12.6192
correcting	-12.6195
late	-12.6198
nn	-12.62
▁pains	-12.6206
EO	-12.622
▁bagg	-12.6227
FK	-12.625
ways	-12.6252
rod	-12.6265
▁bead	-12.6276
though	-12.6277
laps	-12.6277
tripp	-12.628
nal	-12.6286
▁overlapp	-12.6291
zing	-12.6308
▁Kan	-12.6316
mmy	-12.6321
ously	-12.6333
▁wakes	-12.6345
▁grin	-12.6346
tial	-12.6348
▁toman	-12.6354
rp	-12.6358
pointed	-12.6363
rov	-12.637
▁Ear	-12.6386
dies	-12.6387
▁publish	-12.6393
▁fe	-12.6399
open	-12.6405
IP	-12.6406
help	-12.6408
quarter	-12.6409
erto	-12.6411
▁perpe	-12.6416
barrel	-12.6418
shirt	-12.6419
▁Friend	-12.6426
▁chu	-12.6428
rat	-12.6432
af	-12.6436
cross	-12.6438
coin	-12.644
▁counts	-12.6441
34	-12.6441
▁Yankee	-12.6445
▁culvert	-12.6445
▁tavern	-12.6445
▁hoot	-12.6448
▁Sing	-12.6448
▁Jew	-12.6449
▁bandage	-12.6451
▁Paper	-12.6453
79	-12.6453
▁mumble	-12.6454
▁Folcutt	-12.6454
▁celebration	-12.6454
▁Desp	-12.6455
▁exam	-12.6458
▁Flower	-12.6459
▁expense	-12.646
▁composition	-12.646
▁resident	-12.6462
▁Walenda	-12.6463
▁Sol	-12.6465
▁Variation	-12.6465
▁ancestor	-12.6465
▁System	-12.6465
▁rifle	-12.6465
▁surrounding	-12.6466
▁review	-12.6466
onia	-12.6467
▁walnut	-12.6468
▁vitamin	-12.6468
▁hound	-12.6469
▁Affair	-12.6469
▁91	-12.647
41	-12.647
▁competitor	-12.6471
▁pigeon	-12.6473
pplause	-12.6474
▁dwell	-12.6474
ige	-12.6475
cul	-12.6476
▁stair	-12.6478
▁1,5	-12.6481
▁lip	-12.6482
▁PER	-12.6482
▁Carlo	-12.6483
q	-12.6488
▁Harr	-12.6493
▁institution	-12.6494
▁Soft	-12.6495
gni	-12.6498
▁produc	-12.6499
▁rep	-12.6505
teller	-12.6507
ssistant	-12.651
erie	-12.6516
Lo	-12.6516
van	-12.6517
elin	-12.6521
▁Eye	-12.6522
quer	-12.6523
ficial	-12.6526
Lor	-12.6531
▁quaver	-12.6533
erated	-12.6537
mark	-12.6537
03	-12.6537
▁(17	-12.6539
▁refuge	-12.6543
active	-12.6544
SH	-12.6549
▁sca	-12.655
▁emphasis	-12.6557
fore	-12.6558
oopsie	-12.6558
Dess	-12.6562
▁57	-12.6563
▁resent	-12.6564
▁wid	-12.6565
▁fabric	-12.6567
▁Sore	-12.6569
part	-12.6574
▁loyalt	-12.6583
▁1979.	-12.6583
cumbe	-12.6585
▁Min	-12.6585
▁stocking	-12.6585
▁nex	-12.6588
spirit	-12.6588
▁astonish	-12.6589
andel	-12.659
founded	-12.6591
▁66	-12.6593
ritage	-12.6595
▁Uni	-12.6596
▁scor	-12.6597
▁coax	-12.6597
ecki	-12.6599
specially	-12.6599
power	-12.6599
▁cardi	-12.66
▁greet	-12.66
▁tempt	-12.6601
▁haunt	-12.6601
▁sho	-12.6601
sign	-12.6603
▁annoy	-12.6604
phali	-12.6604
Would	-12.6604
truck	-12.6606
growly	-12.6607
utive	-12.6607
UNDER	-12.6607
SN	-12.6607
scribbles	-12.6607
Fantasy	-12.6608
creaky	-12.6608
launch	-12.6608
flies	-12.6609
sucker	-12.6609
voiceless	-12.6609
True	-12.6609
Was	-12.6609
dressed	-12.6609
iamb	-12.6609
crumbs	-12.6609
Lucens	-12.661
senator	-12.661
repeatedly	-12.661
closing	-12.661
runner	-12.661
bishop	-12.661
Tock	-12.661
Carry	-12.6611
stretched	-12.6611
shouts	-12.6611
spilled	-12.6611
comment	-12.6611
Next	-12.6611
smoking	-12.6611
mola	-12.6611
Jones	-12.6611
Clock	-12.6611
length	-12.6611
national	-12.6611
revolutionary	-12.6611
dong	-12.6611
Bob	-12.6611
winning	-12.6611
taperecorder	-12.6611
Before	-12.6611
www	-12.6611
Stay	-12.6611
grown	-12.6611
respect	-12.6611
language	-12.6611
bottom	-12.6611
garden	-12.6612
business	-12.6612
State	-12.6612
▁via	-12.6612
great	-12.6612
believe	-12.6612
little	-12.6612
official	-12.6612
▁blub	-12.6612
broken	-12.6612
brother	-12.6612
slowly	-12.6612
amount	-12.6612
important	-12.6612
Very	-12.6613
yeah	-12.6613
bark	-12.6613
▁Born	-12.6613
cooked	-12.6614
legs	-12.6614
carefully	-12.6614
Mot	-12.6615
nothing	-12.6615
Gar	-12.6615
Hold	-12.6616
Up	-12.6617
Give	-12.6617
course	-12.6618
both	-12.6618
bees	-12.6621
small	-12.6621
jump	-12.6621
Won	-12.6622
qua	-12.6622
state	-12.6623
lived	-12.6623
▁Rui	-12.6623
Star	-12.6623
▁threaten	-12.6624
▁chirp	-12.6624
store	-12.6625
picking	-12.6625
▁pairs	-12.6625
▁flush	-12.6625
boo	-12.6625
▁establish	-12.6626
▁deprive	-12.6626
▁speaker	-12.6626
dime	-12.6626
▁bronze	-12.6628
cm	-12.6628
án	-12.6628
▁evacuate	-12.6628
▁recite	-12.6628
▁restrain	-12.6629
west	-12.6629
▁reserve	-12.663
▁plunge	-12.663
▁Field	-12.663
▁depart	-12.663
▁survive	-12.663
▁abandon	-12.663
▁Polan	-12.6631
From	-12.6631
▁graz	-12.6631
thletic	-12.6632
▁MISS	-12.6632
cata	-12.6632
player	-12.6633
never	-12.6634
softer	-12.6635
listening	-12.6635
▁examine	-12.6635
Young	-12.6635
stay	-12.6635
▁Mount	-12.6635
▁wool	-12.6636
▁cease	-12.6636
▁withdraw	-12.6636
deep	-12.6637
▁destin	-12.6638
▁confident	-12.6638
▁shrewd	-12.6638
gestalt	-12.6638
▁suspens	-12.6639
continu	-12.664
▁XXI	-12.664
earned	-12.664
hausen	-12.664
modern	-12.6641
▁civi	-12.6641
6.3	-12.6641
▁SHARK	-12.6641
AVE	-12.6641
again	-12.6642
▁Nur	-12.6642
ndigen	-12.6642
nsurance	-12.6642
▁Historic	-12.6643
č	-12.6643
chedule	-12.6643
truggle	-12.6643
▁Typ	-12.6643
▁fade	-12.6643
▁boob	-12.6644
ATCH	-12.6644
▁exhibit	-12.6645
hemistry	-12.6645
etropolitan	-12.6646
▁smot	-12.6646
▁steep	-12.6646
▁differ	-12.6646
▁Publish	-12.6646
▁Amazon	-12.6646
▁televis	-12.6646
flection	-12.6646
▁JESS	-12.6646
▁darlin	-12.6646
▁Produce	-12.6647
CHOO	-12.6647
Had	-12.6647
▁prosper	-12.6647
schlegel	-12.6647
tensive	-12.6647
▁celeb	-12.6647
▁cigar	-12.6647
▁Clav	-12.6647
colleg	-12.6647
▁CUPID	-12.6647
}	-12.6647
▁CONFEREN	-12.6647
▁ELEPHANT	-12.6647
▁HONEY	-12.6647
▁Inditex	-12.6647
▁Puritan	-12.6647
▁bridle	-12.6647
▁calico	-12.6647
Jambuda	-12.6647
Mézery	-12.6647
Zamenhof	-12.6647
errières	-12.6647
ndoubtedly	-12.6647
▁(1999)	-12.6647
▁(2005)	-12.6647
▁(2013)	-12.6647
▁ADVENTURE	-12.6647
▁AUTHOR	-12.6647
▁Alissa	-12.6647
▁Anchorage	-12.6647
▁Apex	-12.6647
▁Arnold	-12.6647
▁Bastards	-12.6647
▁Brunswick	-12.6647
▁Buchanan	-12.6647
▁Bærum	-12.6647
▁CHOOSE	-12.6647
▁Canterbury	-12.6647
▁Caterpillar	-12.6647
▁Cathedral	-12.6647
▁Chimbote	-12.6647
▁Delaware	-12.6647
▁Dolgan	-12.6647
▁Dolores	-12.6647
▁EWING	-12.6647
▁Elaine	-12.6647
▁Entrance	-12.6647
▁Envelope	-12.6647
▁Eventually	-12.6647
▁Exchange	-12.6647
▁Fusako	-12.6647
▁GODDESS	-12.6647
▁Glasgow	-12.6647
▁Global	-12.6647
▁Greece	-12.6647
▁Gressy	-12.6647
▁Hadewych	-12.6647
▁Henniez	-12.6647
▁Icicle	-12.6647
▁Information	-12.6647
▁Iroquois	-12.6647
▁Kathikas	-12.6647
▁LGBT	-12.6647
▁Leicester	-12.6647
▁Levy	-12.6647
▁Lloyd	-12.6647
▁Mabaleka	-12.6647
▁Malaysia	-12.6647
▁Management	-12.6647
▁Melinda	-12.6647
▁Monument	-12.6647
▁Murder	-12.6647
▁Murphy	-12.6647
▁NBC	-12.6647
▁Namekata	-12.6647
▁Nicaragua	-12.6647
▁Nixon	-12.6647
▁ORPHAN	-12.6647
▁Ogdensburg	-12.6647
▁Ogletree	-12.6647
▁Okudaira	-12.6647
▁Ontario	-12.6647
▁Ostrobothnia	-12.6647
▁Otsuki	-12.6647
▁Pakistan	-12.6647
▁Peebles	-12.6647
▁Pharmaceuticals	-12.6647
▁Philippines	-12.6647
▁Pilgrims	-12.6647
▁Pittsburgh	-12.6647
▁Pulaski	-12.6647
▁Renault	-12.6647
▁Ribeira	-12.6647
▁Rodríguez	-12.6647
▁Rosemary	-12.6647
▁Salazar	-12.6647
▁Shattuck	-12.6647
▁Singapore	-12.6647
▁Somerset	-12.6647
▁Soprano	-12.6647
▁Strait	-12.6647
▁Thailand	-12.6647
▁Trudeau	-12.6647
▁Tsvetaeva	-12.6647
▁Twelve	-12.6647
▁UNESCO	-12.6647
▁Usually	-12.6647
▁VULCAN	-12.6647
▁Valentina	-12.6647
▁Vegetables	-12.6647
▁WORLD	-12.6647
▁Wizard	-12.6647
▁Wyoming	-12.6647
▁Zavorotnyu	-12.6647
▁agriculture	-12.6647
▁asphalt	-12.6647
▁avenue	-12.6647
▁binoculars	-12.6647
▁bollocks	-12.6647
▁boomerang	-12.6647
▁bracelet	-12.6647
▁cauldron	-12.6647
▁celebrity	-12.6647
▁commotion	-12.6647
▁contemporary	-12.6647
▁crippled	-12.6647
▁currency	-12.6647
▁demonstration	-12.6647
▁discriminat	-12.6647
▁elastic	-12.6647
▁emblem	-12.6647
▁energetic	-12.6647
▁entrepreneur	-12.6647
▁exertion	-12.6647
▁extension	-12.6647
▁fancies	-12.6647
▁floozy	-12.6647
▁forefathers	-12.6647
▁frowning	-12.6647
▁ghastly	-12.6647
▁grumpy	-12.6647
▁guidance	-12.6647
▁hippopotamus	-12.6647
▁hollyhocks	-12.6647
▁identical	-12.6647
▁implications	-12.6647
▁inaugura	-12.6647
▁inhabited	-12.6647
▁integrity	-12.6647
▁intelligence	-12.6647
▁jungle	-12.6647
▁kiawe	-12.6647
▁kildees	-12.6647
▁kindergarten	-12.6647
▁lilac	-12.6647
▁luxuriant	-12.6647
▁miserably	-12.6647
▁murderweapon	-12.6647
▁nimbly	-12.6647
▁obstacle	-12.6647
▁paranoi	-12.6647
▁peekaboo	-12.6647
▁pinafore	-12.6647
▁precipice	-12.6647
▁prejudice	-12.6647
▁qualities	-12.6647
▁rascal	-12.6647
▁reappeared	-12.6647
▁reluctance	-12.6647
▁resolution	-12.6647
▁respectively	-12.6647
▁scenario	-12.6647
▁sequence	-12.6647
▁substantial	-12.6647
▁thieves	-12.6647
▁tragic	-12.6647
▁trampoline	-12.6647
▁transgender	-12.6647
▁trapeze	-12.6647
▁uneasily	-12.6647
▁unkempt	-12.6647
▁virtually	-12.6647
▁voyage	-12.6647
▁withdrew	-12.6647
▁zombies	-12.6647
▁zzz	-12.6647
▁Étalans	-12.6647
(192,200)}	-12.6647
▁(1986	-12.6647
▁Aurigae	-12.6647
▁Durazno	-12.6647
▁Fairbanks	-12.6647
▁Folk	-12.6647
▁KISS	-12.6647
▁Marilyn	-12.6647
▁Marvellous	-12.6647
▁Pelodryadi	-12.6647
▁Pepsi	-12.6647
▁TROUBLE	-12.6647
▁Tallis	-12.6647
▁Traveller	-12.6647
▁cheque	-12.6647
▁deceit	-12.6647
▁disadvantage	-12.6647
▁fervently	-12.6647
▁fishermen	-12.6647
▁glitter	-12.6647
▁harness	-12.6647
▁lovable	-12.6647
▁martyr	-12.6647
▁measles	-12.6647
▁merrily	-12.6647
▁nostrils	-12.6647
▁resort	-12.6647
▁sensation	-12.6647
▁skeptic	-12.6647
▁stolid	-12.6647
▁supermarket	-12.6647
▁trait	-12.6647
▁Bisset	-12.6647
▁Bridish	-12.6647
▁Bronx	-12.6647
▁Conservatory	-12.6647
▁Cypress	-12.6647
▁Georgescu	-12.6647
▁Houston	-12.6647
▁Jeez	-12.6647
▁LOUIS	-12.6647
▁Leather	-12.6647
▁Literature	-12.6647
▁Palestin	-12.6647
▁ROBINSON	-12.6647
▁Sasha	-12.6647
▁Woodroof	-12.6647
▁Yasuda	-12.6647
▁celebrating	-12.6647
▁defect	-12.6647
▁huddl	-12.6647
▁jolt	-12.6647
▁molasses	-12.6647
▁nominee	-12.6647
▁pandemic	-12.6647
▁prototype	-12.6647
▁shepherd	-12.6647
▁Copenhagen	-12.6647
▁KEEP	-12.6647
▁Norwich	-12.6647
▁shunt	-12.6647
▁staircase	-12.6647
ivoj	-12.6647
jargon	-12.6647
▁LADY	-12.6647
▁Voice	-12.6647
▁desolate	-12.6647
▁scruples	-12.6647
▁Actress	-12.6647
▁COMING	-12.6647
▁FAIRIES	-12.6647
▁HAPPENED	-12.6647
▁Labour	-12.6647
▁Project	-12.6647
▁Release	-12.6647
▁Rimini	-12.6647
▁Universe	-12.6647
▁trading	-12.6647
▁Clyde	-12.6647
▁Fleek	-12.6647
▁array	-12.6647
▁Widow	-12.6647
▁douche	-12.6647
▁Aircraft	-12.6647
▁Rooster	-12.6647
casion	-12.6647
▁Creep	-12.6647
▁Munich	-12.6647
▁Quincy	-12.6647
▁Sweetheart	-12.6647
▁deportment	-12.6647
▁genome	-12.6647
▁honeysuckle	-12.6647
▁prostitute	-12.6647
▁rinse	-12.6647
▁shrugg	-12.6647
▁KIMMY	-12.6647
▁blister	-12.6647
▁managing	-12.6647
▁snuff	-12.6647
▁supplement	-12.6647
▁Busybox	-12.6647
▁CIA	-12.6647
▁Hegarty	-12.6647
▁Investigation	-12.6647
▁MOON	-12.6647
▁Methodist	-12.6647
▁Peaks	-12.6647
▁assurance	-12.6647
▁censorship	-12.6647
▁simulator	-12.6647
▁sledge	-12.6647
▁Basically	-12.6647
▁anchor	-12.6647
▁supernatural	-12.6647
▁Parade	-12.6647
▁immigration	-12.6647
▁scarf	-12.6647
▁snug	-12.6647
▁twirl	-12.6647
▁1858	-12.6647
▁Bunch	-12.6647
▁automatically	-12.6647
▁compact	-12.6647
ebbie	-12.6647
▁Giorno	-12.6647
▁Tampa	-12.6647
▁scrubbed	-12.6647
[...]
