[PAD]	0
[CLS]	0
[SEP]	0
[UNK]	0
[MASK]	0
<0x00>	0
<0x01>	0
<0x02>	0
<0x03>	0
<0x04>	0
<0x05>	0
<0x06>	0
<0x07>	0
<0x08>	0
<0x09>	0
<0x0A>	0
<0x0B>	0
<0x0C>	0
<0x0D>	0
<0x0E>	0
<0x0F>	0
<0x10>	0
<0x11>	0
<0x12>	0
<0x13>	0
<0x14>	0
<0x15>	0
<0x16>	0
<0x17>	0
<0x18>	0
<0x19>	0
<0x1A>	0
<0x1B>	0
<0x1C>	0
<0x1D>	0
<0x1E>	0
<0x1F>	0
<0x20>	0
<0x21>	0
<0x22>	0
<0x23>	0
<0x24>	0
<0x25>	0
<0x26>	0
<0x27>	0
<0x28>	0
<0x29>	0
<0x2A>	0
<0x2B>	0
<0x2C>	0
<0x2D>	0
<0x2E>	0
<0x2F>	0
<0x30>	0
<0x31>	0
<0x32>	0
<0x33>	0
<0x34>	0
<0x35>	0
<0x36>	0
<0x37>	0
<0x38>	0
<0x39>	0
<0x3A>	0
<0x3B>	0
<0x3C>	0
<0x3D>	0
<0x3E>	0
<0x3F>	0
<0x40>	0
<0x41>	0
<0x42>	0
<0x43>	0
<0x44>	0
<0x45>	0
<0x46>	0
<0x47>	0
<0x48>	0
<0x49>	0
<0x4A>	0
<0x4B>	0
<0x4C>	0
<0x4D>	0
<0x4E>	0
<0x4F>	0
<0x50>	0
<0x51>	0
<0x52>	0
<0x53>	0
<0x54>	0
<0x55>	0
<0x56>	0
<0x57>	0
<0x58>	0
<0x59>	0
<0x5A>	0
<0x5B>	0
<0x5C>	0
<0x5D>	0
<0x5E>	0
<0x5F>	0
<0x60>	0
<0x61>	0
<0x62>	0
<0x63>	0
<0x64>	0
<0x65>	0
<0x66>	0
<0x67>	0
<0x68>	0
<0x69>	0
<0x6A>	0
<0x6B>	0
<0x6C>	0
<0x6D>	0
<0x6E>	0
<0x6F>	0
<0x70>	0
<0x71>	0
<0x72>	0
<0x73>	0
<0x74>	0
<0x75>	0
<0x76>	0
<0x77>	0
<0x78>	0
<0x79>	0
<0x7A>	0
<0x7B>	0
<0x7C>	0
<0x7D>	0
<0x7E>	0
<0x7F>	0
<0x80>	0
<0x81>	0
<0x82>	0
<0x83>	0
<0x84>	0
<0x85>	0
<0x86>	0
<0x87>	0
<0x88>	0
<0x89>	0
<0x8A>	0
<0x8B>	0
<0x8C>	0
<0x8D>	0
<0x8E>	0
<0x8F>	0
<0x90>	0
<0x91>	0
<0x92>	0
<0x93>	0
<0x94>	0
<0x95>	0
<0x96>	0
<0x97>	0
<0x98>	0
<0x99>	0
<0x9A>	0
<0x9B>	0
<0x9C>	0
<0x9D>	0
<0x9E>	0
<0x9F>	0
<0xA0>	0
<0xA1>	0
<0xA2>	0
<0xA3>	0
<0xA4>	0
<0xA5>	0
<0xA6>	0
<0xA7>	0
<0xA8>	0
<0xA9>	0
<0xAA>	0
<0xAB>	0
<0xAC>	0
<0xAD>	0
<0xAE>	0
<0xAF>	0
<0xB0>	0
<0xB1>	0
<0xB2>	0
<0xB3>	0
<0xB4>	0
<0xB5>	0
<0xB6>	0
<0xB7>	0
<0xB8>	0
<0xB9>	0
<0xBA>	0
<0xBB>	0
<0xBC>	0
<0xBD>	0
<0xBE>	0
<0xBF>	0
<0xC0>	0
<0xC1>	0
<0xC2>	0
<0xC3>	0
<0xC4>	0
<0xC5>	0
<0xC6>	0
<0xC7>	0
<0xC8>	0
<0xC9>	0
<0xCA>	0
<0xCB>	0
<0xCC>	0
<0xCD>	0
<0xCE>	0
<0xCF>	0
<0xD0>	0
<0xD1>	0
<0xD2>	0
<0xD3>	0
<0xD4>	0
<0xD5>	0
<0xD6>	0
<0xD7>	0
<0xD8>	0
<0xD9>	0
<0xDA>	0
<0xDB>	0
<0xDC>	0
<0xDD>	0
<0xDE>	0
<0xDF>	0
<0xE0>	0
<0xE1>	0
<0xE2>	0
<0xE3>	0
<0xE4>	0
<0xE5>	0
<0xE6>	0
<0xE7>	0
<0xE8>	0
<0xE9>	0
<0xEA>	0
<0xEB>	0
<0xEC>	0
<0xED>	0
<0xEE>	0
<0xEF>	0
<0xF0>	0
<0xF1>	0
<0xF2>	0
<0xF3>	0
<0xF4>	0
<0xF5>	0
<0xF6>	0
<0xF7>	0
<0xF8>	0
<0xF9>	0
<0xFA>	0
<0xFB>	0
<0xFC>	0
<0xFD>	0
<0xFE>	0
<0xFF>	0
▁s	-0
▁t	-1
▁i	-2
▁a	-3
▁e	-4
▁th	-5
▁y	-6
▁w	-7
▁the	-8
▁h	-9
▁o	-10
▁*	-11
ou	-12
re	-13
▁b	-14
▁in	-15
▁m	-16
▁c	-17
▁d	-18
nd	-19
at	-20
▁l	-21
▁f	-22
▁er	-23
▁p	-24
▁to	-25
▁you	-26
on	-27
▁g	-28
an	-29
CH	-30
CHI	-31
▁n	-32
▁ing	-33
ll	-34
▁ed	-35
or	-36
▁and	-37
in	-38
it	-39
er	-40
ar	-41
▁of	-42
▁wh	-43
▁it	-44
om	-45
OT	-46
MOT	-47
▁es	-48
ow	-49
▁he	-50
le	-51
st	-52
▁en	-53
ot	-54
ve	-55
▁ha	-56
▁on	-57
et	-58
ut	-59
▁wa	-60
▁that	-61
ic	-62
se	-63
▁we	-64
▁u	-65
▁[	-66
gh	-67
▁be	-68
id	-69
▁=	-70
ld	-71
▁st	-72
▁r	-73
▁ly	-74
▁k	-75
en	-76
▁sh	-77
ac	-78
oo	-79
▁hi	-80
▁do	-81
▁se	-82
▁al	-83
ir	-84
▁re	-85
▁for	-86
▁what	-87
▁j	-88
ke	-89
am	-90
ght	-91
▁me	-92
▁an	-93
ch	-94
▁ti	-95
ith	-96
▁at	-97
ur	-98
ad	-99
▁li	-100
is	-101
▁sa	-102
ome	-103
▁no	-104
▁with	-105
▁ch	-106
▁-	-107
th	-108
▁go	-109
▁de	-110
▁not	-111
▁v	-112
al	-113
la	-114
ight	-115
▁fr	-116
▁have	-117
il	-118
ould	-119
▁ne	-120
ce	-121
▁ma	-122
▁so	-123
▁she	-124
▁thi	-125
▁kn	-126
▁but	-127
ro	-128
ea	-129
ent	-130
▁can	-131
▁there	-132
un	-133
▁don	-134
ra	-135
xx	-136
ust	-137
▁are	-138
▁one	-139
▁mo	-140
ill	-141
▁ab	-142
▁up	-143
ie	-144
ant	-145
▁your	-146
▁know	-147
ack	-148
▁all	-149
ss	-150
ing	-151
▁1	-152
pp	-153
AT	-154
FAT	-155
all	-156
ct	-157
▁tr	-158
▁had	-159
▁bo	-160
op	-161
▁su	-162
au	-163
ook	-164
▁like	-165
ck	-166
ge	-167
▁tion	-168
ver	-169
nt	-170
▁oh	-171
ell	-172
▁get	-173
▁ad	-174
▁2	-175
ood	-176
out	-177
▁from	-178
ere	-179
ion	-180
▁him	-181
▁sp	-182
▁out	-183
▁did	-184
itt	-185
art	-186
ap	-187
▁or	-188
▁sec	-189
▁some	-190
▁see	-191
oth	-192
ick	-193
ink	-194
ft	-195
ol	-196
um	-197
ard	-198
ee	-199
▁just	-200
▁them	-201
▁said	-202
ul	-203
qu	-204
as	-205
▁man	-206
▁if	-207
▁di	-208
ame	-209
▁un	-210
▁were	-211
ound	-212
▁here	-213
ri	-214
na	-215
▁com	-216
▁would	-217
es	-218
▁wor	-219
me	-220
▁who	-221
▁yea	-222
▁about	-223
ind	-224
▁yeah	-225
▁want	-226
▁how	-227
ong	-228
ain	-229
▁well	-230
ig	-231
▁ta	-232
▁now	-233
▁ba	-234
▁ar	-235
▁ive	-236
▁look	-237
▁right	-238
▁put	-239
▁bl	-240
us	-241
own	-242
▁co	-243
▁xx	-244
▁xxx	-245
▁con	-246
▁think	-247
one	-248
ittle	-249
▁little	-250
ff	-251
▁where	-252
wa	-253
▁good	-254
▁ex	-255
▁got	-256
▁la	-257
▁ver	-258
ine	-259
▁cl	-260
▁20	-261
▁tw	-262
our	-263
▁come	-264
ite	-265
▁lo	-266
▁po	-267
▁le	-268
im	-269
ice	-270
ich	-271
▁off	-272
eth	-273
ish	-274
▁qu	-275
▁est	-276
ka	-277
▁let	-278
▁pe	-279
ath	-280
▁back	-281
▁could	-282
▁19	-283
▁ag	-284
▁will	-285
▁than	-286
▁br	-287
▁ro	-288
▁ate	-289
▁chi	-290
▁mom	-291
and	-292
ide	-293
▁down	-294
▁pre	-295
▁too	-296
ile	-297
▁more	-298
▁ov	-299
ore	-300
▁oth	-301
▁oka	-302
▁pro	-303
▁time	-304
IN	-305
ace	-306
▁da	-307
▁pl	-308
INV	-309
▁am	-310
▁fe	-311
lf	-312
▁te	-313
▁gu	-314
▁their	-315
ip	-316
▁two	-317
▁wr	-318
sh	-319
▁which	-320
RS	-321
URS	-322
▁pla	-323
ree	-324
ort	-325
ough	-326
▁jo	-327
▁ment	-328
▁bec	-329
mb	-330
ause	-331
▁take	-332
uck	-333
▁som	-334
urn	-335
▁as	-336
▁part	-337
orn	-338
ugh	-339
▁cr	-340
▁gre	-341
ist	-342
▁pa	-343
▁sil	-344
ect	-345
▁gon	-346
▁ca	-347
▁make	-348
].	-349
▁fl	-350
▁peop	-351
▁dis	-352
▁gonna	-353
▁sc	-354
▁ye	-355
▁people	-356
▁ev	-357
▁mar	-358
ach	-359
▁wat	-360
▁per	-361
ue	-362
▁tell	-363
▁gr	-364
BR	-365
ter	-366
ose	-367
pt	-368
▁aft	-369
▁silv	-370
ous	-371
ade	-372
▁pr	-373
iv	-374
▁able	-375
BRO	-376
▁base	-377
▁mu	-378
▁sw	-379
▁uh	-380
▁fir	-381
▁ever	-382
▁bu	-383
▁work	-384
ool	-385
▁201	-386
alk	-387
▁mean	-388
ang	-389
gn	-390
ought	-391
ance	-392
ure	-393
▁boy	-394
ble	-395
▁turn	-396
▁any	-397
▁momm	-398
▁again	-399
▁black	-400
wn	-401
air	-402
▁because	-403
int	-404
▁thank	-405
▁lea	-406
▁someth	-407
▁ho	-408
ase	-409
ord	-410
▁ful	-411
▁new	-412
be	-413
ian	-414
CO	-415
fe	-416
self	-417
▁car	-418
▁cou	-419
▁.	-420
▁talk	-421
bl	-422
od	-423
COL	-424
ond	-425
ia	-426
▁bet	-427
▁ple	-428
▁first	-429
▁dat	-430
ast	-431
▁nev	-432
▁much	-433
▁mr	-434
▁happ	-435
▁sm	-436
▁eve	-437
▁call	-438
▁hand	-439
da	-440
▁app	-441
ock	-442
▁wan	-443
▁ask	-444
▁thr	-445
▁long	-446
ag	-447
ak	-448
ellow	-449
▁these	-450
▁dr	-451
el	-452
▁stick	-453
ouse	-454
act	-455
laugh	-456
▁awa	-457
▁great	-458
ud	-459
▁gir	-460
nce	-461
age	-462
eel	-463
orr	-464
▁old	-465
fore	-466
▁big	-467
▁should	-468
--	-469
▁add	-470
▁child	-471
ert	-472
▁made	-473
▁us	-474
▁didn	-475
▁act	-476
laughs	-477
▁anoth	-478
▁they	-479
▁fo	-480
▁ac	-481
mp	-482
▁ball	-483
▁girl	-484
▁hel	-485
▁comm	-486
▁bre	-487
▁moth	-488
▁pap	-489
▁pu	-490
▁before	-491
▁comp	-492
▁fi	-493
▁[1	-494
▁dad	-495
▁came	-496
▁mis	-497
▁side	-498
▁thing	-499
ane	-500
ph	-501
ation	-502
▁dog	-503
▁home	-504
▁year	-505
▁help	-506
ict	-507
▁min	-508
▁eat	-509
so	-510
▁gra	-511
ab	-512
▁house	-513
uh	-514
▁sch	-515
▁those	-516
eep	-517
son	-518
lt	-519
▁write	-520
uc	-521
▁thought	-522
▁bro	-523
▁love	-524
▁our	-525
▁adam	-526
ed	-527
▁wait	-528
▁kind	-529
▁cle	-530
▁wand	-531
up	-532
▁wanna	-533
▁exp	-534
▁head	-535
mo	-536
▁fath	-537
▁el	-538
way	-539
sn	-540
▁please	-541
▁keep	-542
▁went	-543
te	-544
ward	-545
▁top	-546
os	-547
▁sion	-548
▁stand	-549
▁ise	-550
▁three	-551
ep	-552
▁ser	-553
▁count	-554
ug	-555
▁gl	-556
▁sta	-557
▁must	-558
▁say	-559
▁every	-560
▁start	-561
▁op	-562
▁memb	-563
ern	-564
▁str	-565
▁most	-566
▁feel	-567
▁name	-568
▁care	-569
right	-570
IS	-571
ence	-572
▁watch	-573
land	-574
▁through	-575
ne	-576
▁play	-577
gnet	-578
▁mov	-579
xt	-580
▁	-581
e	-582
t	-583
o	-584
a	-585
i	-586
n	-587
s	-588
h	-589
r	-590
l	-591
d	-592
u	-593
y	-594
m	-595
w	-596
c	-597
g	-598
f	-599
p	-600
b	-601
*	-602
:	-603
k	-604
v	-605
'	-606
I	-607
C	-608
H	-609
T	-610
O	-611
M	-612
-	-613
[	-614
x	-615
=	-616
j	-617
1	-618
2	-619
.	-620
0	-621
A	-622
F	-623
9	-624
z	-625
S	-626
R	-627
’	-628
q	-629
,	-630
]	-631
5	-632
3	-633
8	-634
7	-635
4	-636
N	-637
6	-638
V	-639
U	-640
B	-641
L	-642
/	-643
?	-644
♪	-645
!	-646
—	-647
_	-648
é	-649
–	-650
;	-651
"	-652
(	-653
D	-654
á	-655
)	-656
E	-657
#	-658
P	-659
W	-660
è	-661
í	-662
|	-663
&	-664
X	-665
G	-666
$	-667
ó	-668
+	-669
ã	-670
ä	-671
č	-672
}	-673
­	-674
š	-675
ü	-676
ć	-677
¶	-678
à	-679
ö	-680
K	-681
ú	-682
ç	-683
ñ	-684
â	-685
î	-686
@	-687
`	-688
¡	-689
æ	-690
ê	-691
ô	-692
”	-693
Y	-694
ë	-695
ś	-696
ß	-697
ğ	-698
ø	-699
°	-700
ł	-701
ū	-702
ž	-703
Q	-704
å	-705
ò	-706
ė	-707
ě	-708
ʊ	-709
{	-710
~	-711
×	-712
ï	-713
ù	-714
œ	-715
ŭ	-716
ɐ	-717
ˈ	-718
J	-719
Z	-720
\	-721
£	-722
÷	-723
û	-724
ý	-725
ā	-726
ą	-727
đ	-728
ı	-729
ň	-730
ō	-731
ř	-732
ş	-733
ș	-734
ɫ	-735
ʋ	-736
†	-737
∂	-738
