[PAD]	0
[CLS]	0
[SEP]	0
[UNK]	0
[MASK]	0
<0x00>	0
<0x01>	0
<0x02>	0
<0x03>	0
<0x04>	0
<0x05>	0
<0x06>	0
<0x07>	0
<0x08>	0
<0x09>	0
<0x0A>	0
<0x0B>	0
<0x0C>	0
<0x0D>	0
<0x0E>	0
<0x0F>	0
<0x10>	0
<0x11>	0
<0x12>	0
<0x13>	0
<0x14>	0
<0x15>	0
<0x16>	0
<0x17>	0
<0x18>	0
<0x19>	0
<0x1A>	0
<0x1B>	0
<0x1C>	0
<0x1D>	0
<0x1E>	0
<0x1F>	0
<0x20>	0
<0x21>	0
<0x22>	0
<0x23>	0
<0x24>	0
<0x25>	0
<0x26>	0
<0x27>	0
<0x28>	0
<0x29>	0
<0x2A>	0
<0x2B>	0
<0x2C>	0
<0x2D>	0
<0x2E>	0
<0x2F>	0
<0x30>	0
<0x31>	0
<0x32>	0
<0x33>	0
<0x34>	0
<0x35>	0
<0x36>	0
<0x37>	0
<0x38>	0
<0x39>	0
<0x3A>	0
<0x3B>	0
<0x3C>	0
<0x3D>	0
<0x3E>	0
<0x3F>	0
<0x40>	0
<0x41>	0
<0x42>	0
<0x43>	0
<0x44>	0
<0x45>	0
<0x46>	0
<0x47>	0
<0x48>	0
<0x49>	0
<0x4A>	0
<0x4B>	0
<0x4C>	0
<0x4D>	0
<0x4E>	0
<0x4F>	0
<0x50>	0
<0x51>	0
<0x52>	0
<0x53>	0
<0x54>	0
<0x55>	0
<0x56>	0
<0x57>	0
<0x58>	0
<0x59>	0
<0x5A>	0
<0x5B>	0
<0x5C>	0
<0x5D>	0
<0x5E>	0
<0x5F>	0
<0x60>	0
<0x61>	0
<0x62>	0
<0x63>	0
<0x64>	0
<0x65>	0
<0x66>	0
<0x67>	0
<0x68>	0
<0x69>	0
<0x6A>	0
<0x6B>	0
<0x6C>	0
<0x6D>	0
<0x6E>	0
<0x6F>	0
<0x70>	0
<0x71>	0
<0x72>	0
<0x73>	0
<0x74>	0
<0x75>	0
<0x76>	0
<0x77>	0
<0x78>	0
<0x79>	0
<0x7A>	0
<0x7B>	0
<0x7C>	0
<0x7D>	0
<0x7E>	0
<0x7F>	0
<0x80>	0
<0x81>	0
<0x82>	0
<0x83>	0
<0x84>	0
<0x85>	0
<0x86>	0
<0x87>	0
<0x88>	0
<0x89>	0
<0x8A>	0
<0x8B>	0
<0x8C>	0
<0x8D>	0
<0x8E>	0
<0x8F>	0
<0x90>	0
<0x91>	0
<0x92>	0
<0x93>	0
<0x94>	0
<0x95>	0
<0x96>	0
<0x97>	0
<0x98>	0
<0x99>	0
<0x9A>	0
<0x9B>	0
<0x9C>	0
<0x9D>	0
<0x9E>	0
<0x9F>	0
<0xA0>	0
<0xA1>	0
<0xA2>	0
<0xA3>	0
<0xA4>	0
<0xA5>	0
<0xA6>	0
<0xA7>	0
<0xA8>	0
<0xA9>	0
<0xAA>	0
<0xAB>	0
<0xAC>	0
<0xAD>	0
<0xAE>	0
<0xAF>	0
<0xB0>	0
<0xB1>	0
<0xB2>	0
<0xB3>	0
<0xB4>	0
<0xB5>	0
<0xB6>	0
<0xB7>	0
<0xB8>	0
<0xB9>	0
<0xBA>	0
<0xBB>	0
<0xBC>	0
<0xBD>	0
<0xBE>	0
<0xBF>	0
<0xC0>	0
<0xC1>	0
<0xC2>	0
<0xC3>	0
<0xC4>	0
<0xC5>	0
<0xC6>	0
<0xC7>	0
<0xC8>	0
<0xC9>	0
<0xCA>	0
<0xCB>	0
<0xCC>	0
<0xCD>	0
<0xCE>	0
<0xCF>	0
<0xD0>	0
<0xD1>	0
<0xD2>	0
<0xD3>	0
<0xD4>	0
<0xD5>	0
<0xD6>	0
<0xD7>	0
<0xD8>	0
<0xD9>	0
<0xDA>	0
<0xDB>	0
<0xDC>	0
<0xDD>	0
<0xDE>	0
<0xDF>	0
<0xE0>	0
<0xE1>	0
<0xE2>	0
<0xE3>	0
<0xE4>	0
<0xE5>	0
<0xE6>	0
<0xE7>	0
<0xE8>	0
<0xE9>	0
<0xEA>	0
<0xEB>	0
<0xEC>	0
<0xED>	0
<0xEE>	0
<0xEF>	0
<0xF0>	0
<0xF1>	0
<0xF2>	0
<0xF3>	0
<0xF4>	0
<0xF5>	0
<0xF6>	0
<0xF7>	0
<0xF8>	0
<0xF9>	0
<0xFA>	0
<0xFB>	0
<0xFC>	0
<0xFD>	0
<0xFE>	0
<0xFF>	0
.	-2.83575
:	-3.29738
▁*	-3.36369
,	-3.43817
▁the	-3.66301
'	-3.80813
s	-3.96937
CHI	-4.08499
▁a	-4.23521
▁I	-4.26436
?	-4.2848
▁to	-4.30452
▁and	-4.32249
▁you	-4.32444
▁of	-4.47883
MOT	-4.48167
▁it	-4.62818
▁in	-4.70287
▁that	-4.85602
▁=	-4.96281
▁[	-4.96345
t	-4.98064
]	-4.98503
▁is	-5.11203
▁was	-5.1656
▁on	-5.31056
▁he	-5.41851
▁for	-5.48547
▁-	-5.52369
▁"	-5.53012
▁what	-5.54152
-	-5.5588
!	-5.60097
▁with	-5.64469
▁have	-5.7631
▁	-5.76958
▁not	-5.81189
▁do	-5.86922
▁they	-5.8776
▁be	-5.90223
▁me	-5.90668
▁this	-5.95822
▁one	-5.96562
▁his	-5.98107
▁we	-6.00263
▁no	-6.01511
▁can	-6.01865
’	-6.02014
ing	-6.02624
▁at	-6.02649
FAT	-6.03733
▁her	-6.03764
re	-6.04946
ed	-6.06209
m	-6.06462
▁know	-6.09092
▁had	-6.09338
▁up	-6.09501
▁there	-6.10731
▁your	-6.11665
▁are	-6.11728
▁she	-6.11929
▁as	-6.12151
▁don	-6.13254
▁all	-6.14272
;	-6.14611
...	-6.15233
▁like	-6.15732
▁my	-6.16055
▁The	-6.17563
▁from	-6.24789
▁so	-6.25633
▁but	-6.25903
▁'	-6.2993
▁an	-6.30196
d	-6.32382
▁out	-6.33396
▁him	-6.33826
▁It	-6.34795
▁said	-6.36477
▁He	-6.36981
▁You	-6.40138
▁get	-6.41072
ll	-6.43022
▁were	-6.43765
▁them	-6.44597
▁go	-6.4558
▁sec	-6.48064
▁just	-6.48957
▁about	-6.49906
▁A	-6.51642
▁some	-6.5308
▁here	-6.53171
▁see	-6.54488
▁by	-6.58184
▁would	-6.58373
▁xxx	-6.59343
▁or	-6.59533
▁put	-6.61816
▁if	-6.64673
▁did	-6.66419
▁when	-6.68256
▁want	-6.6969
▁right	-6.70508
▁little	-6.71074
▁think	-6.71605
▁who	-6.7403
▁oh	-6.74745
▁now	-6.76543
▁where	-6.81225
▁very	-6.81548
▁got	-6.81658
▁how	-6.83683
▁back	-6.84955
▁good	-6.85401
▁over	-6.86071
▁“	-6.86142
▁What	-6.8806
▁down	-6.8809
▁then	-6.88688
▁And	-6.89086
▁time	-6.89173
▁going	-6.89348
▁could	-6.89527
▁more	-6.90012
INV	-6.90089
▁will	-6.91106
▁man	-6.91274
I	-6.92034
ve	-6.94392
URS	-6.96999
▁come	-6.97671
▁been	-6.98085
▁their	-6.98261
,"	-6.98785
▁two	-7.00086
▁other	-7.00364
▁yeah	-7.02085
▁which	-7.02401
."	-7.02833
"	-7.03163
▁off	-7.04017
▁B	-7.04622
▁say	-7.06105
▁(	-7.06863
▁No	-7.07243
▁has	-7.09825
y	-7.10894
▁well	-7.11195
▁make	-7.13501
].	-7.13598
▁gonna	-7.13624
▁too	-7.14391
▁She	-7.15243
▁take	-7.15698
▁okay	-7.16464
▁%	-7.17743
▁yes	-7.1805
ly	-7.18537
▁into	-7.19221
▁silver	-7.19389
▁look	-7.19513
▁We	-7.20599
▁people	-7.20684
BRO	-7.20929
▁boy	-7.21841
▁way	-7.22406
▁Oh	-7.23215
▁But	-7.23835
▁They	-7.24375
▁base	-7.25781
▁let	-7.30514
e	-7.31151
▁any	-7.33632
▁why	-7.33797
▁Yeah	-7.35626
▁That	-7.36213
▁tell	-7.36357
COL	-7.37714
n	-7.38602
▁S	-7.39655
▁black	-7.40325
▁Mommy	-7.40532
▁much	-7.42962
▁dat	-7.44337
a	-7.45196
S	-7.46008
▁us	-7.4601
▁something	-7.46061
▁never	-7.46918
▁first	-7.47887
▁Well	-7.48045
▁because	-7.50958
▁de	-7.52553
▁only	-7.5273
laughs	-7.53783
▁after	-7.55691
)	-7.56257
▁made	-7.5664
er	-7.5732
▁didn	-7.57589
?"	-7.57649
▁these	-7.58277
▁Chi	-7.60398
▁away	-7.60726
▁i	-7.6081
▁In	-7.60838
▁another	-7.61236
▁give	-7.61352
▁need	-7.62089
▁So	-7.62206
▁than	-7.63283
▁boys	-7.63401
▁mean	-7.63598
▁again	-7.63614
▁day	-7.64355
▁came	-7.64382
▁before	-7.64449
▁things	-7.66355
▁write	-7.66379
▁old	-7.66468
▁long	-7.66885
▁t	-7.67739
--	-7.67907
▁really	-7.69389
▁There	-7.69862
▁Adam	-7.69989
▁home	-7.70725
▁thing	-7.71632
▁men	-7.71688
▁big	-7.72144
▁doing	-7.72733
▁wanna	-7.73248
▁This	-7.73421
▁should	-7.73439
▁dis	-7.73645
▁great	-7.74593
▁those	-7.74847
▁thought	-7.74873
▁Yes	-7.76108
▁went	-7.76801
▁d	-7.76843
▁wand	-7.77319
int	-7.7811
▁stick	-7.78757
▁uh	-7.80995
▁Eve	-7.81505
▁work	-7.81548
▁three	-7.81861
▁play	-7.82121
▁does	-7.82358
add	-7.83176
▁house	-7.84312
▁name	-7.84568
▁our	-7.86422
▁help	-7.86647
▁father	-7.86817
▁many	-7.87577
▁top	-7.87714
SIS	-7.87817
”	-7.88868
▁always	-7.90141
▁kind	-7.90174
▁water	-7.90336
▁through	-7.90699
▁head	-7.92272
▁must	-7.92328
▁keep	-7.92778
▁girl	-7.92861
!"	-7.93353
▁o	-7.93905
▁love	-7.94327
▁mother	-7.94656
▁yellow	-7.94798
▁anything	-7.94995
al	-7.95028
▁around	-7.95628
▁paper	-7.95693
▁even	-7.96046
▁new	-7.9606
▁eat	-7.97016
▁place	-7.97269
/	-7.98327
▁last	-7.98354
▁s	-7.98466
▁dog	-7.98605
▁How	-7.99407
▁please	-7.99824
▁also	-8.00636
▁won	-8.01251
▁am	-8.01813
▁most	-8.02063
▁ball	-8.02164
▁find	-8.03136
▁alright	-8.03156
▁might	-8.03158
▁Mr	-8.03458
▁such	-8.04239
▁♪	-8.04882
▁night	-8.04916
▁still	-8.05994
▁hand	-8.06755
▁THE	-8.0751
o	-8.07531
in	-8.07751
▁Paul	-8.07926
▁better	-8.09567
▁turn	-8.09727
▁use	-8.09877
▁talk	-8.09927
▁part	-8.10295
▁If	-8.10415
▁else	-8.10475
▁silence	-8.10494
▁under	-8.11135
es	-8.11585
▁doesn	-8.11953
▁nice	-8.12229
▁table	-8.12365
▁D	-8.12394
▁wait	-8.12578
▁while	-8.12806
▁’	-8.12807
r	-8.12998
▁try	-8.1517
▁done	-8.15508
▁found	-8.15748
▁school	-8.15938
▁sure	-8.16101
—	-8.16193
▁own	-8.16566
▁r	-8.17678
▁!	-8.17819
▁children	-8.18129
▁saw	-8.18141
▁told	-8.1863
▁hard	-8.20833
▁read	-8.21026
▁thank	-8.21082
▁ever	-8.21088
▁enough	-8.21161
▁called	-8.21342
▁baby	-8.21432
▁being	-8.22038
▁same	-8.22191
▁together	-8.22213
▁Fraser	-8.22451
▁next	-8.22453
▁e	-8.22628
▁Do	-8.22746
▁watch	-8.22981
▁years	-8.23189
▁C	-8.23272
▁feel	-8.23464
▁Mom	-8.23594
1:	-8.23695
▁family	-8.24541
▁Now	-8.24577
▁Why	-8.24583
▁every	-8.2515
▁used	-8.26063
▁dear	-8.26956
The	-8.27358
▁side	-8.27554
▁life	-8.28325
▁may	-8.28594
▁book	-8.28658
▁magnet	-8.28952
▁asked	-8.29105
▁?	-8.29221
▁Come	-8.29737
▁Okay	-8.29997
▁face	-8.3039
▁best	-8.3042
silver	-8.3051
▁car	-8.30704
▁ask	-8.31025
▁sit	-8.31413
▁took	-8.31509
▁money	-8.32535
▁end	-8.33377
▁hear	-8.33449
▁My	-8.33514
▁heard	-8.34186
▁four	-8.3426
the	-8.34831
▁morning	-8.34858
▁letter	-8.3535
▁course	-8.35746
▁Mrs	-8.36561
▁Unit	-8.36959
▁lot	-8.3696
▁known	-8.3725
▁left	-8.37536
▁though	-8.38064
▁“‘	-8.38747
▁bed	-8.38806
▁guess	-8.39167
▁world	-8.39362
▁Guy	-8.39986
▁show	-8.4086
▁Cromer	-8.4091
▁room	-8.4094
▁American	-8.4095
▁talking	-8.41259
▁Jane	-8.4217
▁Then	-8.42186
▁game	-8.42188
▁bit	-8.42275
▁few	-8.42481
▁quite	-8.42495
▁nothing	-8.42496
▁1	-8.42674
–	-8.42707
Possum	-8.42798
▁knew	-8.43116
▁until	-8.43118
▁sorry	-8.43767
▁open	-8.43935
▁Daddy	-8.4408
▁child	-8.44084
▁E	-8.44323
▁leave	-8.44791
▁door	-8.44958
▁coming	-8.45084
▁call	-8.45159
▁hm	-8.45177
se	-8.4562
▁huh	-8.4592
▁Don	-8.46264
▁l	-8.46349
▁each	-8.46362
▁isn	-8.47479
Tilda	-8.47684
▁pretty	-8.47686
▁everything	-8.47688
▁seen	-8.48115
▁getting	-8.48171
▁young	-8.48787
▁n	-8.49046
▁small	-8.49321
▁When	-8.49409
▁soon	-8.49467
▁died	-8.4948
▁round	-8.49733
▁between	-8.50049
▁wanted	-8.50434
▁‘	-8.50736
▁city	-8.50744
▁T	-8.5113
▁without	-8.51149
▁States	-8.51268
▁All	-8.51295
You	-8.51425
▁himself	-8.51436
▁stay	-8.51844
▁God	-8.52942
▁stop	-8.53037
▁pencil	-8.53039
▁f	-8.53099
▁upon	-8.53366
▁eyes	-8.53764
▁Uh	-8.54244
th	-8.5465
em	-8.54812
and	-8.54904
▁looking	-8.54907
▁story	-8.54957
▁once	-8.55103
▁far	-8.5551
D	-8.55574
▁un	-8.55918
A	-8.55936
▁hafta	-8.56037
▁drink	-8.56079
▁high	-8.56266
▁red	-8.56555
▁tape	-8.56857
▁erm	-8.56953
▁fish	-8.57028
▁Right	-8.57507
▁says	-8.57533
.”	-8.58133
▁half	-8.58239
▁today	-8.58294
▁born	-8.58446
▁age	-8.58495
▁mind	-8.58704
▁municipality	-8.58984
▁having	-8.58985
▁October	-8.58993
▁different	-8.59279
▁Kitty	-8.59736
put	-8.59839
▁On	-8.60023
▁P	-8.60112
▁mhm	-8.60112
▁maybe	-8.60125
▁M	-8.60142
it	-8.60769
▁light	-8.60982
▁care	-8.61072
▁yet	-8.61094
▁coffee	-8.61253
▁start	-8.61604
▁minute	-8.61681
▁goes	-8.61961
▁Thank	-8.62103
▁year	-8.62107
▁question	-8.62353
▁fine	-8.62498
▁piece	-8.62884
▁believe	-8.62887
▁gave	-8.63215
▁happened	-8.633
ton	-8.63593
▁second	-8.63635
▁um	-8.6373
▁[1	-8.63749
▁gone	-8.64019
▁almost	-8.64421
▁hot	-8.64442
i	-8.64693
RIC	-8.6484
▁ready	-8.64882
an	-8.65416
▁real	-8.65524
▁move	-8.65834
▁run	-8.66432
▁word	-8.66507
▁Tom	-8.66523
▁Are	-8.6672
▁saying	-8.66741
▁Just	-8.66863
▁brother	-8.66898
▁set	-8.66921
▁looked	-8.66958
▁actually	-8.67584
▁blue	-8.676
▁re	-8.6762
▁near	-8.67827
▁woman	-8.67986
▁making	-8.68001
▁yep	-8.68389
ting	-8.68782
▁c	-8.68942
▁heart	-8.68943
▁New	-8.68961
▁bad	-8.68979
_	-8.69096
he	-8.69131
▁both	-8.69153
▁Hey	-8.69221
▁fire	-8.69224
▁five	-8.69659
▁remember	-8.70394
▁milk	-8.70451
▁voice	-8.7048
▁whole	-8.70999
▁along	-8.71123
▁Can	-8.71342
le	-8.71679
▁dere	-8.72954
▁against	-8.73045
▁For	-8.73335
▁hope	-8.7373
▁Ursula	-8.73876
▁white	-8.73881
▁began	-8.73884
▁Let	-8.74077
▁France	-8.74161
▁tree	-8.74191
▁truck	-8.74749
▁Bro	-8.74908
▁chair	-8.75039
▁Your	-8.75135
on	-8.759
▁line	-8.75909
▁box	-8.76451
▁means	-8.7659
▁J	-8.76714
▁His	-8.7699
▁days	-8.77368
▁2019	-8.77694
▁goin	-8.77716
▁town	-8.77817
▁feet	-8.77875
▁Where	-8.77896
▁hey	-8.77951
▁John	-8.78
▁Mot	-8.78232
you	-8.78345
▁cut	-8.78411
▁hi	-8.78878
▁b	-8.79015
▁floor	-8.79217
▁bring	-8.79487
▁later	-8.79709
▁er	-8.7993
T	-8.79936
▁O	-8.80221
▁air	-8.80224
Oh	-8.80288
▁understand	-8.80359
en	-8.8037
▁already	-8.806
▁lady	-8.80618
▁hands	-8.80858
▁objects	-8.81001
▁wouldn	-8.81174
▁Look	-8.81537
▁Switzerland	-8.82002
▁shall	-8.8201
no	-8.82038
And	-8.82186
▁playing	-8.82248
▁district	-8.82473
▁live	-8.82825
▁juice	-8.8296
▁felt	-8.83424
▁sometimes	-8.83565
▁party	-8.83606
▁Aileen	-8.83907
▁spell	-8.84136
▁...	-8.84305
▁Sarah	-8.84386
▁trying	-8.84401
est	-8.84527
▁wrong	-8.8487
▁food	-8.84873
▁YOU	-8.85327
▁hold	-8.85673
cause	-8.85724
▁son	-8.85928
▁F	-8.86093
▁fall	-8.86155
▁often	-8.86285
▁ten	-8.8699
▁Not	-8.87031
▁circle	-8.87323
l	-8.87452
C	-8.87713
▁idea	-8.87879
▁turned	-8.88331
▁sort	-8.88434
▁pick	-8.88502
▁happy	-8.88823
▁mom	-8.88854
▁color	-8.89324
▁September	-8.89337
▁till	-8.89351
▁friend	-8.89386
▁wan	-8.89791
▁sound	-8.89797
▁death	-8.89834
p	-8.89869
▁Did	-8.89965
▁mine	-8.89999
c	-8.90125
▁fun	-8.90524
▁stand	-8.90748
▁close	-8.91024
2:	-8.91344
▁Vaud	-8.91461
▁lived	-8.91571
▁probably	-8.91899
▁cup	-8.92046
▁dey	-8.92235
▁since	-8.92417
▁fell	-8.92623
▁point	-8.92659
▁break	-8.9285
▁herself	-8.92951
▁seemed	-8.93077
".	-8.93091
▁kitchen	-8.93457
▁lunch	-8.93457
▁Go	-8.93931
▁hurt	-8.93959
▁ice	-8.94021
▁cold	-8.9453
▁ain	-8.94721
picks	-8.94734
▁moment	-8.94759
▁girls	-8.9491
▁outside	-8.95086
▁number	-8.95319
▁department	-8.95591
▁mouth	-8.95605
▁someone	-8.9569
▁behind	-8.96141
▁Good	-8.96183
▁person	-8.96194
Well	-8.9647
▁brought	-8.96674
▁Who	-8.96821
▁fact	-8.97617
But	-8.98564
▁job	-8.98647
▁commune	-8.98878
▁daddy	-8.98879
▁full	-8.99369
▁front	-8.99411
▁George	-8.99437
▁beautiful	-8.99926
▁large	-8.99994
▁m	-8.99997
▁yourself	-9.00019
▁July	-9.00023
▁Mother	-9.00102
▁hit	-9.00133
▁six	-9.00557
▁lost	-9.00568
▁toward	-9.00778
It	-9.00879
▁rest	-9.00903
or	-9.00906
▁looks	-9.01271
▁sleep	-9.01371
▁makes	-9.0139
g	-9.01523
▁movie	-9.01543
▁boat	-9.01557
▁wasn	-9.01753
▁gotta	-9.01792
▁One	-9.01854
▁G	-9.02007
la	-9.02066
▁pull	-9.02078
▁poor	-9.02205
▁noise	-9.02776
ion	-9.02812
▁hair	-9.02863
▁p	-9.03074
born	-9.03122
▁guy	-9.03325
▁across	-9.0352
▁At	-9.03549
▁To	-9.03654
▁country	-9.0402
▁toy	-9.04183
M	-9.04931
▁construction	-9.05236
▁throw	-9.05606
▁matter	-9.05678
▁y	-9.0612
▁haven	-9.06283
▁sir	-9.06317
▁words	-9.074
▁Mm	-9.07745
▁true	-9.08225
us	-9.0861
▁friends	-9.0865
▁funny	-9.08832
▁U	-9.09194
▁state	-9.09196
▁County	-9.09449
▁week	-9.09456
▁walk	-9.09527
▁started	-9.09822
▁[2	-9.10028
▁times	-9.10214
",	-9.10256
is	-9.10688
▁tried	-9.10708
▁member	-9.10712
u	-9.10868
de	-9.1138
▁comes	-9.11407
▁guys	-9.11465
▁bear	-9.11741
▁Garth	-9.1196
▁ran	-9.12017
▁dur	-9.12059
lo	-9.12188
▁couldn	-9.12529
▁May	-9.12697
▁nut	-9.12843
▁As	-9.12847
▁buy	-9.12992
▁2	-9.13229
▁speak	-9.13586
▁perhaps	-9.13896
▁foot	-9.13899
ir	-9.14021
2	-9.14037
▁short	-9.14387
▁cool	-9.14486
▁became	-9.14532
▁Get	-9.1467
▁ago	-9.14981
▁become	-9.14995
▁able	-9.1505
▁change	-9.15062
▁afraid	-9.15179
▁kept	-9.15195
▁pay	-9.15223
▁train	-9.15414
▁sugar	-9.15837
▁stuck	-9.15838
▁2019)	-9.15938
▁played	-9.16061
▁given	-9.16128
What	-9.16184
Chi	-9.16265
▁dead	-9.1652
▁AND	-9.16521
▁sounds	-9.17008
▁meet	-9.17134
▁R	-9.17471
man	-9.17612
▁eight	-9.17769
takes	-9.18177
▁deal	-9.1831
▁Of	-9.18407
▁3	-9.18606
▁airplane	-9.18617
▁case	-9.18648
huh	-9.18739
▁war	-9.18996
▁running	-9.19209
▁January	-9.19214
▁nine	-9.19221
▁among	-9.19288
.7	-9.19557
▁myself	-9.19901
ers	-9.20038
▁alone	-9.2057
▁kill	-9.20633
▁area	-9.20642
able	-9.20651
▁page	-9.2077
▁snow	-9.21263
▁green	-9.21274
▁somebody	-9.21278
▁After	-9.21294
Yes	-9.21663
▁minutes	-9.21887
▁trunk	-9.21963
▁Papa	-9.2197
▁taking	-9.22004
▁inside	-9.22183
▁wish	-9.22403
▁Ma	-9.22423
▁business	-9.22633
▁sitting	-9.22719
▁music	-9.22783
to	-9.23569
▁ahead	-9.2357
h	-9.23598
but	-9.23722
▁east	-9.23733
NA	-9.23795
k	-9.23869
▁lay	-9.23944
▁April	-9.24116
▁broken	-9.2415
▁2020	-9.24239
▁sticks	-9.24245
E	-9.24321
▁4	-9.24528
▁careful	-9.24744
▁Doubs	-9.24809
▁either	-9.24815
▁writing	-9.24863
▁taken	-9.25313
▁politician	-9.25537
▁wife	-9.25549
▁King	-9.25671
▁h	-9.25919
▁stuff	-9.26269
▁body	-9.26293
▁trouble	-9.26397
▁daughter	-9.26532
▁W	-9.26725
SS	-9.26807
▁soft	-9.26932
cha	-9.27206
▁Ah	-9.2729
▁Or	-9.27317
▁straight	-9.27592
tries	-9.27649
▁glad	-9.27658
ta	-9.27728
▁rather	-9.2774
▁early	-9.27792
▁ride	-9.27992
▁draw	-9.28011
▁wagon	-9.28088
b	-9.28183
▁twenty	-9.28486
▁river	-9.28492
▁send	-9.28999
▁wants	-9.29258
▁Because	-9.2927
▁ring	-9.29388
▁worked	-9.295
▁knock	-9.29558
▁clear	-9.2959
▁balls	-9.29913
▁Maybe	-9.30021
▁bag	-9.30048
▁finished	-9.30192
▁L	-9.30211
▁picture	-9.30231
ness	-9.30703
▁stood	-9.30758
▁Florence	-9.30758
▁population	-9.30759
▁nose	-9.30935
▁working	-9.31094
▁happen	-9.31489
▁Have	-9.31543
▁Christmas	-9.31544
▁sent	-9.31637
▁tomorrow	-9.31884
▁street	-9.31951
▁die	-9.32042
▁Harwood	-9.32303
▁easy	-9.32306
▁Kansas	-9.32389
▁hour	-9.32767
▁Hi	-9.3301
▁tired	-9.33128
We	-9.3353
▁Boy	-9.33564
▁H	-9.33764
▁wind	-9.33802
▁strong	-9.33802
▁Here	-9.33893
▁eating	-9.34047
▁Her	-9.34292
▁reason	-9.34331
▁touch	-9.34333
▁thinking	-9.3482
▁ah	-9.35451
▁themselves	-9.35465
▁several	-9.35472
▁butter	-9.3555
Franc	-9.3573
▁7	-9.35787
▁duck	-9.35905
▁spoon	-9.35943
▁Bourg	-9.36271
ogne	-9.36272
▁stool	-9.36272
▁whether	-9.36272
▁living	-9.36272
▁With	-9.36306
,’	-9.36922
▁President	-9.37088
▁OF	-9.37089
▁road	-9.37092
▁passed	-9.37207
▁TO	-9.37253
▁wear	-9.37484
▁miss	-9.37603
▁cheese	-9.37904
Comté	-9.37904
▁#	-9.37906
ar	-9.37942
▁5	-9.38109
▁seems	-9.38127
▁jump	-9.38148
▁push	-9.38241
▁tonight	-9.38491
▁20	-9.38547
▁pieces	-9.38596
▁University	-9.38731
▁Peter	-9.38752
▁Please	-9.38753
▁past	-9.38812
▁trees	-9.39045
▁blow	-9.39151
▁feeling	-9.39242
He	-9.39344
▁window	-9.39345
▁aren	-9.39508
▁company	-9.39564
ies	-9.396
▁listen	-9.39762
▁arm	-9.39901
▁sing	-9.40119
▁nuts	-9.40382
▁dinner	-9.40405
▁least	-9.40405
▁held	-9.40428
▁tail	-9.40447
▁evening	-9.40582
ur	-9.40775
No	-9.40877
▁fellow	-9.4108
▁named	-9.41278
▁uhhuh	-9.41303
▁By	-9.41308
▁wood	-9.41375
▁group	-9.41939
▁horse	-9.41943
▁bird	-9.41958
▁See	-9.41988
▁clothes	-9.42117
▁gun	-9.42772
▁sun	-9.42809
▁late	-9.42863
▁drop	-9.42881
▁Laura	-9.4297
▁usually	-9.43005
▁bite	-9.43041
▁standing	-9.43408
▁seem	-9.4366
▁summer	-9.43839
P	-9.44141
B	-9.44437
▁sick	-9.44632
▁broke	-9.44654
▁English	-9.44705
▁caught	-9.44717
▁OK	-9.44721
▁tower	-9.44731
▁breakfast	-9.44742
▁March	-9.44759
▁th	-9.44794
▁fast	-9.45036
ra	-9.45148
▁hat	-9.45344
▁doctor	-9.45461
f	-9.45499
▁song	-9.4558
▁seven	-9.45598
▁birds	-9.45802
holds	-9.45803
1	-9.46
that	-9.46245
▁million	-9.46496
▁bottom	-9.46506
▁French	-9.46509
▁busy	-9.46528
ING	-9.46538
hi	-9.4674
▁others	-9.46783
▁finish	-9.47128
▁Jack	-9.47226
▁hole	-9.47337
▁Jean	-9.47394
▁phone	-9.47455
▁former	-9.47485
▁killed	-9.47699
▁sign	-9.47967
▁answer	-9.47991
▁capital	-9.48303
▁giving	-9.48326
▁whatever	-9.48368
LL	-9.48407
▁12	-9.48445
ie	-9.4866
▁8	-9.48849
▁An	-9.4892
ic	-9.4916
▁television	-9.49223
LDES	-9.49228
▁November	-9.49246
▁Some	-9.4928
▁forward	-9.49328
▁dogs	-9.4939
▁lovely	-9.49581
▁catch	-9.49856
▁ground	-9.50059
▁spring	-9.50143
▁Town	-9.50147
▁chance	-9.50149
▁Aggie	-9.50151
▁important	-9.50161
▁cream	-9.50185
▁10	-9.50655
▁unclear	-9.51137
▁seat	-9.51377
▁dress	-9.51414
▁St	-9.51748
▁fix	-9.51791
▁clip	-9.51966
▁sat	-9.52018
▁turtle	-9.52044
▁Ha	-9.52798
▁above	-9.52977
we	-9.53075
▁clock	-9.53253
▁longer	-9.53308
▁wonder	-9.53354
▁tea	-9.53366
▁fly	-9.53924
▁plastic	-9.54017
▁team	-9.54202
▁le	-9.5427
one	-9.54643
referent	-9.54664
▁health	-9.54826
▁quiet	-9.54833
▁dad	-9.54837
▁circus	-9.54878
▁middle	-9.5491
▁hundred	-9.54936
▁teacher	-9.54948
▁Hello	-9.54976
▁washer	-9.55236
▁laughing	-9.55258
▁sweet	-9.55315
▁record	-9.55358
▁mm	-9.55427
▁fair	-9.55722
▁falls	-9.55728
▁Thanks	-9.55768
▁supper	-9.5589
▁anybody	-9.55914
▁problem	-9.55976
▁warm	-9.56072
▁less	-9.56198
▁moved	-9.56334
mo	-9.56375
▁wrote	-9.5688
▁IT	-9.56883
▁Illinois	-9.56885
▁forgot	-9.56954
▁w	-9.57162
▁Miss	-9.57166
▁gets	-9.57489
That	-9.57566
what	-9.57589
▁carry	-9.57659
▁dark	-9.57814
▁N	-9.57905
▁sister	-9.57993
▁forget	-9.5811
3	-9.58465
▁shoot	-9.58589
▁land	-9.58721
▁whom	-9.58858
▁afternoon	-9.58895
▁fit	-9.58959
▁following	-9.59102
▁V	-9.59211
N	-9.59381
▁fight	-9.59727
moves	-9.5978
▁loved	-9.59858
▁August	-9.59954
▁Dad	-9.60048
.6	-9.60311
▁series	-9.60942
▁exactly	-9.60954
▁Tripp	-9.60961
▁Urs	-9.61028
▁wonderful	-9.6103
▁meeting	-9.61339
▁date	-9.61498
▁places	-9.61555
▁g	-9.61806
▁birthday	-9.61985
▁everybody	-9.61986
▁bread	-9.62005
▁Sir	-9.62164
▁finger	-9.62195
▁fellows	-9.62208
▁king	-9.62328
4	-9.62562
▁opened	-9.62745
▁eggs	-9.62805
▁co	-9.6286
▁certain	-9.62959
▁police	-9.63021
▁cried	-9.63036
▁James	-9.63038
▁grew	-9.63047
▁December	-9.63064
▁certainly	-9.6312
▁apple	-9.63239
▁power	-9.63251
▁kids	-9.63513
▁onto	-9.63789
▁clean	-9.63914
▁weeks	-9.64144
9	-9.64167
R	-9.64199
▁service	-9.6433
▁IN	-9.64442
▁cat	-9.64472
▁check	-9.64552
▁da	-9.64565
places	-9.64849
▁order	-9.64935
▁Nick	-9.651
▁bath	-9.65248
▁figure	-9.65439
▁corner	-9.65443
▁store	-9.65534
ist	-9.65608
▁yours	-9.6576
▁win	-9.659
),	-9.65973
▁self	-9.66104
▁questions	-9.66108
▁save	-9.66117
less	-9.66167
▁strange	-9.66221
▁basket	-9.66265
▁People	-9.66281
▁act	-9.66286
▁main	-9.66291
▁Nothing	-9.66293
▁shot	-9.66321
▁flowers	-9.66336
▁low	-9.66345
▁block	-9.66351
ous	-9.66372
▁woods	-9.66495
▁village	-9.66501
▁crying	-9.66521
▁lots	-9.66591
▁happens	-9.66743
up	-9.66861
as	-9.66905
clock	-9.67045
▁build	-9.67131
▁pen	-9.67146
▁ha	-9.67291
▁current	-9.6736
▁Sorry	-9.67398
▁waiting	-9.67402
▁June	-9.67414
▁instead	-9.67457
▁cannot	-9.67608
▁k	-9.6761
▁Indians	-9.67755
▁liked	-9.67897
not	-9.68192
▁leaves	-9.68262
▁magic	-9.68466
▁enjoy	-9.68467
▁winter	-9.68475
▁Really	-9.68489
▁reading	-9.68524
▁anyway	-9.69024
▁free	-9.69176
▁_	-9.69329
▁force	-9.69576
▁eye	-9.69584
▁gold	-9.69592
▁hell	-9.6962
▁bought	-9.69623
▁Even	-9.70008
▁ear	-9.70108
▁legs	-9.70143
looking	-9.70462
ry	-9.70464
▁wash	-9.70523
▁shut	-9.70719
▁census	-9.70732
▁stopped	-9.70739
▁written	-9.70744
▁City	-9.70756
▁suddenly	-9.70762
▁recorder	-9.70793
O	-9.70954
ere	-9.71262
▁cry	-9.71618
points	-9.71768
▁follow	-9.71788
▁fear	-9.7181
▁California	-9.71881
▁worry	-9.71881
▁Jura	-9.71884
▁office	-9.7192
▁whispered	-9.71989
▁Be	-9.7199
▁cover	-9.72074
▁telling	-9.72145
el	-9.72285
▁letters	-9.72307
ian	-9.72498
Nord	-9.7257
ey	-9.72708
▁hate	-9.72778
▁War	-9.72828
▁suppose	-9.72863
▁wild	-9.72967
▁yesterday	-9.73044
▁pleasure	-9.73044
▁Sure	-9.73051
▁report	-9.73086
▁dese	-9.73239
▁language	-9.73486
▁cake	-9.73491
1.5	-9.73506
▁shoe	-9.7351
▁pop	-9.73579
▁works	-9.73671
day	-9.73938
▁football	-9.74169
▁grape	-9.7422
▁Grace	-9.74223
▁background	-9.74225
▁heavy	-9.74226
▁honey	-9.74235
▁Great	-9.74241
▁third	-9.74241
▁sight	-9.74485
▁star	-9.74749
▁building	-9.74975
▁form	-9.75132
▁lives	-9.75371
▁using	-9.75413
▁slowly	-9.75462
▁climb	-9.75524
▁dem	-9.75594
▁Man	-9.75762
▁plate	-9.759
?”	-9.75988
▁[3	-9.7606
▁within	-9.7608
ce	-9.76104
▁starts	-9.76547
▁decided	-9.76598
▁thirty	-9.76616
▁washers	-9.76616
▁simply	-9.76621
▁released	-9.76692
▁appeared	-9.76767
▁Sis	-9.76887
▁month	-9.77167
▁ones	-9.77177
▁State	-9.77195
).	-9.77198
▁16	-9.77343
▁blocks	-9.77576
▁problems	-9.77727
▁blood	-9.77758
▁games	-9.77771
▁York	-9.77835
▁except	-9.77843
▁moving	-9.77866
▁Lord	-9.77871
▁interesting	-9.78078
1.2	-9.78174
▁hours	-9.78341
▁balloon	-9.78397
▁bar	-9.78615
▁puzzle	-9.78881
▁Minister	-9.7907
▁accident	-9.79073
▁quickly	-9.7915
▁Little	-9.79151
F	-9.79191
et	-9.79325
▁v	-9.79382
▁Me	-9.79397
▁camp	-9.79552
▁[.8	-9.79588
▁pie	-9.79617
all	-9.79747
▁holding	-9.79786
There	-9.79841
▁books	-9.80077
▁promise	-9.80139
▁dose	-9.80202
▁asking	-9.80244
▁special	-9.80253
▁Robin	-9.80316
▁vaudois	-9.8032
▁stories	-9.8032
▁Keith	-9.80327
▁Diandra	-9.8033
▁government	-9.8033
▁From	-9.80339
at	-9.80359
▁video	-9.80392
▁()	-9.80586
*	-9.80779
▁sense	-9.8087
▁coat	-9.80909
z	-9.80931
ive	-9.8108
▁North	-9.81107
yellow	-9.8127
▁support	-9.8145
▁church	-9.81557
▁oatmeal	-9.81585
▁Canada	-9.81587
▁David	-9.81589
▁indeed	-9.81596
▁House	-9.81601
▁history	-9.81624
HS	-9.81722
ity	-9.81722
▁itself	-9.81785
▁nearly	-9.81823
▁softly	-9.81861
▁K	-9.8198
▁cook	-9.82075
um	-9.82231
▁leg	-9.82328
do	-9.82401
▁truth	-9.82409
▁ye	-9.82618
▁magnets	-9.82651
▁6	-9.8276
▁River	-9.82802
▁crack	-9.8281
▁stove	-9.82868
▁garden	-9.82886
▁turning	-9.8294
▁Tell	-9.82995
▁sell	-9.83113
▁present	-9.83131
▁position	-9.83513
.9	-9.8352
▁character	-9.83572
▁kid	-9.83582
Y	-9.83927
▁silly	-9.84166
▁Visit	-9.84166
▁Robert	-9.84174
▁earth	-9.84199
▁couple	-9.84201
▁supposed	-9.84369
age	-9.8441
am	-9.84429
▁followed	-9.8443
▁anyone	-9.84472
ch	-9.84561
▁thousand	-9.84866
▁ma	-9.84894
Home	-9.85159
▁worth	-9.85408
▁general	-9.85413
▁drive	-9.85423
▁brown	-9.8548
HV	-9.85485
▁members	-9.85489
▁Wait	-9.85493
▁Bill	-9.8551
▁button	-9.85542
▁flat	-9.85547
lthough	-9.85554
▁interest	-9.85678
5	-9.85855
▁arms	-9.85874
▁takes	-9.85899
▁visit	-9.85948
▁walking	-9.86
G	-9.86
▁FOR	-9.86018
▁news	-9.86022
▁sentence	-9.86178
▁region	-9.86229
▁animal	-9.86261
▁shoes	-9.8632
L	-9.86807
▁tapioca	-9.86815
▁common	-9.86816
▁Party	-9.86829
▁Take	-9.86852
▁nobody	-9.86855
▁reach	-9.86889
6	-9.87093
▁meat	-9.87134
▁9	-9.87234
▁30	-9.87259
▁BRO	-9.87293
▁election	-9.8761
▁hang	-9.87651
▁23	-9.87673
ation	-9.87784
▁bright	-9.88024
▁Would	-9.88131
▁medicine	-9.88167
▁napkin	-9.88168
▁women	-9.88174
▁joy	-9.88185
▁Very	-9.88203
▁created	-9.88262
▁camera	-9.88288
▁joined	-9.88329
▁dream	-9.88431
▁none	-9.88448
▁laugh	-9.88475
▁ya	-9.88563
8	-9.88717
▁15	-9.8886
w	-9.88898
▁bottle	-9.88945
▁18	-9.89008
ya	-9.89349
▁hungry	-9.8954
▁Like	-9.89554
▁February	-9.89574
▁dropped	-9.89623
They	-9.89637
▁Joe	-9.89718
▁answered	-9.8989
for	-9.89981
▁Stop	-9.90036
of	-9.90066
▁test	-9.90085
▁cross	-9.9036
▁Indian	-9.90406
▁metal	-9.90443
▁band	-9.90495
clear	-9.90504
=	-9.90608
▁spend	-9.90682
▁actor	-9.907
▁School	-9.90925
▁attention	-9.90926
▁husband	-9.90937
▁moves	-9.90944
▁Hank	-9.90959
▁soup	-9.91172
▁parents	-9.91263
▁miles	-9.91288
▁return	-9.91338
▁happening	-9.91364
▁rock	-9.91434
▁19	-9.91451
house	-9.91472
▁months	-9.91696
▁u	-9.91759
▁pocket	-9.91782
▁season	-9.91838
▁2011	-9.91884
▁dry	-9.92033
▁north	-9.92101
sur	-9.92104
▁dance	-9.92112
▁quick	-9.92212
▁safe	-9.9222
▁stupid	-9.92248
▁Majesty	-9.92334
▁William	-9.92334
▁hospital	-9.92334
▁possible	-9.92334
▁leaving	-9.92335
▁World	-9.92336
▁crazy	-9.92338
▁difference	-9.92341
▁space	-9.92346
▁built	-9.9235
▁talked	-9.92359
co	-9.924
▁type	-9.92797
▁sea	-9.92822
▁president	-9.92969
▁attack	-9.93021
▁beside	-9.93422
paper	-9.93441
▁race	-9.93446
▁human	-9.93458
Now	-9.9346
▁list	-9.9352
▁surprise	-9.93599
BR	-9.93669
▁South	-9.9376
▁court	-9.93762
▁Which	-9.93763
▁teeth	-9.93763
▁Italian	-9.93776
▁Two	-9.93794
▁San	-9.94137
by	-9.94407
▁ate	-9.9441
▁stone	-9.94625
She	-9.95101
▁Clavering	-9.95212
▁example	-9.95212
▁replied	-9.95218
▁paid	-9.95227
▁stage	-9.95228
▁tv	-9.95255
▁Mama	-9.95259
bout	-9.95506
▁horses	-9.95539
ri	-9.95566
▁Nation	-9.95688
▁walked	-9.95762
▁simple	-9.95776
▁toys	-9.9598
▁period	-9.96015
song	-9.96367
ful	-9.96418
▁hurry	-9.96432
▁meant	-9.96603
▁proud	-9.96606
▁seeing	-9.96656
▁ought	-9.96683
▁carried	-9.96699
▁doggie	-9.96702
Then	-9.96706
▁finally	-9.96713
▁afterwards	-9.96783
7	-9.96825
time	-9.97169
▁28	-9.97234
▁animals	-9.97298
H	-9.97316
li	-9.97561
▁belong	-9.97654
son	-9.97683
▁cookie	-9.97802
▁lion	-9.97839
ish	-9.98013
▁EXP	-9.9802
x	-9.98098
▁local	-9.98169
▁briefcase	-9.98175
▁community	-9.98175
▁swimming	-9.98175
▁beginning	-9.98176
▁Danny	-9.9818
▁grass	-9.98187
▁Johnson	-9.98191
▁park	-9.98203
▁considered	-9.98265
▁lying	-9.98294
▁step	-9.98424
▁Er	-9.98748
▁WE	-9.99087
ne	-9.99463
▁doubt	-9.99512
▁include	-9.99534
▁25	-9.99609
▁luck	-9.99615
ARY	-9.99671
▁glass	-9.99685
▁Michael	-9.9969
▁throat	-9.9969
▁Graham	-9.99691
▁rose	-9.99705
▁baseball	-9.99717
▁led	-9.99777
▁needs	-9.99952
▁deep	-10.0049
▁met	-10.0052
▁fruit	-10.0082
▁orange	-10.0086
▁[4	-10.0089
▁term	-10.0092
▁neither	-10.0123
▁neck	-10.0123
▁station	-10.0123
▁pink	-10.0123
▁level	-10.0124
▁loud	-10.0124
▁Father	-10.0125
▁national	-10.013
▁received	-10.013
▁string	-10.0131
im	-10.0155
▁ng	-10.0177
▁post	-10.0177
xcuse	-10.0188
▁farm	-10.0193
▁singing	-10.0193
red	-10.0199
▁pass	-10.0207
▁lie	-10.0232
▁31	-10.0271
▁rough	-10.0276
▁drew	-10.0279
▁British	-10.028
▁Harry	-10.0281
▁bigger	-10.0281
▁www	-10.0281
▁chain	-10.0282
▁Fuck	-10.0283
▁Colin	-10.0284
▁county	-10.0286
U	-10.0296
▁Gus	-10.0314
▁De	-10.0327
na	-10.0382
pull	-10.0386
▁expect	-10.0387
▁learn	-10.0389
▁sad	-10.039
▁fat	-10.0392
▁rich	-10.0407
▁wheel	-10.0414
▁trust	-10.0415
▁watching	-10.0426
▁public	-10.043
▁wide	-10.0432
▁spoke	-10.0432
▁Republic	-10.0435
▁terrible	-10.0438
▁England	-10.0438
▁tongue	-10.0438
▁ve	-10.0438
▁especially	-10.0438
▁married	-10.0439
▁Henry	-10.044
▁Russian	-10.0442
▁everyone	-10.0444
▁perfectly	-10.0446
▁missed	-10.0484
1.3	-10.0496
ma	-10.051
▁ME	-10.0544
te	-10.0553
▁ga	-10.056
▁breath	-10.0566
▁law	-10.0568
▁monkey	-10.0568
▁nor	-10.0571
▁beat	-10.0579
▁notice	-10.0585
▁cos	-10.059
▁twelve	-10.0599
▁lap	-10.06
▁spread	-10.0604
▁fallen	-10.0605
ent	-10.061
▁horseshoe	-10.0611
▁24	-10.0618
▁career	-10.0621
▁laughed	-10.0627
way	-10.0635
▁changed	-10.0645
▁14	-10.0657
ary	-10.0667
be	-10.0683
▁showed	-10.0722
▁imagine	-10.0745
▁perfect	-10.0754
%	-10.0757
▁Saturday	-10.0763
▁Santa	-10.0765
▁plan	-10.0766
▁elected	-10.0769
▁grown	-10.0771
▁Will	-10.0773
▁Texas	-10.0774
▁2022	-10.0784
▁flag	-10.0785
▁returned	-10.0791
So	-10.0807
ha	-10.082
▁East	-10.082
▁weren	-10.0836
ley	-10.084
▁picked	-10.084
▁offer	-10.0855
▁smile	-10.0882
▁lift	-10.0891
▁lake	-10.09
v	-10.0913
▁lose	-10.0921
My	-10.0921
▁America	-10.0924
Illustration	-10.0929
▁empty	-10.093
▁threw	-10.093
▁twice	-10.093
▁chocolate	-10.093
▁political	-10.093
▁situation	-10.093
▁pair	-10.093
▁pipe	-10.0931
▁gay	-10.0938
▁den	-10.0946
▁share	-10.0947
rs	-10.099
▁card	-10.0991
▁deer	-10.0998
▁pad	-10.1007
tic	-10.1011
▁handle	-10.1041
▁pretend	-10.1051
▁27	-10.1061
if	-10.1063
black	-10.1068
▁market	-10.1074
▁26	-10.1076
▁glance	-10.1081
ro	-10.1083
ant	-10.1087
she	-10.1094
▁fresh	-10.1099
▁rate	-10.1099
▁Richard	-10.1099
▁Thomas	-10.1099
▁bike	-10.11
▁treat	-10.11
▁grandfather	-10.1101
▁center	-10.1102
▁First	-10.1103
▁Perhaps	-10.1104
▁brave	-10.1104
▁wipe	-10.1111
▁continued	-10.1114
il	-10.1114
▁Gros	-10.1115
▁tall	-10.112
▁dare	-10.1123
▁wheels	-10.1133
attempt	-10.124
▁charge	-10.1243
▁agree	-10.1251
▁boots	-10.1264
WOM	-10.1266
▁2013	-10.1269
▁Smith	-10.1272
▁darling	-10.1272
▁beyond	-10.1272
▁fence	-10.1272
▁Patch	-10.1272
▁wow	-10.1274
▁moon	-10.1275
▁however	-10.1275
▁Listen	-10.1276
▁single	-10.1277
▁Aye	-10.1281
▁control	-10.1292
▁allowed	-10.1294
▁higher	-10.1296
ia	-10.1317
")	-10.1324
ment	-10.1351
5.	-10.1374
▁needed	-10.1384
▁lead	-10.1393
Vaud	-10.1415
▁points	-10.1425
▁secret	-10.1432
very	-10.1433
▁difficult	-10.1438
▁serious	-10.1439
▁flower	-10.1444
▁Governor	-10.1447
▁THAT	-10.1447
▁worse	-10.1447
▁diaper	-10.1448
▁shit	-10.1449
▁MY	-10.145
▁Lucas	-10.1452
▁protect	-10.147
▁expected	-10.1473
▁holds	-10.1484
▁13	-10.1487
▁Dr	-10.1513
▁Roman	-10.1544
▁houses	-10.1556
me	-10.1556
Don	-10.1572
ez	-10.1592
Mother	-10.1594
▁mark	-10.1605
▁smell	-10.1607
▁edge	-10.1609
▁smart	-10.162
▁couch	-10.1623
▁whoa	-10.1625
▁Friday	-10.1626
▁highchair	-10.1626
▁exclaimed	-10.1627
▁Queen	-10.1627
▁excuse	-10.1629
sings	-10.1633
▁frightened	-10.1634
▁attempt	-10.1634
▁Jesus	-10.1635
▁upstairs	-10.1636
▁swing	-10.1637
▁grow	-10.1659
▁groups	-10.1663
▁movies	-10.1679
▁add	-10.1687
▁thanks	-10.1689
▁mostly	-10.1691
▁burn	-10.1692
▁gas	-10.1703
W	-10.1745
▁jus	-10.1769
.8	-10.1771
▁count	-10.1772
▁Mark	-10.1799
▁shop	-10.1802
▁arrow	-10.1807
▁cherry	-10.181
▁mud	-10.181
▁hadn	-10.1812
▁key	-10.1814
▁Give	-10.1815
!’	-10.1835
▁bother	-10.1836
▁board	-10.184
▁cookies	-10.1857
▁likely	-10.1866
overlapp	-10.1882
▁believed	-10.1894
▁West	-10.1915
.5	-10.1946
▁appear	-10.1969
▁fill	-10.1973
▁bang	-10.1976
▁mad	-10.1979
▁stack	-10.1982
ED	-10.1982
▁wha	-10.1984
▁natural	-10.1986
▁paint	-10.1988
▁pillow	-10.1993
▁Empire	-10.1993
▁Brazil	-10.1993
▁Gippie	-10.1993
▁size	-10.1993
▁director	-10.1994
▁teddy	-10.1994
▁Chief	-10.1994
▁Poacher	-10.1994
▁begin	-10.1996
▁amount	-10.1996
▁press	-10.1997
▁Sometimes	-10.1998
▁served	-10.2003
▁shows	-10.2005
▁About	-10.2012
▁Erm	-10.2022
▁ri	-10.2035
▁player	-10.2046
▁noises	-10.2054
land	-10.2077
▁Mar	-10.209
▁US	-10.2095
V	-10.2096
▁drinking	-10.2118
Do	-10.212
▁roll	-10.212
▁wake	-10.2143
▁watched	-10.2162
has	-10.2165
▁suit	-10.2172
▁square	-10.2173
▁German	-10.2173
▁chief	-10.2173
▁cow	-10.2176
▁slide	-10.2179
é	-10.218
▁Washington	-10.2181
▁regard	-10.2181
▁2010	-10.2182
▁crayon	-10.2183
this	-10.2183
▁White	-10.2184
▁per	-10.2185
▁Germany	-10.219
night	-10.2191
▁entered	-10.2195
▁Every	-10.2197
out	-10.2199
▁fucking	-10.2201
▁hanging	-10.2216
▁cooking	-10.2218
room	-10.2223
▁added	-10.2234
▁17	-10.2239
▁bye	-10.2263
▁falling	-10.2276
RE	-10.2281
▁cause	-10.2286
▁Bo	-10.2302
▁hide	-10.2311
▁extra	-10.2323
Why	-10.2342
▁experience	-10.2352
id	-10.2365
▁professional	-10.2367
▁awful	-10.2368
▁system	-10.2372
▁clips	-10.2373
▁Lassie	-10.2374
▁THIS	-10.2374
▁monster	-10.2374
▁spent	-10.2374
▁distance	-10.2374
▁Day	-10.2374
▁switch	-10.2374
▁Ukraine	-10.2375
▁quit	-10.2377
▁anywhere	-10.2377
▁committee	-10.2377
▁Army	-10.2378
▁Sue	-10.2378
▁wall	-10.238
▁somehow	-10.2381
Prime	-10.2382
▁arrested	-10.2385
▁soul	-10.2388
▁greatest	-10.2391
▁apart	-10.2396
kay	-10.2401
▁reached	-10.2408
▁helped	-10.243
▁lines	-10.243
▁hall	-10.2435
▁join	-10.2472
▁cap	-10.2483
▁starting	-10.25
men	-10.2535
laughing	-10.2538
▁cost	-10.2541
▁cha	-10.2542
▁mistake	-10.2566
ho	-10.2569
▁Dillson	-10.257
▁Alright	-10.257
▁information	-10.257
▁favorite	-10.257
▁governor	-10.2571
▁Johnny	-10.2571
DAN	-10.2571
▁club	-10.2572
▁Lady	-10.2572
▁tiny	-10.2573
5/	-10.2575
▁CHAPTER	-10.2575
▁chicken	-10.2577
▁pig	-10.2577
▁shirt	-10.2577
▁role	-10.2579
▁nope	-10.2582
▁field	-10.2588
▁Bye	-10.2594
▁boot	-10.26
▁terms	-10.2614
▁ears	-10.2624
▁personal	-10.2647
▁Run	-10.265
overlap	-10.265
ach	-10.2697
led	-10.2705
▁ended	-10.2731
▁la	-10.2736
▁Albert	-10.2764
▁south	-10.2765
▁sandwich	-10.2766
singing	-10.277
▁London	-10.277
▁Oxford	-10.277
▁prairie	-10.277
▁municipalities	-10.277
▁response	-10.277
▁weird	-10.277
▁Ciscasset	-10.2771
▁dancing	-10.2771
▁conversation	-10.2771
▁rubber	-10.2771
▁Humm	-10.2773
▁hello	-10.2776
▁spirit	-10.278
can	-10.2781
▁Mary	-10.2782
▁raised	-10.2782
▁guns	-10.2808
▁dressed	-10.2823
▁lo	-10.2838
▁La	-10.2842
▁pulled	-10.2852
▁sleeping	-10.2857
ling	-10.2866
▁stars	-10.289
▁pain	-10.2904
IL	-10.2919
▁explain	-10.2931
vocalization	-10.2941
▁fool	-10.2941
pointing	-10.2946
▁honor	-10.2949
▁continue	-10.2972
▁fifty	-10.2974
▁future	-10.2974
▁pleasant	-10.2974
▁cancer	-10.2974
▁Democratic	-10.2974
1.1	-10.2974
▁taught	-10.2975
▁Agent	-10.2975
▁trip	-10.2976
▁Fine	-10.2976
▁mess	-10.2978
▁Old	-10.298
▁choice	-10.298
▁somewhere	-10.2982
laid	-10.2986
▁master	-10.2988
▁frog	-10.299
▁upside	-10.299
▁yard	-10.2994
▁cards	-10.3001
▁caused	-10.3001
▁bank	-10.3005
▁learned	-10.3005
▁action	-10.3018
▁Ed	-10.3023
▁nature	-10.303
▁pet	-10.3037
▁older	-10.3046
▁closed	-10.3048
▁drawing	-10.3049
ate	-10.3067
▁sharp	-10.3115
ince	-10.3116
▁bus	-10.3138
▁fingers	-10.3141
▁study	-10.3155
▁film	-10.3159
▁bowl	-10.316
▁rain	-10.3162
▁spot	-10.3174
▁Leo	-10.3176
▁Sun	-10.3177
▁allow	-10.3178
▁cruel	-10.3182
▁District	-10.3182
▁Raymond	-10.3182
▁fancy	-10.3183
▁Z	-10.3184
▁Could	-10.3185
▁retired	-10.3188
▁announced	-10.3188
0	-10.3193
go	-10.3194
▁Saint	-10.3197
▁prize	-10.3198
▁brain	-10.3201
▁snake	-10.3204
▁2016	-10.3205
▁bowling	-10.3209
ud	-10.3217
▁Only	-10.3227
hose	-10.3229
▁egg	-10.3229
All	-10.3245
▁event	-10.3253
▁Los	-10.3264
ine	-10.3268
▁shoulder	-10.3272
▁wagons	-10.3297
▁class	-10.3307
▁plants	-10.3322
▁tone	-10.3324
so	-10.3333
▁pounds	-10.3349
ty	-10.3349
How	-10.3364
▁burst	-10.3369
▁grace	-10.3381
▁Any	-10.3388
goes	-10.3389
▁fifteen	-10.3393
▁machine	-10.3394
▁peace	-10.3394
▁gift	-10.3395
▁cowboy	-10.3395
▁partner	-10.3396
▁queer	-10.3396
▁However	-10.3396
uring	-10.3396
▁Pence	-10.3397
▁damn	-10.3398
▁published	-10.3398
▁anymore	-10.34
▁pile	-10.3404
▁directed	-10.3406
▁fourth	-10.3409
▁dozen	-10.3416
▁officer	-10.3426
ens	-10.3438
▁2017	-10.3441
▁bell	-10.346
da	-10.3492
les	-10.3494
▁owner	-10.3509
▁doll	-10.3514
▁con	-10.3574
▁account	-10.3593
▁sex	-10.3596
▁corn	-10.3606
▁popular	-10.3612
▁Illustrated	-10.3612
▁dunno	-10.3612
▁evidence	-10.3612
▁Missouri	-10.3612
▁suitcase	-10.3612
▁roof	-10.3612
▁species	-10.3613
▁sky	-10.3613
▁tray	-10.3614
▁History	-10.3614
ter	-10.3614
▁European	-10.3614
▁unless	-10.3616
▁eh	-10.3621
▁quarter	-10.3623
▁screaming	-10.3623
▁lucky	-10.3625
▁storm	-10.3626
gaa	-10.3633
▁remind	-10.3633
▁filled	-10.3642
,--	-10.3649
▁interested	-10.3651
▁Aha	-10.3654
▁IS	-10.3662
▁teach	-10.3665
▁wished	-10.3686
▁pale	-10.3689
▁dreams	-10.3697
▁29	-10.3701
▁Re	-10.3702
▁skin	-10.3751
▁Was	-10.3798
▁Um	-10.3799
▁shame	-10.3815
▁Paris	-10.3834
▁Natalie	-10.3834
▁sposta	-10.3834
▁Trump	-10.3835
▁college	-10.3835
▁tiger	-10.3835
▁Lucy	-10.3835
▁Charles	-10.3835
▁Larita	-10.3835
▁WHAT	-10.3836
▁major	-10.3836
▁Tony	-10.3837
▁notes	-10.3839
▁completely	-10.3839
▁heaven	-10.384
▁asleep	-10.384
▁rug	-10.3841
▁remained	-10.3847
▁hunting	-10.3853
▁lips	-10.3854
▁Does	-10.3858
▁tripp	-10.3861
▁art	-10.3863
▁leader	-10.3868
vo	-10.3876
▁fighting	-10.389
▁windows	-10.3894
ng	-10.3896
▁picks	-10.3914
io	-10.3924
▁speaking	-10.3928
▁[5	-10.3937
▁pictures	-10.3943
▁oil	-10.3947
▁Cos	-10.3966
▁Mo	-10.3979
▁fishing	-10.3984
▁murder	-10.3993
▁respect	-10.4039
▁usual	-10.4055
▁radio	-10.4062
▁Cooper	-10.4062
▁League	-10.4062
▁Naomi	-10.4062
▁excitement	-10.4062
▁exciting	-10.4062
▁plenty	-10.4062
▁further	-10.4062
▁professor	-10.4062
▁military	-10.4062
▁ladies	-10.4062
▁alive	-10.4063
▁mommy	-10.4063
▁including	-10.4064
▁continues	-10.4064
▁|	-10.4067
▁Jess	-10.4071
▁involved	-10.4072
▁magnetic	-10.4073
▁arrived	-10.4074
▁Martin	-10.4074
▁needta	-10.4078
▁pour	-10.408
▁lean	-10.4083
▁begins	-10.4085
▁holes	-10.4087
▁god	-10.4089
▁singer	-10.4089
▁sand	-10.4091
▁subject	-10.4093
▁smaller	-10.4097
▁album	-10.4098
▁ill	-10.4098
▁taste	-10.4099
▁movement	-10.4101
▁bone	-10.4106
▁official	-10.4107
▁object	-10.4107
▁double	-10.4111
▁critique	-10.4115
In	-10.4116
▁signed	-10.4121
▁whoops	-10.4129
▁te	-10.4133
▁names	-10.4186
playing	-10.4192
▁brothers	-10.4215
ow	-10.4216
▁wet	-10.4224
▁fuck	-10.4231
▁tears	-10.4234
▁calling	-10.4242
▁kiss	-10.4245
ial	-10.4259
Adam	-10.4263
ke	-10.4264
▁sub	-10.427
▁al	-10.4274
▁actress	-10.4291
▁comma	-10.4292
▁fault	-10.4294
▁splendid	-10.4294
▁value	-10.4294
▁trade	-10.4294
▁swim	-10.4294
▁Spain	-10.4295
▁Mhm	-10.4295
▁majesty	-10.4295
▁truly	-10.4295
▁Ooh	-10.4295
▁taperecorder	-10.4298
▁Fairy	-10.4298
▁agreed	-10.4319
▁tied	-10.432
▁bill	-10.4331
▁badly	-10.4338
▁covered	-10.4342
LW	-10.4345
▁cracker	-10.4349
▁carrying	-10.4352
▁ex	-10.4358
▁flying	-10.4359
▁wearing	-10.4365
▁dollars	-10.4365
▁listening	-10.4366
▁21	-10.4369
▁shower	-10.4389
ee	-10.4391
ized	-10.4401
▁west	-10.4411
▁creatures	-10.4416
▁tie	-10.4417
▁22	-10.4487
▁kick	-10.4489
▁pro	-10.4497
K	-10.4499
▁welcome	-10.4514
▁realize	-10.4516
▁placed	-10.4517
▁India	-10.4526
If	-10.4528
▁Senate	-10.4532
▁cast	-10.4532
▁kidding	-10.4532
▁Street	-10.4533
▁minister	-10.4533
▁pony	-10.4533
▁Major	-10.4534
▁immediately	-10.4534
▁Think	-10.4534
▁motor	-10.4535
!”	-10.4537
▁shore	-10.4537
▁China	-10.454
▁scared	-10.4541
▁Once	-10.4544
▁counter	-10.4544
▁fairy	-10.4553
▁crowd	-10.4559
▁smiled	-10.4559
▁pound	-10.4563
▁offered	-10.4567
▁forth	-10.4568
▁decision	-10.4576
▁queen	-10.4576
▁direction	-10.4584
they	-10.4584
▁checked	-10.4585
▁[6	-10.4588
▁council	-10.4599
ge	-10.4624
▁1,	-10.4625
▁remembered	-10.4668
▁comfort	-10.4674
▁meaning	-10.4699
▁hasn	-10.4714
ance	-10.4721
▁Le	-10.4746
▁thin	-10.4747
▁Julie	-10.4754
▁shoulders	-10.4767
▁particular	-10.4769
▁slight	-10.4771
▁hook	-10.4774
▁text	-10.4776
▁Patrick	-10.4776
▁neat	-10.4776
▁locate	-10.4777
▁blame	-10.4777
▁somethin	-10.4778
▁handsome	-10.4779
▁Watch	-10.4779
▁Polly	-10.478
▁Brian	-10.4781
▁whenever	-10.4782
well	-10.4782
▁dirty	-10.4783
▁Alan	-10.4784
▁prepared	-10.4791
ka	-10.4801
▁scissors	-10.4807
wood	-10.4809
▁promised	-10.4812
▁saved	-10.4818
vi	-10.4824
long	-10.4826
▁lawyer	-10.4827
▁hotel	-10.4828
▁track	-10.4833
▁fashion	-10.4872
▁shouldn	-10.4874
▁FE	-10.4879
▁sticking	-10.4887
▁3,	-10.4908
▁Black	-10.4914
▁rule	-10.4927
ny	-10.4932
lw	-10.494
▁staying	-10.495
▁ship	-10.4961
▁nap	-10.4963
was	-10.4967
there	-10.4977
▁roles	-10.5016
▁fond	-10.5026
▁Europe	-10.5026
▁Court	-10.5026
▁macaroni	-10.5026
▁similar	-10.5026
▁angry	-10.5026
▁scarce	-10.5026
▁MAY	-10.5026
▁Something	-10.5027
▁education	-10.5028
▁huge	-10.5029
▁triangle	-10.5029
▁penny	-10.5031
▁replaced	-10.5038
▁X	-10.5039
▁("	-10.505
▁weight	-10.5054
▁tha	-10.5054
▁di	-10.5056
ier	-10.5081
▁struggle	-10.5084
▁doin	-10.5088
▁Award	-10.5093
like	-10.5094
▁turns	-10.5106
▁Se	-10.5116
▁marbles	-10.5117
▁kindly	-10.513
▁wh	-10.5141
▁Red	-10.5142
▁2,	-10.5174
low	-10.5198
coughs	-10.5249
When	-10.5251
▁2012	-10.5256
▁shape	-10.5257
▁screw	-10.5261
▁smoke	-10.5263
▁tickle	-10.5264
▁crayons	-10.5282
▁Angeles	-10.5283
▁beauty	-10.5283
▁smooth	-10.5283
▁Julián	-10.5283
▁driving	-10.5283
▁chug	-10.5283
▁credit	-10.5284
▁positive	-10.5285
▁host	-10.5285
▁bridge	-10.5285
▁famous	-10.5286
▁potatoes	-10.5286
▁revolutionary	-10.5287
▁Most	-10.5298
▁quietly	-10.5303
ad	-10.5309
▁below	-10.5311
▁noticed	-10.5312
▁cloth	-10.5314
▁carefully	-10.5315
▁burning	-10.5318
magnet	-10.532
▁income	-10.5328
▁crime	-10.5342
▁Whig	-10.5344
▁steps	-10.535
▁copy	-10.5352
▁drug	-10.5353
Villars	-10.5357
▁pole	-10.5361
▁practice	-10.5375
▁Bu	-10.5383
▁tear	-10.5394
▁aside	-10.5421
▁stepp	-10.5442
ai	-10.5449
ET	-10.5456
▁stayed	-10.5459
▁ON	-10.5495
▁11	-10.5505
▁pitch	-10.5509
▁plane	-10.551
Good	-10.5517
nce	-10.5524
▁balance	-10.5526
▁feed	-10.5529
J	-10.5532
▁regular	-10.5537
▁anxious	-10.5538
▁slow	-10.5543
▁potato	-10.5543
▁waited	-10.5545
▁Actually	-10.5546
▁Florida	-10.5546
▁Valentine	-10.5546
▁fought	-10.5546
▁tricycle	-10.5546
▁planning	-10.5546
▁choke	-10.5546
▁Kong	-10.5546
▁desk	-10.5547
▁Tracy	-10.5547
▁absolutely	-10.5548
▁purple	-10.5548
▁gently	-10.5548
▁coach	-10.5549
▁obviously	-10.5549
▁Seth	-10.555
▁eagerly	-10.555
▁knife	-10.5551
▁goodbye	-10.5553
▁centre	-10.5554
▁Y	-10.5562
▁&	-10.5563
▁Over	-10.5569
ti	-10.5573
▁bare	-10.5574
▁surprised	-10.558
▁clearly	-10.5581
▁More	-10.5591
▁j	-10.5592
▁parts	-10.5594
▁battle	-10.5612
un	-10.5616
▁cats	-10.5619
▁border	-10.562
▁affair	-10.5621
▁Christ	-10.5621
▁soldier	-10.5622
▁jumped	-10.5622
▁Year	-10.5623
▁manner	-10.5626
▁coin	-10.5637
ig	-10.5651
▁uses	-10.5681
aft	-10.5692
▁sh	-10.5708
▁High	-10.5735
▁log	-10.5737
RA	-10.5737
▁pre	-10.5742
nd	-10.575
▁Dur	-10.5751
▁2018	-10.5756
▁plays	-10.5768
pitched	-10.5784
Come	-10.5785
ac	-10.5787
bring	-10.5792
▁wa	-10.5809
▁Sha	-10.581
▁original	-10.581
▁hung	-10.5811
▁speech	-10.5812
▁fourteen	-10.5814
▁social	-10.5816
▁RAF	-10.5816
▁babaa	-10.5816
▁excellent	-10.5816
▁advice	-10.5816
▁weather	-10.5816
▁Duke	-10.5816
▁Cherry	-10.5816
▁slipped	-10.5816
▁hammer	-10.5816
▁authority	-10.5817
▁struck	-10.5817
▁computer	-10.5817
▁formula	-10.5818
▁Life	-10.5818
▁Sunday	-10.5818
▁birdie	-10.5819
▁length	-10.582
▁weekend	-10.5822
▁lower	-10.5822
1.4	-10.5822
▁statement	-10.5824
▁discovered	-10.5828
runs	-10.5848
▁breathing	-10.5858
▁strike	-10.5859
▁1990	-10.5864
chuckles	-10.5864
ga	-10.5871
▁formed	-10.5879
▁danger	-10.5888
▁province	-10.5895
▁message	-10.5899
▁price	-10.5899
▁mass	-10.5913
▁remove	-10.5916
os	-10.5931
▁ow	-10.5946
▁non	-10.5954
▁voices	-10.5955
appropriate	-10.596
▁bringing	-10.5963
II	-10.6002
▁2014	-10.6045
▁rush	-10.6052
▁pleased	-10.606
ally	-10.6065
softly	-10.6068
▁bet	-10.6068
▁search	-10.6068
▁wound	-10.607
▁silent	-10.6086
▁private	-10.6086
▁normal	-10.6088
▁Scholarship	-10.6094
▁tinkertoy	-10.6094
▁Palmer	-10.6094
▁relationship	-10.6094
▁Hong	-10.6094
▁shh	-10.6095
▁medal	-10.6095
▁ninety	-10.6096
▁demand	-10.6099
▁Republican	-10.61
▁coal	-10.6103
sighs	-10.6105
▁gathered	-10.6106
gets	-10.6108
▁related	-10.6109
▁YOUR	-10.6111
▁row	-10.6113
▁Jim	-10.6119
▁feeding	-10.6121
▁suggest	-10.6124
due	-10.6126
▁21,	-10.6133
▁rocking	-10.6143
▁dish	-10.6145
▁fixed	-10.6164
▁lies	-10.6167
ung	-10.6168
ern	-10.617
don	-10.6171
▁gives	-10.6175
▁mirror	-10.6178
▁project	-10.6183
▁elephant	-10.6184
▁horn	-10.6184
que	-10.62
CE	-10.6201
▁note	-10.6202
board	-10.6205
▁throwing	-10.621
▁waste	-10.6212
nother	-10.6214
ye	-10.6224
▁chase	-10.6226
▁wings	-10.6234
▁rings	-10.6244
jo	-10.6267
more	-10.6289
▁scene	-10.6291
▁colors	-10.6301
shook	-10.6304
side	-10.6336
ship	-10.6339
my	-10.6343
▁scratch	-10.6346
▁delight	-10.6347
▁courage	-10.6351
▁sudden	-10.6372
▁excited	-10.6372
▁stream	-10.6379
▁Phil	-10.638
▁Canadian	-10.638
▁RLF	-10.638
▁dessert	-10.638
▁Shawn	-10.638
▁Clare	-10.638
▁surface	-10.638
▁bathroom	-10.6381
▁Death	-10.6381
▁Uncle	-10.6381
▁Berta	-10.6381
▁Becky	-10.6381
▁guilty	-10.6382
▁dialect	-10.6384
▁glasses	-10.6386
▁loose	-10.6386
▁mo	-10.6386
Let	-10.6388
▁shake	-10.6389
▁wore	-10.639
▁plant	-10.6391
▁Another	-10.6398
▁delighted	-10.6403
Ah	-10.6404
▁Many	-10.6408
po	-10.6415
▁growing	-10.642
▁lifted	-10.642
▁Pa	-10.6428
▁bark	-10.6429
▁spending	-10.6431
Here	-10.6434
▁checking	-10.6448
▁Ben	-10.6468
▁joke	-10.6477
▁design	-10.6478
▁mate	-10.6478
▁farmer	-10.6491
▁mountains	-10.6499
▁greatly	-10.6519
▁picking	-10.6525
▁writer	-10.6535
morrow	-10.6539
▁gal	-10.6547
▁mountain	-10.6552
▁Six	-10.6575
▁tight	-10.6628
▁UN	-10.6631
▁hunt	-10.6634
▁Jo	-10.6639
note	-10.6643
▁Hero	-10.6654
▁El	-10.6654
▁dirt	-10.6666
▁Park	-10.6668
▁)	-10.6672
▁toast	-10.6673
Connor	-10.6674
▁horsie	-10.6674
▁worst	-10.6674
▁Prize	-10.6674
▁gimme	-10.6674
▁HAVE	-10.6674
▁earlier	-10.6674
▁comin	-10.6674
▁destroy	-10.6674
▁dumb	-10.6674
▁Cha	-10.6675
▁buggy	-10.6675
▁century	-10.6675
▁journey	-10.6675
▁2006	-10.6676
▁biggest	-10.6676
▁match	-10.6677
▁Before	-10.6678
▁gain	-10.6678
▁Hold	-10.6679
▁LOVE	-10.6682
▁mail	-10.6684
▁attached	-10.6691
▁closer	-10.6691
▁HE	-10.6693
▁BY	-10.6694
▁section	-10.6695
▁tryin	-10.6711
▁pants	-10.6723
your	-10.6727
▁Ann	-10.6762
▁bow	-10.6763
▁Call	-10.6772
bel	-10.6773
▁magazine	-10.6775
king	-10.6781
▁Bird	-10.6783
▁Time	-10.6784
▁view	-10.6787
▁Stan	-10.6793
ese	-10.6796
ca	-10.6805
ki	-10.6807
most	-10.6816
▁trick	-10.6835
Not	-10.6882
▁faces	-10.6886
▁knees	-10.6894
▁meal	-10.6897
reading	-10.6904
1.7	-10.6909
▁NO	-10.6936
▁officers	-10.6942
This	-10.6946
▁Th	-10.6947
▁5,	-10.6949
▁Centr	-10.6954
▁escape	-10.6958
▁heads	-10.6964
▁pause	-10.6967
▁hurried	-10.6969
▁founded	-10.6971
▁areas	-10.6972
▁narrow	-10.6972
▁nineteen	-10.6974
▁Treaty	-10.6977
▁Uruguay	-10.6977
▁captain	-10.6977
▁evil	-10.6977
▁families	-10.6977
▁jolly	-10.6977
▁purpose	-10.6977
▁worried	-10.6977
▁picnic	-10.6977
▁Department	-10.6977
▁Green	-10.6977
▁Mexican	-10.6977
▁consumption	-10.6977
▁Bertha	-10.6977
▁Japanese	-10.6977
▁reckon	-10.6977
▁prevent	-10.6977
▁focus	-10.6977
▁Church	-10.6977
▁Doctor	-10.6978
▁cereal	-10.6978
▁manage	-10.6978
▁quack	-10.6978
▁2007	-10.6979
▁birth	-10.698
▁calm	-10.698
▁breast	-10.698
▁downstairs	-10.6981
▁bedroom	-10.6981
▁2015	-10.6983
▁Anne	-10.6985
▁particularly	-10.6986
LE	-10.6988
▁Say	-10.6993
▁barn	-10.6995
▁rise	-10.7003
▁army	-10.7007
ah	-10.7009
▁Although	-10.7012
▁included	-10.7014
ANU	-10.7031
▁ch	-10.7036
▁km	-10.7043
▁cents	-10.7052
ba	-10.7058
Go	-10.706
▁50	-10.7063
▁missing	-10.7069
▁helping	-10.7083
▁rocks	-10.7085
▁title	-10.7088
▁touching	-10.7088
▁uncle	-10.7089
▁blanket	-10.709
▁DON	-10.7093
▁cousin	-10.7095
▁effort	-10.7095
▁gate	-10.7114
VE	-10.7124
▁adventures	-10.713
1.6	-10.7137
▁bend	-10.7175
▁Up	-10.7177
▁Sam	-10.7189
▁Act	-10.7209
▁mi	-10.725
ped	-10.7251
▁sisters	-10.7254
▁range	-10.7261
▁represent	-10.7265
▁Work	-10.7269
▁suck	-10.727
turns	-10.7271
▁serve	-10.7271
▁lock	-10.7272
▁entire	-10.7282
▁Louis	-10.7282
▁Russia	-10.7283
▁Council	-10.7287
▁Constitution	-10.7289
▁Deborah	-10.7289
▁Goblin	-10.7289
▁Truman	-10.7289
▁university	-10.7289
▁International	-10.7289
▁bicycle	-10.7289
▁Dream	-10.7289
▁delicious	-10.7289
▁ourselves	-10.7289
▁opposite	-10.7289
▁Claus	-10.7289
▁necessary	-10.7289
▁Raff	-10.7289
▁shovel	-10.7289
▁duty	-10.7289
▁Monday	-10.729
▁1930	-10.729
▁Hilda	-10.729
▁bunny	-10.729
▁glorious	-10.729
▁crutches	-10.729
▁chest	-10.7291
▁Wednesday	-10.7291
▁merged	-10.7291
▁Cousin	-10.7292
▁broom	-10.7292
▁bump	-10.7293
▁dishes	-10.7293
▁Mike	-10.7294
▁Momma	-10.7295
▁Earl	-10.7295
▁pity	-10.7295
▁choo	-10.7296
▁disappointed	-10.7296
▁Never	-10.7297
▁TV	-10.7298
▁disappeared	-10.73
▁repeated	-10.7301
▁spoken	-10.7302
▁larger	-10.7306
▁mixed	-10.7306
▁generally	-10.7308
▁presently	-10.7308
ul	-10.731
▁salt	-10.7315
uh	-10.7318
▁ARE	-10.7331
▁goodness	-10.7334
▁learning	-10.7338
▁washed	-10.7357
▁whisper	-10.7369
▁protest	-10.737
▁super	-10.7373
▁Isn	-10.7379
ARCH	-10.7383
▁knocked	-10.7388
▁concern	-10.739
▁hero	-10.7397
▁issue	-10.7401
are	-10.7402
▁training	-10.7408
▁patient	-10.7409
▁Macleod	-10.741
▁newspaper	-10.7411
▁program	-10.7413
▁cage	-10.7414
round	-10.7418
▁result	-10.7419
▁utter	-10.743
▁Vi	-10.7467
IN	-10.7499
▁writes	-10.7502
▁Co	-10.7504
--"	-10.7509
bo	-10.7518
va	-10.7549
▁enter	-10.7564
X	-10.7567
▁songs	-10.7572
▁doors	-10.7573
just	-10.7578
▁frogs	-10.7587
▁ALL	-10.7588
▁Ca	-10.7594
▁AN	-10.7595
▁release	-10.7596
▁tu	-10.7596
▁Ta	-10.7598
▁honest	-10.7604
▁APR	-10.761
▁terror	-10.7611
Moudon	-10.7612
▁opportunity	-10.7612
▁shining	-10.7612
▁platform	-10.7612
BRU	-10.7612
▁carriage	-10.7612
▁NOT	-10.7612
▁nursery	-10.7613
▁24,	-10.7613
▁woof	-10.7613
▁ugly	-10.7613
▁production	-10.7613
▁Brother	-10.7613
▁Bones	-10.7613
▁Nyon	-10.7613
▁grampa	-10.7614
▁grandmother	-10.7614
▁Damn	-10.7614
▁General	-10.7615
▁style	-10.7616
▁sold	-10.7616
ol	-10.7617
▁fusses	-10.7617
▁Vice	-10.7617
▁lad	-10.7617
▁weak	-10.7622
▁Poor	-10.763
▁tough	-10.7633
▁becoming	-10.7634
ck	-10.7634
▁fairly	-10.7638
▁rushed	-10.7639
▁en	-10.7643
old	-10.7655
▁2005	-10.7657
▁BE	-10.7665
▁feels	-10.7666
▁Nat	-10.7668
▁Put	-10.7672
▁tops	-10.768
▁rustles	-10.7685
▁feathers	-10.7692
▁paying	-10.7735
▁4,	-10.7741
ise	-10.7744
▁plain	-10.7747
▁rabbit	-10.7751
▁erase	-10.7756
▁prove	-10.7778
▁numbers	-10.7785
▁travel	-10.7791
comes	-10.7809
amp	-10.7811
ged	-10.7836
line	-10.7849
▁chip	-10.785
▁sigh	-10.7857
ger	-10.7861
▁ho	-10.7869
18	-10.7877
▁iron	-10.7898
▁MAN	-10.7902
▁sides	-10.7911
giggles	-10.7911
Just	-10.7914
American	-10.7914
▁prison	-10.7918
bi	-10.7925
▁appreciate	-10.7926
▁decide	-10.7927
▁judge	-10.7927
▁thick	-10.7936
rely	-10.7939
▁referr	-10.7941
▁broad	-10.7945
▁Vagn	-10.7945
▁clever	-10.7945
▁laboratory	-10.7945
▁umbrella	-10.7945
various	-10.7945
▁fortune	-10.7945
▁presence	-10.7945
▁Mexico	-10.7945
▁Booth	-10.7945
▁Freddy	-10.7945
▁failure	-10.7945
▁sleigh	-10.7945
▁garage	-10.7945
▁vast	-10.7946
▁odd	-10.7946
▁Lake	-10.7946
▁airport	-10.7946
▁Three	-10.7948
▁Italy	-10.7949
▁Markus	-10.7949
▁apparently	-10.7954
▁Try	-10.7954
2.2	-10.7959
▁yelling	-10.7963
▁hoping	-10.7963
▁concerned	-10.797
▁appropriate	-10.7976
▁dull	-10.7987
▁nearer	-10.7989
▁burned	-10.7989
▁leading	-10.7995
ins	-10.7999
let	-10.8001
▁item	-10.8002
▁useful	-10.8005
▁pitched	-10.8015
some	-10.8019
ci	-10.8021
▁talks	-10.8041
▁pushing	-10.8046
1.8	-10.8092
▁vote	-10.8094
▁benefit	-10.8096
▁Al	-10.8097
loud	-10.81
▁Di	-10.8127
▁mothers	-10.8128
ssed	-10.8147
,000	-10.8154
▁total	-10.8159
pa	-10.8179
▁cars	-10.8179
▁40	-10.818
ical	-10.818
▁INV	-10.8185
cuse	-10.8194
▁killing	-10.821
▁revolution	-10.8232
au	-10.8233
▁discuss	-10.8237
▁score	-10.824
lia	-10.8248
▁pan	-10.8248
Thank	-10.8258
continues	-10.8259
means	-10.8259
Of	-10.826
off	-10.8261
▁budget	-10.8265
▁swallow	-10.8266
▁address	-10.8266
with	-10.8267
▁spill	-10.827
oh	-10.8274
ened	-10.8275
▁faint	-10.8278
▁events	-10.8278
▁raise	-10.8279
▁instant	-10.8282
▁leaf	-10.8287
▁inspector	-10.829
▁favor	-10.829
▁Catholic	-10.829
▁Douglas	-10.829
▁Government	-10.829
▁Louisiana	-10.829
▁WITH	-10.829
▁butterfly	-10.829
▁colour	-10.829
▁jelly	-10.829
▁miserable	-10.829
▁puppy	-10.829
▁ridiculous	-10.829
▁sprang	-10.829
▁stomach	-10.829
▁vehicle	-10.829
▁Besides	-10.829
▁drove	-10.829
▁wastebasket	-10.829
▁bodies	-10.829
▁suburb	-10.829
▁impossible	-10.829
▁Elizabeth	-10.829
▁Ryan	-10.829
▁performance	-10.829
▁disease	-10.829
▁session	-10.8291
▁Spanish	-10.8291
▁Sharston	-10.8291
▁negative	-10.8291
▁planned	-10.8291
▁expression	-10.8291
▁conductor	-10.8291
▁Wow	-10.8292
▁understood	-10.8292
▁gentlemen	-10.8292
▁Charlie	-10.8293
▁BUT	-10.8293
▁traffic	-10.8295
▁Make	-10.8295
▁winning	-10.8295
▁smiling	-10.8296
▁Jones	-10.8296
▁Shut	-10.8296
▁rod	-10.8298
▁central	-10.8299
▁telephone	-10.8299
▁pine	-10.8301
▁affected	-10.8302
▁produced	-10.8304
▁mentioned	-10.8309
▁whining	-10.8311
▁candy	-10.8312
▁assistant	-10.8314
▁LI	-10.8315
▁loss	-10.8315
▁managed	-10.8315
▁Last	-10.8316
▁eaten	-10.8316
▁suffering	-10.8317
▁nurse	-10.8318
▁Whil	-10.8319
▁drawn	-10.832
ors	-10.8323
▁correct	-10.8325
▁Crimea	-10.8329
pose	-10.8339
art	-10.8339
▁apt	-10.835
▁bug	-10.8355
▁recognize	-10.8359
▁2019.	-10.8362
ily	-10.8368
▁forty	-10.8372
▁tomato	-10.8372
▁Bob	-10.8376
ward	-10.8401
▁6,	-10.8421
▁bundle	-10.8443
▁Other	-10.8444
▁papers	-10.8446
▁brownie	-10.8449
▁16,	-10.8461
▁easter	-10.847
▁wee	-10.8472
▁nu	-10.8473
▁Fort	-10.8477
▁Ro	-10.8477
nut	-10.8496
▁refer	-10.8504
▁2003	-10.8521
ko	-10.8525
▁Da	-10.8537
▁mid	-10.8552
▁figures	-10.8559
▁Chris	-10.8559
car	-10.8564
▁Laugh	-10.8568
▁dump	-10.857
▁ne	-10.8571
▁Grand	-10.8592
▁hearing	-10.8593
▁suffer	-10.8599
▁ba	-10.8608
▁knee	-10.8609
▁MR	-10.8612
two	-10.8615
begins	-10.8615
Where	-10.8616
cries	-10.8616
throw	-10.8616
baby	-10.8617
▁perform	-10.8618
year	-10.8626
▁respond	-10.8627
▁guard	-10.8633
▁Madam	-10.8645
▁slip	-10.8647
▁Scott	-10.8647
▁specific	-10.8647
▁1968	-10.8647
▁Contreras	-10.8647
▁companies	-10.8647
▁daisy	-10.8647
▁enemy	-10.8647
▁Congress	-10.8647
▁amazing	-10.8647
▁fiction	-10.8647
▁powder	-10.8647
▁motorcycle	-10.8647
▁intonation	-10.8647
▁Health	-10.8647
▁Andrew	-10.8647
▁knowledge	-10.8647
▁funeral	-10.8647
▁property	-10.8647
▁countries	-10.8647
▁Hmm	-10.8647
▁rattle	-10.8647
▁mistress	-10.8648
▁Jenny	-10.8648
▁blast	-10.8648
▁final	-10.8648
▁Keep	-10.8648
▁theatre	-10.8649
▁compete	-10.8649
▁peel	-10.865
▁command	-10.8651
▁recently	-10.8651
▁Yep	-10.8651
▁uhoh	-10.8651
▁version	-10.8652
▁cabin	-10.8652
▁Next	-10.8652
▁Stay	-10.8653
▁declared	-10.8653
▁Whatever	-10.8654
▁Nobody	-10.8655
▁alphabet	-10.8655
▁ooh	-10.8656
▁firm	-10.8657
reache	-10.8657
▁awarded	-10.8657
▁risk	-10.8658
ON	-10.866
▁parties	-10.8661
▁highest	-10.8662
▁Val	-10.8663
An	-10.8669
▁boxes	-10.8673
▁forever	-10.8675
▁western	-10.8676
Be	-10.8678
▁kissed	-10.8684
▁appearance	-10.8689
▁ole	-10.869
▁eighty	-10.8692
▁rolling	-10.8694
▁Move	-10.8699
▁younger	-10.8704
▁passing	-10.8704
▁forgive	-10.8709
ns	-10.8728
▁organisations	-10.8729
▁wondered	-10.8737
▁sa	-10.8744
▁sending	-10.8766
▁1994	-10.8766
ick	-10.8769
▁2021	-10.8771
▁hated	-10.8804
▁banana	-10.8813
▁click	-10.8814
▁willing	-10.8815
▁victim	-10.8819
▁effect	-10.8825
▁sport	-10.8826
▁peanut	-10.8827
▁fires	-10.8828
▁creature	-10.8829
▁Ra	-10.8829
▁clicks	-10.8837
▁aw	-10.8859
▁issues	-10.8866
lic	-10.8866
▁Lu	-10.8873
who	-10.8884
▁11,	-10.8887
▁Big	-10.8897
ja	-10.8905
sh	-10.8917
ated	-10.8918
▁Li	-10.8921
▁mile	-10.8923
▁1970	-10.8926
▁calls	-10.8937
▁fl	-10.8944
▁$	-10.8964
▁Ya	-10.8965
▁stretch	-10.8967
▁Ba	-10.8973
blue	-10.8986
tape	-10.8986
▁hill	-10.8987
back	-10.8987
▁contact	-10.8991
▁Prince	-10.8992
▁Island	-10.8992
▁accept	-10.8994
▁coo	-10.8997
▁lights	-10.8999
▁bless	-10.8999
▁7,	-10.9
▁repeat	-10.9004
ably	-10.9007
00	-10.9011
▁14,	-10.9012
▁roads	-10.9014
▁grand	-10.9016
▁gentle	-10.9016
▁SCROOGE	-10.9017
▁strength	-10.9017
▁Love	-10.9017
▁Russo	-10.9018
▁babies	-10.9018
▁campaign	-10.9018
▁didldow	-10.9018
▁female	-10.9018
▁horrid	-10.9018
▁possibly	-10.9018
▁Joseph	-10.9018
▁exercise	-10.9018
▁kangaroo	-10.9018
▁clown	-10.9018
▁Weener	-10.9018
▁shawl	-10.9018
▁ashamed	-10.9018
▁Boston	-10.9018
▁etc	-10.9018
▁kitty	-10.9018
▁windmill	-10.9018
▁firetruck	-10.9018
▁1960	-10.9018
▁Bush	-10.9018
▁utterance	-10.9018
▁easier	-10.9018
▁thou	-10.9018
▁Peru	-10.9018
▁laughter	-10.9019
▁cities	-10.9019
▁farther	-10.9019
▁deaf	-10.9019
▁comfortable	-10.9019
▁trial	-10.9019
▁Everything	-10.902
▁stem	-10.902
▁appointed	-10.902
▁2000	-10.902
▁Japan	-10.902
▁decent	-10.902
▁experiment	-10.9021
▁dying	-10.9021
▁Nice	-10.9021
▁speed	-10.9022
▁dangerous	-10.9023
▁OUT	-10.9024
▁therefore	-10.9024
▁rising	-10.9025
▁desert	-10.9026
▁rope	-10.9026
▁path	-10.9027
▁Book	-10.9028
▁nk	-10.9029
▁Ohio	-10.903
▁hiding	-10.903
To	-10.9033
▁firmly	-10.9033
▁git	-10.9051
▁forgotten	-10.9053
▁assure	-10.9062
▁plans	-10.9076
▁Ka	-10.9085
26	-10.9093
▁acting	-10.9104
▁wondering	-10.9105
looks	-10.9108
CLE	-10.9108
▁vegetables	-10.911
▁canal	-10.9112
▁holidays	-10.9125
▁beds	-10.9136
▁100	-10.914
▁joint	-10.916
▁1969	-10.917
▁1995	-10.9175
washer	-10.9177
▁content	-10.9178
▁breaking	-10.9195
▁29,	-10.9195
▁characters	-10.9195
▁advantage	-10.9198
▁condition	-10.9198
ism	-10.9199
▁engine	-10.92
▁fork	-10.92
▁ghost	-10.9205
▁weapon	-10.9206
▁ribbon	-10.9208
▁tribe	-10.9209
▁pool	-10.9209
▁adventure	-10.9211
ping	-10.9216
▁mill	-10.9225
▁household	-10.9241
▁behave	-10.9241
ted	-10.927
AU	-10.9275
▁fed	-10.9278
▁Maria	-10.929
▁pages	-10.9301
▁sheep	-10.9317
▁20,	-10.9317
▁Su	-10.932
▁Les	-10.9333
how	-10.9334
▁wing	-10.9334
LY	-10.9337
▁Wha	-10.9343
▁consider	-10.9352
soft	-10.9361
▁deliver	-10.937
plastic	-10.937
critique	-10.9371
▁arrest	-10.9379
holding	-10.9379
writes	-10.9383
▁mus	-10.939
▁complete	-10.9391
▁previous	-10.9394
bye	-10.9395
▁walls	-10.9396
▁grateful	-10.9396
▁Turn	-10.9397
▁cheap	-10.9397
▁Aylmer	-10.9402
▁Captain	-10.9402
▁Deputy	-10.9402
▁Fuzhou	-10.9402
▁Leavenworth	-10.9402
▁Oklahoma	-10.9402
▁Special	-10.9402
▁activity	-10.9402
▁clef	-10.9402
▁energy	-10.9402
▁increase	-10.9402
▁seventeen	-10.9402
▁wicked	-10.9402
▁hamburger	-10.9402
▁compound	-10.9402
▁JUST	-10.9402
▁gray	-10.9403
▁leap	-10.9403
▁Ireland	-10.9403
▁vice	-10.9403
▁Secretary	-10.9403
▁flew	-10.9404
TTLE	-10.9404
▁Chinese	-10.9404
▁Remember	-10.9404
▁Cool	-10.9404
▁Film	-10.9405
▁DO	-10.9405
▁properly	-10.9405
▁Marion	-10.9405
▁otherwise	-10.9405
▁harm	-10.9405
Cause	-10.9406
▁development	-10.9406
▁Snow	-10.9406
▁drama	-10.9407
▁THERE	-10.9409
▁male	-10.9409
▁Cup	-10.9409
▁active	-10.941
▁passes	-10.941
▁rode	-10.941
▁delivery	-10.941
▁fireplace	-10.9416
▁shouted	-10.9416
▁homes	-10.9416
Mr	-10.9418
stands	-10.9419
▁invited	-10.9424
▁Billy	-10.9427
▁anti	-10.9427
▁loudly	-10.9427
▁mayor	-10.9432
▁hay	-10.9432
▁site	-10.9436
▁Shit	-10.9437
▁ok	-10.9443
▁vi	-10.9447
▁pa	-10.9447
▁bin	-10.9458
▁friendly	-10.947
▁folks	-10.9475
▁x	-10.9485
▁cheeks	-10.9498
▁23,	-10.9498
▁touched	-10.952
▁heat	-10.953
▁besides	-10.9533
pos	-10.9561
▁jobs	-10.9566
▁Ho	-10.9576
▁streets	-10.9582
▁crawl	-10.9584
▁Po	-10.9589
ans	-10.9598
ring	-10.9599
▁manager	-10.9602
▁degree	-10.9604
▁material	-10.9604
▁worm	-10.9606
▁doughnut	-10.9608
Are	-10.9624
▁na	-10.9646
▁AS	-10.965
ler	-10.9663
▁package	-10.9668
going	-10.9668
▁Sh	-10.967
▁SO	-10.9678
▁[7	-10.9691
▁opening	-10.9705
▁po	-10.9727
▁Am	-10.9731
rd	-10.9733
▁1992	-10.9743
▁laughs	-10.9748
coming	-10.9751
▁yo	-10.9754
▁fuss	-10.9762
stack	-10.977
Jim	-10.9771
strange	-10.9771
when	-10.9771
▁banks	-10.9772
where	-10.9775
▁steal	-10.9777
▁fold	-10.9778
▁rid	-10.9778
▁Dog	-10.9781
▁advance	-10.9783
Can	-10.9785
▁whistle	-10.9785
▁process	-10.9788
▁Con	-10.9791
ROB	-10.9792
tally	-10.9796
▁dust	-10.9799
▁eleven	-10.98
▁flow	-10.9801
still	-10.9801
▁Dutch	-10.9802
▁1972	-10.9802
▁LOOK	-10.9802
▁Melissa	-10.9802
▁anniversary	-10.9802
▁opinion	-10.9802
▁pizza	-10.9802
▁science	-10.9802
▁telegram	-10.9802
▁Kingdom	-10.9802
▁Taiwan	-10.9802
▁afford	-10.9802
▁Tokyo	-10.9802
▁bench	-10.9802
▁conference	-10.9802
▁cotton	-10.9802
▁international	-10.9802
▁seal	-10.9802
▁Minley	-10.9802
▁guide	-10.9802
mcee	-10.9802
▁basically	-10.9802
▁Wind	-10.9802
▁Police	-10.9802
▁woke	-10.9803
2.5	-10.9803
▁Dude	-10.9803
▁Leland	-10.9803
▁Southern	-10.9803
▁daily	-10.9803
▁conduct	-10.9803
▁pride	-10.9803
talks	-10.9803
▁Bozo	-10.9804
▁Kelly	-10.9804
▁flight	-10.9804
▁Philip	-10.9804
▁sake	-10.9804
▁staff	-10.9804
▁Series	-10.9805
▁unknown	-10.9805
▁Square	-10.9806
▁ding	-10.9806
▁producer	-10.9806
▁upset	-10.9806
▁Still	-10.9807
ut	-10.9808
▁Everyone	-10.9809
hn	-10.981
▁intended	-10.9811
▁CAN	-10.9815
▁officially	-10.9816
PA	-10.9817
▁failed	-10.9819
▁Dear	-10.9822
▁model	-10.9822
▁wildly	-10.9829
▁17,	-10.9836
▁se	-10.9836
▁ca	-10.9856
▁Long	-10.9863
▁earn	-10.9864
▁attacked	-10.987
lung	-10.989
pe	-10.9897
▁recording	-10.9905
▁propose	-10.9911
▁closet	-10.9914
▁listened	-10.9918
▁tip	-10.993
▁32	-10.9941
▁tumble	-10.9953
ab	-10.9955
▁tests	-10.9958
her	-10.9958
▁remain	-10.9974
posed	-10.9981
▁attend	-10.9982
▁2023	-10.9984
remove	-10.9986
3.5	-10.9995
DIA	-10.9996
▁keeper	-11.0011
cu	-11.0011
▁tire	-11.0011
▁ends	-11.0015
▁RE	-11.002
▁nail	-11.0024
▁squirrel	-11.0024
▁driver	-11.0025
▁hurts	-11.0042
▁artist	-11.0047
▁sw	-11.0054
▁chop	-11.0068
▁Easter	-11.0079
▁oops	-11.0088
▁interrupt	-11.0096
▁compare	-11.0107
ou	-11.0112
▁stores	-11.0117
▁map	-11.0122
▁SIS	-11.0124
▁Author	-11.0133
ot	-11.014
▁knowing	-11.0142
▁Jan	-11.015
27	-11.017
writing	-11.0184
singsong	-11.0186
Brown	-11.0187
horseshoe	-11.0187
from	-11.0187
EXP	-11.0188
▁claim	-11.0195
▁reward	-11.0195
▁kinds	-11.0199
silence	-11.02
▁refuse	-11.0204
▁flash	-11.0205
▁wine	-11.0205
▁sons	-11.0209
▁express	-11.0217
▁DAY	-11.0217
▁APHRODUCKY	-11.0219
▁Malenda	-11.0219
▁STORY	-11.0219
▁easily	-11.0219
▁parrot	-11.0219
▁resources	-11.0219
▁sponge	-11.0219
▁swingswing	-11.0219
▁studies	-11.0219
▁altogether	-11.0219
▁channel	-11.0219
▁Susan	-11.0219
▁float	-11.0219
▁neighborhood	-11.0219
▁pork	-11.0219
▁Pacific	-11.0219
▁Edition	-11.0219
▁diamond	-11.0219
▁midnight	-11.0219
▁Christian	-11.0219
▁Chair	-11.0219
▁relief	-11.0219
▁Corey	-11.0219
cient	-11.0219
▁northern	-11.022
▁boyfriend	-11.022
▁pattern	-11.022
▁insurance	-11.022
▁gettin	-11.022
▁discussion	-11.022
▁Bobby	-11.022
▁Betty	-11.0221
▁occasionally	-11.0221
▁vain	-11.0221
▁nervous	-11.0221
▁rapidly	-11.0221
▁Tommy	-11.0222
▁Someone	-11.0222
▁Children	-11.0222
▁José	-11.0222
▁eraser	-11.0223
▁Today	-11.0223
▁yup	-11.0224
▁Loring	-11.0224
Your	-11.0225
▁Club	-11.0228
▁Far	-11.0228
▁OH	-11.023
Both	-11.0231
▁slightly	-11.0232
▁remarked	-11.0233
▁accus	-11.0237
▁foolish	-11.0238
▁ideal	-11.0238
▁spare	-11.0239
▁ability	-11.024
▁shy	-11.0241
▁crawling	-11.0245
▁suffered	-11.0247
▁gh	-11.0247
▁bloody	-11.0248
▁addressed	-11.0248
▁lack	-11.0248
▁Justin	-11.0252
▁awfully	-11.0252
▁Care	-11.026
star	-11.026
▁riding	-11.0265
▁stairs	-11.0272
▁painted	-11.0274
▁Frank	-11.0276
▁spit	-11.0277
▁Hall	-11.0279
▁sleepy	-11.0281
▁closely	-11.0283
▁crossed	-11.0292
ble	-11.0293
▁fully	-11.0302
▁28,	-11.0305
▁sneeze	-11.0309
ster	-11.0312
▁Hunt	-11.032
▁seated	-11.0328
▁visitors	-11.0342
▁shade	-11.0358
▁boats	-11.0367
▁rag	-11.0367
stern	-11.0368
▁22,	-11.037
▁bound	-11.0397
▁buttons	-11.0413
▁sounded	-11.0418
▁fired	-11.0428
▁occasion	-11.0445
▁bugs	-11.0451
▁clunk	-11.0452
▁orphan	-11.0455
▁source	-11.0455
▁envelope	-11.0455
gain	-11.0457
▁cube	-11.0458
▁stir	-11.0467
▁results	-11.0476
▁sock	-11.0482
ug	-11.0494
▁farmers	-11.0504
▁keeps	-11.0519
▁Pe	-11.0531
7.	-11.0536
dy	-11.0548
▁bou	-11.0555
ct	-11.0557
▁showing	-11.0563
▁13,	-11.0584
▁mock	-11.0589
▁mix	-11.0591
▁Hu	-11.0595
▁bones	-11.06
▁changes	-11.0612
down	-11.0621
Z	-11.0621
which	-11.0622
bank	-11.0623
high	-11.0626
One	-11.0627
talking	-11.0627
play	-11.0627
▁roar	-11.0627
▁mention	-11.0634
▁succeed	-11.0635
▁Latin	-11.0645
▁Georgia	-11.0646
▁elder	-11.0646
▁trail	-11.0648
▁sixteen	-11.0652
ão	-11.0654
▁Academy	-11.0654
▁Arroniz	-11.0654
▁Britain	-11.0654
▁Buckingham	-11.0654
▁Family	-11.0654
▁Frosty	-11.0654
▁Furber	-11.0654
▁Humphrey	-11.0654
▁Mississippi	-11.0654
▁Probably	-11.0654
▁Stephen	-11.0654
▁Thursday	-11.0654
▁candidate	-11.0654
▁crocodile	-11.0654
▁uniform	-11.0654
▁razor	-11.0654
▁instance	-11.0654
▁College	-11.0654
▁federal	-11.0654
▁responsibility	-11.0654
▁skiff	-11.0654
▁pail	-11.0654
▁girlfriend	-11.0654
▁Group	-11.0654
▁clay	-11.0654
▁invasion	-11.0654
▁ejaculated	-11.0654
▁clop	-11.0654
▁cellar	-11.0654
▁expensive	-11.0654
▁parlor	-11.0654
▁tennis	-11.0654
▁administration	-11.0655
▁drift	-11.0655
▁Jerry	-11.0655
▁apologize	-11.0655
▁safety	-11.0655
▁Valley	-11.0655
▁seventy	-11.0656
▁powerful	-11.0656
▁boss	-11.0656
▁blind	-11.0656
▁magician	-11.0656
▁winner	-11.0656
▁Jimmy	-11.0656
▁programme	-11.0657
▁native	-11.0657
▁branches	-11.0657
▁African	-11.0658
▁whipped	-11.0658
▁grave	-11.066
▁fascinating	-11.066
▁steamer	-11.0661
▁Holy	-11.0662
▁Mayor	-11.0662
▁entirely	-11.0664
▁cheerful	-11.0665
▁vision	-11.0665
▁marry	-11.0665
▁developed	-11.0666
▁pushe	-11.0667
▁messy	-11.0672
▁coon	-11.0672
▁arrows	-11.0673
▁dolly	-11.0673
▁bored	-11.0674
▁setting	-11.0674
▁treaty	-11.0675
ER	-11.0686
▁murderer	-11.0687
▁ham	-11.069
▁parade	-11.0692
▁author	-11.0696
▁sum	-11.0696
▁imagined	-11.0703
illon	-11.0707
▁finding	-11.0718
▁Representatives	-11.0737
▁media	-11.0742
▁reported	-11.0744
j	-11.0744
▁Pro	-11.0745
▁1988	-11.0746
▁Andy	-11.0746
▁nest	-11.075
▁ordered	-11.0752
▁weary	-11.0769
▁catching	-11.0772
▁belongs	-11.0779
▁1.5	-11.0782
▁pushed	-11.0801
▁legal	-11.0811
▁goal	-11.0815
gotten	-11.0832
▁inter	-11.0843
▁90	-11.0846
▁Lee	-11.0856
▁cheer	-11.0858
▁clunks	-11.0861
▁sticky	-11.0876
▁dude	-11.0905
▁kite	-11.0914
ran	-11.0917
▁sale	-11.0919
▁protests	-11.0923
▁1987	-11.0942
▁1986	-11.0942
▁Stu	-11.0953
ard	-11.0965
chi	-11.098
▁KNOW	-11.0985
▁45	-11.0989
oop	-11.0989
▁sorts	-11.1009
▁las	-11.1014
▁drip	-11.1027
▁crackers	-11.1028
gue	-11.1037
▁Lo	-11.1047
▁schools	-11.1054
incorporated	-11.1074
ana	-11.1074
Look	-11.1077
▁arrive	-11.1084
also	-11.1086
▁ol	-11.1086
▁Norma	-11.1088
▁damage	-11.1089
▁Got	-11.1089
▁brief	-11.11
▁actual	-11.1101
▁stole	-11.1102
▁tender	-11.1105
▁branch	-11.1106
Poss	-11.1107
▁{\	-11.1108
▁Hydraulic	-11.1108
▁Maple	-11.1108
▁Shadow	-11.1108
▁Teddy	-11.1108
▁Whittaker	-11.1108
▁activist	-11.1108
▁bastard	-11.1108
▁horror	-11.1108
▁ntuu	-11.1108
▁servant	-11.1108
▁slept	-11.1108
▁society	-11.1108
▁studied	-11.1108
▁freedom	-11.1108
▁symbol	-11.1108
▁motion	-11.1108
▁memory	-11.1108
▁lobster	-11.1108
▁widow	-11.1108
▁loaf	-11.1108
▁thirteen	-11.1108
▁incident	-11.1108
▁pumpkin	-11.1108
▁Everybody	-11.1108
▁horrible	-11.1108
▁bolt	-11.1108
▁vol	-11.1108
▁Honey	-11.1108
▁Katie	-11.1108
▁dining	-11.1108
▁Hugo	-11.1109
▁executed	-11.1109
▁swear	-11.1109
▁Matthew	-11.1109
▁ordinary	-11.1109
▁Northern	-11.1109
▁journalist	-11.1109
▁NOW	-11.1109
▁Kevin	-11.1109
▁fur	-11.111
▁cash	-11.111
▁UK	-11.111
▁Mahdrusa	-11.111
▁loving	-11.111
▁fox	-11.1111
▁Bolt	-11.1111
▁1950	-11.1111
▁everywhere	-11.1111
▁sixty	-11.1111
▁dolls	-11.1112
▁changing	-11.1112
▁yum	-11.1112
▁matches	-11.1113
▁bass	-11.1113
▁Missus	-11.1114
▁racing	-11.1114
hoo	-11.1115
▁create	-11.1117
▁previously	-11.1117
▁lodge	-11.1118
▁Jay	-11.1119
2.3	-11.112
▁settled	-11.1121
lar	-11.1126
▁delightful	-11.1127
▁Indiana	-11.1129
▁dresses	-11.1129
▁illustrations	-11.1131
▁jacket	-11.1132
Eve	-11.1136
▁shouting	-11.1136
▁UP	-11.1137
right	-11.1137
▁roller	-11.1139
▁route	-11.1142
▁uttered	-11.1142
ES	-11.1144
▁spilled	-11.1147
▁barking	-11.1148
▁heap	-11.1157
2.4	-11.1159
▁tin	-11.1161
▁SHE	-11.1164
▁shortly	-11.1164
▁rolled	-11.1167
▁Out	-11.1168
▁beach	-11.1174
▁Ab	-11.1196
ball	-11.1204
▁stared	-11.1205
▁asylum	-11.1206
sounds	-11.1208
▁pe	-11.1215
▁replace	-11.1229
▁drops	-11.1235
op	-11.1244
noises	-11.1247
▁jumping	-11.1248
▁armed	-11.125
▁feelings	-11.1252
▁Ar	-11.1258
▁students	-11.1259
Who	-11.1263
▁blows	-11.127
▁ringing	-11.1271
OR	-11.1271
▁quarts	-11.1278
▁ski	-11.1287
ham	-11.1287
▁Mmm	-11.1292
▁bi	-11.1293
▁returns	-11.1295
▁onion	-11.1304
too	-11.1315
▁brush	-11.1331
made	-11.1333
▁1979	-11.1339
▁ribbons	-11.1343
ox	-11.1348
onald	-11.1357
boat	-11.1359
▁Donal	-11.1371
▁moments	-11.1371
▁8,	-11.1372
▁notion	-11.1377
▁client	-11.138
▁plains	-11.138
▁turkey	-11.1382
▁individual	-11.1384
mar	-11.1387
▁ticket	-11.1389
▁su	-11.1398
BE	-11.1404
min	-11.1405
▁hearts	-11.1411
▁25,	-11.1424
▁Ain	-11.1434
▁dangl	-11.1437
▁hop	-11.1446
▁2002	-11.1451
▁wave	-11.1452
▁mines	-11.1455
▁drugs	-11.1455
▁Aunt	-11.1456
lt	-11.1474
▁stands	-11.1476
▁st	-11.1481
uck	-11.1516
ets	-11.1517
▁Too	-11.152
▁feature	-11.1527
piece	-11.1553
Little	-11.1553
drops	-11.1553
Hello	-11.1553
▁provide	-11.1554
Did	-11.1557
▁frighten	-11.1568
▁modern	-11.1569
▁teams	-11.1571
▁1985	-11.1574
▁Clip	-11.1576
▁curious	-11.1577
▁dreadful	-11.1577
▁practical	-11.1577
▁Australia	-11.1577
▁According	-11.1578
▁Command	-11.1579
▁indicate	-11.1579
▁buffalo	-11.1581
▁split	-11.1582
▁drunk	-11.1583
▁invite	-11.1584
▁admit	-11.1584
simultaneous	-11.1584
▁Gordon	-11.1584
▁Jeremy	-11.1584
▁Massachusetts	-11.1584
▁Night	-11.1584
▁Professor	-11.1584
▁buried	-11.1584
▁communist	-11.1584
▁cottage	-11.1584
▁delicate	-11.1584
▁jail	-11.1584
▁multiple	-11.1584
▁seldom	-11.1584
til	-11.1584
▁collar	-11.1584
▁eighteen	-11.1584
▁Horne	-11.1584
▁hollow	-11.1585
▁bunch	-11.1585
▁Northeast	-11.1585
▁Mouse	-11.1585
▁Perro	-11.1585
▁ladder	-11.1585
▁2004	-11.1585
▁dotted	-11.1585
▁poetry	-11.1585
phone	-11.1585
▁management	-11.1585
▁basketball	-11.1585
▁bacon	-11.1585
▁marvelous	-11.1585
▁tobacco	-11.1585
▁Chicago	-11.1585
▁Exactly	-11.1585
▁breeze	-11.1585
▁climate	-11.1585
▁investigation	-11.1585
▁saving	-11.1586
▁standard	-11.1586
▁interview	-11.1586
▁rude	-11.1586
▁Committee	-11.1587
▁Pete	-11.1587
▁Elton	-11.1587
▁Karen	-11.1588
▁extremely	-11.1588
▁pepper	-11.1588
▁Welcome	-11.1588
▁choose	-11.1589
▁chosen	-11.1589
▁policeman	-11.1589
▁Master	-11.1589
▁Seven	-11.159
▁Fielding	-11.159
▁Edward	-11.159
je	-11.159
▁rocket	-11.1591
▁ugh	-11.1592
▁Hang	-11.1592
▁businessman	-11.1592
▁snowman	-11.1592
wa	-11.1592
▁tube	-11.1592
▁briefly	-11.1593
▁Show	-11.1593
▁operation	-11.1594
▁pry	-11.1595
7/	-11.1596
▁comedy	-11.1596
▁historical	-11.1598
▁cock	-11.1599
▁merry	-11.1603
▁crown	-11.1604
▁beer	-11.1605
▁limited	-11.1605
▁noble	-11.1614
blocks	-11.1615
▁dumped	-11.1617
▁represented	-11.1621
▁Young	-11.163
▁realized	-11.1631
▁8:	-11.1632
▁overlap	-11.1635
▁oo	-11.1637
▁tame	-11.1638
▁dum	-11.1647
▁aware	-11.1651
lew	-11.1653
▁Sweets	-11.1666
light	-11.1668
▁launch	-11.1671
▁Villa	-11.1687
▁washing	-11.1691
▁warn	-11.1705
▁unit	-11.1717
▁Home	-11.1724
will	-11.1725
▁blowing	-11.1732
▁2020.	-11.1732
hu	-11.174
▁Cor	-11.1742
▁rang	-11.1767
▁buying	-11.1773
▁Eric	-11.1781
▁10,	-11.1784
ain	-11.1794
▁aloud	-11.1797
▁gaze	-11.1804
LIS	-11.1822
▁Tip	-11.1823
▁Car	-11.1829
▁tribes	-11.1831
▁fo	-11.1835
▁hills	-11.184
▁aye	-11.1846
▁III	-11.185
▁chap	-11.1857
▁Spring	-11.188
▁error	-11.1882
▁Picture	-11.1884
▁ra	-11.1885
▁glove	-11.189
▁kin	-11.1896
▁article	-11.1901
▁marker	-11.1902
▁cakes	-11.191
gi	-11.1911
21	-11.1917
ub	-11.1922
▁forces	-11.193
had	-11.1933
end	-11.1944
per	-11.1958
dum	-11.1963
▁rules	-11.1968
▁tracks	-11.1969
US	-11.1972
▁services	-11.1975
▁2017.	-11.1975
▁2008	-11.1976
▁sheet	-11.1986
ville	-11.1996
▁grab	-11.2006
der	-11.2032
▁breathe	-11.2032
▁crash	-11.2033
▁Che	-11.2041
▁actions	-11.2049
field	-11.205
taps	-11.2051
▁pray	-11.2052
&	-11.2052
lift	-11.2053
box	-11.2054
▁stock	-11.2067
▁chickens	-11.2068
▁defend	-11.2069
▁1996	-11.2073
▁dive	-11.2073
▁swift	-11.2075
▁scare	-11.2075
▁lick	-11.2075
▁brand	-11.2077
▁eager	-11.2077
▁successful	-11.2077
3.4	-11.2077
onna	-11.2081
▁drag	-11.2082
▁novel	-11.2083
▁percent	-11.2084
­	-11.2084
▁Darling	-11.2084
▁Edgewater	-11.2084
▁HOME	-11.2084
▁Hospital	-11.2084
▁Ocean	-11.2084
▁Parliament	-11.2084
▁Reservoir	-11.2084
▁activities	-11.2084
▁bulldozer	-11.2084
▁curtain	-11.2084
▁steak	-11.2084
▁victory	-11.2084
▁muttered	-11.2084
▁Walrus	-11.2084
▁parcel	-11.2084
▁pudding	-11.2084
▁behavior	-11.2084
▁flesh	-11.2084
▁makin	-11.2084
▁1997	-11.2084
▁polish	-11.2085
▁Check	-11.2085
▁temperature	-11.2085
▁latter	-11.2085
▁pantry	-11.2085
▁chih	-11.2085
▁Wallis	-11.2085
▁raising	-11.2085
▁RIGHT	-11.2085
▁zone	-11.2085
▁Middle	-11.2085
▁Kyle	-11.2085
▁balcony	-11.2085
▁Irish	-11.2085
▁Timor	-11.2086
▁label	-11.2086
▁thirsty	-11.2086
▁slice	-11.2087
▁Earth	-11.2087
▁phrase	-11.2087
▁religious	-11.2087
▁serving	-11.2087
▁stopping	-11.2087
▁pressure	-11.2087
▁alongside	-11.2087
▁papa	-11.2088
▁HIS	-11.2088
▁cows	-11.2088
▁Nebraska	-11.2089
▁Happy	-11.2089
▁Basin	-11.2089
▁OFF	-11.2089
▁fairies	-11.2089
▁Open	-11.2089
▁Without	-11.2089
▁melt	-11.2091
eyres	-11.2093
▁nothin	-11.2093
▁according	-11.2093
▁bitch	-11.2093
▁Hurry	-11.2094
▁Ukrainian	-11.2094
▁criticize	-11.2096
▁bent	-11.2098
wait	-11.21
37	-11.2101
▁estimate	-11.2101
▁Free	-11.2104
▁approached	-11.2105
▁boom	-11.2106
▁arranged	-11.2107
▁sadly	-11.2109
▁List	-11.211
▁Looks	-11.2115
▁thankyou	-11.2116
▁warning	-11.212
▁designed	-11.2126
▁players	-11.2128
▁secrets	-11.2129
▁answers	-11.2136
▁signs	-11.2136
mon	-11.2141
▁Moon	-11.2142
▁rider	-11.2146
▁wi	-11.2157
ties	-11.2161
aw	-11.2164
stein	-11.2165
$=2	-11.2168
▁laws	-11.2179
▁cooked	-11.2188
▁divide	-11.2188
ments	-11.2188
▁shown	-11.2189
▁Cat	-11.219
▁[8	-11.2193
▁highly	-11.2194
▁Ask	-11.2196
▁Olympics	-11.2201
15	-11.2206
▁beans	-11.2208
▁shooting	-11.221
▁episodes	-11.2211
▁seiz	-11.2214
▁ry	-11.2228
AL	-11.224
▁winding	-11.2246
▁referent	-11.2257
come	-11.2262
▁puff	-11.2273
▁beg	-11.2274
▁ducks	-11.2275
▁18,	-11.2284
shaped	-11.2285
washers	-11.2312
▁bat	-11.2316
▁product	-11.232
▁equal	-11.2333
▁doughnuts	-11.2334
work	-11.2344
ank	-11.2349
▁spelling	-11.235
▁sports	-11.2354
▁Carl	-11.2355
ap	-11.2371
ile	-11.2373
CON	-11.238
noise	-11.2389
▁environmental	-11.2396
ni	-11.24
▁quart	-11.24
even	-11.2405
▁volume	-11.2407
▁attach	-11.2411
▁habit	-11.2413
▁task	-11.2415
▁customer	-11.2418
▁marble	-11.2419
▁cell	-11.242
head	-11.2425
▁whispers	-11.2425
▁comic	-11.2426
▁[9	-11.2426
▁cups	-11.243
▁HOW	-11.2442
▁grade	-11.2443
▁Fe	-11.2444
tor	-11.2451
▁civil	-11.2459
▁types	-11.2465
ious	-11.2479
▁27,	-11.2491
▁twin	-11.2499
▁alarm	-11.25
▁Ze	-11.251
▁aid	-11.2515
ria	-11.2526
▁fan	-11.2526
▁Pu	-11.253
▁2009	-11.2535
▁tow	-11.2536
aa	-11.2541
tion	-11.2542
over	-11.2547
▁appeal	-11.256
▁gather	-11.2562
▁Han	-11.2573
water	-11.2576
ex	-11.2577
whining	-11.2579
video	-11.2579
touches	-11.258
▁direct	-11.2582
▁souther	-11.2583
▁defeat	-11.2586
OUR	-11.2588
five	-11.2588
▁fir	-11.2589
▁sew	-11.259
▁sta	-11.2594
▁squeeze	-11.2597
▁addition	-11.2601
▁discover	-11.2603
▁souls	-11.2605
▁chick	-11.2609
gives	-11.261
▁ABOUT	-11.2611
▁Football	-11.2611
▁Harvard	-11.2611
▁Second	-11.2611
▁beneath	-11.2611
▁celery	-11.2611
▁consignment	-11.2611
▁injuries	-11.2611
▁microphone	-11.2611
▁necessarily	-11.2611
▁orchard	-11.2611
▁parallel	-11.2611
▁physical	-11.2611
▁puppies	-11.2611
▁sarcoma	-11.2611
▁skull	-11.2611
▁wharf	-11.2611
▁Oblast	-11.2611
▁giraffe	-11.2611
▁studio	-11.2611
▁Internet	-11.2611
▁WAS	-11.2611
▁purse	-11.2611
▁furniture	-11.2611
▁yyy	-11.2611
▁romantic	-11.2611
▁Pepper	-11.2611
▁Should	-11.2611
▁1982	-11.2611
▁grey	-11.2611
▁dinghy	-11.2611
▁Anhui	-11.2611
▁vague	-11.2611
▁oven	-11.2611
▁lord	-11.2611
▁Kapoor	-11.2611
ueva	-11.2611
▁lazy	-11.2611
▁1980	-11.2611
▁flute	-11.2611
▁unhappy	-11.2611
▁Golden	-11.2611
▁Nancy	-11.2611
▁Fitz	-11.2611
▁obliged	-11.2611
▁Guitar	-11.2612
▁LIKE	-11.2612
▁Portugal	-11.2612
▁Zebedee	-11.2612
▁literature	-11.2612
▁bore	-11.2612
▁Goodbye	-11.2612
▁Jake	-11.2613
▁maple	-11.2613
▁Willie	-11.2613
▁rustling	-11.2613
▁Child	-11.2613
▁Elsa	-11.2614
ash	-11.2614
▁Moreno	-11.2614
▁sang	-11.2614
▁knot	-11.2614
▁UDP	-11.2615
▁giant	-11.2615
▁Thatcher	-11.2615
▁Christopher	-11.2616
▁gasped	-11.2616
uch	-11.2616
▁pot	-11.2617
▁shadow	-11.2617
▁constantly	-11.2617
▁En	-11.2618
▁Force	-11.2618
▁math	-11.2619
▁GET	-11.2619
▁pregnant	-11.262
▁throughout	-11.2621
▁smoking	-11.2622
▁incredible	-11.2624
▁murmured	-11.2624
▁pump	-11.2624
▁nodded	-11.2625
▁fireman	-11.2625
▁comb	-11.2626
▁awake	-11.2628
▁whale	-11.2629
▁signal	-11.2632
▁youngest	-11.2635
▁upper	-11.2636
▁folded	-11.2642
▁paused	-11.2644
▁rooms	-11.2644
▁Brown	-11.2652
▁pure	-11.2652
▁agent	-11.2653
▁Must	-11.2654
▁suggested	-11.2656
▁healthy	-11.2658
ame	-11.2659
▁lately	-11.2659
▁clothing	-11.2662
▁Marie	-11.2665
▁touches	-11.2665
▁murdered	-11.2667
▁Jer	-11.2674
▁wise	-11.2683
▁dared	-11.2683
▁recall	-11.2683
▁2014.	-11.2693
▁vocalization	-11.2696
▁unusual	-11.2709
▁heels	-11.2718
ó	-11.272
ru	-11.272
tty	-11.272
▁cleaning	-11.2736
▁sin	-11.274
▁drinks	-11.2748
▁rare	-11.2754
▁companions	-11.2765
▁Pop	-11.2775
table	-11.2793
ver	-11.2797
▁Air	-11.2798
his	-11.2799
▁tales	-11.2799
▁15,	-11.2808
ina	-11.281
▁bands	-11.2818
▁***	-11.2821
▁temper	-11.2844
tree	-11.2847
▁GOT	-11.2848
▁regions	-11.285
ik	-11.2864
▁2001	-11.2873
ever	-11.2891
▁snap	-11.2898
hal	-11.2901
ferring	-11.291
▁influence	-11.2912
Me	-11.2917
▁benefits	-11.2919
▁rabbits	-11.2929
gh	-11.2937
▁limit	-11.294
▁Ye	-11.2943
▁clatter	-11.2948
▁cousins	-11.295
▁pointing	-11.2956
▁function	-11.296
▁2021.	-11.2962
▁organization	-11.2962
▁restaurant	-11.2968
▁neighbor	-11.2971
▁tale	-11.2976
▁limb	-11.2976
got	-11.298
▁poet	-11.2983
▁cop	-11.2984
▁island	-11.2989
trees	-11.2992
▁60	-11.2994
▁pin	-11.2995
▁manners	-11.3005
han	-11.3014
tu	-11.3019
▁chill	-11.3024
▁ta	-11.3028
use	-11.3031
▁needle	-11.3035
mato	-11.3039
▁Law	-11.3042
▁Yo	-11.3043
▁Has	-11.3043
.’”	-11.3047
ST	-11.3049
▁directions	-11.305
▁Mel	-11.3051
▁apples	-11.3057
colored	-11.3058
▁runs	-11.3077
▁print	-11.3086
▁spark	-11.3099
flat	-11.3111
▁yell	-11.3115
▁fail	-11.3116
▁Sea	-11.3125
construction	-11.3133
blows	-11.3134
▁collect	-11.3135
office	-11.3135
Bro	-11.3138
▁attract	-11.3144
▁desire	-11.3147
▁celebrate	-11.3147
▁contain	-11.3148
oon	-11.3149
▁Son	-11.315
▁research	-11.3151
▁sorrow	-11.3152
▁suspect	-11.3153
▁desperate	-11.3158
▁success	-11.316
▁CO	-11.316
▁sauce	-11.3161
▁BOY	-11.3162
▁environment	-11.3163
ery	-11.3164
▁graduat	-11.3164
¶	-11.3166
▁1940	-11.3166
▁Abigail	-11.3166
▁Berlin	-11.3166
▁Lucious	-11.3166
▁Portuguese	-11.3166
▁Taylor	-11.3166
▁dungaree	-11.3166
▁religion	-11.3166
▁scheme	-11.3166
▁zero	-11.3166
▁brick	-11.3166
▁ocean	-11.3166
▁piano	-11.3166
▁Region	-11.3166
▁agenda	-11.3166
▁steel	-11.3166
▁humble	-11.3166
▁composed	-11.3166
▁Edith	-11.3166
▁snack	-11.3166
▁awesome	-11.3166
▁Polish	-11.3166
▁Security	-11.3166
▁handkerchief	-11.3167
▁buddy	-11.3167
▁1925	-11.3167
▁Dolly	-11.3167
▁railway	-11.3167
▁Administration	-11.3167
▁marriage	-11.3167
▁industry	-11.3167
▁leetle	-11.3167
▁Institute	-11.3167
▁mount	-11.3167
▁Hope	-11.3167
▁Mummy	-11.3167
▁sissy	-11.3167
▁connection	-11.3167
▁Lyon	-11.3167
▁1974	-11.3167
▁drank	-11.3168
▁HERE	-11.3168
▁definitely	-11.3168
▁carrier	-11.3168
▁torn	-11.3168
▁anxiety	-11.3168
▁shine	-11.3169
▁fifth	-11.3169
▁Huh	-11.3169
▁Leave	-11.3169
▁Jackson	-11.3169
▁Steven	-11.317
▁packet	-11.317
▁passion	-11.317
▁protection	-11.317
▁electric	-11.317
▁Ruth	-11.3171
▁Melbourne	-11.3171
▁sniff	-11.3171
▁ceased	-11.3171
▁Alice	-11.3171
echo	-11.3172
▁saucer	-11.3173
▁tick	-11.3174
▁golden	-11.3174
▁reality	-11.3175
▁Iris	-11.3176
▁method	-11.3177
▁uhuh	-11.3178
▁wherever	-11.3178
▁ouch	-11.3178
▁rear	-11.318
▁flies	-11.318
▁2014)	-11.3181
▁Gi	-11.3182
▁robe	-11.3183
▁Again	-11.3185
▁apartment	-11.3187
IVE	-11.3188
30	-11.3189
▁printing	-11.3191
▁seriously	-11.3191
▁1989	-11.3192
▁escaped	-11.3201
▁accepted	-11.3202
▁belt	-11.3203
▁clicking	-11.3204
▁gained	-11.3212
▁states	-11.3213
▁Sounds	-11.324
RED	-11.3244
▁painting	-11.3247
▁expecting	-11.3255
rap	-11.3274
▁beats	-11.3275
▁COL	-11.328
▁matters	-11.3283
▁tool	-11.3288
▁Tri	-11.329
ew	-11.3292
▁Hear	-11.3306
▁options	-11.3308
▁drawer	-11.3325
▁shouts	-11.334
▁Hills	-11.3342
SE	-11.3342
▁surely	-11.3351
▁Per	-11.3351
ju	-11.3353
▁forest	-11.3355
▁mustn	-11.3357
▁pins	-11.3365
▁Star	-11.3366
▁seasons	-11.3375
▁Helen	-11.3382
only	-11.3388
ening	-11.339
▁bearing	-11.3392
▁reasons	-11.3404
ack	-11.3428
stone	-11.3434
▁op	-11.3437
▁prefer	-11.3441
▁user	-11.346
cy	-11.346
▁peanuts	-11.3468
90	-11.3469
"?	-11.3469
▁balloons	-11.349
now	-11.3499
look	-11.3509
▁Men	-11.3522
lin	-11.3536
▁principle	-11.355
▁covers	-11.3555
▁Daniel	-11.3556
gged	-11.3559
▁student	-11.3561
▁stamp	-11.3561
cat	-11.3563
ries	-11.3575
▁soldiers	-11.3585
▁coins	-11.3586
▁drum	-11.3591
▁Ki	-11.3622
ntil	-11.3624
▁Alex	-11.3643
▁cases	-11.3645
▁plac	-11.3648
▁9:	-11.3663
▁whip	-11.3672
▁owe	-11.3676
▁Pi	-11.3682
▁li	-11.37
▁crush	-11.3701
▁approach	-11.3704
▁target	-11.3705
50	-11.371
iest	-11.3715
+	-11.3719
wept	-11.372
ber	-11.3723
find	-11.3723
▁faith	-11.3724
why	-11.3725
building	-11.3728
whispers	-11.3729
▁avoid	-11.3729
▁deserve	-11.3734
ological	-11.3735
▁hire	-11.3735
▁pigs	-11.3735
For	-11.3737
▁fields	-11.3738
mother	-11.3738
▁bold	-11.3743
▁17:	-11.3745
▁intense	-11.3746
▁enormous	-11.3746
our	-11.3747
▁Office	-11.3748
▁impatient	-11.3749
▁Julia	-11.375
▁chart	-11.3751
▁independent	-11.3754
▁minor	-11.3754
▁champion	-11.3754
▁1962	-11.3754
▁1966	-11.3754
▁Catherine	-11.3754
▁GOOD	-11.3754
▁Haversham	-11.3754
▁Lawrence	-11.3754
▁Nintendo	-11.3754
▁Ubisoft	-11.3754
▁YEAH	-11.3754
▁arrival	-11.3754
▁cherries	-11.3754
▁concentrate	-11.3754
▁despair	-11.3754
▁relax	-11.3754
▁Andrade	-11.3754
▁Gowen	-11.3754
▁Montreal	-11.3754
▁Tomás	-11.3754
▁Wilks	-11.3754
▁Association	-11.3755
▁silk	-11.3755
▁Urler	-11.3755
▁feeble	-11.3755
▁furnace	-11.3755
▁hastily	-11.3755
▁duties	-11.3755
▁housing	-11.3755
▁Pennsylvania	-11.3755
▁Diane	-11.3755
▁cluster	-11.3755
▁copper	-11.3755
▁pennies	-11.3755
▁genus	-11.3755
▁priest	-11.3755
▁HIM	-11.3755
▁Apple	-11.3755
▁liar	-11.3755
▁Native	-11.3755
▁hidden	-11.3755
▁Congratulations	-11.3756
▁Oregon	-11.3756
▁Sheriff	-11.3756
▁1975	-11.3756
▁Castelsarrasin	-11.3756
▁neuro	-11.3756
▁Cook	-11.3756
▁Zoo	-11.3756
▁theater	-11.3756
▁bushes	-11.3756
▁losing	-11.3756
▁HER	-11.3756
▁Chamber	-11.3756
▁cmon	-11.3757
▁jam	-11.3757
▁settlement	-11.3757
▁Mori	-11.3757
▁Greek	-11.3757
▁pyramid	-11.3757
▁jerk	-11.3758
▁Chatter	-11.3758
▁elliot	-11.3759
▁vanished	-11.376
▁chemical	-11.376
▁complicated	-11.376
▁Josh	-11.376
▁steady	-11.3761
▁Post	-11.3761
▁Officer	-11.3762
▁glow	-11.3762
▁bitterly	-11.3762
▁Baby	-11.3762
▁folder	-11.3762
▁doorway	-11.3763
▁Pope	-11.3763
▁insist	-11.3764
▁shelf	-11.3764
▁Stacy	-11.3765
▁gravely	-11.3767
▁Ok	-11.3767
▁Cold	-11.3769
port	-11.377
▁normally	-11.3771
nything	-11.3773
▁procession	-11.3775
▁soap	-11.3777
▁sexy	-11.3778
▁average	-11.378
▁beep	-11.378
▁Arm	-11.3781
▁cutting	-11.3787
▁succeeded	-11.3787
▁bee	-11.3788
▁Carry	-11.3789
▁comp	-11.3791
▁jet	-11.3793
den	-11.3796
▁None	-11.3797
▁Aren	-11.38
▁locked	-11.38
▁stretched	-11.3802
wi	-11.3803
ane	-11.3804
▁Wild	-11.3807
▁pigeons	-11.3808
▁removed	-11.381
▁noted	-11.3812
▁tricks	-11.382
▁curl	-11.3821
▁charges	-11.3822
▁cal	-11.3823
▁Ga	-11.3823
▁whispering	-11.3828
▁Ri	-11.3829
▁rank	-11.3832
aid	-11.3833
hands	-11.384
▁guests	-11.3844
ied	-11.3847
sits	-11.3852
▁dreamed	-11.3861
▁boo	-11.3868
▁Alexand	-11.3875
▁Boss	-11.3877
were	-11.3878
▁1967	-11.3879
▁harder	-11.388
▁mos	-11.3886
▁bein	-11.3886
▁swan	-11.3886
▁2018.	-11.3889
fe	-11.389
ita	-11.3893
▁lessons	-11.3905
▁Holly	-11.3913
▁AM	-11.3925
shed	-11.3951
▁stamps	-11.3952
▁prop	-11.3954
▁stones	-11.3956
▁cart	-11.3965
▁twins	-11.3976
▁dealing	-11.3979
▁products	-11.398
gna	-11.3986
▁burnt	-11.3994
▁sales	-11.4016
▁Upp	-11.4023
▁needn	-11.403
▁em	-11.4033
▁gon	-11.4034
BW	-11.4036
di	-11.4037
▁artists	-11.4038
▁squirrels	-11.404
▁Van	-11.4041
eat	-11.4048
ingly	-11.4048
▁sn	-11.4048
▁presents	-11.4054
ich	-11.4069
▁effects	-11.4076
designat	-11.4076
van	-11.4094
▁2:	-11.41
▁troubles	-11.4103
self	-11.4107
▁tour	-11.4109
▁Bay	-11.4116
▁22:	-11.4118
ida	-11.4118
did	-11.4119
fashioned	-11.4123
▁sno	-11.4124
▁patients	-11.4125
place	-11.4131
▁scream	-11.4134
▁languages	-11.4148
▁cough	-11.4151
▁21:	-11.4157
▁comment	-11.4166
▁Simpson	-11.4173
▁photo	-11.4175
▁Sa	-11.4179
▁blossom	-11.418
▁contract	-11.4181
▁collection	-11.4182
▁Ve	-11.4183
▁dollar	-11.4191
▁affairs	-11.4199
▁15:	-11.42
get	-11.4202
▁36	-11.4206
sous	-11.4207
▁IV	-11.4225
La	-11.4227
ctor	-11.4243
▁26,	-11.4249
tell	-11.4256
▁powers	-11.426
▁ideas	-11.4267
▁seconds	-11.4287
▁trap	-11.4288
At	-11.4292
ff	-11.4294
arms	-11.4316
▁mum	-11.4317
▁Hill	-11.432
▁Had	-11.4322
▁snakes	-11.4325
▁Ko	-11.4328
▁borrow	-11.4329
fish	-11.4336
fire	-11.4338
tail	-11.4339
word	-11.4343
▁EX	-11.4346
Q	-11.4346
buzzing	-11.4346
Poor	-11.4347
committee	-11.4348
waves	-11.4348
picture	-11.4348
▁Ni	-11.4348
(	-11.4348
short	-11.4348
EX	-11.4348
▁caus	-11.4348
three	-11.4349
yard	-11.4349
▁Hawk	-11.4352
Some	-11.4353
▁zoo	-11.4355
▁settle	-11.4355
▁shock	-11.4355
▁1941	-11.4355
▁6:	-11.4355
▁exist	-11.4356
▁compar	-11.4356
▁keys	-11.4359
have	-11.436
▁practise	-11.4369
▁200	-11.437
▁rescue	-11.437
▁peculiar	-11.437
▁stiff	-11.4371
▁severe	-11.4372
▁constant	-11.4372
SI	-11.4372
▁receive	-11.4373
▁bits	-11.4373
▁cloud	-11.4373
▁Africa	-11.4373
▁tend	-11.4373
▁34	-11.4374
▁produce	-11.4374
▁Close	-11.4376
▁cute	-11.4376
▁WHO	-11.4377
▁confirm	-11.4379
▁false	-11.4379
▁Alfred	-11.4379
▁1998	-11.4379
▁Absolutely	-11.4379
▁Alaska	-11.4379
▁Apparently	-11.4379
▁Bambi	-11.4379
▁Between	-11.4379
▁Brutus	-11.4379
▁DREAM	-11.4379
▁Lieutenant	-11.4379
▁Phoenix	-11.4379
▁Tuesday	-11.4379
▁awkward	-11.4379
▁combination	-11.4379
▁competition	-11.4379
▁compliment	-11.4379
▁entrance	-11.4379
▁escort	-11.4379
▁feast	-11.4379
▁heavily	-11.4379
▁increasing	-11.4379
▁trousers	-11.4379
▁Goddard	-11.4379
▁distress	-11.4379
▁Jersey	-11.4379
▁dainty	-11.4379
▁quality	-11.4379
▁Miami	-11.4379
▁Food	-11.438
▁idiot	-11.438
▁COME	-11.438
▁opposition	-11.438
▁Evans	-11.438
▁tadah	-11.438
▁Municipality	-11.438
▁Division	-11.438
▁1952	-11.438
▁sailboat	-11.438
▁bitter	-11.438
▁apply	-11.438
▁pursuit	-11.438
▁COX	-11.438
▁hopping	-11.438
▁Lock	-11.438
▁impeachment	-11.438
▁pardon	-11.438
▁Manning	-11.438
▁forehead	-11.438
▁FBI	-11.438
▁Thanksgiving	-11.438
▁possession	-11.438
▁admitted	-11.438
▁byebye	-11.438
▁potty	-11.438
▁Also	-11.438
▁emergency	-11.438
▁towel	-11.438
▁drain	-11.438
▁Sanders	-11.438
▁creation	-11.4381
▁satisfaction	-11.4381
▁tummy	-11.4381
▁Except	-11.4381
▁fuel	-11.4381
▁available	-11.4381
▁responsible	-11.4381
▁Union	-11.4381
▁Buddy	-11.4381
▁southeast	-11.4381
▁lonely	-11.4381
▁insane	-11.4381
Jorat	-11.4382
▁Therefore	-11.4382
▁Later	-11.4382
▁haha	-11.4382
▁friendship	-11.4383
▁agreement	-11.4383
▁Instead	-11.4383
▁familiar	-11.4383
▁objection	-11.4383
▁voluntary	-11.4383
▁Want	-11.4383
▁raid	-11.4383
▁Rider	-11.4384
▁confused	-11.4384
▁lend	-11.4384
▁wo	-11.4384
▁imitate	-11.4385
▁george	-11.4385
▁occurred	-11.4385
ities	-11.4386
pushe	-11.4386
▁commenced	-11.4386
▁Women	-11.4386
nnual	-11.4387
▁Finally	-11.4387
▁Rocky	-11.4387
▁pau	-11.4388
▁Nazi	-11.4388
▁directly	-11.4389
▁Australian	-11.4389
▁Rio	-11.4389
▁begun	-11.439
▁multi	-11.439
▁prime	-11.4391
▁peep	-11.4391
▁hev	-11.4392
OTHER	-11.4392
▁Five	-11.4393
▁Such	-11.4393
▁plus	-11.4394
▁whoever	-11.4394
▁described	-11.4394
▁patiently	-11.4395
▁Dana	-11.4395
▁bay	-11.4397
▁mood	-11.4397
▁boiling	-11.4398
▁useless	-11.4398
▁anxiously	-11.4398
▁1964	-11.4399
▁affix	-11.4399
▁MAKE	-11.44
▁connected	-11.44
▁spin	-11.4401
By	-11.4401
▁castle	-11.4402
▁seek	-11.4403
▁sharply	-11.4404
▁solve	-11.4407
▁useta	-11.4408
▁Around	-11.441
▁upright	-11.4412
▁deeply	-11.4412
▁ward	-11.4414
▁AH	-11.4415
▁proved	-11.4415
objects	-11.4418
▁Feb	-11.4419
ying	-11.4421
▁dim	-11.4422
▁Grant	-11.4435
▁ink	-11.4435
gging	-11.4437
▁$10	-11.4438
▁soda	-11.4438
appen	-11.4438
▁dating	-11.4441
▁tearing	-11.4442
▁cone	-11.4443
▁speakers	-11.4447
▁wiggle	-11.4448
ass	-11.4449
eign	-11.4451
GER	-11.4452
▁handed	-11.4453
▁Bear	-11.4453
▁raining	-11.4456
▁Yet	-11.4463
▁danced	-11.4464
▁talkin	-11.4467
race	-11.4469
FRE	-11.447
ron	-11.447
lan	-11.4474
000	-11.4478
▁Rose	-11.4482
ther	-11.4484
oz	-11.4489
▁sole	-11.4491
▁Francis	-11.4492
▁rap	-11.4493
▁scientists	-11.4501
▁monkeys	-11.4502
▁straighten	-11.4514
iz	-11.4514
▁staring	-11.4515
▁killer	-11.4521
▁towns	-11.4528
taking	-11.4529
oops	-11.4532
chair	-11.4536
▁troubled	-11.4544
▁formal	-11.4547
▁wrappe	-11.455
pulling	-11.455
▁Girls	-11.4553
▁Mu	-11.456
▁Ja	-11.4569
▁14:	-11.4581
aseball	-11.4597
▁2012.	-11.4598
OW	-11.4601
▁neighbors	-11.4605
▁races	-11.4606
▁Ex	-11.4606
▁nurs	-11.4613
▁Sr	-11.4626
nick	-11.463
oo	-11.463
▁sayin	-11.4631
▁articles	-11.4631
▁Wel	-11.4633
▁pencils	-11.4634
▁cord	-11.4637
az	-11.4639
hone	-11.4645
skin	-11.4646
▁hits	-11.4653
▁Brun	-11.4654
▁Ford	-11.466
rges	-11.4662
▁lab	-11.4669
▁waves	-11.4677
▁socks	-11.4678
▁tent	-11.4679
▁remains	-11.4685
occupied	-11.4698
▁11:	-11.4713
▁coloring	-11.4713
hums	-11.4714
▁bags	-11.4723
enne	-11.4728
▁ou	-11.4733
THE	-11.4737
▁pat	-11.4741
▁emotion	-11.4742
Or	-11.4751
uff	-11.476
sses	-11.4762
▁noon	-11.4762
ros	-11.4763
▁alike	-11.4765
▁Par	-11.4771
▁dang	-11.4783
▁rd	-11.4785
▁net	-11.4797
▁shout	-11.4803
▁clam	-11.4823
boy	-11.4823
▁youth	-11.4828
▁gu	-11.4831
▁GON	-11.4834
▁SEE	-11.4838
▁custom	-11.4839
▁estate	-11.4845
▁companion	-11.4852
▁doo	-11.4853
▁Bur	-11.4855
▁holiday	-11.4857
▁visitor	-11.4859
▁favour	-11.4863
LES	-11.4867
▁woo	-11.4871
▁ly	-11.4873
ev	-11.4901
▁1981	-11.4912
▁sometime	-11.4925
▁organ	-11.4928
▁ofthe	-11.493
any	-11.4934
▁movements	-11.4937
▁Nico	-11.4938
2022)	-11.496
sound	-11.4967
▁crap	-11.4968
▁Wonder	-11.4973
▁chew	-11.4985
▁Play	-11.4995
▁disappear	-11.4996
▁Gar	-11.5002
DOOR	-11.501
trochee	-11.5013
bones	-11.5014
shake	-11.5014
After	-11.5015
Tell	-11.5015
would	-11.5015
▁prepar	-11.5015
March	-11.5015
could	-11.5015
book	-11.5016
Okay	-11.5017
▁shed	-11.5019
▁broadcast	-11.502
making	-11.5025
▁hundreds	-11.5027
▁whee	-11.5029
▁1933	-11.5032
▁1939	-11.5032
count	-11.5033
▁chin	-11.5036
▁arrange	-11.5036
▁jealous	-11.5037
riding	-11.5037
▁generous	-11.5038
▁costs	-11.5038
▁aim	-11.5038
▁painful	-11.5039
▁Royal	-11.5039
▁Phillip	-11.504
▁NEW	-11.504
▁pack	-11.5044
▁Asia	-11.5045
▁sittin	-11.5045
▁mornin	-11.5045
▁Huck	-11.5046
▁scrub	-11.5046
kokowk	-11.5046
▁1942	-11.5046
▁Amanda	-11.5046
▁Audrey	-11.5046
▁Detroit	-11.5046
▁Ginny	-11.5046
▁Greensburg	-11.5046
▁Katherine	-11.5046
▁Odawa	-11.5046
▁Poppy	-11.5046
▁autumn	-11.5046
▁contrast	-11.5046
▁cultural	-11.5046
▁disposable	-11.5046
▁ethnic	-11.5046
▁fancied	-11.5046
▁gesture	-11.5046
▁gorgeous	-11.5046
▁illegal	-11.5046
▁obtain	-11.5046
▁perfume	-11.5046
▁regret	-11.5046
▁sorcerers	-11.5046
▁throne	-11.5046
▁valley	-11.5046
▁1936	-11.5046
▁VALENTINE	-11.5046
▁attorney	-11.5046
▁burden	-11.5046
▁clasp	-11.5046
▁innocent	-11.5046
▁teapot	-11.5046
▁worn	-11.5046
▁Feast	-11.5046
▁Utah	-11.5046
▁underneath	-11.5046
▁warrant	-11.5046
▁Bishop	-11.5046
▁Biography	-11.5046
▁brilliant	-11.5046
▁gallop	-11.5046
▁mild	-11.5046
▁nightmare	-11.5046
▁location	-11.5046
▁glue	-11.5046
▁devil	-11.5046
▁happiness	-11.5046
▁numero	-11.5046
▁advise	-11.5046
▁glory	-11.5046
▁cunning	-11.5046
▁Evelyn	-11.5046
▁Lewis	-11.5046
▁straw	-11.5046
ching	-11.5046
Vully	-11.5046
▁Clear	-11.5046
▁Four	-11.5046
▁constitution	-11.5046
▁Blood	-11.5046
▁Plains	-11.5047
▁Orleans	-11.5047
▁Francisco	-11.5047
gu	-11.5047
▁pond	-11.5047
▁treason	-11.5047
▁yummy	-11.5047
▁determined	-11.5047
▁medical	-11.5047
▁groan	-11.5047
▁calf	-11.5047
▁Juan	-11.5047
▁fortnight	-11.5047
▁salesman	-11.5047
▁portion	-11.5047
▁rooster	-11.5047
▁kit	-11.5048
▁dragged	-11.5048
▁scramble	-11.5048
▁mike	-11.5048
▁refrigerator	-11.5048
▁toilet	-11.5048
▁coward	-11.5048
▁keen	-11.5048
▁punch	-11.5048
▁earnestly	-11.5049
▁reign	-11.5049
▁eeat	-11.5049
▁agony	-11.5049
▁cocoa	-11.5049
▁Michigan	-11.505
▁billion	-11.505
▁Fig	-11.505
▁distinction	-11.505
▁Sky	-11.5051
▁Story	-11.5052
▁ache	-11.5052
▁sweetie	-11.5052
ensity	-11.5052
▁plunged	-11.5052
▁axe	-11.5052
▁Province	-11.5053
▁established	-11.5054
▁Might	-11.5054
▁proof	-11.5056
▁stolen	-11.5056
▁treatment	-11.5056
▁35	-11.5057
▁dreadfully	-11.5057
▁moo	-11.5058
▁scale	-11.5059
far	-11.5059
▁attitude	-11.506
▁fussy	-11.506
▁ONE	-11.5062
▁helpless	-11.5062
▁starred	-11.5062
MT	-11.5064
inancial	-11.5066
berg	-11.5066
▁hip	-11.5068
▁Carly	-11.5068
▁legend	-11.5071
▁provided	-11.5072
▁indicated	-11.5072
pi	-11.5073
▁gum	-11.5074
pr	-11.5076
▁difficulty	-11.5079
▁del	-11.5081
▁port	-11.5082
pelle	-11.5084
▁faster	-11.5088
▁Page	-11.509
▁Short	-11.5093
▁gar	-11.5094
rri	-11.5096
▁37	-11.5096
▁walks	-11.5101
ons	-11.5106
▁du	-11.5107
▁cries	-11.5111
▁Mal	-11.5115
▁Cal	-11.5116
▁theory	-11.5118
13	-11.5125
▁pea	-11.5126
name	-11.5129
▁charged	-11.5129
nyway	-11.5131
ze	-11.5132
▁complaints	-11.5135
▁Pass	-11.5137
▁Soon	-11.5143
▁Vol	-11.5144
▁Swi	-11.5149
▁ages	-11.515
▁rat	-11.5152
▁masks	-11.5159
▁brakes	-11.5163
ancy	-11.5169
▁dreaming	-11.5172
▁presented	-11.5175
▁beating	-11.5177
Ha	-11.518
▁checker	-11.5185
▁automobile	-11.5186
▁Commons	-11.519
▁passengers	-11.519
ip	-11.5193
tte	-11.5197
▁covering	-11.5198
▁acted	-11.52
▁fractures	-11.5204
AN	-11.5207
▁lt	-11.521
▁remark	-11.5213
bra	-11.5223
▁Paula	-11.5233
▁sharpen	-11.5235
NE	-11.524
▁EXPs	-11.5247
▁semi	-11.5254
▁19,	-11.5271
▁AT	-11.5279
ay	-11.5286
▁Mor	-11.5287
▁attacks	-11.5292
▁30,	-11.5292
mor	-11.5301
▁Forge	-11.5302
▁Mis	-11.5307
▁Za	-11.531
▁features	-11.5327
▁display	-11.5333
▁Pen	-11.5345
rk	-11.5346
boards	-11.5348
▁cubes	-11.5358
▁stays	-11.5366
0,000	-11.537
▁thousands	-11.5373
▁facts	-11.5383
17	-11.5395
▁weapons	-11.54
za	-11.5403
▁Mont	-11.5409
▁persons	-11.5414
uses	-11.5424
▁imp	-11.5431
ned	-11.5436
ular	-11.547
▁items	-11.5486
▁lighted	-11.5488
lapping	-11.5511
▁rul	-11.5512
non	-11.5519
▁Bent	-11.5523
clunk	-11.5525
▁inch	-11.5527
▁elephants	-11.5528
ius	-11.5528
magnets	-11.5539
▁Marble	-11.5554
▁sleeve	-11.5556
▁league	-11.5556
▁adult	-11.5556
▁citizen	-11.556
▁lamp	-11.5561
▁stable	-11.5562
▁savage	-11.5564
▁Bar	-11.5569
▁Girl	-11.5569
▁trace	-11.557
▁par	-11.558
▁bomb	-11.5583
▁barrel	-11.5584
▁Pat	-11.5608
▁mis	-11.5611
▁ac	-11.5616
BA	-11.5616
fully	-11.5617
HE	-11.563
▁Pre	-11.5632
EN	-11.5639
▁officials	-11.5643
▁flu	-11.5653
▁slave	-11.5662
sylum	-11.5668
ator	-11.5672
▁occur	-11.5673
refer	-11.5677
▁Lauren	-11.5684
▁lands	-11.5692
mond	-11.5695
sen	-11.5706
pretend	-11.5707
cream	-11.5713
29	-11.5718
foot	-11.5718
town	-11.5718
▁achieve	-11.5722
cent	-11.5723
mumbles	-11.5727
Dear	-11.5728
August	-11.5729
whispering	-11.5729
June	-11.5729
life	-11.5729
New	-11.573
▁Grande	-11.573
unclear	-11.573
screams	-11.5731
▁92	-11.5732
known	-11.5732
▁coast	-11.5733
▁insult	-11.5734
other	-11.5734
FA	-11.5735
▁march	-11.5735
mi	-11.5736
▁affect	-11.5736
▁strip	-11.5738
Isn	-11.5741
top	-11.5744
sticks	-11.5745
rid	-11.5748
▁Na	-11.5751
▁1955	-11.5751
▁frank	-11.5753
Get	-11.5754
frigerator	-11.5759
▁compass	-11.5759
▁employ	-11.576
▁column	-11.576
▁kilo	-11.576
▁Audubon	-11.576
▁Emperor	-11.576
▁Ninja	-11.576
▁mattress	-11.576
(192,220)}	-11.576
▁1971	-11.576
▁Dakota	-11.576
▁Debby	-11.576
▁Environment	-11.576
▁Federal	-11.576
▁Hurst	-11.576
▁Labeija	-11.576
▁Navy	-11.576
▁bucket	-11.576
▁chalk	-11.576
▁chimney	-11.576
▁coffin	-11.576
▁equipment	-11.576
▁eventually	-11.576
▁exclamation	-11.576
▁fantastic	-11.576
▁fountain	-11.576
▁investigate	-11.576
▁joking	-11.576
▁matron	-11.576
▁ninight	-11.576
▁nuuw	-11.576
▁screen	-11.576
▁screwdriver	-11.576
▁sneak	-11.576
▁sufficient	-11.576
▁uncomfortable	-11.576
▁Auxon	-11.576
▁chose	-11.576
▁summit	-11.576
▁Always	-11.576
▁recognise	-11.576
▁estimator	-11.576
▁gradual	-11.576
▁Josie	-11.576
▁Conference	-11.576
▁Elliot	-11.576
▁sought	-11.576
▁Virginia	-11.576
▁favourite	-11.576
▁Goumo	-11.5761
▁description	-11.5761
▁steadily	-11.5761
▁Talk	-11.5761
▁accent	-11.5761
▁Price	-11.5761
▁farewell	-11.5761
▁permission	-11.5761
▁graham	-11.5761
▁Slam	-11.5761
▁cigarette	-11.5761
▁Country	-11.5761
▁Nanna	-11.5761
▁Columbia	-11.5761
▁solid	-11.5761
▁naughty	-11.5761
▁Executive	-11.5761
▁blade	-11.5761
▁signature	-11.5761
▁manufacturer	-11.5761
▁wheelchair	-11.5761
▁distribution	-11.5761
▁Zack	-11.5761
jake	-11.5761
▁criminal	-11.5761
▁shaft	-11.5761
▁suspended	-11.5761
▁visible	-11.5761
▁1927	-11.5761
▁laig	-11.5761
▁Summer	-11.5762
▁Fester	-11.5762
▁Shelly	-11.5762
▁diary	-11.5762
▁Brenda	-11.5762
▁Potato	-11.5762
▁Reficul	-11.5762
▁schedule	-11.5762
▁valuable	-11.5762
▁Czech	-11.5762
▁oblast	-11.5762
▁Grandma	-11.5762
▁reflection	-11.5762
——"	-11.5762
▁Kun	-11.5762
▁Zach	-11.5762
▁Chairman	-11.5762
▁chasing	-11.5762
▁Carrie	-11.5763
▁madam	-11.5763
▁Blackie	-11.5763
▁meekly	-11.5763
▁sweater	-11.5763
▁Ella	-11.5764
▁hesitated	-11.5764
▁Tack	-11.5764
▁mobile	-11.5764
▁WILL	-11.5764
▁Kato	-11.5764
▁Anish	-11.5764
▁Anderson	-11.5764
▁Julius	-11.5765
▁nation	-11.5765
▁Music	-11.5765
▁thankful	-11.5765
▁shallow	-11.5765
▁Back	-11.5766
▁leather	-11.5767
▁skating	-11.5767
▁Rome	-11.5767
▁Marshall	-11.5767
▁DOG	-11.5768
▁punk	-11.5768
▁linger	-11.5768
▁wretched	-11.5768
▁Rowdy	-11.5769
▁Yoma	-11.577
▁organized	-11.5771
▁swiftly	-11.5772
▁flushed	-11.5772
▁granted	-11.5774
▁Land	-11.5776
▁rolls	-11.5777
▁causes	-11.5778
▁sack	-11.5778
▁Ray	-11.5778
▁hind	-11.5779
▁lemm	-11.5779
▁tightly	-11.578
▁butcher	-11.578
cher	-11.5782
▁Records	-11.5783
▁propeller	-11.5784
▁Cry	-11.5784
▁primar	-11.5787
▁worker	-11.5787
▁quicker	-11.5788
▁creat	-11.5788
▁Sal	-11.5789
▁arose	-11.5789
▁tenor	-11.5791
▁Crow	-11.5792
▁sewing	-11.5795
▁begged	-11.5795
▁immigrants	-11.5797
▁Secrets	-11.5797
▁proudly	-11.58
▁10:	-11.5802
▁shops	-11.5802
▁stealing	-11.5806
▁worthy	-11.5808
▁Princess	-11.5812
▁seeds	-11.5815
▁Amy	-11.5818
▁debut	-11.5819
▁Working	-11.5819
con	-11.582
▁Bad	-11.5822
▁wire	-11.5823
▁stockings	-11.5827
▁Cl	-11.5829
10	-11.583
▁bo	-11.5834
▁Fa	-11.5838
▁minds	-11.5839
▁Tha	-11.5842
▁painter	-11.5845
▁explained	-11.5848
▁Walt	-11.585
▁Mi	-11.5851
▁1.6	-11.5855
▁photographs	-11.5856
ford	-11.5858
ray	-11.586
TH	-11.5866
▁12:	-11.5871
▁Mountains	-11.5871
▁Games	-11.5886
ulu	-11.5891
▁Ken	-11.5894
▁visited	-11.5895
them	-11.5901
▁74	-11.5901
▁1993	-11.5907
makes	-11.5914
▁feared	-11.5915
▁neighbours	-11.5916
ski	-11.5918
ROM	-11.5921
▁Kame	-11.5937
▁Warn	-11.5944
▁rail	-11.5954
▁barrels	-11.5961
act	-11.5964
under	-11.5965
eyed	-11.5966
win	-11.5967
▁Est	-11.5976
▁lions	-11.598
▁wards	-11.5991
▁80	-11.5997
▁kinda	-11.6001
▁clearing	-11.6007
▁4:	-11.6008
▁Com	-11.6008
du	-11.6009
▁nicely	-11.6011
arrow	-11.6024
plays	-11.6024
▁islands	-11.6025
▁hid	-11.6026
▁depends	-11.6031
zo	-11.6033
▁customers	-11.6037
toy	-11.6039
▁preferr	-11.604
▁Del	-11.6045
▁trained	-11.6046
▁whoop	-11.6057
▁hopes	-11.6066
▁tickets	-11.6066
ington	-11.6079
▁Du	-11.608
uf	-11.6087
▁resting	-11.6091
ek	-11.6093
▁nails	-11.6111
02	-11.6123
▁bu	-11.6139
▁pools	-11.6142
▁Ti	-11.6165
ini	-11.6167
▁Tim	-11.6173
ix	-11.618
rry	-11.6181
ks	-11.6182
▁origin	-11.6182
▁pans	-11.6185
har	-11.6186
▁Marine	-11.6193
▁Mac	-11.6193
▁42	-11.6194
peg	-11.6197
").	-11.6216
▁cr	-11.6237
▁dig	-11.6241
cut	-11.6264
▁meals	-11.6266
raz	-11.627
▁follows	-11.6273
▁crow	-11.6293
▁messages	-11.6295
▁É	-11.6297
ging	-11.6301
▁load	-11.6307
▁fore	-11.631
▁engineer	-11.6312
▁constable	-11.6324
ement	-11.6324
▁elbow	-11.6324
▁device	-11.6328
▁candle	-11.633
make	-11.633
▁sample	-11.6332
▁root	-11.6332
▁musician	-11.6335
▁option	-11.6335
▁episode	-11.6335
▁Tree	-11.6336
▁7:	-11.6336
▁poem	-11.6337
▁cheek	-11.6337
▁vegetable	-11.6337
▁feather	-11.6339
▁economic	-11.6339
▁parent	-11.6339
dog	-11.634
▁lesson	-11.6348
▁82	-11.6349
▁cent	-11.6351
▁backward	-11.6354
▁quarrel	-11.6362
net	-11.637
ove	-11.6393
ask	-11.6397
▁disc	-11.6398
▁ST	-11.6399
dopted	-11.6404
▁southwest	-11.6412
▁Lou	-11.6412
▁dropp	-11.6423
▁prince	-11.6427
▁$1.	-11.6434
▁300	-11.6437
▁fights	-11.6441
▁2016.	-11.6442
▁triumph	-11.6449
▁weigh	-11.645
80	-11.6452
▁Bach	-11.6458
ERS	-11.6466
▁brains	-11.6467
reads	-11.647
ang	-11.6474
▁sail	-11.6474
▁[5.	-11.6477
▁bl	-11.6482
▁va	-11.6482
kin	-11.6483
Gabbar	-11.6495
drawing	-11.6498
Paul	-11.6499
force	-11.6502
Page	-11.6502
ations	-11.6503
July	-11.6505
▁twist	-11.6506
▁sink	-11.6508
▁guarantee	-11.651
▁spank	-11.651
▁describe	-11.6511
▁Greg	-11.6514
▁2015.	-11.6515
▁1984	-11.6516
handed	-11.6517
Note	-11.6519
▁furious	-11.6521
▁Rock	-11.6522
▁THANK	-11.6524
▁recent	-11.6524
▁Cass	-11.6526
▁witness	-11.6527
▁administrati	-11.6528
▁Harris	-11.6528
▁disagree	-11.6529
▁engage	-11.6529
▁expert	-11.6529
▁Essert	-11.653
imitating	-11.653
°	-11.653
▁1973	-11.653
▁Arthur	-11.653
▁BACK	-11.653
▁Chicken	-11.653
▁Colorado	-11.653
▁Detective	-11.653
▁Fairmount	-11.653
▁LIFE	-11.653
▁Medicine	-11.653
▁OVER	-11.653
▁Oxfordshire	-11.653
▁Premier	-11.653
▁Rafael	-11.653
▁Stokke	-11.653
▁Territory	-11.653
▁Thirty	-11.653
▁Wichita	-11.653
▁Zealand	-11.653
▁allergic	-11.653
▁behalf	-11.653
▁choking	-11.653
▁commercial	-11.653
▁culture	-11.653
▁divorce	-11.653
▁fantasy	-11.653
▁french	-11.653
▁gleam	-11.653
▁glimpse	-11.653
▁happily	-11.653
▁porridge	-11.653
▁procedure	-11.653
▁representative	-11.653
▁supply	-11.653
▁suspicion	-11.653
▁terrific	-11.653
▁tragedy	-11.653
▁tremendous	-11.653
▁valentine	-11.653
▁Horse	-11.653
▁animated	-11.653
▁essential	-11.653
▁security	-11.653
▁CHRIST	-11.653
▁Toyama	-11.653
▁moomilk	-11.653
▁Company	-11.653
▁grinned	-11.653
▁innkeeper	-11.653
▁pronunciation	-11.653
▁structure	-11.653
▁cloak	-11.653
▁vacation	-11.653
▁Brandy	-11.653
▁Madrid	-11.653
▁Turkey	-11.653
▁consist	-11.653
▁palace	-11.653
▁potential	-11.653
▁executive	-11.653
▁gracious	-11.653
▁jingle	-11.653
▁Member	-11.653
▁Radio	-11.653
▁Flupper	-11.653
▁Adrian	-11.653
▁Ready	-11.653
▁radiator	-11.653
▁1928	-11.653
▁Davis	-11.653
▁wolf	-11.653
▁hamster	-11.653
▁Knowles	-11.653
▁Assembly	-11.653
▁debt	-11.653
▁digging	-11.653
▁ketchup	-11.653
Lightspeed	-11.653
▁intention	-11.653
▁cattle	-11.653
▁1929	-11.653
▁belief	-11.653
▁entertainment	-11.653
▁Unless	-11.653
▁tunnel	-11.653
▁maze	-11.653
▁chemistry	-11.653
▁Somebody	-11.653
▁Patty	-11.653
▁Near	-11.653
▁cancel	-11.653
▁diagnos	-11.6531
▁combat	-11.6531
▁fridge	-11.6531
▁grandson	-11.6531
▁flock	-11.6531
▁dairy	-11.6531
▁Kix	-11.6531
▁Theatre	-11.6531
▁ARROWS	-11.6531
▁stoop	-11.6531
▁childhood	-11.6531
rilla	-11.6531
▁SOME	-11.6531
▁chowder	-11.6531
▁Lincoln	-11.6531
▁microwave	-11.6531
▁Director	-11.6531
▁runaway	-11.6531
▁hostage	-11.6531
▁alma	-11.6531
▁saddle	-11.6531
▁evidently	-11.6532
▁Atlanti	-11.6532
▁sidewalk	-11.6532
▁?[	-11.6532
▁recommendation	-11.6532
▁[4.5	-11.6532
▁invitation	-11.6532
▁haul	-11.6532
▁Battle	-11.6532
▁popped	-11.6532
▁undertake	-11.6532
▁mustache	-11.6532
▁Mabel	-11.6532
▁Lind	-11.6532
▁mailman	-11.6533
▁coke	-11.6533
▁fever	-11.6533
▁oak	-11.6533
▁dragon	-11.6533
▁brass	-11.6533
▁Leader	-11.6533
▁dismay	-11.6533
▁mouse	-11.6534
▁Senator	-11.6534
▁94	-11.6534
▁Euro	-11.6534
▁Know	-11.6534
▁frost	-11.6534
▁factory	-11.6535
▁tanker	-11.6535
▁Ney	-11.6535
▁shaking	-11.6535
▁tide	-11.6535
▁Orange	-11.6535
▁buffaloes	-11.6535
▁referee	-11.6535
▁bap	-11.6535
▁Maine	-11.6535
▁Order	-11.6535
working	-11.6536
atsu	-11.6536
rès	-11.6536
▁politely	-11.6536
▁Weather	-11.6536
▁booth	-11.6536
▁educated	-11.6537
▁nickel	-11.6537
eux	-11.6537
▁thoughtfully	-11.6538
▁annoyed	-11.6538
▁tuck	-11.6538
▁Cross	-11.6539
▁burp	-11.6539
▁nonsense	-11.6539
▁nearby	-11.6539
▁mumbled	-11.654
▁Morning	-11.6541
▁maid	-11.6541
▁bishop	-11.6542
▁induced	-11.6542
▁closing	-11.6542
▁Gay	-11.6542
▁proceeded	-11.6542
Cie	-11.6543
▁curiously	-11.6543
▁Clock	-11.6543
▁verse	-11.6545
▁sofa	-11.6547
▁reflected	-11.6548
▁awhile	-11.6548
▁honestly	-11.6549
▁boil	-11.6549
▁Neil	-11.655
▁Tick	-11.6552
▁charming	-11.6553
▁Pine	-11.6553
Pretty	-11.6555
▁Kid	-11.6556
indicating	-11.6561
large	-11.6563
▁secretly	-11.6565
▁wishes	-11.6566
As	-11.6568
▁poke	-11.6569
▁faithful	-11.657
▁Plus	-11.657
ruz	-11.6574
▁safely	-11.6574
▁claimed	-11.6575
20	-11.6576
▁anger	-11.6576
Mar	-11.6577
▁era	-11.6579
▁Joey	-11.658
und	-11.6581
▁responded	-11.6583
▁dime	-11.6584
▁Head	-11.6584
▁robins	-11.6586
▁thar	-11.6588
▁CAT	-11.659
▁agin	-11.659
▁stain	-11.6594
▁hunted	-11.6595
ID	-11.6595
▁Age	-11.6595
▁kicked	-11.661
▁Cay	-11.6611
▁longest	-11.6611
▁thy	-11.6611
bb	-11.6612
▁Alma	-11.6614
▁1.8	-11.6617
▁Services	-11.6618
ohyl	-11.662
▁honored	-11.6624
▁appointment	-11.6628
▁watches	-11.6629
▁nicer	-11.6635
▁princess	-11.6635
▁Cole	-11.6639
▁camel	-11.6649
ural	-11.6659
new	-11.6661
▁Dal	-11.6661
▁counting	-11.6662
▁terrorists	-11.6666
lets	-11.6681
run	-11.6682
▁grabb	-11.6684
tory	-11.6686
▁Arts	-11.6687
▁prayers	-11.67
rin	-11.6704
then	-11.6711
▁hug	-11.6717
ified	-11.6723
▁economics	-11.673
▁poems	-11.673
ave	-11.674
ner	-11.6744
▁dressing	-11.6744
▁Ten	-11.6744
▁traces	-11.6747
▁savages	-11.6747
▁challenge	-11.6747
▁Cr	-11.675
cking	-11.6755
▁rats	-11.6759
isa	-11.676
▁Ru	-11.6761
ating	-11.6768
ani	-11.677
▁1.3	-11.6772
▁clouds	-11.6772
▁1978	-11.6777
uk	-11.6779
▁sha	-11.678
▁awe	-11.678
ence	-11.6785
▁2011.	-11.6788
▁Nations	-11.6792
▁clo	-11.6796
▁Revolution	-11.6799
▁knocking	-11.68
▁web	-11.6801
▁cared	-11.6803
▁mend	-11.6807
ura	-11.6811
thing	-11.682
▁chairs	-11.6821
here	-11.6823
70	-11.6838
▁1951	-11.6842
▁Mer	-11.6844
▁Sub	-11.6847
▁markers	-11.6849
avier	-11.6861
ok	-11.6865
▁nests	-11.6884
▁Ge	-11.6885
▁ro	-11.6886
▁hu	-11.6901
▁visits	-11.6902
shan	-11.6904
▁stroke	-11.6934
ines	-11.694
▁ghosts	-11.6943
▁12,	-11.6945
▁Ver	-11.6956
body	-11.6959
▁Use	-11.6966
▁mids	-11.6975
UM	-11.6986
▁pies	-11.6996
▁chat	-11.6999
▁concept	-11.7001
▁GO	-11.7005
▁1995.	-11.7009
▁Kr	-11.7017
▁tri	-11.702
▁Un	-11.7028
oc	-11.7036
ody	-11.7038
yo	-11.7041
▁5:	-11.7047
47	-11.7051
▁mon	-11.7052
IS	-11.7061
▁Sch	-11.7068
iff	-11.7079
▁bra	-11.7086
▁Lot	-11.7092
▁gaz	-11.7095
AR	-11.7098
2.6	-11.7111
▁logs	-11.7116
▁ge	-11.7122
OLD	-11.7123
▁borders	-11.7127
▁ble	-11.7127
▁request	-11.7135
▁file	-11.714
▁asks	-11.7152
▁Tonsil	-11.7156
about	-11.7159
▁Economic	-11.7163
▁Science	-11.7163
see	-11.7163
▁relation	-11.7164
▁instrument	-11.7164
mer	-11.7168
▁ships	-11.7169
▁Olympic	-11.7169
▁rustle	-11.7171
▁organisation	-11.7171
▁$2	-11.7176
▁stranger	-11.7184
’”	-11.7191
▁fa	-11.7192
▁skill	-11.7193
▁charit	-11.7195
▁toil	-11.7196
▁Sai	-11.72
▁guessing	-11.7202
aged	-11.7215
rus	-11.7218
▁fracture	-11.7224
TA	-11.7227
▁Mist	-11.7228
▁Vu	-11.7232
▁Wak	-11.7241
▁MA	-11.7244
nine	-11.7245
▁(19	-11.7256
24	-11.7265
▁TI	-11.7271
▁forms	-11.7276
▁horizon	-11.7276
found	-11.7286
▁fits	-11.729
▁develop	-11.7293
stairs	-11.7297
din	-11.7305
keep	-11.7307
▁freeze	-11.7311
▁connect	-11.7316
hearted	-11.7323
▁steam	-11.7324
know	-11.7327
Indeed	-11.733
grab	-11.7331
With	-11.7331
fast	-11.7331
April	-11.7331
Fraser	-11.7331
please	-11.7332
click	-11.7332
Yeah	-11.7332
storm	-11.7332
trying	-11.7333
orange	-11.7334
▁require	-11.7337
MAS	-11.7339
▁swor	-11.7339
shows	-11.734
fall	-11.7343
speaking	-11.7343
▁swam	-11.7343
standing	-11.7345
ky	-11.7345
▁introduce	-11.7347
▁charm	-11.7348
▁1977	-11.7351
▁Drop	-11.7352
▁speaks	-11.7352
▁Thierr	-11.7354
▁teachers	-11.7355
▁mysterious	-11.7355
▁consume	-11.7355
▁Pink	-11.7355
kar	-11.7355
▁joyful	-11.7358
END	-11.7358
camera	-11.7359
▁crutch	-11.736
▁Ron	-11.736
▁sway	-11.736
▁patch	-11.7361
▁Speak	-11.7361
▁transfer	-11.7362
starts	-11.7362
door	-11.7362
▁Alzheimer	-11.7363
▁Dartmoor	-11.7363
▁Gentlemen	-11.7363
▁Hamilton	-11.7363
▁Leipzig	-11.7363
▁Twenty	-11.7363
▁Xtravaganza	-11.7363
▁execution	-11.7363
▁immense	-11.7363
▁leisure	-11.7363
▁magnificent	-11.7363
▁pussy	-11.7363
SIGHS	-11.7363
pollution	-11.7363
▁1976	-11.7363
▁1983	-11.7363
▁1999	-11.7363
▁Aldithely	-11.7363
▁Amsterdam	-11.7363
▁Arapaho	-11.7363
▁Argentine	-11.7363
▁Arizona	-11.7363
▁Austin	-11.7363
▁Bangladesh	-11.7363
▁Channel	-11.7363
▁Correvon	-11.7363
▁Coventry	-11.7363
▁Cummings	-11.7363
▁Denezy	-11.7363
▁Eminence	-11.7363
▁Facult	-11.7363
▁Festival	-11.7363
▁Harvey	-11.7363
▁Martherenges	-11.7363
▁Montanaire	-11.7363
▁Moscow	-11.7363
▁Nikki	-11.7363
▁Norfolk	-11.7363
▁Peruvian	-11.7363
▁PlayStation	-11.7363
▁SFWA	-11.7363
▁Safety	-11.7363
▁Scientist	-11.7363
▁Suddenly	-11.7363
▁angrily	-11.7363
▁eagle	-11.7363
▁flood	-11.7363
▁inclined	-11.7363
▁mercy	-11.7363
▁policy	-11.7363
▁popcorn	-11.7363
▁porch	-11.7363
▁precious	-11.7363
▁pupils	-11.7363
▁sensible	-11.7363
▁shilling	-11.7363
▁syrup	-11.7363
▁territory	-11.7363
▁variety	-11.7363
▁Chanéaz	-11.7363
▁tattoo	-11.7363
▁weasel	-11.7363
▁whiny	-11.7363
▁whirl	-11.7363
▁Norway	-11.7363
▁SOMETHING	-11.7363
▁boast	-11.7363
▁ceiling	-11.7363
▁MOBA	-11.7363
▁fetch	-11.7363
▁rumor	-11.7363
▁yacht	-11.7363
▁Corporation	-11.7363
▁Carolina	-11.7363
▁Under	-11.7363
▁liability	-11.7363
▁confidence	-11.7363
▁sarcastic	-11.7363
▁appetite	-11.7363
▁honour	-11.7363
▁shark	-11.7363
▁Center	-11.7363
▁Nadine	-11.7363
▁surgery	-11.7363
▁Caroline	-11.7363
▁grasp	-11.7363
▁Chuck	-11.7363
▁scholarship	-11.7363
▁Semple	-11.7363
▁runnin	-11.7363
▁maintain	-11.7363
▁provision	-11.7363
▁Roany	-11.7363
▁1931	-11.7363
▁nipple	-11.7363
anguish	-11.7363
▁Nagata	-11.7363
▁punishment	-11.7363
▁internet	-11.7363
▁bucks	-11.7363
▁committed	-11.7363
▁Edgar	-11.7363
▁invention	-11.7363
▁resignation	-11.7363
▁consciousness	-11.7363
▁salary	-11.7363
▁territories	-11.7363
▁dawn	-11.7363
▁muzzle	-11.7363
▁tiresome	-11.7363
▁crystal	-11.7364
▁legendary	-11.7364
▁unkind	-11.7364
▁1946	-11.7364
▁denied	-11.7364
▁Biden	-11.7364
▁drape	-11.7364
▁grammar	-11.7364
▁Fairies	-11.7364
▁mummy	-11.7364
▁Supreme	-11.7364
▁shopping	-11.7364
Possens	-11.7364
▁Feel	-11.7364
▁limp	-11.7364
▁worldwide	-11.7364
▁disagreeable	-11.7364
▁gross	-11.7364
▁creamery	-11.7364
▁Especially	-11.7364
▁Mandy	-11.7364
▁geese	-11.7364
▁Owl	-11.7364
▁amusement	-11.7364
▁Florry	-11.7365
▁concert	-11.7365
▁Scotland	-11.7365
▁defense	-11.7365
▁economy	-11.7365
▁satisfied	-11.7365
▁HEY	-11.7365
▁costume	-11.7365
▁Haut	-11.7365
▁Cookie	-11.7365
Vennes	-11.7365
▁fake	-11.7365
▁DOWN	-11.7365
▁secretary	-11.7365
▁COULD	-11.7365
▁document	-11.7365
▁gentleman	-11.7365
▁Knight	-11.7366
▁squash	-11.7366
rept	-11.7366
▁Korean	-11.7366
▁personality	-11.7366
▁skip	-11.7367
▁Costa	-11.7367
▁Southwestern	-11.7367
▁danny	-11.7367
▁litera	-11.7367
▁alto	-11.7367
▁Princeton	-11.7367
▁cushion	-11.7367
▁occupation	-11.7367
▁Suppose	-11.7367
▁wig	-11.7367
▁baked	-11.7367
▁Airport	-11.7368
▁reference	-11.7368
▁tank	-11.7368
▁illusion	-11.7368
▁Board	-11.7368
▁pang	-11.7368
▁nomination	-11.7369
▁THANKS	-11.737
▁careless	-11.737
▁readily	-11.737
▁Belize	-11.737
▁Kenneth	-11.737
▁Dallas	-11.737
▁reserved	-11.737
▁examined	-11.737
▁73	-11.7371
▁Heaven	-11.7371
▁Sherry	-11.7373
▁Left	-11.7373
▁sickness	-11.7373
▁Help	-11.7373
▁convinced	-11.7374
▁fate	-11.7374
▁reasonable	-11.7375
▁nominated	-11.7375
▁pinch	-11.7377
▁brandy	-11.7377
cr	-11.7378
▁anyhow	-11.7378
▁runner	-11.7378
▁Lausanne	-11.7379
▁Tock	-11.7379
▁Fat	-11.738
▁Wom	-11.738
▁Down	-11.7381
▁Lovely	-11.7381
▁Mind	-11.7382
▁code	-11.7383
▁WELL	-11.7384
▁racer	-11.7384
▁JOHN	-11.7385
▁introduced	-11.7385
▁inquired	-11.7385
▁calmly	-11.7385
▁scraping	-11.7386
▁peak	-11.7386
▁milkman	-11.7386
▁OOH	-11.7388
▁Bl	-11.739
▁Eh	-11.739
▁amused	-11.7392
▁meantime	-11.7393
▁Fall	-11.7393
▁louder	-11.7393
▁Fire	-11.7393
▁sixth	-11.7394
▁nearest	-11.7395
gar	-11.7397
▁paw	-11.7397
▁dwell	-11.7398
▁basement	-11.74
▁printed	-11.74
gan	-11.7401
CDP	-11.7402
▁Grannis	-11.7403
WARD	-11.7404
▁pills	-11.7407
▁Ow	-11.7409
bin	-11.741
▁driven	-11.741
▁completed	-11.7412
▁tropic	-11.7413
▁hardest	-11.7415
▁hint	-11.7417
▁designer	-11.7419
▁stronger	-11.7422
fi	-11.7422
▁swallowed	-11.7423
▁advanced	-11.7423
▁status	-11.7424
▁Corps	-11.7424
▁Bra	-11.7428
ua	-11.7429
▁presenter	-11.7429
▁entering	-11.743
▁longing	-11.7432
▁wounded	-11.7438
▁competitors	-11.7442
▁Carlos	-11.7442
▁screwed	-11.7444
▁Nora	-11.7447
▁Va	-11.745
▁dresser	-11.7453
▁involve	-11.7459
▁technical	-11.7461
▁buds	-11.7466
▁Hob	-11.7468
▁organis	-11.7472
▁mast	-11.7473
▁Part	-11.7475
▁attempted	-11.7481
▁Bi	-11.7483
▁goat	-11.7485
▁beautifully	-11.7486
▁1.7	-11.7487
▁2009.	-11.7487
▁hugg	-11.749
nyone	-11.7492
▁paddocks	-11.7494
▁offering	-11.7497
▁online	-11.7498
▁mar	-11.7499
▁wander	-11.75
▁award	-11.7502
tter	-11.7505
▁Arch	-11.7506
▁meme	-11.7507
▁owl	-11.7509
▁Oi	-11.751
▁hurrying	-11.7511
▁bubbles	-11.7512
law	-11.7514
▁bade	-11.7515
▁Juliet	-11.7517
▁tooth	-11.7519
▁lasted	-11.7521
▁testing	-11.7521
▁[$=2	-11.7522
▁sl	-11.7526
lon	-11.7537
▁mare	-11.7537
▁Kar	-11.7538
▁Nicola	-11.7539
▁Spe	-11.7541
▁lightly	-11.7544
▁comrades	-11.7547
cho	-11.7549
▁dart	-11.7559
▁stake	-11.7565
▁Victoria	-11.7566
▁awards	-11.7566
form	-11.7572
▁Haven	-11.7582
▁roots	-11.7582
▁samples	-11.7582
▁candles	-11.7582
▁wagg	-11.7592
▁ours	-11.7592
ef	-11.7594
ked	-11.763
▁Ou	-11.7635
▁comments	-11.7636
▁Pra	-11.7642
▁Gu	-11.7651
houses	-11.7654
▁reaction	-11.7659
▁lover	-11.7665
25	-11.7672
▁gang	-11.7682
▁fans	-11.7692
ization	-11.7692
▁needles	-11.7692
fa	-11.7698
LOU	-11.7707
▁Tho	-11.7707
IT	-11.772
1.9	-11.773
▁Lar	-11.7752
roy	-11.777
▁Ink	-11.7776
▁tap	-11.7781
▁hurting	-11.7782
▁choppe	-11.7784
bs	-11.779
▁Bor	-11.7795
▁1963	-11.7801
▁Live	-11.7814
▁ti	-11.7815
▁76	-11.7816
▁Wi	-11.7818
▁Bring	-11.7829
ound	-11.7836
▁mills	-11.7838
-2	-11.7838
▁Ham	-11.7853
▁SUN	-11.7857
HEN	-11.7858
ional	-11.7861
upp	-11.7863
▁howl	-11.7873
▁tr	-11.7874
▁chips	-11.7881
▁cares	-11.7884
tz	-11.7905
▁programs	-11.7906
yes	-11.7909
▁Mad	-11.791
▁plates	-11.7915
▁efforts	-11.7924
▁daughters	-11.7929
▁buildings	-11.7932
▁Were	-11.7949
▁Bal	-11.7953
▁reports	-11.7955
apping	-11.7958
▁1991	-11.7959
▁promote	-11.7962
▁Lie	-11.7966
▁tel	-11.7975
▁projects	-11.7979
▁Mon	-11.7997
▁prices	-11.7998
natured	-11.7999
nn	-11.8006
arian	-11.801
.'"	-11.8014
▁founder	-11.8015
ories	-11.8019
▁Pal	-11.8031
▁Mc	-11.8041
▁Guard	-11.8043
▁Tra	-11.805
ite	-11.8062
▁rip	-11.8062
ium	-11.8065
▁sp	-11.8066
▁squeal	-11.8071
▁prune	-11.8072
▁comrade	-11.8075
▁Twin	-11.8075
▁corners	-11.8075
▁neighbour	-11.8076
▁passenger	-11.8076
▁detail	-11.808
1967)	-11.808
▁deck	-11.808
▁Common	-11.8081
▁prayer	-11.8085
▁sword	-11.8098
fl	-11.8106
▁pathetic	-11.8114
▁HI	-11.8119
▁plum	-11.8121
▁loyal	-11.8122
hy	-11.8132
35	-11.8135
▁2005.	-11.8145
Ju	-11.8146
▁Fi	-11.8148
▁95	-11.8166
▁cur	-11.8178
ALLY	-11.8179
▁flip	-11.818
lash	-11.8185
ak	-11.8195
▁tar	-11.8201
▁spots	-11.8205
▁trains	-11.8208
ink	-11.8215
calling	-11.8215
ino	-11.8217
IE	-11.8218
▁bull	-11.8218
▁murmur	-11.8221
▁com	-11.8228
arc	-11.8234
▁purchase	-11.8239
complete	-11.824
explain	-11.824
Will	-11.824
horse	-11.824
good	-11.8241
Bill	-11.8241
load	-11.8242
four	-11.8243
someone	-11.8243
▁Sara	-11.8243
string	-11.8244
▁roast	-11.8246
War	-11.8246
▁repair	-11.8247
Every	-11.8248
because	-11.8249
▁assist	-11.825
related	-11.8255
▁retire	-11.8255
▁1945	-11.8255
okay	-11.8256
▁lame	-11.8257
▁Silv	-11.8257
ALL	-11.8259
▁mistakes	-11.8261
▁1957	-11.8262
keeper	-11.8263
▁slid	-11.8263
▁solemn	-11.8263
▁polite	-11.8263
▁creep	-11.8263
▁fierce	-11.8263
▁Fair	-11.8264
▁exact	-11.8265
▁prepare	-11.8265
▁Need	-11.8266
▁caps	-11.8266
▁tax	-11.8266
▁mosquito	-11.8269
-19	-11.8269
▁peach	-11.827
ook	-11.827
▁givin	-11.8271
▁vocal	-11.8271
▁scan	-11.8271
▁progress	-11.8272
▁contest	-11.8272
▁stress	-11.8272
▁havin	-11.8272
ome	-11.8272
Rhin	-11.8272
fontaine	-11.8272
▁conceal	-11.8272
Kickapoo	-11.8272
pplause	-11.8272
▁1958	-11.8272
▁Already	-11.8272
▁Bartlemy	-11.8272
▁Civi	-11.8272
▁Episode	-11.8272
▁Flossie	-11.8272
▁Hooey	-11.8272
▁Hurley	-11.8272
▁JOEY	-11.8272
▁Jeff	-11.8272
▁MaryJane	-11.8272
▁Murray	-11.8272
▁Railroad	-11.8272
▁Research	-11.8272
▁Stadium	-11.8272
▁Vantablack	-11.8272
▁WHITTAKER	-11.8272
▁alkali	-11.8272
▁arbutus	-11.8272
▁associate	-11.8272
▁ballerina	-11.8272
▁barbecue	-11.8272
▁bubba	-11.8272
▁category	-11.8272
▁crisis	-11.8272
▁deceived	-11.8272
▁depression	-11.8272
▁dinosaur	-11.8272
▁economist	-11.8272
▁explanation	-11.8272
▁exquisite	-11.8272
▁indication	-11.8272
▁intelligent	-11.8272
▁mushrooms	-11.8272
▁politics	-11.8272
▁presidency	-11.8272
▁regatta	-11.8272
▁sacred	-11.8272
▁significant	-11.8272
▁slender	-11.8272
▁suppress	-11.8272
▁velvet	-11.8272
▁wisdom	-11.8272
▁1949	-11.8272
▁CHUNG	-11.8272
▁Celia	-11.8272
▁Census	-11.8272
▁Jewell	-11.8272
▁SAY	-11.8272
▁TAKE	-11.8272
▁Washburn	-11.8272
▁bathtub	-11.8272
▁mamma	-11.8272
▁possibility	-11.8272
▁Coast	-11.8272
▁Marcus	-11.8272
▁Winter	-11.8272
▁global	-11.8272
▁Pedro	-11.8272
▁torture	-11.8272
▁Fernando	-11.8272
▁idol	-11.8272
▁importance	-11.8272
▁pirate	-11.8272
▁recess	-11.8272
▁Packard	-11.8272
▁Championship	-11.8272
▁splendor	-11.8272
▁Geography	-11.8272
▁CONNIE	-11.8272
▁ignorant	-11.8272
▁Vernon	-11.8272
▁AGAIN	-11.8272
▁deputy	-11.8272
▁streak	-11.8272
▁frame	-11.8272
▁trash	-11.8272
▁Antonio	-11.8272
▁Hayward	-11.8272
▁Perform	-11.8272
▁Road	-11.8272
▁plea	-11.8272
▁Monster	-11.8272
▁Prix	-11.8272
▁baggage	-11.8272
▁Panda	-11.8272
▁noisy	-11.8272
▁Maggie	-11.8272
▁Rebecca	-11.8272
▁treble	-11.8272
▁guitarist	-11.8272
▁Philippa	-11.8273
▁angle	-11.8273
▁network	-11.8273
▁waving	-11.8273
▁speedily	-11.8273
▁aggressive	-11.8273
▁Village	-11.8273
▁1947	-11.8273
▁torment	-11.8273
▁applie	-11.8273
▁Several	-11.8273
▁Season	-11.8273
▁Half	-11.8273
▁Sultan	-11.8273
▁retirement	-11.8273
▁Gordi	-11.8273
▁Authority	-11.8273
▁Bremer	-11.8273
▁northeast	-11.8273
▁disappointment	-11.8274
▁lumber	-11.8274
▁Spirit	-11.8274
▁association	-11.8274
▁sensitive	-11.8274
▁senior	-11.8274
▁Drink	-11.8274
▁abruptly	-11.8274
▁TRIP	-11.8274
▁wholly	-11.8275
▁adoption	-11.8275
▁Marino	-11.8275
▁moral	-11.8275
▁SURE	-11.8275
▁LET	-11.8276
▁Water	-11.8276
▁crest	-11.8276
▁cartoon	-11.8276
▁transport	-11.8276
▁Tomorrow	-11.8276
▁tease	-11.8277
▁rival	-11.8277
▁relieved	-11.8277
▁mama	-11.8277
▁Gray	-11.8277
▁NCAA	-11.8277
▁Spencer	-11.8277
▁context	-11.8277
▁agency	-11.8277
▁crinkling	-11.8277
▁humming	-11.8277
▁plough	-11.8277
▁Fern	-11.8277
▁Lisa	-11.8277
▁Through	-11.8277
▁independence	-11.8277
▁wreck	-11.8277
▁sunny	-11.8277
▁unsuccessfully	-11.8277
▁kidney	-11.8277
▁Mick	-11.8277
▁Station	-11.8278
▁Var	-11.8278
▁systems	-11.8278
▁inquir	-11.8278
▁reply	-11.8279
▁knitt	-11.8279
nods	-11.8279
▁observed	-11.828
▁faded	-11.828
▁sweetheart	-11.828
▁Push	-11.828
▁toxin	-11.8281
▁Biddle	-11.8281
▁extended	-11.8281
▁shone	-11.8281
▁Dart	-11.8281
▁startled	-11.8281
▁Ke	-11.8282
▁annoying	-11.8283
▁Hard	-11.8283
▁STOP	-11.8283
▁Speaker	-11.8283
▁trailer	-11.8284
▁highway	-11.8284
▁severely	-11.8284
▁Commander	-11.8284
MP	-11.8285
▁Fo	-11.8285
▁desperately	-11.8285
▁approved	-11.8286
▁Keeper	-11.8286
▁hopeless	-11.8287
▁partial	-11.8287
▁wealth	-11.8287
▁Bowling	-11.8287
▁darn	-11.8288
war	-11.8288
▁elderly	-11.8289
▁cheerfully	-11.8289
▁Donna	-11.8291
▁Vincent	-11.8291
▁warmth	-11.8292
▁required	-11.8293
▁Ash	-11.8294
▁Song	-11.8295
▁distan	-11.8298
▁wandered	-11.8299
▁ashes	-11.83
▁Doesn	-11.83
▁Wasn	-11.83
▁CD	-11.83
▁Inez	-11.83
▁twisted	-11.8301
▁criticism	-11.8302
▁sector	-11.8303
▁mistaken	-11.8303
▁thrilling	-11.8303
ov	-11.8304
▁union	-11.8305
▁packed	-11.8306
ntai	-11.8307
▁Indeed	-11.8309
▁pitcher	-11.8309
▁naturally	-11.8313
▁defeated	-11.8315
▁slides	-11.8317
▁Horrors	-11.832
▁[16	-11.8321
▁lawn	-11.8322
▁distinct	-11.8322
▁ashore	-11.8324
▁Isa	-11.8326
god	-11.8327
AT	-11.8328
▁secure	-11.8329
▁remaining	-11.833
stop	-11.8334
▁el	-11.8337
▁53	-11.8337
▁instructions	-11.8339
▁jewels	-11.8339
▁jammies	-11.8341
ize	-11.8342
▁Shi	-11.8344
▁yawn	-11.8345
lance	-11.8345
▁welcomed	-11.8347
▁nowhere	-11.8347
▁scrap	-11.8349
▁VI	-11.8356
▁Jon	-11.8358
▁hoots	-11.8359
iti	-11.8359
ari	-11.8364
wants	-11.8366
▁FIN	-11.8367
▁Bless	-11.8368
▁horizontal	-11.8368
▁statistic	-11.8373
▁TOO	-11.8378
▁FI	-11.8386
logical	-11.8396
▁spears	-11.8397
▁oppos	-11.8398
thology	-11.8399
▁rub	-11.8406
▁pretended	-11.8409
▁banging	-11.8412
▁ET	-11.8413
▁grubs	-11.8416
▁lifting	-11.8416
▁sooner	-11.8423
▁Hand	-11.8424
▁crops	-11.8428
▁images	-11.8436
▁relatives	-11.8436
▁listed	-11.8439
▁returning	-11.8444
▁crossing	-11.8446
▁trolls	-11.8455
gt	-11.8457
▁Alle	-11.8457
▁Camp	-11.8459
away	-11.8465
▁differently	-11.8475
▁scribble	-11.848
▁classic	-11.8485
▁sal	-11.8489
▁Gramm	-11.85
▁spa	-11.8504
▁forming	-11.8509
▁riches	-11.8509
▁recorded	-11.8511
ello	-11.8511
▁landing	-11.8511
▁2002.	-11.8541
▁Fran	-11.8542
bag	-11.855
▁sur	-11.8555
▁Sand	-11.8566
election	-11.8579
inspired	-11.8581
▁lit	-11.8582
▁Gas	-11.8586
inal	-11.8587
LD	-11.8591
▁workers	-11.8592
bird	-11.8592
▁herd	-11.8598
anny	-11.8602
▁lookin	-11.8603
▁partly	-11.8605
rate	-11.861
▁restaurants	-11.8611
▁clatters	-11.8612
▁ce	-11.862
▁1.4	-11.8622
▁initial	-11.8628
▁outlet	-11.8628
▁habits	-11.8631
▁75	-11.8632
ander	-11.8639
▁Cho	-11.8648
balls	-11.8649
▁gloves	-11.8651
▁186	-11.8665
ump	-11.8665
▁stops	-11.8677
▁remov	-11.8677
hall	-11.868
take	-11.8682
▁bro	-11.8691
▁bounce	-11.8693
▁elections	-11.8703
▁envelopes	-11.871
▁goals	-11.8712
▁orphans	-11.8712
▁Boys	-11.8712
▁divers	-11.8713
wing	-11.8717
▁feller	-11.8724
▁pace	-11.8737
▁degrees	-11.875
▁materials	-11.8751
▁gi	-11.8751
CA	-11.8756
▁Tre	-11.8757
Far	-11.8772
▁HA	-11.8773
45	-11.8777
▁Simon	-11.8781
▁Islands	-11.8781
▁sings	-11.8782
cap	-11.8783
UR	-11.8785
▁dings	-11.8793
Man	-11.8793
ade	-11.8799
▁coats	-11.8802
▁TIME	-11.8806
▁BIG	-11.8806
vin	-11.8814
lier	-11.8815
Nor	-11.8822
▁nurses	-11.8823
▁Kim	-11.8826
▁votes	-11.8826
▁pr	-11.8832
TED	-11.8844
▁abuse	-11.8847
hand	-11.8859
▁concerns	-11.8872
▁heel	-11.8882
▁News	-11.8888
▁pl	-11.8888
▁tons	-11.8892
eth	-11.8903
continental	-11.8911
ANT	-11.8915
▁Times	-11.8915
sneezes	-11.8926
▁breaks	-11.8927
▁jokes	-11.8927
▁Wo	-11.8927
▁1994.	-11.8936
tas	-11.8939
date	-11.8941
▁scenes	-11.8951
▁fears	-11.8951
▁z	-11.8952
Le	-11.8961
▁writers	-11.8962
▁63	-11.8982
dded	-11.8986
▁Years	-11.8993
▁88.	-11.9
dden	-11.9007
IES	-11.9015
ide	-11.9016
point	-11.9017
▁Art	-11.9019
▁Victor	-11.9023
Gu	-11.9025
ough	-11.9025
give	-11.9029
▁Ball	-11.903
▁Cara	-11.904
uel	-11.9041
mic	-11.9044
▁villages	-11.9044
fied	-11.9046
ette	-11.9049
▁77	-11.9055
ully	-11.9065
▁skirt	-11.9066
▁flame	-11.9066
▁volunteer	-11.9068
▁1993.	-11.9069
▁Animal	-11.9069
▁disaster	-11.907
▁pistol	-11.907
▁beast	-11.907
▁caterpillar	-11.9072
▁scientist	-11.9077
▁crowds	-11.9077
▁Representative	-11.9079
▁orders	-11.9082
▁troll	-11.9091
▁profit	-11.9092
cross	-11.9096
2.9	-11.9099
▁folk	-11.9105
ADE	-11.9107
▁intend	-11.9107
▁tastes	-11.9116
▁albums	-11.9116
▁closes	-11.9119
▁airplanes	-11.9123
mong	-11.9125
him	-11.9129
▁ending	-11.9134
▁controll	-11.9135
stead	-11.9143
▁Pr	-11.9144
lying	-11.9144
▁Sit	-11.9145
nuts	-11.9156
gin	-11.917
▁Elect	-11.918
q	-11.9187
▁fella	-11.9191
mpression	-11.9197
▁prizes	-11.9199
dr	-11.92
after	-11.9201
CH	-11.9201
▁Clay	-11.9207
oral	-11.9213
▁elect	-11.9218
▁instruct	-11.9219
▁poison	-11.922
ography	-11.9222
▁bliss	-11.9223
step	-11.9226
page	-11.9227
Hi	-11.9233
sign	-11.9233
tar	-11.9235
Champvent	-11.9237
Ville	-11.9237
loft	-11.9238
hawk	-11.9239
criticism	-11.9239
cloth	-11.924
▁trans	-11.924
school	-11.924
drinks	-11.924
January	-11.924
perhaps	-11.924
September	-11.924
▁spirits	-11.9241
master	-11.9241
section	-11.9242
dropped	-11.9243
metal	-11.9244
thank	-11.9245
Because	-11.9245
▁leak	-11.9245
enough	-11.9245
▁quiver	-11.9246
walk	-11.9246
▁consent	-11.9246
▁reject	-11.9246
▁bloom	-11.9246
▁reflect	-11.9247
▁distinguish	-11.9247
big	-11.9248
think	-11.9248
▁separate	-11.9249
▁survey	-11.925
▁hon	-11.925
▁assume	-11.9253
lots	-11.9255
goin	-11.9255
On	-11.9255
▁fright	-11.9262
▁shirts	-11.9263
▁colon	-11.9263
▁gloom	-11.9263
▁basic	-11.9263
IRST	-11.9264
▁apparent	-11.9264
▁peaceful	-11.9266
▁Personal	-11.9266
▁Poli	-11.9266
▁mechanic	-11.9268
OULD	-11.9269
▁commit	-11.9269
▁Addams	-11.9271
▁alcohol	-11.9271
▁superior	-11.9271
▁blank	-11.9271
▁Social	-11.9272
Drosophila	-11.9272
`	-11.9272
¡	-11.9272
▁1948	-11.9272
▁Bairnsdale	-11.9272
▁Benjamin	-11.9272
▁Cincinnati	-11.9272
▁Colonel	-11.9272
▁Diandros	-11.9272
▁Education	-11.9272
▁Gibson	-11.9272
▁Globe	-11.9272
▁Jewelweed	-11.9272
▁MONEY	-11.9272
▁Martín	-11.9272
▁Montaub	-11.9272
▁Norwegian	-11.9272
▁Ozaki	-11.9272
▁Ronnette	-11.9272
▁Sakaguchi	-11.9272
▁Shindo	-11.9272
▁Skau	-11.9272
▁Sophie	-11.9272
▁Stonewall	-11.9272
▁Sweden	-11.9272
▁THINK	-11.9272
▁Vietnam	-11.9272
▁Zetterstrom	-11.9272
▁academic	-11.9272
▁arriving	-11.9272
▁banjo	-11.9272
▁bodily	-11.9272
▁candidac	-11.9272
▁categories	-11.9272
▁caution	-11.9272
▁ceramic	-11.9272
▁congratulate	-11.9272
▁decorative	-11.9272
▁encounter	-11.9272
▁england	-11.9272
▁goddard	-11.9272
▁imitation	-11.9272
▁monument	-11.9272
▁nowadays	-11.9272
▁parameter	-11.9272
▁pioneer	-11.9272
▁privilege	-11.9272
▁raccoon	-11.9272
▁railroad	-11.9272
▁rubbish	-11.9272
▁screenwriter	-11.9272
▁solution	-11.9272
▁struggling	-11.9272
▁sunglasses	-11.9272
▁surrounded	-11.9272
▁technique	-11.9272
▁terribly	-11.9272
▁wigwam	-11.9272
▁wistfully	-11.9272
▁BOOK	-11.9272
▁Baker	-11.9272
▁Vanceboro	-11.9272
▁combined	-11.9272
▁decline	-11.9272
▁discipline	-11.9272
▁entitle	-11.9272
▁gallant	-11.9272
▁gossip	-11.9272
▁injured	-11.9272
▁oyster	-11.9272
▁rotten	-11.9272
▁violent	-11.9272
@	-11.9272
▁Cambridge	-11.9272
▁Dyson	-11.9272
▁Gomez	-11.9272
▁Patten	-11.9272
▁TALK	-11.9272
▁Wallace	-11.9272
▁Trust	-11.9272
▁scotch	-11.9272
▁governess	-11.9272
▁TREE	-11.9272
▁compromise	-11.9272
▁convenience	-11.9272
▁$400	-11.9272
▁Columbus	-11.9272
▁Turkish	-11.9272
▁basis	-11.9272
▁soxer	-11.9272
▁grapefruit	-11.9272
▁awoke	-11.9272
▁carrot	-11.9272
▁examination	-11.9272
▁warrior	-11.9272
▁Nicholas	-11.9272
▁scoop	-11.9272
▁Joshua	-11.9272
▁swordfish	-11.9272
▁Cathy	-11.9272
▁conclusion	-11.9272
▁Clover	-11.9272
▁Lenny	-11.9272
▁naked	-11.9272
▁latitude	-11.9272
▁instinct	-11.9272
▁Independence	-11.9272
▁astonishment	-11.9272
▁muttering	-11.9272
▁chrom	-11.9272
▁inspection	-11.9272
▁affectionate	-11.9272
▁leopard	-11.9272
▁permitted	-11.9272
dorff	-11.9272
▁Foundation	-11.9272
▁championship	-11.9273
▁forbid	-11.9273
▁Design	-11.9273
▁Leonor	-11.9273
▁Warren	-11.9273
▁happier	-11.9273
▁yourselves	-11.9273
▁Nail	-11.9273
▁ribs	-11.9273
▁1935	-11.9273
▁Flag	-11.9273
▁MEAN	-11.9273
▁PAGE	-11.9273
▁meadow	-11.9273
▁Argentina	-11.9273
▁france	-11.9273
▁Kerry	-11.9273
▁lagoon	-11.9273
▁percentage	-11.9273
▁underground	-11.9273
▁Larry	-11.9273
▁civilian	-11.9273
▁minority	-11.9273
▁gaily	-11.9273
▁affection	-11.9274
▁canvas	-11.9274
▁edition	-11.9274
▁cabinet	-11.9274
▁79.	-11.9274
▁Charlotte	-11.9274
▁Israel	-11.9274
▁Meanwhile	-11.9274
▁Throat	-11.9274
▁argument	-11.9274
▁bury	-11.9274
▁hump	-11.9274
▁Wright	-11.9274
raspy	-11.9274
▁ceremony	-11.9274
▁lump	-11.9274
▁Carney	-11.9274
▁spigot	-11.9275
▁objective	-11.9275
▁Annette	-11.9275
▁van	-11.9275
▁vase	-11.9275
▁Liz	-11.9275
▁whiskey	-11.9275
▁Touch	-11.9275
▁jar	-11.9276
▁indent	-11.9276
▁stump	-11.9276
▁pasture	-11.9276
▁Stine	-11.9276
▁98	-11.9276
▁Commissioner	-11.9276
▁DID	-11.9276
▁Excellent	-11.9276
▁Thus	-11.9276
▁warden	-11.9277
▁Lari	-11.9277
▁Sister	-11.9277
▁difficulties	-11.9277
▁heartily	-11.9277
▁prior	-11.9278
▁unfortunately	-11.9278
▁agreeable	-11.9278
▁infected	-11.9279
▁taunting	-11.9279
▁nutter	-11.9279
▁editor	-11.9279
▁labor	-11.9279
▁Athletic	-11.9279
▁Bible	-11.928
ike	-11.9281
▁Rainbow	-11.9281
▁revealed	-11.9281
▁approximately	-11.9281
▁craft	-11.9281
▁firemen	-11.9282
▁invented	-11.9282
▁honorable	-11.9283
▁offence	-11.9283
▁Pinky	-11.9283
▁BOYS	-11.9283
▁Rial	-11.9283
▁abandoned	-11.9284
▁pantaloons	-11.9284
▁wailing	-11.9284
▁restless	-11.9285
▁mumbling	-11.9285
▁exception	-11.9285
▁slavery	-11.9285
▁illness	-11.9285
▁palm	-11.9286
▁impressed	-11.9286
▁boldly	-11.9286
▁talented	-11.9286
▁Dead	-11.9286
▁honk	-11.9286
▁quid	-11.9286
celle	-11.9288
▁bellow	-11.9288
▁latest	-11.9289
▁hail	-11.9289
▁practically	-11.9289
▁splashing	-11.9289
▁Find	-11.929
▁Dick	-11.929
Peters	-11.9291
▁ruined	-11.9292
▁Inter	-11.9292
▁Belle	-11.9292
▁fist	-11.9293
▁rage	-11.9294
▁perched	-11.9294
▁breakers	-11.9295
▁Nope	-11.9295
their	-11.9296
▁faintly	-11.9296
▁instantly	-11.9296
▁someplace	-11.9298
Have	-11.9298
▁Kay	-11.9298
▁behold	-11.9299
clearly	-11.93
▁wandering	-11.9303
▁loading	-11.9306
▁Wood	-11.931
may	-11.9311
▁repeatedly	-11.9314
▁targeting	-11.9316
sexual	-11.9318
▁usage	-11.9321
▁whistled	-11.9321
▁gathering	-11.9322
▁ketch	-11.9322
▁crashed	-11.9323
▁Wouldn	-11.9323
returns	-11.9323
▁trochee	-11.9323
▁widely	-11.9325
▁critical	-11.9325
▁kindness	-11.9326
▁brushing	-11.9328
▁cam	-11.9332
Ain	-11.9333
▁abou	-11.9339
▁DE	-11.9343
▁ensu	-11.9344
ö	-11.9345
▁ruler	-11.9346
▁jogg	-11.9349
▁Centre	-11.9351
dies	-11.9351
▁Base	-11.9351
eaux	-11.9352
▁Nicky	-11.9356
presso	-11.9356
▁prisoner	-11.9358
▁Tar	-11.9359
opped	-11.9363
▁fishes	-11.9366
mmy	-11.9368
▁marks	-11.9368
▁Affairs	-11.9368
▁walnuts	-11.9368
▁residents	-11.9368
umber	-11.9369
60	-11.9371
say	-11.9376
erry	-11.9376
▁praise	-11.938
4.4	-11.938
duke	-11.9381
ama	-11.9381
▁ducky	-11.9384
▁Monte	-11.9386
outed	-11.9389
▁insects	-11.9389
▁Whoa	-11.9391
▁kissing	-11.9392
▁thread	-11.9393
▁rent	-11.9394
▁mini	-11.9399
gie	-11.9403
▁peers	-11.9413
▁mumbles	-11.9416
5.4	-11.9419
▁Har	-11.942
qui	-11.9433
▁rates	-11.9436
▁Char	-11.9436
▁graphic	-11.9442
▁hitch	-11.9443
bear	-11.9445
birds	-11.9446
▁Dan	-11.9451
▁Paph	-11.9464
▁cons	-11.9465
base	-11.9466
▁playin	-11.9467
▁BC	-11.9467
rac	-11.9468
▁breathed	-11.9471
922	-11.9476
STON	-11.9479
▁doctors	-11.9481
▁alley	-11.9484
zi	-11.9484
ue	-11.9493
▁Twins	-11.9497
▁2008.	-11.9506
▁tan	-11.9512
His	-11.9517
******	-11.9518
▁relations	-11.9519
▁Exe	-11.952
▁cleaned	-11.9524
▁Heh	-11.9525
ware	-11.9528
▁strokes	-11.9529
▁eats	-11.9534
▁96	-11.9538
UCK	-11.954
▁backwards	-11.9541
▁loads	-11.9542
▁Trees	-11.9544
lè	-11.9566
rest	-11.9567
FF	-11.957
ENT	-11.9576
lmost	-11.958
▁sch	-11.9583
▁layer	-11.9588
▁Seem	-11.9598
▁bio	-11.9598
cats	-11.9603
▁contracts	-11.9606
▁collections	-11.9606
▁blossoms	-11.9608
ney	-11.9609
▁Gran	-11.9612
▁bon	-11.9613
▁Done	-11.9615
▁Yue	-11.9624
onne	-11.9626
distributed	-11.9627
MO	-11.9634
▁Die	-11.9637
such	-11.9641
_1	-11.9647
▁Stand	-11.965
ady	-11.9652
eep	-11.9652
▁screams	-11.9656
saw	-11.9657
▁Theis	-11.9663
▁(20	-11.9663
ologist	-11.9664
▁cells	-11.9672
▁tasks	-11.9676
▁Ring	-11.968
▁handy	-11.9685
▁Bon	-11.9688
▁Gott	-11.9689
▁pockets	-11.9691
▁Ana	-11.9699
neu	-11.97
▁tense	-11.97
lion	-11.9703
00.	-11.9711
▁metals	-11.9713
dry	-11.9716
▁spoons	-11.9717
ache	-11.9719
▁define	-11.9723
val	-11.9726
ken	-11.9727
Ch	-11.973
▁bottles	-11.9735
▁kites	-11.9743
7.5	-11.9768
San	-11.977
▁sob	-11.978
▁Bri	-11.9782
▁Croatia	-11.979
ram	-11.9796
ji	-11.9797
▁Dogs	-11.9798
▁Dun	-11.9809
EEN	-11.9811
ake	-11.9828
hot	-11.9828
band	-11.9834
TELL	-11.9836
OL	-11.9838
met	-11.9842
▁victims	-11.9849
ure	-11.9856
▁dre	-11.9861
▁understanding	-11.9866
▁dar	-11.9872
én	-11.9877
residential	-11.9883
ashed	-11.9887
▁Fin	-11.9894
Lo	-11.9899
uba	-11.9909
▁Pap	-11.9915
▁33	-11.9919
ously	-11.9921
itn	-11.9925
▁Nova	-11.9932
cla	-11.9937
▁rides	-11.9948
▁uncles	-11.9962
▁blankets	-11.9962
eno	-11.9962
▁pu	-11.9976
▁views	-11.9982
▁questioning	-11.9982
aul	-11.9988
loved	-11.999
▁Birds	-11.999
▁/	-11.9991
▁mates	-12.0008
▁horns	-12.0025
tru	-12.003
row	-12.0033
▁$=	-12.0034
▁44	-12.0035
----	-12.004
▁provinces	-12.0053
Mi	-12.0065
▁ador	-12.0074
headed	-12.0077
▁rep	-12.0096
hold	-12.0105
▁struggles	-12.0122
▁Fu	-12.0129
ester	-12.0135
▁pant	-12.0144
23	-12.0147
▁mule	-12.0178
▁taxi	-12.0179
▁aunt	-12.018
▁Democrat	-12.018
▁preparation	-12.0182
▁relative	-12.0185
▁image	-12.0185
▁400	-12.0186
▁bubble	-12.0186
▁brake	-12.0187
▁Ven	-12.0188
▁Sweet	-12.0188
▁bun	-12.019
▁Game	-12.019
nia	-12.0191
▁terrorist	-12.0191
▁amen	-12.0193
▁184	-12.0193
▁senator	-12.0194
ille	-12.0202
▁additional	-12.0205
▁opera	-12.0206
▁38	-12.0207
▁graph	-12.021
▁Gil	-12.022
▁mot	-12.0235
▁Bir	-12.0243
gether	-12.0247
▁70	-12.0247
▁85	-12.0254
EST	-12.0263
elle	-12.0267
handing	-12.0269
West	-12.0271
▁ew	-12.0273
ila	-12.0276
▁[11	-12.028
▁OR	-12.028
▁spoil	-12.0282
od	-12.029
▁raw	-12.0296
▁wrath	-12.031
▁glanc	-12.0312
▁huhu	-12.0313
▁pets	-12.0321
member	-12.0324
▁receiv	-12.0327
lines	-12.0329
▁yards	-12.0331
draws	-12.0334
guer	-12.0337
ichi	-12.0338
position	-12.0344
▁thrill	-12.0345
▁Dec	-12.0345
wise	-12.0347
[	-12.0349
view	-12.0349
cakes	-12.0349
lalight	-12.035
barrel	-12.0351
indicate	-12.0351
OOH	-12.0351
shirt	-12.0351
CHAPTER	-12.0351
Sometimes	-12.0351
Perhaps	-12.0351
Colin	-12.0351
February	-12.0351
December	-12.0352
November	-12.0352
Please	-12.0352
actually	-12.0352
crying	-12.0352
Jack	-12.0352
Maybe	-12.0352
Sorry	-12.0352
mouth	-12.0352
May	-12.0353
cock	-12.0355
person	-12.0355
full	-12.0355
▁embarrass	-12.0355
Once	-12.0357
▁shudder	-12.0357
▁sweep	-12.0358
▁disappoint	-12.0358
▁betray	-12.0358
beat	-12.0359
▁expand	-12.0359
tch	-12.0359
▁Woo	-12.0369
▁1954	-12.037
carrie	-12.0371
▁gobble	-12.0374
▁1956	-12.0374
▁guilt	-12.0375
▁stout	-12.0376
nflict	-12.0377
▁relate	-12.0377
▁passionate	-12.0378
ivar	-12.0378
nched	-12.0379
▁tradition	-12.0379
▁recommend	-12.038
▁glide	-12.038
▁Final	-12.0381
▁Kev	-12.0382
▁jack	-12.0382
▁confront	-12.0382
bol	-12.0382
ify	-12.0383
trophy	-12.0383
▁uncertain	-12.0383
▁punish	-12.0383
▁Step	-12.0383
▁flour	-12.0383
imploded	-12.0383
▁Cleveland	-12.0383
▁abroad	-12.0383
▁banquet	-12.0383
▁crisp	-12.0383
▁mischief	-12.0383
▁teeter	-12.0383
▁urban	-12.0383
▁worries	-12.0383
Chiasmocleis	-12.0383
IBLE	-12.0383
Scinax	-12.0383
▁1943	-12.0383
▁Adolf	-12.0383
▁Adolphus	-12.0383
▁Boleyn	-12.0383
▁Bulgaria	-12.0383
▁COMPANY	-12.0383
▁Cuninghame	-12.0383
▁Dynasty	-12.0383
▁Folcutt	-12.0383
▁García	-12.0383
▁Goldrush	-12.0383
▁Hampshire	-12.0383
▁Kojima	-12.0383
▁Measles	-12.0383
▁Meshkov	-12.0383
▁Micro	-12.0383
▁Nebula	-12.0383
▁Newfoundland	-12.0383
▁Nyx	-12.0383
▁OPENS	-12.0383
▁PARTY	-12.0383
▁PEOPLE	-12.0383
▁Rangy	-12.0383
▁Saskatchewan	-12.0383
▁Shigenobu	-12.0383
▁Shiomi	-12.0383
▁Society	-12.0383
▁Swedish	-12.0383
▁TREASURE	-12.0383
▁Technology	-12.0383
▁Tennessee	-12.0383
▁Toronto	-12.0383
▁Vizcarra	-12.0383
▁absurd	-12.0383
▁accurate	-12.0383
▁admiration	-12.0383
▁afloat	-12.0383
▁ahhah	-12.0383
▁antelopes	-12.0383
▁assailant	-12.0383
▁assault	-12.0383
▁calendar	-12.0383
▁celebration	-12.0383
▁communicate	-12.0383
▁culprit	-12.0383
▁dictionary	-12.0383
▁entreat	-12.0383
▁envy	-12.0383
▁gingham	-12.0383
▁kettle	-12.0383
▁license	-12.0383
▁lieutenant	-12.0383
▁offensive	-12.0383
▁patience	-12.0383
▁remembrance	-12.0383
▁routine	-12.0383
▁satisfy	-12.0383
▁skedaddle	-12.0383
▁skeleton	-12.0383
▁squeak	-12.0383
▁sunshine	-12.0383
▁technician	-12.0383
▁terrified	-12.0383
▁thorough	-12.0383
▁universal	-12.0383
▁universities	-12.0383
▁unpleasant	-12.0383
▁vivid	-12.0383
▁wrist	-12.0383
▁Gwen	-12.0383
▁Hiroshi	-12.0383
▁Marsden	-12.0383
▁Power	-12.0383
▁choir	-12.0383
▁cursive	-12.0383
▁injury	-12.0383
▁literally	-12.0383
▁shiny	-12.0383
▁telegraph	-12.0383
▁Flower	-12.0383
▁Front	-12.0383
▁oxen	-12.0383
▁Contest	-12.0383
▁Room	-12.0383
▁Topeka	-12.0383
▁alliance	-12.0383
▁liaison	-12.0383
▁spectators	-12.0383
▁tractor	-12.0383
▁treasure	-12.0383
▁wedding	-12.0383
▁coarse	-12.0383
▁ninth	-12.0383
▁Afterwards	-12.0383
▁grief	-12.0383
▁Goldberg	-12.0383
▁espresso	-12.0383
▁salute	-12.0383
▁genius	-12.0383
▁memories	-12.0383
▁Honor	-12.0383
▁Sigh	-12.0383
▁cathedral	-12.0383
▁droop	-12.0383
▁quote	-12.0383
▁spray	-12.0383
▁Bernard	-12.0383
▁Cairo	-12.0383
▁Standard	-12.0383
▁imagination	-12.0383
▁exchange	-12.0383
▁Clement	-12.0383
▁Larsen	-12.0383
▁comedian	-12.0383
▁Otherwise	-12.0383
▁existence	-12.0383
▁steamboat	-12.0383
▁misery	-12.0383
▁confidential	-12.0383
▁Sylvia	-12.0383
▁Hubert	-12.0383
▁tramp	-12.0383
▁Franklin	-12.0384
▁Regan	-12.0384
▁forensic	-12.0384
▁bitten	-12.0384
▁piggie	-12.0384
▁repent	-12.0384
falsetto	-12.0384
▁Ojibwe	-12.0384
▁lining	-12.0384
hanabat	-12.0384
▁aircraft	-12.0384
▁racket	-12.0384
▁WHY	-12.0384
▁1934	-12.0384
▁calves	-12.0384
▁dripping	-12.0384
▁1905	-12.0384
▁conquest	-12.0384
▁DOES	-12.0384
▁HOO	-12.0384
▁groceries	-12.0384
▁screeches	-12.0384
▁Susy	-12.0384
▁motive	-12.0384
▁spaghetti	-12.0384
▁parish	-12.0384
▁height	-12.0384
▁meanwhile	-12.0384
▁jetty	-12.0384
▁GUYS	-12.0384
▁bandaid	-12.0384
▁Clinton	-12.0384
▁Enough	-12.0384
▁Coach	-12.0385
▁Clothes	-12.0385
▁cabbage	-12.0385
▁CHAR	-12.0385
▁yahoo	-12.0385
▁grandma	-12.0385
▁Raki	-12.0385
▁paddle	-12.0385
▁slippery	-12.0385
▁ledger	-12.0385
▁surgeon	-12.0385
▁effective	-12.0385
▁buckle	-12.0385
▁Highway	-12.0385
▁Gator	-12.0385
▁AGCO	-12.0385
▁Private	-12.0385
▁composer	-12.0385
▁corporation	-12.0385
▁paragraph	-12.0385
▁seductive	-12.0385
▁Maryland	-12.0385
▁Terry	-12.0386
▁Corner	-12.0386
▁reform	-12.0386
▁exam	-12.0386
▁Lif	-12.0386
▁accidentally	-12.0386
▁promptly	-12.0386
▁excel	-12.0386
▁proper	-12.0386
▁Hughes	-12.0386
▁Moore	-12.0386
▁goose	-12.0386
▁Mette	-12.0386
▁Birk	-12.0387
▁machinery	-12.0387
▁Jacoby	-12.0387
▁Nicole	-12.0387
▁Fame	-12.0387
▁headache	-12.0387
▁announce	-12.0387
▁1896	-12.0387
▁replacement	-12.0387
▁correction	-12.0387
▁cab	-12.0387
▁tub	-12.0388
▁acquainted	-12.0388
▁Grove	-12.0388
▁suicide	-12.0388
▁coachman	-12.0388
▁Robinson	-12.0388
▁68	-12.0388
▁breathless	-12.0388
▁frozen	-12.0388
▁Super	-12.0388
▁Bert	-12.0389
▁Making	-12.0389
▁demonstrate	-12.0389
▁amazed	-12.0389
▁Disney	-12.0389
▁Third	-12.0389
▁wholesome	-12.0389
▁Molly	-12.0389
▁STAR	-12.0389
▁robert	-12.0389
▁Press	-12.039
▁Ladies	-12.039
▁township	-12.039
▁Train	-12.039
▁scent	-12.039
▁Billie	-12.039
▁sailor	-12.0391
▁EVERY	-12.0391
boo	-12.0391
▁paperwork	-12.0391
▁funds	-12.0391
woman	-12.0392
▁earlies	-12.0393
▁supplier	-12.0393
▁exit	-12.0393
▁Soviet	-12.0393
▁carbon	-12.0393
▁perch	-12.0393
▁[14	-12.0394
counting	-12.0394
▁cheating	-12.0394
Military	-12.0394
▁ju	-12.0394
▁flutter	-12.0395
▁beaten	-12.0395
▁joyfully	-12.0395
▁Real	-12.0395
▁ventured	-12.0396
▁Quite	-12.0396
▁fame	-12.0396
▁Solar	-12.0396
34	-12.0396
▁threatened	-12.0396
▁Brennan	-12.0397
odle	-12.0398
▁progressive	-12.0398
▁improved	-12.0398
telling	-12.0399
▁Cop	-12.0399
▁twine	-12.0399
▁stirring	-12.0399
▁Fred	-12.0399
▁tackle	-12.0399
▁swelling	-12.04
▁Key	-12.04
▁Lucens	-12.0401
▁Rule	-12.0401
▁Certainly	-12.0402
▁recover	-12.0402
▁genre	-12.0402
▁Tour	-12.0404
▁Parker	-12.0405
rough	-12.0405
▁resigned	-12.0405
▁experiences	-12.0405
▁Bank	-12.0405
▁realise	-12.0405
▁Madame	-12.0406
filler	-12.0407
▁recovered	-12.0408
▁oui	-12.0409
▁wasps	-12.0409
▁curly	-12.041
▁Gla	-12.041
▁shaken	-12.041
▁Deal	-12.0411
▁bears	-12.0411
▁plainly	-12.0412
▁sorrowful	-12.0414
▁pluck	-12.0415
▁excitedly	-12.0416
▁hurriedly	-12.0416
▁Hector	-12.0417
▁practised	-12.0418
▁FC	-12.0419
▁Alberta	-12.0419
▁THEY	-12.0419
▁Thad	-12.0419
▁Walk	-12.042
▁originally	-12.042
▁Sex	-12.042
coin	-12.0421
▁sailing	-12.0421
▁slop	-12.0421
▁celebrated	-12.0422
▁THEN	-12.0424
▁Ski	-12.0424
ei	-12.0424
▁authorities	-12.0427
▁Inv	-12.0427
▁screamed	-12.0429
▁scann	-12.043
▁borrowing	-12.043
▁brighter	-12.043
▁panting	-12.0431
▁lid	-12.0434
▁homeless	-12.0435
▁Won	-12.0435
touch	-12.0438
▁footballer	-12.0439
▁Lamb	-12.044
▁Te	-12.0442
▁[13	-12.0443
▁approaching	-12.0443
▁roughly	-12.0443
▁gosh	-12.0444
▁Mum	-12.0444
▁Cheers	-12.0446
▁mixing	-12.0451
▁elements	-12.0451
▁Revolutionar	-12.0451
▁parted	-12.0454
▁pope	-12.0456
▁ver	-12.0457
▁issued	-12.046
▁Kath	-12.0461
▁loser	-12.0462
▁Sale	-12.0464
▁Surely	-12.0465
held	-12.0467
▁stern	-12.0467
▁bob	-12.0467
▁circumstances	-12.0467
▁decades	-12.0467
▁Marks	-12.0467
▁Hart	-12.0468
▁graceful	-12.0468
▁sighed	-12.0469
▁budgeting	-12.0469
▁strangely	-12.047
▁Tea	-12.0475
▁warmly	-12.0479
uardians	-12.0486
▁seats	-12.0488
yl	-12.0489
▁grows	-12.0489
▁suggesting	-12.0489
▁rushing	-12.049
gen	-12.049
term	-12.049
risk	-12.0498
philippa	-12.0498
cal	-12.0505
▁fucked	-12.0507
▁pounding	-12.0507
▁grounds	-12.051
▁Burt	-12.051
HILDA	-12.0515
ould	-12.0515
▁mop	-12.0518
▁Hals	-12.0523
nu	-12.0527
▁Chile	-12.0527
iously	-12.0528
▁meow	-12.0528
▁amid	-12.0537
▁soil	-12.0538
▁frocks	-12.0539
▁oars	-12.0539
▁impact	-12.054
▁Sp	-12.0542
sure	-12.0542
▁operat	-12.0544
▁jumper	-12.0544
▁Pene	-12.0545
▁poorly	-12.0548
▁Scouts	-12.0563
▁scholars	-12.0563
▁measures	-12.0563
▁Area	-12.0568
▁quaver	-12.0568
▁preserve	-12.0569
▁braves	-12.0572
▁Col	-12.0578
▁lied	-12.0579
aro	-12.0581
ount	-12.0584
fer	-12.0586
▁rocked	-12.059
▁crop	-12.0594
liness	-12.0602
imme	-12.0608
▁smiles	-12.061
▁caterpillars	-12.0612
▁readers	-12.0613
▁selfish	-12.0617
▁details	-12.0636
▁prunes	-12.0636
▁swords	-12.0636
▁Guards	-12.0637
oul	-12.0638
▁Pan	-12.0638
▁Ice	-12.0639
▁Gr	-12.0641
six	-12.0642
▁Dai	-12.0647
▁blocked	-12.065
▁Economics	-12.0661
▁Sciences	-12.0661
▁instruments	-12.0661
▁skills	-12.0661
uthwestern	-12.0681
phin	-12.0686
ature	-12.069
ction	-12.0698
erie	-12.0702
▁fruits	-12.0707
▁slaves	-12.0707
▁citizens	-12.0709
7)	-12.0712
anuel	-12.0714
ánd	-12.072
▁remarks	-12.0721
▁(2	-12.0721
▁(3	-12.0722
part	-12.0722
laden	-12.0723
▁peas	-12.0724
▁planet	-12.0728
▁customs	-12.0735
▁Cro	-12.0745
▁heading	-12.0761
▁Iran	-12.0764
owed	-12.0768
▁growl	-12.0779
pending	-12.0792
bal	-12.0792
ope	-12.0795
▁snaps	-12.0811
▁tools	-12.0811
▁1986.	-12.0816
▁1987.	-12.0816
▁83	-12.0817
SH	-12.0819
▁dash	-12.0823
▁Full	-12.0823
▁humans	-12.0832
▁wasted	-12.0833
aught	-12.0842
atch	-12.0845
▁Lau	-12.0858
▁Pictures	-12.0858
▁Las	-12.0861
pur	-12.0865
post	-12.0867
ient	-12.0867
▁individuals	-12.0883
▁Creat	-12.0884
▁actors	-12.0889
▁97	-12.0897
fo	-12.0905
▁1959.	-12.0905
3.8	-12.0905
▁interfere	-12.0906
▁fro	-12.0909
▁ripe	-12.091
▁62	-12.0911
▁Marian	-12.0911
▁fatal	-12.0912
-1	-12.0913
▁sheets	-12.0917
▁Salt	-12.0918
▁MAR	-12.0923
▁voiced	-12.093
▁tro	-12.0932
RY	-12.0938
5.5	-12.0939
▁sentences	-12.0961
▁tires	-12.0962
▁Mari	-12.0963
▁interests	-12.0969
moving	-12.097
▁Marcel	-12.0971
oces	-12.0978
itz	-12.0981
▁caller	-12.0982
▁je	-12.0984
▁worms	-12.0984
▁crawls	-12.0985
▁obscure	-12.0989
▁MP	-12.1
▁cu	-12.1001
▁Lama	-12.1001
▁contents	-12.1007
▁engines	-12.101
▁dashe	-12.1012
ipping	-12.1016
later	-12.1034
TER	-12.104
pin	-12.1041
ible	-12.1043
á	-12.105
▁Item	-12.1056
▁thinkin	-12.1059
▁plot	-12.1059
shot	-12.106
▁senses	-12.1061
nin	-12.1063
▁brownies	-12.1068
▁Anna	-12.1069
crackling	-12.1084
▁bean	-12.1096
▁Ala	-12.1098
NO	-12.1108
HAD	-12.1109
▁bars	-12.111
▁1969.	-12.1112
com	-12.1115
▁Ton	-12.1124
▁Rai	-12.1138
▁mental	-12.1139
95	-12.1144
▁Baron	-12.1155
▁questioned	-12.1156
vision	-12.1162
Pin	-12.1169
▁Kin	-12.1181
ú	-12.1182
▁bows	-12.1189
▁heh	-12.1191
▁starr	-12.1192
▁lighting	-12.1197
acon	-12.1199
▁1991.	-12.1208
▁barks	-12.1219
▁SU	-12.1233
tens	-12.1234
í	-12.1238
ability	-12.125
ati	-12.1269
▁Ang	-12.1273
▁haste	-12.1279
▁trot	-12.1291
eller	-12.1296
zzle	-12.1305
▁shapes	-12.1308
▁anyways	-12.1317
▁DA	-12.1319
hr	-12.1324
▁Butch	-12.1325
ada	-12.1325
▁Awards	-12.1344
▁Jam	-12.1351
▁LOS	-12.1353
▁Wal	-12.1353
▁reviv	-12.1358
▁lawyers	-12.137
▁biting	-12.138
▁Nu	-12.138
▁Non	-12.1382
11	-12.1384
hole	-12.1385
▁LA	-12.1391
▁decisions	-12.1396
▁queens	-12.1397
▁grant	-12.1402
▁Fl	-12.1403
▁ruin	-12.1407
▁threat	-12.1409
▁identif	-12.1416
▁application	-12.1423
▁pancake	-12.1423
▁interface	-12.1423
▁48	-12.1423
▁bills	-12.1424
NY	-12.1424
ppe	-12.1424
▁mask	-12.1424
▁lantern	-12.1427
col	-12.1428
▁syllable	-12.1429
▁skate	-12.143
▁console	-12.143
▁asshole	-12.143
▁measure	-12.1431
▁riot	-12.1432
▁scholar	-12.1433
▁Scout	-12.1433
▁tissue	-12.1434
▁pos	-12.1434
▁grub	-12.1435
▁paddock	-12.1436
▁Mountain	-12.1437
▁guest	-12.1441
OWN	-12.1443
▁angel	-12.1445
▁Ross	-12.1458
Ro	-12.1461
▁Sá	-12.1462
titude	-12.1462
ella	-12.1463
stand	-12.1465
sley	-12.1469
▁arts	-12.1479
▁Tab	-12.1485
▁Naz	-12.1486
▁chuckle	-12.1486
last	-12.1497
called	-12.1499
▁1953	-12.1505
▁feat	-12.1509
open	-12.1514
▁1981.	-12.1515
fore	-12.1518
llery	-12.1529
▁dozens	-12.1529
12	-12.1533
▁wrap	-12.1533
sweets	-12.1535
▁fare	-12.1537
▁royal	-12.1537
▁hun	-12.1538
▁Mos	-12.1539
UE	-12.154
▁oop	-12.1549
boiled	-12.1556
ICE	-12.1557
leans	-12.1562
ture	-12.1564
▁react	-12.1568
Terr	-12.1579
▁Though	-12.1585
▁arrang	-12.1592
1964)	-12.1593
burg	-12.1594
mont	-12.1596
leep	-12.1596
eight	-12.1597
quarter	-12.1597
songwriter	-12.1598
▁invit	-12.1599
unintelligible	-12.1599
folk	-12.16
wealth	-12.16
yells	-12.16
JOHN	-12.16
shoes	-12.1601
giving	-12.1601
shouting	-12.1601
repeat	-12.1601
central	-12.1601
First	-12.1601
spirit	-12.1601
probably	-12.1602
October	-12.1602
mail	-12.1602
people	-12.1602
voice	-12.1602
something	-12.1602
▁gene	-12.1602
final	-12.1603
Neil	-12.1603
Never	-12.1603
week	-12.1603
chang	-12.1606
▁Universal	-12.1606
cast	-12.1606
▁industri	-12.1606
ademoiselle	-12.1607
▁clack	-12.1607
ekend	-12.1608
▁greet	-12.1609
▁resign	-12.1611
▁Pea	-12.1611
▁admire	-12.1612
Guy	-12.1613
kick	-12.1613
Bur	-12.1614
▁capture	-12.1614
▁approve	-12.1614
Say	-12.1615
▁ignore	-12.1616
pause	-12.1617
▁Burn	-12.1617
▁blaze	-12.1617
guy	-12.1618
▁1932	-12.1622
isha	-12.1622
rug	-12.1623
mple	-12.1623
ić	-12.1623
▁lure	-12.1624
▁urgent	-12.1624
▁fortunate	-12.1625
▁vertical	-12.1625
▁unfortunate	-12.1625
▁obvious	-12.1626
▁immediate	-12.1626
▁amuse	-12.1626
telephone	-12.1626
▁rapid	-12.1627
▁Italia	-12.1627
choo	-12.1628
▁Commission	-12.1628
▁Tibet	-12.1628
▁traditional	-12.1628
▁reel	-12.1629
▁mechanical	-12.163
nterior	-12.163
▁Michel	-12.1631
▁govern	-12.1632
hiladelphia	-12.1632
▁writin	-12.1632
▁entertain	-12.1632
▁elevat	-12.1632
▁scandal	-12.1632
▁Egypt	-12.1633
▁Dark	-12.1633
▁Express	-12.1633
▁astonish	-12.1633
▁scientific	-12.1633
▁Eagle	-12.1633
▁Craig	-12.1633
NNIE	-12.1633
▁Select	-12.1633
▁tinker	-12.1633
▁Saxon	-12.1633
▁BETTER	-12.1633
▁Barcelona	-12.1633
▁Kazakh	-12.1633
▁Rowntree	-12.1633
▁Zimbabwe	-12.1633
▁audience	-12.1633
▁dementia	-12.1633
Chardonney	-12.1633
Menthue	-12.1633
Tiercelin	-12.1633
▁(2016)	-12.1633
▁(2017)	-12.1633
▁BUSINESS	-12.1633
▁Belgium	-12.1633
▁Bobbie	-12.1633
▁CUT	-12.1633
▁Cardinal	-12.1633
▁Cocoamarsh	-12.1633
▁Dawlish	-12.1633
▁Deputies	-12.1633
▁Frederick	-12.1633
▁Hulk	-12.1633
▁Jonathan	-12.1633
▁Josceline	-12.1633
▁Joux	-12.1633
▁Judiciary	-12.1633
▁Labrador	-12.1633
▁Ministry	-12.1633
▁Minnesota	-12.1633
▁Mobile	-12.1633
▁Mukaiyama	-12.1633
▁Network	-12.1633
▁Nonnie	-12.1633
▁Oxfam	-12.1633
▁Potawatomi	-12.1633
▁Psych	-12.1633
▁Quebec	-12.1633
▁RUNNING	-12.1633
▁Raffael	-12.1633
▁Stevie	-12.1633
▁THOSE	-12.1633
▁Thornton	-12.1633
▁Trinidad	-12.1633
▁Unfortunately	-12.1633
▁WOMAN	-12.1633
▁Waysmith	-12.1633
▁Wolsey	-12.1633
▁Woodpecker	-12.1633
▁Yankee	-12.1633
▁absence	-12.1633
▁absorb	-12.1633
▁acrobat	-12.1633
▁animiles	-12.1633
▁biscuit	-12.1633
▁chorus	-12.1633
▁convenient	-12.1633
▁culvert	-12.1633
▁derrick	-12.1633
▁detective	-12.1633
▁eminence	-12.1633
▁emperor	-12.1633
▁endeavor	-12.1633
▁esquire	-12.1633
▁fatigue	-12.1633
▁fossil	-12.1633
▁franchise	-12.1633
▁halloween	-12.1633
▁harsh	-12.1633
▁hoarse	-12.1633
▁inhabitants	-12.1633
▁inscription	-12.1633
▁intimate	-12.1633
▁landlord	-12.1633
▁library	-12.1633
▁liquid	-12.1633
▁miracle	-12.1633
▁morsel	-12.1633
▁muscles	-12.1633
▁neglect	-12.1633
▁perspective	-12.1633
▁physics	-12.1633
▁policies	-12.1633
▁preliminar	-12.1633
▁principal	-12.1633
▁proposal	-12.1633
▁pterosaur	-12.1633
▁recognition	-12.1633
▁remote	-12.1633
▁revolt	-12.1633
▁satellite	-12.1633
▁seminar	-12.1633
▁tavern	-12.1633
▁thumb	-12.1633
▁tornado	-12.1633
▁unfair	-12.1633
▁Creek	-12.1633
▁Donkey	-12.1633
▁Eddie	-12.1633
▁Ethel	-12.1633
▁Jennings	-12.1633
▁Kazakhstan	-12.1633
▁adapt	-12.1633
▁alternate	-12.1633
▁creek	-12.1633
▁inhibit	-12.1633
▁pilot	-12.1633
▁sympathy	-12.1633
▁yield	-12.1633
▁Amaral	-12.1633
▁Connecticut	-12.1633
▁Gracie	-12.1633
▁ackack	-12.1633
▁fraction	-12.1633
▁random	-12.1633
▁recruit	-12.1633
▁thrust	-12.1633
▁Tower	-12.1633
▁facing	-12.1633
▁reception	-12.1633
▁zeal	-12.1633
▁Sottens	-12.1633
▁departure	-12.1633
▁Kaneko	-12.1633
▁Rhine	-12.1633
▁bloke	-12.1633
▁lemonade	-12.1633
▁Campbell	-12.1633
▁mystery	-12.1633
▁Development	-12.1633
▁Fiction	-12.1633
Peoria	-12.1633
stricken	-12.1633
▁Jill	-12.1633
▁Dinner	-12.1633
▁portrait	-12.1633
▁vital	-12.1633
journ	-12.1633
▁tasting	-12.1633
▁Bandaid	-12.1633
▁generation	-12.1633
▁goddamn	-12.1633
▁levey	-12.1633
▁stagger	-12.1633
▁Paddy	-12.1633
▁Calcul	-12.1633
▁amazement	-12.1633
▁submitted	-12.1633
▁argue	-12.1633
▁borough	-12.1633
▁properties	-12.1633
▁draft	-12.1633
▁twig	-12.1633
▁Desk	-12.1633
▁conscience	-12.1633
▁Bruce	-12.1633
▁Often	-12.1633
▁apron	-12.1633
▁dragging	-12.1633
▁labour	-12.1633
▁Birthday	-12.1633
▁Small	-12.1633
▁Space	-12.1633
▁timid	-12.1633
▁Garden	-12.1633
▁gravity	-12.1633
▁junk	-12.1633
▁molybdenum	-12.1633
▁Ché	-12.1633
▁garret	-12.1634
▁idle	-12.1634
▁1938	-12.1634
▁Pará	-12.1634
▁mutters	-12.1634
▁descent	-12.1634
▁tidy	-12.1634
▁impressive	-12.1634
▁uneasy	-12.1634
▁GREAT	-12.1634
▁hedge	-12.1634
▁Jewish	-12.1634
▁therapy	-12.1634
▁View	-12.1634
▁announcement	-12.1634
▁RINGS	-12.1634
▁Rogue	-12.1634
▁Holt	-12.1634
▁cardinal	-12.1634
▁reluctantly	-12.1634
ssouri	-12.1634
▁Diana	-12.1634
▁curiosity	-12.1634
▁dusk	-12.1634
▁jaw	-12.1634
▁ambition	-12.1634
▁destination	-12.1634
▁priority	-12.1634
▁Warsaw	-12.1634
▁Trish	-12.1634
▁Naval	-12.1634
▁kak	-12.1634
▁forgiven	-12.1634
▁pausing	-12.1634
▁pocketbook	-12.1634
▁tournament	-12.1634
▁Haiti	-12.1634
▁imaginary	-12.1634
▁chapter	-12.1634
▁Heather	-12.1634
▁hyper	-12.1634
▁Pardon	-12.1634
▁convict	-12.1634
▁Buddha	-12.1634
▁graz	-12.1634
▁WANT	-12.1634
▁resistance	-12.1635
▁reverse	-12.1635
▁GOING	-12.1635
▁thunder	-12.1635
▁gloss	-12.1635
▁icing	-12.1635
▁flask	-12.1635
▁cautiously	-12.1635
▁Fireman	-12.1635
▁toluene	-12.1635
▁dental	-12.1635
▁bargain	-12.1635
▁conceived	-12.1635
▁quaint	-12.1635
▁playground	-12.1635
▁Round	-12.1635
▁jug	-12.1635
▁merit	-12.1635
▁Money	-12.1636
▁SARAH	-12.1636
▁Tyumen	-12.1636
▁rhyme	-12.1636
▁ultimate	-12.1636
▁Poke	-12.1636
▁awareness	-12.1636
▁hurl	-12.1636
▁Obviously	-12.1636
▁vigorously	-12.1636
▁Armenia	-12.1636
▁Prague	-12.1636
▁Somehow	-12.1636
▁bowel	-12.1636
▁claw	-12.1636
▁indoors	-12.1636
▁tilt	-12.1636
▁tipped	-12.1636
▁Mice	-12.1636
▁sweat	-12.1636
▁Jew	-12.1636
▁consistent	-12.1636
▁Guster	-12.1637
▁statue	-12.1637
▁Wonderful	-12.1637
▁popularity	-12.1637
▁hover	-12.1637
▁alert	-12.1637
▁Honestly	-12.1637
▁1861	-12.1637
▁DUCK	-12.1637
▁patting	-12.1637
▁Richardson	-12.1637
▁Anti	-12.1637
▁Forever	-12.1637
▁Roll	-12.1638
ritage	-12.1638
▁fiddle	-12.1638
▁Nine	-12.1638
▁crooked	-12.1638
▁stray	-12.1638
▁enjoyment	-12.1638
▁surprising	-12.1639
▁pri	-12.1639
▁housekeeper	-12.1639
▁inches	-12.164
▁Fourth	-12.164
▁poker	-12.164
▁counties	-12.164
▁Devil	-12.164
▁TALES	-12.164
▁Pierre	-12.164
▁dignity	-12.164
▁ryan	-12.164
▁atoll	-12.164
▁rice	-12.164
▁ignorance	-12.1641
▁Strong	-12.1641
▁registered	-12.1641
▁61	-12.1642
▁Wolfe	-12.1642
▁Wise	-12.1642
▁56	-12.1642
brows	-12.1642
▁Tonight	-12.1642
▁Hugh	-12.1642
▁Squad	-12.1642
▁Duck	-12.1643
▁fitz	-12.1643
."—_	-12.1643
▁perfection	-12.1643
▁Annie	-12.1644
▁unlike	-12.1644
hood	-12.1644
▁colony	-12.1644
berger	-12.1644
▁Beautiful	-12.1644
▁Grampa	-12.1645
▁teasing	-12.1645
▁illustrated	-12.1645
▁scattered	-12.1645
▁scorn	-12.1645
▁fig	-12.1645
▁acquaintance	-12.1645
▁Stone	-12.1645
▁wealthy	-12.1645
▁momma	-12.1646
▁darkness	-12.1646
Mend	-12.1646
▁hound	-12.1646
▁distinctly	-12.1647
▁elton	-12.1647
▁heroes	-12.1647
▁medium	-12.1648
Harper	-12.1648
▁Dover	-12.1648
▁overtake	-12.1648
▁grill	-12.1648
▁justice	-12.1649
▁ease	-12.1649
oker	-12.1649
▁translate	-12.165
▁Fellow	-12.165
▁Top	-12.165
▁Milan	-12.1651
▁efficient	-12.1651
lée	-12.1651
thin	-12.1651
▁impatiently	-12.1651
▁complained	-12.1652
▁shivering	-12.1652
▁Found	-12.1652
▁iamb	-12.1652
▁PG	-12.1653
▁shelter	-12.1653
▁crumbs	-12.1653
▁forbidden	-12.1654
▁sweetest	-12.1654
▁flattered	-12.1655
▁Action	-12.1655
▁proceeding	-12.1655
enans	-12.1656
▁MU	-12.1656
▁dislike	-12.1658
▁Denis	-12.1658
▁greeted	-12.1658
▁informed	-12.1658
▁fry	-12.1658
▁dashing	-12.1659
▁thaw	-12.1659
▁hunger	-12.166
----------------	-12.166
▁gratefully	-12.1661
▁peck	-12.1661
▁Team	-12.1661
▁bond	-12.1662
▁stead	-12.1662
▁WHERE	-12.1662
▁hernia	-12.1663
▁Asian	-12.1663
▁safer	-12.1663
▁Box	-12.1663
▁Lion	-12.1663
▁correctly	-12.1664
▁seventh	-12.1664
▁admiral	-12.1665
▁Better	-12.1665
▁crosses	-12.1665
▁Eat	-12.1665
▁Paper	-12.1665
▁blooming	-12.1666
▁amend	-12.1668
▁separated	-12.1669
_2	-12.167
▁helpful	-12.167
train	-12.1671
▁Joy	-12.1672
▁beak	-12.1674
▁78	-12.1674
▁arrangements	-12.1675
▁siblings	-12.1676
▁rash	-12.1676
▁Pull	-12.1676
▁beef	-12.1676
▁desired	-12.1678
▁daytime	-12.1679
▁LAUGH	-12.1679
▁successfully	-12.168
▁billy	-12.1682
▁OLD	-12.1684
▁prey	-12.1684
▁zoom	-12.1685
unk	-12.1685
▁agricultural	-12.1686
▁Kat	-12.1686
▁inform	-12.1688
▁finishes	-12.1689
▁professionally	-12.1689
▁bobb	-12.1689
Walsh	-12.1691
▁collected	-12.1691
▁ec	-12.1694
▁belly	-12.1695
▁foundation	-12.1696
▁licked	-12.1698
▁probabilit	-12.1699
▁striped	-12.1699
▁whimpers	-12.17
▁Aah	-12.1702
▁[3.1	-12.1703
▁shooter	-12.1705
4.3	-12.1706
▁Thought	-12.1707
▁THEM	-12.1707
▁BED	-12.1708
arin	-12.1708
▁hum	-12.171
climbs	-12.1711
▁rating	-12.1711
▁iP	-12.1714
▁delivered	-12.1718
▁dreamy	-12.1718
wal	-12.1718
▁select	-12.172
▁reader	-12.1721
—_	-12.1721
▁foreign	-12.1723
▁Kir	-12.1724
▁fussing	-12.1725
▁spinn	-12.1725
▁raft	-12.1726
▁discussed	-12.1728
▁gung	-12.1729
▁fowls	-12.1729
ata	-12.1734
▁piers	-12.1735
OLUM	-12.1737
Par	-12.1738
▁blown	-12.1739
▁protesting	-12.174
upon	-12.1743
Pitt	-12.1751
hop	-12.1751
▁2.5	-12.1753
▁searching	-12.1755
helps	-12.1766
▁loop	-12.1766
bell	-12.1766
mills	-12.1769
▁crowded	-12.177
▁smells	-12.1772
▁reporter	-12.1772
poli	-12.1773
▁respected	-12.1778
▁permits	-12.1784
▁Amen	-12.1784
bells	-12.1787
▁3.5	-12.1788
▁filmed	-12.1791
▁Allen	-12.1793
▁Whoo	-12.1794
rances	-12.1797
▁Nov	-12.1801
rá	-12.1803
▁inner	-12.1805
▁undo	-12.1807
▁witch	-12.1811
▁pressing	-12.1817
type	-12.1818
oni	-12.183
▁deny	-12.183
▁links	-12.1833
▁snapp	-12.1834
roup	-12.1837
▁threats	-12.184
▁adopt	-12.1844
▁Saf	-12.1846
▁puzzled	-12.1853
▁1.1	-12.1855
▁glances	-12.1858
▁doc	-12.1858
▁Hav	-12.186
▁freed	-12.1865
▁Silver	-12.1865
▁preparations	-12.1867
▁aunts	-12.1868
▁Democrats	-12.187
▁Fun	-12.187
▁Heart	-12.1878
▁Sat	-12.1881
abella	-12.1888
▁siren	-12.1889
▁disasters	-12.1895
▁pistols	-12.1895
dale	-12.1901
▁restrain	-12.1902
▁1944	-12.1904
asks	-12.1918
▁burg	-12.1933
prompting	-12.1933
▁listener	-12.1934
▁squeals	-12.1938
rine	-12.1945
▁hats	-12.1949
▁Mill	-12.195
▁requests	-12.1952
▁debate	-12.1957
▁Hay	-12.1959
▁sour	-12.196
▁Dam	-12.196
▁Mid	-12.1962
lex	-12.1964
▁pit	-12.1965
▁camels	-12.1972
▁grunt	-12.1975
▁devices	-12.1979
▁musicians	-12.1979
▁engineers	-12.1983
ref	-12.1988
oma	-12.1991
ppl	-12.1995
▁Rad	-12.1996
▁PR	-12.1999
range	-12.2004
AM	-12.2004
NT	-12.201
eville	-12.2017
▁oranges	-12.202
▁estates	-12.2035
untie	-12.2038
▁emotions	-12.204
4.2	-12.2043
▁Matt	-12.2043
▁Taka	-12.205
▁rot	-12.2056
cept	-12.2057
ality	-12.2058
▁attache	-12.2065
mid	-12.2068
tsk	-12.2072
▁deriv	-12.2077
▁Gun	-12.2084
cup	-12.2084
▁promot	-12.2084
▁Bund	-12.2085
same	-12.2106
100	-12.2106
▁64	-12.211
▁limbs	-12.212
▁limits	-12.2122
▁pursue	-12.2133
nte	-12.2135
pper	-12.2138
monia	-12.2152
▁equals	-12.2153
—"	-12.2158
▁squ	-12.2162
otic	-12.2163
▁Ches	-12.2163
Un	-12.2169
▁acquire	-12.2171
boats	-12.2174
▁errors	-12.2178
ONS	-12.2178
▁Fly	-12.2182
▁fi	-12.2188
▁units	-12.219
▁Len	-12.2202
▁turkeys	-12.2206
▁onions	-12.2238
▁Hel	-12.224
▁Marsh	-12.2241
▁coughs	-12.2247
MADE	-12.225
▁gap	-12.225
▁tins	-12.2257
▁sources	-12.2264
▁delay	-12.2278
lica	-12.2299
gas	-12.2305
rp	-12.2317
wn	-12.2318
▁packages	-12.2319
UL	-12.2319
▁qui	-12.2326
▁sounding	-12.2326
▁im	-12.2328
dwin	-12.2338
▁Rac	-12.2339
lf	-12.2339
28	-12.2346
▁wel	-12.2347
ELL	-12.2348
ice	-12.2354
▁positions	-12.2362
▁aboard	-12.2368
▁gn	-12.2369
▁data	-12.2372
shop	-12.2378
wai	-12.2392
▁1959	-12.2407
nsu	-12.2409
▁187	-12.2421
RS	-12.2426
reak	-12.2432
▁killings	-12.244
▁forks	-12.245
▁travels	-12.2462
▁pac	-12.2464
▁Arr	-12.2466
zed	-12.2469
bur	-12.2472
▁convention	-12.2473
▁qu	-12.2478
bit	-12.2488
▁erases	-12.2495
SA	-12.2498
▁Macleods	-12.2498
▁newspapers	-12.2498
▁cages	-12.2498
une	-12.2502
sec	-12.2508
79	-12.2508
▁grease	-12.2509
lock	-12.2515
▁titles	-12.2528
uil	-12.2533
▁magazines	-12.2558
aver	-12.2565
thod	-12.2576
▁minded	-12.2584
3.9	-12.2586
▁que	-12.2594
gate	-12.2597
aving	-12.2598
è	-12.261
UP	-12.2611
▁mirrors	-12.2617
33	-12.2618
▁ramp	-12.2633
bar	-12.2652
ouncillor	-12.2655
▁challeng	-12.2657
▁Barr	-12.2662
▁goo	-12.2664
thic	-12.2666
▁Georgi	-12.267
▁rig	-12.2671
gasps	-12.2672
Her	-12.2674
chen	-12.2685
▁fe	-12.2685
▁0.	-12.2688
▁str	-12.2688
▁Jun	-12.2691
qua	-12.2693
▁ob	-12.2696
Persian	-12.2697
▁Bee	-12.2704
▁faction	-12.271
▁Whigs	-12.2711
▁slate	-12.2716
ternity	-12.2718
▁Whit	-12.2719
reservation	-12.2721
▁CA	-12.2735
▁sco	-12.2736
▁beard	-12.2737
▁Cam	-12.274
▁critic	-12.2741
▁evolve	-12.2743
atic	-12.2748
▁Hid	-12.2748
▁BU	-12.2762
pile	-12.2765
▁hotels	-12.2769
▁fee	-12.2776
bef	-12.2777
though	-12.2779
▁recogniz	-12.2786
▁Artist	-12.2817
turn	-12.2818
▁dan	-12.2819
▁Liber	-12.2824
▁bid	-12.2827
climb	-12.283
help	-12.2831
block	-12.2837
dings	-12.284
magnetic	-12.2842
▁barb	-12.2846
lves	-12.2848
4.7	-12.285
▁website	-12.2851
▁Spark	-12.2852
lay	-12.2854
accompanied	-12.2854
▁doubl	-12.2855
▁somersault	-12.2858
▁photograph	-12.286
▁subjects	-12.286
▁Kari	-12.2861
▁suggestion	-12.2862
▁frock	-12.2863
▁spear	-12.2864
▁link	-12.2864
▁spur	-12.2867
▁scissor	-12.287
▁Q	-12.287
bly	-12.2874
▁factor	-12.2886
ü	-12.2888
eating	-12.2889
▁Maid	-12.2891
want	-12.2892
▁topic	-12.2893
zen	-12.2893
▁leaders	-12.29
▁Sound	-12.2901
▁Note	-12.2908
▁authoriz	-12.2913
▁gri	-12.2915
neo	-12.2917
▁Nell	-12.2921
▁complaint	-12.2928
▁peer	-12.2932
eval	-12.2932
▁oar	-12.2933
armed	-12.2939
▁ted	-12.2945
▁55	-12.2947
▁NEED	-12.2948
care	-12.2954
▁Ser	-12.2965
▁Name	-12.2965
▁69	-12.2967
▁kn	-12.2972
▁architect	-12.2975
ECT	-12.298
65	-12.2985
▁BROWN	-12.2986
hey	-12.2991
▁rec	-12.2992
▁Gri	-12.2998
hmm	-12.3
face	-12.3003
▁publish	-12.3006
▁disturb	-12.301
▁disgust	-12.3011
▁proceed	-12.3012
▁masters	-12.3017
▁choices	-12.3018
snake	-12.3023
handle	-12.3023
▁brook	-12.3025
specially	-12.3025
järvi	-12.3026
GAR	-12.3027
insistent	-12.3027
Word	-12.3027
fried	-12.3027
WHERE	-12.3028
videotape	-12.3028
Better	-12.3029
suspect	-12.3029
Grand	-12.3029
Club	-12.303
|	-12.303
turtle	-12.303
Christmas	-12.303
meeting	-12.303
Right	-12.303
white	-12.303
first	-12.303
running	-12.303
wife	-12.303
flies	-12.3031
Would	-12.3031
cluele	-12.3031
maybe	-12.3031
whine	-12.3031
Two	-12.3031
watch	-12.3031
▁luxur	-12.3031
firmly	-12.3032
Hank	-12.3032
Pop	-12.3032
whispered	-12.3032
friendly	-12.3033
▁splash	-12.3033
seems	-12.3033
human	-12.3033
▁hollo	-12.3035
burn	-12.3036
uth	-12.3036
Tick	-12.3036
Take	-12.3036
▁overwhelm	-12.3036
Was	-12.3037
▁Ever	-12.3038
▁CARE	-12.3038
comp	-12.3038
▁piss	-12.3041
▁Vo	-12.3041
▁encourage	-12.3042
▁tremble	-12.3042
Dad	-12.3042
▁improve	-12.3042
▁flatter	-12.3043
See	-12.3043
pop	-12.3044
Lord	-12.3044
▁restore	-12.3044
ology	-12.3044
▁pierce	-12.3044
LOCK	-12.3046
pronounc	-12.3046
Many	-12.3046
earn	-12.3047
▁flush	-12.3047
▁Salva	-12.3047
haired	-12.3049
uther	-12.305
▁banne	-12.3051
coloring	-12.3051
▁1961	-12.3054
▁Wolf	-12.3055
▁froze	-12.3055
LAUGH	-12.3056
▁scoot	-12.3056
▁Beck	-12.3056
ère	-12.3057
▁bib	-12.3057
▁withdraw	-12.3058
uicide	-12.3058
▁Rick	-12.3058
almost	-12.3058
aggy	-12.3058
▁lecture	-12.3058
ä	-12.3059
▁virus	-12.3059
▁XVI	-12.306
orduroy	-12.306
match	-12.306
reliable	-12.306
abbage	-12.306
IGHT	-12.3061
▁MISS	-12.3061
▁guitar	-12.3061
▁Interpret	-12.3061
▁municipal	-12.3061
ockey	-12.3061
dialog	-12.3061
▁descend	-12.3061
tempo	-12.3061
▁confident	-12.3061
▁Sugar	-12.3062
▁Typ	-12.3062
▁edit	-12.3062
dbury	-12.3062
Î	-12.3062
▁Publish	-12.3062
▁trauma	-12.3062
TRUMAN	-12.3062
stution	-12.3062
ç	-12.3062
▁AWAY	-12.3062
▁Alicia	-12.3062
▁Anthony	-12.3062
▁Arkansas	-12.3062
▁Baxter	-12.3062
▁Blakeman	-12.3062
▁Canelones	-12.3062
▁Chuganji	-12.3062
▁Commerce	-12.3062
▁Connie	-12.3062
▁Consumer	-12.3062
▁DANNY	-12.3062
▁Dommartin	-12.3062
▁Doolittle	-12.3062
▁Drosophilidae	-12.3062
▁Dupree	-12.3062
▁Either	-12.3062
▁Energy	-12.3062
▁FACE	-12.3062
▁Follow	-12.3062
▁Fulton	-12.3062
▁Galaxy	-12.3062
▁Gambaccini	-12.3062
▁Hercules	-12.3062
▁Hirsch	-12.3062
▁Honeysuckle	-12.3062
▁JUVENILES	-12.3062
▁Kramatorsk	-12.3062
▁Lafferty	-12.3062
▁Lucifer	-12.3062
▁Lucky	-12.3062
▁Lynch	-12.3062
▁MICHELLE	-12.3062
▁MONKEY	-12.3062
▁Magazine	-12.3062
▁Mercedes	-12.3062
▁Monroe	-12.3062
▁Montilliez	-12.3062
▁Pawnee	-12.3062
▁Ralph	-12.3062
▁Ramsay	-12.3062
▁SCHOOL	-12.3062
▁SPRING	-12.3062
▁Screw	-12.3062
▁Sierra	-12.3062
▁Solomon	-12.3062
▁Staff	-12.3062
▁Statistic	-12.3062
▁Sterling	-12.3062
▁Student	-12.3062
▁TEMPLE	-12.3062
▁TWO	-12.3062
▁Tallahassee	-12.3062
▁Trujillo	-12.3062
▁Tucker	-12.3062
▁Yamazaki	-12.3062
▁acorn	-12.3062
▁administrator	-12.3062
▁advisor	-12.3062
▁ambulance	-12.3062
▁arithmetic	-12.3062
▁barricade	-12.3062
▁bewildered	-12.3062
▁bewilderment	-12.3062
▁bride	-12.3062
▁bulb	-12.3062
▁bureau	-12.3062
▁carpenter	-12.3062
▁certificate	-12.3062
▁circuit	-12.3062
▁cocaine	-12.3062
▁communities	-12.3062
▁crinkle	-12.3062
▁crude	-12.3062
▁deprive	-12.3062
▁describing	-12.3062
▁devoted	-12.3062
▁dimension	-12.3062
▁discreet	-12.3062
▁eldest	-12.3062
▁endeavour	-12.3062
▁enemies	-12.3062
▁evaluation	-12.3062
▁external	-12.3062
▁flicker	-12.3062
▁gruffly	-12.3062
▁hammock	-12.3062
▁hickory	-12.3062
▁hummocks	-12.3062
▁inkfishes	-12.3062
▁intervals	-12.3062
▁lafferty	-12.3062
▁lesbian	-12.3062
▁marvellous	-12.3062
▁mutual	-12.3062
▁narrative	-12.3062
▁opponent	-12.3062
▁parliament	-12.3062
▁participating	-12.3062
▁phonics	-12.3062
▁plague	-12.3062
▁prohibition	-12.3062
▁qualified	-12.3062
▁reindeer	-12.3062
▁serpent	-12.3062
▁shrewd	-12.3062
▁snail	-12.3062
▁spectacle	-12.3062
▁substance	-12.3062
▁suspens	-12.3062
▁terrier	-12.3062
▁transcript	-12.3062
▁universe	-12.3062
▁untidy	-12.3062
▁veranda	-12.3062
▁verdict	-12.3062
▁villain	-12.3062
▁warfare	-12.3062
▁woodpecker	-12.3062
▁Awesome	-12.3062
▁Bateman	-12.3062
▁Beauty	-12.3062
▁Blaine	-12.3062
▁Eight	-12.3062
▁Emergency	-12.3062
▁Gervassen	-12.3062
▁Kennedy	-12.3062
▁Monique	-12.3062
▁Wisconsin	-12.3062
▁casino	-12.3062
▁chieftain	-12.3062
▁goblin	-12.3062
▁instinctively	-12.3062
▁manipulat	-12.3062
▁novice	-12.3062
▁sheriff	-12.3062
▁tippet	-12.3062
▁vodka	-12.3062
▁Ceramic	-12.3062
▁Chavannes	-12.3062
▁Engineering	-12.3062
▁Johnnie	-12.3062
▁SPELL	-12.3062
▁comparison	-12.3062
▁confess	-12.3062
▁opportunities	-12.3062
▁ponies	-12.3062
▁steer	-12.3062
rcade	-12.3062
▁Agency	-12.3062
▁Syria	-12.3062
▁dentist	-12.3062
▁depth	-12.3062
▁quantities	-12.3062
gnens	-12.3062
née	-12.3062
▁ABC	-12.3062
▁Discover	-12.3062
▁Fibrian	-12.3062
▁blabber	-12.3062
▁commission	-12.3062
▁lamb	-12.3062
▁Ethan	-12.3062
▁Tsada	-12.3062
▁Vogel	-12.3062
▁Yamada	-12.3062
BODY	-12.3062
▁Lynn	-12.3062
▁Wendy	-12.3062
▁laundr	-12.3062
▁philanthropist	-12.3062
▁smack	-12.3062
▁Bureau	-12.3062
▁CLOSES	-12.3062
▁MUCH	-12.3062
▁Mumps	-12.3062
▁icicle	-12.3062
▁nickname	-12.3062
▁stadium	-12.3062
▁wrestler	-12.3062
▁SIR	-12.3062
▁falter	-12.3062
▁Whidb	-12.3062
▁saunter	-12.3062
▁slumber	-12.3062
▁Appeal	-12.3062
▁decorate	-12.3062
▁complex	-12.3062
▁Federation	-12.3062
▁donkey	-12.3062
▁Beyon	-12.3062
▁controversy	-12.3062
▁admission	-12.3062
▁bonfire	-12.3062
▁margin	-12.3062
▁recollect	-12.3062
▁eliminat	-12.3062
▁Jenni	-12.3062
▁Pazzaglia	-12.3062
▁battered	-12.3062
▁chamber	-12.3062
▁Wayne	-12.3062
▁suture	-12.3062
▁shrink	-12.3062
▁Palace	-12.3062
▁wolves	-12.3062
▁MOVE	-12.3062
THAN	-12.3062
▁punctuation	-12.3062
▁beggar	-12.3062
MLB	-12.3062
▁Nevada	-12.3062
▁XIV	-12.3062
▁outfit	-12.3062
▁shaving	-12.3062
▁godfather	-12.3062
▁prudent	-12.3062
▁nerve	-12.3062
▁Belfast	-12.3062
▁despised	-12.3062
▁division	-12.3062
LLOWS	-12.3062
▁hostess	-12.3062
▁surplus	-12.3062
▁hunhunh	-12.3062
▁chef	-12.3062
▁Apollo	-12.3062
▁ankle	-12.3062
▁corruption	-12.3062
▁helmet	-12.3062
▁salad	-12.3062
▁Protection	-12.3062
▁assistance	-12.3062
▁changies	-12.3062
▁infection	-12.3062
▁italian	-12.3062
▁muslin	-12.3062
▁Java	-12.3062
▁Gaskins	-12.3062
▁Legislature	-12.3062
▁truncata	-12.3062
▁barefoot	-12.3062
▁Bravo	-12.3062
▁Sharon	-12.3062
▁Store	-12.3062
▁Ruiz	-12.3062
▁Steve	-12.3062
▁FIRE	-12.3062
▁poppop	-12.3062
▁lightning	-12.3062
▁Cinderella	-12.3062
▁Trost	-12.3062
▁liking	-12.3062
▁educator	-12.3062
▁diplomatic	-12.3062
Anhalt	-12.3062
▁cranberry	-12.3063
▁considerably	-12.3063
▁rubbed	-12.3063
▁extraordinary	-12.3063
▁genie	-12.3063
▁rapture	-12.3063
▁invest	-12.3063
▁marten	-12.3063
▁arf	-12.3063
▁Report	-12.3063
▁1888	-12.3063
AAA	-12.3063
▁takin	-12.3063
▁Iranian	-12.3063
▁festival	-12.3063
▁Yoshino	-12.3063
▁weeping	-12.3063
▁transferred	-12.3063
▁1924	-12.3063
▁Socialist	-12.3063
▁Guam	-12.3063
▁aspect	-12.3063
▁acknowledge	-12.3063
▁password	-12.3063
▁masterpiece	-12.3063
▁Tribe	-12.3063
▁modest	-12.3063
▁Faction	-12.3063
hansk	-12.3063
▁Estad	-12.3063
▁surf	-12.3063
▁judgment	-12.3063
▁Perch	-12.3063
▁mangos	-12.3063
▁croak	-12.3063
▁1890	-12.3063
▁charities	-12.3063
▁Together	-12.3063
▁travelling	-12.3063
remember	-12.3063
▁travelled	-12.3064
▁contemptuously	-12.3064
▁Eisen	-12.3064
▁exile	-12.3064
▁technology	-12.3064
▁Trade	-12.3064
▁novelist	-12.3064
▁sunfish	-12.3064
▁waking	-12.3064
garet	-12.3064
▁Slayer	-12.3064
▁lemon	-12.3064
▁DAD	-12.3064
▁Gregg	-12.3064
▁freak	-12.3064
▁mink	-12.3064
▁SANTA	-12.3064
▁harmless	-12.3064
▁voce	-12.3065
LARS	-12.3065
▁sawmill	-12.3065
▁Venezuela	-12.3065
▁buckingham	-12.3065
▁Alstarnah	-12.3065
▁juncture	-12.3065
▁oxygen	-12.3065
▁persuade	-12.3065
▁rattling	-12.3065
▁worship	-12.3065
▁Riverside	-12.3065
▁strictly	-12.3065
▁subconsciously	-12.3065
▁continuously	-12.3065
▁touchdown	-12.3065
▁comprehension	-12.3065
▁GIRLS	-12.3065
▁scold	-12.3065
▁hopefully	-12.3065
zul	-12.3065
▁slack	-12.3066
▁Rover	-12.3066
▁Yost	-12.3066
▁clapping	-12.3066
▁glider	-12.3066
▁pow	-12.3066
▁deliberately	-12.3066
▁Rockas	-12.3066
▁eastward	-12.3066
▁Jamal	-12.3066
▁meaningless	-12.3066
▁julian	-12.3066
▁Christie	-12.3066
▁ditch	-12.3067
▁shady	-12.3067
▁Yup	-12.3067
▁assent	-12.3067
▁taxes	-12.3067
▁Ouch	-12.3067
▁Illustrations	-12.3068
▁blend	-12.3068
another	-12.3068
▁moth	-12.3068
ulens	-12.3068
▁presentation	-12.3068
▁Burton	-12.3068
▁possess	-12.3069
▁Seriously	-12.3069
▁anythin	-12.3069
▁wowie	-12.3069
▁Luke	-12.3069
▁Monkey	-12.3069
▁10%	-12.3069
▁gen	-12.3069
▁Gosh	-12.307
▁Manchester	-12.307
▁Paradise	-12.307
▁emphasis	-12.307
▁BBC	-12.307
▁waitress	-12.307
▁Neither	-12.307
▁LONG	-12.307
▁Lance	-12.307
▁suitable	-12.307
▁bonk	-12.3071
▁bait	-12.3071
▁Tales	-12.3071
▁Mountie	-12.3072
▁mingl	-12.3073
▁separately	-12.3074
▁Personally	-12.3074
▁Bando	-12.3074
uhu	-12.3074
▁requirement	-12.3074
▁endure	-12.3074
▁gloomy	-12.3075
▁Giovanni	-12.3075
▁Donneloye	-12.3075
▁giggling	-12.3075
▁transcribed	-12.3075
▁Mole	-12.3075
▁maiden	-12.3075
▁romance	-12.3075
▁obey	-12.3075
▁homework	-12.3076
ebarre	-12.3076
▁creepy	-12.3076
▁tomatoes	-12.3076
▁Kate	-12.3077
▁Archa	-12.3077
▁sweetness	-12.3077
▁51	-12.3077
▁lago	-12.3077
▁Poland	-12.3077
ano	-12.3078
▁daylight	-12.3078
▁reduced	-12.3078
▁1954)	-12.3079
▁Harun	-12.3079
▁garth	-12.308
▁sap	-12.308
▁trumpet	-12.308
myr	-12.308
▁speeches	-12.308
▁bush	-12.3081
▁dug	-12.3081
▁restored	-12.3081
witch	-12.3082
▁enormously	-12.3082
▁homeward	-12.3082
▁rendered	-12.3083
▁Dale	-12.3083
▁Send	-12.3083
▁Turner	-12.3083
▁thus	-12.3084
▁survived	-12.3085
▁Doc	-12.3085
▁missus	-12.3085
▁True	-12.3085
▁equally	-12.3086
▁genuine	-12.3086
▁disturbed	-12.3087
▁sandwiches	-12.3087
▁wobble	-12.3087
▁pissed	-12.3087
▁Jacques	-12.3087
wiping	-12.3089
▁dough	-12.3089
gave	-12.309
▁assumed	-12.309
▁toaster	-12.3091
▁Guess	-12.3091
▁Sul	-12.3091
▁Inside	-12.3091
▁hassy	-12.3092
▁mademoiselle	-12.3092
▁fury	-12.3092
▁ignored	-12.3094
▁spoiled	-12.3095
▁overcome	-12.3095
▁sweeping	-12.3096
▁blunt	-12.3096
▁XXI	-12.3096
▁compassion	-12.3096
▁hooker	-12.3096
▁Bang	-12.3097
▁nighttime	-12.3097
▁wider	-12.3097
▁"_	-12.3097
▁poisoned	-12.3098
▁distinguished	-12.3099
▁Fork	-12.3099
▁chairman	-12.3101
tmospher	-12.3103
▁unintelligible	-12.3103
▁52	-12.3104
▁Made	-12.3104
▁mission	-12.3104
▁87	-12.3105
▁2021)	-12.3106
▁swayed	-12.3106
▁tricky	-12.3106
▁taping	-12.3106
▁silently	-12.3106
▁rack	-12.3107
▁whine	-12.3109
▁committees	-12.3109
▁Days	-12.311
▁loaded	-12.3111
▁cower	-12.3111
▁spanking	-12.3112
▁engineering	-12.3113
▁sober	-12.3113
▁Bern	-12.3114
oping	-12.3114
▁3.8	-12.3114
▁circuses	-12.3114
▁Sally	-12.3116
▁achieved	-12.3116
aunt	-12.3116
▁marching	-12.3116
▁forgetting	-12.3117
▁deeds	-12.3118
▁Jen	-12.3119
▁preacher	-12.312
▁shocked	-12.3121
▁dryer	-12.3122
3.3	-12.3123
▁waved	-12.3124
▁firearm	-12.3127
▁chiefly	-12.3128
▁dread	-12.3128
▁chewing	-12.3128
▁suspected	-12.3129
curr	-12.3129
▁CH	-12.313
▁suits	-12.3132
spec	-12.3132
▁dancer	-12.3133
▁echo	-12.3133
avid	-12.3134
▁businesses	-12.3134
▁mixer	-12.3137
past	-12.3139
▁consequences	-12.3142
▁Late	-12.3142
▁outward	-12.3144
▁biograph	-12.3145
vić	-12.3147
▁brushed	-12.3149
▁overnight	-12.3153
ige	-12.3158
▁standin	-12.3159
▁Labs	-12.316
▁sealed	-12.316
ku	-12.316
▁Hesse	-12.3161
▁tune	-12.3163
▁fallin	-12.3164
▁considering	-12.3164
▁blessed	-12.3164
▁contented	-12.3166
iness	-12.3166
France	-12.3169
▁passages	-12.3173
▁freely	-12.3174
really	-12.3174
▁traveled	-12.3177
▁Brave	-12.3178
▁Noel	-12.3181
▁makeup	-12.3182
▁bells	-12.3183
kins	-12.3187
▁caves	-12.319
Billboard	-12.319
)"	-12.3191
▁Iowa	-12.3193
▁singsong	-12.3195
▁barked	-12.3195
▁autonom	-12.3196
order	-12.3197
rard	-12.3197
▁traveler	-12.3198
erasing	-12.3198
Memorial	-12.32
▁Canal	-12.32
▁softer	-12.3201
▁Avery	-12.3201
▁impos	-12.3203
dad	-12.3203
▁overall	-12.3203
▁Arabs	-12.3205
▁Systems	-12.3205
▁Variations	-12.3205
▁ancestors	-12.3205
▁rifles	-12.3205
andel	-12.3208
ATCH	-12.3209
▁hearth	-12.3213
lated	-12.3213
bert	-12.3213
▁alter	-12.3215
cour	-12.3217
lter	-12.3219
▁Boh	-12.322
▁Si	-12.3222
nay	-12.3227
▁kicking	-12.3229
▁gladly	-12.3231
▁hereby	-12.3232
▁edges	-12.3236
▁plugs	-12.3237
▁ferns	-12.3238
▁troops	-12.3238
▁Ker	-12.3242
▁doubtful	-12.3244
iel	-12.3248
▁bursting	-12.3249
▁fooled	-12.3249
▁boxer	-12.3253
▁heating	-12.3255
▁explaining	-12.3257
▁Pel	-12.3265
▁exploit	-12.3265
▁NA	-12.3267
raise	-12.3269
▁aft	-12.3271
anner	-12.3273
▁leads	-12.3273
▁stacking	-12.3277
tag	-12.3278
▁factors	-12.3284
9)	-12.3292
▁emotional	-12.3294
shaw	-12.3294
▁giggles	-12.3299
▁marketing	-12.33
▁riots	-12.3302
▁skates	-12.3302
▁syllables	-12.3302
▁violat	-12.3302
▁assholes	-12.3302
▁ruins	-12.3303
IST	-12.3305
▁trusted	-12.3307
▁mover	-12.3312
rope	-12.3315
▁Ag	-12.3328
sotto	-12.3329
▁39	-12.3334
▁dam	-12.3336
▁Galle	-12.334
ric	-12.3341
▁drying	-12.3347
▁MO	-12.3347
▁depend	-12.3351
▁Communit	-12.3353
▁workin	-12.3356
COV	-12.336
▁Kha	-12.3362
▁distribut	-12.3362
▁lakes	-12.3365
▁Animals	-12.3367
▁beasts	-12.3367
▁volunteers	-12.3367
took	-12.3369
▁outline	-12.3371
correct	-12.3377
▁heated	-12.338
07	-12.3384
shell	-12.3384
path	-12.3385
▁fellas	-12.3388
▁Qu	-12.3388
▁tart	-12.3398
Red	-12.3404
*******	-12.3405
▁bombs	-12.3407
▁bathing	-12.3436
▁strangers	-12.3439
▁PO	-12.3441
▁Burg	-12.3443
▁shave	-12.3445
▁landed	-12.3448
iate	-12.3456
▁carrie	-12.3457
clunks	-12.3466
▁46	-12.3469
▁Jad	-12.3477
▁cleaner	-12.3484
▁2.3	-12.3484
▁dee	-12.3487
▁Band	-12.3488
▁leagues	-12.3498
▁lamps	-12.3498
uro	-12.3499
mill	-12.3506
▁civilize	-12.3506
▁sleeves	-12.3512
▁SM	-12.3513
▁Thing	-12.3517
af	-12.3525
▁1965	-12.3534
▁adults	-12.3537
▁helper	-12.3538
▁Yu	-12.3541
1921	-12.355
strained	-12.3556
gni	-12.3561
▁photos	-12.3565
ndex	-12.3565
▁lighter	-12.357
▁(9	-12.3579
▁cleared	-12.3582
ré	-12.3584
▁anus	-12.3588
▁Daniels	-12.3598
▁principles	-12.3598
vill	-12.3599
hat	-12.3606
▁truthful	-12.3625
▁Historic	-12.3625
seven	-12.3627
▁organizations	-12.3632
▁forests	-12.364
▁continent	-12.3641
▁sca	-12.3642
▁inappropriate	-12.3643
rak	-12.3644
rated	-12.3646
▁greas	-12.365
▁comics	-12.3664
▁volumes	-12.3665
ARD	-12.367
orge	-12.3673
▁pots	-12.3674
▁supervis	-12.3674
ith	-12.3685
▁Springs	-12.3699
class	-12.3704
▁videotape	-12.3716
aves	-12.372
chu	-12.3724
▁Messi	-12.3726
▁clients	-12.3733
▁toad	-12.3744
▁babe	-12.3757
▁dudes	-12.3767
▁cheers	-12.377
▁Stre	-12.3785
bois	-12.3787
▁occasions	-12.3801
▁rags	-12.3806
▁bud	-12.3809
▁bounds	-12.381
oid	-12.3824
▁Lis	-12.3828
ringing	-12.3836
▁owes	-12.384
bed	-12.3841
▁tips	-12.3853
▁drivers	-12.3855
oval	-12.3861
▁grim	-12.387
▁managers	-12.3872
▁starter	-12.3876
rio	-12.3876
tial	-12.3884
omed	-12.389
▁conditions	-12.3904
▁scrape	-12.3905
▁1937	-12.3908
▁tint	-12.3916
▁mu	-12.3918
▁advantages	-12.3918
6.5	-12.3923
Bo	-12.3925
ERN	-12.3931
mad	-12.3934
AH	-12.3935
▁unw	-12.3936
▁Fra	-12.3937
▁bananas	-12.3938
elli	-12.3946
▁Ly	-12.3948
anilla	-12.3951
▁psycho	-12.3952
via	-12.397
▁bundles	-12.3973
▁Others	-12.3973
erial	-12.3974
hm	-12.399
itter	-12.4004
riz	-12.4027
▁Shan	-12.4044
▁remembering	-12.4058
BER	-12.4059
▁cou	-12.4061
KS	-12.4062
▁tad	-12.4064
▁campus	-12.4074
▁der	-12.408
▁Tang	-12.4086
▁whe	-12.4087
sper	-12.4089
rov	-12.4094
lice	-12.4099
41	-12.411
▁gates	-12.4111
▁WHI	-12.4148
▁dri	-12.4159
▁fished	-12.4166
nning	-12.417
▁PER	-12.4176
▁disguis	-12.4193
5.8	-12.4206
western	-12.4214
quin	-12.422
▁suggests	-12.4225
awa	-12.4233
dane	-12.4245
IAN	-12.4247
..."	-12.4253
▁dangers	-12.4258
lp	-12.4261
cie	-12.4262
arable	-12.4267
▁donut	-12.4273
▁battles	-12.429
▁Ban	-12.4292
dolph	-12.43
incorrect	-12.4305
▁lu	-12.4307
zing	-12.4308
ando	-12.432
▁WAL	-12.4321
▁crimes	-12.4326
reach	-12.4327
▁puttin	-12.433
▁Ol	-12.4332
14	-12.4332
▁0	-12.4337
pon	-12.4338
rico	-12.4339
▁Yam	-12.4353
opyright	-12.4354
▁wag	-12.4361
▁ru	-12.4363
▁guessed	-12.4397
▁liver	-12.441
▁Plan	-12.4423
atal	-12.4424
onia	-12.4426
rcol	-12.443
▁Mil	-12.445
▁Glen	-12.4454
▁Clav	-12.4454
cks	-12.4455
ATE	-12.4464
▁involv	-12.4472
hash	-12.4475
mine	-12.4476
▁tack	-12.4481
successfully	-12.4484
ben	-12.4486
▁strain	-12.4492
▁65	-12.4495
grunt	-12.4501
▁[12	-12.4501
object	-12.4503
aki	-12.4504
grunts	-12.4504
pole	-12.4506
osh	-12.4507
faced	-12.4508
▁stripe	-12.4516
▁hiccup	-12.4518
▁Blue	-12.4518
▁employee	-12.4519
▁Writer	-12.452
rising	-12.452
▁fraud	-12.4522
yan	-12.4524
▁troop	-12.4525
▁plug	-12.4526
▁permit	-12.4526
▁insect	-12.453
ILDA	-12.4531
▁Service	-12.4532
dged	-12.4534
31	-12.4536
▁fern	-12.4538
mite	-12.454
ebra	-12.4541
minded	-12.4542
▁furnish	-12.4553
▁stor	-12.4554
▁Kansa	-12.4565
▁exp	-12.4565
maid	-12.4566
everend	-12.4568
▁Juli	-12.4569
morial	-12.4571
19	-12.4572
▁medi	-12.4572
utonom	-12.4573
▁mode	-12.4576
ttle	-12.4585
▁Pl	-12.4591
dder	-12.4594
▁176	-12.4596
▁slap	-12.4602
▁circula	-12.4602
▁dip	-12.4603
▁complain	-12.4604
▁49	-12.4608
knocks	-12.4614
▁fighter	-12.4615
▁mak	-12.462
aking	-12.462
owa	-12.4633
itch	-12.464
▁upward	-12.464
▁unto	-12.4643
raffic	-12.4646
lick	-12.4648
TO	-12.4649
color	-12.4652
▁[$=	-12.4656
PL	-12.4665
speak	-12.4672
aya	-12.4673
hind	-12.4674
▁shiver	-12.4678
ridge	-12.4679
IP	-12.4679
heart	-12.4682
power	-12.4685
▁dwel	-12.469
whimpering	-12.4693
▁reproach	-12.4693
nicky	-12.4693
Candyman	-12.4693
Yverdon	-12.4693
Guess	-12.4695
WELL	-12.4695
whimpers	-12.4695
erases	-12.4695
Though	-12.4695
Lausanne	-12.4696
father	-12.4696
Stacy	-12.4696
Down	-12.4696
doves	-12.4696
Hurry	-12.4696
Ukrainian	-12.4696
crawl	-12.4696
apparently	-12.4696
knife	-12.4697
Shut	-12.4697
Old	-12.4697
Listen	-12.4697
People	-12.4697
include	-12.4697
Great	-12.4697
Tripp	-12.4697
French	-12.4697
smiling	-12.4697
penny	-12.4697
third	-12.4697
Keep	-12.4697
sometimes	-12.4697
glass	-12.4697
national	-12.4697
green	-12.4697
spread	-12.4697
movie	-12.4697
Black	-12.4697
always	-12.4698
▁(10	-12.4698
flying	-12.4699
Nothing	-12.4699
Fuck	-12.4699
leaves	-12.4699
wide	-12.4699
gun	-12.4699
▁86	-12.4701
lavi	-12.4701
Day	-12.4702
letter	-12.4703
minated	-12.4704
▁fascinat	-12.4704
▁[17	-12.4704
▁render	-12.4704
▁buzz	-12.4704
▁talent	-12.4705
▁McC	-12.4705
▁attracti	-12.4705
angular	-12.4706
▁multicultural	-12.4706
▁pal	-12.4707
▁Bowl	-12.4707
true	-12.4709
▁reduce	-12.4709
Gar	-12.4709
▁venture	-12.471
▁convince	-12.471
▁commence	-12.471
poor	-12.471
▁breed	-12.471
DO	-12.471
unit	-12.4711
bite	-12.4711
Stop	-12.4712
turned	-12.4714
poles	-12.472
▁Monke	-12.472
▁XV	-12.472
▁Certain	-12.472
▁Serious	-12.472
Year	-12.4721
▁CIRCU	-12.4721
▁brisk	-12.4722
▁Korea	-12.4722
▁grin	-12.4722
▁slim	-12.4722
odern	-12.4722
▁republic	-12.4723
pigot	-12.4725
MENT	-12.4725
▁ornament	-12.4725
nteresting	-12.4725
▁Count	-12.4725
▁slam	-12.4725
▁enchant	-12.4725
continu	-12.4725
ritique	-12.4725
Jo	-12.4725
AVE	-12.4726
▁awaken	-12.4726
▁blink	-12.4726
umpty	-12.4726
▁Person	-12.4726
itted	-12.4726
▁declare	-12.4727
hide	-12.4727
▁raisin	-12.4727
lving	-12.4727
▁utt	-12.4727
▁Tex	-12.4728
▁grocer	-12.4728
▁earnest	-12.4728
ondrous	-12.4728
eadow	-12.4728
▁fabric	-12.4728
▁Engine	-12.4728
▁XII	-12.4728
▁enthusias	-12.4728
▁acquit	-12.4728
▁sovereign	-12.4728
▁Nei	-12.4728
č	-12.4728
▁cinema	-12.4728
cold	-12.4728
▁Pazzag	-12.4728
nchez	-12.4728
▁AGA	-12.4728
▁auction	-12.4728
▁Flore	-12.4728
▁FAIR	-12.4728
â	-12.4728
▁Dompierre	-12.4728
▁Goldsmith	-12.4728
▁JACK	-12.4728
▁corpse	-12.4728
▁excursion	-12.4728
▁merchant	-12.4728
▁nephew	-12.4728
COOPER	-12.4728
Chavornay	-12.4728
Chestnut	-12.4728
Dalbergia	-12.4728
HUMMING	-12.4728
Imagine	-12.4728
cyclist	-12.4728
exasperat	-12.4728
rtuous	-12.4728
sponsibilities	-12.4728
spress	-12.4728
à	-12.4728
▁(2015)	-12.4728
▁988)	-12.4728
▁Abdel	-12.4728
▁Alabama	-12.4728
▁Alejandro	-12.4728
▁Alliance	-12.4728
▁Anoctah	-12.4728
▁Answer	-12.4728
▁Atlanta	-12.4728
▁BABY	-12.4728
▁BATH	-12.4728
▁Barbara	-12.4728
▁Beatrice	-12.4728
▁Beijing	-12.4728
▁Bubba	-12.4728
▁Bunkie	-12.4728
▁Cunningham	-12.4728
▁Dennis	-12.4728
▁Duflo	-12.4728
▁EDITH	-12.4728
▁Eclagnens	-12.4728
▁Ecuador	-12.4728
▁Fantastic	-12.4728
▁Fitzgerald	-12.4728
▁Flycatcher	-12.4728
▁Fontanezier	-12.4728
▁Fortunately	-12.4728
▁Gavà	-12.4728
▁Gippsland	-12.4728
▁Goumoëns	-12.4728
▁HORSE	-12.4728
▁Hampton	-12.4728
▁Holck	-12.4728
▁JULIA	-12.4728
▁Jellyfish	-12.4728
▁Judge	-12.4728
▁Kelantan	-12.4728
▁LAURA	-12.4728
▁Lanchester	-12.4728
▁Language	-12.4728
▁Leslie	-12.4728
▁MAGIC	-12.4728
▁MISTAKE	-12.4728
▁MUSIC	-12.4728
▁Marcia	-12.4728
▁Masakuni	-12.4728
▁Massacre	-12.4728
▁Miyamoto	-12.4728
▁Morticia	-12.4728
▁Muslim	-12.4728
▁NEVER	-12.4728
▁Neptune	-12.4728
▁Nestlé	-12.4728
▁Nevertheless	-12.4728
▁Nicatoos	-12.4728
▁OFFERED	-12.4728
▁Oedipus	-12.4728
▁Ohoolee	-12.4728
▁Okinawa	-12.4728
▁PARTNER	-12.4728
▁Parlor	-12.4728
▁Peacocke	-12.4728
▁Piedmont	-12.4728
▁Porgie	-12.4728
▁Ratcliffe	-12.4728
▁Relax	-12.4728
▁René	-12.4728
▁Rhodesia	-12.4728
▁Rhonda	-12.4728
▁Romairon	-12.4728
▁Rovray	-12.4728
▁SHOW	-12.4728
▁SWEET	-12.4728
▁Scissor	-12.4728
▁Scotia	-12.4728
▁Semenza	-12.4728
▁Snyder	-12.4728
▁Spaniard	-12.4728
▁Species	-12.4728
▁Stupid	-12.4728
▁Swahili	-12.4728
▁THOUGHT	-12.4728
▁Takahara	-12.4728
▁Tehran	-12.4728
▁Tekirdağ	-12.4728
▁Temperance	-12.4728
▁Teraoka	-12.4728
▁Tomatoes	-12.4728
▁Tévenon	-12.4728
▁Uegaki	-12.4728
▁YOUNG	-12.4728
▁Yamamoto	-12.4728
▁Zhadan	-12.4728
▁accelerat	-12.4728
▁admirabl	-12.4728
▁batteries	-12.4728
▁behaving	-12.4728
▁behaviour	-12.4728
▁bribe	-12.4728
▁brooch	-12.4728
▁burrow	-12.4728
▁clarinet	-12.4728
▁cliff	-12.4728
▁colleague	-12.4728
▁constellation	-12.4728
▁contrary	-12.4728
▁countenance	-12.4728
▁defensive	-12.4728
▁devotion	-12.4728
▁eternal	-12.4728
▁eugenioi	-12.4728
▁filth	-12.4728
▁finance	-12.4728
▁fingernail	-12.4728
▁grandeur	-12.4728
▁gullies	-12.4728
▁implement	-12.4728
▁impulse	-12.4728
▁invisible	-12.4728
▁jellyfishes	-12.4728
▁juggling	-12.4728
▁jurisdiction	-12.4728
▁lollipop	-12.4728
▁manufacturing	-12.4728
▁mischievous	-12.4728
▁monitor	-12.4728
▁petition	-12.4728
▁physician	-12.4728
▁possibilities	-12.4728
▁prescribe	-12.4728
▁proportion	-12.4728
▁prosopagnosia	-12.4728
▁prospect	-12.4728
▁protein	-12.4728
▁pseudonym	-12.4728
▁remorse	-12.4728
▁retorted	-12.4728
▁retrieve	-12.4728
▁scarecrow	-12.4728
▁sequel	-12.4728
▁shield	-12.4728
▁smelt	-12.4728
▁stimulus	-12.4728
▁sturdy	-12.4728
▁theoretical	-12.4728
▁unique	-12.4728
▁violence	-12.4728
▁violets	-12.4728
▁virtue	-12.4728
▁wheelbarrow	-12.4728
ophile	-12.4728
satisfactory	-12.4728
ś	-12.4728
▁AFTER	-12.4728
▁CHILDREN	-12.4728
▁Manager	-12.4728
▁SEARCH	-12.4728
▁USSR	-12.4728
▁chariot	-12.4728
▁clang	-12.4728
▁creaking	-12.4728
▁decelerat	-12.4728
▁descendants	-12.4728
▁knelt	-12.4728
▁mbbm	-12.4728
▁mirth	-12.4728
▁particulates	-12.4728
▁rewind	-12.4728
▁spelt	-12.4728
▁unaware	-12.4728
▁uncommon	-12.4728
ecki	-12.4728
▁Adventure	-12.4728
▁Angela	-12.4728
▁Angeli	-12.4728
▁Prefecture	-12.4728
▁Roosky	-12.4728
▁apology	-12.4728
▁centimeters	-12.4728
▁cherish	-12.4728
▁eligible	-12.4728
▁historian	-12.4728
▁kingdom	-12.4728
▁urns	-12.4728
▁vault	-12.4728
▁Slowly	-12.4728
crete	-12.4728
▁Accept	-12.4728
▁Hitler	-12.4728
▁audio	-12.4728
▁creaks	-12.4728
▁stabbed	-12.4728
▁Definitely	-12.4728
▁JANE	-12.4728
▁filter	-12.4728
▁Geneva	-12.4728
▁bashful	-12.4728
▁stunt	-12.4728
▁thief	-12.4728
▁vampire	-12.4728
▁engrav	-12.4728
▁Colbert	-12.4728
▁Fight	-12.4728
▁zebra	-12.4728
▁spider	-12.4729
▁thither	-12.4729
▁Hyacinth	-12.4729
▁Testa	-12.4729
▁confusion	-12.4729
▁constitute	-12.4729
▁facilities	-12.4729
▁GLAD	-12.4729
▁Urgh	-12.4729
▁psychiatrist	-12.4729
▁survivors	-12.4729
▁Cancer	-12.4729
▁Storm	-12.4729
▁divine	-12.4729
▁Vermont	-12.4729
▁brood	-12.4729
▁obstinate	-12.4729
Johann	-12.4729
▁Enjoy	-12.4729
▁LETTER	-12.4729
▁jeffersonian	-12.4729
▁precinct	-12.4729
▁prosecution	-12.4729
▁philosophical	-12.4729
▁timber	-12.4729
▁untied	-12.4729
baldi	-12.4729
▁casual	-12.4729
▁dingdong	-12.4729
▁quantity	-12.4729
▁wrestling	-12.4729
▁Ridge	-12.4729
▁cockatoo	-12.4729
▁priorities	-12.4729
▁Collegi	-12.4729
▁Slim	-12.4729
▁lodging	-12.4729
▁Arnex	-12.4729
▁humour	-12.4729
▁Donbas	-12.4729
▁Pollard	-12.4729
▁extensive	-12.4729
▁Crossfire	-12.4729
▁Daisy	-12.4729
▁Saragi	-12.4729
▁Steel	-12.4729
▁civilization	-12.4729
▁Hesston	-12.4729
▁captivity	-12.4729
▁detache	-12.4729
▁Wilson	-12.4729
▁drummer	-12.4729
▁Cyprus	-12.4729
▁establishment	-12.4729
▁squad	-12.4729
▁wrench	-12.4729
▁Salmon	-12.4729
▁crew	-12.4729
▁poverty	-12.4729
▁Emir	-12.4729
▁Magnu	-12.4729
▁offense	-12.4729
▁contribution	-12.4729
▁sovereignty	-12.4729
▁Fool	-12.4729
▁yoyo	-12.4729
▁Singh	-12.4729
▁MORE	-12.4729
▁Abbas	-12.4729
▁EVEN	-12.4729
▁bullshit	-12.4729
▁temple	-12.4729
▁temptation	-12.4729
▁whittle	-12.4729
▁molecul	-12.4729
▁Colombia	-12.4729
Course	-12.4729
ialogue	-12.4729
▁spiritual	-12.4729
▁Jordan	-12.4729
▁Medal	-12.4729
▁goshawk	-12.4729
▁mudhole	-12.4729
▁Whistler	-12.4729
▁$500	-12.4729
▁radioactive	-12.4729
mademoiselle	-12.4729
▁HAPPY	-12.4729
▁HBO	-12.4729
▁footsteps	-12.4729
▁vicious	-12.4729
▁flashlight	-12.4729
▁Gilles	-12.4729
▁froggie	-12.4729
▁1908	-12.4729
▁peasant	-12.4729
stock	-12.4729
▁poach	-12.4729
▁expans	-12.4729
▁misbehave	-12.4729
▁moron	-12.4729
▁Shereen	-12.4729
▁Philippe	-12.4729
▁Gamble	-12.4729
▁brew	-12.4729
▁Landsberg	-12.4729
▁Oslo	-12.4729
▁gnaw	-12.4729
▁observation	-12.4729
SAID	-12.4729
▁Magic	-12.4729
▁panther	-12.4729
▁Castle	-12.4729
▁HAND	-12.4729
mimick	-12.4729
▁(1973)	-12.4729
▁enterprise	-12.4729
▁homesickness	-12.4729
▁documentary	-12.4729
▁Goddammit	-12.4729
▁1923	-12.4729
▁unsuccessful	-12.4729
▁Grandpa	-12.4729
▁strengthened	-12.4729
▁spinach	-12.4729
▁Todd	-12.473
▁cleanliness	-12.473
▁butterflies	-12.473
▁Egyptian	-12.473
▁Kazu	-12.473
commun	-12.473
▁metropolitan	-12.473
▁1920	-12.473
▁padded	-12.473
▁sugarcane	-12.473
▁hockey	-12.473
▁Vaug	-12.473
▁Jock	-12.473
▁jury	-12.473
▁unbelievable	-12.473
▁blah	-12.473
▁Riley	-12.473
purity	-12.473
▁blueberry	-12.473
▁WiR	-12.473
▁regiment	-12.473
▁blup	-12.473
▁comfortably	-12.473
▁apologies	-12.473
collision	-12.473
▁quarterback	-12.473
▁walnutting	-12.473
▁Funny	-12.473
▁defence	-12.473
▁YEARS	-12.473
▁Kirk	-12.473
▁conviction	-12.473
▁bookworm	-12.473
▁1913	-12.473
▁glare	-12.473
▁hypocrite	-12.473
▁2024	-12.473
▁attendant	-12.473
▁profile	-12.473
▁tonic	-12.473
izzy	-12.4731
ajan	-12.4731
▁Production	-12.4731
▁confrontation	-12.4731
▁Careful	-12.4731
▁Rhy	-12.4731
▁partnership	-12.4731
april	-12.4731
▁VIP	-12.4731
▁Michelle	-12.4731
▁riddle	-12.4731
▁PUP	-12.4731
melia	-12.4731
▁messenger	-12.4731
▁dedicate	-12.4731
▁Dunno	-12.4731
wich	-12.4731
▁motionless	-12.4731
▁Porto	-12.4731
▁(2014)	-12.4731
▁1918	-12.4732
usbee	-12.4732
▁Dumpty	-12.4732
▁wax	-12.4732
AIDS	-12.4732
▁eaves	-12.4732
▁finalist	-12.4732
▁reactor	-12.4732
▁Hakeem	-12.4732
▁Previously	-12.4732
▁astronaut	-12.4732
▁collapse	-12.4732
▁vertebrae	-12.4732
▁Eduard	-12.4732
▁HELP	-12.4732
▁Negro	-12.4732
▁Tallula	-12.4732
▁Vienna	-12.4732
▁WATER	-12.4732
▁dissolve	-12.4732
▁gratitude	-12.4732
▁physicist	-12.4732
▁primitive	-12.4732
▁Tsu	-12.4732
▁Dirt	-12.4732
▁rosewood	-12.4732
▁Television	-12.4732
▁advertisement	-12.4732
▁Pickle	-12.4732
ulous	-12.4732
▁Harold	-12.4732
▁valve	-12.4732
▁printers	-12.4733
▁dummy	-12.4733
▁foul	-12.4733
▁remarkable	-12.4733
▁Harrison	-12.4733
▁Human	-12.4733
▁LIVE	-12.4733
▁grandpa	-12.4733
▁Whoever	-12.4733
▁waist	-12.4733
▁Stamp	-12.4733
▁Peng	-12.4733
▁poachers	-12.4733
▁yuck	-12.4733
▁Sweetie	-12.4733
▁Shh	-12.4733
▁Wales	-12.4733
▁trapped	-12.4733
▁hoop	-12.4733
▁Bran	-12.4733
▁WON	-12.4734
▁headquarter	-12.4734
▁endorsed	-12.4734
▁lobe	-12.4734
▁Gold	-12.4734
▁bunk	-12.4734
▁Scottish	-12.4734
▁specialty	-12.4734
▁Luis	-12.4735
▁enable	-12.4735
▁Cosmo	-12.4735
▁mister	-12.4735
▁plumes	-12.4735
▁Swan	-12.4735
▁swell	-12.4735
djustment	-12.4735
▁fondness	-12.4735
▁photographer	-12.4735
▁Building	-12.4736
▁Tibetan	-12.4736
▁slime	-12.4736
▁disposition	-12.4736
▁devastated	-12.4736
▁tits	-12.4736
▁hub	-12.4736
▁witnesses	-12.4736
▁inventor	-12.4736
▁interior	-12.4736
▁script	-12.4736
▁Sears	-12.4736
▁maam	-12.4737
ssums	-12.4737
▁vary	-12.4737
▁Fish	-12.4737
▁concluded	-12.4737
▁participated	-12.4737
▁tacky	-12.4737
does	-12.4737
▁Pick	-12.4738
▁Sleep	-12.4738
▁VIII	-12.4738
▁(14	-12.4738
▁woes	-12.4738
▁communication	-12.4738
▁Alfredo	-12.4738
▁absent	-12.4738
▁shift	-12.4738
▁engagement	-12.4738
▁soberly	-12.4738
▁lyin	-12.4738
▁springtime	-12.4738
▁hace	-12.4738
▁93	-12.4739
icles	-12.4739
▁Large	-12.4739
▁Fisher	-12.4739
icular	-12.4739
▁resume	-12.4739
argh	-12.4739
▁3.1	-12.4739
▁boyhood	-12.4739
▁Meet	-12.4739
stride	-12.474
ury	-12.474
▁Hour	-12.474
▁Cover	-12.474
▁Stories	-12.474
▁4.5	-12.474
▁Aires	-12.474
▁copied	-12.474
▁Finn	-12.474
▁Evette	-12.474
▁Guer	-12.474
▁robbed	-12.474
▁lease	-12.474
rift	-12.474
▁Sylv	-12.474
▁Frei	-12.4741
▁Start	-12.4741
▁invaded	-12.4741
▁rejoiced	-12.4741
▁Hiya	-12.4741
ieur	-12.4741
▁Desp	-12.4741
▁1961)	-12.4741
▁COLD	-12.4742
▁smother	-12.4742
▁EFF	-12.4742
▁Sheila	-12.4742
▁89	-12.4742
▁Walter	-12.4742
▁1956)	-12.4743
▁alleviat	-12.4743
Temple	-12.4743
▁elsewhere	-12.4743
▁acro	-12.4743
▁Hamburg	-12.4744
▁Howard	-12.4744
▁Victory	-12.4744
▁Ghost	-12.4744
▁holly	-12.4744
▁BEST	-12.4744
number	-12.4744
ounty	-12.4745
▁accomplished	-12.4745
▁unlocked	-12.4745
▁henry	-12.4745
▁realistic	-12.4745
▁drowning	-12.4745
▁Soft	-12.4745
▁Cut	-12.4746
▁repel	-12.4746
▁induce	-12.4746
▁fifteenth	-12.4746
lack	-12.4747
▁digni	-12.4747
▁followers	-12.4747
▁slash	-12.4747
▁gee	-12.4747
▁54	-12.4747
nasal	-12.4748
▁departed	-12.4749
▁haunted	-12.4749
▁tempted	-12.4749
▁Sort	-12.4749
▁backhand	-12.4749
▁fragrant	-12.4749
▁chirping	-12.475
ATHER	-12.475
▁shaved	-12.4751
▁1955)	-12.4751
▁Due	-12.4751
▁encouraged	-12.4752
▁(17	-12.4752
▁Englishman	-12.4752
▁chewy	-12.4752
▁pup	-12.4753
▁uprising	-12.4753
▁Ald	-12.4754
▁shivered	-12.4754
500	-12.4754
▁soaked	-12.4754
▁cheaper	-12.4754
▁stinking	-12.4755
▁Site	-12.4755
ylan	-12.4755
▁captured	-12.4755
▁chuckled	-12.4755
▁84	-12.4756
▁downtown	-12.4756
▁thankfully	-12.4756
named	-12.4756
toe	-12.4757
zack	-12.4757
▁eighth	-12.4758
▁echoed	-12.4758
▁complaining	-12.4758
▁perpe	-12.4759
▁womb	-12.4759
▁disgusting	-12.476
▁pear	-12.476
▁shutting	-12.4761
▁CAREER	-12.4761
▁chatter	-12.4761
_3	-12.4761
▁Swing	-12.4762
▁lifetime	-12.4762
▁carby	-12.4762
▁ballroom	-12.4762
▁couches	-12.4762
aka	-12.4763
▁Loy	-12.4763
▁expectation	-12.4764
▁snapping	-12.4764
96	-12.4764
▁strongest	-12.4765
▁clue	-12.4765
▁chatt	-12.4765
▁Bright	-12.4766
sière	-12.4766
01	-12.4766
OCK	-12.4767
▁expanded	-12.4768
▁Hale	-12.4769
▁handful	-12.477
▁growling	-12.477
▁insistent	-12.477
▁cupboard	-12.4771
▁Louise	-12.4771
call	-12.4771
▁hangin	-12.4772
▁mary	-12.4772
▁holders	-12.4773
▁appropriately	-12.4773
▁guaranteed	-12.4773
appea	-12.4773
sill	-12.4774
▁threatening	-12.4774
Mercy	-12.4774
▁Case	-12.4775
▁teased	-12.4775
▁stink	-12.4776
▁researcher	-12.4776
▁assisted	-12.4777
▁repaired	-12.4777
venge	-12.4777
▁verb	-12.4777
▁hideous	-12.4778
▁shriek	-12.4778
▁thoughtful	-12.4778
spike	-12.4778
Ka	-12.478
▁defender	-12.4782
zan	-12.4782
▁dna	-12.4782
▁poisoning	-12.4783
joy	-12.4784
▁Word	-12.4784
▁buff	-12.4785
▁fried	-12.4785
▁ached	-12.4786
▁immortal	-12.4786
▁fitting	-12.4787
▁bustl	-12.4788
▁hawk	-12.4788
▁wring	-12.4789
▁sinking	-12.4789
▁loft	-12.4789
▁hood	-12.4789
yle	-12.4791
slides	-12.4791
▁beater	-12.4791
▁Landing	-12.4793
▁satin	-12.4793
▁cured	-12.4793
▁squatt	-12.4794
▁Creature	-12.4794
▁awakened	-12.4794
▁deeper	-12.4794
▁outcome	-12.4796
ballo	-12.4798
▁Chan	-12.4798
▁formation	-12.4799
▁existed	-12.48
▁borrowed	-12.48
▁END	-12.48
▁commented	-12.4801
▁tended	-12.4802
▁misses	-12.4804
▁avoided	-12.4804
▁willingly	-12.4805
▁Morn	-12.4805
6)	-12.4805
▁damaged	-12.4805
▁ren	-12.4806
cular	-12.4806
▁rung	-12.4806
▁amiabl	-12.4807
▁squeezed	-12.4811
▁Carol	-12.4811
▁damp	-12.4812
▁cupcake	-12.4812
▁clattering	-12.4814
▁Poo	-12.4814
▁bravely	-12.4816
▁Rivera	-12.4818
leton	-12.4821
▁Shoot	-12.4821
▁failing	-12.4822
▁publicly	-12.4822
nded	-12.4823
▁crotchets	-12.4824
▁knuckles	-12.4824
▁quilts	-12.4824
▁2.6	-12.4824
▁walkin	-12.4825
▁settlers	-12.4825
poke	-12.4826
▁Miles	-12.4826
▁wit	-12.4827
▁repute	-12.4829
▁+	-12.4832
▁contribute	-12.4833
▁dearest	-12.4835
▁impress	-12.4836
▁fronto	-12.4839
orex	-12.4841
crier	-12.4844
▁fucker	-12.4844
ders	-12.4845
▁lest	-12.4846
flop	-12.4846
▁disk	-12.4848
▁brightly	-12.4849
▁appreciated	-12.485
▁judged	-12.485
lace	-12.4852
▁decidedly	-12.4853
AND	-12.4857
▁fleet	-12.4858
▁Heron	-12.4859
▁lur	-12.4862
▁windshields	-12.4862
▁Whoops	-12.4862
cumbe	-12.4862
▁balanced	-12.4863
▁incorporated	-12.4864
▁(5	-12.4866
leas	-12.4866
▁HU	-12.4868
mom	-12.4869
▁hunters	-12.4869
Sir	-12.4871
▁poll	-12.4871
▁Uni	-12.4874
TV	-12.488
▁cooler	-12.4886
uri	-12.4888
▁Tr	-12.4889
▁hatch	-12.489
Tail	-12.4893
▁sucker	-12.4897
Hey	-12.4899
▁appealing	-12.49
▁vitamins	-12.4901
▁Walendas	-12.4901
▁reviews	-12.4901
▁surroundings	-12.4901
▁bandages	-12.4901
▁Friends	-12.4901
▁wale	-12.4902
OO	-12.4904
▁wid	-12.4904
1953)	-12.4905
▁ston	-12.4905
▁beads	-12.4907
rawi	-12.4908
▁variable	-12.4909
▁Inc	-12.4915
ickle	-12.4916
AUGHT	-12.4926
▁hou	-12.4927
▁pew	-12.4928
▁Priso	-12.4935
EVE	-12.4935
!'"	-12.4936
▁presum	-12.4937
icious	-12.4937
▁supporter	-12.4939
probable	-12.4939
▁frauds	-12.4939
pen	-12.494
▁rac	-12.494
▁smi	-12.4941
ttered	-12.4948
▁tur	-12.4949
these	-12.4951
▁PS	-12.4952
▁baker	-12.4953
Angel	-12.4953
▁sparkle	-12.4958
orac	-12.496
laz	-12.4966
▁tir	-12.4966
▁Mir	-12.4969
▁messing	-12.497
▁Names	-12.4976
▁somersaults	-12.4978
▁suggestions	-12.4978
rich	-12.4979
▁expose	-12.4982
Eye	-12.4987
achel	-12.4991
▁halt	-12.4997
▁undergo	-12.4997
rong	-12.5001
▁stoned	-12.5002
▁onward	-12.5003
kus	-12.5004
many	-12.5012
▁lanterns	-12.5017
▁grants	-12.5017
▁angels	-12.5022
▁posted	-12.5027
▁eatin	-12.503
Re	-12.5039
▁farming	-12.5041
▁grumble	-12.5041
▁identifie	-12.5044
▁Mul	-12.5046
▁fearful	-12.5048
▁lively	-12.5048
Thou	-12.5053
▁senators	-12.5056
▁mules	-12.5056
▁taxis	-12.5058
says	-12.506
▁primari	-12.5063
▁Mass	-12.5064
▁northwest	-12.5065
//	-12.5066
Magn	-12.5072
▁hanged	-12.5073
▁Hiro	-12.5073
▁Pon	-12.5079
▁Luk	-12.5084
▁scor	-12.509
unny	-12.5095
▁flames	-12.5095
▁skirts	-12.5095
corder	-12.5098
▁freez	-12.51
anne	-12.5101
ube	-12.5106
▁dealer	-12.5114
▁pi	-12.5115
Jackie	-12.5119
abouts	-12.5125
ION	-12.5126
▁genera	-12.5129
▁Chu	-12.513
▁tal	-12.5131
agent	-12.5131
▁Iron	-12.5132
ole	-12.5138
▁decks	-12.5141
▁Enri	-12.515
▁cooker	-12.515
▁dominion	-12.5152
É	-12.5157
▁afar	-12.5158
iccolo	-12.5167
▁disco	-12.5171
▁Tonsils	-12.5174
EEL	-12.5175
shy	-12.5175
▁ordering	-12.5179
▁files	-12.5185
▁Mesk	-12.5191
▁Masa	-12.5193
boys	-12.5197
▁pictured	-12.5205
97	-12.5206
▁elbows	-12.5214
▁constables	-12.5214
▁crows	-12.5215
pay	-12.5216
ullen	-12.522
▁Universi	-12.522
/010	-12.5229
▁squirt	-12.5232
▁wink	-12.5234
OUT	-12.5242
16	-12.5243
▁Off	-12.5244
▁Clin	-12.5247
▁McD	-12.525
▁Marbles	-12.5253
▁stables	-12.5254
thful	-12.5259
▁165	-12.5262
oui	-12.5263
▁tutor	-12.5264
ís	-12.5265
▁rse	-12.5268
noted	-12.5269
ranger	-12.527
▁taps	-12.5274
interrupted	-12.5275
arch	-12.5277
ecutive	-12.528
▁muster	-12.5282
▁Rub	-12.5282
▁Dem	-12.5282
gone	-12.5283
amie	-12.5287
▁chi	-12.5288
west	-12.5291
▁Cher	-12.5292
▁Ples	-12.5298
▁$5	-12.5301
▁stated	-12.5322
mola	-12.5333
▁Simpsons	-12.5334
▁Nur	-12.5339
▁Wall	-12.5341
▁bugg	-12.5345
ual	-12.5354
▁Cy	-12.5358
KING	-12.5369
rnal	-12.537
▁drums	-12.5371
▁Emili	-12.5375
▁Min	-12.5382
▁Fri	-12.5387
▁Wing	-12.5394
rina	-12.5394
▁Carr	-12.5394
▁Francesc	-12.5395
▁Hal	-12.5396
works	-12.5403
▁cy	-12.5409
▁Str	-12.5411
▁functions	-12.5415
era	-12.5426
rop	-12.5427
pox	-12.543
▁ants	-12.5434
▁Natur	-12.5442
dor	-12.5444
bad	-12.5446
▁Bomb	-12.5453
▁yells	-12.5458
"—	-12.5474
▁nestle	-12.5475
▁bal	-12.548
illan	-12.5493
environmentalist	-12.5498
ami	-12.5503
▁gurgle	-12.5515
▁AD	-12.5544
▁Ch	-12.5544
xi	-12.5548
▁Que	-12.5555
▁Viv	-12.556
▁sponsor	-12.556
esh	-12.5562
▁pm	-12.557
▁Div	-12.5579
uti	-12.5587
fined	-12.5587
IDE	-12.5589
03	-12.5591
▁Set	-12.5592
▁bor	-12.5598
▁71	-12.5599
oopsie	-12.561
▁Lac	-12.5616
addies	-12.5619
▁humili	-12.5628
▁sly	-12.5635
oke	-12.5638
▁proven	-12.5644
▁Ju	-12.5649
▁Simone	-12.5651
▁Sad	-12.5652
▁MAK	-12.5659
▁bagg	-12.5665
ebbe	-12.5673
▁91	-12.5674
chian	-12.568
05	-12.5681
▁stirr	-12.5694
verse	-12.5705
ATION	-12.5707
CB	-12.571
eka	-12.571
late	-12.5719
Croatian	-12.5719
hl	-12.5723
▁sunk	-12.5728
▁41	-12.5728
▁calculat	-12.5734
dica	-12.5735
▁Progress	-12.5746
delayed	-12.5749
aven	-12.5769
lies	-12.577
rod	-12.5773
********	-12.5778
▁seeming	-12.5781
apped	-12.5784
▁Grab	-12.5786
▁Dominic	-12.5787
ica	-12.5789
DEN	-12.5794
▁Marsha	-12.5804
DA	-12.5805
rank	-12.5811
38	-12.5813
▁Spi	-12.5818
mature	-12.5832
▁$1	-12.5832
▁forge	-12.5844
eb	-12.5848
zis	-12.5851
iro	-12.5852
semit	-12.5877
ears	-12.5879
rsity	-12.5882
rchitectural	-12.5882
UNE	-12.5889
64	-12.5889
aga	-12.5894
ira	-12.5903
fastened	-12.5912
Dess	-12.5913
rabi	-12.5928
crab	-12.593
trained	-12.5935
▁prob	-12.5939
▁Fla	-12.5945
SN	-12.5968
BI	-12.5969
ime	-12.5977
▁grati	-12.5979
agger	-12.5984
Screaming	-12.5988
pock	-12.6004
FL	-12.6022
▁lee	-12.6035
anna	-12.6043
▁Kh	-12.6044
▁inspire	-12.6045
▁assassinat	-12.6047
ral	-12.605
aries	-12.6101
▁REAL	-12.6104
▁poo	-12.6105
utive	-12.6108
▁WAY	-12.6132
▁officiate	-12.6141
▁Kara	-12.6144
▁Bah	-12.6144
▁RU	-12.615
tripp	-12.6153
▁Sau	-12.6157
▁180	-12.6175
▁explore	-12.6184
ripped	-12.6189
▁Justic	-12.6189
wo	-12.6191
elin	-12.6194
▁Sil	-12.62
▁Vall	-12.6212
▁Kan	-12.6212
nica	-12.6215
nior	-12.6224
ln	-12.6245
▁Elo	-12.6248
scribbles	-12.6266
mune	-12.627
▁Ur	-12.6272
TON	-12.6288
rock	-12.6288
▁divid	-12.6298
llard	-12.6305
81	-12.6306
ui	-12.6316
bc	-12.6319
rink	-12.6344
ono	-12.6348
ONE	-12.6353
action	-12.6353
umbled	-12.6365
aval	-12.6372
ammad	-12.6374
correcting	-12.6377
ALE	-12.6377
▁Fear	-12.6392
cutter	-12.6393
án	-12.6419
EO	-12.6424
Th	-12.643
ONCE	-12.643
plant	-12.6435
HONE	-12.6435
ilkman	-12.6442
▁tw	-12.6446
masses	-12.6457
rom	-12.646
gencies	-12.6461
gic	-12.6467
▁realiz	-12.6471
▁Friend	-12.6472
▁bead	-12.6475
actor	-12.6479
▁hoot	-12.6505
▁creativ	-12.651
▁bandage	-12.6511
▁resident	-12.6512
▁mumble	-12.6513
69	-12.6514
laps	-12.6514
▁Harr	-12.6515
▁expense	-12.6518
▁composition	-12.6519
▁Walenda	-12.6522
▁surrounding	-12.6522
▁electro	-12.6524
▁System	-12.6525
▁Variation	-12.6525
▁ancestor	-12.6525
▁rifle	-12.6525
▁review	-12.6526
▁vitamin	-12.6526
▁walnut	-12.6528
▁Affair	-12.6529
eau	-12.6531
▁competitor	-12.6531
▁pigeon	-12.6534
cle	-12.6534
▁stair	-12.654
▁institution	-12.6545
rcel	-12.6547
▁Arab	-12.6548
▁lip	-12.655
▁Carlo	-12.6551
▁unde	-12.6552
▁produc	-12.6568
aux	-12.6569
oggle	-12.6572
erto	-12.6578
▁Eye	-12.6581
ssistant	-12.6582
▁organize	-12.6589
▁Tak	-12.6591
ange	-12.6592
▁57	-12.6603
quer	-12.6603
▁suppli	-12.6608
ficial	-12.6609
links	-12.6611
▁refuge	-12.6616
▁coax	-12.6622
active	-12.6625
▁1,5	-12.6627
bees	-12.6628
▁66	-12.6634
mers	-12.6637
▁stocking	-12.6646
nker	-12.6652
▁resent	-12.6653
rata	-12.6654
check	-12.6666
▁blub	-12.6668
▁Whi	-12.6671
▁nex	-12.6672
founded	-12.6672
close	-12.6676
▁tempt	-12.6676
▁haunt	-12.6677
phali	-12.668
▁annoy	-12.668
teller	-12.6681
erated	-12.6684
listen	-12.6686
▁Sar	-12.6688
umping	-12.6688
▁accord	-12.6688
▁threaten	-12.6688
dong	-12.6689
truck	-12.6692
growly	-12.6693
UNDER	-12.6693
Fantasy	-12.6694
creaky	-12.6694
launch	-12.6694
dressed	-12.6694
True	-12.6695
voiceless	-12.6695
crumbs	-12.6695
iamb	-12.6695
▁Oli	-12.6695
Lucens	-12.6695
repeatedly	-12.6695
senator	-12.6695
sucker	-12.6696
closing	-12.6696
magn	-12.6696
equal	-12.6696
Carry	-12.6696
stretched	-12.6696
runner	-12.6696
bishop	-12.6696
shouts	-12.6696
cooked	-12.6696
smoking	-12.6696
spilled	-12.6696
Next	-12.6696
length	-12.6697
Jones	-12.6697
revolutionary	-12.6697
State	-12.6697
taperecorder	-12.6697
Stay	-12.6697
grown	-12.6697
www	-12.6697
language	-12.6697
comment	-12.6697
follow	-12.6697
Before	-12.6697
bottom	-12.6697
business	-12.6697
broken	-12.6697
brother	-12.6697
Tock	-12.6697
great	-12.6697
answer	-12.6697
winning	-12.6697
garden	-12.6697
John	-12.6697
believe	-12.6697
lived	-12.6697
official	-12.6697
respect	-12.6697
little	-12.6698
From	-12.6698
Bob	-12.6698
important	-12.6698
Clock	-12.6698
amount	-12.6698
legs	-12.6698
slowly	-12.6698
Very	-12.6698
drama	-12.6699
yeah	-12.6699
carefully	-12.67
Hold	-12.67
bark	-12.6701
nothing	-12.6702
trick	-12.6702
course	-12.6702
▁chirp	-12.6702
OH	-12.6704
▁Field	-12.6704
▁establish	-12.6704
▁abandon	-12.6704
Mot	-12.6704
▁wretch	-12.6704
Lor	-12.6705
▁Born	-12.6706
state	-12.6706
▁bronze	-12.6707
stay	-12.6707
▁Rui	-12.6707
▁wail	-12.6707
▁evacuate	-12.6708
music	-12.6708
▁recite	-12.6708
VERY	-12.6709
Star	-12.6709
▁reserve	-12.671
▁plunge	-12.671
small	-12.671
pour	-12.6711
▁cease	-12.6711
▁Polan	-12.6711
jump	-12.6711
Give	-12.6711
both	-12.6712
picking	-12.6712
▁blaz	-12.6713
thletic	-12.6713
▁depart	-12.6713
Bless	-12.6713
▁survive	-12.6713
▁examine	-12.6715
store	-12.6716
▁via	-12.6716
Won	-12.6717
▁wool	-12.6717
Up	-12.6717
▁Mount	-12.6718
Arabia	-12.6718
▁destin	-12.6718
▁fade	-12.6718
Young	-12.6719
gestalt	-12.6719
demonstrat	-12.6719
dime	-12.6719
▁kee	-12.672
hausen	-12.6721
ABLE	-12.6721
inappropriate	-12.6721
▁SHARK	-12.6722
▁Lead	-12.6722
listening	-12.6723
ndigen	-12.6723
uble	-12.6723
nsurance	-12.6724
rtification	-12.6724
▁Port	-12.6724
eductive	-12.6724
chedule	-12.6724
truggle	-12.6724
▁speaker	-12.6726
player	-12.6726
▁civi	-12.6726
elief	-12.6726
never	-12.6726
▁consul	-12.6727
flection	-12.6727
▁construct	-12.6727
hemistry	-12.6727
softer	-12.6727
arriage	-12.6727
etropolitan	-12.6727
▁exhibit	-12.6727
▁steep	-12.6727
▁televis	-12.6727
▁JESS	-12.6727
modern	-12.6727
▁Amazon	-12.6727
▁darlin	-12.6727
ñ	-12.6728
▁Produce	-12.6728
CHOO	-12.6728
▁differ	-12.6728
issou	-12.6728
spiration	-12.6728
▁domestic	-12.6728
▁prosper	-12.6728
▁inherit	-12.6728
▁boob	-12.6728
nowledge	-12.6728
▁celeb	-12.6728
schlegel	-12.6728
▁cigar	-12.6728
colleg	-12.6728
Mézery	-12.6728
▁chinquepin	-12.6728
}	-12.6728
▁CONFEREN	-12.6728
▁Easy	-12.6728
▁consonant	-12.6728
CUSE	-12.6728
GASPS	-12.6728
Jambuda	-12.6728
UNCH	-12.6728
Zamenhof	-12.6728
coliosis	-12.6728
errières	-12.6728
explosion	-12.6728
ggregate	-12.6728
ndoubtedly	-12.6728
vocative	-12.6728
▁(1969)	-12.6728
▁(1999)	-12.6728
▁(2005)	-12.6728
▁(2013)	-12.6728
▁ADVENTURE	-12.6728
▁AUTHOR	-12.6728
▁Alissa	-12.6728
▁Anchorage	-12.6728
▁Arnold	-12.6728
▁Bastards	-12.6728
▁Bisset	-12.6728
▁Bridish	-12.6728
▁Brunswick	-12.6728
▁Buchanan	-12.6728
▁Bærum	-12.6728
▁COMING	-12.6728
▁Canterbury	-12.6728
▁Caterpillar	-12.6728
▁Cathedral	-12.6728
▁Chimbote	-12.6728
▁Concern	-12.6728
▁Delaware	-12.6728
▁Dolgan	-12.6728
▁Dolores	-12.6728
▁Durazno	-12.6728
▁ELEPHANT	-12.6728
▁EWING	-12.6728
▁Elaine	-12.6728
▁Entrance	-12.6728
▁Envelope	-12.6728
[...]
