[PAD]	0
[CLS]	0
[SEP]	0
[UNK]	0
[MASK]	0
<0x00>	0
<0x01>	0
<0x02>	0
<0x03>	0
<0x04>	0
<0x05>	0
<0x06>	0
<0x07>	0
<0x08>	0
<0x09>	0
<0x0A>	0
<0x0B>	0
<0x0C>	0
<0x0D>	0
<0x0E>	0
<0x0F>	0
<0x10>	0
<0x11>	0
<0x12>	0
<0x13>	0
<0x14>	0
<0x15>	0
<0x16>	0
<0x17>	0
<0x18>	0
<0x19>	0
<0x1A>	0
<0x1B>	0
<0x1C>	0
<0x1D>	0
<0x1E>	0
<0x1F>	0
<0x20>	0
<0x21>	0
<0x22>	0
<0x23>	0
<0x24>	0
<0x25>	0
<0x26>	0
<0x27>	0
<0x28>	0
<0x29>	0
<0x2A>	0
<0x2B>	0
<0x2C>	0
<0x2D>	0
<0x2E>	0
<0x2F>	0
<0x30>	0
<0x31>	0
<0x32>	0
<0x33>	0
<0x34>	0
<0x35>	0
<0x36>	0
<0x37>	0
<0x38>	0
<0x39>	0
<0x3A>	0
<0x3B>	0
<0x3C>	0
<0x3D>	0
<0x3E>	0
<0x3F>	0
<0x40>	0
<0x41>	0
<0x42>	0
<0x43>	0
<0x44>	0
<0x45>	0
<0x46>	0
<0x47>	0
<0x48>	0
<0x49>	0
<0x4A>	0
<0x4B>	0
<0x4C>	0
<0x4D>	0
<0x4E>	0
<0x4F>	0
<0x50>	0
<0x51>	0
<0x52>	0
<0x53>	0
<0x54>	0
<0x55>	0
<0x56>	0
<0x57>	0
<0x58>	0
<0x59>	0
<0x5A>	0
<0x5B>	0
<0x5C>	0
<0x5D>	0
<0x5E>	0
<0x5F>	0
<0x60>	0
<0x61>	0
<0x62>	0
<0x63>	0
<0x64>	0
<0x65>	0
<0x66>	0
<0x67>	0
<0x68>	0
<0x69>	0
<0x6A>	0
<0x6B>	0
<0x6C>	0
<0x6D>	0
<0x6E>	0
<0x6F>	0
<0x70>	0
<0x71>	0
<0x72>	0
<0x73>	0
<0x74>	0
<0x75>	0
<0x76>	0
<0x77>	0
<0x78>	0
<0x79>	0
<0x7A>	0
<0x7B>	0
<0x7C>	0
<0x7D>	0
<0x7E>	0
<0x7F>	0
<0x80>	0
<0x81>	0
<0x82>	0
<0x83>	0
<0x84>	0
<0x85>	0
<0x86>	0
<0x87>	0
<0x88>	0
<0x89>	0
<0x8A>	0
<0x8B>	0
<0x8C>	0
<0x8D>	0
<0x8E>	0
<0x8F>	0
<0x90>	0
<0x91>	0
<0x92>	0
<0x93>	0
<0x94>	0
<0x95>	0
<0x96>	0
<0x97>	0
<0x98>	0
<0x99>	0
<0x9A>	0
<0x9B>	0
<0x9C>	0
<0x9D>	0
<0x9E>	0
<0x9F>	0
<0xA0>	0
<0xA1>	0
<0xA2>	0
<0xA3>	0
<0xA4>	0
<0xA5>	0
<0xA6>	0
<0xA7>	0
<0xA8>	0
<0xA9>	0
<0xAA>	0
<0xAB>	0
<0xAC>	0
<0xAD>	0
<0xAE>	0
<0xAF>	0
<0xB0>	0
<0xB1>	0
<0xB2>	0
<0xB3>	0
<0xB4>	0
<0xB5>	0
<0xB6>	0
<0xB7>	0
<0xB8>	0
<0xB9>	0
<0xBA>	0
<0xBB>	0
<0xBC>	0
<0xBD>	0
<0xBE>	0
<0xBF>	0
<0xC0>	0
<0xC1>	0
<0xC2>	0
<0xC3>	0
<0xC4>	0
<0xC5>	0
<0xC6>	0
<0xC7>	0
<0xC8>	0
<0xC9>	0
<0xCA>	0
<0xCB>	0
<0xCC>	0
<0xCD>	0
<0xCE>	0
<0xCF>	0
<0xD0>	0
<0xD1>	0
<0xD2>	0
<0xD3>	0
<0xD4>	0
<0xD5>	0
<0xD6>	0
<0xD7>	0
<0xD8>	0
<0xD9>	0
<0xDA>	0
<0xDB>	0
<0xDC>	0
<0xDD>	0
<0xDE>	0
<0xDF>	0
<0xE0>	0
<0xE1>	0
<0xE2>	0
<0xE3>	0
<0xE4>	0
<0xE5>	0
<0xE6>	0
<0xE7>	0
<0xE8>	0
<0xE9>	0
<0xEA>	0
<0xEB>	0
<0xEC>	0
<0xED>	0
<0xEE>	0
<0xEF>	0
<0xF0>	0
<0xF1>	0
<0xF2>	0
<0xF3>	0
<0xF4>	0
<0xF5>	0
<0xF6>	0
<0xF7>	0
<0xF8>	0
<0xF9>	0
<0xFA>	0
<0xFB>	0
<0xFC>	0
<0xFD>	0
<0xFE>	0
<0xFF>	0
.	-3.04577
s	-3.36965
:	-3.51999
▁*	-3.59482
,	-3.64378
▁the	-3.87717
'	-4.03627
▁a	-4.28493
CHI	-4.31609
t	-4.33046
▁I	-4.45752
▁to	-4.48219
?	-4.50837
▁you	-4.55179
▁and	-4.55515
▁of	-4.70623
MOT	-4.71286
▁in	-4.79976
▁it	-4.85741
ing	-5.00258
ed	-5.00336
▁that	-5.0875
▁	-5.10392
▁[	-5.18309
▁=	-5.19436
]	-5.22708
d	-5.24152
n	-5.25311
m	-5.31028
▁is	-5.33031
▁was	-5.35444
y	-5.35521
re	-5.38501
e	-5.50903
▁on	-5.51616
▁he	-5.55166
▁for	-5.57571
a	-5.64819
er	-5.64991
r	-5.70843
▁what	-5.75375
▁-	-5.75798
▁"	-5.76167
-	-5.77757
!	-5.81031
ll	-5.8167
in	-5.8189
ly	-5.82741
▁s	-5.84516
▁with	-5.85698
o	-5.85777
▁be	-5.8801
p	-5.89082
▁me	-5.94962
▁have	-5.95853
▁do	-5.97574
▁not	-6.02106
l	-6.02431
▁A	-6.02539
▁we	-6.06473
g	-6.07219
al	-6.09241
▁no	-6.09886
▁they	-6.14507
▁can	-6.17415
▁one	-6.18501
▁this	-6.18976
’	-6.19068
u	-6.20182
▁his	-6.20786
c	-6.21641
le	-6.22529
▁at	-6.25434
▁her	-6.2563
FAT	-6.26797
▁are	-6.2771
h	-6.28321
▁up	-6.2853
...	-6.28605
▁S	-6.29156
▁know	-6.30196
▁t	-6.30675
ar	-6.30767
▁had	-6.30931
ve	-6.31686
▁so	-6.32029
▁B	-6.3236
▁she	-6.3259
▁your	-6.33394
▁all	-6.33572
▁f	-6.33867
I	-6.34063
▁like	-6.34232
▁there	-6.3573
▁don	-6.36372
;	-6.37761
▁my	-6.384
▁as	-6.38422
b	-6.38665
▁The	-6.38746
▁He	-6.41228
or	-6.42449
▁de	-6.4314
k	-6.44
ri	-6.44742
▁but	-6.45274
▁c	-6.47204
▁an	-6.47717
▁from	-6.47936
▁p	-6.48307
▁out	-6.54599
▁'	-6.56478
▁him	-6.57059
▁go	-6.57474
▁get	-6.59108
ur	-6.59416
▁said	-6.59627
ch	-6.60881
an	-6.61723
▁You	-6.61946
▁It	-6.62167
ra	-6.63405
en	-6.63571
▁were	-6.64793
es	-6.65991
▁re	-6.67017
▁see	-6.67306
i	-6.6776
S	-6.67782
▁some	-6.67904
▁sec	-6.67973
w	-6.70184
▁or	-6.71668
▁just	-6.71725
▁them	-6.72034
▁d	-6.7223
▁about	-6.73099
A	-6.73487
ce	-6.76674
th	-6.76845
▁here	-6.7737
▁by	-6.7858
se	-6.78882
▁T	-6.80603
▁would	-6.81071
▁C	-6.81893
▁xxx	-6.82493
la	-6.82946
E	-6.83182
▁who	-6.83808
▁put	-6.84772
▁want	-6.85229
il	-6.8582
▁b	-6.86317
on	-6.86807
▁think	-6.8733
"	-6.87582
▁did	-6.87711
it	-6.87717
▁if	-6.87995
ent	-6.88347
▁when	-6.88975
T	-6.8944
ro	-6.93516
▁right	-6.93568
el	-6.93809
▁little	-6.94228
▁W	-6.95472
ir	-6.96762
▁oh	-6.98017
v	-6.98041
▁now	-6.99502
▁man	-6.99787
▁time	-7.01956
▁could	-7.0245
▁how	-7.02493
▁No	-7.03102
▁where	-7.03306
▁P	-7.03617
▁good	-7.03743
ic	-7.04299
▁very	-7.04689
at	-7.04831
▁over	-7.04956
▁g	-7.05479
▁back	-7.05563
▁got	-7.05755
▁And	-7.06322
te	-7.06685
▁19	-7.06755
▁say	-7.07834
▁come	-7.08247
▁down	-7.08303
us	-7.08408
▁“	-7.09293
▁What	-7.09353
ry	-7.1062
INV	-7.11238
▁F	-7.11286
)	-7.11628
▁will	-7.11841
▁e	-7.12158
O	-7.12979
▁going	-7.13326
▁more	-7.13328
▁other	-7.13529
▁G	-7.13796
▁E	-7.14984
lo	-7.15325
▁D	-7.15359
f	-7.1541
li	-7.16277
ne	-7.16512
▁M	-7.16758
as	-7.17189
▁(	-7.17453
D	-7.18074
▁off	-7.19106
ta	-7.19306
URS	-7.19784
ation	-7.20409
▁make	-7.21557
▁take	-7.21558
5	-7.2162
▁been	-7.21705
,"	-7.2255
▁two	-7.23231
▁their	-7.23776
▁then	-7.24068
2	-7.24732
▁yeah	-7.25234
▁which	-7.25546
▁look	-7.25777
."	-7.26385
de	-7.26388
].	-7.27796
ion	-7.28434
▁has	-7.28918
is	-7.29378
ow	-7.30219
ke	-7.30458
▁any	-7.30533
un	-7.30677
z	-7.31024
0	-7.33431
et	-7.33447
▁She	-7.33816
▁We	-7.349
▁well	-7.3492
▁o	-7.35469
▁dis	-7.3576
BRO	-7.35886
est	-7.36197
▁gonna	-7.36774
8	-7.37732
ter	-7.39442
▁okay	-7.3961
▁too	-7.39696
7	-7.40247
▁boy	-7.40722
um	-7.40908
▁%	-7.40915
▁yes	-7.41139
ge	-7.41277
ate	-7.41377
▁into	-7.41467
▁co	-7.42511
▁silver	-7.42634
6	-7.42642
ad	-7.4308
9	-7.4311
3	-7.43417
▁Oh	-7.43473
▁people	-7.43833
ig	-7.44007
1	-7.44282
no	-7.4454
▁But	-7.45508
▁way	-7.45858
ie	-7.45978
C	-7.45983
▁mean	-7.46201
ck	-7.46818
op	-7.47416
▁con	-7.47679
▁base	-7.4797
▁st	-7.48142
▁i	-7.48336
▁They	-7.48655
ist	-7.4934
U	-7.49819
▁tell	-7.5002
▁H	-7.50327
im	-7.50475
L	-7.50597
ment	-7.5156
▁us	-7.51769
vi	-7.51839
me	-7.52098
ul	-7.52691
M	-7.53377
▁let	-7.53727
”	-7.53782
age	-7.53829
▁work	-7.54351
H	-7.54392
ma	-7.54811
▁K	-7.55288
ive	-7.55734
4	-7.55836
▁Chi	-7.55888
ol	-7.55957
ci	-7.56438
am	-7.56985
▁why	-7.57101
▁That	-7.57353
COL	-7.57708
pe	-7.57897
▁day	-7.57929
ud	-7.58349
int	-7.58367
P	-7.58491
▁dat	-7.58539
▁Yeah	-7.58772
▁need	-7.58781
▁n	-7.58941
R	-7.59445
id	-7.60651
▁O	-7.61033
▁give	-7.61177
▁black	-7.626
▁In	-7.62756
▁m	-7.63349
▁Mommy	-7.63692
ut	-7.63928
▁play	-7.63997
▁ma	-7.64128
and	-7.6444
hi	-7.64518
sh	-7.64708
▁la	-7.64979
▁un	-7.6569
▁ch	-7.65852
▁much	-7.66112
▁sh	-7.66714
he	-7.67879
ng	-7.68192
▁2	-7.68382
▁J	-7.6862
▁r	-7.68915
▁something	-7.69207
Y	-7.69525
▁never	-7.69725
▁N	-7.7006
ick	-7.70129
ha	-7.70595
▁first	-7.71035
▁So	-7.71404
▁Well	-7.71483
ant	-7.71733
B	-7.71872
▁po	-7.72098
▁stick	-7.72208
em	-7.72238
▁long	-7.72441
to	-7.72935
ers	-7.73987
per	-7.74041
▁because	-7.74149
ty	-7.74249
▁l	-7.74288
▁came	-7.74776
one	-7.75018
laughs	-7.75984
--	-7.76644
▁pro	-7.76671
ho	-7.76759
ies	-7.77271
po	-7.77614
add	-7.77849
co	-7.77879
▁should	-7.77925
▁only	-7.78006
N	-7.78108
▁after	-7.78309
ther	-7.78598
▁write	-7.78841
tion	-7.7912
man	-7.79309
▁ha	-7.79737
▁made	-7.7986
▁ra	-7.79945
oo	-7.80533
▁big	-7.8114
?"	-7.81217
mo	-7.81382
▁love	-7.81756
▁girl	-7.81812
▁didn	-7.81899
▁name	-7.8212
ip	-7.82818
▁old	-7.83131
na	-7.83206
▁even	-7.83752
▁ro	-7.84161
▁another	-7.8431
▁away	-7.84406
ton	-7.84689
▁great	-7.84732
ru	-7.84854
ap	-7.84897
ian	-7.84922
▁home	-7.85062
ance	-7.85988
▁lo	-7.86098
▁Eve	-7.86102
▁than	-7.86373
x	-7.86527
▁again	-7.86684
▁these	-7.86915
▁men	-7.87549
▁before	-7.87595
les	-7.87629
ni	-7.88
ver	-7.88517
▁pa	-7.88884
ence	-7.89117
▁boys	-7.89209
▁help	-7.89969
▁Ma	-7.89972
▁U	-7.90046
ff	-7.90146
▁St	-7.90453
▁There	-7.90856
▁things	-7.9108
▁ex	-7.91456
▁eat	-7.91746
▁house	-7.92162
▁really	-7.92761
▁thing	-7.93059
▁Adam	-7.93121
ia	-7.9366
▁Do	-7.94559
▁thought	-7.94567
ting	-7.95313
▁wand	-7.95475
▁place	-7.95663
W	-7.95803
ward	-7.96041
▁kind	-7.96081
ct	-7.96186
▁wanna	-7.96409
ard	-7.96546
▁This	-7.96593
▁ball	-7.96994
/	-7.97031
ted	-7.97217
▁new	-7.97548
▁uh	-7.97872
▁k	-7.97972
▁those	-7.97994
▁ca	-7.98626
▁Yes	-7.98868
ti	-7.9893
▁car	-7.99241
ish	-7.99242
▁doing	-7.99288
▁w	-7.99831
▁part	-7.99904
▁went	-8.00104
G	-8.0012
▁Mar	-8.00521
end	-8.00879
▁cr	-8.01571
up	-8.01819
▁ho	-8.0199
▁Co	-8.02167
▁dog	-8.02348
▁our	-8.02573
ity	-8.02764
The	-8.03196
old	-8.03794
▁mi	-8.03834
pa	-8.04545
▁three	-8.05004
▁head	-8.05223
▁hand	-8.05257
able	-8.05358
▁L	-8.05428
▁does	-8.05977
SIS	-8.06231
di	-8.06232
ous	-8.06414
ine	-8.0658
uck	-8.06832
▁bu	-8.06883
▁keep	-8.07119
▁turn	-8.0785
▁must	-8.07988
▁talk	-8.08027
▁wait	-8.0804
ped	-8.08158
▁am	-8.08218
ca	-8.09064
▁feel	-8.09244
▁father	-8.09964
▁mo	-8.10061
▁through	-8.10328
▁ba	-8.10355
the	-8.10617
ble	-8.10943
▁V	-8.11642
▁paper	-8.11672
▁use	-8.11741
be	-8.11753
▁mother	-8.11841
▁many	-8.11982
▁le	-8.11987
▁water	-8.12204
go	-8.12322
▁How	-8.12844
ake	-8.12856
ny	-8.13013
ful	-8.13124
▁top	-8.13266
▁always	-8.13288
▁La	-8.13309
▁under	-8.13522
▁most	-8.1409
son	-8.14252
cu	-8.15469
▁show	-8.15487
▁please	-8.1576
art	-8.16049
mi	-8.16059
ated	-8.16399
!"	-8.16653
nd	-8.16798
ever	-8.16863
▁yellow	-8.17014
▁watch	-8.17117
▁read	-8.17519
▁j	-8.17668
▁y	-8.17929
▁anything	-8.18098
mer	-8.18329
▁around	-8.18695
▁[1	-8.18917
dy	-8.19093
▁1	-8.19141
▁last	-8.19175
▁bit	-8.19426
▁3	-8.19567
▁THE	-8.19688
▁sp	-8.20067
we	-8.20367
ling	-8.20421
tic	-8.20434
▁Bo	-8.20598
F	-8.20643
▁bo	-8.20973
ster	-8.21218
K	-8.21255
▁find	-8.21514
▁thank	-8.21754
▁da	-8.21927
▁magnet	-8.2199
▁move	-8.22676
ee	-8.22908
▁night	-8.23059
▁hi	-8.23631
ound	-8.23649
▁also	-8.23774
▁R	-8.24278
▁won	-8.24309
▁ga	-8.25441
▁li	-8.25736
ally	-8.25803
▁Mr	-8.25941
ba	-8.26146
—	-8.26306
▁might	-8.26307
▁alright	-8.26309
red	-8.26595
der	-8.26699
side	-8.26781
wa	-8.27126
▁Re	-8.2713
▁found	-8.27132
▁20	-8.27261
▁such	-8.27385
▁end	-8.27479
▁every	-8.27559
▁Paul	-8.27864
j	-8.27969
▁♪	-8.28032
▁com	-8.28504
▁own	-8.28925
ue	-8.29036
▁fl	-8.29069
▁still	-8.29129
ak	-8.29164
▁book	-8.29258
▁nice	-8.29359
▁th	-8.29461
▁far	-8.29513
row	-8.29819
fi	-8.3046
▁try	-8.30657
less	-8.30885
▁school	-8.31576
if	-8.31724
▁else	-8.32259
ough	-8.32265
ank	-8.32549
▁better	-8.32897
ye	-8.32904
ries	-8.33358
ub	-8.33481
▁silence	-8.33627
ber	-8.33675
▁open	-8.34381
ary	-8.34671
▁An	-8.34699
▁four	-8.347
ack	-8.35146
▁sure	-8.35249
▁fall	-8.35276
ach	-8.35322
▁doesn	-8.35718
▁table	-8.35743
vo	-8.35761
bo	-8.35778
▁ask	-8.35812
▁letter	-8.35899
▁while	-8.35956
▁hard	-8.35996
▁Se	-8.3602
▁comp	-8.36106
pi	-8.3662
bi	-8.36814
▁If	-8.37075
▁lot	-8.38068
▁word	-8.38583
▁’	-8.38626
▁saw	-8.38828
▁Mom	-8.38925
▁pre	-8.39194
ug	-8.39244
▁side	-8.39265
▁start	-8.39352
ER	-8.40426
▁friend	-8.40534
AN	-8.4064
▁minute	-8.41029
ness	-8.41159
▁children	-8.41279
▁stop	-8.41432
▁Le	-8.41917
▁high	-8.42044
▁told	-8.42119
▁done	-8.42258
▁leave	-8.42276
▁game	-8.42435
▁To	-8.43332
ga	-8.43382
▁sw	-8.44077
do	-8.44239
▁enough	-8.4432
▁face	-8.44567
▁baby	-8.44581
▁ever	-8.4478
▁!	-8.44917
▁called	-8.44976
low	-8.45152
▁together	-8.45334
▁call	-8.45426
▁sit	-8.45472
▁same	-8.45533
▁h	-8.45552
▁Fraser	-8.45592
▁next	-8.45593
▁may	-8.45842
_	-8.46112
▁tea	-8.46639
▁fire	-8.4672
king	-8.46751
ew	-8.46778
▁sound	-8.47024
▁Thank	-8.4718
▁stay	-8.47183
▁piece	-8.47425
▁near	-8.4743
▁years	-8.47449
▁Pa	-8.47523
▁wo	-8.4767
▁family	-8.47689
▁Why	-8.47759
▁Ho	-8.47896
▁Now	-8.48353
▁life	-8.4851
▁Ro	-8.48877
ical	-8.4891
AR	-8.49037
▁Ha	-8.49098
our	-8.49276
ens	-8.493
io	-8.49358
▁Be	-8.49444
▁Mo	-8.49518
rac	-8.49533
▁Don	-8.49543
▁Y	-8.49657
▁Li	-8.4967
my	-8.4984
▁hear	-8.49884
▁dear	-8.49894
▁question	-8.50102
1:	-8.50366
▁qu	-8.50665
▁hu	-8.50799
▁war	-8.50916
va	-8.51052
▁used	-8.51084
ex	-8.51101
▁bed	-8.51157
▁Go	-8.51376
for	-8.51472
fa	-8.516
▁being	-8.51762
tor	-8.5195
▁Come	-8.52114
RE	-8.52612
▁stand	-8.52738
▁On	-8.52741
▁asked	-8.52832
ious	-8.52951
▁Okay	-8.53133
silver	-8.53381
▁care	-8.53943
▁De	-8.54237
ump	-8.54416
▁best	-8.54454
▁real	-8.54611
▁door	-8.54646
ttle	-8.55126
▁tree	-8.55192
▁took	-8.55246
ite	-8.55624
–	-8.55682
▁John	-8.55683
▁money	-8.55684
▁hold	-8.55724
da	-8.55817
ON	-8.55831
▁drink	-8.5597
▁Al	-8.56262
▁pick	-8.56417
▁For	-8.56419
▁My	-8.56667
que	-8.56822
▁guess	-8.56841
led	-8.56968
▁Da	-8.57343
du	-8.57403
▁ri	-8.57424
▁room	-8.57456
way	-8.57889
▁morning	-8.58005
mon	-8.58245
▁fish	-8.58327
▁heard	-8.58438
ey	-8.58591
▁small	-8.58597
▁world	-8.5889
▁course	-8.5889
▁v	-8.58919
eep	-8.59284
▁light	-8.59334
▁close	-8.59492
▁young	-8.59537
put	-8.59702
cy	-8.60047
▁Unit	-8.60089
lock	-8.60249
ction	-8.60502
▁though	-8.60607
▁left	-8.60686
fe	-8.61204
▁guy	-8.61298
min	-8.61481
rri	-8.61532
▁“‘	-8.61897
V	-8.61933
ka	-8.61946
▁Mrs	-8.62011
▁walk	-8.6221
▁pass	-8.62265
▁4	-8.62716
of	-8.62749
▁Ca	-8.62784
▁child	-8.63126
▁Guy	-8.63408
cause	-8.6344
▁Sh	-8.63441
use	-8.63596
▁Sa	-8.63884
▁Cromer	-8.64058
▁American	-8.64154
▁?	-8.64345
ture	-8.6441
ook	-8.64825
▁known	-8.65025
▁Po	-8.65043
▁talking	-8.65245
▁believe	-8.65316
▁Jane	-8.65355
▁quite	-8.65653
▁nothing	-8.65658
You	-8.65739
▁Lo	-8.65778
▁few	-8.65853
▁set	-8.65882
Possum	-8.65948
LL	-8.66041
▁knew	-8.66267
▁until	-8.66271
ang	-8.6633
ring	-8.66398
▁wi	-8.66443
▁ear	-8.66638
▁huh	-8.66768
▁run	-8.66804
▁sorry	-8.66912
▁ten	-8.67202
▁Daddy	-8.67229
day	-8.67452
bb	-8.6754
▁Tom	-8.67557
cent	-8.67812
▁age	-8.67886
▁All	-8.68148
▁kill	-8.68205
▁wh	-8.68321
▁Ar	-8.68377
▁God	-8.68509
cr	-8.68672
▁live	-8.68683
▁cha	-8.68767
▁hm	-8.6887
ern	-8.68917
fer	-8.69005
▁coming	-8.69207
▁18	-8.69283
▁each	-8.69627
▁Can	-8.6964
▁act	-8.69702
▁sha	-8.69837
▁Then	-8.6987
▁soon	-8.70027
Tilda	-8.70835
▁pencil	-8.70835
▁pretty	-8.70836
▁everything	-8.70836
▁di	-8.7092
▁bad	-8.71087
men	-8.71209
▁round	-8.7125
▁Jo	-8.71464
▁When	-8.71508
▁getting	-8.71533
▁pe	-8.71605
lin	-8.71656
▁str	-8.71693
ran	-8.71785
▁hot	-8.71933
▁vi	-8.72238
▁happen	-8.72524
▁te	-8.72552
ure	-8.73199
▁between	-8.732
▁week	-8.73209
▁died	-8.73469
ac	-8.73679
▁bl	-8.73771
▁‘	-8.73886
▁brother	-8.73886
▁States	-8.73891
▁plan	-8.73943
▁nut	-8.7406
▁Th	-8.74097
▁city	-8.74204
▁mind	-8.74305
▁without	-8.74471
▁himself	-8.74577
▁voice	-8.74577
ner	-8.74768
▁seen	-8.74874
▁Cha	-8.75166
▁wa	-8.75168
▁both	-8.75213
▁remember	-8.75272
land	-8.75451
iz	-8.76147
▁eyes	-8.76334
00	-8.7648
▁wanted	-8.76671
▁bar	-8.76763
▁follow	-8.77033
▁line	-8.77065
▁bra	-8.77588
▁upon	-8.77601
▁Uh	-8.77836
▁Bro	-8.78059
▁story	-8.78111
ise	-8.78335
▁different	-8.78464
▁[2	-8.78553
▁Just	-8.78831
▁hafta	-8.79188
ef	-8.79247
▁sing	-8.79389
▁Me	-8.79411
▁7	-8.79414
▁His	-8.796
▁heart	-8.79674
▁Hi	-8.79742
▁tape	-8.79934
▁erm	-8.79994
spec	-8.80156
▁Na	-8.803
▁looking	-8.8033
▁Right	-8.8065
▁second	-8.80655
▁par	-8.80809
gh	-8.81057
▁Su	-8.81069
▁once	-8.81229
▁red	-8.81321
au	-8.81359
tter	-8.81364
▁half	-8.81416
▁born	-8.81793
ize	-8.81961
gue	-8.81968
▁October	-8.82134
▁municipality	-8.82134
▁having	-8.82136
▁today	-8.82328
▁bird	-8.82512
▁Kitty	-8.82885
▁person	-8.82915
ping	-8.83184
▁mhm	-8.83265
▁fun	-8.83307
▁maybe	-8.83307
▁Fa	-8.83327
▁New	-8.83331
▁sea	-8.83354
▁win	-8.83407
▁year	-8.8361
▁point	-8.8362
▁laugh	-8.83704
lic	-8.83836
▁5	-8.83998
night	-8.84185
▁yet	-8.84186
▁hope	-8.84317
▁coffee	-8.84403
RIC	-8.84438
▁rest	-8.84524
▁va	-8.84717
amp	-8.84753
▁isn	-8.84781
▁fine	-8.84798
ctor	-8.84886
ING	-8.84903
▁box	-8.85244
▁Ka	-8.85379
ron	-8.85425
you	-8.85927
▁along	-8.85948
▁goes	-8.86193
▁Mi	-8.86494
▁gave	-8.86682
X	-8.86724
▁Some	-8.86986
▁Ba	-8.87036
▁happened	-8.8711
▁bring	-8.87259
▁Are	-8.87388
▁2019	-8.87428
▁almost	-8.8751
▁cut	-8.87736
hy	-8.87882
▁gone	-8.88183
▁sleep	-8.8832
▁blue	-8.88334
▁arm	-8.88346
▁finish	-8.88702
▁milk	-8.88702
▁color	-8.88706
ze	-8.88845
▁ready	-8.88852
▁um	-8.8903
qua	-8.89037
light	-8.89306
OR	-8.89456
▁mom	-8.89708
▁YOU	-8.89885
▁hands	-8.89896
▁chair	-8.90025
right	-8.90116
▁town	-8.90367
▁actually	-8.90717
out	-8.90726
▁woman	-8.91188
▁making	-8.91205
▁break	-8.91535
▁yep	-8.9154
▁en	-8.917
▁meet	-8.91846
cream	-8.91852
▁whole	-8.92221
▁air	-8.92516
▁Ru	-8.92575
▁looked	-8.92608
wi	-8.92802
▁idea	-8.92819
▁saying	-8.92864
▁miss	-8.9296
▁six	-8.92991
▁8	-8.93097
▁Pe	-8.93122
gi	-8.93123
ame	-8.93246
LE	-8.93455
▁five	-8.93474
▁change	-8.94073
▁imp	-8.94218
▁fact	-8.94589
by	-8.94842
▁member	-8.94878
▁France	-8.94878
J	-8.95126
qui	-8.95413
▁Look	-8.95774
▁speak	-8.96158
▁against	-8.96293
▁kid	-8.96731
con	-8.96918
▁Ursula	-8.97021
▁movie	-8.97024
▁began	-8.9703
▁white	-8.97047
▁pull	-8.97237
▁Hey	-8.97421
é	-8.97456
▁draw	-8.97457
▁leg	-8.97607
▁noise	-8.97753
▁truck	-8.97895
▁Let	-8.98031
place	-8.9818
ial	-8.98189
▁spell	-8.9834
range	-8.98511
cha	-8.98573
▁soft	-8.98801
port	-8.98877
▁Z	-8.98888
ily	-8.98972
▁understand	-8.99214
▁Where	-8.99216
▁shall	-8.99218
▁record	-8.99278
▁hurt	-8.99671
▁drop	-9.0011
▁wood	-9.00275
▁cup	-9.00528
ES	-9.00578
▁sl	-9.00784
com	-9.00794
▁feet	-9.01014
▁sort	-9.01136
but	-9.01139
▁dere	-9.01196
▁sign	-9.01436
▁Your	-9.01558
▁state	-9.01659
eat	-9.01841
time	-9.02008
▁per	-9.0217
▁Mot	-9.02262
▁fell	-9.02345
▁floor	-9.02371
▁nine	-9.02521
▁Who	-9.0318
▁gu	-9.03241
▁number	-9.03287
▁later	-9.03315
▁mine	-9.03319
▁already	-9.0375
▁goin	-9.03767
▁count	-9.03833
▁lady	-9.03874
And	-9.03938
▁6	-9.03967
ray	-9.04238
Oh	-9.04389
▁star	-9.04751
▁fellow	-9.04753
▁objects	-9.04893
▁Vi	-9.04924
▁Ra	-9.04975
▁Switzerland	-9.05152
▁sta	-9.05396
ating	-9.05462
▁district	-9.05624
▁interest	-9.05627
No	-9.06007
▁juice	-9.06099
▁touch	-9.06253
▁large	-9.06577
▁sometimes	-9.06578
▁felt	-9.06594
▁mar	-9.06729
▁hour	-9.07004
▁Aileen	-9.07052
▁train	-9.07059
▁often	-9.07235
▁moment	-9.07325
ould	-9.07333
▁playing	-9.07474
▁Sarah	-9.07533
▁party	-9.08004
▁wrong	-9.08016
▁food	-9.0802
▁Good	-9.0802
VE	-9.08085
▁9	-9.08228
▁job	-9.08503
▁trying	-9.0852
▁son	-9.08563
▁wouldn	-9.0864
ki	-9.08699
ship	-9.09028
▁throw	-9.09538
ier	-9.09579
ham	-9.09673
▁Or	-9.09684
▁eight	-9.097
▁answer	-9.09973
▁dress	-9.09979
▁full	-9.10169
▁circle	-9.10467
▁Hu	-9.10616
▁Con	-9.11104
▁wish	-9.11162
ount	-9.11895
▁happy	-9.11967
▁boat	-9.12234
▁September	-9.12472
▁till	-9.12489
▁wan	-9.12507
▁hit	-9.12541
▁10	-9.12722
▁turned	-9.12873
▁push	-9.12986
▁death	-9.12988
▁Did	-9.13346
▁listen	-9.14003
▁fair	-9.1401
▁lunch	-9.14519
▁since	-9.14529
▁Vaud	-9.14696
▁probably	-9.15036
▁lived	-9.15371
picks	-9.15433
ature	-9.15872
▁Gu	-9.1592
▁herself	-9.16081
▁seemed	-9.16124
▁clear	-9.16393
▁beautiful	-9.16607
▁certain	-9.16607
▁kitchen	-9.16607
SS	-9.16632
▁jump	-9.16671
▁washer	-9.17222
▁Of	-9.17757
▁ice	-9.17846
▁cold	-9.18157
▁build	-9.18205
▁Indian	-9.18206
▁front	-9.18209
▁poor	-9.18378
▁outside	-9.18562
▁Col	-9.18564
room	-9.18699
▁department	-9.18741
▁problem	-9.18742
▁mouth	-9.18742
▁horse	-9.18742
▁short	-9.18754
▁matter	-9.18817
ez	-9.18923
▁ran	-9.19055
▁Car	-9.19127
Well	-9.19228
▁someone	-9.19274
▁behind	-9.19282
▁check	-9.19283
▁block	-9.19464
▁pay	-9.19496
▁George	-9.19825
▁brought	-9.19825
▁Mon	-9.19853
TH	-9.2028
▁ring	-9.20426
▁grow	-9.20589
▁Pro	-9.207
▁wind	-9.20745
▁picture	-9.20921
▁wagon	-9.20921
But	-9.2165
▁Ni	-9.21689
▁Mm	-9.21915
▁commune	-9.2203
▁daddy	-9.22032
▁May	-9.22097
ator	-9.22479
▁op	-9.23141
▁yourself	-9.23149
▁July	-9.23153
▁careful	-9.23209
ities	-9.23223
▁Mother	-9.23429
▁knock	-9.23714
▁pen	-9.23735
▁One	-9.23855
▁lost	-9.23898
▁east	-9.24301
He	-9.24688
▁gun	-9.2476
▁Man	-9.24891
where	-9.24893
▁buy	-9.25256
ible	-9.25388
▁seven	-9.25429
▁Har	-9.2543
▁country	-9.25535
▁gotta	-9.25595
come	-9.25838
▁group	-9.26007
born	-9.26013
▁sir	-9.26121
▁boo	-9.26155
▁hair	-9.26418
▁page	-9.26542
▁across	-9.26588
EN	-9.26988
val	-9.27419
▁blow	-9.27515
▁business	-9.27761
▁rock	-9.28019
OW	-9.28302
▁trouble	-9.28353
▁snow	-9.28367
▁construction	-9.28368
Franc	-9.28654
▁foot	-9.28964
run	-9.29443
▁ju	-9.29492
▁fight	-9.29547
▁wonder	-9.29601
ix	-9.29772
Chi	-9.29882
▁sun	-9.30115
▁quick	-9.30248
▁office	-9.30451
CH	-9.30572
▁appear	-9.30755
▁return	-9.30755
lf	-9.30829
▁window	-9.30832
▁dur	-9.3088
▁case	-9.31324
▁true	-9.31377
▁mark	-9.31849
▁suppose	-9.31978
▁dream	-9.31982
▁music	-9.31983
▁clip	-9.31984
▁funny	-9.32033
▁shoe	-9.32043
▁sub	-9.32199
▁12	-9.32201
▁bag	-9.32291
▁County	-9.32596
▁present	-9.32605
▁cover	-9.32877
▁butter	-9.33208
▁2020	-9.33217
▁ride	-9.33543
OO	-9.33596
▁Fi	-9.33815
▁tried	-9.33865
▁cool	-9.34218
▁started	-9.34385
▁send	-9.34407
IN	-9.3461
stead	-9.34651
▁airplane	-9.35104
▁sugar	-9.35106
▁Garth	-9.35106
▁cook	-9.3547
huh	-9.35708
sign	-9.36055
▁Ja	-9.36328
▁reason	-9.36384
▁Lu	-9.36643
▁perhaps	-9.37027
▁whisper	-9.37027
▁street	-9.3703
▁Have	-9.37436
▁became	-9.37677
▁month	-9.3768
▁road	-9.37963
▁become	-9.37994
▁duck	-9.38133
▁afraid	-9.3833
▁straight	-9.3833
▁kept	-9.3833
▁After	-9.38331
NA	-9.38333
▁Get	-9.38348
▁finger	-9.38439
▁dead	-9.38842
▁join	-9.38997
▁hole	-9.3903
What	-9.39052
▁continue	-9.39097
▁2019)	-9.39124
▁stuck	-9.39211
▁AND	-9.39652
▁crack	-9.39749
takes	-9.39945
▁free	-9.40578
▁bath	-9.40624
▁ski	-9.40888
▁sweet	-9.40994
▁flower	-9.40995
▁OF	-9.41155
▁land	-9.41263
▁daughter	-9.41664
▁green	-9.4167
▁song	-9.41713
▁January	-9.42344
▁learn	-9.42347
▁running	-9.42351
▁among	-9.42356
▁step	-9.42361
▁fix	-9.4255
bout	-9.42798
elect	-9.42814
Q	-9.43028
▁myself	-9.43029
▁Miss	-9.43266
▁lead	-9.43293
graph	-9.43719
▁strong	-9.4372
▁alone	-9.43754
▁Che	-9.43786
▁expect	-9.44413
▁somebody	-9.44413
▁With	-9.44417
▁$	-9.44503
▁late	-9.45053
▁trunk	-9.45112
▁animal	-9.45115
▁egg	-9.45117
▁taking	-9.45119
▁Papa	-9.45208
Yes	-9.45339
▁carry	-9.45489
▁wheel	-9.45817
▁quiet	-9.45819
▁glad	-9.45826
▁sitting	-9.45938
ouch	-9.46001
▁hang	-9.46124
▁ahead	-9.46531
▁visit	-9.46534
▁burn	-9.46543
▁April	-9.4724
▁broken	-9.47663
direct	-9.47789
▁writing	-9.47959
▁either	-9.4796
▁Doubs	-9.47963
▁clean	-9.47964
▁politician	-9.48684
▁breath	-9.48684
▁wife	-9.48725
▁fast	-9.48831
▁stuff	-9.49414
▁body	-9.49526
▁Jack	-9.50362
▁pan	-9.50549
position	-9.50892
▁catch	-9.509
▁North	-9.50966
*	-9.51035
▁rather	-9.51127
▁gen	-9.51411
▁early	-9.51592
▁twenty	-9.51636
▁spoon	-9.5164
▁power	-9.51648
▁river	-9.51741
▁past	-9.52181
▁save	-9.52419
▁Because	-9.52441
▁perfect	-9.53146
▁sister	-9.53165
▁Maybe	-9.53188
▁agree	-9.53228
▁order	-9.53635
▁Florence	-9.53909
▁population	-9.53909
▁(19	-9.53909
▁stood	-9.53911
▁17	-9.54146
▁Christmas	-9.54678
▁tomorrow	-9.54678
▁easy	-9.54683
eph	-9.54806
overlap	-9.54843
▁16	-9.54911
▁Every	-9.55145
▁Kansas	-9.55453
▁Harwood	-9.55458
▁15	-9.55743
▁tired	-9.56253
▁report	-9.56467
board	-9.56509
▁Bourg	-9.57025
▁shoot	-9.57031
▁Ex	-9.57406
▁reach	-9.57466
▁cheese	-9.57816
attempt	-9.57816
▁die	-9.58356
▁doctor	-9.58364
▁themselves	-9.58615
▁several	-9.58618
▁Chris	-9.59422
▁whether	-9.59422
▁living	-9.59424
▁stool	-9.59425
ogne	-9.5943
▁strange	-9.59549
▁Peter	-9.59557
▁seems	-9.59739
▁President	-9.60235
▁sudden	-9.60235
referent	-9.60246
▁enter	-9.60422
Comté	-9.61055
▁#	-9.61057
▁cross	-9.61059
▁health	-9.61071
▁drive	-9.61145
xcuse	-9.61631
▁cookie	-9.61852
▁University	-9.61881
▁Please	-9.61881
▁figure	-9.61881
▁promise	-9.61885
▁store	-9.61956
▁14	-9.62101
▁English	-9.62714
▁police	-9.62716
▁company	-9.62717
▁fear	-9.62737
▁term	-9.62848
=	-9.62954
▁dinner	-9.63556
▁least	-9.6356
▁tail	-9.63572
▁held	-9.63633
cept	-9.64296
▁hundred	-9.64402
▁uhhuh	-9.64448
ja	-9.64941
▁clothes	-9.65257
▁ground	-9.65258
ju	-9.65853
▁usually	-9.66119
▁Laura	-9.66122
▁summer	-9.66989
▁teacher	-9.66991
▁wild	-9.66999
▁safe	-9.6705
▁broke	-9.67348
1.5	-9.67833
▁breakfast	-9.67866
▁service	-9.67866
▁million	-9.67867
▁South	-9.67878
▁spring	-9.67958
▁tower	-9.67984
▁caught	-9.68005
▁OK	-9.68084
▁camp	-9.68333
▁basket	-9.68751
▁apple	-9.68751
▁brown	-9.68753
▁magic	-9.68762
▁trans	-9.6877
▁Phil	-9.68799
▁paint	-9.69168
▁bottom	-9.69643
▁French	-9.69643
▁dark	-9.69652
▁busy	-9.69734
▁north	-9.69798
▁luck	-9.69887
cord	-9.70048
▁Bill	-9.70112
▁11	-9.70239
▁phone	-9.70547
▁Jean	-9.70548
▁consider	-9.70552
▁smile	-9.70582
▁chance	-9.70856
▁23	-9.70987
▁circus	-9.71453
▁capital	-9.71453
▁giving	-9.71453
▁grand	-9.71461
▁attack	-9.71466
LDES	-9.7237
▁November	-9.72371
▁television	-9.72371
lthough	-9.72392
▁south	-9.72509
▁surprise	-9.73297
volution	-9.73297
▁Aggie	-9.73297
▁important	-9.73297
▁Town	-9.73306
▁general	-9.7331
aft	-9.74102
▁unclear	-9.74275
▁forget	-9.74293
▁spend	-9.74401
ably	-9.74751
▁character	-9.75175
▁turtle	-9.75175
▁German	-9.75177
▁blood	-9.75177
▁lift	-9.75194
▁21	-9.75549
▁24	-9.75585
house	-9.75674
▁above	-9.76138
play	-9.76515
aught	-9.76943
moves	-9.76952
▁plastic	-9.77089
▁corner	-9.7709
▁middle	-9.7806
▁Hello	-9.78091
▁Ri	-9.78412
á	-9.7904
▁language	-9.7904
▁anybody	-9.7904
▁village	-9.7904
▁supper	-9.79041
▁hunt	-9.79149
▁secret	-9.79195
▁forgot	-9.79725
▁Illinois	-9.8003
▁wrote	-9.80031
▁glass	-9.80033
▁self	-9.80038
▁fill	-9.80115
That	-9.80443
what	-9.80446
▁begin	-9.81065
▁Urs	-9.81109
▁Republic	-9.8204
▁include	-9.8204
▁afternoon	-9.82041
▁balloon	-9.82043
ridge	-9.82082
▁notice	-9.82419
▁August	-9.83061
▁enjoy	-9.83061
clear	-9.83454
▁Tripp	-9.84091
▁exactly	-9.84091
▁series	-9.84109
▁wonderful	-9.84143
▁treat	-9.84263
▁birthday	-9.85133
▁everybody	-9.85133
▁remain	-9.85138
▁bread	-9.85139
▁bowl	-9.85178
▁December	-9.86186
▁grape	-9.86187
▁belong	-9.86188
▁spoke	-9.86189
▁plate	-9.86193
▁joy	-9.86194
▁James	-9.86195
▁grew	-9.86196
▁cried	-9.86224
▁football	-9.8725
▁murder	-9.8725
▁region	-9.87254
▁sense	-9.88346
▁receiv	-9.88386
▁Will	-9.88434
burg	-9.88572
points	-9.88911
▁People	-9.89412
▁crayon	-9.89412
▁Nothing	-9.89426
▁except	-9.89459
▁shot	-9.89481
▁current	-9.90511
▁thousand	-9.90511
▁special	-9.90511
▁June	-9.90515
▁Sorry	-9.90518
▁River	-9.90568
Home	-9.91152
▁accident	-9.91622
%	-10.1347
è	-10.2753
í	-10.3078
&	-10.3587
|	-10.4885
Z	-10.6317
ó	-10.9604
q	-11.0139
+	-11.0605
[	-11.1657
É	-11.1717
ä	-11.1717
č	-11.2969
$	-11.3363
(	-11.3839
­	-11.44
ü	-11.4926
ć	-11.4926
¶	-11.5481
š	-11.7361
ö	-11.8845
°	-11.8845
à	-11.9678
ú	-11.9678
ç	-12.0587
ñ	-12.0587
@	-12.1587
}	-12.1587
`	-12.1587
¡	-12.1587
â	-12.1587
æ	-12.3948
ô	-12.3948
Î	-12.5377
ß	-12.7043
ś	-12.7043
ū	-13.1543
À	-13.1543
‚	-13.1543
ł	-13.1543
“	-13.4817
ė	-13.4877
å	-13.4877
ě	-13.4877
′	-13.4877
ʊ	-13.4877
ŭ	-13.9877
∂	-13.9877
Í	-13.9877
Ò	-13.9877
Ö	-13.9877
×	-13.9877
î	-13.9877
ù	-13.9877
œ	-13.9877
ɐ	-13.9877
¤	-13.9877
ï	-13.9877
ˈ	-13.9877
#	-14.9821
ž	-14.9864
^	-14.9865
Š	-14.9866
ø	-14.9867
Á	-14.9868
~	-14.9869
ğ	-14.987
ë	-14.9871
ê	-14.9872
\	-14.9873
{	-14.9874
ã	-14.9875
♪	-14.9876
Ś	-14.9877
Ú	-14.9877
ā	-14.9877
„	-14.9877
£	-14.9877
Û	-14.9877
ò	-14.9877
÷	-14.9877
ý	-14.9877
ą	-14.9877
Č	-14.9877
đ	-14.9877
ı	-14.9877
ň	-14.9877
ō	-14.9877
ř	-14.9877
ş	-14.9877
ș	-14.9877
ʋ	-14.9877
†	-14.9877
₤	-14.9877
€	-14.9877
ɫ	-14.9877
‘	-14.9877
