<pad>	0
<unk>	0
<s>	0
</s>	0
@@	0
<0x00>	0
<0x01>	0
<0x02>	0
<0x03>	0
<0x04>	0
<0x05>	0
<0x06>	0
<0x07>	0
<0x08>	0
<0x09>	0
<0x0A>	0
<0x0B>	0
<0x0C>	0
<0x0D>	0
<0x0E>	0
<0x0F>	0
<0x10>	0
<0x11>	0
<0x12>	0
<0x13>	0
<0x14>	0
<0x15>	0
<0x16>	0
<0x17>	0
<0x18>	0
<0x19>	0
<0x1A>	0
<0x1B>	0
<0x1C>	0
<0x1D>	0
<0x1E>	0
<0x1F>	0
<0x20>	0
<0x21>	0
<0x22>	0
<0x23>	0
<0x24>	0
<0x25>	0
<0x26>	0
<0x27>	0
<0x28>	0
<0x29>	0
<0x2A>	0
<0x2B>	0
<0x2C>	0
<0x2D>	0
<0x2E>	0
<0x2F>	0
<0x30>	0
<0x31>	0
<0x32>	0
<0x33>	0
<0x34>	0
<0x35>	0
<0x36>	0
<0x37>	0
<0x38>	0
<0x39>	0
<0x3A>	0
<0x3B>	0
<0x3C>	0
<0x3D>	0
<0x3E>	0
<0x3F>	0
<0x40>	0
<0x41>	0
<0x42>	0
<0x43>	0
<0x44>	0
<0x45>	0
<0x46>	0
<0x47>	0
<0x48>	0
<0x49>	0
<0x4A>	0
<0x4B>	0
<0x4C>	0
<0x4D>	0
<0x4E>	0
<0x4F>	0
<0x50>	0
<0x51>	0
<0x52>	0
<0x53>	0
<0x54>	0
<0x55>	0
<0x56>	0
<0x57>	0
<0x58>	0
<0x59>	0
<0x5A>	0
<0x5B>	0
<0x5C>	0
<0x5D>	0
<0x5E>	0
<0x5F>	0
<0x60>	0
<0x61>	0
<0x62>	0
<0x63>	0
<0x64>	0
<0x65>	0
<0x66>	0
<0x67>	0
<0x68>	0
<0x69>	0
<0x6A>	0
<0x6B>	0
<0x6C>	0
<0x6D>	0
<0x6E>	0
<0x6F>	0
<0x70>	0
<0x71>	0
<0x72>	0
<0x73>	0
<0x74>	0
<0x75>	0
<0x76>	0
<0x77>	0
<0x78>	0
<0x79>	0
<0x7A>	0
<0x7B>	0
<0x7C>	0
<0x7D>	0
<0x7E>	0
<0x7F>	0
<0x80>	0
<0x81>	0
<0x82>	0
<0x83>	0
<0x84>	0
<0x85>	0
<0x86>	0
<0x87>	0
<0x88>	0
<0x89>	0
<0x8A>	0
<0x8B>	0
<0x8C>	0
<0x8D>	0
<0x8E>	0
<0x8F>	0
<0x90>	0
<0x91>	0
<0x92>	0
<0x93>	0
<0x94>	0
<0x95>	0
<0x96>	0
<0x97>	0
<0x98>	0
<0x99>	0
<0x9A>	0
<0x9B>	0
<0x9C>	0
<0x9D>	0
<0x9E>	0
<0x9F>	0
<0xA0>	0
<0xA1>	0
<0xA2>	0
<0xA3>	0
<0xA4>	0
<0xA5>	0
<0xA6>	0
<0xA7>	0
<0xA8>	0
<0xA9>	0
<0xAA>	0
<0xAB>	0
<0xAC>	0
<0xAD>	0
<0xAE>	0
<0xAF>	0
<0xB0>	0
<0xB1>	0
<0xB2>	0
<0xB3>	0
<0xB4>	0
<0xB5>	0
<0xB6>	0
<0xB7>	0
<0xB8>	0
<0xB9>	0
<0xBA>	0
<0xBB>	0
<0xBC>	0
<0xBD>	0
<0xBE>	0
<0xBF>	0
<0xC0>	0
<0xC1>	0
<0xC2>	0
<0xC3>	0
<0xC4>	0
<0xC5>	0
<0xC6>	0
<0xC7>	0
<0xC8>	0
<0xC9>	0
<0xCA>	0
<0xCB>	0
<0xCC>	0
<0xCD>	0
<0xCE>	0
<0xCF>	0
<0xD0>	0
<0xD1>	0
<0xD2>	0
<0xD3>	0
<0xD4>	0
<0xD5>	0
<0xD6>	0
<0xD7>	0
<0xD8>	0
<0xD9>	0
<0xDA>	0
<0xDB>	0
<0xDC>	0
<0xDD>	0
<0xDE>	0
<0xDF>	0
<0xE0>	0
<0xE1>	0
<0xE2>	0
<0xE3>	0
<0xE4>	0
<0xE5>	0
<0xE6>	0
<0xE7>	0
<0xE8>	0
<0xE9>	0
<0xEA>	0
<0xEB>	0
<0xEC>	0
<0xED>	0
<0xEE>	0
<0xEF>	0
<0xF0>	0
<0xF1>	0
<0xF2>	0
<0xF3>	0
<0xF4>	0
<0xF5>	0
<0xF6>	0
<0xF7>	0
<0xF8>	0
<0xF9>	0
<0xFA>	0
<0xFB>	0
<0xFC>	0
<0xFD>	0
<0xFE>	0
<0xFF>	0
▁t	-0
he	-1
▁a	-2
in	-3
▁w	-4
▁s	-5
▁the	-6
ou	-7
re	-8
▁o	-9
er	-10
ha	-11
▁b	-12
▁c	-13
▁m	-14
nd	-15
it	-16
▁d	-17
▁f	-18
▁y	-19
ed	-20
on	-21
▁p	-22
is	-23
ing	-24
▁to	-25
an	-26
▁you	-27
or	-28
▁l	-29
▁g	-30
ll	-31
en	-32
▁I	-33
▁and	-34
es	-35
ar	-36
▁in	-37
▁of	-38
▁n	-39
hat	-40
as	-41
▁he	-42
om	-43
▁h	-44
at	-45
▁ha	-46
▁it	-47
ow	-48
ot	-49
▁th	-50
le	-51
ve	-52
▁that	-53
ic	-54
▁be	-55
▁on	-56
▁we	-57
id	-58
us	-59
et	-60
al	-61
▁is	-62
▁e	-63
▁was	-64
ld	-65
ut	-66
gh	-67
ay	-68
▁r	-69
▁re	-70
▁st	-71
▁"	-72
ke	-73
im	-74
▁u	-75
▁for	-76
ly	-77
ac	-78
ir	-79
oo	-80
ion	-81
▁do	-82
ad	-83
▁k	-84
ent	-85
▁j	-86
am	-87
se	-88
▁an	-89
ght	-90
ver	-91
out	-92
ith	-93
st	-94
▁me	-95
▁with	-96
ur	-97
▁as	-98
▁se	-99
▁li	-100
▁wh	-101
ch	-102
▁go	-103
ome	-104
▁have	-105
ro	-106
▁what	-107
ould	-108
ill	-109
▁not	-110
▁T	-111
▁at	-112
▁de	-113
▁fr	-114
ce	-115
th	-116
▁there	-117
ight	-118
..	-119
▁thi	-120
▁i	-121
▁are	-122
ie	-123
▁kn	-124
▁can	-125
ust	-126
il	-127
▁she	-128
▁whe	-129
▁his	-130
all	-131
▁sa	-132
▁so	-133
ct	-134
▁one	-135
ant	-136
▁ne	-137
▁1	-138
▁your	-139
un	-140
▁The	-141
▁A	-142
▁don	-143
▁know	-144
ain	-145
▁mo	-146
and	-147
▁her	-148
op	-149
▁had	-150
▁but	-151
▁up	-152
▁all	-153
▁sh	-154
ge	-155
▁al	-156
um	-157
ol	-158
▁H	-159
▁my	-160
▁like	-161
ul	-162
ook	-163
art	-164
our	-165
▁tr	-166
▁2	-167
▁ab	-168
pp	-169
est	-170
▁from	-171
▁pl	-172
▁or	-173
ink	-174
xx	-175
ab	-176
▁get	-177
ake	-178
▁him	-179
▁out	-180
▁su	-181
▁no	-182
ig	-183
ft	-184
ea	-185
qu	-186
ack	-187
▁com	-188
▁said	-189
▁did	-190
▁see	-191
▁just	-192
▁by	-193
▁v	-194
ood	-195
tion	-196
ast	-197
▁were	-198
ck	-199
▁un	-200
▁sp	-201
▁some	-202
itt	-203
ame	-204
▁te	-205
ind	-206
▁er	-207
ri	-208
▁wor	-209
▁think	-210
▁us	-211
▁fe	-212
▁well	-213
▁them	-214
na	-215
▁S	-216
▁got	-217
ound	-218
▁about	-219
ap	-220
▁would	-221
."	-222
▁br	-223
▁con	-224
▁when	-225
os	-226
▁He	-227
han	-228
▁ch	-229
▁then	-230
ter	-231
▁if	-232
ard	-233
▁look	-234
▁here	-235
▁20	-236
one	-237
ate	-238
ive	-239
▁(	-240
▁“	-241
ong	-242
▁ex	-243
▁now	-244
ess	-245
...	-246
▁pro	-247
▁will	-248
▁want	-249
▁It	-250
ort	-251
own	-252
ist	-253
▁19	-254
her	-255
▁-	-256
,"	-257
fe	-258
▁any	-259
▁who	-260
▁man	-261
el	-262
nt	-263
ak	-264
▁tw	-265
ag	-266
▁bo	-267
ice	-268
▁en	-269
ime	-270
ich	-271
▁gr	-272
▁say	-273
ough	-274
▁ar	-275
▁di	-276
▁le	-277
▁lo	-278
▁am	-279
ore	-280
▁ver	-281
▁ag	-282
▁O	-283
ick	-284
ish	-285
use	-286
ittle	-287
▁put	-288
▁pre	-289
▁little	-290
ine	-291
ment	-292
▁cl	-293
ca	-294
▁ro	-295
▁qu	-296
▁co	-297
▁Y	-298
▁pe	-299
ous	-300
oth	-301
▁where	-302
▁B	-303
▁could	-304
▁has	-305
ide	-306
▁been	-307
▁going	-308
▁time	-309
ation	-310
▁which	-311
ite	-312
▁more	-313
ep	-314
▁down	-315
mb	-316
▁M	-317
▁back	-318
▁right	-319
▁good	-320
▁come	-321
ace	-322
ra	-323
▁over	-324
▁off	-325
ree	-326
▁dis	-327
▁how	-328
▁'	-329
▁xx	-330
lf	-331
▁N	-332
▁You	-333
to	-334
▁xxx	-335
ose	-336
▁too	-337
▁thing	-338
▁two	-339
▁bl	-340
cause	-341
ud	-342
▁let	-343
▁And	-344
orn	-345
ip	-346
ure	-347
▁ever	-348
▁their	-349
ath	-350
ven	-351
▁cha	-352
are	-353
eth	-354
ear	-355
ian	-356
ia	-357
iv	-358
ers	-359
--	-360
te	-361
ople	-362
ought	-363
▁oh	-364
ff	-365
we	-366
▁fir	-367
▁people	-368
▁pr	-369
▁mar	-370
res	-371
age	-372
▁than	-373
▁cou	-374
▁make	-375
ild	-376
ade	-377
▁aft	-378
▁sha	-379
▁po	-380
▁aw	-381
▁fl	-382
▁som	-383
ach	-384
▁take	-385
▁gon	-386
?"	-387
eah	-388
▁W	-389
▁yeah	-390
▁car	-391
▁work	-392
▁first	-393
▁into	-394
▁gonna	-395
▁again	-396
▁they	-397
od	-398
▁part	-399
ue	-400
alk	-401
▁way	-402
▁oth	-403
▁because	-404
▁jo	-405
urn	-406
▁sc	-407
▁tell	-408
▁mean	-409
▁gre	-410
▁ad	-411
▁She	-412
so	-413
ry	-414
ase	-415
▁should	-416
▁call	-417
▁.	-418
ble	-419
▁bet	-420
▁day	-421
ile	-422
ne	-423
▁mu	-424
▁need	-425
▁In	-426
▁But	-427
▁comp	-428
▁these	-429
av	-430
ord	-431
act	-432
▁onl	-433
▁fo	-434
▁year	-435
▁thr	-436
ful	-437
▁gu	-438
▁our	-439
▁wat	-440
▁may	-441
pe	-442
self	-443
▁bu	-444
fore	-445
▁201	-446
▁act	-447
▁ac	-448
ru	-449
▁ke	-450
the	-451
ire	-452
ond	-453
pt	-454
cl	-455
▁someth	-456
wn	-457
man	-458
▁didn	-459
▁much	-460
▁per	-461
▁made	-462
▁hand	-463
▁mis	-464
ang	-465
▁sm	-466
int	-467
pl	-468
▁play	-469
ial	-470
▁wr	-471
▁before	-472
▁long	-473
able	-474
▁count	-475
ance	-476
▁went	-477
be	-478
au	-479
ass	-480
per	-481
▁ask	-482
▁erm	-483
ouse	-484
▁har	-485
ool	-486
iz	-487
▁also	-488
me	-489
▁those	-490
▁three	-491
if	-492
▁hel	-493
▁mom	-494
ub	-495
sion	-496
▁im	-497
▁boy	-498
▁D	-499
▁big	-500
▁app	-501
▁cr	-502
.”	-503
▁ok	-504
uck	-505
▁uh	-506
irl	-507
▁new	-508
▁old	-509
ffe	-510
▁ser	-511
▁wan	-512
▁thought	-513
▁comm	-514
▁happ	-515
▁Mr	-516
▁ho	-517
▁min	-518
▁So	-519
der	-520
▁came	-521
▁why	-522
ix	-523
▁home	-524
▁must	-525
llow	-526
ise	-527
▁even	-528
ict	-529
▁lea	-530
▁nev	-531
▁give	-532
▁talk	-533
ew	-534
▁wanna	-535
▁girl	-536
em	-537
▁house	-538
way	-539
▁sl	-540
ert	-541
▁pol	-542
▁che	-543
▁bit	-544
▁mat	-545
ies	-546
▁child	-547
▁last	-548
▁inter	-549
▁through	-550
ence	-551
ious	-552
▁turn	-553
▁doe	-554
▁start	-555
▁ple	-556
gg	-557
▁great	-558
ren	-559
▁bab	-560
▁this	-561
▁help	-562
▁yes	-563
ave	-564
▁cont	-565
▁spe	-566
ark	-567
▁find	-568
land	-569
▁Oh	-570
▁head	-571
umm	-572
ican	-573
▁won	-574
▁lot	-575
▁try	-576
▁chan	-577
▁sec	-578
▁still	-579
▁show	-580
▁dad	-581
sh	-582
igh	-583
▁sch	-584
ail	-585
▁most	-586
ign	-587
og	-588
umb	-589
▁used	-590
!"	-591
▁bel	-592
air	-593
▁name	-594
ull	-595
▁el	-596
▁might	-597
▁anoth	-598
▁mov	-599
▁We	-600
▁gl	-601
▁202	-602
,”	-603
▁eat	-604
▁pla	-605
▁every	-606
▁mon	-607
iend	-608
ual	-609
00	-610
ng	-611
▁sw	-612
▁um	-613
ult	-614
▁bre	-615
mo	-616
▁ear	-617
▁kind	-618
▁op	-619
▁dr	-620
port	-621
▁book	-622
▁ph	-623
▁found	-624
▁doing	-625
ern	-626
▁ed	-627
ush	-628
ward	-629
par	-630
▁done	-631
▁No	-632
xt	-633
und	-634
▁four	-635
ock	-636
ma	-637
▁love	-638
amp	-639
▁night	-640
ye	-641
you	-642
▁char	-643
▁keep	-644
▁col	-645
other	-646
anc	-647
▁does	-648
▁nor	-649
▁friend	-650
rent	-651
▁E	-652
up	-653
aw	-654
▁200	-655
▁isn	-656
bod	-657
▁amer	-658
ank	-659
▁supp	-660
uc	-661
ness	-662
ince	-663
▁such	-664
▁cit	-665
▁cour	-666
▁school	-667
▁feel	-668
▁care	-669
day	-670
▁str	-671
▁being	-672
▁seem	-673
▁far	-674
▁ele	-675
unn	-676
▁anyth	-677
orr	-678
▁tak	-679
▁same	-680
▁shall	-681
▁own	-682
▁fin	-683
but	-684
▁its	-685
▁place	-686
ty	-687
▁wa	-688
▁C	-689
▁open	-690
ope	-691
▁while	-692
ton	-693
▁3	-694
get	-695
▁war	-696
ident	-697
red	-698
▁sit	-699
▁If	-700
▁form	-701
▁liv	-702
▁lad	-703
▁sure	-704
▁*	-705
ect	-706
ek	-707
▁word	-708
▁next	-709
▁use	-710
▁mak	-711
▁around	-712
".	-713
▁cap	-714
oh	-715
▁doesn	-716
▁nice	-717
▁quite	-718
▁life	-719
▁G	-720
▁cle	-721
▁known	-722
ib	-723
mp	-724
ens	-725
gan	-726
ash	-727
til	-728
▁diffe	-729
ress	-730
da	-731
side	-732
▁lat	-733
▁ma	-734
pr	-735
omb	-736
tr	-737
nder	-738
▁american	-739
gr	-740
for	-741
iver	-742
▁cat	-743
▁_	-744
▁told	-745
▁fam	-746
▁acc	-747
▁set	-748
▁please	-749
▁left	-750
az	-751
▁,	-752
▁alway	-753
ph	-754
▁stor	-755
▁world	-756
▁hard	-757
▁air	-758
▁stop	-759
inn	-760
▁five	-761
▁okay	-762
▁face	-763
▁stat	-764
▁men	-765
▁high	-766
ctor	-767
▁awa	-768
▁young	-769
▁cre	-770
outh	-771
oss	-772
▁ste	-773
▁though	-774
rs	-775
ta	-776
ason	-777
▁bett	-778
▁near	-779
▁sur	-780
▁bec	-781
ob	-782
vel	-783
▁best	-784
▁took	-785
▁wait	-786
▁room	-787
▁ter	-788
▁ob	-789
ute	-790
ah	-791
ane	-792
▁mone	-793
▁sing	-794
ug	-795
ible	-796
ros	-797
▁dadd	-798
▁list	-799
▁watch	-800
▁saw	-801
▁gen	-802
▁cons	-803
ott	-804
▁point	-805
▁wom	-806
▁arm	-807
hn	-808
vi	-809
ump	-810
memb	-811
aught	-812
▁bus	-813
ited	-814
).	-815
erson	-816
▁door	-817
ww	-818
les	-819
▁sta	-820
read	-821
▁state	-822
ans	-823
▁born	-824
▁light	-825
▁stand	-826
▁bar	-827
ung	-828
de	-829
▁L	-830
▁six	-831
▁ot	-832
▁else	-833
▁bed	-834
▁F	-835
▁john	-836
vent	-837
▁walk	-838
▁happen	-839
▁under	-840
ally	-841
▁199	-842
▁died	-843
eak	-844
▁numb	-845
yes	-846
▁bomb	-847
▁few	-848
▁em	-849
▁noth	-850
▁dire	-851
unt	-852
▁sle	-853
▁gone	-854
here	-855
hy	-856
▁cent	-857
▁once	-858
ork	-859
▁mrs	-860
▁round	-861
▁mag	-862
▁sort	-863
ote	-864
ci	-865
▁18	-866
co	-867
▁different	-868
▁gett	-869
pect	-870
▁mus	-871
▁course	-872
▁hear	-873
▁both	-874
une	-875
▁foot	-876
▁end	-877
▁bro	-878
▁z	-879
▁mil	-880
li	-881
▁thank	-882
▁morn	-883
ount	-884
▁other	-885
▁maybe	-886
▁wind	-887
▁pop	-888
▁side	-889
▁hor	-890
▁mind	-891
ular	-892
▁half	-893
▁ans	-894
▁par	-895
cc	-896
▁seen	-897
▁[	-898
uff	-899
▁hur	-900
▁cur	-901
▁mumm	-902
ather	-903
HE	-904
▁vo	-905
?”	-906
▁lar	-907
▁–	-908
▁giv	-909
▁second	-910
sp	-911
▁ger	-912
▁bir	-913
▁pa	-914
▁follow	-915
son	-916
▁since	-917
▁hav	-918
▁betwe	-919
enn	-920
▁eye	-921
▁yet	-922
riv	-923
ity	-924
fta	-925
▁att	-926
▁nation	-927
dd	-928
▁U	-929
▁THE	-930
▁hafta	-931
",	-932
gl	-933
▁belie	-934
▁week	-935
tain	-936
▁leave	-937
▁Er	-938
▁moment	-939
io	-940
▁pap	-941
ple	-942
▁anim	-943
▁person	-944
▁thir	-945
what	-946
▁away	-947
ho	-948
raw	-949
▁small	-950
▁hold	-951
▁memb	-952
▁upon	-953
▁haven	-954
▁eight	-955
▁ca	-956
▁serv	-957
▁sy	-958
oy	-959
ret	-960
▁tre	-961
▁heard	-962
lt	-963
▁198	-964
▁grand	-965
▁bart	-966
sc	-967
▁sk	-968
ina	-969
▁sn	-970
well	-971
part	-972
▁pat	-973
▁himself	-974
ubl	-975
▁bas	-976
▁add	-977
▁dur	-978
▁4	-979
▁guy	-980
▁each	-981
enc	-982
itic	-983
▁bad	-984
▁fire	-985
bab	-986
ject	-987
▁sub	-988
oup	-989
▁soon	-990
▁chair	-991
▁coll	-992
▁without	-993
most	-994
pres	-995
▁bring	-996
tty	-997
ball	-998
clud	-999
▁pick	-1000
▁momm	-1001
▁pay	-1002
▁5	-1003
▁sat	-1004
▁tim	-1005
▁As	-1006
▁against	-1007
ont	-1008
▁run	-1009
ipp	-1010
▁north	-1011
ift	-1012
▁heart	-1013
▁New	-1014
har	-1015
▁tom	-1016
▁star	-1017
▁sleep	-1018
▁town	-1019
▁bomba	-1020
uh	-1021
▁How	-1022
▁pie	-1023
▁answ	-1024
▁team	-1025
bru	-1026
ange	-1027
▁chr	-1028
▁everyth	-1029
ee	-1030
▁fall	-1031
▁wond	-1032
▁sho	-1033
nc	-1034
▁spo	-1035
▁move	-1036
▁probab	-1037
ady	-1038
▁fami	-1039
▁knew	-1040
tend	-1041
bruar	-1042
▁break	-1043
▁compan	-1044
▁goe	-1045
no	-1046
vern	-1047
▁kill	-1048
rat	-1049
▁sound	-1050
▁live	-1051
▁top	-1052
▁speak	-1053
▁hour	-1054
▁prov	-1055
▁pass	-1056
ann	-1057
ling	-1058
▁area	-1059
sent	-1060
ship	-1061
▁king	-1062
ese	-1063
),	-1064
ient	-1065
▁dog	-1066
▁along	-1067
ica	-1068
▁Do	-1069
▁music	-1070
▁His	-1071
1:	-1072
▁On	-1073
▁fact	-1074
▁game	-1075
▁actual	-1076
▁februar	-1077
uth	-1078
▁gener	-1079
▁white	-1080
che	-1081
cle	-1082
▁ball	-1083
ell	-1084
▁197	-1085
▁food	-1086
ream	-1087
ition	-1088
ev	-1089
▁dar	-1090
▁gave	-1091
▁water	-1092
▁age	-1093
▁govern	-1094
▁movie	-1095
ction	-1096
▁read	-1097
▁tri	-1098
ama	-1099
▁la	-1100
▁black	-1101
▁land	-1102
▁oka	-1103
▁meet	-1104
▁ass	-1105
▁met	-1106
where	-1107
▁6	-1108
▁west	-1109
▁sim	-1110
▁ten	-1111
▁mark	-1112
▁wasn	-1113
that	-1114
▁wouldn	-1115
▁=	-1116
▁tele	-1117
▁train	-1118
▁id	-1119
uar	-1120
▁8	-1121
▁J	-1122
▁Now	-1123
▁almost	-1124
▁hey	-1125
▁fath	-1126
ield	-1127
▁stud	-1128
▁fro	-1129
▁mother	-1130
▁sign	-1131
stand	-1132
▁today	-1133
less	-1134
▁color	-1135
▁cut	-1136
▁believe	-1137
ula	-1138
sel	-1139
ator	-1140
▁cal	-1141
ertain	-1142
▁nat	-1143
▁christ	-1144
▁box	-1145
▁hope	-1146
▁ben	-1147
▁moth	-1148
ief	-1149
▁P	-1150
turn	-1151
▁son	-1152
▁group	-1153
▁whole	-1154
▁spec	-1155
▁stuff	-1156
▁prod	-1157
▁baby	-1158
▁sil	-1159
wa	-1160
▁build	-1161
hap	-1162
▁af	-1163
▁7	-1164
born	-1165
tle	-1166
▁hund	-1167
cent	-1168
▁med	-1169
▁doll	-1170
▁♪	-1171
▁At	-1172
▁hat	-1173
▁job	-1174
▁short	-1175
▁poor	-1176
br	-1177
▁blue	-1178
▁196	-1179
▁es	-1180
iss	-1181
let	-1182
▁squ	-1183
▁twent	-1184
▁wish	-1185
▁voice	-1186
▁matt	-1187
▁nam	-1188
ons	-1189
sident	-1190
right	-1191
▁(1	-1192
essie	-1193
▁sent	-1194
ser	-1195
▁jan	-1196
alit	-1197
▁hair	-1198
trict	-1199
▁alread	-1200
▁main	-1201
rew	-1202
blem	-1203
ys	-1204
▁?	-1205
▁swe	-1206
▁bur	-1207
▁became	-1208
▁eas	-1209
▁somet	-1210
▁ty	-1211
▁hot	-1212
orrow	-1213
cept	-1214
▁ye	-1215
cord	-1216
▁problem	-1217
hed	-1218
▁road	-1219
▁feet	-1220
▁month	-1221
▁conf	-1222
▁exc	-1223
gie	-1224
▁politic	-1225
▁kid	-1226
▁jap	-1227
▁woman	-1228
▁rath	-1229
▁ge	-1230
▁pur	-1231
▁quick	-1232
▁fort	-1233
▁mill	-1234
▁close	-1235
ivers	-1236
▁pow	-1237
bo	-1238
▁full	-1239
▁began	-1240
▁york	-1241
▁south	-1242
ald	-1243
▁ra	-1244
rop	-1245
▁leg	-1246
0,	-1247
ier	-1248
▁certain	-1249
▁ev	-1250
not	-1251
aint	-1252
▁mid	-1253
▁Is	-1254
▁real	-1255
▁offic	-1256
▁lead	-1257
▁poss	-1258
▁sometim	-1259
olog	-1260
ger	-1261
▁art	-1262
ber	-1263
▁R	-1264
▁daddy	-1265
▁9	-1266
▁dou	-1267
▁imp	-1268
▁lau	-1269
▁pict	-1270
itch	-1271
▁animal	-1272
ife	-1273
▁jul	-1274
▁cri	-1275
aut	-1276
▁table	-1277
▁low	-1278
▁bessie	-1279
▁My	-1280
iew	-1281
1,	-1282
▁dat	-1283
▁red	-1284
▁expl	-1285
▁All	-1286
▁aren	-1287
▁drink	-1288
▁195	-1289
▁pet	-1290
▁gotta	-1291
ham	-1292
▁bear	-1293
▁east	-1294
▁lost	-1295
▁prof	-1296
▁childr	-1297
inc	-1298
▁phil	-1299
▁island	-1300
▁finish	-1301
▁publ	-1302
app	-1303
▁fair	-1304
ouch	-1305
▁brought	-1306
oon	-1307
iet	-1308
ize	-1309
com	-1310
▁draw	-1311
▁clear	-1312
▁januar	-1313
oud	-1314
▁seat	-1315
vemb	-1316
▁idea	-1317
oor	-1318
▁song	-1319
▁father	-1320
▁vis	-1321
▁import	-1322
ik	-1323
▁something	-1324
▁mer	-1325
aim	-1326
ever	-1327
▁lik	-1328
▁fish	-1329
▁appear	-1330
form	-1331
▁line	-1332
▁morning	-1333
▁answer	-1334
▁nin	-1335
▁camp	-1336
▁oft	-1337
▁fun	-1338
▁perhap	-1339
▁things	-1340
arn	-1341
▁hundr	-1342
unch	-1343
▁pull	-1344
▁prom	-1345
▁loc	-1346
ffic	-1347
▁able	-1348
▁felt	-1349
▁mummy	-1350
▁Why	-1351
tor	-1352
▁bod	-1353
▁mic	-1354
▁novemb	-1355
▁football	-1356
▁hurt	-1357
▁rock	-1358
min	-1359
ustr	-1360
▁bat	-1361
▁fight	-1362
▁couldn	-1363
2:	-1364
▁yourself	-1365
▁hell	-1366
▁boat	-1367
▁For	-1368
▁law	-1369
▁case	-1370
▁stre	-1371
ense	-1372
▁plan	-1373
bb	-1374
wh	-1375
▁beaut	-1376
▁dav	-1377
▁sir	-1378
▁ton	-1379
▁mine	-1380
▁japan	-1381
▁cor	-1382
▁front	-1383
▁194	-1384
▁dri	-1385
▁write	-1386
▁minut	-1387
▁window	-1388
▁fig	-1389
▁stick	-1390
▁change	-1391
ape	-1392
!”	-1393
▁chang	-1394
▁cir	-1395
▁ann	-1396
▁tree	-1397
ric	-1398
uss	-1399
ison	-1400
▁beh	-1401
▁hon	-1402
rence	-1403
▁till	-1404
▁myself	-1405
▁doctor	-1406
▁beg	-1407
▁toward	-1408
ster	-1409
▁ill	-1410
▁alright	-1411
▁hum	-1412
▁ord	-1413
estion	-1414
▁minute	-1415
▁behind	-1416
▁trans	-1417
hes	-1418
▁someone	-1419
ti	-1420
dle	-1421
▁dark	-1422
▁jack	-1423
▁ah	-1424
▁fav	-1425
▁gues	-1426
selv	-1427
It	-1428
dian	-1429
irt	-1430
▁apr	-1431
▁lang	-1432
▁trou	-1433
ari	-1434
arch	-1435
▁cos	-1436
▁ir	-1437
▁fift	-1438
▁cup	-1439
▁award	-1440
▁pleas	-1441
▁contin	-1442
idge	-1443
▁alb	-1444
gion	-1445
▁oct	-1446
▁shar	-1447
fer	-1448
▁vill	-1449
eng	-1450
▁ext	-1451
▁gam	-1452
▁marri	-1453
▁wrong	-1454
su	-1455
▁german	-1456
1.	-1457
nce	-1458
▁important	-1459
2,	-1460
▁sweet	-1461
▁summ	-1462
▁least	-1463
ste	-1464
▁da	-1465
▁laugh	-1466
ousand	-1467
▁march	-1468
▁fore	-1469
bit	-1470
▁One	-1471
▁stru	-1472
oop	-1473
▁sal	-1474
▁late	-1475
ister	-1476
▁glad	-1477
▁thousand	-1478
temb	-1479
▁gent	-1480
▁partic	-1481
▁ground	-1482
ific	-1483
▁buy	-1484
▁wash	-1485
gether	-1486
0.	-1487
▁fell	-1488
ford	-1489
▁cold	-1490
▁usual	-1491
how	-1492
ptemb	-1493
2.	-1494
ze	-1495
ax	-1496
▁farm	-1497
▁cry	-1498
▁brit	-1499
▁funn	-1500
con	-1501
▁ve	-1502
▁fast	-1503
▁sever	-1504
▁somebod	-1505
▁mad	-1506
glish	-1507
▁maj	-1508
▁street	-1509
ider	-1510
www	-1511
▁learn	-1512
mon	-1513
unic	-1514
cha	-1515
ism	-1516
▁touch	-1517
▁april	-1518
▁17	-1519
▁adv	-1520
▁past	-1521
▁maggie	-1522
▁writ	-1523
▁frog	-1524
▁picture	-1525
▁free	-1526
fort	-1527
▁years	-1528
▁‘	-1529
▁push	-1530
▁bott	-1531
▁question	-1532
▁fil	-1533
▁nine	-1534
come	-1535
▁direct	-1536
▁birth	-1537
▁hol	-1538
▁histor	-1539
▁step	-1540
▁fellow	-1541
iti	-1542
room	-1543
▁darling	-1544
▁mot	-1545
▁fine	-1546
▁jane	-1547
▁octob	-1548
ings	-1549
▁ago	-1550
▁occ	-1551
▁pos	-1552
▁strong	-1553
▁cook	-1554
▁captain	-1555
itor	-1556
▁ran	-1557
▁horse	-1558
▁large	-1559
ilt	-1560
▁sun	-1561
▁wear	-1562
▁ninet	-1563
▁septemb	-1564
▁together	-1565
▁sudd	-1566
▁wonder	-1567
▁wood	-1568
fo	-1569
▁money	-1570
vol	-1571
fect	-1572
▁piece	-1573
ida	-1574
▁spr	-1575
▁lay	-1576
velop	-1577
▁cros	-1578
zz	-1579
rap	-1580
▁fur	-1581
▁suppose	-1582
ins	-1583
▁stra	-1584
oc	-1585
▁blood	-1586
▁charl	-1587
▁193	-1588
▁check	-1589
▁forg	-1590
sol	-1591
▁opp	-1592
▁huh	-1593
▁geor	-1594
▁ce	-1595
head	-1596
▁held	-1597
▁mast	-1598
cess	-1599
▁clean	-1600
▁throw	-1601
▁exp	-1602
mark	-1603
▁flow	-1604
▁dinn	-1605
▁excl	-1606
▁profess	-1607
ss	-1608
▁edna	-1609
▁chance	-1610
5,	-1611
▁aug	-1612
▁wife	-1613
hard	-1614
▁bill	-1615
▁plac	-1616
▁counc	-1617
▁season	-1618
▁prop	-1619
fl	-1620
ok	-1621
stem	-1622
▁const	-1623
▁mouth	-1624
va	-1625
ove	-1626
▁god	-1627
geth	-1628
▁mur	-1629
▁aunt	-1630
▁true	-1631
don	-1632
▁sitt	-1633
▁acros	-1634
▁carr	-1635
▁park	-1636
▁police	-1637
▁Erm	-1638
▁allow	-1639
ana	-1640
ary	-1641
▁lie	-1642
arent	-1643
▁hit	-1644
▁states	-1645
ffect	-1646
ium	-1647
9.	-1648
pli	-1649
▁beauti	-1650
▁lov	-1651
▁leav	-1652
6,	-1653
▁langu	-1654
▁Are	-1655
▁May	-1656
▁creat	-1657
▁expect	-1658
▁herself	-1659
3,	-1660
▁rob	-1661
cemb	-1662
▁les	-1663
▁pot	-1664
▁sev	-1665
▁grow	-1666
rench	-1667
▁clos	-1668
▁term	-1669
gram	-1670
▁sand	-1671
▁sorr	-1672
▁august	-1673
▁system	-1674
▁2018	-1675
ical	-1676
▁roll	-1677
▁eyes	-1678
lat	-1679
erg	-1680
row	-1681
▁band	-1682
▁lett	-1683
▁rest	-1684
▁field	-1685
▁pen	-1686
▁mal	-1687
▁secret	-1688
▁send	-1689
▁however	-1690
▁gold	-1691
▁post	-1692
▁france	-1693
▁children	-1694
▁hall	-1695
▁floor	-1696
▁que	-1697
▁toy	-1698
▁Not	-1699
▁listen	-1700
20	-1701
str	-1702
unk	-1703
▁heav	-1704
▁seri	-1705
▁bird	-1706
▁ros	-1707
▁organ	-1708
▁attack	-1709
▁runn	-1710
ience	-1711
▁million	-1712
▁pu	-1713
▁stood	-1714
▁surpr	-1715
gue	-1716
▁wheth	-1717
ision	-1718
▁terr	-1719
▁david	-1720
3.	-1721
▁ain	-1722
▁ship	-1723
▁within	-1724
▁je	-1725
alth	-1726
▁Did	-1727
▁carri	-1728
▁alone	-1729
▁major	-1730
5.	-1731
leas	-1732
▁letter	-1733
▁bow	-1734
▁slow	-1735
▁AN	-1736
▁everybod	-1737
9,	-1738
▁council	-1739
.'	-1740
▁To	-1741
▁tea	-1742
▁office	-1743
bur	-1744
raid	-1745
▁fit	-1746
▁prot	-1747
▁div	-1748
▁join	-1749
▁wall	-1750
bt	-1751
urch	-1752
▁daught	-1753
▁colle	-1754
▁televi	-1755
▁mess	-1756
▁gun	-1757
▁frank	-1758
▁togeth	-1759
▁politician	-1760
▁cow	-1761
▁june	-1762
▁among	-1763
▁shop	-1764
6.	-1765
▁pound	-1766
light	-1767
▁trouble	-1768
unicip	-1769
▁fly	-1770
gar	-1771
▁2021	-1772
7.	-1773
▁fuck	-1774
▁brother	-1775
▁mam	-1776
▁tur	-1777
osp	-1778
▁bath	-1779
ov	-1780
▁municip	-1781
▁straight	-1782
lect	-1783
▁conc	-1784
▁milk	-1785
though	-1786
main	-1787
▁port	-1788
▁dear	-1789
▁produc	-1790
▁afraid	-1791
ceiv	-1792
▁forward	-1793
igin	-1794
▁jump	-1795
▁sor	-1796
▁corn	-1797
▁lab	-1798
ndon	-1799
▁net	-1800
▁2020	-1801
▁champ	-1802
iversit	-1803
foot	-1804
bl	-1805
gu	-1806
she	-1807
▁(19	-1808
present	-1809
▁OF	-1810
▁fing	-1811
▁support	-1812
▁tomorrow	-1813
▁rid	-1814
▁win	-1815
▁gar	-1816
▁sol	-1817
▁val	-1818
fr	-1819
cu	-1820
▁pri	-1821
▁commun	-1822
4.	-1823
▁brad	-1824
▁elect	-1825
▁oper	-1826
oe	-1827
▁club	-1828
▁rain	-1829
▁favor	-1830
▁rad	-1831
▁church	-1832
ations	-1833
▁cover	-1834
4,	-1835
yl	-1836
▁cast	-1837
▁bank	-1838
▁contro	-1839
▁Can	-1840
▁sav	-1841
fin	-1842
there	-1843
▁appro	-1844
▁sold	-1845
▁dro	-1846
iness	-1847
▁dress	-1848
▁mount	-1849
▁couple	-1850
▁kept	-1851
▁ring	-1852
▁bull	-1853
oke	-1854
▁putt	-1855
▁match	-1856
anor	-1857
▁cens	-1858
▁dang	-1859
▁program	-1860
now	-1861
▁sea	-1862
▁event	-1863
▁riv	-1864
▁exclaim	-1865
▁quiet	-1866
▁london	-1867
▁particular	-1868
▁ya	-1869
▁cannot	-1870
▁eur	-1871
▁est	-1872
▁stay	-1873
▁hands	-1874
yn	-1875
ii	-1876
▁comple	-1877
▁yellow	-1878
▁polic	-1879
▁fa	-1880
▁ought	-1881
▁gentle	-1882
hern	-1883
7,	-1884
▁hang	-1885
▁although	-1886
▁brown	-1887
▁sus	-1888
▁city	-1889
sign	-1890
sta	-1891
▁popula	-1892
▁bes	-1893
▁10	-1894
▁french	-1895
▁origin	-1896
▁bag	-1897
▁fix	-1898
▁nur	-1899
▁fras	-1900
▁flore	-1901
▁continu	-1902
cre	-1903
▁ice	-1904
ars	-1905
▁british	-1906
▁wee	-1907
▁soft	-1908
▁block	-1909
▁brok	-1910
ated	-1911
raft	-1912
ene	-1913
▁fre	-1914
▁phone	-1915
▁jam	-1916
▁cond	-1917
▁country	-1918
▁fac	-1919
▁catch	-1920
ask	-1921
ike	-1922
▁av	-1923
▁Her	-1924
stead	-1925
▁later	-1926
▁sudden	-1927
▁service	-1928
▁consider	-1929
sk	-1930
▁toda	-1931
▁champion	-1932
▁writt	-1933
end	-1934
cket	-1935
▁An	-1936
uce	-1937
ilit	-1938
my	-1939
cog	-1940
000	-1941
▁common	-1942
▁municipalit	-1943
▁sugg	-1944
note	-1945
▁nose	-1946
ernoon	-1947
▁current	-1948
▁anything	-1949
edd	-1950
ample	-1951
uthor	-1952
▁exper	-1953
▁florence	-1954
▁!	-1955
▁driv	-1956
ude	-1957
ston	-1958
ester	-1959
▁paul	-1960
▁cop	-1961
▁blow	-1962
▁better	-1963
cogn	-1964
ounc	-1965
▁AND	-1966
▁base	-1967
▁fear	-1968
ifi	-1969
▁thirt	-1970
▁board	-1971
▁duck	-1972
▁sorry	-1973
▁afternoon	-1974
que	-1975
rest	-1976
▁capit	-1977
▁dream	-1978
▁stopp	-1979
▁TO	-1980
▁card	-1981
ara	-1982
▁bud	-1983
dom	-1984
▁ric	-1985
▁snow	-1986
▁author	-1987
▁beat	-1988
footnote	-1989
▁village	-1990
led	-1991
▁eith	-1992
uk	-1993
joy	-1994
band	-1995
▁kitt	-1996
▁cloth	-1997
la	-1998
ino	-1999
▁exact	-2000
▁gard	-2001
▁party	-2002
▁mama	-2003
▁figure	-2004
▁diffic	-2005
imb	-2006
ner	-2007
▁ju	-2008
▁succ	-2009
▁wild	-2010
▁equ	-2011
▁scar	-2012
▁paper	-2013
▁difficult	-2014
oof	-2015
▁mommy	-2016
igg	-2017
▁chick	-2018
We	-2019
▁V	-2020
▁become	-2021
▁forget	-2022
▁league	-2023
mpt	-2024
▁public	-2025
serv	-2026
He	-2027
era	-2028
▁cost	-2029
▁aff	-2030
▁tot	-2031
▁vict	-2032
ces	-2033
▁rom	-2034
▁mc	-2035
▁ru	-2036
▁die	-2037
▁jud	-2038
▁tow	-2039
▁rush	-2040
▁hello	-2041
scri	-2042
▁river	-2043
ai	-2044
▁hosp	-2045
▁anyway	-2046
▁matter	-2047
▁egg	-2048
▁chief	-2049
8.	-2050
iam	-2051
▁By	-2052
▁order	-2053
▁’	-2054
▁...	-2055
▁test	-2056
▁cause	-2057
▁view	-2058
nation	-2059
▁actor	-2060
abl	-2061
net	-2062
spect	-2063
▁film	-2064
▁shot	-2065
vers	-2066
▁third	-2067
▁countr	-2068
ying	-2069
work	-2070
▁story	-2071
▁hospit	-2072
als	-2073
▁dor	-2074
▁deal	-2075
▁human	-2076
sult	-2077
▁themselv	-2078
uct	-2079
▁luck	-2080
▁county	-2081
cid	-2082
▁class	-2083
▁sister	-2084
ory	-2085
▁192	-2086
▁sad	-2087
▁busi	-2088
▁dut	-2089
oma	-2090
▁Uh	-2091
▁sight	-2092
▁hy	-2093
▁paint	-2094
cel	-2095
agon	-2096
cial	-2097
oint	-2098
▁college	-2099
oose	-2100
reek	-2101
▁hop	-2102
▁effect	-2103
")	-2104
▁meant	-2105
▁manag	-2106
▁language	-2107
▁imm	-2108
▁caus	-2109
▁level	-2110
▁explain	-2111
imm	-2112
▁15	-2113
member	-2114
▁teach	-2115
▁family	-2116
▁esc	-2117
▁caught	-2118
▁16	-2119
▁Tom	-2120
▁fill	-2121
gine	-2122
its	-2123
▁cab	-2124
ention	-2125
▁hus	-2126
▁adam	-2127
▁hors	-2128
▁pract	-2129
hi	-2130
▁example	-2131
ution	-2132
▁hill	-2133
▁warm	-2134
stair	-2135
▁above	-2136
▁tor	-2137
▁court	-2138
▁doubt	-2139
▁single	-2140
▁director	-2141
go	-2142
deed	-2143
▁knock	-2144
▁europe	-2145
▁days	-2146
▁committ	-2147
▁business	-2148
hael	-2149
▁dam	-2150
cover	-2151
▁using	-2152
▁worth	-2153
▁member	-2154
▁province	-2155
▁Ben	-2156
▁adm	-2157
gland	-2158
▁plant	-2159
▁shoot	-2160
▁yester	-2161
▁Sir	-2162
▁larg	-2163
▁spend	-2164
▁airport	-2165
--"	-2166
onel	-2167
▁hunt	-2168
▁earth	-2169
▁health	-2170
▁tonight	-2171
▁page	-2172
▁spoke	-2173
▁12	-2174
iforn	-2175
▁whose	-2176
▁wrote	-2177
key	-2178
▁commune	-2179
▁george	-2180
▁richard	-2181
ato	-2182
▁tour	-2183
▁command	-2184
▁californ	-2185
▁census	-2186
lic	-2187
▁sick	-2188
▁expres	-2189
reat	-2190
alian	-2191
▁safe	-2192
,'	-2193
lin	-2194
▁("	-2195
▁ris	-2196
▁burn	-2197
▁vol	-2198
▁stri	-2199
▁built	-2200
▁tick	-2201
▁canad	-2202
asp	-2203
iod	-2204
ature	-2205
nda	-2206
▁var	-2207
▁norm	-2208
▁california	-2209
▁save	-2210
do	-2211
duc	-2212
▁cam	-2213
ley	-2214
ington	-2215
▁drive	-2216
quir	-2217
▁visit	-2218
-1	-2219
lly	-2220
▁led	-2221
▁cand	-2222
▁type	-2223
▁album	-2224
▁shut	-2225
▁object	-2226
▁hid	-2227
▁perfect	-2228
▁lady	-2229
▁ride	-2230
ille	-2231
▁lin	-2232
time	-2233
▁Its	-2234
▁actu	-2235
▁rais	-2236
▁whatev	-2237
▁hung	-2238
▁jose	-2239
▁arr	-2240
▁ques	-2241
▁complete	-2242
fast	-2243
▁aut	-2244
▁colonel	-2245
ef	-2246
▁medic	-2247
▁dropp	-2248
wo	-2249
ura	-2250
▁ire	-2251
▁rub	-2252
▁stone	-2253
▁eleanor	-2254
▁austr	-2255
night	-2256
by	-2257
can	-2258
▁period	-2259
col	-2260
▁husband	-2261
▁ham	-2262
▁jenn	-2263
▁sport	-2264
▁bought	-2265
▁william	-2266
edi	-2267
▁pan	-2268
▁power	-2269
▁trave	-2270
▁accept	-2271
▁somewhere	-2272
▁everything	-2273
ua	-2274
▁vide	-2275
▁noise	-2276
▁vi	-2277
▁bon	-2278
▁rac	-2279
2)	-2280
tire	-2281
view	-2282
▁God	-2283
▁broke	-2284
▁role	-2285
▁bright	-2286
▁everyone	-2287
▁shout	-2288
▁michael	-2289
▁governor	-2290
▁jon	-2291
▁super	-2292
▁anyone	-2293
hel	-2294
▁spot	-2295
▁pack	-2296
gin	-2297
idence	-2298
▁anybod	-2299
▁strange	-2300
▁K	-2301
▁compet	-2302
▁number	-2303
lig	-2304
▁parent	-2305
▁hen	-2306
▁lim	-2307
▁space	-2308
ics	-2309
▁easi	-2310
▁nort	-2311
▁sout	-2312
▁centur	-2313
▁ut	-2314
▁lou	-2315
ograp	-2316
▁lunch	-2317
iter	-2318
more	-2319
▁cross	-2320
vious	-2321
▁mart	-2322
bor	-2323
moc	-2324
8,	-2325
▁non	-2326
▁suppos	-2327
▁mountain	-2328
▁hu	-2329
▁pal	-2330
▁breakfast	-2331
nes	-2332
▁ale	-2333
▁tech	-2334
publ	-2335
▁trust	-2336
lla	-2337
▁agree	-2338
wor	-2339
ilar	-2340
▁comfort	-2341
▁control	-2342
▁smil	-2343
lo	-2344
resh	-2345
▁rat	-2346
ior	-2347
iant	-2348
▁pain	-2349
ya	-2350
▁sen	-2351
▁ange	-2352
▁times	-2353
itar	-2354
▁bigg	-2355
▁russ	-2356
▁sell	-2357
▁wheel	-2358
▁whom	-2359
▁princ	-2360
▁track	-2361
lymp	-2362
ully	-2363
▁fail	-2364
▁belong	-2365
▁dry	-2366
▁video	-2367
cum	-2368
▁tex	-2369
▁jour	-2370
▁lord	-2371
▁tall	-2372
▁whis	-2373
ili	-2374
▁fed	-2375
▁harr	-2376
▁coach	-2377
▁eag	-2378
▁hone	-2379
▁nobod	-2380
▁truck	-2381
▁account	-2382
▁hasn	-2383
▁after	-2384
▁bridge	-2385
,--	-2386
anch	-2387
▁pas	-2388
▁arriv	-2389
▁mm	-2390
board	-2391
▁kick	-2392
▁broth	-2393
▁climb	-2394
▁natur	-2395
▁olymp	-2396
▁mum	-2397
▁broad	-2398
▁treat	-2399
▁friends	-2400
▁wel	-2401
acter	-2402
gard	-2403
▁concern	-2404
▁acade	-2405
▁ta	-2406
▁flat	-2407
▁jung	-2408
▁lift	-2409
▁guard	-2410
▁et	-2411
volv	-2412
ished	-2413
▁bord	-2414
▁sharp	-2415
▁action	-2416
▁proper	-2417
hant	-2418
▁sid	-2419
▁neck	-2420
▁joseph	-2421
▁nothing	-2422
▁St	-2423
▁beginn	-2424
▁minist	-2425
▁danc	-2426
'.	-2427
▁jer	-2428
▁crow	-2429
▁hous	-2430
▁quart	-2431
▁Who	-2432
▁cart	-2433
▁drop	-2434
▁mach	-2435
▁sense	-2436
tro	-2437
▁america	-2438
OU	-2439
ired	-2440
▁YOU	-2441
▁cas	-2442
▁prison	-2443
▁shouldn	-2444
▁favorite	-2445
iff	-2446
oul	-2447
cture	-2448
itz	-2449
▁boys	-2450
ages	-2451
▁fle	-2452
ler	-2453
▁bang	-2454
▁comb	-2455
▁dead	-2456
▁earn	-2457
If	-2458
▁Get	-2459
▁rose	-2460
▁slight	-2461
▁ox	-2462
pend	-2463
▁dan	-2464
▁pig	-2465
▁forc	-2466
▁gall	-2467
omin	-2468
ments	-2469
▁techn	-2470
clude	-2471
▁twel	-2472
▁danger	-2473
ita	-2474
▁ur	-2475
illa	-2476
▁cov	-2477
▁luc	-2478
▁suff	-2479
▁pil	-2480
▁mod	-2481
ither	-2482
▁stev	-2483
ribut	-2484
▁ones	-2485
▁bottom	-2486
▁minutes	-2487
tance	-2488
▁none	-2489
▁dinner	-2490
.]	-2491
hic	-2492
▁fut	-2493
▁pink	-2494
▁apart	-2495
▁mac	-2496
▁hole	-2497
▁ahead	-2498
▁weren	-2499
▁comput	-2500
cus	-2501
fully	-2502
▁kiss	-2503
▁store	-2504
▁necess	-2505
tur	-2506
▁1,	-2507
▁neigh	-2508
▁ninete	-2509
▁popular	-2510
▁success	-2511
mor	-2512
▁force	-2513
dia	-2514
▁spir	-2515
▁tape	-2516
▁pocket	-2517
▁ep	-2518
ffee	-2519
▁imag	-2520
▁protect	-2521
like	-2522
▁bread	-2523
▁profession	-2524
erv	-2525
ume	-2526
▁(2	-2527
▁ang	-2528
amund	-2529
wood	-2530
▁cool	-2531
▁espe	-2532
▁sett	-2533
▁contr	-2534
▁green	-2535
ey	-2536
▁sna	-2537
▁accord	-2538
▁similar	-2539
ney	-2540
solute	-2541
▁project	-2542
▁dance	-2543
▁except	-2544
ony	-2545
▁han	-2546
ions	-2547
vest	-2548
▁rosamund	-2549
▁Of	-2550
▁ba	-2551
mis	-2552
▁sail	-2553
▁winn	-2554
▁rol	-2555
ference	-2556
▁tin	-2557
▁wol	-2558
▁furth	-2559
▁satur	-2560
▁itself	-2561
ec	-2562
sa	-2563
mat	-2564
▁()	-2565
▁tit	-2566
tempt	-2567
▁teeth	-2568
▁lock	-2569
▁coffee	-2570
▁twelve	-2571
ied	-2572
stru	-2573
▁oppos	-2574
▁women	-2575
▁words	-2576
▁station	-2577
ico	-2578
▁mor	-2579
▁youth	-2580
ex	-2581
uel	-2582
▁11	-2583
▁dogg	-2584
▁14	-2585
worth	-2586
▁priv	-2587
▁tast	-2588
▁centr	-2589
▁radio	-2590
alt	-2591
▁din	-2592
▁announc	-2593
_,	-2594
ett	-2595
▁mex	-2596
▁conne	-2597
▁yours	-2598
sing	-2599
▁key	-2600
gular	-2601
▁exce	-2602
▁truth	-2603
stro	-2604
put	-2605
take	-2606
ading	-2607
▁2019	-2608
▁cake	-2609
▁breath	-2610
▁drew	-2611
▁puzz	-2612
▁rul	-2613
▁smile	-2614
▁orange	-2615
arm	-2616
▁charge	-2617
▁mass	-2618
ket	-2619
▁ald	-2620
ipe	-2621
mic	-2622
thi	-2623
▁13	-2624
▁anx	-2625
▁coat	-2626
men	-2627
▁Or	-2628
▁bell	-2629
▁aged	-2630
▁future	-2631
▁sevent	-2632
▁Let	-2633
▁wet	-2634
▁sist	-2635
▁tail	-2636
▁activ	-2637
▁publish	-2638
▁especial	-2639
▁due	-2640
▁grandma	-2641
▁committee	-2642
▁afr	-2643
▁cru	-2644
▁charlie	-2645
▁surpris	-2646
za	-2647
acher	-2648
ength	-2649
▁less	-2650
▁suit	-2651
▁grad	-2652
▁rich	-2653
▁manage	-2654
▁animals	-2655
ago	-2656
mer	-2657
rel	-2658
▁ze	-2659
▁roy	-2660
▁feed	-2661
▁battle	-2662
▁cra	-2663
▁host	-2664
▁pegg	-2665
▁girls	-2666
nam	-2667
▁ell	-2668
▁jwww	-2669
▁paid	-2670
▁mamma	-2671
gn	-2672
hood	-2673
▁accident	-2674
phone	-2675
stant	-2676
▁asso	-2677
▁separ	-2678
▁cheese	-2679
▁square	-2680
olk	-2681
ps	-2682
why	-2683
clock	-2684
▁hide	-2685
ba	-2686
▁lake	-2687
▁stuck	-2688
▁professor	-2689
field	-2690
▁fresh	-2691
▁irene	-2692
▁general	-2693
ka	-2694
▁extra	-2695
▁tedd	-2696
▁crowd	-2697
▁final	-2698
▁amount	-2699
▁jungle	-2700
▁organiz	-2701
ga	-2702
▁Go	-2703
cast	-2704
▁rap	-2705
▁self	-2706
▁fat	-2707
▁joy	-2708
▁mix	-2709
▁wide	-2710
▁stage	-2711
ors	-2712
▁lu	-2713
▁ram	-2714
▁cabin	-2715
▁character	-2716
▁hom	-2717
▁player	-2718
▁bye	-2719
▁communit	-2720
▁x	-2721
▁cy	-2722
rian	-2723
▁sar	-2724
▁contain	-2725
▁absolute	-2726
▁approach	-2727
▁christma	-2728
▁IN	-2729
colm	-2730
▁eff	-2731
▁tra	-2732
▁books	-2733
▁spell	-2734
▁ap	-2735
▁cass	-2736
▁says	-2737
▁plann	-2738
▁western	-2739
▁bradford	-2740
▁bey	-2741
▁jes	-2742
mocrat	-2743
tern	-2744
▁chairman	-2745
▁actually	-2746
▁Ah	-2747
▁sex	-2748
▁motion	-2749
▁difference	-2750
iot	-2751
▁shr	-2752
▁japanese	-2753
iev	-2754
▁rab	-2755
▁tir	-2756
anish	-2757
▁posi	-2758
▁creek	-2759
▁malcolm	-2760
asc	-2761
mar	-2762
atur	-2763
▁los	-2764
▁lose	-2765
▁2021)	-2766
▁smell	-2767
▁bottle	-2768
▁finger	-2769
▁propos	-2770
burg	-2771
iron	-2772
▁cho	-2773
house	-2774
▁cong	-2775
▁rail	-2776
▁moder	-2777
▁coming	-2778
sha	-2779
.’	-2780
▁Dr	-2781
look	-2782
conom	-2783
lation	-2784
▁forgot	-2785
▁length	-2786
agg	-2787
▁chin	-2788
▁asked	-2789
ki	-2790
alist	-2791
▁below	-2792
▁starr	-2793
▁daughter	-2794
alia	-2795
▁exam	-2796
▁plain	-2797
ville	-2798
▁goin	-2799
▁rough	-2800
off	-2801
ants	-2802
▁sam	-2803
▁honey	-2804
ola	-2805
udd	-2806
▁tax	-2807
place	-2808
spons	-2809
▁papa	-2810
▁trad	-2811
▁beyond	-2812
iel	-2813
▁row	-2814
▁horr	-2815
▁simp	-2816
▁mention	-2817
kin	-2818
face	-2819
leep	-2820
▁nav	-2821
▁moon	-2822
finite	-2823
▁search	-2824
▁perform	-2825
isf	-2826
▁cell	-2827
▁cream	-2828
▁storm	-2829
▁company	-2830
▁christian	-2831
hen	-2832
▁Two	-2833
▁sky	-2834
▁merc	-2835
▁awful	-2836
aret	-2837
▁studi	-2838
▁note	-2839
▁plat	-2840
▁tone	-2841
▁comed	-2842
▁faith	-2843
▁birthda	-2844
cul	-2845
ets	-2846
▁butter	-2847
▁econom	-2848
▁fright	-2849
▁collect	-2850
▁suggest	-2851
pose	-2852
▁191	-2853
▁meat	-2854
▁juice	-2855
sy	-2856
nel	-2857
ferr	-2858
▁earli	-2859
▁artist	-2860
▁basket	-2861
▁button	-2862
ily	-2863
▁Yes	-2864
▁typ	-2865
▁bound	-2866
▁pleasant	-2867
▁gra	-2868
▁cult	-2869
▁cheer	-2870
▁fifte	-2871
▁share	-2872
▁lion	-2873
▁trip	-2874
add	-2875
dic	-2876
sist	-2877
▁trick	-2878
▁effort	-2879
▁others	-2880
▁spirit	-2881
pos	-2882
stit	-2883
cision	-2884
▁branch	-2885
▁critic	-2886
▁robert	-2887
▁happened	-2888
osa	-2889
ivid	-2890
▁either	-2891
oph	-2892
▁hi	-2893
▁Joe	-2894
▁conv	-2895
▁phot	-2896
▁attempt	-2897
Do	-2898
shire	-2899
▁saying	-2900
ded	-2901
▁emb	-2902
▁mir	-2903
search	-2904
▁exist	-2905
▁offer	-2906
▁peace	-2907
hold	-2908
▁tig	-2909
▁arch	-2910
▁speci	-2911
▁anymore	-2912
▁percent	-2913
ify	-2914
ceed	-2915
▁hate	-2916
amb	-2917
▁dres	-2918
▁naught	-2919
clar	-2920
iday	-2921
▁accom	-2922
▁crack	-2923
▁soci	-2924
▁roman	-2925
aly	-2926
cke	-2927
▁alex	-2928
por	-2929
▁promis	-2930
ron	-2931
▁stro	-2932
▁advent	-2933
▁market	-2934
▁30	-2935
just	-2936
▁amaz	-2937
▁lying	-2938
▁obvious	-2939
▁&	-2940
who	-2941
▁IT	-2942
cher	-2943
▁hero	-2944
▁loud	-2945
▁prim	-2946
▁wound	-2947
▁yesterday	-2948
set	-2949
▁clas	-2950
▁fred	-2951
▁tear	-2952
▁doroth	-2953
▁victor	-2954
▁machine	-2955
▁student	-2956
ird	-2957
▁worse	-2958
▁northw	-2959
mi	-2960
▁bal	-2961
▁hun	-2962
▁penn	-2963
▁$	-2964
▁emp	-2965
asion	-2966
ustom	-2967
▁fool	-2968
▁sens	-2969
▁occur	-2970
▁spent	-2971
▁asleep	-2972
▁possib	-2973
▁settle	-2974
!'	-2975
pa	-2976
oid	-2977
yle	-2978
▁spl	-2979
▁gate	-2980
▁warn	-2981
▁figur	-2982
▁guess	-2983
▁honor	-2984
▁gerald	-2985
▁birthday	-2986
▁gas	-2987
▁date	-2988
▁attend	-2989
▁notice	-2990
▁officer	-2991
My	-2992
▁“‘	-2993
tail	-2994
antic	-2995
astic	-2996
▁ident	-2997
▁satisf	-2998
ode	-2999
▁tu	-3000
ilda	-3001
▁gain	-3002
▁pers	-3003
ced	-3004
▁bor	-3005
▁deep	-3006
▁phys	-3007
▁brush	-3008
▁northern	-3009
erc	-3010
aliz	-3011
forma	-3012
▁iron	-3013
▁games	-3014
▁memor	-3015
▁travel	-3016
ja	-3017
ota	-3018
rupt	-3019
▁excuse	-3020
ole	-3021
▁sca	-3022
▁needta	-3023
▁civ	-3024
▁notic	-3025
▁threw	-3026
sue	-3027
tell	-3028
craft	-3029
▁craz	-3030
▁yard	-3031
▁blank	-3032
▁careful	-3033
ini	-3034
▁por	-3035
ander	-3036
▁viol	-3037
▁wolf	-3038
▁happy	-3039
▁assist	-3040
pro	-3041
retch	-3042
▁flor	-3043
▁race	-3044
▁grave	-3045
▁academ	-3046
▁scient	-3047
bye	-3048
sour	-3049
▁alf	-3050
▁mut	-3051
▁size	-3052
▁italian	-3053
▁II	-3054
▁barr	-3055
▁chat	-3056
stairs	-3057
▁budget	-3058
▁threat	-3059
bu	-3060
▁#	-3061
▁Cos	-3062
▁neg	-3063
▁motor	-3064
▁wrest	-3065
uit	-3066
nday	-3067
vert	-3068
▁kit	-3069
▁cous	-3070
aud	-3071
cour	-3072
▁soc	-3073
▁anti	-3074
▁empl	-3075
▁cloud	-3076
▁excit	-3077
▁compos	-3078
▁myster	-3079
▁qualit	-3080
▁rabbit	-3081
▁stream	-3082
▁ber	-3083
asure	-3084
▁body	-3085
▁price	-3086
▁dollar	-3087
▁modern	-3088
▁welcome	-3089
dep	-3090
▁chum	-3091
▁grew	-3092
▁load	-3093
▁piec	-3094
▁strang	-3095
sit	-3096
▁cro	-3097
▁coast	-3098
▁knight	-3099
▁fenn	-3100
▁hadn	-3101
▁alive	-3102
▁hotel	-3103
▁barn	-3104
▁trail	-3105
▁immedi	-3106
▁servic	-3107
▁southern	-3108
jo	-3109
ox	-3110
het	-3111
itude	-3112
▁bert	-3113
▁becom	-3114
▁terri	-3115
▁centre	-3116
▁master	-3117
▁purple	-3118
▁olympic	-3119
▁therefore	-3120
._	-3121
▁bak	-3122
▁joe	-3123
▁shak	-3124
▁cheek	-3125
▁funny	-3126
▁slipp	-3127
bel	-3128
cip	-3129
sur	-3130
▁admin	-3131
▁claim	-3132
esh	-3133
▁ooh	-3134
divid	-3135
▁skin	-3136
▁weap	-3137
▁du	-3138
▁tem	-3139
▁dare	-3140
▁empt	-3141
▁twice	-3142
▁another	-3143
▁convers	-3144
▁australia	-3145
sed	-3146
wich	-3147
▁ach	-3148
▁fox	-3149
▁vir	-3150
▁beha	-3151
▁chic	-3152
▁risk	-3153
▁plane	-3154
▁garden	-3155
den	-3156
rug	-3157
▁hay	-3158
▁chap	-3159
▁dick	-3160
▁tend	-3161
▁prime	-3162
inct	-3163
lian	-3164
rect	-3165
▁mel	-3166
▁pra	-3167
▁sant	-3168
▁marie	-3169
▁swing	-3170
wr	-3171
ateg	-3172
inar	-3173
▁pir	-3174
▁canc	-3175
▁dirt	-3176
▁guys	-3177
▁mann	-3178
▁toys	-3179
arr	-3180
▁pun	-3181
round	-3182
▁anne	-3183
▁spok	-3184
▁model	-3185
▁formula	-3186
did	-3187
▁25	-3188
▁cad	-3189
▁pin	-3190
creas	-3191
viron	-3192
▁shad	-3193
▁civil	-3194
▁tight	-3195
▁flight	-3196
ustration	-3197
line	-3198
mand	-3199
▁dada	-3200
▁path	-3201
erland	-3202
▁atten	-3203
▁begin	-3204
▁thick	-3205
▁tired	-3206
▁X	-3207
▁sup	-3208
▁rate	-3209
▁suffer	-3210
▁structure	-3211
ror	-3212
iment	-3213
▁educ	-3214
▁stup	-3215
▁jennie	-3216
▁observ	-3217
bon	-3218
mind	-3219
tract	-3220
▁wake	-3221
▁stair	-3222
▁nature	-3223
presentat	-3224
▁dall	-3225
▁van	-3226
▁calm	-3227
▁limit	-3228
▁staff	-3229
▁flower	-3230
ienc	-3231
reng	-3232
▁impro	-3233
▁secur	-3234
▁spread	-3235
▁twenty	-3236
▁patient	-3237
▁gentleman	-3238
cient	-3239
▁laid	-3240
ashion	-3241
▁shape	-3242
▁called	-3243
ani	-3244
▁US	-3245
▁bobb	-3246
▁firm	-3247
▁fund	-3248
▁soul	-3249
depend	-3250
▁societ	-3251
▁crew	-3252
▁epis	-3253
▁agent	-3254
▁beach	-3255
▁brief	-3256
▁beside	-3257
▁stupid	-3258
▁anywhere	-3259
flu	-3260
ots	-3261
▁pour	-3262
▁thom	-3263
▁apple	-3264
▁spoon	-3265
▁2,	-3266
▁nap	-3267
scrib	-3268
▁pres	-3269
▁wint	-3270
▁crash	-3271
▁provid	-3272
▁teacher	-3273
▁24	-3274
▁ban	-3275
cogniz	-3276
▁hocke	-3277
▁plent	-3278
ira	-3279
ram	-3280
bour	-3281
peat	-3282
▁100	-3283
▁doz	-3284
▁wil	-3285
▁bush	-3286
▁brain	-3287
▁range	-3288
▁european	-3289
▁ow	-3290
▁fif	-3291
ption	-3292
▁lawy	-3293
▁mont	-3294
▁albert	-3295
▁afterward	-3296
lem	-3297
tak	-3298
old	-3299
▁hm	-3300
bell	-3301
ines	-3302
▁aust	-3303
▁temp	-3304
▁gerva	-3305
▁saint	-3306
▁labour	-3307
▁prince	-3308
▁building	-3309
▁practice	-3310
tir	-3311
atic	-3312
heast	-3313
phant	-3314
▁locat	-3315
▁sheep	-3316
▁swimm	-3317
▁escape	-3318
▁nut	-3319
▁agre	-3320
▁circle	-3321
▁companion	-3322
fet	-3323
aign	-3324
othes	-3325
▁folk	-3326
▁item	-3327
▁nurse	-3328
▁believ	-3329
▁compar	-3330
emy	-3331
see	-3332
▁dig	-3333
▁tar	-3334
▁buck	-3335
▁bunn	-3336
▁elev	-3337
▁news	-3338
▁streng	-3339
▁struck	-3340
partment	-3341
▁elephant	-3342
chi	-3343
reme	-3344
▁tap	-3345
▁angel	-3346
▁silence	-3347
▁aud	-3348
▁silent	-3349
ten	-3350
▁(;	-3351
▁pill	-3352
▁weak	-3353
▁kitty	-3354
▁smoke	-3355
ech	-3356
▁Was	-3357
▁gro	-3358
actor	-3359
▁shin	-3360
▁cousin	-3361
▁23	-3362
poss	-3363
▁scott	-3364
▁whisper	-3365
▁administ	-3366
este	-3367
▁(20	-3368
▁nar	-3369
▁select	-3370
▁channel	-3371
▁countri	-3372
ery	-3373
▁tal	-3374
sence	-3375
▁heat	-3376
▁china	-3377
▁castle	-3378
▁charact	-3379
ocol	-3380
osaur	-3381
▁babi	-3382
▁bowl	-3383
▁hurr	-3384
▁rubb	-3385
▁blind	-3386
▁compl	-3387
▁feder	-3388
▁canada	-3389
▁monkey	-3390
▁potato	-3391
▁campaign	-3392
▁ash	-3393
▁beck	-3394
▁flash	-3395
▁simple	-3396
▁strugg	-3397
lle	-3398
ona	-3399
▁lem	-3400
▁wid	-3401
▁mult	-3402
▁stan	-3403
action	-3404
▁franc	-3405
▁magaz	-3406
▁stock	-3407
▁product	-3408
▁surface	-3409
▁baseball	-3410
,’	-3411
chan	-3412
▁pon	-3413
▁wha	-3414
▁magic	-3415
▁famili	-3416
▁spring	-3417
▁evening	-3418
▁germany	-3419
▁militar	-3420
itzerland	-3421
▁shoulder	-3422
bre	-3423
▁21	-3424
▁bi	-3425
▁ble	-3426
▁task	-3427
▁loire	-3428
▁eighte	-3429
▁otherw	-3430
▁ancient	-3431
anda	-3432
▁San	-3433
child	-3434
▁goal	-3435
▁tong	-3436
▁vote	-3437
▁issue	-3438
▁thanks	-3439
▁connect	-3440
▁evident	-3441
▁ourselv	-3442
ima	-3443
▁kis	-3444
ground	-3445
▁smart	-3446
▁months	-3447
▁opport	-3448
▁constit	-3449
ives	-3450
▁ate	-3451
▁jew	-3452
▁shirt	-3453
▁thoma	-3454
▁affair	-3455
▁donald	-3456
▁switzerland	-3457
▁oil	-3458
wered	-3459
▁exec	-3460
▁plate	-3461
▁establ	-3462
▁temper	-3463
▁eastern	-3464
azil	-3465
mocratic	-3466
▁apparent	-3467
▁)	-3468
▁gaz	-3469
istic	-3470
▁cray	-3471
▁sour	-3472
▁cried	-3473
▁dread	-3474
▁normal	-3475
▁standard	-3476
99	-3477
ala	-3478
....	-3479
mend	-3480
▁Bob	-3481
quire	-3482
stroy	-3483
▁fanc	-3484
ograph	-3485
▁monke	-3486
▁answered	-3487
lor	-3488
▁Our	-3489
▁cla	-3490
▁drug	-3491
▁pant	-3492
iously	-3493
▁besid	-3494
▁trunk	-3495
▁opportun	-3496
fend	-3497
gent	-3498
▁coo	-3499
▁2020,	-3500
▁rapid	-3501
▁series	-3502
▁russian	-3503
▁neighbor	-3504
▁pleasure	-3505
illustration	-3506
male	-3507
will	-3508
▁wal	-3509
▁bite	-3510
▁arrow	-3511
▁carol	-3512
▁drama	-3513
▁fraser	-3514
▁actress	-3515
gen	-3516
good	-3517
▁pak	-3518
▁wit	-3519
▁clothes	-3520
ates	-3521
▁issu	-3522
▁surv	-3523
▁benef	-3524
▁sugar	-3525
▁choice	-3526
▁scream	-3527
▁evidence	-3528
▁text	-3529
tribut	-3530
▁avail	-3531
▁fruit	-3532
▁canton	-3533
chen	-3534
ches	-3535
ingly	-3536
▁nick	-3537
▁occup	-3538
▁shoes	-3539
▁shore	-3540
▁circum	-3541
▁appoint	-3542
orm	-3543
▁eve	-3544
▁nic	-3545
▁poo	-3546
▁sock	-3547
▁wagon	-3548
ria	-3549
bert	-3550
▁mes	-3551
▁rif	-3552
▁vac	-3553
▁thro	-3554
▁chapt	-3555
▁trade	-3556
▁factor	-3557
▁weight	-3558
semb	-3559
▁penc	-3560
▁situ	-3561
▁brave	-3562
▁double	-3563
▁favour	-3564
▁championship	-3565
?'	-3566
amer	-3567
ieve	-3568
▁amb	-3569
tilda	-3570
▁edge	-3571
▁jean	-3572
tertain	-3573
▁content	-3574
▁experience	-3575
af	-3576
spe	-3577
▁kore	-3578
▁kitch	-3579
▁brazil	-3580
▁marilla	-3581
▁spanish	-3582
▁strength	-3583
▁aver	-3584
▁scene	-3585
▁female	-3586
▁message	-3587
▁finished	-3588
▁establish	-3589
kn	-3590
of	-3591
▁%	-3592
▁eh	-3593
sert	-3594
ument	-3595
▁forth	-3596
▁prize	-3597
▁weapon	-3598
▁frighten	-3599
imin	-3600
istan	-3601
appoint	-3602
▁pencil	-3603
▁singer	-3604
▁imagine	-3605
▁sandwich	-3606
▁immediate	-3607
ique	-3608
olar	-3609
uten	-3610
▁Los	-3611
▁Mrs	-3612
▁vot	-3613
▁rule	-3614
▁giant	-3615
▁judge	-3616
▁mater	-3617
▁purpose	-3618
▁medicine	-3619
▁War	-3620
▁georg	-3621
▁science	-3622
▁3,	-3623
▁fer	-3624
▁pair	-3625
public	-3626
▁nomin	-3627
▁snake	-3628
▁custom	-3629
▁puzzle	-3630
▁network	-3631
fa	-3632
cend	-3633
ckon	-3634
▁huge	-3635
▁2022)	-3636
▁situa	-3637
▁worri	-3638
▁chocol	-3639
▁chicago	-3640
▁fashion	-3641
▁aircraft	-3642
▁occasion	-3643
uy	-3644
with	-3645
▁See	-3646
▁kne	-3647
▁glas	-3648
▁marg	-3649
▁movi	-3650
▁worr	-3651
▁charg	-3652
▁glass	-3653
▁liter	-3654
▁print	-3655
van	-3656
▁TV	-3657
rain	-3658
▁ful	-3659
▁bern	-3660
▁clock	-3661
▁scarce	-3662
▁bedroom	-3663
▁century	-3664
ero	-3665
▁eld	-3666
▁psy	-3667
▁shoe	-3668
▁taste	-3669
▁address	-3670
ij	-3671
uca	-3672
▁Cup	-3673
ology	-3674
▁roof	-3675
▁gradu	-3676
▁canadian	-3677
abr	-3678
▁pit	-3679
▁2000	-3680
▁grown	-3681
▁beautiful	-3682
saw	-3683
illy	-3684
▁wav	-3685
▁meal	-3686
▁dolly	-3687
▁knife	-3688
▁thomas	-3689
▁possible	-3690
▁government	-3691
▁cele	-3692
▁pupp	-3693
▁zeal	-3694
appear	-3695
troduc	-3696
3)	-3697
umn	-3698
vere	-3699
▁log	-3700
ality	-3701
▁prog	-3702
▁shit	-3703
▁tuck	-3704
▁warr	-3705
▁electric	-3706
So	-3707
lend	-3708
ishop	-3709
▁2022	-3710
▁goes	-3711
▁fault	-3712
▁pictur	-3713
▁position	-3714
die	-3715
ena	-3716
val	-3717
▁5,	-3718
mund	-3719
▁seek	-3720
▁hours	-3721
▁fourth	-3722
▁virgin	-3723
▁comment	-3724
▁everybody	-3725
▁wentworth	-3726
▁50	-3727
plac	-3728
serve	-3729
▁site	-3730
▁sarah	-3731
▁stepp	-3732
utenant	-3733
▁hundred	-3734
▁saturda	-3735
ado	-3736
llo	-3737
may	-3738
pic	-3739
ture	-3740
▁mud	-3741
▁pip	-3742
▁mike	-3743
▁wing	-3744
▁troop	-3745
▁martin	-3746
▁mexico	-3747
▁correct	-3748
▁secretar	-3749
jur	-3750
▁ON	-3751
▁muse	-3752
▁rang	-3753
▁ruth	-3754
▁appre	-3755
▁brick	-3756
▁direction	-3757
Is	-3758
hm	-3759
olic	-3760
ulat	-3761
▁Mom	-3762
▁bos	-3763
▁sel	-3764
▁hast	-3765
▁pool	-3766
▁robin	-3767
▁speech	-3768
▁quickly	-3769
▁contract	-3770
▁surround	-3771
cia	-3772
▁poet	-3773
▁seven	-3774
▁smith	-3775
▁lieutenant	-3776
▁FO	-3777
back	-3778
▁Old	-3779
quent	-3780
▁2019,	-3781
▁carry	-3782
celeste	-3783
▁dinosaur	-3784
mov	-3785
▁NO	-3786
spap	-3787
▁mas	-3788
▁cath	-3789
▁fann	-3790
▁soup	-3791
▁liber	-3792
▁micro	-3793
▁sunda	-3794
▁featur	-3795
▁shadow	-3796
awa	-3797
▁ol	-3798
▁ry	-3799
▁dol	-3800
▁rand	-3801
▁shown	-3802
▁spain	-3803
▁camera	-3804
▁florida	-3805
▁kitchen	-3806
▁newspap	-3807
6)	-3808
▁lit	-3809
▁craw	-3810
▁glanc	-3811
▁proud	-3812
▁historic	-3813
ks	-3814
ky	-3815
cor	-3816
new	-3817
▁190	-3818
▁lip	-3819
▁tie	-3820
▁kids	-3821
▁frost	-3822
▁casson	-3823
▁dragon	-3824
▁conference	-3825
eg	-3826
sid	-3827
▁map	-3828
▁pac	-3829
stanc	-3830
▁coal	-3831
▁scre	-3832
possum	-3833
▁novel	-3834
▁settl	-3835
▁straw	-3836
sper	-3837
▁Big	-3838
▁gri	-3839
ledge	-3840
▁chip	-3841
▁data	-3842
▁legs	-3843
▁guest	-3844
▁title	-3845
▁broken	-3846
▁choose	-3847
▁throat	-3848
▁already	-3849
▁princip	-3850
.,	-3851
▁28	-3852
tect	-3853
▁odd	-3854
▁tid	-3855
▁gang	-3856
▁meth	-3857
▁texa	-3858
▁burst	-3859
▁direc	-3860
▁neith	-3861
▁museum	-3862
▁perfor	-3863
▁scientist	-3864
gre	-3865
▁26	-3866
▁aye	-3867
▁upp	-3868
▁harm	-3869
▁toast	-3870
▁alfgar	-3871
▁associ	-3872
▁execut	-3873
▁soldier	-3874
▁hospital	-3875
duce	-3876
liver	-3877
▁file	-3878
▁crime	-3879
▁theat	-3880
▁whist	-3881
▁colour	-3882
▁washington	-3883
▁4,	-3884
▁km	-3885
name	-3886
▁186	-3887
▁FOR	-3888
▁bob	-3889
▁tip	-3890
▁wow	-3891
▁arms	-3892
▁ladi	-3893
▁lean	-3894
▁mate	-3895
▁onto	-3896
▁rout	-3897
▁shook	-3898
▁election	-3899
▁condition	-3900
lah	-3901
ply	-3902
ooke	-3903
▁boo	-3904
▁mail	-3905
▁kinda	-3906
_.	-3907
–1	-3908
cho	-3909
lia	-3910
vit	-3911
ease	-3912
your	-3913
▁bay	-3914
▁bent	-3915
▁butt	-3916
▁horn	-3917
vestig	-3918
▁brand	-3919
▁physic	-3920
▁tongue	-3921
iversity	-3922
▁yo	-3923
than	-3924
heart	-3925
▁vall	-3926
▁ward	-3927
▁wick	-3928
▁total	-3929
▁trees	-3930
publican	-3931
▁average	-3932
ker	-3933
▁fal	-3934
▁sac	-3935
▁hurri	-3936
▁special	-3937
▁margaret	-3938
▁yesterda	-3939
▁appearance	-3940
enth	-3941
lease	-3942
▁mayor	-3943
▁edmund	-3944
▁scholar	-3945
▁surprise	-3946
▁territor	-3947
nic	-3948
pha	-3949
▁uk	-3950
...?	-3951
▁opera	-3952
▁studio	-3953
▁somewhat	-3954
enne	-3955
▁cash	-3956
▁pale	-3957
▁faint	-3958
▁texas	-3959
▁excite	-3960
vironment	-3961
▁performan	-3962
▁10,	-3963
▁oce	-3964
▁usu	-3965
▁chuck	-3966
▁educa	-3967
▁cather	-3968
AS	-3969
ada	-3970
▁..	-3971
etch	-3972
ript	-3973
umbl	-3974
▁2010	-3975
▁gift	-3976
▁shock	-3977
▁style	-3978
▁afford	-3979
▁movies	-3980
▁summer	-3981
▁holiday	-3982
▁cher	-3983
▁henr	-3984
▁male	-3985
▁shan	-3986
crease	-3987
▁alarm	-3988
▁switch	-3989
▁catherine	-3990
."]	-3991
ray	-3992
▁jun	-3993
▁mob	-3994
itage	-3995
plied	-3996
▁easy	-3997
▁elec	-3998
▁sake	-3999
morrow	-4000
▁autom	-4001
▁never	-4002
▁adventure	-4003
▁"'	-4004
▁rh	-4005
▁ves	-4006
▁rank	-4007
▁dutch	-4008
▁taught	-4009
▁consist	-4010
▁history	-4011
▁stretch	-4012
▁telephone	-4013
isa	-4014
oom	-4015
opt	-4016
omet	-4017
ters	-4018
viou	-4019
▁Red	-4020
▁ath	-4021
▁hut	-4022
▁2018,	-4023
▁client	-4024
▁glance	-4025
▁contact	-4026
▁official	-4027
▁transport	-4028
ibi	-4029
ting	-4030
▁acid	-4031
▁guid	-4032
▁lamb	-4033
▁arrest	-4034
▁bishop	-4035
▁forgott	-4036
▁constant	-4037
▁themselves	-4038
hand	-4039
▁kar	-4040
▁rod	-4041
▁thu	-4042
▁paus	-4043
lahoma	-4044
▁2021,	-4045
▁airpl	-4046
▁exerc	-4047
▁safet	-4048
▁proced	-4049
▁magazine	-4050
ori	-4051
mitt	-4052
▁ess	-4053
▁gal	-4054
▁suc	-4055
▁adult	-4056
▁emerg	-4057
▁gather	-4058
▁opposite	-4059
wey	-4060
kend	-4061
otte	-4062
▁clev	-4063
▁pray	-4064
termin	-4065
▁shell	-4066
▁stori	-4067
dependent	-4068
▁oklahoma	-4069
cy	-4070
lay	-4071
non	-4072
pet	-4073
wat	-4074
▁6,	-4075
▁ga	-4076
down	-4077
▁cere	-4078
▁hook	-4079
▁swim	-4080
▁voic	-4081
▁eager	-4082
▁ellie	-4083
▁grass	-4084
▁affect	-4085
▁victim	-4086
▁congres	-4087
ere	-4088
vin	-4089
▁27	-4090
call	-4091
host	-4092
▁cel	-4093
▁boot	-4094
▁nerv	-4095
▁sometimes	-4096
1)	-4097
inv	-4098
▁dim	-4099
▁ray	-4100
spond	-4101
▁barb	-4102
▁choo	-4103
▁evil	-4104
▁knee	-4105
▁tenn	-4106
▁habit	-4107
▁madam	-4108
▁mouse	-4109
▁tower	-4110
▁murder	-4111
▁lap	-4112
unate	-4113
▁flag	-4114
▁sang	-4115
▁cruel	-4116
▁employ	-4117
▁hungry	-4118
▁britain	-4119
Of	-4120
vis	-4121
▁22	-4122
▁etc	-4123
▁ign	-4124
▁ruin	-4125
▁asian	-4126
▁shake	-4127
▁continue	-4128
4)	-4129
bow	-4130
bra	-4131
▁bot	-4132
ounce	-4133
▁fest	-4134
▁leap	-4135
▁grant	-4136
▁weath	-4137
▁doggie	-4138
▁benefit	-4139
▁weekend	-4140
▁pictures	-4141
▁exclaimed	-4142
▁situation	-4143
bs	-4144
ility	-4145
▁bitt	-4146
▁grap	-4147
▁opin	-4148
▁yell	-4149
▁worst	-4150
fecture	-4151
▁target	-4152
▁meeting	-4153
▁carriage	-4154
ban	-4155
year	-4156
▁Jim	-4157
▁bump	-4158
▁citi	-4159
▁divi	-4160
▁merr	-4161
▁mort	-4162
▁nois	-4163
▁thor	-4164
▁ocean	-4165
▁screw	-4166
▁writer	-4167
▁australian	-4168
rog	-4169
cuit	-4170
under	-4171
▁arth	-4172
▁sixt	-4173
▁avoid	-4174
▁peggy	-4175
▁value	-4176
▁africa	-4177
▁boston	-4178
▁handle	-4179
▁sunday	-4180
char	-4181
ucle	-4182
▁bid	-4183
▁rifle	-4184
▁steve	-4185
uf	-4186
nie	-4187
alize	-4188
known	-4189
▁beast	-4190
▁grace	-4191
▁ramse	-4192
▁chemic	-4193
▁vessel	-4194
▁IS	-4195
igan	-4196
----"	-4197
ament	-4198
▁2016	-4199
▁cred	-4200
▁aware	-4201
▁jones	-4202
▁veget	-4203
▁corner	-4204
▁nurser	-4205
▁russia	-4206
▁african	-4207
▁chinese	-4208
▁dollars	-4209
▁programme	-4210
ata	-4211
▁Um	-4212
ague	-4213
▁bis	-4214
▁jig	-4215
ansas	-4216
quest	-4217
▁fond	-4218
▁mcgl	-4219
▁vent	-4220
▁wave	-4221
▁serge	-4222
▁trump	-4223
▁damage	-4224
▁imposs	-4225
ora	-4226
▁188	-4227
▁Man	-4228
▁flo	-4229
▁libr	-4230
▁mary	-4231
▁anywa	-4232
▁chart	-4233
▁cheap	-4234
▁chest	-4235
▁horses	-4236
▁sposta	-4237
▁specific	-4238
iu	-4239
▁8,	-4240
roll	-4241
▁batter	-4242
▁edward	-4243
huh	-4244
▁15,	-4245
▁ven	-4246
ssure	-4247
▁sigh	-4248
ologic	-4249
▁laura	-4250
▁arrange	-4251
▁constru	-4252
▁necessar	-4253
▁signific	-4254
▁circumstanc	-4255
'?	-4256
5)	-4257
gy	-4258
irm	-4259
▁na	-4260
road	-4261
▁dra	-4262
▁gor	-4263
chard	-4264
▁salt	-4265
▁scor	-4266
▁scot	-4267
▁tool	-4268
▁scrat	-4269
childes	-4270
▁fourte	-4271
▁magnet	-4272
▁ukrain	-4273
▁wrestl	-4274
▁childes	-4275
▁suspect	-4276
acy	-4277
▁29	-4278
▁pup	-4279
chief	-4280
ierce	-4281
▁symp	-4282
▁basic	-4283
▁cadet	-4284
▁assemb	-4285
▁honour	-4286
▁nominat	-4287
▁quarter	-4288
du	-4289
▁oo	-4290
▁angr	-4291
▁genu	-4292
donald	-4293
▁greek	-4294
▁vehic	-4295
▁bullet	-4296
▁illino	-4297
▁thrown	-4298
▁sentence	-4299
7)	-4300
cr	-4301
els	-4302
keep	-4303
ware	-4304
▁11,	-4305
▁brid	-4306
▁silv	-4307
▁swed	-4308
▁very	-4309
▁ghost	-4310
▁posit	-4311
▁operat	-4312
▁blanket	-4313
▁fortune	-4314
▁opinion	-4315
▁bathroom	-4316
fus	-4317
aven	-4318
▁neat	-4319
▁expens	-4320
▁episode	-4321
▁compound	-4322
▁knowledge	-4323
50	-4324
amm	-4325
ila	-4326
dust	-4327
umbo	-4328
▁bin	-4329
aster	-4330
▁thin	-4331
▁wedd	-4332
▁minor	-4333
▁sixte	-4334
▁waste	-4335
▁provide	-4336
dy	-4337
-19	-4338
box	-4339
berg	-4340
ones	-4341
abeth	-4342
▁sche	-4343
▁border	-4344
▁lovely	-4345
UT	-4346
si	-4347
boy	-4348
sch	-4349
▁9,	-4350
asur	-4351
mond	-4352
▁wis	-4353
▁coun	-4354
▁stir	-4355
iction	-4356
▁nucle	-4357
▁corpor	-4358
▁extreme	-4359
adi	-4360
ano	-4361
▁La	-4362
cide	-4363
viet	-4364
▁aid	-4365
▁flu	-4366
▁acqu	-4367
▁sink	-4368
cument	-4369
stance	-4370
▁amend	-4371
▁divid	-4372
▁hesit	-4373
▁pursu	-4374
▁sheet	-4375
▁career	-4376
▁lesson	-4377
▁strateg	-4378
▁creature	-4379
▁document	-4380
▁somebody	-4381
esc	-4382
sec	-4383
▁aim	-4384
▁dot	-4385
▁zoo	-4386
otion	-4387
▁clar	-4388
▁soph	-4389
▁aside	-4390
▁helen	-4391
▁journ	-4392
▁shopp	-4393
▁financ	-4394
▁method	-4395
ym	-4396
▁bul	-4397
▁sax	-4398
▁sum	-4399
▁2011	-4400
▁bene	-4401
▁eggs	-4402
▁fold	-4403
▁pump	-4404
▁serve	-4405
▁actres	-4406
▁candid	-4407
▁supper	-4408
▁butterf	-4409
▁scratch	-4410
▁zealand	-4411
▁charlotte	-4412
feat	-4413
▁20,	-4414
▁2012	-4415
▁bark	-4416
gineer	-4417
▁crawl	-4418
▁stern	-4419
▁festiv	-4420
▁protest	-4421
▁virginia	-4422
gree	-4423
have	-4424
▁bend	-4425
▁dunn	-4426
▁grab	-4427
▁mose	-4428
▁nodd	-4429
▁patt	-4430
▁brill	-4431
▁utter	-4432
▁worry	-4433
▁honest	-4434
▁visitor	-4435
wyn	-4436
▁7,	-4437
ummy	-4438
▁amy	-4439
ceive	-4440
▁furn	-4441
▁godd	-4442
▁hind	-4443
▁vari	-4444
ustrat	-4445
▁advanc	-4446
▁fought	-4447
▁leader	-4448
▁mirror	-4449
fficient	-4450
▁feeling	-4451
▁georgia	-4452
▁yorkshire	-4453
▁everywhere	-4454
mas	-4455
▁16,	-4456
▁jim	-4457
▁mig	-4458
▁ner	-4459
▁mile	-4460
▁qual	-4461
▁pilot	-4462
▁chicken	-4463
▁express	-4464
▁authorit	-4465
▁catholic	-4466
▁familiar	-4467
▁broadcast	-4468
▁]	-4469
isse	-4470
▁187	-4471
▁mol	-4472
▁1980	-4473
▁fant	-4474
▁sore	-4475
▁slide	-4476
▁excell	-4477
▁jigsaw	-4478
▁suspic	-4479
▁beneath	-4480
▁performance	-4481
fall	-4482
turb	-4483
▁haw	-4484
▁1960	-4485
▁bible	-4486
▁consid	-4487
▁crying	-4488
▁launch	-4489
▁pieces	-4490
american	-4491
▁opportunit	-4492
BC	-4493
▁max	-4494
▁oak	-4495
▁arab	-4496
▁argu	-4497
▁bare	-4498
▁bike	-4499
▁ears	-4500
▁crown	-4501
▁santa	-4502
▁tribe	-4503
▁upstairs	-4504
10	-4505
bi	-4506
oun	-4507
ooth	-4508
▁hug	-4509
▁plu	-4510
▁tha	-4511
venue	-4512
▁cris	-4513
▁eliz	-4514
▁roar	-4515
▁bless	-4516
▁witch	-4517
▁advant	-4518
▁extend	-4519
▁heaven	-4520
▁polish	-4521
▁flowers	-4522
▁tractor	-4523
▁particip	-4524
▁threaten	-4525
9)	-4526
att	-4527
fic	-4528
gag	-4529
met	-4530
mit	-4531
sum	-4532
ador	-4533
▁bol	-4534
▁pad	-4535
▁cycl	-4536
▁smok	-4537
▁admir	-4538
▁soviet	-4539
▁saturday	-4540
ige	-4541
▁ly	-4542
▁ark	-4543
▁den	-4544
▁piz	-4545
ative	-4546
▁diam	-4547
▁spare	-4548
ulation	-4549
▁grandm	-4550
▁mayenne	-4551
▁serious	-4552
▁pic	-4553
▁buri	-4554
▁carl	-4555
▁gasp	-4556
▁lara	-4557
▁sara	-4558
▁escap	-4559
▁strip	-4560
▁narrow	-4561
▁strike	-4562
▁surviv	-4563
▁mexican	-4564
▁sergeant	-4565
▁policeman	-4566
ulf	-4567
fish	-4568
thew	-4569
▁hir	-4570
▁tub	-4571
▁doin	-4572
▁kang	-4573
▁mall	-4574
▁nail	-4575
▁trous	-4576
▁advice	-4577
▁babies	-4578
▁commis	-4579
▁portug	-4580
▁alexand	-4581
▁culture	-4582
▁pattern	-4583
ko	-4584
aug	-4585
eared	-4586
▁jake	-4587
▁stom	-4588
▁artic	-4589
▁skill	-4590
▁credit	-4591
▁sprang	-4592
▁somehow	-4593
car	-4594
nah	-4595
pan	-4596
urt	-4597
bout	-4598
▁21,	-4599
▁Got	-4600
▁rog	-4601
ifica	-4602
▁estim	-4603
▁harry	-4604
▁joint	-4605
▁woods	-4606
▁arthur	-4607
▁bother	-4608
▁splend	-4609
▁thirte	-4610
▁proceed	-4611
▁servant	-4612
▁succeed	-4613
▁questions	-4614
▁tradition	-4615
mur	-4616
tie	-4617
case	-4618
rick	-4619
▁Put	-4620
▁jol	-4621
▁code	-4622
▁ford	-4623
▁lone	-4624
▁pard	-4625
▁oblig	-4626
▁score	-4627
▁empire	-4628
▁manner	-4629
▁places	-4630
▁smooth	-4631
▁source	-4632
',	-4633
30	-4634
sm	-4635
law	-4636
▁bug	-4637
▁begg	-4638
▁cock	-4639
▁cutt	-4640
▁seiz	-4641
▁trib	-4642
vision	-4643
▁steam	-4644
sponsib	-4645
▁longer	-4646
▁winter	-4647
▁matthew	-4648
▁process	-4649
▁securit	-4650
▁jos	-4651
▁kat	-4652
allow	-4653
ropic	-4654
▁dust	-4655
▁judg	-4656
▁talking	-4657
▁economic	-4658
▁original	-4659
vey	-4660
ette	-4661
rond	-4662
▁rib	-4663
stood	-4664
tered	-4665
▁cave	-4666
▁kenn	-4667
▁mich	-4668
▁tent	-4669
dividu	-4670
▁hurry	-4671
▁shift	-4672
▁upset	-4673
▁slowly	-4674
▁terror	-4675
▁courage	-4676
▁failure	-4677
▁brilliant	-4678
inda	-4679
▁hyd	-4680
▁tru	-4681
▁chem	-4682
▁damn	-4683
▁thou	-4684
▁divor	-4685
▁grate	-4686
▁marriage	-4687
▁elizabeth	-4688
chr	-4689
some	-4690
▁ant	-4691
▁kir	-4692
dicat	-4693
▁citiz	-4694
▁loose	-4695
▁silly	-4696
▁speed	-4697
▁weird	-4698
stitute	-4699
▁conserv	-4700
▁education	-4701
gi	-4702
cont	-4703
▁ide	-4704
while	-4705
▁(200	-4706
▁1990	-4707
▁cute	-4708
▁gras	-4709
▁haha	-4710
▁dalla	-4711
▁jumbo	-4712
▁swift	-4713
▁farmer	-4714
▁turtle	-4715
▁associa	-4716
▁fingers	-4717
▁produce	-4718
cca	-4719
▁dom	-4720
▁mhm	-4721
▁vic	-4722
habit	-4723
▁cord	-4724
▁vice	-4725
▁crazy	-4726
▁means	-4727
▁pizza	-4728
▁prove	-4729
▁oxford	-4730
▁pillow	-4731
▁appreci	-4732
▁concent	-4733
▁pakistan	-4734
8)	-4735
mal	-4736
▁az	-4737
iger	-4738
onia	-4739
▁12,	-4740
▁17,	-4741
ously	-4742
▁1970	-4743
▁seal	-4744
▁wipe	-4745
▁brian	-4746
▁height	-4747
▁multip	-4748
rondisse	-4749
▁significant	-4750
gend	-4751
spon	-4752
sure	-4753
about	-4754
▁cars	-4755
▁assur	-4756
▁patch	-4757
▁stamp	-4758
▁journe	-4759
▁strain	-4760
▁attract	-4761
▁letters	-4762
▁division	-4763
war	-4764
▁tv	-4765
book	-4766
iano	-4767
sell	-4768
▁atl	-4769
dustr	-4770
flect	-4771
▁rare	-4772
▁sequ	-4773
▁wine	-4774
▁accus	-4775
▁bunch	-4776
▁hungr	-4777
▁shame	-4778
▁jacket	-4779
▁balloon	-4780
▁confirm	-4781
▁neighbour	-4782
”.	-4783
▁--	-4784
ault	-4785
▁189	-4786
▁WAS	-4787
▁toe	-4788
▁wed	-4789
▁gabr	-4790
▁jail	-4791
liance	-4792
▁2019)	-4793
▁media	-4794
▁pitch	-4795
▁prior	-4796
▁sword	-4797
▁punish	-4798
▁airplane	-4799
▁christmas	-4800
▁countryside	-4801
In	-4802
nor	-4803
idae	-4804
ires	-4805
▁dun	-4806
▁eth	-4807
▁jag	-4808
chair	-4809
▁jeth	-4810
▁rice	-4811
▁aston	-4812
▁spill	-4813
▁burton	-4814
▁ticket	-4815
▁nuclear	-4816
▁laughing	-4817
▁musician	-4818
ugg	-4819
amin	-4820
long	-4821
▁gle	-4822
▁nit	-4823
aling	-4824
anton	-4825
▁chew	-4826
▁chamb	-4827
▁louis	-4828
▁parlia	-4829
▁traffic	-4830
▁michigan	-4831
urs	-4832
▁31	-4833
rael	-4834
▁fis	-4835
▁nep	-4836
▁aile	-4837
▁joke	-4838
▁rise	-4839
▁wire	-4840
ctions	-4841
▁latin	-4842
▁dorothy	-4843
▁graduat	-4844
▁monster	-4845
po	-4846
▁q	-4847
lec	-4848
▁AT	-4849
lock	-4850
▁dey	-4851
▁(201	-4852
▁2007	-4853
▁dump	-4854
▁jesu	-4855
▁latt	-4856
▁valu	-4857
sponse	-4858
▁2022,	-4859
▁dying	-4860
▁fifth	-4861
▁uhhuh	-4862
▁garage	-4863
▁mobile	-4864
▁steven	-4865
▁johnson	-4866
▁campbell	-4867
ms	-4868
eas	-4869
lyn	-4870
umer	-4871
ured	-4872
▁13,	-4873
staur	-4874
▁wack	-4875
▁pupil	-4876
▁shark	-4877
▁killed	-4878
▁measure	-4879
agn	-4880
imp	-4881
gage	-4882
▁25,	-4883
▁27,	-4884
▁cot	-4885
▁mos	-4886
▁ral	-4887
thank	-4888
▁shap	-4889
▁stol	-4890
▁brace	-4891
▁emper	-4892
ologist	-4893
▁confus	-4894
▁cooper	-4895
▁occurr	-4896
▁whenev	-4897
▁justice	-4898
asm	-4899
jan	-4900
syl	-4901
▁MY	-4902
west	-4903
▁18,	-4904
count	-4905
▁belt	-4906
▁chos	-4907
▁nest	-4908
▁poem	-4909
▁craft	-4910
▁frida	-4911
▁jason	-4912
▁peter	-4913
▁split	-4914
▁study	-4915
▁apolog	-4916
▁fierce	-4917
▁balance	-4918
▁consult	-4919
▁excellent	-4920
▁throughout	-4921
kia	-4922
pre	-4923
▁OK	-4924
ache	-4925
ared	-4926
▁fame	-4927
▁sale	-4928
▁2018)	-4929
▁pounds	-4930
▁proces	-4931
▁thirty	-4932
▁splendid	-4933
▁household	-4934
▁southeast	-4935
").	-4936
ale	-4937
▁Me	-4938
ched	-4939
▁14,	-4940
▁30,	-4941
▁san	-4942
neath	-4943
▁2008	-4944
▁bone	-4945
▁dash	-4946
▁suck	-4947
▁vaud	-4948
▁chain	-4949
▁queen	-4950
▁daniel	-4951
▁palace	-4952
▁severe	-4953
▁tomato	-4954
▁addition	-4955
▁constitu	-4956
ni	-4957
des	-4958
▁HE	-4959
bate	-4960
umble	-4961
▁grav	-4962
▁hond	-4963
▁mere	-4964
▁slip	-4965
▁chall	-4966
▁guide	-4967
▁steel	-4968
▁weeks	-4969
▁succes	-4970
▁started	-4971
▁platform	-4972
▁whatever	-4973
▁experienc	-4974
cod	-4975
door	-4976
hang	-4977
▁batt	-4978
▁boss	-4979
▁lane	-4980
▁padd	-4981
cident	-4982
ingham	-4983
nesota	-4984
▁added	-4985
▁drawn	-4986
▁tough	-4987
▁works	-4988
▁mechan	-4989
▁poison	-4990
▁screen	-4991
▁willie	-4992
▁emperor	-4993
▁married	-4994
▁ordinar	-4995
▁working	-4996
▁conversa	-4997
▁minnesota	-4998
▁photograph	-4999
lad	-5000
pir	-5001
sor	-5002
▁40	-5003
▁kr	-5004
ered	-5005
▁Guy	-5006
▁ayl	-5007
▁cub	-5008
▁dia	-5009
alism	-5010
▁lola	-5011
▁draft	-5012
▁float	-5013
▁labor	-5014
▁soldi	-5015
▁blocks	-5016
▁lawyer	-5017
▁diamond	-5018
▁improve	-5019
▁numbers	-5020
▁princes	-5021
▁astonish	-5022
▁temperature	-5023
ez	-5024
mr	-5025
▁ME	-5026
akes	-5027
enger	-5028
stone	-5029
▁2009	-5030
▁iran	-5031
perhap	-5032
▁brook	-5033
▁conte	-5034
▁warri	-5035
▁athlet	-5036
▁center	-5037
▁stomach	-5038
▁controll	-5039
ae	-5040
iar	-5041
oli	-5042
rol	-5043
▁Mm	-5044
▁fu	-5045
bles	-5046
happ	-5047
isco	-5048
lief	-5049
yard	-5050
▁28,	-5051
▁Lem	-5052
ropri	-5053
▁fate	-5054
▁leaf	-5055
▁link	-5056
▁grasp	-5057
▁tremb	-5058
▁classic	-5059
To	-5060
leg	-5061
ding	-5062
gain	-5063
▁aer	-5064
▁alc	-5065
▁egy	-5066
▁kil	-5067
▁lid	-5068
ridge	-5069
▁bund	-5070
▁lack	-5071
▁slav	-5072
▁tank	-5073
▁tied	-5074
▁drove	-5075
▁manuf	-5076
▁tooth	-5077
certain	-5078
▁approv	-5079
▁cancer	-5080
▁israel	-5081
▁playing	-5082
▁computer	-5083
ali	-5084
▁drag	-5085
▁lick	-5086
▁pear	-5087
▁shed	-5088
▁spin	-5089
▁walt	-5090
ligion	-5091
▁birds	-5092
▁conse	-5093
▁egypt	-5094
▁obtain	-5095
▁senior	-5096
▁wilson	-5097
strument	-5098
▁stanton	-5099
▁manufact	-5100
eau	-5101
cuss	-5102
rant	-5103
reck	-5104
solv	-5105
▁23,	-5106
▁Eve	-5107
▁bee	-5108
iance	-5109
▁liqu	-5110
▁ment	-5111
▁pron	-5112
tellig	-5113
▁adopt	-5114
▁often	-5115
▁solid	-5116
▁spite	-5117
▁towel	-5118
▁breast	-5119
▁complet	-5120
▁parents	-5121
▁sweetie	-5122
iy	-5123
rd	-5124
kes	-5125
rad	-5126
uma	-5127
▁Be	-5128
anny	-5129
rold	-5130
▁Any	-5131
▁rhy	-5132
▁vig	-5133
▁clim	-5134
▁dawn	-5135
▁flew	-5136
▁marr	-5137
▁merg	-5138
▁advis	-5139
▁dunno	-5140
▁psych	-5141
▁raise	-5142
▁spark	-5143
fluence	-5144
▁altern	-5145
▁bertha	-5146
▁rachel	-5147
▁termin	-5148
▁attention	-5149
▁television	-5150
apt	-5151
bet	-5152
▁py	-5153
also	-5154
ghed	-5155
sire	-5156
▁bil	-5157
▁2014	-5158
▁bron	-5159
▁magn	-5160
▁nord	-5161
▁seed	-5162
friend	-5163
▁2011,	-5164
▁blame	-5165
▁howev	-5166
because	-5167
▁driver	-5168
▁extent	-5169
▁jaguar	-5170
▁majorit	-5171
▁species	-5172
cov	-5173
mod	-5174
rac	-5175
▁(,	-5176
brin	-5177
cest	-5178
iffe	-5179
▁22,	-5180
▁doo	-5181
▁alto	-5182
▁colon	-5183
▁dwell	-5184
▁squee	-5185
brinini	-5186
▁calcul	-5187
▁eating	-5188
▁jethro	-5189
▁volume	-5190
▁amongst	-5191
▁advantage	-5192
elt	-5193
sir	-5194
ency	-5195
hedr	-5196
▁dai	-5197
▁dyn	-5198
▁sin	-5199
▁dogs	-5200
▁glor	-5201
▁peak	-5202
▁pope	-5203
▁wise	-5204
▁awake	-5205
▁cliff	-5206
▁helic	-5207
▁arrang	-5208
▁stroke	-5209
▁troubl	-5210
▁laughed	-5211
▁manager	-5212
▁upstair	-5213
▁Z	-5214
ctur	-5215
▁appe	-5216
▁peng	-5217
▁pony	-5218
▁2017.	-5219
▁conce	-5220
▁stairs	-5221
▁tickle	-5222
▁cathedr	-5223
ges	-5224
alys	-5225
anut	-5226
cred	-5227
ilet	-5228
▁duh	-5229
▁rus	-5230
spite	-5231
which	-5232
▁boil	-5233
▁fitt	-5234
▁keen	-5235
▁nurs	-5236
▁robb	-5237
▁thee	-5238
▁wore	-5239
esting	-5240
▁stove	-5241
▁horsie	-5242
▁mutter	-5243
▁scheme	-5244
volution	-5245
▁besides	-5246
▁conduct	-5247
▁swallow	-5248
▁activist	-5249
▁handsome	-5250
onom	-5251
treat	-5252
▁2006	-5253
▁holl	-5254
▁toad	-5255
▁verb	-5256
▁2017,	-5257
▁charm	-5258
▁jerse	-5259
▁partn	-5260
▁addres	-5261
▁banana	-5262
▁achieve	-5263
▁borough	-5264
▁compani	-5265
▁feature	-5266
▁assistant	-5267
gle	-5268
mak	-5269
win	-5270
▁1.	-5271
play	-5272
renc	-5273
rett	-5274
scue	-5275
stin	-5276
▁Amy	-5277
▁cav	-5278
arian	-5279
escue	-5280
ities	-5281
▁chop	-5282
▁murd	-5283
▁twin	-5284
▁2016,	-5285
▁2021.	-5286
▁covid	-5287
▁bradle	-5288
▁harold	-5289
▁script	-5290
▁travell	-5291
▁backward	-5292
▁movement	-5293
▁pilchard	-5294
▁treasure	-5295
▁wonderful	-5296
▁sweetheart	-5297
hew	-5298
aska	-5299
atia	-5300
▁blu	-5301
▁fan	-5302
▁nan	-5303
▁ned	-5304
▁rome	-5305
▁rope	-5306
▁soap	-5307
▁tack	-5308
▁tunn	-5309
▁becky	-5310
▁domin	-5311
▁false	-5312
▁nokia	-5313
▁ralph	-5314
▁slept	-5315
▁crayon	-5316
▁legend	-5317
▁dialect	-5318
▁philipp	-5319
▁struggl	-5320
▁thinking	-5321
di	-5322
gb	-5323
oi	-5324
-20	-5325
eta	-5326
hib	-5327
rid	-5328
vil	-5329
▁WE	-5330
▁ay	-5331
▁phr	-5332
▁tun	-5333
vania	-5334
▁symb	-5335
▁2010,	-5336
▁partner	-5337
▁provinc	-5338
▁mcdonald	-5339
ón	-5340
ito	-5341
urb	-5342
clin	-5343
eter	-5344
mann	-5345
rapp	-5346
▁cig	-5347
▁fee	-5348
▁gay	-5349
▁tan	-5350
▁voc	-5351
▁dart	-5352
▁drunk	-5353
▁hasta	-5354
▁korea	-5355
▁lives	-5356
▁bonnet	-5357
▁horror	-5358
▁philos	-5359
▁thrill	-5360
▁wednes	-5361
▁pennsyl	-5362
▁maintain	-5363
▁fortescue	-5364
hu	-5365
ios	-5366
ansa	-5367
umin	-5368
▁des	-5369
▁tro	-5370
achus	-5371
cream	-5372
inton	-5373
▁fork	-5374
▁gran	-5375
▁grat	-5376
ration	-5377
▁admit	-5378
▁names	-5379
▁prote	-5380
▁quant	-5381
▁kingdom	-5382
▁patrick	-5383
▁conversation	-5384
No	-5385
bey	-5386
ept	-5387
hum	-5388
lax	-5389
two	-5390
oman	-5391
wick	-5392
writ	-5393
▁24,	-5394
▁hal	-5395
chest	-5396
ively	-5397
▁poll	-5398
ession	-5399
▁(1999	-5400
▁2019.	-5401
▁guilt	-5402
▁japaz	-5403
▁tiger	-5404
▁twist	-5405
commend	-5406
▁dallas	-5407
▁grandf	-5408
▁lilian	-5409
▁pipina	-5410
▁toilet	-5411
▁violent	-5412
formation	-5413
arrondisse	-5414
▁contribut	-5415
▁pennsylvania	-5416
wi	-5417
mad	-5418
uin	-5419
pent	-5420
▁29,	-5421
▁dir	-5422
▁lic	-5423
▁worn	-5424
▁2018.	-5425
▁eliot	-5426
▁happi	-5427
▁monda	-5428
▁weigh	-5429
▁option	-5430
▁polite	-5431
▁primar	-5432
▁concert	-5433
▁grandpa	-5434
▁procedure	-5435
▁sobrinini	-5436
▁administrat	-5437
atch	-5438
inde	-5439
▁scr	-5440
▁thy	-5441
adium	-5442
iture	-5443
stein	-5444
▁bond	-5445
▁drum	-5446
▁lamp	-5447
▁loui	-5448
▁lucy	-5449
▁bunny	-5450
▁early	-5451
▁fence	-5452
▁greet	-5453
▁squir	-5454
▁poland	-5455
▁prompt	-5456
▁plastic	-5457
▁technolog	-5458
aft	-5459
aph	-5460
hal	-5461
san	-5462
edly	-5463
step	-5464
▁gir	-5465
▁isa	-5466
▁jar	-5467
▁moo	-5468
▁ped	-5469
▁rug	-5470
▁wag	-5471
anora	-5472
▁army	-5473
▁bann	-5474
▁beer	-5475
▁bubb	-5476
▁fifa	-5477
▁hidd	-5478
▁nasc	-5479
▁teen	-5480
▁turk	-5481
▁route	-5482
▁sweat	-5483
▁guitar	-5484
▁pardon	-5485
▁planet	-5486
achusett	-5487
▁advance	-5488
▁charles	-5489
▁earnest	-5490
▁islands	-5491
▁practic	-5492
fortunate	-5493
▁communic	-5494
▁problems	-5495
▁statement	-5496
azz	-5497
gon	-5498
omi	-5499
ows	-5500
ubb	-5501
▁Ma	-5502
▁gi	-5503
----	-5504
aver	-5505
cons	-5506
iece	-5507
▁gil	-5508
ables	-5509
▁bold	-5510
▁crom	-5511
▁gott	-5512
▁halt	-5513
▁shel	-5514
▁flood	-5515
▁irish	-5516
▁label	-5517
▁mustn	-5518
▁spoil	-5519
spector	-5520
▁crimin	-5521
▁hannah	-5522
▁holida	-5523
▁impres	-5524
▁mummie	-5525
staurant	-5526
▁austria	-5527
▁journey	-5528
▁pacific	-5529
▁sevente	-5530
▁witness	-5531
▁writing	-5532
▁thorough	-5533
▁meanwhile	-5534
▁operation	-5535
cur	-5536
nut	-5537
alog	-5538
boat	-5539
ries	-5540
star	-5541
they	-5542
▁Dad	-5543
▁agn	-5544
▁owe	-5545
▁yer	-5546
▁2005	-5547
▁pond	-5548
▁tiss	-5549
▁alpha	-5550
▁dougl	-5551
▁miles	-5552
▁argent	-5553
▁collea	-5554
▁leaves	-5555
▁tropic	-5556
▁happens	-5557
▁weather	-5558
▁olympics	-5559
▁scotland	-5560
▁gentlemen	-5561
presentativ	-5562
▁downstairs	-5563
ji	-5564
nge	-5565
▁185	-5566
▁26,	-5567
▁jur	-5568
▁tox	-5569
athan	-5570
press	-5571
tinct	-5572
▁chim	-5573
▁jeff	-5574
▁root	-5575
▁sofa	-5576
nament	-5577
▁2013,	-5578
▁brooke	-5579
▁colors	-5580
▁cookie	-5581
▁editor	-5582
▁bradley	-5583
▁members	-5584
▁technic	-5585
▁ukraine	-5586
▁complain	-5587
▁northeast	-5588
-2	-5589
ts	-5590
tit	-5591
▁2.	-5592
grat	-5593
hati	-5594
▁bac	-5595
iliti	-5596
▁chri	-5597
▁echo	-5598
▁leon	-5599
▁many	-5600
▁pile	-5601
igator	-5602
▁2012,	-5603
▁manip	-5604
▁celebr	-5605
▁measur	-5606
dividual	-5607
▁ireland	-5608
▁appropri	-5609
▁minister	-5610
▁properly	-5611
▁suddenly	-5612
▁afterwards	-5613
▁confidence	-5614
dr	-5615
ami	-5616
giv	-5617
lie	-5618
sea	-5619
▁au	-5620
▁ky	-5621
aman	-5622
heim	-5623
▁dug	-5624
▁urs	-5625
gbark	-5626
scend	-5627
shall	-5628
▁2017	-5629
▁lips	-5630
▁saus	-5631
erable	-5632
▁2012.	-5633
▁crick	-5634
▁monst	-5635
▁piano	-5636
▁teddy	-5637
▁anyhow	-5638
▁borrow	-5639
▁improv	-5640
▁majest	-5641
▁fellows	-5642
▁impress	-5643
▁progress	-5644
▁ourselves	-5645
liv	-5646
▁(18	-5647
▁ast	-5648
fence	-5649
▁asia	-5650
▁grim	-5651
▁pier	-5652
▁quit	-5653
abilit	-5654
▁2008.	-5655
▁bobby	-5656
▁equal	-5657
▁flung	-5658
▁admitt	-5659
▁andrew	-5660
▁column	-5661
▁junior	-5662
▁changed	-5663
▁mcglory	-5664
▁carolina	-5665
▁lawrence	-5666
▁producer	-5667
▁massachusett	-5668
arrondissement	-5669
term	-5670
▁Sid	-5671
matic	-5672
▁2004	-5673
▁affe	-5674
▁anna	-5675
▁cage	-5676
▁duty	-5677
▁jimm	-5678
▁mend	-5679
▁napp	-5680
▁pudd	-5681
▁homes	-5682
▁italy	-5683
▁lines	-5684
▁paris	-5685
▁sauce	-5686
▁awards	-5687
▁hammer	-5688
▁tunnel	-5689
▁basical	-5690
▁biscuit	-5691
▁squirrel	-5692
▁illustrat	-5693
aki	-5694
dad	-5695
wan	-5696
bird	-5697
pper	-5698
▁alan	-5699
▁anth	-5700
▁appl	-5701
▁cind	-5702
▁eric	-5703
▁pooh	-5704
▁2011.	-5705
▁comes	-5706
▁farth	-5707
▁squad	-5708
▁trian	-5709
▁useta	-5710
▁auntie	-5711
▁journalist	-5712
lim	-5713
low	-5714
hart	-5715
▁183	-5716
▁oop	-5717
asant	-5718
fense	-5719
ilton	-5720
inger	-5721
onent	-5722
▁beam	-5723
▁heap	-5724
▁torn	-5725
courag	-5726
▁bitch	-5727
▁creep	-5728
▁drown	-5729
▁equip	-5730
▁fetch	-5731
▁imper	-5732
▁skipp	-5733
▁slave	-5734
▁thumb	-5735
▁behavi	-5736
▁passed	-5737
▁symbol	-5738
▁postman	-5739
▁shagbark	-5740
▁struggle	-5741
▁continued	-5742
▁nascanora	-5743
▁basketball	-5744
usa	-5745
usi	-5746
▁BY	-5747
▁DO	-5748
ists	-5749
▁nom	-5750
burgh	-5751
▁1950	-5752
▁bust	-5753
▁clap	-5754
▁maid	-5755
▁mood	-5756
▁uhoh	-5757
▁unit	-5758
▁fleet	-5759
▁heavi	-5760
▁parag	-5761
▁sched	-5762
▁railwa	-5763
▁sorrow	-5764
▁angeles	-5765
▁attitude	-5766
▁comedian	-5767
▁prisoner	-5768
▁stranger	-5769
fit	-5770
oln	-5771
ulu	-5772
dale	-5773
olph	-5774
▁184	-5775
▁Air	-5776
▁gym	-5777
▁wip	-5778
ating	-5779
dians	-5780
sname	-5781
would	-5782
▁2013	-5783
▁gram	-5784
▁parr	-5785
▁peek	-5786
▁2010.	-5787
▁cough	-5788
▁jesus	-5789
▁numer	-5790
▁rolan	-5791
▁sweep	-5792
▁lightn	-5793
▁murmur	-5794
▁drawing	-5795
▁armitage	-5796
▁happening	-5797
▁sufficient	-5798
ju	-5799
ien	-5800
nit	-5801
▁AL	-5802
onic	-5803
town	-5804
▁las	-5805
▁ted	-5806
▁busy	-5807
▁alice	-5808
▁bounc	-5809
▁stole	-5810
▁theor	-5811
▁purcha	-5812
▁ceremon	-5813
▁stadium	-5814
▁arkansas	-5815
▁organiza	-5816
mun	-5817
▁60	-5818
adel	-5819
iman	-5820
king	-5821
zech	-5822
▁19,	-5823
▁elo	-5824
▁gim	-5825
▁paw	-5826
▁tam	-5827
▁tib	-5828
▁wak	-5829
imate	-5830
▁2015	-5831
▁awww	-5832
▁gord	-5833
▁pipe	-5834
▁tues	-5835
incoln	-5836
▁areas	-5837
▁chase	-5838
▁concl	-5839
▁sneak	-5840
▁spect	-5841
▁valle	-5842
▁friday	-5843
▁monday	-5844
▁profit	-5845
▁shower	-5846
▁(1999).	-5847
▁complic	-5848
▁jackson	-5849
▁stories	-5850
▁vehicle	-5851
▁frequent	-5852
▁somethin	-5853
▁conservat	-5854
▁necessari	-5855
▁background	-5856
jac	-5857
ski	-5858
▁[_	-5859
flow	-5860
▁ari	-5861
inter	-5862
▁addi	-5863
▁tale	-5864
▁user	-5865
▁barty	-5866
▁confl	-5867
▁cryst	-5868
▁frame	-5869
▁heavy	-5870
▁lemme	-5871
▁susan	-5872
▁wrapp	-5873
▁carrot	-5874
▁naughty	-5875
▁package	-5876
▁propert	-5877
:--	-5878
iza	-5879
lav	-5880
pol	-5881
wide	-5882
▁Lee	-5883
souri	-5884
▁(197	-5885
▁airl	-5886
▁bean	-5887
▁boom	-5888
▁digg	-5889
▁hamb	-5890
▁lung	-5891
▁mais	-5892
▁woke	-5893
bridge	-5894
▁2020.	-5895
▁asham	-5896
▁consc	-5897
comfort	-5898
▁gabrie	-5899
▁librar	-5900
▁permis	-5901
▁picnic	-5902
▁lincoln	-5903
▁prospect	-5904
asa	-5905
fac	-5906
pla	-5907
▁BE	-5908
▁HI	-5909
▁Jr	-5910
▁ko	-5911
veal	-5912
▁lor	-5913
quart	-5914
▁duke	-5915
▁myth	-5916
▁vain	-5917
trance	-5918
▁lower	-5919
▁persu	-5920
▁statu	-5921
▁animat	-5922
▁cannon	-5923
▁parson	-5924
▁secure	-5925
▁warrior	-5926
▁acquaint	-5927
▁countries	-5928
rom	-5929
jack	-5930
siss	-5931
▁jac	-5932
tense	-5933
uddle	-5934
▁crim	-5935
▁darl	-5936
▁hayd	-5937
▁pure	-5938
expect	-5939
▁edric	-5940
▁ignor	-5941
▁scare	-5942
▁swept	-5943
▁thurs	-5944
▁byebye	-5945
▁growth	-5946
▁korean	-5947
▁living	-5948
▁worker	-5949
▁hondura	-5950
▁languag	-5951
▁theatre	-5952
▁romantic	-5953
▁software	-5954
._]	-5955
top	-5956
usu	-5957
▁ic	-5958
ciou	-5959
▁Roy	-5960
▁chi	-5961
▁shy	-5962
hetic	-5963
▁forb	-5964
▁math	-5965
▁only	-5966
▁pigg	-5967
▁rude	-5968
▁zero	-5969
ricult	-5970
▁aband	-5971
▁angry	-5972
▁czech	-5973
▁dragg	-5974
▁emplo	-5975
▁owner	-5976
▁stout	-5977
▁wreck	-5978
▁ancest	-5979
▁avenue	-5980
▁closed	-5981
▁coward	-5982
▁peanut	-5983
▁bracelet	-5984
▁material	-5985
▁strawber	-5986
▁shoulders	-5987
fu	-5988
gor	-5989
lam	-5990
lar	-5991
ergy	-5992
four	-5993
iana	-5994
tant	-5995
▁Had	-5996
hetti	-5997
istol	-5998
▁1930	-5999
▁evol	-6000
▁exha	-6001
▁hipp	-6002
▁ohio	-6003
▁categ	-6004
▁censu	-6005
▁eddie	-6006
▁flush	-6007
▁garth	-6008
▁steps	-6009
▁stiff	-6010
surance	-6011
▁passeng	-6012
▁progres	-6013
▁adventur	-6014
▁agricult	-6015
▁illinois	-6016
▁multiple	-6017
▁childsname	-6018
ny	-6019
alp	-6020
dor	-6021
gee	-6022
gun	-6023
load	-6024
pair	-6025
▁web	-6026
atter	-6027
sourc	-6028
tress	-6029
▁alli	-6030
▁kath	-6031
▁kong	-6032
▁ways	-6033
please	-6034
▁dirty	-6035
▁scrap	-6036
▁stead	-6037
liament	-6038
▁abilit	-6039
▁phrase	-6040
▁splash	-6041
▁stable	-6042
▁wander	-6043
▁convinc	-6044
▁penguin	-6045
▁newspaper	-6046
▁importance	-6047
▁competition	-6048
hl	-6049
je	-6050
hun	-6051
pap	-6052
rit	-6053
▁os	-6054
chin	-6055
itei	-6056
then	-6057
▁Van	-6058
▁hig	-6059
▁2003	-6060
▁hend	-6061
▁jeal	-6062
▁rear	-6063
▁scru	-6064
▁canoe	-6065
▁drift	-6066
▁noble	-6067
▁pride	-6068
▁smash	-6069
▁withd	-6070
sissipp	-6071
▁crocod	-6072
▁occupi	-6073
▁startl	-6074
▁talent	-6075
▁thirst	-6076
ographic	-6077
▁cabinet	-6078
▁complex	-6079
▁emotion	-6080
▁sympath	-6081
▁commission	-6082
tt	-6083
bar	-6084
kee	-6085
kyo	-6086
nev	-6087
ule	-6088
brat	-6089
spir	-6090
▁nad	-6091
▁(198	-6092
▁(199	-6093
▁capt	-6094
▁melt	-6095
nocent	-6096
▁2013.	-6097
▁james	-6098
▁sixth	-6099
herland	-6100
▁expert	-6101
sissippi	-6102
▁emergenc	-6103
cat	-6104
dge	-6105
opl	-6106
itan	-6107
usie	-6108
eless	-6109
▁dumb	-6110
▁grac	-6111
▁guns	-6112
▁hugh	-6113
▁popp	-6114
▁quar	-6115
▁tang	-6116
▁toes	-6117
▁vene	-6118
▁acces	-6119
▁tokyo	-6120
▁combin	-6121
▁impact	-6122
▁jewish	-6123
▁sailor	-6124
▁stanle	-6125
▁abandon	-6126
▁exhaust	-6127
▁icecream	-6128
▁victoria	-6129
▁passenger	-6130
oni	-6131
▁loy	-6132
▁annu	-6133
▁blaz	-6134
▁crab	-6135
▁rick	-6136
▁rode	-6137
▁scen	-6138
scribe	-6139
writer	-6140
▁2015.	-6141
▁couch	-6142
▁roger	-6143
▁ashati	-6144
▁examin	-6145
▁houses	-6146
▁meitei	-6147
▁strict	-6148
▁upside	-6149
▁conclud	-6150
▁excited	-6151
ification	-6152
▁alligator	-6153
▁excitement	-6154
▁parliament	-6155
As	-6156
-17	-6157
err	-6158
pot	-6159
rif	-6160
tic	-6161
▁FC	-6162
▁ll	-6163
bill	-6164
iber	-6165
ourn	-6166
rose	-6167
ther	-6168
▁pag	-6169
▁pha	-6170
▁pace	-6171
▁knows	-6172
▁captur	-6173
▁hollow	-6174
▁ladies	-6175
▁liquid	-6176
▁tempor	-6177
▁archite	-6178
▁separat	-6179
▁dangerous	-6180
aro	-6181
hem	-6182
say	-6183
sex	-6184
▁Le	-6185
fant	-6186
geon	-6187
lemn	-6188
mont	-6189
▁Hal	-6190
▁NOT	-6191
▁alt	-6192
▁jaw	-6193
▁pok	-6194
▁pul	-6195
▁sne	-6196
▁sank	-6197
▁sung	-6198
▁trac	-6199
▁whit	-6200
iverse	-6201
▁2007.	-6202
▁2009.	-6203
▁expos	-6204
▁funer	-6205
▁growl	-6206
▁mathe	-6207
▁trace	-6208
▁whoev	-6209
▁drusie	-6210
▁exampl	-6211
▁imagin	-6212
▁social	-6213
▁solemn	-6214
▁consequ	-6215
▁cricket	-6216
▁eagerly	-6217
▁earlier	-6218
▁goodbye	-6219
▁speaker	-6220
▁violence	-6221
sponsibilit	-6222
izz	-6223
tan	-6224
uis	-6225
ader	-6226
▁BUT	-6227
▁gut	-6228
▁2001	-6229
▁fare	-6230
▁lwww	-6231
▁ston	-6232
▁worm	-6233
▁eagle	-6234
▁feast	-6235
▁gimme	-6236
▁impat	-6237
▁legis	-6238
▁pause	-6239
▁photo	-6240
▁stack	-6241
▁conven	-6242
▁selwyn	-6243
▁chemist	-6244
▁clinton	-6245
▁windows	-6246
▁headquart	-6247
"?	-6248
dg	-6249
ée	-6250
dul	-6251
iii	-6252
lev	-6253
ost	-6254
rup	-6255
noth	-6256
raph	-6257
riff	-6258
ssed	-6259
uchi	-6260
vice	-6261
▁ALL	-6262
▁fel	-6263
▁gum	-6264
▁urg	-6265
iform	-6266
zburg	-6267
▁basi	-6268
▁blew	-6269
▁bugg	-6270
▁chas	-6271
▁jess	-6272
▁jing	-6273
▁nich	-6274
▁rage	-6275
▁appli	-6276
▁baker	-6277
▁chose	-6278
▁focus	-6279
▁tempt	-6280
▁belief	-6281
▁essent	-6282
▁goddes	-6283
▁nettie	-6284
▁anybody	-6285
▁running	-6286
▁senator	-6287
▁whistle	-6288
▁brothers	-6289
▁electron	-6290
▁sleeping	-6291
▁francisco	-6292
▁gabriella	-6293
AY	-6294
cap	-6295
▁""	-6296
▁AR	-6297
▁ni	-6298
dict	-6299
enna	-6300
last	-6301
phia	-6302
sect	-6303
utch	-6304
▁fus	-6305
▁lux	-6306
▁ult	-6307
▁yum	-6308
icide	-6309
▁2002	-6310
▁bast	-6311
▁benj	-6312
▁bles	-6313
▁bodi	-6314
▁cine	-6315
▁phon	-6316
▁wast	-6317
▁woof	-6318
marked	-6319
▁click	-6320
▁condi	-6321
▁groan	-6322
▁polly	-6323
▁stump	-6324
▁venez	-6325
▁advert	-6326
▁cultur	-6327
▁former	-6328
▁thrust	-6329
▁variet	-6330
▁vision	-6331
▁counter	-6332
▁curtain	-6333
▁pension	-6334
▁tremend	-6335
struction	-6336
▁franklin	-6337
mn	-6338
inu	-6339
▁Up	-6340
aged	-6341
amma	-6342
bage	-6343
over	-6344
pare	-6345
▁fab	-6346
▁mcc	-6347
▁vit	-6348
0,000	-6349
agree	-6350
verse	-6351
▁gros	-6352
▁hong	-6353
▁2015,	-6354
▁simon	-6355
▁steph	-6356
▁columb	-6357
▁dynast	-6358
▁potent	-6359
▁billion	-6360
▁citizen	-6361
▁sentenc	-6362
▁waiting	-6363
▁austrian	-6364
▁conflict	-6365
▁henderson	-6366
ür	-6367
500	-6368
cut	-6369
oot	-6370
rer	-6371
sts	-6372
abel	-6373
ersh	-6374
gian	-6375
mier	-6376
miss	-6377
onge	-6378
resp	-6379
▁Day	-6380
▁git	-6381
▁kel	-6382
▁umb	-6383
venge	-6384
▁1994	-6385
▁dull	-6386
▁hail	-6387
▁lend	-6388
▁mosc	-6389
▁nanc	-6390
▁peep	-6391
▁whil	-6392
▁cochr	-6393
▁neram	-6394
▁roast	-6395
▁tears	-6396
▁colomb	-6397
▁graham	-6398
▁mosely	-6399
▁plants	-6400
▁tissue	-6401
adelphia	-6402
▁capture	-6403
▁natural	-6404
▁atlantic	-6405
▁guidance	-6406
▁microphone	-6407
▁businessman	-6408
hr	-6409
án	-6410
eme	-6411
erp	-6412
▁De	-6413
corn	-6414
kins	-6415
▁Has	-6416
▁gap	-6417
▁yep	-6418
break	-6419
vered	-6420
▁1997	-6421
▁corp	-6422
▁guad	-6423
▁mask	-6424
▁2006.	-6425
▁annoy	-6426
▁crush	-6427
▁knees	-6428
▁spott	-6429
▁confed	-6430
▁perman	-6431
▁protec	-6432
▁valent	-6433
▁wherev	-6434
▁accompl	-6435
▁arrived	-6436
▁concept	-6437
▁dancing	-6438
▁associat	-6439
▁colleagu	-6440
▁painting	-6441
▁tournament	-6442
!’	-6443
3:	-6444
vo	-6445
any	-6446
fir	-6447
tri	-6448
▁32	-6449
dign	-6450
imum	-6451
▁182	-6452
▁lav	-6453
cords	-6454
thusi	-6455
▁buff	-6456
▁caut	-6457
▁cott	-6458
▁goat	-6459
▁guin	-6460
▁miss	-6461
▁peer	-6462
▁soil	-6463
school	-6464
▁clown	-6465
▁elder	-6466
▁error	-6467
▁miner	-6468
▁pants	-6469
▁puzzl	-6470
▁tummy	-6471
▁attach	-6472
▁nephew	-6473
▁scared	-6474
▁capital	-6475
▁cigaret	-6476
▁dressed	-6477
▁perhaps	-6478
▁programm	-6479
▁venezuel	-6480
▁netherland	-6481
▁philadelphia	-6482
.=	-6483
ses	-6484
acit	-6485
bble	-6486
gust	-6487
solu	-6488
▁BBC	-6489
▁Jap	-6490
▁laz	-6491
agnos	-6492
found	-6493
ordin	-6494
▁dave	-6495
▁hank	-6496
▁plot	-6497
▁pott	-6498
▁sack	-6499
▁virt	-6500
▁2009,	-6501
▁angle	-6502
▁conqu	-6503
▁tramp	-6504
aughter	-6505
▁assume	-6506
▁eleven	-6507
▁moscow	-6508
▁suppli	-6509
▁wanted	-6510
▁element	-6511
▁horatia	-6512
▁squeeze	-6513
▁confident	-6514
11	-6515
40	-6516
AN	-6517
ET	-6518
HL	-6519
lfr	-6520
oto	-6521
sus	-6522
uri	-6523
▁Ki	-6524
acle	-6525
ater	-6526
bomb	-6527
▁voy	-6528
aside	-6529
ately	-6530
consc	-6531
essee	-6532
estic	-6533
inent	-6534
▁bore	-6535
▁flam	-6536
▁oliv	-6537
▁poly	-6538
▁slid	-6539
▁stew	-6540
▁2016.	-6541
▁amuse	-6542
▁blake	-6543
▁chile	-6544
▁holly	-6545
▁isaac	-6546
▁lemon	-6547
▁snack	-6548
▁whoop	-6549
▁graeme	-6550
▁southw	-6551
▁surger	-6552
▁smiling	-6553
▁society	-6554
▁benjamin	-6555
▁identifi	-6556
▁languages	-6557
▁tennessee	-6558
▁population	-6559
lu	-6560
▁;	-6561
▁Q	-6562
isk	-6563
urg	-6564
▁SO	-6565
cles	-6566
enge	-6567
gret	-6568
icul	-6569
thou	-6570
▁ARE	-6571
▁Yet	-6572
▁sod	-6573
itter	-6574
▁1992	-6575
▁ceas	-6576
▁haut	-6577
▁loan	-6578
▁pole	-6579
▁puss	-6580
▁2014,	-6581
▁comin	-6582
▁drank	-6583
▁mamie	-6584
▁maria	-6585
▁carpet	-6586
▁hiding	-6587
▁nobody	-6588
▁barbara	-6589
▁satisfi	-6590
▁eventual	-6591
▁furniture	-6592
▁paragraph	-6593
19	-6594
bat	-6595
iko	-6596
ril	-6597
▁35	-6598
▁ec	-6599
..."	-6600
▁Hot	-6601
▁dak	-6602
▁rag	-6603
▁tob	-6604
maybe	-6605
▁curl	-6606
▁davi	-6607
▁guar	-6608
▁lump	-6609
▁wool	-6610
▁yuck	-6611
▁drill	-6612
▁empty	-6613
▁swell	-6614
▁urban	-6615
▁widow	-6616
▁carbon	-6617
▁embarr	-6618
▁genera	-6619
▁gettin	-6620
▁sought	-6621
▁tourna	-6622
▁alternat	-6623
▁congress	-6624
▁organization	-6625
aka	-6626
ays	-6627
had	-6628
rek	-6629
aine	-6630
fire	-6631
ingu	-6632
move	-6633
stan	-6634
▁Bay	-6635
▁Ted	-6636
▁dum	-6637
▁ugl	-6638
agger	-6639
ested	-6640
leton	-6641
sense	-6642
spair	-6643
three	-6644
▁gira	-6645
▁lisa	-6646
▁mand	-6647
▁trap	-6648
▁2014.	-6649
▁annie	-6650
▁anton	-6651
▁freud	-6652
▁strik	-6653
lfriend	-6654
▁episod	-6655
▁howard	-6656
▁polici	-6657
▁posses	-6658
▁wealth	-6659
▁announce	-6660
▁caroline	-6661
▁heritage	-6662
▁settlement	-6663
esp	-6664
idd	-6665
osh	-6666
tim	-6667
▁ax	-6668
▁si	-6669
▁wo	-6670
ffin	-6671
pani	-6672
soft	-6673
utor	-6674
▁31,	-6675
▁Sea	-6676
▁sed	-6677
▁ske	-6678
▁vel	-6679
inkle	-6680
rella	-6681
▁astr	-6682
▁deck	-6683
▁dere	-6684
▁diap	-6685
▁dish	-6686
▁dora	-6687
▁emma	-6688
▁limb	-6689
struct	-6690
▁2008,	-6691
▁bench	-6692
▁chill	-6693
▁comic	-6694
▁kidna	-6695
▁medal	-6696
▁needn	-6697
▁steal	-6698
aghetti	-6699
▁bigger	-6700
▁gordon	-6701
▁guadal	-6702
▁horrid	-6703
▁mercur	-6704
▁parrot	-6705
▁sponge	-6706
▁tribut	-6707
▁whilst	-6708
▁foolish	-6709
▁nowhere	-6710
▁neverthe	-6711
▁christoph	-6712
▁langridge	-6713
▁—	-6714
dig	-6715
eds	-6716
ius	-6717
nal	-6718
sil	-6719
▁GO	-6720
▁ka	-6721
belt	-6722
chor	-6723
dear	-6724
from	-6725
join	-6726
list	-6727
song	-6728
tres	-6729
▁hoo	-6730
▁rur	-6731
porat	-6732
scrip	-6733
uctor	-6734
▁budd	-6735
▁buzz	-6736
mother	-6737
▁2020)	-6738
▁cards	-6739
▁fifty	-6740
▁kansa	-6741
▁migra	-6742
▁counti	-6743
▁parcel	-6744
▁saxony	-6745
▁villag	-6746
▁whistl	-6747
▁gerhart	-6748
▁promise	-6749
▁sheriff	-6750
▁stopped	-6751
▁trouser	-6752
▁gervaise	-6753
▁yourselv	-6754
▁surprised	-6755
▁scientific	-6756
90	-6757
By	-6758
arse	-6759
issa	-6760
▁abe	-6761
▁rig	-6762
▁rot	-6763
▁sem	-6764
▁stu	-6765
mouth	-6766
▁cort	-6767
▁ding	-6768
▁dock	-6769
▁focu	-6770
▁gast	-6771
▁kent	-6772
▁rust	-6773
▁snap	-6774
▁dough	-6775
▁kevin	-6776
▁proof	-6777
▁punch	-6778
▁swung	-6779
▁barnum	-6780
▁cowboy	-6781
▁libert	-6782
▁making	-6783
▁promot	-6784
▁automob	-6785
▁congrat	-6786
▁estimat	-6787
▁feather	-6788
▁monarch	-6789
▁pauline	-6790
▁guadalcan	-6791
▁congression	-6792
bas	-6793
icy	-6794
una	-6795
vor	-6796
▁36	-6797
arer	-6798
fill	-6799
mast	-6800
▁Sam	-6801
▁gat	-6802
▁jet	-6803
▁ken	-6804
ropol	-6805
usion	-6806
▁1986	-6807
▁fuel	-6808
▁jerr	-6809
▁pari	-6810
▁blast	-6811
▁micke	-6812
▁patty	-6813
▁snail	-6814
troduce	-6815
▁ambass	-6816
▁anxiet	-6817
▁bucket	-6818
▁collec	-6819
▁marine	-6820
▁savage	-6821
▁competi	-6822
▁rainbow	-6823
▁alphabet	-6824
▁alongside	-6825
▁crocodile	-6826
▁downstair	-6827
▁fantastic	-6828
▁impatient	-6829
▁experiment	-6830
▁girlfriend	-6831
▁literature	-6832
▁constitution	-6833
alo	-6834
hor	-6835
owa	-6836
aroo	-6837
gist	-6838
isha	-6839
vell	-6840
shine	-6841
tingu	-6842
▁1940	-6843
▁amus	-6844
▁copy	-6845
▁whip	-6846
intend	-6847
▁aggie	-6848
▁cherr	-6849
▁edith	-6850
▁elbow	-6851
▁frogs	-6852
▁idiot	-6853
▁param	-6854
▁skirt	-6855
▁surre	-6856
▁commit	-6857
▁divorc	-6858
▁scottish	-6859
▁boyfriend	-6860
▁challenge	-6861
▁exception	-6862
;"	-6863
sl	-6864
tl	-6865
eda	-6866
sie	-6867
▁3.	-6868
aboo	-6869
ened	-6870
▁mia	-6871
becca	-6872
gnant	-6873
▁1995	-6874
▁1998	-6875
▁1999	-6876
▁dodd	-6877
▁glow	-6878
▁ladd	-6879
▁mole	-6880
▁sexu	-6881
▁sunn	-6882
▁tide	-6883
▁whoa	-6884
▁alter	-6885
▁andre	-6886
▁celia	-6887
▁flesh	-6888
▁gorge	-6889
▁heath	-6890
▁songs	-6891
▁tryin	-6892
courage	-6893
▁alaska	-6894
▁string	-6895
▁trembl	-6896
▁cochran	-6897
▁diagnos	-6898
▁possess	-6899
▁telegram	-6900
▁accompani	-6901
▁authoriti	-6902
▁conductor	-6903
▁mountains	-6904
▁spaghetti	-6905
zy	-6906
"),	-6907
try	-6908
ves	-6909
▁Ar	-6910
▁Out	-6911
▁fuk	-6912
▁kin	-6913
▁lac	-6914
▁sew	-6915
▁1988	-6916
▁cann	-6917
▁copi	-6918
▁panc	-6919
quired	-6920
vering	-6921
▁barry	-6922
▁momma	-6923
▁peril	-6924
▁shelt	-6925
▁stink	-6926
▁thief	-6927
▁autumn	-6928
▁expand	-6929
▁shrine	-6930
▁signal	-6931
▁bernard	-6932
▁passage	-6933
▁schools	-6934
▁swedish	-6935
▁audience	-6936
▁organism	-6937
▁umbrella	-6938
▁affection	-6939
▁community	-6940
▁administra	-6941
80	-6942
▁~	-6943
dou	-6944
shi	-6945
▁ey	-6946
ario	-6947
bury	-6948
cell	-6949
helm	-6950
lete	-6951
oard	-6952
oibi	-6953
skin	-6954
▁cob	-6955
▁era	-6956
▁jus	-6957
▁kim	-6958
▁pea	-6959
▁tum	-6960
▁twe	-6961
▁woo	-6962
views	-6963
▁brav	-6964
▁dais	-6965
▁docu	-6966
▁frag	-6967
▁mush	-6968
▁noel	-6969
▁pric	-6970
▁2007,	-6971
▁balls	-6972
▁clasp	-6973
▁produ	-6974
▁scale	-6975
▁sides	-6976
▁taken	-6977
▁curios	-6978
▁format	-6979
▁guinea	-6980
▁autonom	-6981
▁bastard	-6982
▁chatter	-6983
▁fiction	-6984
▁gradual	-6985
▁passion	-6986
▁supreme	-6987
▁version	-6988
scription	-6989
▁railroad	-6990
▁sunshine	-6991
21	-6992
kel	-6993
▁ou	-6994
duct	-6995
liev	-6996
zard	-6997
zona	-6998
▁Abe	-6999
▁Pat	-7000
▁Try	-7001
▁kha	-7002
▁lil	-7003
▁ses	-7004
print	-7005
▁1987	-7006
▁crap	-7007
▁dies	-7008
▁diet	-7009
▁glov	-7010
▁nutt	-7011
▁palm	-7012
▁pand	-7013
▁vast	-7014
culiar	-7015
peated	-7016
▁2006,	-7017
▁accur	-7018
▁assum	-7019
▁chanc	-7020
▁hills	-7021
▁liver	-7022
▁orton	-7023
▁tripp	-7024
▁anchor	-7025
▁applic	-7026
▁cotton	-7027
▁cuddle	-7028
▁peters	-7029
▁cartoon	-7030
▁guarant	-7031
▁helicop	-7032
▁kilomet	-7033
▁raymond	-7034
▁celebrat	-7035
▁domestic	-7036
▁beginning	-7037
▁brazilian	-7038
▁ambassador	-7039
24	-7040
sw	-7041
zo	-7042
opp	-7043
tub	-7044
ably	-7045
ampa	-7046
clos	-7047
mock	-7048
▁(),	-7049
▁180	-7050
▁Ann	-7051
▁foe	-7052
▁owl	-7053
▁vin	-7054
force	-7055
▁1996	-7056
▁angl	-7057
▁ejac	-7058
▁loss	-7059
▁ripp	-7060
▁ryan	-7061
turned	-7062
▁agnes	-7063
▁begun	-7064
▁faces	-7065
▁freez	-7066
▁harri	-7067
▁parti	-7068
▁stool	-7069
▁theme	-7070
▁trial	-7071
▁waist	-7072
▁aspect	-7073
▁barcel	-7074
▁ladder	-7075
▁sector	-7076
▁winner	-7077
▁banglad	-7078
▁illness	-7079
▁ridicul	-7080
▁magnetic	-7081
▁peculiar	-7082
▁september	-7083
▁circumstances	-7084
.--	-7085
ika	-7086
pth	-7087
fuse	-7088
ians	-7089
pell	-7090
▁Say	-7091
▁Six	-7092
▁bum	-7093
▁syd	-7094
▁tay	-7095
could	-7096
stall	-7097
▁1993	-7098
▁bree	-7099
▁cert	-7100
▁evan	-7101
▁hamm	-7102
▁ours	-7103
▁pine	-7104
▁pitt	-7105
▁ruff	-7106
▁swis	-7107
▁tomb	-7108
▁viet	-7109
gister	-7110
▁2022.	-7111
▁await	-7112
▁chlor	-7113
▁flour	-7114
▁grunt	-7115
▁plans	-7116
▁swear	-7117
▁walls	-7118
chester	-7119
▁analys	-7120
▁attorn	-7121
▁betray	-7122
▁combat	-7123
▁explor	-7124
▁moving	-7125
▁papers	-7126
▁rights	-7127
▁wretch	-7128
pleasant	-7129
▁arizona	-7130
▁article	-7131
▁commerc	-7132
▁context	-7133
▁quietly	-7134
▁singing	-7135
▁function	-7136
▁assurance	-7137
▁communist	-7138
▁manufactur	-7139
▁successful	-7140
bag	-7141
gal	-7142
god	-7143
hta	-7144
isp	-7145
rah	-7146
▁ak	-7147
imet	-7148
mosp	-7149
uese	-7150
vite	-7151
▁arg	-7152
▁nak	-7153
▁rum	-7154
brush	-7155
▁bure	-7156
▁coin	-7157
▁dram	-7158
▁func	-7159
fluenc	-7160
▁hydro	-7161
▁midst	-7162
▁panel	-7163
▁pinch	-7164
▁rocks	-7165
▁snapp	-7166
▁ashore	-7167
▁barrel	-7168
▁chairs	-7169
▁gently	-7170
▁newton	-7171
▁online	-7172
▁policy	-7173
▁wherea	-7174
appeared	-7175
kerchief	-7176
▁absence	-7177
▁exactly	-7178
▁section	-7179
▁accommod	-7180
▁colorado	-7181
telligence	-7182
▁concerned	-7183
fi	-7184
bot	-7185
hon	-7186
uan	-7187
usc	-7188
▁90	-7189
▁BC	-7190
▁UK	-7191
▁lt	-7192
ourg	-7193
unte	-7194
ways	-7195
▁Fox	-7196
▁NHL	-7197
▁Ned	-7198
▁bra	-7199
▁ita	-7200
▁osc	-7201
ators	-7202
illar	-7203
itive	-7204
▁(196	-7205
▁1964	-7206
▁chok	-7207
▁gath	-7208
▁glob	-7209
▁loft	-7210
dustry	-7211
strict	-7212
▁alcoh	-7213
▁aloud	-7214
▁camel	-7215
▁cases	-7216
▁grape	-7217
▁madge	-7218
western	-7219
▁clever	-7220
▁freder	-7221
▁points	-7222
▁silver	-7223
▁tibbit	-7224
▁contest	-7225
▁cottage	-7226
▁further	-7227
▁harwood	-7228
▁hopeful	-7229
▁looking	-7230
▁mechanic	-7231
▁favourite	-7232
▁suspicion	-7233
▁transferr	-7234
▁harrington	-7235
▁headquarter	-7236
dam	-7237
emi	-7238
gra	-7239
lli	-7240
▁Hi	-7241
▁UP	-7242
aren	-7243
erto	-7244
pret	-7245
▁awk	-7246
▁bew	-7247
gener	-7248
tendo	-7249
▁1991	-7250
▁cush	-7251
▁cust	-7252
▁dann	-7253
▁fake	-7254
▁flav	-7255
▁gest	-7256
▁grip	-7257
▁hood	-7258
▁impl	-7259
▁keys	-7260
▁quot	-7261
▁tony	-7262
friger	-7263
lative	-7264
▁candy	-7265
▁circu	-7266
▁clara	-7267
▁digit	-7268
▁islam	-7269
▁jerry	-7270
▁scout	-7271
▁aboard	-7272
▁atmosp	-7273
▁explos	-7274
▁kenned	-7275
▁napkin	-7276
▁queens	-7277
▁ribbon	-7278
▁samuel	-7279
tinguish	-7280
▁conceal	-7281
▁convert	-7282
▁fanning	-7283
velopment	-7284
▁hurrican	-7285
▁kangaroo	-7286
▁nintendo	-7287
▁randolph	-7288
▁barcelona	-7289
▁portuguese	-7290
▁championships	-7291
18	-7292
yo	-7293
00.	-7294
cer	-7295
hur	-7296
uro	-7297
▁(3	-7298
▁cm	-7299
asel	-7300
esco	-7301
ogne	-7302
otic	-7303
supp	-7304
tort	-7305
▁Chi	-7306
▁ank	-7307
▁cod	-7308
▁opt	-7309
▁spy	-7310
▁wes	-7311
bomba	-7312
eding	-7313
woman	-7314
▁1989	-7315
▁brig	-7316
▁cler	-7317
▁dign	-7318
▁jell	-7319
▁poop	-7320
▁radi	-7321
▁silk	-7322
corder	-7323
▁breat	-7324
▁crest	-7325
▁doors	-7326
▁hadta	-7327
▁heads	-7328
▁keith	-7329
▁scram	-7330
▁candle	-7331
▁caterp	-7332
▁connec	-7333
▁dakota	-7334
▁fantas	-7335
▁lights	-7336
▁prague	-7337
▁vienna	-7338
▁warren	-7339
▁manipur	-7340
▁organis	-7341
▁sitting	-7342
▁vietnam	-7343
▁volunte	-7344
stitution	-7345
▁darkness	-7346
▁metropol	-7347
▁proposal	-7348
▁chocolate	-7349
▁mathematic	-7350
";	-7351
abb	-7352
bob	-7353
haw	-7354
owl	-7355
rem	-7356
ube	-7357
won	-7358
▁33	-7359
▁ts	-7360
abor	-7361
aria	-7362
ival	-7363
moth	-7364
pool	-7365
▁dem	-7366
▁elf	-7367
▁fug	-7368
hange	-7369
hello	-7370
speak	-7371
▁cunn	-7372
▁loop	-7373
▁oven	-7374
▁titl	-7375
▁tune	-7376
▁wrap	-7377
▁adams	-7378
▁arose	-7379
▁boots	-7380
▁dolls	-7381
▁donke	-7382
▁oxide	-7383
▁stall	-7384
▁stirr	-7385
▁stoop	-7386
▁assess	-7387
▁explan	-7388
▁awkward	-7389
▁bridget	-7390
▁employe	-7391
▁giraffe	-7392
▁illinoi	-7393
▁seconds	-7394
▁cupboard	-7395
▁hamilton	-7396
▁merriman	-7397
▁peekaboo	-7398
▁procedur	-7399
▁butterfly	-7400
▁embarrass	-7401
▁permanent	-7402
▁strategic	-7403
▁participat	-7404
70	-7405
ao	-7406
ads	-7407
eno	-7408
sen	-7409
tre	-7410
vet	-7411
▁WH	-7412
empl	-7413
fere	-7414
poor	-7415
▁duc	-7416
▁ket	-7417
▁ore	-7418
▁sob	-7419
struc	-7420
▁berg	-7421
▁coop	-7422
▁corr	-7423
▁fuss	-7424
▁nast	-7425
▁raid	-7426
▁sher	-7427
▁tink	-7428
stinct	-7429
▁agenc	-7430
▁alden	-7431
▁alger	-7432
▁cruis	-7433
▁maple	-7434
▁spear	-7435
▁swamp	-7436
borough	-7437
▁ballet	-7438
▁forces	-7439
▁groups	-7440
▁kansas	-7441
▁marion	-7442
▁montre	-7443
▁powder	-7444
▁rocket	-7445
▁shinto	-7446
▁talkin	-7447
▁voyage	-7448
▁winnie	-7449
▁assault	-7450
▁holland	-7451
▁kidnapp	-7452
▁propose	-7453
▁rubbish	-7454
▁confeder	-7455
▁harrison	-7456
▁jonathan	-7457
▁services	-7458
dependence	-7459
▁thanksgiv	-7460
ía	-7461
ele	-7462
hol	-7463
▁"_	-7464
▁34	-7465
▁Al	-7466
ekle	-7467
ites	-7468
kind	-7469
made	-7470
stor	-7471
them	-7472
▁Mum	-7473
▁ack	-7474
▁bib	-7475
▁lev	-7476
▁oat	-7477
▁ron	-7478
anche	-7479
▁aylm	-7480
▁bolt	-7481
▁fern	-7482
▁gear	-7483
▁snak	-7484
▁trin	-7485
▁appet	-7486
▁buddy	-7487
▁explo	-7488
▁femal	-7489
▁hitch	-7490
▁murde	-7491
▁negat	-7492
▁cassow	-7493
▁temple	-7494
▁valley	-7495
▁thunder	-7496
▁turkish	-7497
▁warrant	-7498
intendent	-7499
▁argument	-7500
▁construc	-7501
▁exchange	-7502
▁occasional	-7503
12	-7504
Go	-7505
abi	-7506
ati	-7507
scu	-7508
six	-7509
yan	-7510
life	-7511
wait	-7512
wall	-7513
▁err	-7514
▁jin	-7515
▁lyn	-7516
▁meg	-7517
▁mem	-7518
▁nag	-7519
▁utt	-7520
dones	-7521
dress	-7522
ified	-7523
▁1976	-7524
▁1985	-7525
▁brew	-7526
▁cape	-7527
▁harv	-7528
▁shaw	-7529
▁tomm	-7530
▁2005.	-7531
▁beard	-7532
▁davis	-7533
▁fract	-7534
▁horiz	-7535
▁jeann	-7536
▁mammy	-7537
▁mourn	-7538
▁plead	-7539
▁ridge	-7540
▁shelf	-7541
▁zekle	-7542
▁bronze	-7543
▁parish	-7544
▁safety	-7545
▁tenant	-7546
▁terrib	-7547
▁monitor	-7548
▁randall	-7549
▁shouted	-7550
▁walking	-7551
▁daylight	-7552
▁terrible	-7553
▁williams	-7554
▁practical	-7555
▁seriously	-7556
?’	-7557
ns	-7558
00,	-7559
dea	-7560
dis	-7561
dog	-7562
ums	-7563
▁fi	-7564
edia	-7565
nver	-7566
▁179	-7567
▁Max	-7568
fresh	-7569
taken	-7570
▁brun	-7571
▁gulf	-7572
▁heel	-7573
▁jazz	-7574
▁knot	-7575
▁mild	-7576
▁ming	-7577
▁noon	-7578
velope	-7579
▁clapp	-7580
▁damag	-7581
▁empha	-7582
▁grade	-7583
▁illeg	-7584
▁pence	-7585
▁plung	-7586
▁stars	-7587
▁steer	-7588
▁wales	-7589
▁achiev	-7590
▁bitter	-7591
▁bureau	-7592
▁carter	-7593
▁educat	-7594
▁machin	-7595
▁muslim	-7596
▁orient	-7597
▁persist	-7598
▁pursuit	-7599
▁feelings	-7600
▁fighting	-7601
▁terrific	-7602
▁carefully	-7603
▁frederick	-7604
▁worldwide	-7605
iga	-7606
igo	-7607
mel	-7608
oti	-7609
pow	-7610
ryn	-7611
▁El	-7612
sted	-7613
▁HIS	-7614
▁ams	-7615
▁sul	-7616
▁yam	-7617
anger	-7618
ossil	-7619
scent	-7620
utter	-7621
▁1928	-7622
▁1982	-7623
▁erin	-7624
▁occa	-7625
▁sulf	-7626
cience	-7627
▁amaze	-7628
▁forty	-7629
▁galle	-7630
▁haste	-7631
▁joyce	-7632
▁meter	-7633
▁payne	-7634
▁pirat	-7635
▁sixty	-7636
respond	-7637
▁charit	-7638
▁comrad	-7639
▁easily	-7640
▁eighty	-7641
▁harris	-7642
▁jackie	-7643
▁saving	-7644
▁upward	-7645
▁circuit	-7646
▁sharply	-7647
▁trousers	-7648
▁hollywood	-7649
▁microsoft	-7650
▁venezuela	-7651
▁assistance	-7652
▁frightened	-7653
13	-7654
ds	-7655
aya	-7656
ndr	-7657
vot	-7658
▁80	-7659
grad	-7660
hile	-7661
tles	-7662
vour	-7663
▁loo	-7664
▁ply	-7665
▁sik	-7666
charg	-7667
isher	-7668
ssert	-7669
▁1979	-7670
▁doto	-7671
▁joan	-7672
▁minu	-7673
▁soak	-7674
▁toll	-7675
▁wink	-7676
▁flame	-7677
▁metal	-7678
▁porch	-7679
▁provi	-7680
▁socks	-7681
▁stirl	-7682
▁tenni	-7683
▁abroad	-7684
▁abrupt	-7685
▁assign	-7686
▁becket	-7687
▁berlin	-7688
▁fortun	-7689
▁highwa	-7690
▁mangan	-7691
▁minnie	-7692
▁prayer	-7693
▁ration	-7694
▁scienc	-7695
▁sodium	-7696
▁figures	-7697
▁grandad	-7698
▁neglect	-7699
▁scatter	-7700
▁princess	-7701
▁soldiers	-7702
▁triangle	-7703
lationship	-7704
▁necessary	-7705
▁principle	-7706
▁footballer	-7707
▁possibilit	-7708
iqu	-7709
oll	-7710
doll	-7711
ized	-7712
late	-7713
walk	-7714
▁cem	-7715
▁hee	-7716
▁hip	-7717
▁tat	-7718
ached	-7719
asons	-7720
cided	-7721
iggle	-7722
natur	-7723
posit	-7724
▁copp	-7725
▁diff	-7726
▁howl	-7727
▁jobs	-7728
▁slim	-7729
▁toss	-7730
little	-7731
▁drake	-7732
▁folks	-7733
▁lived	-7734
▁polar	-7735
▁terms	-7736
▁batala	-7737
▁dougla	-7738
▁issues	-7739
▁marvel	-7740
▁mcglor	-7741
▁newman	-7742
▁sports	-7743
▁nervous	-7744
▁russell	-7745
▁customer	-7746
▁legislat	-7747
eve	-7748
gul	-7749
ris	-7750
was	-7751
▁AS	-7752
arct	-7753
folk	-7754
iles	-7755
mium	-7756
oles	-7757
pton	-7758
stop	-7759
tent	-7760
▁bah	-7761
▁fol	-7762
▁lun	-7763
▁tel	-7764
diana	-7765
pered	-7766
umber	-7767
▁amid	-7768
▁brut	-7769
▁bunk	-7770
▁cats	-7771
▁claw	-7772
▁cwww	-7773
▁dude	-7774
▁mack	-7775
▁puff	-7776
▁quid	-7777
▁serb	-7778
cently	-7779
thoibi	-7780
▁bones	-7781
▁catal	-7782
▁crept	-7783
▁doggy	-7784
▁image	-7785
▁immig	-7786
▁jewel	-7787
▁lucky	-7788
▁mache	-7789
▁nativ	-7790
▁rules	-7791
▁simpl	-7792
▁singl	-7793
▁whirl	-7794
▁awhile	-7795
▁cattle	-7796
▁cheeks	-7797
▁fossil	-7798
▁gallop	-7799
▁philip	-7800
▁priest	-7801
▁sitcom	-7802
▁softly	-7803
▁summit	-7804
▁turkey	-7805
▁conspir	-7806
▁appeared	-7807
▁granddad	-7808
▁guardian	-7809
▁philosop	-7810
▁appearanc	-7811
▁continent	-7812
▁fortunate	-7813
▁statistic	-7814
▁correspond	-7815
▁handkerchief	-7816
▁metropolitan	-7817
45	-7818
75	-7819
lk	-7820
cil	-7821
ela	-7822
isc	-7823
via	-7824
▁od	-7825
dist	-7826
inge	-7827
titl	-7828
▁tai	-7829
▁alab	-7830
▁bicy	-7831
▁ceil	-7832
▁chor	-7833
▁desk	-7834
▁golf	-7835
▁josh	-7836
▁lest	-7837
▁mode	-7838
▁mwww	-7839
▁priz	-7840
▁tabl	-7841
▁wand	-7842
cember	-7843
undant	-7844
▁1994.	-7845
▁2004.	-7846
▁chris	-7847
▁marsh	-7848
▁pruss	-7849
▁shows	-7850
▁slate	-7851
▁steep	-7852
▁zebra	-7853
▁beauty	-7854
▁duches	-7855
▁duncan	-7856
▁escort	-7857
▁fasten	-7858
▁fisher	-7859
▁marble	-7860
▁memory	-7861
▁needed	-7862
▁urgent	-7863
▁volcan	-7864
▁amazing	-7865
▁jessica	-7866
▁accompan	-7867
▁activiti	-7868
▁followed	-7869
▁patience	-7870
▁argentina	-7871
▁suggestion	-7872
▁scholarship	-7873
60	-7874
Oh	-7875
arl	-7876
itu	-7877
mag	-7878
obe	-7879
thr	-7880
–19	-7881
ager	-7882
enra	-7883
etic	-7884
rich	-7885
▁bun	-7886
▁rip	-7887
▁wir	-7888
▁coco	-7889
▁crus	-7890
▁disk	-7891
▁fasc	-7892
▁lawn	-7893
▁mead	-7894
▁raft	-7895
▁wend	-7896
antern	-7897
▁bloom	-7898
▁camer	-7899
▁spons	-7900
▁appeal	-7901
▁articl	-7902
▁closet	-7903
▁easier	-7904
▁pistol	-7905
▁porter	-7906
▁smiled	-7907
▁stones	-7908
▁taylor	-7909
▁tender	-7910
▁permitt	-7911
▁seventh	-7912
▁sticker	-7913
▁venture	-7914
▁villain	-7915
▁accustom	-7916
▁behavior	-7917
▁egyptian	-7918
▁jeannine	-7919
▁swimming	-7920
▁translat	-7921
▁existence	-7922
▁historian	-7923
▁valentine	-7924
▁wednesday	-7925
25	-7926
yr	-7927
isn	-7928
lau	-7929
rey	-7930
ved	-7931
ella	-7932
emic	-7933
hens	-7934
ides	-7935
inkl	-7936
itat	-7937
maid	-7938
past	-7939
path	-7940
quet	-7941
▁Art	-7942
▁Ooh	-7943
▁Top	-7944
▁daw	-7945
▁ere	-7946
▁gem	-7947
▁oar	-7948
▁rah	-7949
▁roo	-7950
▁vow	-7951
omiya	-7952
shirt	-7953
troit	-7954
▁1972	-7955
▁1981	-7956
▁beef	-7957
▁ches	-7958
▁clay	-7959
▁hitt	-7960
▁jord	-7961
▁puma	-7962
▁ragg	-7963
employ	-7964
fortun	-7965
januar	-7966
▁gleam	-7967
▁hatch	-7968
▁older	-7969
▁panic	-7970
▁queer	-7971
▁sciss	-7972
▁trapp	-7973
▁whale	-7974
fection	-7975
vention	-7976
▁polulu	-7977
▁sequel	-7978
▁squash	-7979
▁tucker	-7980
▁academy	-7981
▁activit	-7982
▁alabama	-7983
▁capacit	-7984
▁hesitat	-7985
▁machete	-7986
▁playsta	-7987
▁academic	-7988
▁columbia	-7989
▁november	-7990
▁personal	-7991
▁potatoes	-7992
▁suitcase	-7993
▁secretary	-7994
▁electronic	-7995
▁expression	-7996
▁impossible	-7997
▁caterpillar	-7998
▁massachusetts	-7999
.)	-8000
15	-8001
uv	-8002
zi	-8003
ava	-8004
cal	-8005
jor	-8006
oba	-8007
oct	-8008
som	-8009
▁70	-8010
ivit	-8011
quis	-8012
shot	-8013
such	-8014
▁Law	-8015
▁bav	-8016
▁fad	-8017
▁rav	-8018
▁raw	-8019
▁rud	-8020
first	-8021
liber	-8022
▁atom	-8023
▁dale	-8024
▁dose	-8025
▁emer	-8026
▁hint	-8027
▁khan	-8028
▁lewi	-8029
▁lith	-8030
▁mice	-8031
▁prob	-8032
▁shep	-8033
▁solo	-8034
▁yumm	-8035
hammad	-8036
▁ethel	-8037
▁excep	-8038
▁gloom	-8039
▁haunt	-8040
▁puppy	-8041
▁purse	-8042
▁shaft	-8043
▁shill	-8044
cussion	-8045
▁approx	-8046
▁chapel	-8047
▁drawer	-8048
▁harmon	-8049
▁opened	-8050
▁penins	-8051
▁pepper	-8052
▁ramsey	-8053
▁saddle	-8054
▁theory	-8055
▁tracks	-8056
▁weasel	-8057
▁finally	-8058
▁habitat	-8059
▁october	-8060
▁qualifi	-8061
▁suicide	-8062
billboard	-8063
▁holidays	-8064
▁mushroom	-8065
▁westenra	-8066
▁construct	-8067
▁technology	-8068
▁neighborhood	-8069
_;	-8070
tw	-8071
bec	-8072
ben	-8073
equ	-8074
gro	-8075
och	-8076
pur	-8077
▁mi	-8078
east	-8079
hara	-8080
hist	-8081
lord	-8082
luct	-8083
ught	-8084
▁Boy	-8085
▁gig	-8086
▁obv	-8087
human	-8088
▁1952	-8089
▁burd	-8090
▁cure	-8091
▁leic	-8092
▁mamm	-8093
▁beans	-8094
▁bears	-8095
▁cable	-8096
▁cargo	-8097
▁crisp	-8098
▁drain	-8099
▁frock	-8100
▁gover	-8101
▁hippo	-8102
▁humor	-8103
▁logic	-8104
▁pages	-8105
▁ships	-8106
▁tommy	-8107
▁typic	-8108
▁whipp	-8109
covered	-8110
dignant	-8111
februar	-8112
licious	-8113
ordinar	-8114
▁always	-8115
▁aylmer	-8116
▁behave	-8117
▁commer	-8118
▁dreams	-8119
▁events	-8120
▁orders	-8121
▁transf	-8122
sistance	-8123
▁alcohol	-8124
▁carroll	-8125
▁curious	-8126
▁cyclist	-8127
▁lantern	-8128
▁wedding	-8129
▁altogeth	-8130
▁councill	-8131
▁farewell	-8132
▁marshall	-8133
▁officers	-8134
▁property	-8135
▁standing	-8136
▁otherwise	-8137
▁automobile	-8138
▁comfortable	-8139
▁grandfather	-8140
▁municipaliti	-8141
4:	-8142
adl	-8143
bro	-8144
got	-8145
rib	-8146
ues	-8147
uls	-8148
▁4.	-8149
▁AD	-8150
coll	-8151
dire	-8152
fair	-8153
phan	-8154
sort	-8155
volu	-8156
▁Act	-8157
▁GET	-8158
▁OUT	-8159
▁cul	-8160
▁miy	-8161
aries	-8162
clare	-8163
cycle	-8164
▁bash	-8165
▁beep	-8166
▁clip	-8167
▁doom	-8168
▁gill	-8169
▁mant	-8170
▁pett	-8171
▁rodr	-8172
▁sunk	-8173
▁teas	-8174
monstr	-8175
▁1996.	-8176
▁burnt	-8177
▁cheat	-8178
▁goose	-8179
▁johan	-8180
▁onion	-8181
▁parts	-8182
▁pluck	-8183
▁rider	-8184
▁seabr	-8185
▁solve	-8186
▁stain	-8187
▁surve	-8188
▁vague	-8189
▁verse	-8190
▁acknow	-8191
▁bricks	-8192
▁confes	-8193
▁ethnic	-8194
▁franci	-8195
▁fridge	-8196
▁jersey	-8197
▁parall	-8198
▁paraly	-8199
▁snatch	-8200
▁stroll	-8201
▁vanish	-8202
▁consent	-8203
▁lecture	-8204
▁library	-8205
▁shelter	-8206
▁sisters	-8207
quirement	-8208
▁meantime	-8209
▁shopping	-8210
▁louisiana	-8211
▁agricultur	-8212
▁atmosphere	-8213
▁helicopter	-8214
35	-8215
erb	-8216
him	-8217
iba	-8218
ades	-8219
ored	-8220
umph	-8221
▁Him	-8222
▁Ten	-8223
▁aub	-8224
▁del	-8225
▁lee	-8226
arest	-8227
march	-8228
stick	-8229
ually	-8230
▁1941	-8231
▁1974	-8232
▁bits	-8233
▁cudd	-8234
▁froz	-8235
▁glue	-8236
▁gosh	-8237
▁harp	-8238
▁humm	-8239
▁jest	-8240
▁joel	-8241
▁loca	-8242
▁powd	-8243
▁webs	-8244
mocrac	-8245
strong	-8246
vasion	-8247
▁2003.	-8248
▁2005,	-8249
▁alert	-8250
▁bloke	-8251
▁diego	-8252
▁fever	-8253
▁henry	-8254
▁hindu	-8255
▁julie	-8256
▁katie	-8257
▁luxur	-8258
▁rhyth	-8259
▁scoop	-8260
▁shade	-8261
inomiya	-8262
ography	-8263
▁bounce	-8264
▁collap	-8265
▁faster	-8266
▁franch	-8267
▁kettle	-8268
▁lately	-8269
▁shield	-8270
▁stress	-8271
▁bandage	-8272
▁cookies	-8273
▁driving	-8274
▁graphic	-8275
▁iranian	-8276
▁exciting	-8277
▁festival	-8278
▁opponent	-8279
▁parallel	-8280
▁cambridge	-8281
▁complaint	-8282
▁peninsula	-8283
▁collection	-8284
▁0	-8285
cit	-8286
eri	-8287
iah	-8288
▁42	-8289
▁BO	-8290
▁ug	-8291
▁wy	-8292
'...	-8293
bear	-8294
mill	-8295
pack	-8296
▁ONE	-8297
▁cak	-8298
▁fri	-8299
▁hyp	-8300
▁lam	-8301
▁tag	-8302
▁tch	-8303
▁tok	-8304
▁vul	-8305
▁yay	-8306
aches	-8307
chuck	-8308
erton	-8309
etera	-8310
ghurt	-8311
itial	-8312
lativ	-8313
▁1939	-8314
▁1942	-8315
▁1984	-8316
▁circ	-8317
▁gina	-8318
▁hers	-8319
▁leak	-8320
▁loki	-8321
▁rack	-8322
▁1995.	-8323
▁2003,	-8324
▁billy	-8325
▁cowbo	-8326
▁yield	-8327
▁amanda	-8328
▁bewild	-8329
▁cities	-8330
▁collar	-8331
▁compre	-8332
▁jordan	-8333
▁permit	-8334
▁spider	-8335
▁sugges	-8336
▁tackle	-8337
▁breathe	-8338
▁compens	-8339
▁crayons	-8340
▁edition	-8341
▁follows	-8342
▁leaving	-8343
▁majesty	-8344
▁matches	-8345
▁schedul	-8346
▁tourist	-8347
▁website	-8348
▁yoghurt	-8349
▁contrast	-8350
▁merchant	-8351
▁speaking	-8352
▁training	-8353
frigerator	-8354
▁hurricane	-8355
▁ukrainian	-8356
▁conscience	-8357
▁controvers	-8358
▁councillor	-8359
▁association	-8360
▁consideration	-8361
7:	-8362
8:	-8363
eh	-8364
dat	-8365
epl	-8366
fec	-8367
fle	-8368
hou	-8369
jud	-8370
mus	-8371
ohn	-8372
viv	-8373
chat	-8374
phon	-8375
▁dal	-8376
▁kap	-8377
▁oxy	-8378
▁saf	-8379
▁tad	-8380
grace	-8381
ngeun	-8382
sting	-8383
▁crop	-8384
▁fert	-8385
▁iowa	-8386
▁lind	-8387
▁peas	-8388
▁pete	-8389
▁semi	-8390
▁spit	-8391
▁sult	-8392
▁tire	-8393
▁whar	-8394
bourne	-8395
enburg	-8396
▁2004,	-8397
▁fraud	-8398
▁frown	-8399
▁grann	-8400
▁kings	-8401
▁melod	-8402
▁miche	-8403
▁topic	-8404
▁tumbl	-8405
▁turbo	-8406
▁circus	-8407
▁crouch	-8408
▁danish	-8409
▁gaston	-8410
▁higher	-8411
▁hunter	-8412
▁nicely	-8413
▁glasses	-8414
▁gravely	-8415
▁jealous	-8416
▁colombia	-8417
▁concentr	-8418
▁contempt	-8419
▁plymouth	-8420
▁youngeun	-8421
▁certainly	-8422
▁elsewhere	-8423
▁greenbelt	-8424
▁seabrooke	-8425
▁territory	-8426
fortunately	-8427
▁concentrat	-8428
sn	-8429
ui	-8430
ér	-8431
.'"	-8432
cop	-8433
iac	-8434
oft	-8435
sam	-8436
shū	-8437
tom	-8438
▁Ed	-8439
care	-8440
crow	-8441
fens	-8442
icut	-8443
lant	-8444
oust	-8445
rade	-8446
ring	-8447
▁kay	-8448
▁rop	-8449
▁tas	-8450
april	-8451
eight	-8452
herit	-8453
▁1945	-8454
▁1956	-8455
▁1969	-8456
▁fist	-8457
▁haul	-8458
▁jerk	-8459
▁kirk	-8460
▁rasc	-8461
▁spid	-8462
▁trif	-8463
atical	-8464
august	-8465
▁1999.	-8466
▁adapt	-8467
▁analy	-8468
▁belov	-8469
▁cooki	-8470
▁linda	-8471
▁moore	-8472
▁nearb	-8473
▁toxic	-8474
▁veter	-8475
▁vigil	-8476
▁anthon	-8477
▁bertie	-8478
▁cinema	-8479
▁helmet	-8480
▁medium	-8481
▁parade	-8482
▁parlor	-8483
▁propor	-8484
▁sample	-8485
▁sophie	-8486
▁summon	-8487
▁vacanc	-8488
▁wacker	-8489
▁welcom	-8490
▁categor	-8491
▁nursery	-8492
▁pleased	-8493
▁tuesday	-8494
▁typical	-8495
▁location	-8496
▁richards	-8497
▁structur	-8498
ichinomiya	-8499
▁differenc	-8500
▁explained	-8501
▁grandfath	-8502
▁accomplish	-8503
▁approximate	-8504
▁grandmother	-8505
▁extraordinar	-8506
▁£	-8507
7).	-8508
cas	-8509
fam	-8510
jec	-8511
oca	-8512
osi	-8513
rum	-8514
▁dy	-8515
▁wi	-8516
,...	-8517
girl	-8518
lace	-8519
oons	-8520
rage	-8521
sorb	-8522
▁Ray	-8523
▁Sun	-8524
▁bou	-8525
▁clo	-8526
▁hou	-8527
▁iii	-8528
▁mit	-8529
bound	-8530
build	-8531
ences	-8532
organ	-8533
usual	-8534
▁1932	-8535
▁1978	-8536
▁andy	-8537
▁beds	-8538
▁clin	-8539
▁dipl	-8540
▁irre	-8541
▁luca	-8542
▁moan	-8543
▁plug	-8544
▁rott	-8545
▁sean	-8546
▁socc	-8547
▁sust	-8548
▁tore	-8549
▁utah	-8550
▁wail	-8551
▁weed	-8552
escend	-8553
giment	-8554
stream	-8555
volved	-8556
▁2000.	-8557
▁chips	-8558
▁circl	-8559
▁clark	-8560
▁hasti	-8561
▁leath	-8562
▁quack	-8563
▁scrub	-8564
▁semin	-8565
▁shrie	-8566
▁strok	-8567
▁access	-8568
▁alumin	-8569
▁behalf	-8570
▁hadley	-8571
▁leslie	-8572
▁opposi	-8573
▁robber	-8574
▁snakes	-8575
▁specim	-8576
▁statue	-8577
▁survey	-8578
▁thread	-8579
▁voices	-8580
▁anxious	-8581
▁broadwa	-8582
▁buttons	-8583
▁explore	-8584
▁freight	-8585
▁garbage	-8586
▁sponsor	-8587
▁triumph	-8588
▁wickham	-8589
▁athletic	-8590
▁probably	-8591
▁students	-8592
▁thoughts	-8593
▁wednesda	-8594
▁wrestler	-8595
▁authority	-8596
▁effective	-8597
▁panthoibi	-8598
▁philosoph	-8599
▁consistent	-8600
▁connecticut	-8601
▁illustrated	-8602
AD	-8603
FC	-8604
ku	-8605
ux	-8606
▁é	-8607
isi	-8608
pat	-8609
pri	-8610
hend	-8611
hous	-8612
june	-8613
ocat	-8614
papa	-8615
▁CAN	-8616
▁aqu	-8617
▁dub	-8618
▁kam	-8619
▁kan	-8620
atell	-8621
emies	-8622
gines	-8623
mptom	-8624
▁1931	-8625
▁1947	-8626
▁1957	-8627
▁bind	-8628
▁deer	-8629
▁ease	-8630
▁fled	-8631
▁hack	-8632
▁mini	-8633
▁peel	-8634
castle	-8635
design	-8636
erella	-8637
keeper	-8638
people	-8639
strain	-8640
▁abino	-8641
▁alleg	-8642
▁blond	-8643
▁colin	-8644
▁grinn	-8645
▁johnn	-8646
▁panda	-8647
▁timid	-8648
duction	-8649
▁airlin	-8650
▁conclu	-8651
▁needle	-8652
▁squeak	-8653
▁stuart	-8654
▁chronic	-8655
▁cortana	-8656
▁cushion	-8657
▁earthqu	-8658
▁facilit	-8659
▁fireman	-8660
▁oakdale	-8661
▁primari	-8662
▁scrambl	-8663
▁alliance	-8664
▁composer	-8665
▁dreadful	-8666
▁goodness	-8667
▁robinson	-8668
▁whispered	-8669
▁compliment	-8670
▁arrangement	-8671
At	-8672
bc	-8673
▁í	-8674
iji	-8675
pit	-8676
vic	-8677
–20	-8678
▁dw	-8679
▁ny	-8680
ceip	-8681
ingo	-8682
john	-8683
▁jen	-8684
▁pee	-8685
▁pub	-8686
▁ski	-8687
oxide	-8688
sults	-8689
▁1943	-8690
▁bapt	-8691
▁carn	-8692
▁clan	-8693
▁cole	-8694
▁doub	-8695
▁esth	-8696
▁hath	-8697
▁impr	-8698
▁kate	-8699
▁mock	-8700
▁mull	-8701
▁shru	-8702
▁tipp	-8703
consin	-8704
gannet	-8705
hattan	-8706
rifice	-8707
▁angri	-8708
▁boats	-8709
▁bruce	-8710
▁brute	-8711
▁flock	-8712
▁griev	-8713
▁harsh	-8714
▁jacob	-8715
▁julia	-8716
▁moist	-8717
▁negro	-8718
▁nerve	-8719
▁oscar	-8720
▁pearl	-8721
▁skull	-8722
▁tickl	-8723
▁torch	-8724
▁assent	-8725
▁clouds	-8726
▁clutch	-8727
▁grocer	-8728
▁jingle	-8729
▁nichol	-8730
▁orphan	-8731
▁sweden	-8732
▁thrash	-8733
▁ursula	-8734
habitant	-8735
▁headhun	-8736
▁selfish	-8737
▁sustain	-8738
▁expected	-8739
▁sometime	-8740
▁thursday	-8741
▁vegetabl	-8742
▁automatic	-8743
▁wisconsin	-8744
▁immediately	-8745
22	-8746
6:	-8747
9:	-8748
át	-8749
agu	-8750
cru	-8751
jab	-8752
lan	-8753
sar	-8754
sig	-8755
card	-8756
eare	-8757
enci	-8758
give	-8759
icit	-8760
inia	-8761
make	-8762
onym	-8763
tegr	-8764
wart	-8765
▁Dan	-8766
▁Don	-8767
▁edi	-8768
▁emm	-8769
▁lak	-8770
▁mah	-8771
▁mun	-8772
▁naz	-8773
eland	-8774
guard	-8775
▁1927	-8776
▁1958	-8777
▁1966	-8778
▁1968	-8779
▁1973	-8780
▁bras	-8781
▁dodg	-8782
▁fran	-8783
▁glen	-8784
▁hopp	-8785
▁hymn	-8786
▁lent	-8787
▁soda	-8788
▁tart	-8789
▁ther	-8790
▁todd	-8791
▁tube	-8792
▁tumm	-8793
ension	-8794
erness	-8795
▁1990.	-8796
▁1992.	-8797
▁1998.	-8798
▁2001.	-8799
▁attic	-8800
▁brisk	-8801
▁freak	-8802
▁handl	-8803
▁janet	-8804
▁sally	-8805
▁scoot	-8806
▁shipp	-8807
▁vault	-8808
ception	-8809
cording	-8810
mission	-8811
▁absorb	-8812
▁chuckl	-8813
▁claire	-8814
▁crayle	-8815
▁ninety	-8816
▁ventur	-8817
▁wheels	-8818
▁bargain	-8819
▁chamber	-8820
▁cooking	-8821
▁doorway	-8822
▁fishing	-8823
▁gallant	-8824
▁meaning	-8825
▁quarrel	-8826
▁treasur	-8827
▁victory	-8828
habitants	-8829
▁advertis	-8830
▁brooklyn	-8831
▁programs	-8832
▁troubles	-8833
▁highchair	-8834
▁professional	-8835
gt	-8836
iki	-8837
med	-8838
mrs	-8839
oki	-8840
▁UC	-8841
▁oy	-8842
acht	-8843
alis	-8844
fine	-8845
gium	-8846
illo	-8847
phin	-8848
stad	-8849
▁cau	-8850
▁nah	-8851
▁paj	-8852
▁pel	-8853
▁wig	-8854
monst	-8855
relat	-8856
ssing	-8857
still	-8858
water	-8859
▁1967	-8860
▁birm	-8861
▁dill	-8862
▁gand	-8863
▁gaze	-8864
▁gymn	-8865
▁hawa	-8866
▁hoof	-8867
▁luke	-8868
▁pity	-8869
▁rous	-8870
▁stur	-8871
▁yang	-8872
ergart	-8873
wegian	-8874
▁broom	-8875
▁niger	-8876
▁saxon	-8877
▁thund	-8878
▁vigor	-8879
ability	-8880
tingham	-8881
▁accent	-8882
▁bacter	-8883
▁breeze	-8884
▁cromer	-8885
▁hallow	-8886
▁hartle	-8887
▁hautes	-8888
▁nearer	-8889
▁nothin	-8890
▁puppet	-8891
▁therap	-8892
atherine	-8893
▁affairs	-8894
▁bavaria	-8895
▁bicycle	-8896
▁bubbles	-8897
▁buffalo	-8898
▁clarice	-8899
▁combina	-8900
▁compete	-8901
▁sausage	-8902
▁slipper	-8903
▁suspend	-8904
▁footstep	-8905
▁purchase	-8906
▁commander	-8907
▁fireplace	-8908
▁grandmoth	-8909
▁hesitated	-8910
▁listening	-8911
▁manhattan	-8912
tertainment	-8913
▁birmingham	-8914
▁netherlands	-8915
rr	-8916
té	-8917
vy	-8918
—”	-8919
――	-8920
aba	-8921
ajo	-8922
asi	-8923
ffl	-8924
iva	-8925
run	-8926
utt	-8927
von	-8928
▁IV	-8929
▁OR	-8930
arth	-8931
gate	-8932
hall	-8933
mote	-8934
rane	-8935
▁(17	-8936
▁500	-8937
▁Far	-8938
▁Hap	-8939
▁Hey	-8940
▁abc	-8941
▁amp	-8942
▁emi	-8943
▁esp	-8944
▁señ	-8945
▁suk	-8946
▁uru	-8947
▁vib	-8948
elect	-8949
smith	-8950
▁bald	-8951
▁bead	-8952
▁benn	-8953
▁cope	-8954
▁earl	-8955
▁evac	-8956
▁gree	-8957
▁hugg	-8958
▁nana	-8959
▁nipp	-8960
▁plum	-8961
▁sard	-8962
▁sole	-8963
▁uhuh	-8964
▁volt	-8965
▁welf	-8966
clared	-8967
levant	-8968
▁anger	-8969
▁archa	-8970
▁galax	-8971
▁grabb	-8972
▁gramm	-8973
▁lucas	-8974
▁prair	-8975
▁proce	-8976
▁quote	-8977
▁slope	-8978
▁smugg	-8979
▁troph	-8980
▁willn	-8981
inburgh	-8982
▁across	-8983
▁archie	-8984
▁explod	-8985
▁fields	-8986
▁negoti	-8987
▁norman	-8988
▁notion	-8989
▁rattle	-8990
▁roland	-8991
▁slaves	-8992
▁transl	-8993
▁builder	-8994
▁butcher	-8995
▁commenc	-8996
▁creatur	-8997
▁dimmock	-8998
▁elector	-8999
▁gentlem	-9000
▁leicest	-9001
▁minchin	-9002
▁persian	-9003
▁players	-9004
▁quality	-9005
▁session	-9006
▁seventy	-9007
▁symptom	-9008
▁workers	-9009
▁challeng	-9010
▁headache	-9011
▁richmond	-9012
▁fortnight	-9013
▁laborator	-9014
▁mcdonalds	-9015
▁cinderella	-9016
▁companions	-9017
▁nottingham	-9018
▁manufacture	-9019
BS	-9020
OW	-9021
mu	-9022
▁/	-9023
200	-9024
avi	-9025
bad	-9026
odd	-9027
oen	-9028
rov	-9029
zie	-9030
ère	-9031
▁49	-9032
▁6.	-9033
▁VI	-9034
anim	-9035
fini	-9036
ovak	-9037
rete	-9038
ures	-9039
▁181	-9040
▁Aye	-9041
▁III	-9042
▁der	-9043
▁dil	-9044
▁ker	-9045
▁mul	-9046
▁nel	-9047
▁siz	-9048
great	-9049
ilies	-9050
opard	-9051
▁1946	-9052
▁1962	-9053
▁1975	-9054
▁brow	-9055
▁core	-9056
▁dwar	-9057
▁gene	-9058
▁hawk	-9059
▁heal	-9060
▁limp	-9061
▁obey	-9062
▁stem	-9063
covery	-9064
ically	-9065
person	-9066
▁abbre	-9067
▁blink	-9068
▁cents	-9069
▁grief	-9070
▁paddl	-9071
▁parad	-9072
▁patri	-9073
▁stake	-9074
▁turke	-9075
uscript	-9076
▁absent	-9077
▁birdie	-9078
▁diplom	-9079
▁packet	-9080
▁shovel	-9081
▁shriek	-9082
▁strait	-9083
▁utmost	-9084
iversiti	-9085
▁literal	-9086
▁mallory	-9087
▁popcorn	-9088
▁privile	-9089
▁pumpkin	-9090
▁weapons	-9091
▁appetite	-9092
▁cautious	-9093
▁ejaculat	-9094
▁katherine	-9095
▁manganese	-9096
▁norwegian	-9097
▁sacrifice	-9098
▁characters	-9099
▁kindergart	-9100
▁manuscript	-9101
▁nevertheless	-9102
,,	-9103
39	-9104
”!	-9105
aco	-9106
agi	-9107
ede	-9108
eer	-9109
fil	-9110
mir	-9111
pil	-9112
▁45	-9113
▁Am	-9114
▁IF	-9115
▁SE	-9116
cise	-9117
ichi	-9118
onto	-9119
othe	-9120
word	-9121
▁Ice	-9122
▁WHO	-9123
▁ais	-9124
▁dee	-9125
▁ole	-9126
▁rev	-9127
▁sak	-9128
▁tyl	-9129
▁wür	-9130
claim	-9131
oslav	-9132
store	-9133
▁1948	-9134
▁babe	-9135
▁graz	-9136
▁gunn	-9137
▁july	-9138
▁karl	-9139
▁maur	-9140
▁moor	-9141
▁muck	-9142
▁rhod	-9143
▁sull	-9144
▁vest	-9145
assium	-9146
bessie	-9147
commun	-9148
course	-9149
father	-9150
ushima	-9151
▁1993.	-9152
▁2002,	-9153
▁2002.	-9154
▁boast	-9155
▁chalk	-9156
▁freed	-9157
▁milit	-9158
▁nowad	-9159
▁penel	-9160
▁penet	-9161
▁pitts	-9162
▁rosie	-9163
▁salad	-9164
▁trash	-9165
▁wrist	-9166
ershire	-9167
ingthou	-9168
tention	-9169
▁agenda	-9170
▁bartow	-9171
▁bundle	-9172
▁circul	-9173
▁consum	-9174
▁divide	-9175
▁formal	-9176
▁harvey	-9177
▁oregon	-9178
▁ronald	-9179
▁sensit	-9180
▁suppor	-9181
▁hunting	-9182
▁melissa	-9183
▁organic	-9184
▁surgeon	-9185
▁magnific	-9186
▁satisfac	-9187
▁schedule	-9188
▁secondar	-9189
▁sequence	-9190
▁würzburg	-9191
▁backwards	-9192
▁northwest	-9193
▁motorcycle	-9194
16	-9195
edo	-9196
hot	-9197
lhi	-9198
lon	-9199
whe	-9200
▁DV	-9201
▁OH	-9202
cade	-9203
elle	-9204
eper	-9205
fold	-9206
herd	-9207
hero	-9208
lett	-9209
mart	-9210
want	-9211
wash	-9212
were	-9213
▁400	-9214
▁HER	-9215
▁HOW	-9216
▁fic	-9217
▁fid	-9218
▁goo	-9219
▁kaz	-9220
▁lur	-9221
▁vas	-9222
▁vio	-9223
ashed	-9224
ateur	-9225
black	-9226
ening	-9227
octob	-9228
oline	-9229
point	-9230
▁1929	-9231
▁1936	-9232
▁1954	-9233
▁1983	-9234
▁awak	-9235
▁blam	-9236
▁clam	-9237
▁dive	-9238
▁greg	-9239
▁grey	-9240
▁lame	-9241
▁lena	-9242
▁lorr	-9243
▁pall	-9244
▁shat	-9245
▁spar	-9246
▁sway	-9247
▁1997.	-9248
▁afore	-9249
▁arena	-9250
▁bacon	-9251
▁belly	-9252
▁corre	-9253
▁ducks	-9254
▁exhib	-9255
▁exped	-9256
▁lifet	-9257
▁lover	-9258
▁mercy	-9259
▁mingl	-9260
▁mound	-9261
▁ninth	-9262
▁scold	-9263
▁smack	-9264
▁tyler	-9265
cipline	-9266
suppose	-9267
▁aeropl	-9268
▁apples	-9269
▁assass	-9270
▁bushes	-9271
▁cancel	-9272
▁cobalt	-9273
▁kitten	-9274
▁landsc	-9275
▁lonely	-9276
▁lookin	-9277
▁morgan	-9278
▁navajo	-9279
▁sultan	-9280
▁tuesda	-9281
▁vehicl	-9282
▁violet	-9283
paration	-9284
pression	-9285
▁compell	-9286
▁divorce	-9287
▁douglas	-9288
▁dynasty	-9289
▁grammar	-9290
▁messeng	-9291
▁pudding	-9292
▁torture	-9293
▁welfare	-9294
▁doughnut	-9295
▁helicopt	-9296
▁pandemic	-9297
▁portugal	-9298
▁basically	-9299
▁gratitude	-9300
▁liverpool	-9301
▁potassium	-9302
▁earthquake	-9303
▁queensland	-9304
▁opportunity	-9305
aga	-9306
bee	-9307
bes	-9308
big	-9309
dur	-9310
iro	-9311
sby	-9312
▁$1	-9313
▁ki	-9314
ando	-9315
anta	-9316
essa	-9317
horn	-9318
ront	-9319
ving	-9320
▁fli	-9321
▁fry	-9322
▁inc	-9323
▁mmm	-9324
▁sue	-9325
doubt	-9326
mamma	-9327
volve	-9328
▁1944	-9329
▁1955	-9330
▁1961	-9331
▁1977	-9332
▁abor	-9333
▁agon	-9334
▁crea	-9335
▁curt	-9336
▁dese	-9337
▁dict	-9338
▁flee	-9339
▁lair	-9340
▁mick	-9341
▁neut	-9342
▁sacr	-9343
▁scul	-9344
▁shud	-9345
▁sobb	-9346
▁tatt	-9347
atlant	-9348
novemb	-9349
sionar	-9350
someth	-9351
▁(2020	-9352
▁1991.	-9353
▁accel	-9354
▁alike	-9355
▁armen	-9356
▁bruis	-9357
▁chatt	-9358
▁daint	-9359
▁doubl	-9360
▁grain	-9361
▁hedge	-9362
▁irrit	-9363
▁metro	-9364
▁ordin	-9365
▁plebe	-9366
▁potty	-9367
▁teams	-9368
amation	-9369
sperate	-9370
▁bomber	-9371
▁donkey	-9372
▁eighth	-9373
▁expedi	-9374
▁founda	-9375
▁psycho	-9376
▁sunset	-9377
▁traged	-9378
glishman	-9379
▁applica	-9380
▁belgium	-9381
▁consump	-9382
▁extinct	-9383
▁gesture	-9384
▁hamburg	-9385
▁horizon	-9386
▁parties	-9387
▁private	-9388
▁storage	-9389
▁toronto	-9390
escendune	-9391
▁ancestor	-9392
▁civilian	-9393
▁dramatic	-9394
▁eighteen	-9395
▁amendment	-9396
▁anxiously	-9397
▁conscious	-9398
▁criticism	-9399
▁melbourne	-9400
▁signature	-9401
▁production	-9402
47	-9403
65	-9404
EW	-9405
ál	-9406
ão	-9407
”?	-9408
cep	-9409
ids	-9410
suc	-9411
tti	-9412
anic	-9413
omen	-9414
rell	-9415
spec	-9416
sume	-9417
surd	-9418
▁Mia	-9419
▁aur	-9420
▁bog	-9421
▁bri	-9422
▁jay	-9423
▁nay	-9424
▁syl	-9425
▁tet	-9426
cline	-9427
corat	-9428
erbai	-9429
impse	-9430
thing	-9431
▁1933	-9432
▁abbe	-9433
▁cone	-9434
▁guil	-9435
▁hamp	-9436
▁hush	-9437
▁lads	-9438
▁mist	-9439
▁owen	-9440
▁phen	-9441
▁remi	-9442
▁riot	-9443
▁stub	-9444
▁swam	-9445
▁vaug	-9446
alogue	-9447
▁battl	-9448
▁bridg	-9449
▁carlo	-9450
▁fanci	-9451
▁given	-9452
▁grump	-9453
▁imple	-9454
▁lyric	-9455
▁	-9456
e	-9457
t	-9458
a	-9459
o	-9460
n	-9461
i	-9462
s	-9463
h	-9464
r	-9465
l	-9466
d	-9467
u	-9468
m	-9469
y	-9470
w	-9471
c	-9472
g	-9473
.	-9474
f	-9475
p	-9476
b	-9477
,	-9478
k	-9479
v	-9480
'	-9481
I	-9482
"	-9483
?	-9484
x	-9485
j	-9486
-	-9487
1	-9488
2	-9489
0	-9490
T	-9491
!	-9492
A	-9493
9	-9494
H	-9495
z	-9496
q	-9497
S	-9498
O	-9499
(	-9500
)	-9501
“	-9502
’	-9503
”	-9504
8	-9505
;	-9506
N	-9507
Y	-9508
B	-9509
M	-9510
3	-9511
5	-9512
7	-9513
6	-9514
:	-9515
4	-9516
W	-9517
E	-9518
_	-9519
D	-9520
C	-9521
F	-9522
G	-9523
*	-9524
L	-9525
U	-9526
–	-9527
[	-9528
]	-9529
R	-9530
P	-9531
=	-9532
J	-9533
/	-9534
♪	-9535
‘	-9536
é	-9537
V	-9538
á	-9539
—	-9540
K	-9541
%	-9542
í	-9543
&	-9544
ó	-9545
X	-9546
$	-9547
#	-9548
`	-9549
ü	-9550
ō	-9551
ä	-9552
ö	-9553
ú	-9554
è	-9555
ñ	-9556
ū	-9557
Z	-9558
ā	-9559
°	-9560
+	-9561
Q	-9562
―	-9563
â	-9564
~	-9565
ł	-9566
ć	-9567
ç	-9568
č	-9569
£	-9570
š	-9571
′	-9572
ê	-9573
ã	-9574
ô	-9575
æ	-9576
¶	-9577
ī	-9578
}	-9579
{	-9580
à	-9581
å	-9582
♫	-9583
ń	-9584
↫	-9585
­	-9586
	-9587
ø	-9588
ă	-9589
ß	-9590
ë	-9591
ž	-9592
ʼ	-9593
ò	-9594
ś	-9595
î	-9596
•	-9597
¡	-9598
ř	-9599
ː	-9600
ě	-9601
×	-9602
ĕ	-9603
ő	-9604
ì	-9605
ş	-9606
ż	-9607
û	-9608
ğ	-9609
ı	-9610
œ	-9611
ˈ	-9612
−	-9613
·	-9614
ï	-9615
đ	-9616
ə	-9617
ý	-9618
ą	-9619
ź	-9620
⟨	-9621
⟩	-9622
@	-9623
|	-9624
õ	-9625
ș	-9626
^	-9627
ù	-9628
ę	-9629
ň	-9630
̇	-9631
\	-9632
¿	-9633
ē	-9634
ů	-9635
€	-9636
ɪ	-9637
ṭ	-9638
█	-9639
ð	-9640
ġ	-9641
Ō	-9642
ʌ	-9643
་	-9644
ḥ	-9645
⁄	-9646
į	-9647
ņ	-9648
ț	-9649
ễ	-9650
‚	-9651
∂	-9652
¦	-9653
ĭ	-9654
ɐ	-9655
ɑ	-9656
ɛ	-9657
ɩ	-9658
ʊ	-9659
ʻ	-9660
ʿ	-9661
	-9662
	-9663
	-9664
À	-9665
Å	-9666
Ö	-9667
Ü	-9668
þ	-9669
Đ	-9670
ė	-9671
ħ	-9672
ľ	-9673
ţ	-9674
ǁ	-9675
ǒ	-9676
ǔ	-9677
ʃ	-9678
ʒ	-9679
ʾ	-9680
ˌ	-9681
ṣ	-9682
ầ	-9683
ọ	-9684
ữ	-9685
†	-9686
∴	-9687
ー	-9688
	-9689
	-9690
§	-9691
©	-9692
±	-9693
Á	-9694
Ä	-9695
Æ	-9696
Ç	-9697
É	-9698
Ù	-9699
ÿ	-9700
ď	-9701
Ĥ	-9702
İ	-9703
ķ	-9704
ĺ	-9705
ļ	-9706
Ł	-9707
ŋ	-9708
ŏ	-9709
ơ	-9710
ư	-9711
ɨ	-9712
ɷ	-9713
ʁ	-9714
ʑ	-9715
˥	-9716
˨	-9717
˩	-9718
۰	-9719
ḷ	-9720
ṃ	-9721
ṅ	-9722
ạ	-9723
ả	-9724
ề	-9725
ệ	-9726
ỗ	-9727
ộ	-9728
ờ	-9729
ủ	-9730
ứ	-9731
„	-9732
₹	-9733
→	-9734
≈	-9735
☚	-9736
☛	-9737
􏿾	-9738
